{
  "merges": [
    [
      "ৰ",
      "</w>"
    ],
    [
      "া",
      "</w>"
    ],
    [
      "ে",
      "</w>"
    ],
    [
      "ত",
      "</w>"
    ],
    [
      "য",
      "়"
    ],
    [
      "।",
      "</w>"
    ],
    [
      "্",
      "ৰ"
    ],
    [
      "ক",
      "ৰ"
    ],
    [
      "া",
      "ৰ"
    ],
    [
      "ি",
      "ল"
    ],
    [
      "ন",
      "</w>"
    ],
    [
      "ক",
      "</w>"
    ],
    [
      "া",
      "ৰ</w>"
    ],
    [
      "্",
      "য"
    ],
    [
      "ি",
      "</w>"
    ],
    [
      "ছ",
      "িল"
    ],
    [
      "ু",
      "</w>"
    ],
    [
      "আ",
      "ৰ"
    ],
    [
      "ব",
      "ি"
    ],
    [
      "ন",
      "্"
    ],
    [
      "আৰ",
      "ু</w>"
    ],
    [
      "প",
      "্ৰ"
    ],
    [
      "ব",
      "া"
    ],
    [
      ",",
      "</w>"
    ],
    [
      "ৰ",
      "্"
    ],
    [
      "ছিল",
      "।</w>"
    ],
    [
      "ই",
      "</w>"
    ],
    [
      "প",
      "ৰ"
    ],
    [
      "ম",
      "া"
    ],
    [
      "স",
      "্"
    ],
    [
      "্",
      "ট"
    ],
    [
      "হ",
      "ৈ"
    ],
    [
      "ি",
      "য়"
    ],
    [
      "ত",
      "ে"
    ],
    [
      "ৰ",
      "া"
    ],
    [
      "ী",
      "</w>"
    ],
    [
      "কৰ",
      "ি"
    ],
    [
      "ো",
      "</w>"
    ],
    [
      "ন",
      "ি"
    ],
    [
      "ৈ",
      "</w>"
    ],
    [
      "স",
      "ম"
    ],
    [
      "ে",
      "।</w>"
    ],
    [
      "া",
      "ল"
    ],
    [
      "ও",
      "ঁ"
    ],
    [
      "তে",
      "ওঁ"
    ],
    [
      "ন",
      "ৰ</w>"
    ],
    [
      "ন",
      "া"
    ],
    [
      "ষ",
      "্ট"
    ],
    [
      "ো",
      "ৱ"
    ],
    [
      "ত",
      "ি"
    ],
    [
      "য়",
      "</w>"
    ],
    [
      "্",
      "ব"
    ],
    [
      "ল",
      "</w>"
    ],
    [
      "ক",
      "া"
    ],
    [
      "প",
      "া"
    ],
    [
      "কৰ",
      "া</w>"
    ],
    [
      "ত",
      "ে</w>"
    ],
    [
      "ক",
      "ল"
    ],
    [
      "ণ",
      "</w>"
    ],
    [
      "ম",
      "</w>"
    ],
    [
      "ল",
      "া"
    ],
    [
      "ভ",
      "া"
    ],
    [
      "ল",
      "ৈ</w>"
    ],
    [
      "ি",
      "ত</w>"
    ],
    [
      "ক",
      "ে"
    ],
    [
      "ট",
      "া</w>"
    ],
    [
      "ি",
      "ত"
    ],
    [
      "ব",
      "</w>"
    ],
    [
      "ট",
      "ো</w>"
    ],
    [
      "্",
      "ড"
    ],
    [
      "ি",
      "ক</w>"
    ],
    [
      "ক",
      "ি"
    ],
    [
      "স",
      "া"
    ],
    [
      "ে",
      "ল"
    ],
    [
      "ছ",
      "ে</w>"
    ],
    [
      "দ",
      "ি"
    ],
    [
      "থ",
      "া"
    ],
    [
      "ন",
      "ত</w>"
    ],
    [
      "হ",
      "ি"
    ],
    [
      "্য",
      "</w>"
    ],
    [
      "বা",
      "ব"
    ],
    [
      "প",
      "ু"
    ],
    [
      "ছিল",
      "</w>"
    ],
    [
      "স",
      "কল"
    ],
    [
      "ন্",
      "ত"
    ],
    [
      "ম",
      "্"
    ],
    [
      "ল",
      "ো"
    ],
    [
      "ো",
      "ৰ</w>"
    ],
    [
      "বাব",
      "ে</w>"
    ],
    [
      "স",
      "ং"
    ],
    [
      "ণ",
      "্ড"
    ],
    [
      "ম",
      "ে"
    ],
    [
      "ন",
      "ু"
    ],
    [
      "হৈ",
      "ছিল।</w>"
    ],
    [
      "া",
      "ই"
    ],
    [
      "কৰি",
      "ছিল।</w>"
    ],
    [
      "ক",
      "াৰ"
    ],
    [
      "পৰ",
      "া</w>"
    ],
    [
      "ব",
      "্য"
    ],
    [
      "পৰ",
      "ি"
    ],
    [
      "চ",
      "ি"
    ],
    [
      "দ",
      "ে"
    ],
    [
      "২",
      "০"
    ],
    [
      "য়",
      "।</w>"
    ],
    [
      "ছ",
      "ে।</w>"
    ],
    [
      "হ",
      "া"
    ],
    [
      "ত",
      "া"
    ],
    [
      "এ",
      "ই</w>"
    ],
    [
      "োৱ",
      "া</w>"
    ],
    [
      "প",
      "াৰ"
    ],
    [
      "ো",
      "গ"
    ],
    [
      "এ",
      "টা</w>"
    ],
    [
      "ু",
      "ল"
    ],
    [
      "খ",
      "ন</w>"
    ],
    [
      "ূ",
      "হ"
    ],
    [
      "ি",
      "ক"
    ],
    [
      "সম",
      "ূহ"
    ],
    [
      "তেওঁ",
      "</w>"
    ],
    [
      "ৰ",
      "ে</w>"
    ],
    [
      "ক",
      "ে</w>"
    ],
    [
      "চ",
      "া"
    ],
    [
      "ব",
      "ে"
    ],
    [
      "ন",
      "ে"
    ],
    [
      "ী",
      "ৰ</w>"
    ],
    [
      "ব",
      "লৈ</w>"
    ],
    [
      "ক",
      "্ৰ"
    ],
    [
      "গ",
      "্ৰ"
    ],
    [
      "ই",
      "য়"
    ],
    [
      "ী",
      "য়</w>"
    ],
    [
      "ম",
      "ু"
    ],
    [
      "ী",
      "য়"
    ],
    [
      "ৰ",
      "ত</w>"
    ],
    [
      "ভ",
      "ি"
    ],
    [
      "ল",
      "ে"
    ],
    [
      "ঞ",
      "্"
    ],
    [
      "ষ",
      "্"
    ],
    [
      "প",
      "ি"
    ],
    [
      "হৈ",
      "ছে</w>"
    ],
    [
      "ও",
      "</w>"
    ],
    [
      "১",
      "৯"
    ],
    [
      "ৰা",
      "জ"
    ],
    [
      "ো",
      "ন"
    ],
    [
      "দ",
      "া"
    ],
    [
      "ৰ",
      "ৰ</w>"
    ],
    [
      "াৰ",
      "্"
    ],
    [
      "ক",
      "ৰ</w>"
    ],
    [
      "জ",
      "া"
    ],
    [
      "চ",
      "নৰ</w>"
    ],
    [
      "ত",
      "ি</w>"
    ],
    [
      "ল",
      "ি"
    ],
    [
      "ছ",
      "</w>"
    ],
    [
      "জ",
      "ন"
    ],
    [
      "ম",
      "ি"
    ],
    [
      "ন্",
      "দ"
    ],
    [
      "ন",
      "ি</w>"
    ],
    [
      "এ",
      "ক</w>"
    ],
    [
      "হ",
      "য়।</w>"
    ],
    [
      "ব",
      "া</w>"
    ],
    [
      "স",
      "ে"
    ],
    [
      "ভা",
      "ৱ"
    ],
    [
      "িয়",
      "া"
    ],
    [
      "ৰ",
      "ু"
    ],
    [
      "িয়",
      "া</w>"
    ],
    [
      "্য",
      "া"
    ],
    [
      "য",
      "ু"
    ],
    [
      "অ",
      "নু"
    ],
    [
      "ক",
      "ৈ</w>"
    ],
    [
      "ৰ",
      "ি"
    ],
    [
      "প",
      "ূ"
    ],
    [
      "ভ",
      "াৰ"
    ],
    [
      "ভ",
      "</w>"
    ],
    [
      "য",
      "া"
    ],
    [
      "জ",
      "ন</w>"
    ],
    [
      "স্",
      "থা"
    ],
    [
      "স",
      "ৈ"
    ],
    [
      "ন",
      "া</w>"
    ],
    [
      "দ",
      "ু"
    ],
    [
      "ক",
      "া</w>"
    ],
    [
      "শ",
      "্"
    ],
    [
      "শ",
      "</w>"
    ],
    [
      "চ",
      "ল"
    ],
    [
      "চ",
      "নত</w>"
    ],
    [
      "তেওঁ",
      "ৰ</w>"
    ],
    [
      "ট",
      "ি"
    ],
    [
      "ণ",
      "্ট"
    ],
    [
      "ব্য",
      "ৱ"
    ],
    [
      "ষ্",
      "ঠ"
    ],
    [
      "অ",
      "ৱ"
    ],
    [
      "ৰ",
      "ে"
    ],
    [
      "ট",
      "</w>"
    ],
    [
      "ন",
      "ে</w>"
    ],
    [
      "তেওঁ",
      "লো"
    ],
    [
      "প",
      "ে"
    ],
    [
      "ত",
      "্ৰ"
    ],
    [
      "স্",
      "থ"
    ],
    [
      "মা",
      "ন</w>"
    ],
    [
      "সৈ",
      "তে</w>"
    ],
    [
      "শ",
      "্ব"
    ],
    [
      "ল",
      "গ"
    ],
    [
      "া",
      "ত</w>"
    ],
    [
      "প্ৰ",
      "তি"
    ],
    [
      "কৰ",
      "ি</w>"
    ],
    [
      "ষ্ট",
      "্ৰ"
    ],
    [
      "কৰ",
      "ে।</w>"
    ],
    [
      "অ",
      "ধ"
    ],
    [
      "প্ৰ",
      "া"
    ],
    [
      "সম",
      "্"
    ],
    [
      "ছ",
      "ত</w>"
    ],
    [
      "্",
      "ৰ</w>"
    ],
    [
      "প",
      "ে</w>"
    ],
    [
      "য",
      "োগ"
    ],
    [
      "ব",
      "ো"
    ],
    [
      "চ",
      "ে"
    ],
    [
      "আ",
      "ছিল।</w>"
    ],
    [
      "০",
      "</w>"
    ],
    [
      "গ",
      "ু"
    ],
    [
      "ড",
      "ি"
    ],
    [
      "গ",
      "া"
    ],
    [
      "নি",
      "ৰ্"
    ],
    [
      "ধ",
      "াৰ"
    ],
    [
      "হৈ",
      "</w>"
    ],
    [
      "ৱ",
      "ে"
    ],
    [
      "খ",
      "েল"
    ],
    [
      "ছ",
      "ে"
    ],
    [
      "ব",
      "োৰ</w>"
    ],
    [
      "ৃ",
      "ত"
    ],
    [
      "হি",
      "চা"
    ],
    [
      "ভাৰ",
      "ত"
    ],
    [
      "ৰ",
      "ি</w>"
    ],
    [
      "ণ",
      "ৰ</w>"
    ],
    [
      "ব",
      "ুল"
    ],
    [
      "ছ",
      "ি"
    ],
    [
      "ছ",
      "ৰ</w>"
    ],
    [
      "হ",
      "াৰ</w>"
    ],
    [
      "ক",
      "ো"
    ],
    [
      "ইয়",
      "াৰ</w>"
    ],
    [
      "ক",
      "ু"
    ],
    [
      "আ",
      "প"
    ],
    [
      "স",
      "</w>"
    ],
    [
      "থ",
      "কা</w>"
    ],
    [
      "ন্",
      "ধ"
    ],
    [
      "উ",
      "প"
    ],
    [
      "হিচা",
      "পে</w>"
    ],
    [
      "পূ",
      "ৰ্"
    ],
    [
      "ক",
      "্"
    ],
    [
      "এ",
      "ই"
    ],
    [
      "কৰি",
      "ব</w>"
    ],
    [
      "য",
      "ে</w>"
    ],
    [
      "ব",
      "হ"
    ],
    [
      "গ",
      "</w>"
    ],
    [
      "চ",
      "াৰ"
    ],
    [
      "ম",
      "ূ"
    ],
    [
      "স",
      "ু"
    ],
    [
      "ম",
      "ৰ</w>"
    ],
    [
      "বুল",
      "ি</w>"
    ],
    [
      "প",
      "্"
    ],
    [
      "কৰি",
      "বলৈ</w>"
    ],
    [
      "ত",
      "া</w>"
    ],
    [
      "দ",
      "্ব"
    ],
    [
      "ত",
      "ু"
    ],
    [
      "সম",
      "য়"
    ],
    [
      "ড",
      "়"
    ],
    [
      "শ",
      "ি"
    ],
    [
      "ন",
      "ী"
    ],
    [
      "কৰ",
      "াৰ</w>"
    ],
    [
      "োৱ",
      "াৰ</w>"
    ],
    [
      "শ",
      "ে"
    ],
    [
      "প",
      "</w>"
    ],
    [
      "আ",
      "ছে।</w>"
    ],
    [
      "্ৰ",
      "া"
    ],
    [
      "ভ",
      "িত"
    ],
    [
      "ক",
      "াৰ</w>"
    ],
    [
      "ৱ",
      "া"
    ],
    [
      "ট",
      "া"
    ],
    [
      "২০",
      "১"
    ],
    [
      "ছিল",
      ",</w>"
    ],
    [
      "সকল",
      "ে</w>"
    ],
    [
      "ভাৱ",
      "ে</w>"
    ],
    [
      "এ",
      "খন</w>"
    ],
    [
      "আ",
      "পু"
    ],
    [
      "আপু",
      "নি</w>"
    ],
    [
      "ট",
      "ে"
    ],
    [
      "ছ",
      "ু"
    ],
    [
      "ৰা",
      "ষ্ট্ৰ"
    ],
    [
      "ং",
      "</w>"
    ],
    [
      "ক্ত",
      "</w>"
    ],
    [
      "ফ",
      "ল"
    ],
    [
      "সকল",
      "ৰ</w>"
    ],
    [
      "ত",
      "াৰ</w>"
    ],
    [
      "দে",
      "শ"
    ],
    [
      "জ",
      "ে"
    ],
    [
      "পাৰ",
      "ে।</w>"
    ],
    [
      "আপ",
      "োন"
    ],
    [
      "অ",
      "ভি"
    ],
    [
      "প্ৰ",
      "থ"
    ],
    [
      "ট",
      "ো"
    ],
    [
      "চ",
      "ৰ"
    ],
    [
      "শ",
      "া"
    ],
    [
      "আ",
      "গ"
    ],
    [
      "ভিত",
      "ৰত</w>"
    ],
    [
      "শে",
      "ষ"
    ],
    [
      "ধ",
      "া"
    ],
    [
      "জ",
      "</w>"
    ],
    [
      "ে",
      ",</w>"
    ],
    [
      "জ",
      "ৰ</w>"
    ],
    [
      "জ",
      "ি"
    ],
    [
      "া",
      "ক</w>"
    ],
    [
      "ব্যৱ",
      "হাৰ</w>"
    ],
    [
      "াৰ",
      "ৰ</w>"
    ],
    [
      "আপোন",
      "াৰ</w>"
    ],
    [
      "র",
      "্"
    ],
    [
      "হ",
      "োৱা</w>"
    ],
    [
      "আৰ",
      "ম্"
    ],
    [
      "হ",
      "'"
    ],
    [
      "য",
      "ি"
    ],
    [
      "সমূহ",
      "</w>"
    ],
    [
      "ক",
      "ী</w>"
    ],
    [
      "ব",
      "ৃ"
    ],
    [
      "ব",
      "্ৰ"
    ],
    [
      "য়",
      "ে</w>"
    ],
    [
      "ৰ",
      "ো"
    ],
    [
      "স",
      "ি"
    ],
    [
      "হ",
      "</w>"
    ],
    [
      "্য",
      "ৰ</w>"
    ],
    [
      "ত",
      "কৈ</w>"
    ],
    [
      "আ",
      "ই"
    ],
    [
      "ব",
      "্"
    ],
    [
      "দ",
      "</w>"
    ],
    [
      "ও",
      "পৰ"
    ],
    [
      "ীয়",
      "া</w>"
    ],
    [
      "ল",
      "ৈ"
    ],
    [
      "ষ্ট",
      "</w>"
    ],
    [
      "অ",
      "ং"
    ],
    [
      "াল",
      "</w>"
    ],
    [
      "ব",
      "ৰ্"
    ],
    [
      "ব",
      "।</w>"
    ],
    [
      "সা",
      "ম"
    ],
    [
      "ট",
      "োৰ</w>"
    ],
    [
      "আ",
      "ছিল</w>"
    ],
    [
      "বি",
      "ষ"
    ],
    [
      "সমূহ",
      "ৰ</w>"
    ],
    [
      "গ",
      "ৰা"
    ],
    [
      "ু",
      "ৱ"
    ],
    [
      "ড",
      "া"
    ],
    [
      "গ",
      "ো"
    ],
    [
      "ক",
      "ৃ"
    ],
    [
      "ত",
      "ো</w>"
    ],
    [
      "ম",
      "্ব"
    ],
    [
      "সা",
      "ধাৰ"
    ],
    [
      "ন",
      "ী</w>"
    ],
    [
      "ী",
      "ত</w>"
    ],
    [
      "২০",
      "০"
    ],
    [
      "লা",
      "ভ</w>"
    ],
    [
      "িয়",
      "াৰ</w>"
    ],
    [
      "য়",
      "</w>"
    ],
    [
      "১",
      "</w>"
    ],
    [
      "খ",
      "া"
    ],
    [
      "পৰ",
      "া"
    ],
    [
      "ম",
      "ই</w>"
    ],
    [
      "৫",
      "</w>"
    ],
    [
      "অ",
      "ন"
    ],
    [
      ":",
      "</w>"
    ],
    [
      "াৰ",
      "া</w>"
    ],
    [
      "উ",
      "ৎ"
    ],
    [
      "অ",
      "ঞ্"
    ],
    [
      "হ",
      "ে"
    ],
    [
      "দে",
      "খ"
    ],
    [
      "হ",
      "’"
    ],
    [
      "অধ",
      "িক</w>"
    ],
    [
      "ত",
      "্ব"
    ],
    [
      "ত",
      "িয়া</w>"
    ],
    [
      "২",
      "</w>"
    ],
    [
      "হ",
      "ৰ"
    ],
    [
      "ছ",
      "া"
    ],
    [
      "ট",
      "াই"
    ],
    [
      "্",
      "ম"
    ],
    [
      "ড",
      "ে"
    ],
    [
      "িত",
      "্ৰ"
    ],
    [
      "তেওঁলো",
      "কৰ</w>"
    ],
    [
      "ল",
      "ৰ</w>"
    ],
    [
      "দ",
      "ৰে</w>"
    ],
    [
      "য",
      "ে"
    ],
    [
      "শ",
      "্য"
    ],
    [
      "ৃত",
      "্য"
    ],
    [
      "শ",
      "্ৰ"
    ],
    [
      "দ",
      "ি</w>"
    ],
    [
      "ক",
      "াল"
    ],
    [
      "ওপৰ",
      "ত</w>"
    ],
    [
      "দ",
      "্য"
    ],
    [
      "কৰি",
      "ছিল</w>"
    ],
    [
      "আ",
      "মে"
    ],
    [
      "দ্ব",
      "াৰা</w>"
    ],
    [
      "ৱ",
      "</w>"
    ],
    [
      "বহ",
      "ু"
    ],
    [
      "ি",
      "ৰ</w>"
    ],
    [
      "ত",
      "ৰ</w>"
    ],
    [
      "ো",
      "ঁ"
    ],
    [
      "হ",
      "ে</w>"
    ],
    [
      "ড",
      "</w>"
    ],
    [
      "ন্ত",
      "ু</w>"
    ],
    [
      "স্",
      "ব"
    ],
    [
      "উ",
      "ত্ত"
    ],
    [
      "হ",
      "ৰ</w>"
    ],
    [
      "মা",
      "ন"
    ],
    [
      "মূ",
      "ল"
    ],
    [
      "৮",
      "</w>"
    ],
    [
      "ীয়",
      "ে</w>"
    ],
    [
      "য়",
      "ো"
    ],
    [
      "আৰম্",
      "ভ</w>"
    ],
    [
      "মু",
      "খ"
    ],
    [
      "৭",
      "</w>"
    ],
    [
      "পা",
      "ছত</w>"
    ],
    [
      "োন",
      "ো</w>"
    ],
    [
      "ন",
      "িয়"
    ],
    [
      "ৰ্",
      "থ"
    ],
    [
      "কি",
      "ন্তু</w>"
    ],
    [
      "৪",
      "</w>"
    ],
    [
      "য়",
      "া</w>"
    ],
    [
      "ৰ",
      "ূ"
    ],
    [
      "৬",
      "</w>"
    ],
    [
      "বি",
      "শ্ব"
    ],
    [
      "মা",
      "জ"
    ],
    [
      "ফল",
      "ত</w>"
    ],
    [
      "জ",
      "ু"
    ],
    [
      "ঢ",
      "়"
    ],
    [
      "গ",
      "ে"
    ],
    [
      "ত",
      ",</w>"
    ],
    [
      "অঞ্",
      "চল"
    ],
    [
      "াৰ",
      "ে</w>"
    ],
    [
      "হৈ",
      "ছিল</w>"
    ],
    [
      "খ",
      "নৰ</w>"
    ],
    [
      "িক",
      "া</w>"
    ],
    [
      ")",
      "</w>"
    ],
    [
      "দ",
      "্"
    ],
    [
      "ক্ষ",
      "ে"
    ],
    [
      "ৱ",
      "ৰ্"
    ],
    [
      "ম",
      "হ"
    ],
    [
      "৩",
      "</w>"
    ],
    [
      "চ",
      "</w>"
    ],
    [
      "ভ",
      "ূ"
    ],
    [
      "কে",
      "ই"
    ],
    [
      "ম",
      "ৃত্য"
    ],
    [
      "হৈ",
      "ছে।</w>"
    ],
    [
      "ব",
      "ছ"
    ],
    [
      "এ",
      "জন</w>"
    ],
    [
      "গৰা",
      "কী</w>"
    ],
    [
      "গ",
      "ত</w>"
    ],
    [
      "ধ",
      "</w>"
    ],
    [
      "ইয়",
      "াক</w>"
    ],
    [
      "সময়",
      "ত</w>"
    ],
    [
      "ন্",
      "ত</w>"
    ],
    [
      "য়",
      ",</w>"
    ],
    [
      "যু",
      "ক্ত"
    ],
    [
      "ট",
      "ৰ</w>"
    ],
    [
      "ট",
      "াৰ</w>"
    ],
    [
      "আ",
      "ন</w>"
    ],
    [
      "এ",
      "ছ"
    ],
    [
      "লা",
      "ই"
    ],
    [
      "ী",
      "ন</w>"
    ],
    [
      "লা",
      "গ"
    ],
    [
      "ব",
      "ু"
    ],
    [
      "ভাৰত",
      "ৰ</w>"
    ],
    [
      "পূৰ্",
      "ণ</w>"
    ],
    [
      "হ",
      "োৱাৰ</w>"
    ],
    [
      "ফ",
      "ে"
    ],
    [
      "অনু",
      "ষ্ঠ"
    ],
    [
      "কি",
      "ছু"
    ],
    [
      "খ",
      "ি"
    ],
    [
      "ক",
      "।</w>"
    ],
    [
      "ৰাজ",
      "্য"
    ],
    [
      "চ",
      "ু"
    ],
    [
      "ই",
      "উ"
    ],
    [
      "স্",
      "ত"
    ],
    [
      "য়",
      "ৰ</w>"
    ],
    [
      "্",
      "ল"
    ],
    [
      "্",
      "প"
    ],
    [
      "চ",
      "ন"
    ],
    [
      "ন্ত",
      "্ৰ"
    ],
    [
      "গ",
      "ৈ"
    ],
    [
      "সাধাৰ",
      "ণ"
    ],
    [
      "গ্ৰ",
      "হ"
    ],
    [
      "অং",
      "শ"
    ],
    [
      "সং",
      "খ"
    ],
    [
      "ৱ",
      "া</w>"
    ],
    [
      "লৈ",
      "কে</w>"
    ],
    [
      "গু",
      "ৰু"
    ],
    [
      "পি",
      "ছত</w>"
    ],
    [
      "ম্",
      "প"
    ],
    [
      "ব",
      "ৰ</w>"
    ],
    [
      "না",
      "ই"
    ],
    [
      "ম",
      "ো"
    ],
    [
      "দ",
      "িয়া</w>"
    ],
    [
      "োৱ",
      "ে</w>"
    ],
    [
      "ন",
      "ো"
    ],
    [
      "তি",
      "ৰ</w>"
    ],
    [
      "গ",
      "ৰ</w>"
    ],
    [
      "দ",
      "ী"
    ],
    [
      "কৰ",
      "ে</w>"
    ],
    [
      "চল",
      "চ্চ"
    ],
    [
      "তেওঁলো",
      "কে</w>"
    ],
    [
      "ৰ",
      "া</w>"
    ],
    [
      "এই",
      "টো</w>"
    ],
    [
      "০",
      "০"
    ],
    [
      "গ",
      "ী"
    ],
    [
      "িয়",
      "ে</w>"
    ],
    [
      "হ",
      "য়</w>"
    ],
    [
      "য়",
      "।</w>"
    ],
    [
      "চ",
      "াল"
    ],
    [
      "ন্",
      "ন</w>"
    ],
    [
      "জ",
      "ী"
    ],
    [
      "প",
      "দ"
    ],
    [
      "স",
      "ৰ"
    ],
    [
      "লো",
      "ক"
    ],
    [
      "প",
      "ৰ্"
    ],
    [
      "োৱ",
      "া"
    ],
    [
      "ণ্ড",
      "</w>"
    ],
    [
      "ম",
      "োৰ</w>"
    ],
    [
      "ভ",
      "ে"
    ],
    [
      "ত",
      "্ৰ</w>"
    ],
    [
      "হ",
      "ত</w>"
    ],
    [
      "ু",
      "ৰ</w>"
    ],
    [
      "আ",
      "ছে</w>"
    ],
    [
      "বা",
      "হি"
    ],
    [
      "তেওঁ",
      "ক</w>"
    ],
    [
      "্য",
      "া</w>"
    ],
    [
      "ম",
      "াৰ"
    ],
    [
      "া",
      "ন</w>"
    ],
    [
      "স্",
      "বা"
    ],
    [
      "ঙ",
      "ৰ</w>"
    ],
    [
      "শ",
      "ী"
    ],
    [
      "আ",
      "টাই"
    ],
    [
      "প",
      "ো"
    ],
    [
      "দ্ধ",
      "</w>"
    ],
    [
      "'",
      "</w>"
    ],
    [
      "ক্ৰ",
      "ম"
    ],
    [
      "আমে",
      "ৰ"
    ],
    [
      "বি",
      "চাৰ"
    ],
    [
      "ৃ",
      "ষ্ট"
    ],
    [
      "কিছু",
      "মান</w>"
    ],
    [
      "ৰ",
      "োগ"
    ],
    [
      "ক",
      "োনো</w>"
    ],
    [
      "থ",
      "া</w>"
    ],
    [
      "দ",
      "ক্ষ"
    ],
    [
      "শ্",
      "বা"
    ],
    [
      "কৰ",
      "া"
    ],
    [
      "আটাই",
      "তকৈ</w>"
    ],
    [
      "ৰ",
      "ণ"
    ],
    [
      "খ",
      "</w>"
    ],
    [
      "জ",
      "িল"
    ],
    [
      "থা",
      "ক"
    ],
    [
      "ৰ",
      "ক্ষ"
    ],
    [
      "অৱ",
      "স্থ"
    ],
    [
      "প্ৰথ",
      "ম"
    ],
    [
      "সাধাৰণ",
      "তে</w>"
    ],
    [
      "কৰ",
      "্"
    ],
    [
      "দা",
      "ন</w>"
    ],
    [
      "ক",
      "ৈ"
    ],
    [
      "নি",
      "জৰ</w>"
    ],
    [
      "ৰ",
      "ী"
    ],
    [
      "ব",
      "ন্ধ"
    ],
    [
      "বি",
      "ত"
    ],
    [
      "আ",
      "ন"
    ],
    [
      "ৎ",
      "</w>"
    ],
    [
      "দ",
      "ল"
    ],
    [
      "৯",
      "</w>"
    ],
    [
      "ম",
      "িল"
    ],
    [
      "-",
      "ৰ</w>"
    ],
    [
      "চ",
      "িত</w>"
    ],
    [
      "সকল",
      "ক</w>"
    ],
    [
      "সে",
      "ই</w>"
    ],
    [
      "হ",
      "াৰ"
    ],
    [
      "বি",
      "শেষ"
    ],
    [
      "য",
      "দি</w>"
    ],
    [
      "ষ্ট",
      "ে"
    ],
    [
      "নি",
      "ক</w>"
    ],
    [
      "ভ",
      "ু"
    ],
    [
      "কাৰ",
      "্য"
    ],
    [
      "ব্য",
      "ক্ত"
    ],
    [
      "য",
      "াৰ</w>"
    ],
    [
      "ন",
      "াৰ</w>"
    ],
    [
      "সে",
      "ই"
    ],
    [
      "প্ৰা",
      "য়</w>"
    ],
    [
      "উ",
      "ল"
    ],
    [
      "ট",
      "োৱে</w>"
    ],
    [
      "প",
      "ৃ"
    ],
    [
      "প্ৰথ",
      "ম</w>"
    ],
    [
      "শা",
      "স"
    ],
    [
      "\"",
      "</w>"
    ],
    [
      "য",
      "ি</w>"
    ],
    [
      "তি",
      "ক</w>"
    ],
    [
      "প",
      "োৱা</w>"
    ],
    [
      "ৰাষ্ট্ৰ",
      "ীয়</w>"
    ],
    [
      "িত",
      "।</w>"
    ],
    [
      "স",
      "হা"
    ],
    [
      "ট",
      "্ৰ"
    ],
    [
      "প",
      "ন</w>"
    ],
    [
      "স",
      "ন্"
    ],
    [
      "মা",
      "নু"
    ],
    [
      "ব",
      "ছৰ</w>"
    ],
    [
      "প",
      "থ"
    ],
    [
      "বি",
      "দ্য"
    ],
    [
      "মা",
      "ণ</w>"
    ],
    [
      "ফ",
      "াল"
    ],
    [
      "গুৰু",
      "ত্ব"
    ],
    [
      "ভাৰত",
      "ীয়</w>"
    ],
    [
      "কা",
      "ম</w>"
    ],
    [
      "ৰ্",
      "শ"
    ],
    [
      "প",
      "াল"
    ],
    [
      "দক্ষ",
      "ি"
    ],
    [
      "ল",
      "ী"
    ],
    [
      "য়",
      "ে"
    ],
    [
      "ং",
      "গ"
    ],
    [
      "বো",
      "ৰৰ</w>"
    ],
    [
      "মৃত্য",
      "ু</w>"
    ],
    [
      "পা",
      "ই"
    ],
    [
      "ট",
      "ি</w>"
    ],
    [
      "স",
      "ৰ্"
    ],
    [
      "ম",
      "ন্"
    ],
    [
      "হ",
      "য়,</w>"
    ],
    [
      "ম",
      "া</w>"
    ],
    [
      "ক্ষে",
      "ত্ৰ"
    ],
    [
      "চি",
      "কি"
    ],
    [
      "ভি",
      "ন্ন</w>"
    ],
    [
      "চিকি",
      "ৎ"
    ],
    [
      "স",
      "ৰ</w>"
    ],
    [
      "জী",
      "ৱ"
    ],
    [
      "লগ",
      "ে</w>"
    ],
    [
      "১৯",
      "৯"
    ],
    [
      "বহু",
      "তো</w>"
    ],
    [
      "'",
      "ত</w>"
    ],
    [
      "খ",
      "নত</w>"
    ],
    [
      "ছে",
      ",</w>"
    ],
    [
      "এ",
      "ক"
    ],
    [
      "ঘ",
      "ট"
    ],
    [
      "হি",
      "ন্দ"
    ],
    [
      "া",
      "ই</w>"
    ],
    [
      "স",
      "ূ"
    ],
    [
      "শ",
      "ু"
    ],
    [
      "ণ্ড",
      "ৰ</w>"
    ],
    [
      "দ",
      "্ৰ"
    ],
    [
      "শি",
      "ক্ষ"
    ],
    [
      "শ",
      "িল"
    ],
    [
      "আমেৰ",
      "িকা</w>"
    ],
    [
      "গ্ৰহ",
      "ণ</w>"
    ],
    [
      "স",
      "ৃষ্ট"
    ],
    [
      "দ",
      "ৰ্শ"
    ],
    [
      "ছ",
      "বি"
    ],
    [
      "থাক",
      "ে।</w>"
    ],
    [
      "খ",
      "ে"
    ],
    [
      "ব",
      "াৰ"
    ],
    [
      "ক",
      "োৱা</w>"
    ],
    [
      "ন",
      "তু"
    ],
    [
      "ফ",
      "ু"
    ],
    [
      "মাজ",
      "ত</w>"
    ],
    [
      "কৰি",
      "ছে।</w>"
    ],
    [
      "ত",
      "ী"
    ],
    [
      "স্থা",
      "ন"
    ],
    [
      "ভা",
      "ষ"
    ],
    [
      "ম",
      "াৰ</w>"
    ],
    [
      "এ",
      "গৰাকী</w>"
    ],
    [
      "চ",
      "হৰ"
    ],
    [
      "ম",
      "হা"
    ],
    [
      "্",
      "লে"
    ],
    [
      "ব",
      "ৈ"
    ],
    [
      "দু",
      "ৰ্"
    ],
    [
      "ধ",
      "ৰ্"
    ],
    [
      "পাৰ",
      "ি"
    ],
    [
      "ক",
      "্ট"
    ],
    [
      "টো",
      "ত</w>"
    ],
    [
      "ল",
      "া</w>"
    ],
    [
      "দ",
      "ৰ</w>"
    ],
    [
      "য়",
      "ে</w>"
    ],
    [
      "ধ",
      "ৰি</w>"
    ],
    [
      "গ",
      "ঠ"
    ],
    [
      "ল",
      "ক্ষ"
    ],
    [
      "আ",
      "হি"
    ],
    [
      "ভা",
      "গ</w>"
    ],
    [
      "ম্",
      "পা"
    ],
    [
      "ঙ",
      "্"
    ],
    [
      "যে",
      "তিয়া</w>"
    ],
    [
      "ব",
      "াৰ্"
    ],
    [
      "যোগ",
      "</w>"
    ],
    [
      "দেখ",
      "া</w>"
    ],
    [
      "হ'",
      "ব</w>"
    ],
    [
      "যা",
      "য়।</w>"
    ],
    [
      "অ",
      "ন্ত"
    ],
    [
      "স",
      "মা"
    ],
    [
      "জ",
      "াৰ</w>"
    ],
    [
      "ব",
      "ল</w>"
    ],
    [
      "বা",
      "হ"
    ],
    [
      "ন",
      ",</w>"
    ],
    [
      "ত",
      "্য"
    ],
    [
      "ম",
      "ত</w>"
    ],
    [
      "পৰ",
      "ী"
    ],
    [
      "বি",
      "ভিন্ন</w>"
    ],
    [
      "এ",
      "কে"
    ],
    [
      "স্",
      "ক"
    ],
    [
      "চিকিৎ",
      "স"
    ],
    [
      "মন্",
      "দি"
    ],
    [
      "বৃ",
      "হ"
    ],
    [
      "গ",
      "ণ"
    ],
    [
      "জ",
      "ন্"
    ],
    [
      "ন",
      "ীৰ</w>"
    ],
    [
      "বে",
      "ছি"
    ],
    [
      "শ",
      "ো"
    ],
    [
      "ণ",
      "ি"
    ],
    [
      "সকল",
      "ো</w>"
    ],
    [
      "ণ",
      "া</w>"
    ],
    [
      "ঞ্",
      "চ"
    ],
    [
      "শ্",
      "চি"
    ],
    [
      "িয়",
      "ে"
    ],
    [
      "স্",
      "তু"
    ],
    [
      "ই",
      "য়"
    ],
    [
      "ৰ",
      "ণৰ</w>"
    ],
    [
      "প্ৰ",
      "তি</w>"
    ],
    [
      "ম",
      "াৰ্"
    ],
    [
      "গ্ৰ",
      "া"
    ],
    [
      "সৃষ্ট",
      "ি</w>"
    ],
    [
      "লগ",
      "তে</w>"
    ],
    [
      "প",
      "ৰ</w>"
    ],
    [
      "দ্",
      "বিত"
    ],
    [
      "য",
      "দি"
    ],
    [
      "খেল",
      "ুৱ"
    ],
    [
      "প",
      "শ্চি"
    ],
    [
      "ম",
      "ি</w>"
    ],
    [
      "ব",
      "য়"
    ],
    [
      "কো",
      "ম্পা"
    ],
    [
      "যুক্ত",
      "ৰাষ্ট্ৰ"
    ],
    [
      "অ",
      "'"
    ],
    [
      "এ",
      "ল"
    ],
    [
      "ক",
      "ি</w>"
    ],
    [
      "য়",
      "া</w>"
    ],
    [
      "মা",
      "ই"
    ],
    [
      "নতু",
      "ন</w>"
    ],
    [
      "য়",
      "া"
    ],
    [
      "ৱৰ্",
      "ত"
    ],
    [
      "ণ",
      "া"
    ],
    [
      "ত",
      "িয়া"
    ],
    [
      "লাগ",
      "ি"
    ],
    [
      "চলচ্চ",
      "িত্ৰ"
    ],
    [
      "গ",
      "ৰ"
    ],
    [
      "ন",
      "ক</w>"
    ],
    [
      "ণ্ট",
      "</w>"
    ],
    [
      "বা",
      "ধ"
    ],
    [
      "্যা",
      "ন"
    ],
    [
      "গ্ৰ",
      "ে"
    ],
    [
      "মহ",
      "িল"
    ],
    [
      "সাম",
      "গ্ৰ"
    ],
    [
      "ৱ",
      "াৰ"
    ],
    [
      "ত",
      "ম</w>"
    ],
    [
      "স",
      "ী"
    ],
    [
      "জ",
      "া</w>"
    ],
    [
      "স",
      "দ"
    ],
    [
      "িয়",
      "</w>"
    ],
    [
      "ফ",
      "ি"
    ],
    [
      "পু",
      "নৰ</w>"
    ],
    [
      "্ড",
      "</w>"
    ],
    [
      "না",
      "মৰ</w>"
    ],
    [
      "ৰ",
      "ী</w>"
    ],
    [
      "অভি",
      "ন"
    ],
    [
      "কাৰ",
      "ৰ</w>"
    ],
    [
      "কাৰ",
      "ী</w>"
    ],
    [
      "ত",
      "ুল"
    ],
    [
      "উ",
      "ন্"
    ],
    [
      "ক্",
      "স"
    ],
    [
      "বিষ",
      "য়ে</w>"
    ],
    [
      "ন্দ",
      "্ৰ"
    ],
    [
      "স্",
      "তা"
    ],
    [
      "ক্ত",
      "ি</w>"
    ],
    [
      "বৃ",
      "দ্ধ"
    ],
    [
      "সৰ",
      "ু</w>"
    ],
    [
      "দে",
      "ৱ"
    ],
    [
      "পাৰ",
      "্"
    ],
    [
      "ত",
      "াল"
    ],
    [
      "ক",
      "থা</w>"
    ],
    [
      "উ",
      "দ"
    ],
    [
      "ক",
      "ল</w>"
    ],
    [
      "যদি",
      "ও</w>"
    ],
    [
      "ব্ৰ",
      "ি"
    ],
    [
      "ক",
      "ম</w>"
    ],
    [
      "ম",
      "ধ"
    ],
    [
      "ব্য",
      "া"
    ],
    [
      "এ",
      "ন"
    ],
    [
      "ফ",
      "্ৰ"
    ],
    [
      "নিৰ্",
      "বা"
    ],
    [
      "অনুষ্ঠ",
      "িত</w>"
    ],
    [
      "থ",
      "ে"
    ],
    [
      "উত্ত",
      "ৰ</w>"
    ],
    [
      "হ",
      "য়।</w>"
    ],
    [
      "কল",
      "্প"
    ],
    [
      "ন",
      "দ"
    ],
    [
      "বিদ্য",
      "াল"
    ],
    [
      "কা",
      "শ</w>"
    ],
    [
      "ব",
      "েল"
    ],
    [
      "া",
      "ন্ত</w>"
    ],
    [
      "অ",
      "তি</w>"
    ],
    [
      "ৰ",
      "ণ</w>"
    ],
    [
      "দেশ",
      "ৰ</w>"
    ],
    [
      "শ্ৰ",
      "ে"
    ],
    [
      "পৰি",
      "চাল"
    ],
    [
      "ল",
      "াৰ</w>"
    ],
    [
      "কেই",
      "বা"
    ],
    [
      "তি",
      "নি"
    ],
    [
      "ি",
      "কা"
    ],
    [
      "ৰ",
      "িয়"
    ],
    [
      "ভ",
      "াল</w>"
    ],
    [
      "স",
      "হ"
    ],
    [
      "িল",
      "</w>"
    ],
    [
      "উ",
      "চ্চ"
    ],
    [
      "ত",
      "ৃত"
    ],
    [
      "চ",
      "না</w>"
    ],
    [
      "ত",
      "্ম"
    ],
    [
      "জ",
      "য়"
    ],
    [
      "দি",
      "ছিল।</w>"
    ],
    [
      "ৱ",
      "ল</w>"
    ],
    [
      "শ",
      "তি"
    ],
    [
      "িক",
      "াৰ</w>"
    ],
    [
      "ভু",
      "ক্ত</w>"
    ],
    [
      "দ",
      "্য</w>"
    ],
    [
      "হ’",
      "ব</w>"
    ],
    [
      "য",
      "'ত</w>"
    ],
    [
      "চে",
      "ষ্ট"
    ],
    [
      "উল",
      "্লে"
    ],
    [
      "ৰু",
      "দ্ধ"
    ],
    [
      "কে",
      "ৱল</w>"
    ],
    [
      "নিৰ্",
      "মাণ</w>"
    ],
    [
      "অনু",
      "স"
    ],
    [
      "১",
      "৮"
    ],
    [
      "ধা",
      "ন</w>"
    ],
    [
      "সং",
      "স্"
    ],
    [
      "িয়া",
      "ন</w>"
    ],
    [
      "১৯",
      "৮"
    ],
    [
      "বে",
      "ছ"
    ],
    [
      "বৃহ",
      "ৎ</w>"
    ],
    [
      "ং",
      "শ"
    ],
    [
      "পি",
      "ছ"
    ],
    [
      "স",
      "ত</w>"
    ],
    [
      "কৰি",
      "ছিল,</w>"
    ],
    [
      "্",
      "র"
    ],
    [
      "হ",
      "ো"
    ],
    [
      "হৈ",
      "ছিল,</w>"
    ],
    [
      "স্",
      "ত</w>"
    ],
    [
      "য়",
      "াৰ</w>"
    ],
    [
      "শ্",
      "বি"
    ],
    [
      "উৎ",
      "স"
    ],
    [
      "থা",
      "কি"
    ],
    [
      "ত",
      "্যা"
    ],
    [
      "ক",
      "ী"
    ],
    [
      "বেছি",
      "ভাগ</w>"
    ],
    [
      "অন্ত",
      "ৰ্"
    ],
    [
      "ফাল",
      "ে</w>"
    ],
    [
      "না",
      "ই</w>"
    ],
    [
      "যি",
      "টো</w>"
    ],
    [
      "অৱ",
      "শ্য"
    ],
    [
      "ও",
      "চ"
    ],
    [
      "ষ্ঠ",
      "</w>"
    ],
    [
      "িত",
      "্ৰ</w>"
    ],
    [
      "ধ",
      "ন</w>"
    ],
    [
      "জ",
      "নৰ</w>"
    ],
    [
      "অ",
      "ৰ্"
    ],
    [
      "ব",
      "ল"
    ],
    [
      "বি",
      "ৰুদ্ধ"
    ],
    [
      "গৈ",
      "ছিল।</w>"
    ],
    [
      "িয়",
      "াল"
    ],
    [
      "ই",
      "ন"
    ],
    [
      "ধ",
      "ৰণৰ</w>"
    ],
    [
      "ক",
      "'"
    ],
    [
      "ব",
      "ৰ"
    ],
    [
      "ক্ষেত্ৰ",
      "ত</w>"
    ],
    [
      "সমূহ",
      "ত</w>"
    ],
    [
      "যোগ",
      "িত"
    ],
    [
      "খ",
      "া</w>"
    ],
    [
      "দি",
      "ন"
    ],
    [
      "মি",
      "টাৰ</w>"
    ],
    [
      "১৯",
      "৭"
    ],
    [
      "মা",
      "ল"
    ],
    [
      "থ",
      "</w>"
    ],
    [
      "অ",
      "ৰ্থ"
    ],
    [
      "যু",
      "দ্ধ"
    ],
    [
      "অ",
      "তি"
    ],
    [
      "ি",
      "ছিল।</w>"
    ],
    [
      "অন",
      "্যান"
    ],
    [
      "ই",
      "ণ্ড"
    ],
    [
      "প্ৰ",
      "ভাৱ"
    ],
    [
      "প্ৰ",
      "দান</w>"
    ],
    [
      "িয়",
      "ন"
    ],
    [
      "য়",
      "ত</w>"
    ],
    [
      "ক",
      "ক</w>"
    ],
    [
      "প্ৰ",
      "ে"
    ],
    [
      "বৃদ্ধ",
      "ি</w>"
    ],
    [
      "সহা",
      "য়</w>"
    ],
    [
      "বহ",
      "ু</w>"
    ],
    [
      "সম্",
      "পৰ্"
    ],
    [
      "ট",
      "াৰ"
    ],
    [
      "োঁ",
      "।</w>"
    ],
    [
      "নি",
      "উ"
    ],
    [
      "ব",
      "াৰ</w>"
    ],
    [
      "বিৰুদ্ধ",
      "ে</w>"
    ],
    [
      "’",
      "</w>"
    ],
    [
      "গুৰুত্ব",
      "পূৰ্ণ</w>"
    ],
    [
      "দু",
      "টা</w>"
    ],
    [
      "ল",
      "ে</w>"
    ],
    [
      "৷",
      "</w>"
    ],
    [
      "য়",
      "া"
    ],
    [
      "বৰ্",
      "ত"
    ],
    [
      "প্",
      "ত</w>"
    ],
    [
      "পৃ",
      "থ"
    ],
    [
      "চ",
      "্"
    ],
    [
      "যুক্তৰাষ্ট্ৰ",
      "ৰ</w>"
    ],
    [
      "ল",
      "ু"
    ],
    [
      "তে",
      ",</w>"
    ],
    [
      "অন্যান",
      "্য</w>"
    ],
    [
      "আ",
      "ন্ত"
    ],
    [
      "প্ৰ",
      "য়ো"
    ],
    [
      "জ",
      "ল"
    ],
    [
      "পাৰ",
      "ে</w>"
    ],
    [
      "মুখ",
      "্য</w>"
    ],
    [
      "গা",
      "ঁ"
    ],
    [
      "ো",
      "ষ"
    ],
    [
      "যু",
      "ক্ত</w>"
    ],
    [
      "আৰ",
      "্"
    ],
    [
      "খেলুৱ",
      "ৈ"
    ],
    [
      "না",
      "ছিল।</w>"
    ],
    [
      "কা",
      "ন</w>"
    ],
    [
      "বা",
      "দ"
    ],
    [
      "এ",
      "ফ"
    ],
    [
      "বি",
      "ক্ৰ"
    ],
    [
      "ক",
      "িল"
    ],
    [
      "দক্ষি",
      "ণ</w>"
    ],
    [
      "ক",
      "ত</w>"
    ],
    [
      "কৰ",
      "ে,</w>"
    ],
    [
      "গ",
      "'"
    ],
    [
      "ন্",
      "তে</w>"
    ],
    [
      "েল",
      "ি"
    ],
    [
      "লা",
      "ই</w>"
    ],
    [
      "ণ",
      "ত</w>"
    ],
    [
      "ৰ",
      "ক</w>"
    ],
    [
      "২০",
      "</w>"
    ],
    [
      ",",
      "০০"
    ],
    [
      "দু",
      "য়ো"
    ],
    [
      "সদ",
      "স"
    ],
    [
      "াল",
      "ী</w>"
    ],
    [
      "ৱ",
      "ি"
    ],
    [
      "ঠ",
      "</w>"
    ],
    [
      "ইয়",
      "াত</w>"
    ],
    [
      "পূৰ্",
      "ব"
    ],
    [
      "দ",
      "ূ"
    ],
    [
      "না",
      "ম"
    ],
    [
      "য",
      "ো"
    ],
    [
      "ৰাজ",
      "্যৰ</w>"
    ],
    [
      "আ",
      "ল"
    ],
    [
      "তে",
      "ন্তে</w>"
    ],
    [
      "দ",
      "শ"
    ],
    [
      "অৱ",
      "</w>"
    ],
    [
      "চন",
      "লৈকে</w>"
    ],
    [
      "প্ৰতি",
      "ষ্ঠ"
    ],
    [
      "ে",
      "ই</w>"
    ],
    [
      "আ",
      "ঁ"
    ],
    [
      "স",
      "কল</w>"
    ],
    [
      "বো",
      "ৰে</w>"
    ],
    [
      "কল",
      "ি</w>"
    ],
    [
      "হ",
      "া</w>"
    ],
    [
      "ী",
      "ক</w>"
    ],
    [
      "ঘ",
      "া"
    ],
    [
      "ব",
      "ি</w>"
    ],
    [
      "ধ",
      "ু"
    ],
    [
      "’",
      "ত</w>"
    ],
    [
      "দ",
      "িয়"
    ],
    [
      "ব্যক্ত",
      "ি"
    ],
    [
      ".",
      "</w>"
    ],
    [
      "ঞ্",
      "জ"
    ],
    [
      "অং",
      "শ</w>"
    ],
    [
      "হ",
      "ত"
    ],
    [
      "াৰ",
      "া"
    ],
    [
      "ট",
      "ত</w>"
    ],
    [
      "অভিন",
      "য়</w>"
    ],
    [
      "ৰা",
      "খি"
    ],
    [
      "পৰ",
      "্য"
    ],
    [
      "ডা",
      "ঙৰ</w>"
    ],
    [
      "ৰ",
      ",</w>"
    ],
    [
      "ব্ৰি",
      "টি"
    ],
    [
      "ফ",
      "িল"
    ],
    [
      "ফ",
      "া"
    ],
    [
      "পৰী",
      "ক্ষ"
    ],
    [
      "স্থা",
      "ন</w>"
    ],
    [
      "ণ",
      "ে</w>"
    ],
    [
      "ই",
      "ং"
    ],
    [
      "আ",
      "হ"
    ],
    [
      "ন",
      "ৈ"
    ],
    [
      "ব",
      "ন্দ"
    ],
    [
      "পৰ",
      "ম্"
    ],
    [
      "কাৰ",
      "ণ</w>"
    ],
    [
      "উ",
      "পা"
    ],
    [
      "ৌ",
      "ৰ"
    ],
    [
      "ল",
      "ত</w>"
    ],
    [
      "সংখ",
      "্য"
    ],
    [
      "ঃ",
      "</w>"
    ],
    [
      "্ব",
      "</w>"
    ],
    [
      "ত",
      "ৃ"
    ],
    [
      "য",
      "িয়ে</w>"
    ],
    [
      "ৰা",
      "ই</w>"
    ],
    [
      "ী",
      ",</w>"
    ],
    [
      "চাৰ",
      "ি"
    ],
    [
      "স",
      "ল"
    ],
    [
      "জ",
      "াৰ"
    ],
    [
      "মূল",
      "ক</w>"
    ],
    [
      "জ",
      "্য"
    ],
    [
      "জ্ঞ",
      "া"
    ],
    [
      "ই",
      "তি"
    ],
    [
      "পশ্চি",
      "ম</w>"
    ],
    [
      "ৱ",
      "াৰ</w>"
    ],
    [
      "চ",
      "ি</w>"
    ],
    [
      "মু",
      "কলি</w>"
    ],
    [
      "ত",
      "।</w>"
    ],
    [
      "দ",
      "িল"
    ],
    [
      "বি",
      "শ্বা"
    ],
    [
      "তে",
      "তিয়া</w>"
    ],
    [
      "প্ৰতি",
      "যোগিত"
    ],
    [
      "ত",
      "ো"
    ],
    [
      "ত",
      "াৰ"
    ],
    [
      "মা",
      "নৰ</w>"
    ],
    [
      "গ",
      "ীত</w>"
    ],
    [
      "আন্ত",
      "ঃ"
    ],
    [
      "টো",
      "ক</w>"
    ],
    [
      "প",
      "ত</w>"
    ],
    [
      "ব",
      "ঢ়"
    ],
    [
      "চ",
      "ৰ</w>"
    ],
    [
      "ত",
      "ত</w>"
    ],
    [
      "মা",
      "ত্ৰ</w>"
    ],
    [
      "ট",
      "ু"
    ],
    [
      "নি",
      "শ্"
    ],
    [
      "সম্",
      "পূৰ্ণ</w>"
    ],
    [
      "আ",
      "ক্ৰম"
    ],
    [
      "দ্বিত",
      "ীয়</w>"
    ],
    [
      "ৱ",
      "ৰ</w>"
    ],
    [
      "পা",
      "ছ"
    ],
    [
      "১৯",
      "৬"
    ],
    [
      "তা",
      "ত</w>"
    ],
    [
      "এ",
      "কা"
    ],
    [
      "সাধাৰ",
      "ণ</w>"
    ],
    [
      "বেছ",
      "ি</w>"
    ],
    [
      "চেষ্ট",
      "া</w>"
    ],
    [
      "ত",
      "থ"
    ],
    [
      "প্ৰ",
      "কাশ</w>"
    ],
    [
      "ী",
      "ষ্ট"
    ],
    [
      "এ",
      "ম"
    ],
    [
      "য",
      "োৱা</w>"
    ],
    [
      "প্ৰ",
      "দৰ্শ"
    ],
    [
      "জন",
      "ে</w>"
    ],
    [
      "ৱে",
      "শ"
    ],
    [
      "হ",
      "ু"
    ],
    [
      "বি",
      "ধ"
    ],
    [
      "ক্",
      "লা"
    ],
    [
      "ক",
      "ন"
    ],
    [
      "মা",
      "হত</w>"
    ],
    [
      "জ",
      "ো"
    ],
    [
      "হ",
      "াই"
    ],
    [
      "বন্ধ",
      "</w>"
    ],
    [
      "পা",
      "দ"
    ],
    [
      "ী",
      "ন"
    ],
    [
      "জ",
      "না"
    ],
    [
      "জন",
      "া</w>"
    ],
    [
      "মূ",
      "ল</w>"
    ],
    [
      "সমূহ",
      "ে</w>"
    ],
    [
      "পৰি",
      "ছিল।</w>"
    ],
    [
      "ঠ",
      "ি"
    ],
    [
      "ম্ব",
      "ৰত</w>"
    ],
    [
      "বা",
      "স</w>"
    ],
    [
      "পূ",
      "ব</w>"
    ],
    [
      "না",
      "ক</w>"
    ],
    [
      "এ",
      "</w>"
    ],
    [
      "কৰ",
      "ণ</w>"
    ],
    [
      "সল",
      "নি</w>"
    ],
    [
      "ং",
      "শ</w>"
    ],
    [
      "আ",
      "ছে,</w>"
    ],
    [
      "জন",
      "ক</w>"
    ],
    [
      "প",
      "্ট"
    ],
    [
      "কৰ",
      "ক।</w>"
    ],
    [
      "ক",
      ",</w>"
    ],
    [
      "ল",
      "'"
    ],
    [
      "গ",
      "ড়"
    ],
    [
      "ঠ",
      "াই"
    ],
    [
      "চ",
      "ন</w>"
    ],
    [
      "কে",
      "ন্দ্ৰ"
    ],
    [
      "এ",
      "নে</w>"
    ],
    [
      "খ",
      "ু"
    ],
    [
      "শ",
      "ক্ত"
    ],
    [
      "উল্লে",
      "খ</w>"
    ],
    [
      "ৰ",
      "িক</w>"
    ],
    [
      "ব",
      "ী"
    ],
    [
      "সম",
      "স"
    ],
    [
      "না",
      "ম</w>"
    ],
    [
      "স্থা",
      "পন</w>"
    ],
    [
      "আৰম্",
      "ভ"
    ],
    [
      "কা",
      "ত</w>"
    ],
    [
      "কিল",
      "ো"
    ],
    [
      "১",
      "০"
    ],
    [
      "ত",
      "ঃ</w>"
    ],
    [
      "তি",
      "ত</w>"
    ],
    [
      "ম",
      "ন্ত্ৰ"
    ],
    [
      "শ",
      "ব্"
    ],
    [
      "স্",
      "প"
    ],
    [
      "জন",
      "প্ৰ"
    ],
    [
      "জন্",
      "ম</w>"
    ],
    [
      "দ্ব",
      "ী"
    ],
    [
      "ব্যৱ",
      "সা"
    ],
    [
      "ৈ",
      "কে</w>"
    ],
    [
      "স",
      "ন্ত"
    ],
    [
      "খ",
      "ন"
    ],
    [
      "া",
      "ন"
    ],
    [
      "ফু",
      "ট"
    ],
    [
      "অৱস্থ",
      "িত।</w>"
    ],
    [
      "জ",
      "ৰিয়"
    ],
    [
      "অন",
      "্য"
    ],
    [
      "স",
      "প্"
    ],
    [
      "ভা",
      "ই"
    ],
    [
      "শ",
      "ং"
    ],
    [
      "ন",
      "োৱ"
    ],
    [
      "হিন্দ",
      "ু</w>"
    ],
    [
      "লগ",
      "ত</w>"
    ],
    [
      "বছ",
      "ৰ"
    ],
    [
      "ীয়",
      "া"
    ],
    [
      "হ",
      "্ৰা"
    ],
    [
      "নী",
      "ত</w>"
    ],
    [
      "াৰ",
      "ী</w>"
    ],
    [
      "ধ",
      "ি"
    ],
    [
      "দে",
      "শ</w>"
    ],
    [
      "আগ",
      "বঢ়"
    ],
    [
      "টা",
      "ও</w>"
    ],
    [
      "পু",
      "ৰু"
    ],
    [
      "আমে",
      "ৰি"
    ],
    [
      "অনুস",
      "ৰি</w>"
    ],
    [
      "জ",
      "ি</w>"
    ],
    [
      "ধা",
      "ন"
    ],
    [
      "পুৰু",
      "ষ"
    ],
    [
      "প",
      "ি</w>"
    ],
    [
      "অন্তৰ্",
      "ভুক্ত</w>"
    ],
    [
      "স্ব",
      "ৰূ"
    ],
    [
      "দ",
      "ো"
    ],
    [
      "না",
      "ড"
    ],
    [
      "গ",
      "ি"
    ],
    [
      "আগ",
      "তে</w>"
    ],
    [
      "ভ",
      "াল"
    ],
    [
      "মধ",
      "্য"
    ],
    [
      "লো",
      "কৰ</w>"
    ],
    [
      "জৰিয়",
      "তে</w>"
    ],
    [
      "ছ",
      "ু</w>"
    ],
    [
      "স",
      "ো"
    ],
    [
      "পৰ",
      "িয়াল"
    ],
    [
      "ট্ৰ",
      "ে"
    ],
    [
      "ক্ৰ",
      "ি"
    ],
    [
      "চ",
      "াই"
    ],
    [
      "সু",
      "ৰক্ষ"
    ],
    [
      "বো",
      "ৰত</w>"
    ],
    [
      "বা",
      "ই"
    ],
    [
      "সম্",
      "প্ৰ"
    ],
    [
      "বয়",
      "সত</w>"
    ],
    [
      "বা",
      "দ</w>"
    ],
    [
      "োৱ",
      "াত</w>"
    ],
    [
      "সংখ",
      "্যা</w>"
    ],
    [
      "তা",
      "ই</w>"
    ],
    [
      "চে",
      "ম্প"
    ],
    [
      "ফ",
      "ল</w>"
    ],
    [
      "নাই",
      "।</w>"
    ],
    [
      "দ",
      "লৰ</w>"
    ],
    [
      "দি",
      "ন</w>"
    ],
    [
      "চ",
      "হ"
    ],
    [
      "পৰি",
      "মা"
    ],
    [
      "ম",
      "ী</w>"
    ],
    [
      "খ",
      "নে</w>"
    ],
    [
      "কৰ",
      "াত</w>"
    ],
    [
      "ঘ",
      "ূ"
    ],
    [
      "অধ",
      "্য"
    ],
    [
      "হ্ৰা",
      "স</w>"
    ],
    [
      "ঘ",
      "োষ"
    ],
    [
      "ৰ",
      "ো</w>"
    ],
    [
      "ব",
      "িল"
    ],
    [
      "য",
      "থে"
    ],
    [
      "১৯",
      "</w>"
    ],
    [
      "ক্ৰ",
      "ী"
    ],
    [
      ";",
      "</w>"
    ],
    [
      "দিল",
      "্ল"
    ],
    [
      "সম",
      "য়</w>"
    ],
    [
      "ব",
      "াৰে</w>"
    ],
    [
      "খ",
      "্ৰ"
    ],
    [
      "াৰ্",
      "থ"
    ],
    [
      "না",
      "ত</w>"
    ],
    [
      "ে",
      "ও</w>"
    ],
    [
      "চ",
      "াৰ</w>"
    ],
    [
      "স",
      "ঁ"
    ],
    [
      "নি",
      "ত</w>"
    ],
    [
      "োগ",
      "</w>"
    ],
    [
      "তিয়া",
      "ও</w>"
    ],
    [
      "কেইবা",
      "টাও</w>"
    ],
    [
      "ন",
      "্যা"
    ],
    [
      "কৰা",
      "টো</w>"
    ],
    [
      "তা",
      "মিল"
    ],
    [
      "স্থান",
      "ীয়</w>"
    ],
    [
      "খ্ৰ",
      "ীষ্ট"
    ],
    [
      "থ",
      "কাৰ</w>"
    ],
    [
      "ভ",
      "ৱ</w>"
    ],
    [
      "ব",
      "দ্ধ</w>"
    ],
    [
      "ব",
      "ঁ"
    ],
    [
      "ৰা",
      "ই"
    ],
    [
      "জ",
      "াৰ্"
    ],
    [
      "গ",
      "্"
    ],
    [
      "ম",
      "িত</w>"
    ],
    [
      "য",
      "’ত</w>"
    ],
    [
      "সং",
      "গী"
    ],
    [
      "ম",
      "ন"
    ],
    [
      "যথে",
      "ষ্ট</w>"
    ],
    [
      "গঠ",
      "ন</w>"
    ],
    [
      "দি",
      "শ"
    ],
    [
      "শ",
      "ৈ"
    ],
    [
      "োৱ",
      "াল"
    ],
    [
      "কি",
      "ছু</w>"
    ],
    [
      "য়",
      "াৰ"
    ],
    [
      "জ",
      "ৈ"
    ],
    [
      "১৯",
      "৫"
    ],
    [
      "দ",
      "ৃ"
    ],
    [
      "লি",
      "ম্প"
    ],
    [
      "ৰ",
      "-"
    ],
    [
      "কা",
      "শ"
    ],
    [
      "ত্ত",
      "ি</w>"
    ],
    [
      "কৰ",
      "্ম"
    ],
    [
      "চলচ্চ",
      "িত্ৰ</w>"
    ],
    [
      "খ",
      "ো"
    ],
    [
      "ব্ৰিটি",
      "ছ</w>"
    ],
    [
      "চ",
      "ী"
    ],
    [
      "পাৰি",
      "।</w>"
    ],
    [
      "জ",
      "ড়"
    ],
    [
      "ষ্ট",
      "ি"
    ],
    [
      "ম",
      "িক</w>"
    ],
    [
      "উ",
      "দা"
    ],
    [
      "আ",
      "ছিল,</w>"
    ],
    [
      "দিয়",
      "ে।</w>"
    ],
    [
      "্ট",
      "</w>"
    ],
    [
      "ম",
      "।</w>"
    ],
    [
      "শতি",
      "কাৰ</w>"
    ],
    [
      "ছু",
      "ই"
    ],
    [
      "সি",
      "দ্ধ"
    ],
    [
      "কোম্পা",
      "নী"
    ],
    [
      "ড",
      "ৰ</w>"
    ],
    [
      "লো",
      "ক</w>"
    ],
    [
      "কাৰ",
      "ে</w>"
    ],
    [
      "য",
      "িক"
    ],
    [
      "খ",
      "্যা"
    ],
    [
      "ব",
      "্ৰা"
    ],
    [
      "বিশেষ",
      "</w>"
    ],
    [
      "যিক",
      "োনো</w>"
    ],
    [
      "ক",
      "ভাৱে</w>"
    ],
    [
      "অ",
      "ষ্ট্ৰ"
    ],
    [
      "বিচাৰ",
      "ি</w>"
    ],
    [
      "প",
      "ক্ষ"
    ],
    [
      "উদা",
      "হৰ"
    ],
    [
      "ল",
      "ী</w>"
    ],
    [
      "স্ব",
      "ী"
    ],
    [
      "প",
      "াৰ</w>"
    ],
    [
      "ফ",
      "াই"
    ],
    [
      "শ",
      "া</w>"
    ],
    [
      "ৰ",
      "লৈ</w>"
    ],
    [
      "ইয়",
      "াৰ</w>"
    ],
    [
      "নিশ্",
      "চিত</w>"
    ],
    [
      "ম",
      "ে</w>"
    ],
    [
      "ভ",
      "াৰ</w>"
    ],
    [
      "সময়",
      "ৰ</w>"
    ],
    [
      "খে",
      "ল</w>"
    ],
    [
      "ব",
      "াৰৰ</w>"
    ],
    [
      "চৰ",
      "িত্ৰ"
    ],
    [
      "িল",
      "ে</w>"
    ],
    [
      "ে",
      "ৰে</w>"
    ],
    [
      "অভি",
      "নে"
    ],
    [
      "শিল",
      "্প"
    ],
    [
      "-",
      "</w>"
    ],
    [
      "লে",
      "ণ্ডৰ</w>"
    ],
    [
      "বি",
      "ভা"
    ],
    [
      "সম্",
      "ভাৱ"
    ],
    [
      "না",
      "মে"
    ],
    [
      "বছ",
      "ৰৰ</w>"
    ],
    [
      "ল",
      "োৱা</w>"
    ],
    [
      "উদ",
      "যা"
    ],
    [
      "নিয়",
      "ন্ত্ৰ"
    ],
    [
      "ফ",
      "ৰ্"
    ],
    [
      "কৰি",
      "ব।</w>"
    ],
    [
      "ড",
      "্ৰ"
    ],
    [
      "ী",
      "সকলে</w>"
    ],
    [
      "পাল",
      "ন</w>"
    ],
    [
      "গ",
      "্ৰ</w>"
    ],
    [
      "ঘোষ",
      "ণা</w>"
    ],
    [
      "চহৰ",
      "।</w>"
    ],
    [
      "ৰ",
      "াৰ</w>"
    ],
    [
      "ণ্ট",
      "াৰ"
    ],
    [
      "আ",
      "ত্ম"
    ],
    [
      "িক",
      "ভাৱে</w>"
    ],
    [
      "ৰণ",
      "ি</w>"
    ],
    [
      "মি",
      "নি"
    ],
    [
      "আপ",
      "ো"
    ],
    [
      "১",
      "৭"
    ],
    [
      "থ",
      "ি"
    ],
    [
      "ধৰ্",
      "ম"
    ],
    [
      "ন",
      "হয়।</w>"
    ],
    [
      "ৱৰ্ত",
      "ী</w>"
    ],
    [
      "লে",
      "ণ্ড"
    ],
    [
      "অৱশ্য",
      "ে,</w>"
    ],
    [
      "বে",
      "দ"
    ],
    [
      "হ",
      "য়"
    ],
    [
      "থাকি",
      "ব</w>"
    ],
    [
      "নি",
      "জ"
    ],
    [
      "প্",
      "লে"
    ],
    [
      "ণ",
      "ী"
    ],
    [
      "চ",
      "ো"
    ],
    [
      "জ",
      "িত</w>"
    ],
    [
      "জিল",
      "াৰ</w>"
    ],
    [
      "ঢ়",
      "ি</w>"
    ],
    [
      "ভ",
      "্ৰ"
    ],
    [
      "সৰ্",
      "ব"
    ],
    [
      "াই",
      "ছিল।</w>"
    ],
    [
      "বৰ্",
      "ণ"
    ],
    [
      "ষ্",
      "ণ"
    ],
    [
      "য়",
      "ন</w>"
    ],
    [
      "দা",
      "য়"
    ],
    [
      "চ",
      "িত্ৰ"
    ],
    [
      "নে",
      "ল</w>"
    ],
    [
      "প্ৰ",
      "ধান</w>"
    ],
    [
      "সাম",
      "্ৰা"
    ],
    [
      "ুৱ",
      "া</w>"
    ],
    [
      "পা",
      "ঁ"
    ],
    [
      "সম",
      "গ্ৰ</w>"
    ],
    [
      "ওচ",
      "ৰত</w>"
    ],
    [
      "পূৰ্",
      "ণ"
    ],
    [
      "ড",
      "াৰ"
    ],
    [
      "আ",
      "নু"
    ],
    [
      "স্",
      "ত্ৰ"
    ],
    [
      "কৃ",
      "ত</w>"
    ],
    [
      "ন",
      "দী"
    ],
    [
      "১৯",
      "৪"
    ],
    [
      "নৈ",
      "তিক</w>"
    ],
    [
      "উ",
      "ই"
    ],
    [
      "কিলো",
      "মিটাৰ</w>"
    ],
    [
      "অ",
      "লিম্প"
    ],
    [
      "আপো",
      "নাক</w>"
    ],
    [
      "পৃ",
      "ষ্ঠ"
    ],
    [
      ",০০",
      "০</w>"
    ],
    [
      "ঠ",
      "া"
    ],
    [
      "ফ",
      "</w>"
    ],
    [
      "সং",
      "ক্ৰম"
    ],
    [
      "প",
      "তি</w>"
    ],
    [
      "সপ্",
      "তা"
    ],
    [
      "তেওঁলো",
      "কক</w>"
    ],
    [
      "িত",
      "া"
    ],
    [
      "১",
      "৫"
    ],
    [
      "চ",
      "ত</w>"
    ],
    [
      "ভ",
      "ৱ"
    ],
    [
      "লো",
      "কে</w>"
    ],
    [
      "িয়া",
      "ই</w>"
    ],
    [
      "অ",
      "’"
    ],
    [
      "শ্ব",
      "ে"
    ],
    [
      "হ",
      "্"
    ],
    [
      "কাল",
      "ীন</w>"
    ],
    [
      "ফ",
      "ো"
    ],
    [
      "বিশ্বা",
      "স</w>"
    ],
    [
      "নোৱ",
      "াৰ"
    ],
    [
      "প্ৰ",
      "স্তু"
    ],
    [
      "ড",
      "ি</w>"
    ],
    [
      "গা",
      "ড়"
    ],
    [
      "যা",
      "ত্ৰ"
    ],
    [
      "বিশ্ব",
      "</w>"
    ],
    [
      "প্ৰা",
      "য়ে</w>"
    ],
    [
      "পৰম্",
      "পৰা"
    ],
    [
      "টি",
      "ৰ</w>"
    ],
    [
      "ন",
      "্য"
    ],
    [
      "প",
      "ৌৰ"
    ],
    [
      "উৎ",
      "পাদ"
    ],
    [
      "জ",
      "য়</w>"
    ],
    [
      "চ",
      "ল</w>"
    ],
    [
      "ী",
      "য়</w>"
    ],
    [
      "ভ",
      "ৰ</w>"
    ],
    [
      "উ",
      "ণ্ট"
    ],
    [
      "জা",
      "নু"
    ],
    [
      "ি",
      "শ"
    ],
    [
      "ক্ষ",
      "ম"
    ],
    [
      "গ",
      "া</w>"
    ],
    [
      "ম্",
      "পি"
    ],
    [
      "জানু",
      "ৱাৰ"
    ],
    [
      "হা",
      "স"
    ],
    [
      "গ্ৰ",
      "ী"
    ],
    [
      "স",
      "াৰ"
    ],
    [
      "কা",
      "হি"
    ],
    [
      "দী",
      "ঘ"
    ],
    [
      "ইউ",
      "ৰো"
    ],
    [
      "ক",
      "ৌ"
    ],
    [
      "স্থ",
      "ি"
    ],
    [
      "২০",
      "২"
    ],
    [
      "গে",
      "'"
    ],
    [
      "ব",
      "স্তু"
    ],
    [
      "বিশেষ",
      "কৈ</w>"
    ],
    [
      "ম",
      "'"
    ],
    [
      "ন",
      "।</w>"
    ],
    [
      "পা",
      "নী</w>"
    ],
    [
      "না",
      "ট"
    ],
    [
      "চেম্প",
      "িয়ন"
    ],
    [
      "ি",
      "বলৈ</w>"
    ],
    [
      "ণ",
      "ী</w>"
    ],
    [
      "চিকিৎস",
      "া</w>"
    ],
    [
      "খ",
      "ৰ"
    ],
    [
      "গ",
      "’"
    ],
    [
      "মু",
      "ঠ</w>"
    ],
    [
      "ৰোগ",
      "</w>"
    ],
    [
      "ব",
      "ী</w>"
    ],
    [
      "ক্",
      "স</w>"
    ],
    [
      "ব",
      "ংশ"
    ],
    [
      "আন্তঃ",
      "ৰাষ্ট্ৰীয়</w>"
    ],
    [
      "ঞ্",
      "জা"
    ],
    [
      "সং",
      "গীত</w>"
    ],
    [
      "অৱস্থ",
      "িত</w>"
    ],
    [
      "ৰা",
      "খ"
    ],
    [
      "বিক্ৰ",
      "ী</w>"
    ],
    [
      "নি",
      "যু"
    ],
    [
      "উচ্চ",
      "</w>"
    ],
    [
      "!",
      "</w>"
    ],
    [
      "পৰি",
      "কল্প"
    ],
    [
      "চ",
      "িল"
    ],
    [
      "হ’",
      "ল</w>"
    ],
    [
      "অঞ্চল",
      "ত</w>"
    ],
    [
      "হ",
      "াৰৰ</w>"
    ],
    [
      "ৰো",
      "ধ"
    ],
    [
      "জ",
      "্"
    ],
    [
      "নদ",
      "ীৰ</w>"
    ],
    [
      "সে",
      "ৱা</w>"
    ],
    [
      "কল",
      "া"
    ],
    [
      "জা",
      "ত</w>"
    ],
    [
      "মু",
      "ক্তি</w>"
    ],
    [
      "উ",
      "দ্ভ"
    ],
    [
      "োঁ",
      "</w>"
    ],
    [
      "ৰে",
      "'"
    ],
    [
      "ম্ব",
      "ৰ</w>"
    ],
    [
      "০",
      "০</w>"
    ],
    [
      "ম্",
      "ভ"
    ],
    [
      "দি",
      "নৰ</w>"
    ],
    [
      "%",
      "</w>"
    ],
    [
      "'",
      "ৰ</w>"
    ],
    [
      "অধ",
      "ি"
    ],
    [
      "প্ৰতি",
      "টো</w>"
    ],
    [
      "ৃ",
      "ত</w>"
    ],
    [
      "ভাৰত",
      "ত</w>"
    ],
    [
      "ী",
      "সকলৰ</w>"
    ],
    [
      "য",
      "োৱাৰ</w>"
    ],
    [
      "লাগি",
      "ব।</w>"
    ],
    [
      "ৰ্",
      "ষ"
    ],
    [
      "হ",
      "োৱা"
    ],
    [
      "সম্",
      "প"
    ],
    [
      "ম",
      "োগ"
    ],
    [
      "বিশ্ব",
      "বিদ্যাল"
    ],
    [
      "ভাৰ",
      "ত</w>"
    ],
    [
      "বা",
      "ছ"
    ],
    [
      "যা",
      "ক</w>"
    ],
    [
      "ব",
      "লগ"
    ],
    [
      "মাৰ",
      "া"
    ],
    [
      "স্",
      "কে"
    ],
    [
      "তা",
      "ক</w>"
    ],
    [
      "ত",
      "াই"
    ],
    [
      "স্থা",
      "প"
    ],
    [
      "ব্ৰ",
      "ে"
    ],
    [
      "িয়া",
      "ত</w>"
    ],
    [
      "ৱে",
      "শ</w>"
    ],
    [
      "পৰি",
      "ৱেশ"
    ],
    [
      "সম",
      "ৰ্থ"
    ],
    [
      "সা",
      "হ"
    ],
    [
      "িত",
      "্ব</w>"
    ],
    [
      "বৰ্ত",
      "মান</w>"
    ],
    [
      "সম",
      "য়"
    ],
    [
      "স্থ",
      "া</w>"
    ],
    [
      "ভ",
      "ো"
    ],
    [
      "ঠ",
      "িক</w>"
    ],
    [
      "ৱা",
      "ই</w>"
    ],
    [
      "উ",
      "দ্"
    ],
    [
      "ম",
      "নো"
    ],
    [
      "জ",
      "্ব"
    ],
    [
      "পে",
      ",</w>"
    ],
    [
      "দি",
      "ষ্ট</w>"
    ],
    [
      "উ",
      "ভ"
    ],
    [
      "কৰি",
      "ছে</w>"
    ],
    [
      "কা",
      "ন"
    ],
    [
      "জড়",
      "িত</w>"
    ],
    [
      "পূৰ্ব",
      "ে</w>"
    ],
    [
      "আঁ",
      "ত"
    ],
    [
      "বো",
      "ৰক</w>"
    ],
    [
      "১",
      "০</w>"
    ],
    [
      "হৈ",
      "ছিল"
    ],
    [
      "সন্",
      "মুখ"
    ],
    [
      "১",
      "৬"
    ],
    [
      "ম",
      "তি</w>"
    ],
    [
      "সৰ্",
      "বাধ"
    ],
    [
      "বেল",
      "ে"
    ],
    [
      "শেষ",
      "ত</w>"
    ],
    [
      "ত",
      "থা</w>"
    ],
    [
      "ভূ",
      "মি"
    ],
    [
      "ৰো",
      "ধ</w>"
    ],
    [
      "ক",
      "ূ"
    ],
    [
      "ড",
      "ু"
    ],
    [
      "ত",
      "ৈ"
    ],
    [
      "শ্য",
      "ন</w>"
    ],
    [
      "ক্ৰ",
      "ে"
    ],
    [
      "প্ৰ",
      "শিক্ষ"
    ],
    [
      "পু",
      "ৰণি</w>"
    ],
    [
      "দি",
      "ব</w>"
    ],
    [
      "ৰ্",
      "ঘ"
    ],
    [
      "নামে",
      "ৰে</w>"
    ],
    [
      "'",
      "ৰ্"
    ],
    [
      "ম্পি",
      "উ"
    ],
    [
      "ন",
      "ৱে"
    ],
    [
      "ৰাজ",
      "্য</w>"
    ],
    [
      "চ",
      "ুল"
    ],
    [
      "দেশ",
      "ত</w>"
    ],
    [
      "মানু",
      "হে</w>"
    ],
    [
      "ক",
      "ম্পিউ"
    ],
    [
      "অষ্ট্ৰ",
      "েল"
    ],
    [
      "কৈ",
      "ছিল</w>"
    ],
    [
      "অনু",
      "ভৱ</w>"
    ],
    [
      "পৰ",
      "ৱৰ্তী</w>"
    ],
    [
      "উদাহৰ",
      "ণ"
    ],
    [
      "ভ্ৰ",
      "ম"
    ],
    [
      "ই",
      "ন</w>"
    ],
    [
      "য়",
      "াৰ</w>"
    ],
    [
      "ম",
      ",</w>"
    ],
    [
      "মৃত্য",
      "ুৰ</w>"
    ],
    [
      "অ",
      "ক্ট"
    ],
    [
      "যোগ",
      "্য</w>"
    ],
    [
      "পৰা",
      "ম"
    ],
    [
      "আ",
      "চৰ"
    ],
    [
      "ক্ৰী",
      "ড়"
    ],
    [
      "উ",
      "ঠ"
    ],
    [
      "ন্ত",
      "ৰ</w>"
    ],
    [
      "অ",
      "হা</w>"
    ],
    [
      "চেম্পিয়ন",
      "শ্বি"
    ],
    [
      "ল",
      "’"
    ],
    [
      "য়",
      "ক</w>"
    ],
    [
      "কা",
      "ষ"
    ],
    [
      "অৱ",
      "স্থা"
    ],
    [
      "খি",
      "নি</w>"
    ],
    [
      "তথ",
      "্য</w>"
    ],
    [
      "যুদ্ধ",
      "ৰ</w>"
    ],
    [
      "তাল",
      "িকা"
    ],
    [
      "চ",
      "ী</w>"
    ],
    [
      "ম",
      "ী"
    ],
    [
      "াল",
      "ৈ</w>"
    ],
    [
      "গণ",
      "্য</w>"
    ],
    [
      "প্র",
      "তি"
    ],
    [
      "অ",
      "ভ"
    ],
    [
      "থা",
      "কে</w>"
    ],
    [
      "শ্ৰে",
      "ষ্ঠ</w>"
    ],
    [
      "যু",
      "ঁ"
    ],
    [
      "মু",
      "ছ"
    ],
    [
      "বা",
      "ত"
    ],
    [
      "প্ৰা",
      "চ"
    ],
    [
      "ৰ",
      "িত</w>"
    ],
    [
      "নে",
      "ট"
    ],
    [
      "ড",
      "ল"
    ],
    [
      "শ",
      "ৃ"
    ],
    [
      "জনপ্ৰ",
      "িয়</w>"
    ],
    [
      "বে",
      "ং"
    ],
    [
      "ন",
      "েল"
    ],
    [
      "আৰ",
      "ক্ষ"
    ],
    [
      "হ'",
      "ল</w>"
    ],
    [
      "আমেৰি",
      "কান</w>"
    ],
    [
      "হত",
      "্যা</w>"
    ],
    [
      "কাল",
      "ত</w>"
    ],
    [
      "পৰ",
      "্যা"
    ],
    [
      "ত্ব",
      "</w>"
    ],
    [
      "সংখ্য",
      "ক</w>"
    ],
    [
      "প",
      "ক</w>"
    ],
    [
      "অক্ট",
      "ো"
    ],
    [
      "ডি",
      "চে"
    ],
    [
      "দ",
      "িয়াৰ</w>"
    ],
    [
      "উপ",
      "ল"
    ],
    [
      "দেখ",
      "ু"
    ],
    [
      "ন্",
      "স"
    ],
    [
      "পৃথ",
      "ক</w>"
    ],
    [
      "সেই",
      "বোৰ</w>"
    ],
    [
      "?",
      "</w>"
    ],
    [
      "স্থ",
      "িত</w>"
    ],
    [
      "প্ৰয়ো",
      "জন</w>"
    ],
    [
      "খেল",
      "ৰ</w>"
    ],
    [
      "কে",
      "ল</w>"
    ],
    [
      "য়",
      "ু"
    ],
    [
      "গ্ৰ",
      "হ</w>"
    ],
    [
      "ন",
      "গৰ"
    ],
    [
      "পৰি",
      "শো"
    ],
    [
      "নিৰ্",
      "দিষ্ট</w>"
    ],
    [
      "মি",
      "উ"
    ],
    [
      "পৰা",
      "স্ত</w>"
    ],
    [
      "ক",
      "’"
    ],
    [
      "উদযা",
      "পন</w>"
    ],
    [
      "প্ৰতি",
      "নি"
    ],
    [
      "প্ট",
      "ে"
    ],
    [
      "উপল",
      "ব্"
    ],
    [
      "যে",
      "নে</w>"
    ],
    [
      "উ",
      "পৰি"
    ],
    [
      "এ",
      "তিয়া</w>"
    ],
    [
      "সৰ্বাধ",
      "িক</w>"
    ],
    [
      "ক",
      "ো</w>"
    ],
    [
      "গ",
      "ৃ"
    ],
    [
      "আ",
      "ক্ৰ"
    ],
    [
      "প্ৰ",
      "দেশৰ</w>"
    ],
    [
      "শেষ",
      "</w>"
    ],
    [
      "মন্দি",
      "ৰ</w>"
    ],
    [
      "অতি",
      "ৰি"
    ],
    [
      "ফুট",
      "বল</w>"
    ],
    [
      "বি",
      "ৰ"
    ],
    [
      "এ",
      "প্ৰ"
    ],
    [
      "অন্য",
      "তম</w>"
    ],
    [
      "ন",
      "ৃত"
    ],
    [
      "প্ৰয়ো",
      "জন"
    ],
    [
      "বি",
      "জ্ঞা"
    ],
    [
      "জৈ",
      "ন</w>"
    ],
    [
      "ৰ",
      "খা</w>"
    ],
    [
      "িল",
      "ে"
    ],
    [
      "পৰিচাল",
      "না</w>"
    ],
    [
      "াল",
      "ৰ</w>"
    ],
    [
      "প্ৰস্তু",
      "ত</w>"
    ],
    [
      "এ",
      "লে"
    ],
    [
      "ষ্ঠ",
      "া"
    ],
    [
      "খ",
      "ল</w>"
    ],
    [
      "ৰাজ্য",
      "খনৰ</w>"
    ],
    [
      "লাগ",
      "ে।</w>"
    ],
    [
      "০",
      "ৰ</w>"
    ],
    [
      "ৰ",
      "।</w>"
    ],
    [
      "স্বৰূ",
      "পে,</w>"
    ],
    [
      "প্র",
      "া"
    ],
    [
      "পৰ",
      "ে।</w>"
    ],
    [
      "পা",
      "নীৰ</w>"
    ],
    [
      "স",
      "ভা"
    ],
    [
      "আ",
      "দ"
    ],
    [
      "পু",
      "ৰ</w>"
    ],
    [
      "প্ৰতিষ্ঠ",
      "া</w>"
    ],
    [
      "মা",
      "জে"
    ],
    [
      "অৰ্থ",
      "</w>"
    ],
    [
      "-",
      "ত</w>"
    ],
    [
      "পাই",
      "ছিল।</w>"
    ],
    [
      "ঙ্",
      "গ"
    ],
    [
      "পাৰ",
      "ে,</w>"
    ],
    [
      "তে",
      "ই</w>"
    ],
    [
      "ষ্ট",
      "াৰ</w>"
    ],
    [
      "স্বা",
      "স্থ"
    ],
    [
      "প",
      "দ্ধ"
    ],
    [
      "প",
      "ই"
    ],
    [
      "অতিৰি",
      "ক্ত</w>"
    ],
    [
      "বঁ",
      "টা</w>"
    ],
    [
      "বি",
      "মান"
    ],
    [
      "অ",
      "'</w>"
    ],
    [
      "প",
      "িত"
    ],
    [
      "দি",
      "বলৈ</w>"
    ],
    [
      "নদ",
      "ী</w>"
    ],
    [
      "খেল",
      "া</w>"
    ],
    [
      "ৰাজ",
      "ধা"
    ],
    [
      "পু",
      "ন"
    ],
    [
      "সা",
      "ং"
    ],
    [
      "শৃ",
      "ং"
    ],
    [
      "ক",
      "সকলে</w>"
    ],
    [
      "আন",
      "ন্দ"
    ],
    [
      "অ",
      "ল"
    ],
    [
      "কাৰ্য",
      "্য"
    ],
    [
      "প্ৰদৰ্শ",
      "ন</w>"
    ],
    [
      "প্ৰ",
      "ধান"
    ],
    [
      "সমূহ",
      "ক</w>"
    ],
    [
      "নি",
      "ৰ</w>"
    ],
    [
      "ব্",
      "লি"
    ],
    [
      "উ",
      "দ্য"
    ],
    [
      "পু",
      "ত্ৰ</w>"
    ],
    [
      "গ",
      "ৰৰ</w>"
    ],
    [
      "স্",
      "না"
    ],
    [
      "পৰি",
      "ৱৰ্ত"
    ],
    [
      "ত",
      "ভাৱে</w>"
    ],
    [
      "সু",
      "বিধ"
    ],
    [
      "নি",
      "ম্"
    ],
    [
      "ৰ্থ",
      "</w>"
    ],
    [
      "কে",
      ",</w>"
    ],
    [
      "সদস",
      "্য</w>"
    ],
    [
      "ু",
      "ত</w>"
    ],
    [
      "সম্ভাৱ",
      "না</w>"
    ],
    [
      "কৃ",
      "ষ"
    ],
    [
      "সিদ্ধ",
      "ান্ত</w>"
    ],
    [
      "নিযু",
      "ত</w>"
    ],
    [
      "বি",
      "খ্যা"
    ],
    [
      "নিৰ্",
      "ধাৰ"
    ],
    [
      "যুক্ত",
      "ি</w>"
    ],
    [
      "যি",
      "বোৰ</w>"
    ],
    [
      "ল",
      "ীৰ</w>"
    ],
    [
      "ন্",
      "থ"
    ],
    [
      "মহিল",
      "া</w>"
    ],
    [
      "িক",
      "ৰ</w>"
    ],
    [
      "সে",
      "য়ে"
    ],
    [
      "স্থা",
      "নত</w>"
    ],
    [
      "ফ",
      "্ল"
    ],
    [
      "বি",
      "পৰী"
    ],
    [
      "এই",
      "খন</w>"
    ],
    [
      "তিনি",
      "টা</w>"
    ],
    [
      "জ",
      "াই"
    ],
    [
      "দ",
      "ৈ"
    ],
    [
      "ৰ",
      "টো</w>"
    ],
    [
      "ধ",
      "ি</w>"
    ],
    [
      "আন",
      "হা"
    ],
    [
      "ত",
      "্"
    ],
    [
      "ব",
      "স্ত"
    ],
    [
      "পৰীক্ষ",
      "া</w>"
    ],
    [
      "ব্যক্তি",
      "গত</w>"
    ],
    [
      "আক্ৰ",
      "ান্ত</w>"
    ],
    [
      "হা",
      "তত</w>"
    ],
    [
      "চ",
      "তু"
    ],
    [
      "বহু",
      "ত</w>"
    ],
    [
      "দি",
      "য়া</w>"
    ],
    [
      "ি",
      "ব</w>"
    ],
    [
      "সাম",
      "ৰিক</w>"
    ],
    [
      "অধ",
      "ী"
    ],
    [
      "যে",
      "ন</w>"
    ],
    [
      "ন্দ",
      "্ৰ</w>"
    ],
    [
      "নে",
      "তৃত"
    ],
    [
      "ঘ",
      "াত</w>"
    ],
    [
      "ক",
      "থা"
    ],
    [
      "দূ",
      "ৰ"
    ],
    [
      "স্বা",
      "ধ"
    ],
    [
      "ছ",
      "ফ"
    ],
    [
      "মন্ত্ৰ",
      "ী</w>"
    ],
    [
      "অঞ্চল",
      "ৰ</w>"
    ],
    [
      "এ",
      "কে</w>"
    ],
    [
      "১",
      "২"
    ],
    [
      "গ্ৰা",
      "হ"
    ],
    [
      "ত",
      "ী</w>"
    ],
    [
      "ম",
      "েল"
    ],
    [
      "চ",
      "হৰ</w>"
    ],
    [
      "ধ",
      "্ব"
    ],
    [
      "বি",
      "ত্ত"
    ],
    [
      "ষ্ট",
      "া"
    ],
    [
      "অংশ",
      "গ্ৰহণ</w>"
    ],
    [
      "আ",
      "মাৰ</w>"
    ],
    [
      "গ",
      "তি"
    ],
    [
      "ঐ",
      "তি"
    ],
    [
      "গ",
      "াৰ"
    ],
    [
      "ইয়",
      "াক</w>"
    ],
    [
      "আ",
      "মি</w>"
    ],
    [
      "কল",
      "ে"
    ],
    [
      "ক্ষ",
      "ম</w>"
    ],
    [
      "তি",
      "য়া</w>"
    ],
    [
      "ৰ",
      "'"
    ],
    [
      "ৱা",
      "ন</w>"
    ],
    [
      "চি",
      "না"
    ],
    [
      "ৰ",
      "িয়াৰ</w>"
    ],
    [
      "মা",
      "হ"
    ],
    [
      "ণ্ট",
      "ি"
    ],
    [
      "শী",
      "ল"
    ],
    [
      "শব্",
      "দ"
    ],
    [
      "প",
      "ল"
    ],
    [
      "বি",
      "বে"
    ],
    [
      "২০১",
      "৪</w>"
    ],
    [
      "বৰ্ণ",
      "না</w>"
    ],
    [
      "লি",
      "খি"
    ],
    [
      "আহি",
      "ছে।</w>"
    ],
    [
      "ন",
      "-"
    ],
    [
      "ব",
      ",</w>"
    ],
    [
      "কে",
      "ৰা"
    ],
    [
      "গড়",
      "</w>"
    ],
    [
      "ে",
      "ল</w>"
    ],
    [
      "ৰোগ",
      "ৰ</w>"
    ],
    [
      "এ",
      "ড"
    ],
    [
      "ব্ৰ",
      "ুৱ"
    ],
    [
      "ম",
      "ণ্ড"
    ],
    [
      "ৰ",
      "জা</w>"
    ],
    [
      "মো",
      "ক</w>"
    ],
    [
      "জ",
      "ী</w>"
    ],
    [
      "পিত",
      "ৃ"
    ],
    [
      "ং",
      "গ</w>"
    ],
    [
      "দ",
      "খল</w>"
    ],
    [
      "শি",
      "শ"
    ],
    [
      "ফে",
      "ব্ৰুৱ"
    ],
    [
      "ৰ",
      "ঙ"
    ],
    [
      "লৈ",
      "ছিল।</w>"
    ],
    [
      "নি",
      "ব</w>"
    ],
    [
      "তেওঁলো",
      "ক</w>"
    ],
    [
      "ছ",
      "াই"
    ],
    [
      "বি",
      "নিয়"
    ],
    [
      "সী",
      "মা"
    ],
    [
      "বি",
      "ধ</w>"
    ],
    [
      "ক্ষ",
      "</w>"
    ],
    [
      "সদস",
      "্য"
    ],
    [
      "হ",
      "তা"
    ],
    [
      "উৎ",
      "প"
    ],
    [
      "কে",
      "নে"
    ],
    [
      "২০১",
      "০</w>"
    ],
    [
      "টি",
      "ং</w>"
    ],
    [
      "মানু",
      "হৰ</w>"
    ],
    [
      "২০১",
      "৩</w>"
    ],
    [
      "ো",
      "হ"
    ],
    [
      "ট",
      "ে</w>"
    ],
    [
      "কি",
      "স্তা"
    ],
    [
      "ীয়া",
      "কৈ</w>"
    ],
    [
      "পি",
      "ন্ধ"
    ],
    [
      "সমা",
      "লো"
    ],
    [
      "চহ",
      "ৰৰ</w>"
    ],
    [
      "ছুই",
      "ডে"
    ],
    [
      "প্ৰভাৱ",
      "</w>"
    ],
    [
      "প্ৰাচ",
      "ীন</w>"
    ],
    [
      "কৈ",
      "ও</w>"
    ],
    [
      "বস্ত",
      "ু</w>"
    ],
    [
      "৩",
      "০</w>"
    ],
    [
      "দ",
      "াৰ"
    ],
    [
      "অধী",
      "নত</w>"
    ],
    [
      "বিশ্ব",
      "ৰ</w>"
    ],
    [
      "কা",
      "ম"
    ],
    [
      "ন",
      "াল"
    ],
    [
      "ঘ",
      "ণ্ট"
    ],
    [
      "লোক",
      "সকলৰ</w>"
    ],
    [
      "য়",
      "ী</w>"
    ],
    [
      "ছে",
      "প্টে"
    ],
    [
      "ফ",
      "্ৰা"
    ],
    [
      "ৱ",
      "ে</w>"
    ],
    [
      "ত",
      "ু</w>"
    ],
    [
      "বা",
      "ণি"
    ],
    [
      "ী",
      "।</w>"
    ],
    [
      "খা",
      "দ্য</w>"
    ],
    [
      "ম",
      "ন</w>"
    ],
    [
      "চ",
      "াৰ্"
    ],
    [
      "ক",
      "ং"
    ],
    [
      "মানু",
      "হ"
    ],
    [
      "বৰ্",
      "ষ"
    ],
    [
      "পথ",
      "</w>"
    ],
    [
      "াল",
      "ো"
    ],
    [
      "মা",
      "হৰ</w>"
    ],
    [
      "২০",
      "২০</w>"
    ],
    [
      "ন্",
      "তি"
    ],
    [
      "দ",
      "া</w>"
    ],
    [
      "পৰিশো",
      "ধ</w>"
    ],
    [
      "ছ",
      "বি</w>"
    ],
    [
      "ই",
      "ণ্টাৰ"
    ],
    [
      "ধ",
      "িক</w>"
    ],
    [
      "তৃত",
      "ীয়</w>"
    ],
    [
      "অৱশ্য",
      "ে</w>"
    ],
    [
      "ঔ",
      "ষ"
    ],
    [
      "এ",
      "তিয়াও</w>"
    ],
    [
      "বেলে",
      "গ</w>"
    ],
    [
      "ভাই",
      "ৰা"
    ],
    [
      "কৰ্",
      "ষ"
    ],
    [
      "ও",
      "ৱা</w>"
    ],
    [
      "ম",
      "তে</w>"
    ],
    [
      "কৰি",
      "ছিল"
    ],
    [
      "ৰ",
      "দ্বাৰা</w>"
    ],
    [
      "সামগ্ৰ",
      "ী</w>"
    ],
    [
      "ফ্ৰ",
      "ে"
    ],
    [
      "ক",
      "িয়ন"
    ],
    [
      "কিয়ন",
      "ো</w>"
    ],
    [
      "খ",
      "নক</w>"
    ],
    [
      "পা",
      "শ"
    ],
    [
      "সাম্ৰা",
      "জ"
    ],
    [
      "কাৰ",
      "্"
    ],
    [
      "আনহা",
      "তে</w>"
    ],
    [
      "কো",
      "ষ"
    ],
    [
      "এ",
      "নে"
    ],
    [
      "াল",
      "ি"
    ],
    [
      "এ",
      "ক্স"
    ],
    [
      "ক্ৰ",
      "া"
    ],
    [
      "স",
      "ন্ধ"
    ],
    [
      "স্বী",
      "কাৰ</w>"
    ],
    [
      "আক্ৰম",
      "ণ</w>"
    ],
    [
      "ন",
      "ীয়ে</w>"
    ],
    [
      "প্ৰথম",
      "বাৰৰ</w>"
    ],
    [
      "নিয়",
      "ম"
    ],
    [
      "ছ",
      ",</w>"
    ],
    [
      "২০১",
      "১</w>"
    ],
    [
      "অনু",
      "মতি</w>"
    ],
    [
      "শ",
      "িত</w>"
    ],
    [
      "ব",
      "ৌ"
    ],
    [
      "্",
      "বি"
    ],
    [
      "শ",
      "াৰ"
    ],
    [
      "ইং",
      "ৰাজ"
    ],
    [
      "ঘট",
      "না"
    ],
    [
      "লি",
      "খ"
    ],
    [
      "বলগ",
      "ীয়া</w>"
    ],
    [
      "মাজে",
      "ৰে</w>"
    ],
    [
      "ধ",
      "্য"
    ],
    [
      "স্থা",
      "না"
    ],
    [
      "মুছ",
      "ল"
    ],
    [
      "কে",
      "তিয়া"
    ],
    [
      "াৰ",
      "ম্ভ"
    ],
    [
      "হ",
      "িত</w>"
    ],
    [
      "জ",
      "ে</w>"
    ],
    [
      "তৈ",
      "য়াৰ</w>"
    ],
    [
      "কৃ",
      "তিক</w>"
    ],
    [
      "জা",
      "হা"
    ],
    [
      "শেষ",
      "ৰ</w>"
    ],
    [
      "িক",
      "্"
    ],
    [
      "হ",
      "্ৰ"
    ],
    [
      "ল",
      "িক</w>"
    ],
    [
      "উপ",
      "স্থিত</w>"
    ],
    [
      "্",
      "প</w>"
    ],
    [
      "দক্ষি",
      "ণ"
    ],
    [
      "সকল",
      "ো"
    ],
    [
      "ভা",
      "গ"
    ],
    [
      "বা",
      "স"
    ],
    [
      "দ্বী",
      "প"
    ],
    [
      "ব",
      "্য</w>"
    ],
    [
      "অভি",
      "যা"
    ],
    [
      "দি",
      "ছিল</w>"
    ],
    [
      "চ",
      "কু"
    ],
    [
      "হ",
      "ঁ"
    ],
    [
      "শী",
      "ৰ্ষ"
    ],
    [
      "মা",
      "তৃ"
    ],
    [
      "নিয়ন্ত্ৰ",
      "ণ</w>"
    ],
    [
      "চৰ",
      "কাৰী</w>"
    ],
    [
      "চৰ",
      "কাৰে</w>"
    ],
    [
      "১",
      "৫</w>"
    ],
    [
      "পাঁ",
      "চ"
    ],
    [
      "ত",
      "কৈও</w>"
    ],
    [
      "২০১",
      "২</w>"
    ],
    [
      "আ",
      "শা</w>"
    ],
    [
      "আ",
      "ধু"
    ],
    [
      "পা",
      "ত</w>"
    ],
    [
      "আৰম্ভ",
      "ণি"
    ],
    [
      "পা",
      "কিস্তা"
    ],
    [
      "ক",
      "য়</w>"
    ],
    [
      "ই",
      "ট"
    ],
    [
      "ক",
      "ম"
    ],
    [
      "দ্বিত",
      "ীয়"
    ],
    [
      "প্ৰ",
      "ত্য"
    ],
    [
      "বি",
      "বা"
    ],
    [
      "প্ৰ",
      "ি"
    ],
    [
      "ক্",
      "সি"
    ],
    [
      "শক্ত",
      "িশ"
    ],
    [
      "া",
      ",</w>"
    ],
    [
      "জা",
      "পা"
    ],
    [
      "শাস",
      "ন</w>"
    ],
    [
      "আ",
      "য়ো"
    ],
    [
      "ল",
      "ি</w>"
    ],
    [
      "২০",
      "১৯</w>"
    ],
    [
      "হ'",
      "ব।</w>"
    ],
    [
      "২০১",
      "৭</w>"
    ],
    [
      "যা",
      "তে</w>"
    ],
    [
      "ণ",
      "ীৰ</w>"
    ],
    [
      "চ",
      "া</w>"
    ],
    [
      "এপ্ৰ",
      "িল"
    ],
    [
      "লক্ষ",
      "্য</w>"
    ],
    [
      "ইতি",
      "হা"
    ],
    [
      "পাৰ",
      "্ট"
    ],
    [
      "আহি",
      "ছিল।</w>"
    ],
    [
      "সুবিধ",
      "া</w>"
    ],
    [
      "উ",
      "পাৰ্"
    ],
    [
      "জা",
      "ই</w>"
    ],
    [
      "সে",
      "না"
    ],
    [
      "হয়",
      "তো</w>"
    ],
    [
      "য",
      "ৌ"
    ],
    [
      "মে",
      "ণ্ট"
    ],
    [
      "বা",
      "ন্ধ"
    ],
    [
      "অঞ্",
      "চল</w>"
    ],
    [
      "সেই",
      "টো</w>"
    ],
    [
      "চি",
      "হ্"
    ],
    [
      "ছ",
      "াৰ্"
    ],
    [
      "আৰম্ভ",
      "ণ"
    ],
    [
      "আ",
      "ধাৰ"
    ],
    [
      "মা",
      "ণ"
    ],
    [
      "সং",
      "ঘট"
    ],
    [
      "ন",
      "ৱ"
    ],
    [
      "ৰ্",
      "শ</w>"
    ],
    [
      "বিষ",
      "য়"
    ],
    [
      "বি",
      "স্ত"
    ],
    [
      "হ",
      "য়</w>"
    ],
    [
      "প্ৰ",
      "যো"
    ],
    [
      "শী",
      "ত"
    ],
    [
      "ব",
      "তা"
    ],
    [
      "হে",
      "ৰু"
    ],
    [
      "ট",
      "িক</w>"
    ],
    [
      "সম্",
      "ভৱ"
    ],
    [
      "কে",
      "ট</w>"
    ],
    [
      "গ",
      "ম</w>"
    ],
    [
      "মহ",
      "াৰা"
    ],
    [
      "গ",
      "ৈ</w>"
    ],
    [
      "ক",
      "সকলৰ</w>"
    ],
    [
      "ৰ",
      "্য"
    ],
    [
      "হ",
      "াল"
    ],
    [
      "১",
      "২</w>"
    ],
    [
      "পৰিয়াল",
      "ৰ</w>"
    ],
    [
      "অ",
      "ভাৱ"
    ],
    [
      "জ",
      "ৰা"
    ],
    [
      "পু",
      "ৰ"
    ],
    [
      "অনুষ্ঠ",
      "ান"
    ],
    [
      "গৰা",
      "কী"
    ],
    [
      "আ",
      "লো"
    ],
    [
      "নিৰ্বা",
      "চিত</w>"
    ],
    [
      "ত",
      "ক</w>"
    ],
    [
      "ষ্",
      "ম"
    ],
    [
      "সেয়ে",
      "হে</w>"
    ],
    [
      "ম",
      "ৌ"
    ],
    [
      "আ",
      "কৰ্ষ"
    ],
    [
      "উদাহৰণ",
      "স্বৰূপে,</w>"
    ],
    [
      "শ",
      "ৰী"
    ],
    [
      "ব্যৱ",
      "স্থা</w>"
    ],
    [
      "প",
      "ত্ন"
    ],
    [
      "াৰম্ভ",
      "িক</w>"
    ],
    [
      "উত্ত",
      "ৰ-"
    ],
    [
      "ক",
      "োন"
    ],
    [
      "ক্ৰ",
      "য়</w>"
    ],
    [
      "কাৰ",
      "া"
    ],
    [
      "ন",
      "াৰ"
    ],
    [
      "এই",
      "চ"
    ],
    [
      "বি",
      "বাহ"
    ],
    [
      "বি",
      "ক"
    ],
    [
      "ত্ৰ",
      "ি"
    ],
    [
      "দ্ব",
      "ন্দ"
    ],
    [
      "মহিল",
      "া"
    ],
    [
      "ন্ত",
      "ৰিত</w>"
    ],
    [
      "প্ৰ",
      "কাৰৰ</w>"
    ],
    [
      "ঞ্",
      "চল"
    ],
    [
      "ৰাজধা",
      "নী</w>"
    ],
    [
      "ট",
      "াৰ্"
    ],
    [
      "যোগ",
      "া"
    ],
    [
      "সংঘট",
      "িত</w>"
    ],
    [
      "বি",
      "জয়"
    ],
    [
      "ৰি",
      "ৰ</w>"
    ],
    [
      "চি",
      "ন্ত"
    ],
    [
      "২০০",
      "৮</w>"
    ],
    [
      "ছ",
      "ো"
    ],
    [
      ")",
      "ৰ</w>"
    ],
    [
      "ৰাজ্য",
      "িক</w>"
    ],
    [
      "প্ৰ",
      "ণ"
    ],
    [
      "নিজ",
      "কে</w>"
    ],
    [
      "ৰা",
      "ম"
    ],
    [
      "ষ্ট",
      "ত</w>"
    ],
    [
      "সম্পৰ্",
      "ক"
    ],
    [
      "বৰ্ত",
      "মানৰ</w>"
    ],
    [
      "কেতিয়া",
      "বা</w>"
    ],
    [
      "ছ",
      "ন</w>"
    ],
    [
      "কৃ",
      "তি</w>"
    ],
    [
      "আনু",
      "ষ্ঠা"
    ],
    [
      "প",
      "ত"
    ],
    [
      "ব্যা",
      "হত</w>"
    ],
    [
      "ভূ",
      "ম"
    ],
    [
      "আধু",
      "নিক</w>"
    ],
    [
      "ত",
      "ৰ"
    ],
    [
      "সং",
      "ৰক্ষ"
    ],
    [
      "ব",
      "জাৰ</w>"
    ],
    [
      "লগ",
      "</w>"
    ],
    [
      "প",
      "েল"
    ],
    [
      "১",
      "৪"
    ],
    [
      "হ",
      "ুৱা</w>"
    ],
    [
      "ও",
      "ক।</w>"
    ],
    [
      "ছুইডে",
      "নৰ</w>"
    ],
    [
      "যা",
      "য়</w>"
    ],
    [
      "গো",
      "ট"
    ],
    [
      "চ",
      "ক</w>"
    ],
    [
      "ৰূ",
      "পে</w>"
    ],
    [
      "-",
      "এ</w>"
    ],
    [
      "দ",
      "ল</w>"
    ],
    [
      "আমেৰ",
      "িকাৰ</w>"
    ],
    [
      "পৰম্পৰা",
      "গত</w>"
    ],
    [
      "সময়",
      "ছ"
    ],
    [
      "মোগ",
      "ল</w>"
    ],
    [
      "ও",
      ",</w>"
    ],
    [
      "পৰিকল্প",
      "না</w>"
    ],
    [
      "ন্",
      "স</w>"
    ],
    [
      "কৌ",
      "শ"
    ],
    [
      "ক",
      "মে"
    ],
    [
      "বে",
      "ণ্ড"
    ],
    [
      "ৰাজ",
      "নৈতিক</w>"
    ],
    [
      "১৯",
      "৩"
    ],
    [
      "মা",
      "জৰ</w>"
    ],
    [
      "বিখ্যা",
      "ত</w>"
    ],
    [
      "শী",
      "ল</w>"
    ],
    [
      "ধ্ব",
      "ং"
    ],
    [
      "ং",
      "ক"
    ],
    [
      "গুৰুত্ব",
      "</w>"
    ],
    [
      "ব্যৱ",
      "হাৰ"
    ],
    [
      "প্ৰথম",
      "টো</w>"
    ],
    [
      "ি",
      "ও</w>"
    ],
    [
      "কা",
      "উন্"
    ],
    [
      "গ",
      "ৱে"
    ],
    [
      "য়",
      "ে"
    ],
    [
      "প্ৰ",
      "ৱেশ</w>"
    ],
    [
      "জু",
      "লাই"
    ],
    [
      "স্",
      "পে"
    ],
    [
      "দ",
      "ৃষ্ট"
    ],
    [
      "অ",
      "প"
    ],
    [
      "স্থ",
      "</w>"
    ],
    [
      "গৱে",
      "ষ"
    ],
    [
      "সামগ্ৰ",
      "ী"
    ],
    [
      "শক্তিশ",
      "ালী</w>"
    ],
    [
      "ত",
      "থা"
    ],
    [
      "ঠ",
      "া</w>"
    ],
    [
      "খেল",
      "ত</w>"
    ],
    [
      "পৰাম",
      "ৰ্শ</w>"
    ],
    [
      "চৰিত্ৰ",
      "ত</w>"
    ],
    [
      "বাৰ্",
      "ষ"
    ],
    [
      "প",
      "ঞ্জা"
    ],
    [
      "সম্",
      "পূৰ্ণ"
    ],
    [
      "বিত্ত",
      "ীয়</w>"
    ],
    [
      "সম্পৰ্",
      "ক</w>"
    ],
    [
      "মধ",
      "্য</w>"
    ],
    [
      "দ",
      "ৰ"
    ],
    [
      "মা",
      "ত্ৰ"
    ],
    [
      "শ্ৰ",
      "ী"
    ],
    [
      "ড",
      "াৰ</w>"
    ],
    [
      "কৰ",
      "ণৰ</w>"
    ],
    [
      "তাৰ",
      "ি"
    ],
    [
      "ৰাজ",
      "হুৱা</w>"
    ],
    [
      "তামিল",
      "নাড"
    ],
    [
      "অনুষ্ঠ",
      "া"
    ],
    [
      "শ",
      "তা"
    ],
    [
      "ভ",
      "াৰ্"
    ],
    [
      "ৱ",
      "াল"
    ],
    [
      "উপ",
      "কূ"
    ],
    [
      "েল",
      "ৰ</w>"
    ],
    [
      "দী",
      "ৰ্ঘ"
    ],
    [
      "গৰা",
      "ক"
    ],
    [
      "সমৰ্থ",
      "ন</w>"
    ],
    [
      "শ",
      "ক্তি</w>"
    ],
    [
      "এ",
      "ৰি</w>"
    ],
    [
      "অ",
      "ব্যাহত</w>"
    ],
    [
      "লগ",
      "া</w>"
    ],
    [
      "চ",
      "লা"
    ],
    [
      "জ",
      "ুল"
    ],
    [
      "উপৰি",
      "ও</w>"
    ],
    [
      "দা",
      "বী</w>"
    ],
    [
      "ছ",
      "া</w>"
    ],
    [
      "বিপৰী",
      "তে</w>"
    ],
    [
      "এক",
      "ত্ৰ"
    ],
    [
      "স্",
      "ম"
    ],
    [
      "থা",
      "কে,</w>"
    ],
    [
      "সন্মুখ",
      "ীন</w>"
    ],
    [
      "শি",
      "ষ্ট"
    ],
    [
      "ব",
      "্ব"
    ],
    [
      "২০১",
      "৮</w>"
    ],
    [
      "বৰ",
      "ষ"
    ],
    [
      "আ",
      "ঘাত</w>"
    ],
    [
      "পূৰ্",
      "বৰ</w>"
    ],
    [
      "স",
      "ক্ষম</w>"
    ],
    [
      "নে",
      "ই</w>"
    ],
    [
      "পৰি",
      "ৱৰ্"
    ],
    [
      "বৰষ",
      "ু"
    ],
    [
      "ো",
      "ল"
    ],
    [
      "ল",
      "।</w>"
    ],
    [
      "বিক",
      "শিত</w>"
    ],
    [
      "যা",
      "য়।</w>"
    ],
    [
      "খেলুৱ",
      "ৈ</w>"
    ],
    [
      "ক্ষম",
      "তা</w>"
    ],
    [
      "আ",
      "ৱ"
    ],
    [
      "প",
      "'"
    ],
    [
      "স",
      "ফল</w>"
    ],
    [
      "প",
      "োৱাৰ</w>"
    ],
    [
      "প্ৰ",
      "জা"
    ],
    [
      "কা",
      "নাড"
    ],
    [
      "এক",
      "মাত্ৰ</w>"
    ],
    [
      "ওচ",
      "ৰৰ</w>"
    ],
    [
      "বিমান",
      "বন্দ"
    ],
    [
      "ক",
      "ঠি"
    ],
    [
      "১",
      "৩"
    ],
    [
      "ই",
      "নৰ</w>"
    ],
    [
      "লাই",
      "ন</w>"
    ],
    [
      "ত্ম",
      "ক</w>"
    ],
    [
      "ট",
      "্ৰা"
    ],
    [
      "দ",
      "াৰী</w>"
    ],
    [
      "নি",
      "র্"
    ],
    [
      "্য",
      "াৰ</w>"
    ],
    [
      "ধ",
      "ৰ</w>"
    ],
    [
      "পদ",
      "ক</w>"
    ],
    [
      "চি",
      "নে"
    ],
    [
      "স্বাধ",
      "ীন"
    ],
    [
      "জ",
      "নাই"
    ],
    [
      "সা",
      "মাজ"
    ],
    [
      "ৰ",
      "’"
    ],
    [
      "সা",
      "ক্ষ"
    ],
    [
      "ন্",
      "দা"
    ],
    [
      "লে",
      "ণ্ড</w>"
    ],
    [
      "দ",
      "ৰে"
    ],
    [
      "খ",
      "ণ্ড"
    ],
    [
      "ট",
      "ন</w>"
    ],
    [
      "এ",
      "ছ</w>"
    ],
    [
      "আ",
      "ঘা"
    ],
    [
      "পা",
      "ণ্ড"
    ],
    [
      "বা",
      "য়"
    ],
    [
      "২০১",
      "৬</w>"
    ],
    [
      "জানুৱাৰ",
      "ীত</w>"
    ],
    [
      "মূল",
      "্য</w>"
    ],
    [
      "চল",
      "ি</w>"
    ],
    [
      "খ",
      "ৰ</w>"
    ],
    [
      "ন্দ",
      "</w>"
    ],
    [
      "বি",
      "ধা"
    ],
    [
      "ভাষ",
      "া</w>"
    ],
    [
      "ম",
      "ল"
    ],
    [
      "দি",
      "না</w>"
    ],
    [
      "ভ",
      "ি</w>"
    ],
    [
      "ভি",
      "ডি"
    ],
    [
      "সং",
      "ঘ"
    ],
    [
      "ল",
      "ণ্ড"
    ],
    [
      "খেল",
      "িছিল।</w>"
    ],
    [
      "সা",
      "ত"
    ],
    [
      "ভিত",
      "ৰ"
    ],
    [
      "তাই",
      "ৰ</w>"
    ],
    [
      "সে",
      "য়া</w>"
    ],
    [
      "গৈ",
      "ছে।</w>"
    ],
    [
      "্ট",
      "ি"
    ],
    [
      "নৃত",
      "্য</w>"
    ],
    [
      "গ",
      "ৰ্"
    ],
    [
      "ন",
      "ৃত্য"
    ],
    [
      "ই",
      "ছ"
    ],
    [
      "উন্",
      "নত</w>"
    ],
    [
      "প্ৰ",
      "াৰম্ভিক</w>"
    ],
    [
      "জ",
      "ত</w>"
    ],
    [
      "ছবি",
      "খনৰ</w>"
    ],
    [
      "ট",
      "েলি"
    ],
    [
      "ব্যৱসা",
      "য়"
    ],
    [
      "কাল",
      "ৰ</w>"
    ],
    [
      "জা",
      "ত"
    ],
    [
      "মূ",
      "ৰ্"
    ],
    [
      "চ",
      "েল"
    ],
    [
      "ৱ",
      "ত</w>"
    ],
    [
      "দুৰ্",
      "গ"
    ],
    [
      "বি",
      "প"
    ],
    [
      "ং",
      "গা"
    ],
    [
      "ৰূ",
      "প"
    ],
    [
      "উদ্য",
      "োগ"
    ],
    [
      "শৃং",
      "খ"
    ],
    [
      "আন",
      "কি</w>"
    ],
    [
      "ফেব্ৰুৱ",
      "াৰ"
    ],
    [
      "প্ৰতিযোগিত",
      "া"
    ],
    [
      "প্ৰভাৱ",
      "িত</w>"
    ],
    [
      "কৰ",
      "িলে</w>"
    ],
    [
      "্য",
      "ত</w>"
    ],
    [
      "জনা",
      "জাত</w>"
    ],
    [
      "উদ্",
      "দেশ"
    ],
    [
      "সংগী",
      "তৰ</w>"
    ],
    [
      "১",
      "৮</w>"
    ],
    [
      "চ্চ",
      "</w>"
    ],
    [
      "দক্ষিণ",
      "-"
    ],
    [
      "ম",
      "ক</w>"
    ],
    [
      "পৰা",
      "ই</w>"
    ],
    [
      "দৃ",
      "শ্য"
    ],
    [
      "অঞ্চল",
      "।</w>"
    ],
    [
      "বুল",
      "িও</w>"
    ],
    [
      "স্বা",
      "ভাৱ"
    ],
    [
      "ৰু",
      "ৱা</w>"
    ],
    [
      "নিৰ্",
      "মা"
    ],
    [
      "কৰ",
      "ণ"
    ],
    [
      "সম্ভৱ",
      "তঃ</w>"
    ],
    [
      "ী",
      "য়া</w>"
    ],
    [
      "একে",
      "লগে</w>"
    ],
    [
      "অৱস্থা",
      "ত</w>"
    ],
    [
      "িত",
      "া</w>"
    ],
    [
      "প",
      "ট"
    ],
    [
      "মা",
      "ই</w>"
    ],
    [
      "িত",
      "ি</w>"
    ],
    [
      "ফাল",
      "ৰ</w>"
    ],
    [
      "অংশ",
      "ত</w>"
    ],
    [
      "ই",
      "মান</w>"
    ],
    [
      "কি",
      "ং"
    ],
    [
      "হ",
      "েল"
    ],
    [
      "উৎস",
      "ৱ</w>"
    ],
    [
      "ও",
      "ক</w>"
    ],
    [
      "গু",
      "জৰা"
    ],
    [
      "অন",
      "্য</w>"
    ],
    [
      "স্থা",
      "নৰ</w>"
    ],
    [
      "িয়",
      "ন</w>"
    ],
    [
      "কং",
      "গ্ৰে"
    ],
    [
      "কল",
      "্প</w>"
    ],
    [
      "ি",
      "ছিল</w>"
    ],
    [
      "ব",
      "'"
    ],
    [
      "ল",
      "্ড"
    ],
    [
      "বিবে",
      "চনা</w>"
    ],
    [
      "আৰম্ভণি",
      "তে</w>"
    ],
    [
      "ব",
      "ত"
    ],
    [
      "শে",
      "হত"
    ],
    [
      "গ",
      "তি</w>"
    ],
    [
      "প্ৰ",
      "শাস"
    ],
    [
      "মহিল",
      "াৰ</w>"
    ],
    [
      "চ",
      "িয়ে"
    ],
    [
      "যা",
      "ব</w>"
    ],
    [
      "কৰ",
      "ক</w>"
    ],
    [
      "অৱ",
      "শেষত</w>"
    ],
    [
      "ইউৰো",
      "প"
    ],
    [
      "প্ৰ",
      "ত্যা"
    ],
    [
      "য়",
      "াল"
    ],
    [
      "গ্ৰী",
      "ষ্ম"
    ],
    [
      "গ'",
      "ল</w>"
    ],
    [
      "ৰ",
      "ক্ত"
    ],
    [
      "২",
      "৫</w>"
    ],
    [
      "ৰাষ্ট্ৰ",
      "পতি</w>"
    ],
    [
      "খৰ",
      "চ</w>"
    ],
    [
      "উভ",
      "তি</w>"
    ],
    [
      "প্ৰতিনি",
      "ধ"
    ],
    [
      "ক",
      "ৃত"
    ],
    [
      "ম্",
      "বা"
    ],
    [
      "বা",
      "কী</w>"
    ],
    [
      "দুয়ো",
      "টা</w>"
    ],
    [
      "নি",
      "য়"
    ],
    [
      "দেখ",
      "ি</w>"
    ],
    [
      "বৈ",
      "শিষ্ট"
    ],
    [
      "ি",
      "ং</w>"
    ],
    [
      "এ",
      "টা"
    ],
    [
      "নি",
      "ম"
    ],
    [
      "তথা",
      "পি"
    ],
    [
      "আগ",
      "বা"
    ],
    [
      "অ",
      "পৰা"
    ],
    [
      "ব",
      "স"
    ],
    [
      "ক",
      "-"
    ],
    [
      "হ",
      "য়"
    ],
    [
      "উল্লে",
      "খ"
    ],
    [
      "যি",
      "হে"
    ],
    [
      "সং",
      "গ্ৰহ</w>"
    ],
    [
      "ম",
      "ণি"
    ],
    [
      "পাৰ",
      "ে"
    ],
    [
      "শি",
      "শু"
    ],
    [
      "ম",
      "টো</w>"
    ],
    [
      "অক্টো",
      "ব"
    ],
    [
      "ভ",
      "া</w>"
    ],
    [
      "ম",
      "তে,</w>"
    ],
    [
      "২০১",
      "৫</w>"
    ],
    [
      "ট",
      "কা</w>"
    ],
    [
      "জন",
      "সংখ্যা</w>"
    ],
    [
      "ছ",
      "োঁ।</w>"
    ],
    [
      "যিহে",
      "তু</w>"
    ],
    [
      "১",
      "৬</w>"
    ],
    [
      "োৱা",
      "টো</w>"
    ],
    [
      "ষ্",
      "কাৰ</w>"
    ],
    [
      "ত",
      "লত</w>"
    ],
    [
      "হিন্দ",
      "ী</w>"
    ],
    [
      "এই",
      "বোৰ</w>"
    ],
    [
      "আচৰ",
      "িত</w>"
    ],
    [
      "স",
      "দা"
    ],
    [
      "ল",
      "োৱাৰ</w>"
    ],
    [
      "ী",
      "সকলক</w>"
    ],
    [
      "উ",
      "ণ্ড"
    ],
    [
      "শং",
      "স"
    ],
    [
      "সং",
      "যোগ</w>"
    ],
    [
      "ঠাই",
      "ত</w>"
    ],
    [
      "িয়া",
      "ম</w>"
    ],
    [
      "ভ",
      "েল"
    ],
    [
      "যা",
      "বলৈ</w>"
    ],
    [
      "আ",
      "ফ্ৰ"
    ],
    [
      "হা",
      "জাৰ</w>"
    ],
    [
      "গ",
      "তভাৱে</w>"
    ],
    [
      "বৌ",
      "দ্ধ</w>"
    ],
    [
      "সমস",
      "্যা"
    ],
    [
      "মি",
      "টাৰ"
    ],
    [
      "ী",
      "শ"
    ],
    [
      "ন্দ",
      "ৰ</w>"
    ],
    [
      "ন",
      "ৰ"
    ],
    [
      "কৰ্ম",
      "চাৰ"
    ],
    [
      "ড",
      "ব্লি"
    ],
    [
      "মা",
      "ধ্য"
    ],
    [
      "২০০",
      "৭</w>"
    ],
    [
      "চৰ",
      "কাৰৰ</w>"
    ],
    [
      "সি",
      "ং"
    ],
    [
      "মাৰ্",
      "চত</w>"
    ],
    [
      "ক্ৰীড়",
      "া</w>"
    ],
    [
      "৫",
      "০</w>"
    ],
    [
      "ৰূ",
      "প</w>"
    ],
    [
      "লক্ষ",
      "ণ"
    ],
    [
      "প্ৰতি",
      "দ্বন্দ"
    ],
    [
      "সংখ",
      "্যা"
    ],
    [
      "হৈ",
      "ছে,</w>"
    ],
    [
      "মা",
      "নে</w>"
    ],
    [
      "ন্",
      "সৰ</w>"
    ],
    [
      "ভ",
      "ৰ"
    ],
    [
      "কৃ",
      "তি"
    ],
    [
      "স",
      "ভাৰ</w>"
    ],
    [
      "গঠ",
      "িত</w>"
    ],
    [
      "শ",
      "স"
    ],
    [
      "ট",
      "িক"
    ],
    [
      "নি",
      "যুক্তি</w>"
    ],
    [
      "হ’",
      "ব।</w>"
    ],
    [
      "ভ",
      "ী"
    ],
    [
      "জ",
      "ৰ্"
    ],
    [
      "১",
      "৭</w>"
    ],
    [
      "র",
      "্য"
    ],
    [
      "আ",
      "লা"
    ],
    [
      "শতি",
      "কাত</w>"
    ],
    [
      "বা",
      "ন"
    ],
    [
      "কি",
      "ং</w>"
    ],
    [
      "প",
      "িয়"
    ],
    [
      "ভি",
      "ত্ত"
    ],
    [
      "কা",
      "উণ্ট"
    ],
    [
      "পৰিমা",
      "ণৰ</w>"
    ],
    [
      "ম",
      "ীৰ</w>"
    ],
    [
      "বাদ",
      "ী</w>"
    ],
    [
      "গ",
      "ুল"
    ],
    [
      "ডি",
      "গ্ৰ"
    ],
    [
      "’",
      "ৰ</w>"
    ],
    [
      "ব",
      "লৰ</w>"
    ],
    [
      "সামাজ",
      "িক</w>"
    ],
    [
      "যু",
      "দ্ধ</w>"
    ],
    [
      "স",
      "ফল"
    ],
    [
      "ঙ",
      "ে</w>"
    ],
    [
      "াৰ",
      "ত</w>"
    ],
    [
      "গৈ",
      "ছিল</w>"
    ],
    [
      "ধ",
      "ৰণ"
    ],
    [
      "পৰি",
      "চ"
    ],
    [
      "ভাষ",
      "াৰ</w>"
    ],
    [
      "পৰিৱেশ",
      "ন</w>"
    ],
    [
      "জীৱ",
      "ন</w>"
    ],
    [
      "আ",
      "ক"
    ],
    [
      "হ",
      "ি</w>"
    ],
    [
      "চাৰি",
      "ও"
    ],
    [
      "চ",
      "ৌ"
    ],
    [
      "ন",
      "'"
    ],
    [
      "সি",
      "হঁ"
    ],
    [
      "দে",
      "উ"
    ],
    [
      "খ",
      "াৰ</w>"
    ],
    [
      "ৰূ",
      "পা"
    ],
    [
      "দীঘ",
      "ল</w>"
    ],
    [
      "ধ",
      "ৰা</w>"
    ],
    [
      "থ",
      "কা"
    ],
    [
      "পু",
      "ৰৰ</w>"
    ],
    [
      "প্ৰথম",
      "ে</w>"
    ],
    [
      "স",
      "োন"
    ],
    [
      "ঐতি",
      "হাস"
    ],
    [
      "টে",
      "ই</w>"
    ],
    [
      "ফ",
      "ৰ</w>"
    ],
    [
      "তামিল",
      "</w>"
    ],
    [
      "অলিম্প",
      "িক</w>"
    ],
    [
      ")",
      "।</w>"
    ],
    [
      "ফে",
      "ডাৰ"
    ],
    [
      "ৱে",
      "বছ"
    ],
    [
      "গা",
      "ন্ধ"
    ],
    [
      "পা",
      "হাৰ"
    ],
    [
      "১",
      "৪</w>"
    ],
    [
      "ক",
      "ুল"
    ],
    [
      "ৱেবছ",
      "াই"
    ],
    [
      "ধৰ্",
      "মৰ</w>"
    ],
    [
      "বাছ",
      "নি</w>"
    ],
    [
      "ই",
      "ৰা"
    ],
    [
      "কাৰ্য",
      "াল"
    ],
    [
      "উৎপাদ",
      "ন</w>"
    ],
    [
      "যোগ",
      "দান</w>"
    ],
    [
      "বি",
      "ৰোধ"
    ],
    [
      "ব",
      "ে</w>"
    ],
    [
      "জু",
      "ৰি</w>"
    ],
    [
      "ডব্লি",
      "উ"
    ],
    [
      "সং",
      "স্থা"
    ],
    [
      "ক্ষ",
      "তি"
    ],
    [
      "ৰ্",
      "ক</w>"
    ],
    [
      "উপ",
      "নীত</w>"
    ],
    [
      "প",
      "া</w>"
    ],
    [
      "বন্ধ",
      "ু"
    ],
    [
      "ছ",
      "ক</w>"
    ],
    [
      "নিৰ্ধাৰ",
      "ণ</w>"
    ],
    [
      "১",
      ","
    ],
    [
      "ধু",
      "মু"
    ],
    [
      "কেন্দ্ৰ",
      "ীয়</w>"
    ],
    [
      "সা",
      "জ"
    ],
    [
      "উদ্ভ",
      "ি"
    ],
    [
      "কৰ্",
      "ণা"
    ],
    [
      "পৰি",
      "ণত</w>"
    ],
    [
      "বাৰ্ষ",
      "িক</w>"
    ],
    [
      "প্",
      "ত"
    ],
    [
      "না",
      "মূল"
    ],
    [
      "নি",
      "ষ"
    ],
    [
      "জন্",
      "ম"
    ],
    [
      "বা",
      "ং"
    ],
    [
      "ক",
      "ণ"
    ],
    [
      "যোগ",
      "্য"
    ],
    [
      "কা",
      "ই"
    ],
    [
      ")",
      ",</w>"
    ],
    [
      "ধৰ্ম",
      "ীয়</w>"
    ],
    [
      "পো",
      "ষ"
    ],
    [
      "তুল",
      "নাত</w>"
    ],
    [
      "ক",
      "ট</w>"
    ],
    [
      "প্ৰ",
      "াৰ্থ"
    ],
    [
      "দশ",
      "কৰ</w>"
    ],
    [
      "২০০",
      "৯</w>"
    ],
    [
      "িয়া",
      ",</w>"
    ],
    [
      "চুল",
      "তা"
    ],
    [
      "ত্র",
      "</w>"
    ],
    [
      "পৰি",
      "ষ"
    ],
    [
      "সামগ্ৰ",
      "ীৰ</w>"
    ],
    [
      "ছিল",
      "োঁ।</w>"
    ],
    [
      "জীৱ",
      "নৰ</w>"
    ],
    [
      "বাধ",
      "া</w>"
    ],
    [
      "ব্যক্ত",
      "ি</w>"
    ],
    [
      "স",
      "ত"
    ],
    [
      "অ",
      "স্ত্ৰ"
    ],
    [
      "বি",
      "ভ"
    ],
    [
      "ৰ",
      "চনা</w>"
    ],
    [
      "হিন্দ",
      "ু"
    ],
    [
      "কি",
      "বা</w>"
    ],
    [
      "হ’",
      "লে</w>"
    ],
    [
      "সংখ্য",
      "াৰ</w>"
    ],
    [
      "ব",
      "ং"
    ],
    [
      "দ",
      "াৰ</w>"
    ],
    [
      "বি",
      "শ"
    ],
    [
      "একত্ৰ",
      "িত</w>"
    ],
    [
      "প",
      "াল</w>"
    ],
    [
      "সুৰক্ষ",
      "িত</w>"
    ],
    [
      "ভূ",
      "মি</w>"
    ],
    [
      "ড",
      "্ৰা"
    ],
    [
      "চিনা",
      "ক্ত</w>"
    ],
    [
      "লি",
      "খা</w>"
    ],
    [
      "ষ্ট",
      "ু"
    ],
    [
      "দশ",
      "কত</w>"
    ],
    [
      "৫",
      "০"
    ],
    [
      "২০২",
      "১</w>"
    ],
    [
      "গা",
      "ন</w>"
    ],
    [
      "যুদ্ধ",
      "ত</w>"
    ],
    [
      "অ",
      "ত্য"
    ],
    [
      "থ",
      "ৰ</w>"
    ],
    [
      "ছ",
      "াল"
    ],
    [
      "উন্",
      "ন"
    ],
    [
      "বি",
      "চ্"
    ],
    [
      "নিৰ্",
      "ভৰ</w>"
    ],
    [
      "ল",
      ",</w>"
    ],
    [
      "বি",
      "য়"
    ],
    [
      "মে",
      "ই"
    ],
    [
      "কি",
      "মান</w>"
    ],
    [
      "ণ্ড",
      "্ৰ"
    ],
    [
      "প্ৰ",
      "'"
    ],
    [
      "হা",
      "ঁ"
    ],
    [
      "থ",
      "্ৰ"
    ],
    [
      "ও",
      "চৰ"
    ],
    [
      "সোন",
      "কাল"
    ],
    [
      "আ",
      "উ"
    ],
    [
      "ভ্ৰম",
      "ণ</w>"
    ],
    [
      "ণ্ড",
      "াৰ</w>"
    ],
    [
      "ৰে",
      "কৰ"
    ],
    [
      "ফ",
      "াৰ"
    ],
    [
      "ডি",
      "জাই"
    ],
    [
      "নৱে",
      "ম্বৰত</w>"
    ],
    [
      "দ",
      "্ৰ</w>"
    ],
    [
      "হ",
      "্ম"
    ],
    [
      "নি",
      "বলৈ</w>"
    ],
    [
      "কম্পিউ",
      "টাৰ</w>"
    ],
    [
      "সাম্ৰাজ",
      "্যৰ</w>"
    ],
    [
      "১",
      "৩</w>"
    ],
    [
      "উপ",
      "ত্য"
    ],
    [
      "ডিগ্ৰ",
      "ী</w>"
    ],
    [
      "এ",
      "য়া</w>"
    ],
    [
      "ইণ্টাৰ",
      "নে"
    ],
    [
      "ব",
      "না"
    ],
    [
      "বা",
      "ন</w>"
    ],
    [
      "স্থ",
      "াৰ</w>"
    ],
    [
      "ঘ",
      "ৰৰ</w>"
    ],
    [
      "সম্পূৰ্ণ",
      "ৰূপে</w>"
    ],
    [
      "আ",
      "দি"
    ],
    [
      "্",
      "লা"
    ],
    [
      "বে",
      "য়া</w>"
    ],
    [
      "পৰি",
      "স্থি"
    ],
    [
      "দল",
      "টোৱে</w>"
    ],
    [
      "সময়ছ",
      "োৱাত</w>"
    ],
    [
      "ৰক্ষ",
      "া</w>"
    ],
    [
      "প্ৰ",
      "ক্ৰ"
    ],
    [
      "ভাল",
      "দৰে</w>"
    ],
    [
      "ফো",
      "ন</w>"
    ],
    [
      "এপ্ৰিল",
      "ত</w>"
    ],
    [
      "স",
      "ঠিক</w>"
    ],
    [
      "উৎস",
      "ৱ"
    ],
    [
      "উপলব্",
      "ধ</w>"
    ],
    [
      "নী",
      "তি</w>"
    ],
    [
      "ন্ত",
      "ি</w>"
    ],
    [
      "কঠি",
      "ন</w>"
    ],
    [
      "২০০",
      "৬</w>"
    ],
    [
      "২০০",
      "০</w>"
    ],
    [
      "ছফ",
      "্ট"
    ],
    [
      "না",
      "ছিল</w>"
    ],
    [
      "মি",
      "শ্ৰ"
    ],
    [
      "তে",
      "খে"
    ],
    [
      "ত",
      "ন</w>"
    ],
    [
      "মূল",
      "তঃ</w>"
    ],
    [
      "আ",
      "ছে"
    ],
    [
      "তে",
      "নে"
    ],
    [
      "উপাৰ্",
      "জন</w>"
    ],
    [
      "ৰা",
      "ছ"
    ],
    [
      "দল",
      "ে</w>"
    ],
    [
      "কৰা",
      "।</w>"
    ],
    [
      "দ",
      "িয়ে</w>"
    ],
    [
      "জে",
      "নে"
    ],
    [
      "প্ৰতিনিধ",
      "িত্ব</w>"
    ],
    [
      "কাহি",
      "নী"
    ],
    [
      "পুৰুষ",
      "ৰ</w>"
    ],
    [
      "পু",
      "ৰা"
    ],
    [
      "১",
      "১</w>"
    ],
    [
      "মো",
      "দ"
    ],
    [
      "ছ",
      "'"
    ],
    [
      "ৰ",
      "পৰা</w>"
    ],
    [
      "বি",
      "হ"
    ],
    [
      "পৰিমা",
      "ণে</w>"
    ],
    [
      "ো",
      "প"
    ],
    [
      "হ'",
      "বলৈ</w>"
    ],
    [
      "টি",
      "উ"
    ],
    [
      "ধ",
      "ৰি"
    ],
    [
      "ঋ",
      "ণ</w>"
    ],
    [
      "বি",
      "মান</w>"
    ],
    [
      "মাই",
      "ক্ৰ"
    ],
    [
      "সৰ",
      "ণ</w>"
    ],
    [
      "ৰা",
      "ষ্ট"
    ],
    [
      "লাই",
      "ছিল।</w>"
    ],
    [
      "ন",
      "গৰ</w>"
    ],
    [
      "গী",
      "ত"
    ],
    [
      "ি",
      "ৱ"
    ],
    [
      "দ",
      "ে</w>"
    ],
    [
      "মি",
      "ন</w>"
    ],
    [
      "ট",
      "্"
    ],
    [
      "লাগ",
      "ে</w>"
    ],
    [
      "ত",
      "াৰে</w>"
    ],
    [
      "প্ৰে",
      "ৰণ</w>"
    ],
    [
      "ঘ",
      "ৰুৱা</w>"
    ],
    [
      "পু",
      "ত্ৰ"
    ],
    [
      "কাৰ",
      "ণে</w>"
    ],
    [
      "কৰ্ণা",
      "ট"
    ],
    [
      "ক্",
      "সা"
    ],
    [
      "ট",
      "িল"
    ],
    [
      "মে",
      "ণ্ট</w>"
    ],
    [
      "োৱ",
      "েই</w>"
    ],
    [
      "ড",
      "লাৰ</w>"
    ],
    [
      "অ",
      "থ"
    ],
    [
      "টে",
      "ল</w>"
    ],
    [
      "চাৰি",
      "টা</w>"
    ],
    [
      "পৃথ",
      "িৱ"
    ],
    [
      "ব্",
      "লে"
    ],
    [
      "ন",
      "হয়</w>"
    ],
    [
      "পে",
      "চা"
    ],
    [
      "লোক",
      "পিয়"
    ],
    [
      "ঘূ",
      "ৰি</w>"
    ],
    [
      "জু",
      "নত</w>"
    ],
    [
      "জুলাই",
      "ত</w>"
    ],
    [
      "উ",
      "</w>"
    ],
    [
      "ট",
      "েল"
    ],
    [
      "যোগ",
      "ান</w>"
    ],
    [
      "কে",
      "তিয়াও</w>"
    ],
    [
      "ভাষ",
      "াত</w>"
    ],
    [
      "চু",
      "ক্ত"
    ],
    [
      "বি",
      "দ্ৰ"
    ],
    [
      "প",
      "ঠ"
    ],
    [
      "বংশ",
      "ৰ</w>"
    ],
    [
      "২",
      "৪</w>"
    ],
    [
      "ঘূ",
      "ৰাই</w>"
    ],
    [
      "চি",
      "."
    ],
    [
      "ন",
      "হয়,</w>"
    ],
    [
      "কা",
      "না"
    ],
    [
      "সমস",
      "্যা</w>"
    ],
    [
      "ট",
      "'"
    ],
    [
      "অ",
      "’</w>"
    ],
    [
      "ত্যা",
      "গ</w>"
    ],
    [
      "ব",
      "র্"
    ],
    [
      "ুৱ",
      "ে</w>"
    ],
    [
      "ক্ষ",
      "ু"
    ],
    [
      "এ",
      "ণ্ড</w>"
    ],
    [
      "যোগ",
      "ী</w>"
    ],
    [
      "ঞ্",
      "চ</w>"
    ],
    [
      "য়",
      "ৰ</w>"
    ],
    [
      "ন",
      "ো</w>"
    ],
    [
      "ক",
      "িতা"
    ],
    [
      "ভা",
      "তৃ"
    ],
    [
      "বিষ",
      "য়ে</w>"
    ],
    [
      "খন",
      "ো</w>"
    ],
    [
      "উ",
      "দ্ধ"
    ],
    [
      "ভাষ",
      "া"
    ],
    [
      "লাগি",
      "ব</w>"
    ],
    [
      "টে",
      "ড</w>"
    ],
    [
      "কে",
      "লি"
    ],
    [
      "সৰ্ব",
      "বৃহৎ</w>"
    ],
    [
      "চিকিৎস",
      "াৰ</w>"
    ],
    [
      "গৃ",
      "হ"
    ],
    [
      "ৱ",
      "াই"
    ],
    [
      "অনুষ্ঠ",
      "ান</w>"
    ],
    [
      "ডিচে",
      "ম্বৰত</w>"
    ],
    [
      "১",
      "০০"
    ],
    [
      "লী",
      "গ</w>"
    ],
    [
      "পৰি",
      "চিত</w>"
    ],
    [
      "কেই",
      "টা"
    ],
    [
      "সম্প্ৰ",
      "দা"
    ],
    [
      "ইউ",
      "নি"
    ],
    [
      "তে",
      "লে"
    ],
    [
      "কাৰ",
      "্ড"
    ],
    [
      "অংশ",
      "ৰ</w>"
    ],
    [
      "বাণি",
      "জ্য"
    ],
    [
      "পা",
      "ত"
    ],
    [
      "ড",
      "ে</w>"
    ],
    [
      "ছা",
      "ত্ৰ"
    ],
    [
      "ক্",
      "লি"
    ],
    [
      "ট",
      ",</w>"
    ],
    [
      "ফ",
      "ুল"
    ],
    [
      "ক",
      "াল</w>"
    ],
    [
      "ন্ত",
      "্ৰ</w>"
    ],
    [
      "সঁ",
      "চা"
    ],
    [
      "ছ",
      "োৱাল"
    ],
    [
      "উৎস",
      "ৱৰ</w>"
    ],
    [
      "বি",
      "কাশ"
    ],
    [
      "ভ",
      "গ"
    ],
    [
      "চ",
      "লি"
    ],
    [
      "ব",
      "ত</w>"
    ],
    [
      "প্ৰা",
      "প্ত</w>"
    ],
    [
      "ক",
      "থ"
    ],
    [
      "পুৰুষ",
      "</w>"
    ],
    [
      "বছ",
      "ৰে</w>"
    ],
    [
      "সঁ",
      "জুল"
    ],
    [
      "ষ্ট",
      "ৰ</w>"
    ],
    [
      "বা",
      "দৰ</w>"
    ],
    [
      "সাহ",
      "িত"
    ],
    [
      "চিকিৎস",
      "াল"
    ],
    [
      "ত্",
      "থা"
    ],
    [
      "পদ",
      "ৰ</w>"
    ],
    [
      "য়",
      "ো"
    ],
    [
      "সৰ্",
      "বো"
    ],
    [
      "প",
      "ত্ৰ"
    ],
    [
      "জ",
      "িয়া"
    ],
    [
      "ৰোগ",
      "ত</w>"
    ],
    [
      "আয়ো",
      "জন</w>"
    ],
    [
      "শ্ৰে",
      "ণী"
    ],
    [
      "ষ্ট",
      "াৰ"
    ],
    [
      "ব্যৱ",
      "হ"
    ],
    [
      "চ",
      "ূ"
    ],
    [
      "আ",
      "স"
    ],
    [
      "স",
      "ৌ"
    ],
    [
      "ক",
      "ীয়</w>"
    ],
    [
      "ন্",
      "ন"
    ],
    [
      "পৰিচাল",
      "িত</w>"
    ],
    [
      "ৰ",
      "ঙৰ</w>"
    ],
    [
      "জিল",
      "া</w>"
    ],
    [
      "প",
      "ঢ়"
    ],
    [
      "ইছ",
      "লা"
    ],
    [
      ",০০",
      "০"
    ],
    [
      "ৰে",
      "ল</w>"
    ],
    [
      "পথ",
      "ৰ</w>"
    ],
    [
      "স্থ",
      "িতি</w>"
    ],
    [
      "বি",
      "চৰ"
    ],
    [
      "পা",
      "ব</w>"
    ],
    [
      "আগ",
      "ষ্টত</w>"
    ],
    [
      "জ",
      "ন্ত"
    ],
    [
      "বিদ্য",
      "ু"
    ],
    [
      "আ",
      "ছিল"
    ],
    [
      "অ",
      "হাৰ</w>"
    ],
    [
      "পিছ",
      "ত,</w>"
    ],
    [
      "গো",
      "টেই</w>"
    ],
    [
      "বি",
      "স্"
    ],
    [
      "য",
      "ক্ষ"
    ],
    [
      "পৰি",
      "বহ"
    ],
    [
      "আ",
      "ধ"
    ],
    [
      "ক্ৰ",
      "িয়</w>"
    ],
    [
      "অক্টোব",
      "ৰত</w>"
    ],
    [
      "ৰ",
      "ু</w>"
    ],
    [
      "স",
      "িক</w>"
    ],
    [
      "দিশ",
      "ত</w>"
    ],
    [
      "ফেব্ৰুৱাৰ",
      "ীত</w>"
    ],
    [
      "ক্ষে",
      "ত্র"
    ],
    [
      "বু",
      "জা"
    ],
    [
      "মে",
      "ন"
    ],
    [
      "হা",
      "উ"
    ],
    [
      "ে",
      "ক</w>"
    ],
    [
      "পৰ",
      "ি</w>"
    ],
    [
      "নী",
      "তি"
    ],
    [
      "প্ৰ",
      "শংস"
    ],
    [
      "জ্ঞ",
      "ান</w>"
    ],
    [
      "লোক",
      "সকলে</w>"
    ],
    [
      "না",
      ",</w>"
    ],
    [
      "পে",
      "লা"
    ],
    [
      "ঞ্",
      "জি"
    ],
    [
      "হ",
      "কী</w>"
    ],
    [
      "দো",
      "কা"
    ],
    [
      "সম্প্ৰ",
      "সাৰ"
    ],
    [
      "সময়",
      "তে</w>"
    ],
    [
      "ক্ৰ",
      "ম</w>"
    ],
    [
      "প্র",
      "থ"
    ],
    [
      "আ",
      "য়"
    ],
    [
      "ল",
      "্ড</w>"
    ],
    [
      "স",
      "ঞ্চ"
    ],
    [
      "গে'",
      "ম"
    ],
    [
      "মন",
      "োন"
    ],
    [
      "কাৰ",
      "ণ"
    ],
    [
      "আদ",
      "াল"
    ],
    [
      "অনু",
      "সৰণ</w>"
    ],
    [
      "অ",
      "ন্তি"
    ],
    [
      "ণ্ড",
      "ি"
    ],
    [
      "ৰ",
      "ীৰ</w>"
    ],
    [
      "লে",
      "খ"
    ],
    [
      "কোম্পা",
      "নী</w>"
    ],
    [
      "অ",
      "ফি"
    ],
    [
      "হা",
      "ত</w>"
    ],
    [
      "িক",
      "ৈ</w>"
    ],
    [
      "নেট",
      "ৱৰ্"
    ],
    [
      "অল",
      "প</w>"
    ],
    [
      "ই",
      "ভে"
    ],
    [
      "দো",
      "কান"
    ],
    [
      "মি",
      "ড"
    ],
    [
      "ফ",
      "লা"
    ],
    [
      "ব্",
      "র"
    ],
    [
      "জাৰ্",
      "মান"
    ],
    [
      "কা",
      "শ্"
    ],
    [
      "জয়",
      "লাভ</w>"
    ],
    [
      "অৰ্",
      "জন</w>"
    ],
    [
      "ষ",
      "ণ</w>"
    ],
    [
      "জ",
      "ক</w>"
    ],
    [
      "বৰ্",
      "গ</w>"
    ],
    [
      "ত্ত",
      "্ব"
    ],
    [
      "দু",
      "খন</w>"
    ],
    [
      "ব",
      "জ"
    ],
    [
      "দ্ৰ",
      "ু"
    ],
    [
      "প্ৰতি",
      "ৰোধ</w>"
    ],
    [
      "ভূম",
      "িকা</w>"
    ],
    [
      "বিষ",
      "য়া"
    ],
    [
      "গাড়",
      "ী</w>"
    ],
    [
      "তা",
      ",</w>"
    ],
    [
      "সুৰক্ষ",
      "া</w>"
    ],
    [
      "ৱ",
      "েল"
    ],
    [
      "বাহি",
      "নীৰ</w>"
    ],
    [
      "উত্ত",
      "ৰা"
    ],
    [
      "পে",
      "ক্ষ"
    ],
    [
      "অথ",
      "বা</w>"
    ],
    [
      "ধাৰ",
      "া"
    ],
    [
      "ম",
      "ৰ"
    ],
    [
      "ল",
      "ীয়া</w>"
    ],
    [
      "জ",
      "নিত</w>"
    ],
    [
      "শ্",
      "লে"
    ],
    [
      "ছি",
      "ষ্টে"
    ],
    [
      "অধ",
      "িকা"
    ],
    [
      "আ",
      "দি</w>"
    ],
    [
      "কা",
      "মৰ</w>"
    ],
    [
      "সা",
      "গৰৰ</w>"
    ],
    [
      "দ",
      "ত</w>"
    ],
    [
      "মু",
      "ক্ত</w>"
    ],
    [
      "পৰিৱৰ্",
      "তে</w>"
    ],
    [
      "আ",
      "বদ্ধ</w>"
    ],
    [
      "জ",
      "লা"
    ],
    [
      "আ",
      "ৱি"
    ],
    [
      "স্ক",
      "ুল"
    ],
    [
      "ধৰ্",
      "ম</w>"
    ],
    [
      "২০০",
      "১</w>"
    ],
    [
      "ধাৰ",
      "ণা</w>"
    ],
    [
      "বা",
      "জে"
    ],
    [
      "কোম্পা",
      "নীৰ</w>"
    ],
    [
      "ি",
      ",</w>"
    ],
    [
      "শিক্ষ",
      "া</w>"
    ],
    [
      "স্বাস্থ",
      "্য</w>"
    ],
    [
      "স",
      "ী</w>"
    ],
    [
      "বু",
      "ৰ"
    ],
    [
      "শাৰ",
      "ী"
    ],
    [
      "বাব",
      "েও</w>"
    ],
    [
      "ণ্ড",
      "া</w>"
    ],
    [
      "চহ",
      "ৰত</w>"
    ],
    [
      "প্ৰা",
      "থ"
    ],
    [
      "পৰ",
      "াৰ</w>"
    ],
    [
      "ম্",
      "ম"
    ],
    [
      "কল",
      "াৰ</w>"
    ],
    [
      "দিল্ল",
      "ীৰ</w>"
    ],
    [
      "পা",
      "ই</w>"
    ],
    [
      "িল",
      "া"
    ],
    [
      "স",
      "ঞ্"
    ],
    [
      "ন",
      "ৰ্"
    ],
    [
      "প্",
      "লা"
    ],
    [
      "আগবঢ়",
      "া"
    ],
    [
      "কাউন্",
      "টিৰ</w>"
    ],
    [
      "আই",
      "ন</w>"
    ],
    [
      "স্থা",
      "য়ী</w>"
    ],
    [
      "যা",
      "য়,</w>"
    ],
    [
      "ক",
      "ট"
    ],
    [
      "সং",
      "যুক্ত</w>"
    ],
    [
      "চাৰ",
      "ৰ</w>"
    ],
    [
      "ন",
      "্য</w>"
    ],
    [
      "কৰ্",
      "কট</w>"
    ],
    [
      "নিউ",
      "</w>"
    ],
    [
      "উ",
      "ইণ্ড"
    ],
    [
      "অ",
      "স্বীকাৰ</w>"
    ],
    [
      "িত",
      ",</w>"
    ],
    [
      "ৰি",
      ",</w>"
    ],
    [
      "ঠ",
      "াই</w>"
    ],
    [
      "যোগ",
      "ৰ</w>"
    ],
    [
      "খেল",
      "খন</w>"
    ],
    [
      "”",
      "</w>"
    ],
    [
      "ক্ষ",
      "ৰ</w>"
    ],
    [
      "গ্ৰ",
      "ন্থ"
    ],
    [
      "উপ",
      "-"
    ],
    [
      "ন",
      "গ"
    ],
    [
      "সময়",
      "ত</w>"
    ],
    [
      "প্ৰ",
      "কল্প"
    ],
    [
      "ঘ",
      "ৰত</w>"
    ],
    [
      "ট",
      "াৰৰ</w>"
    ],
    [
      "চলচ্চিত্ৰ",
      "খনৰ</w>"
    ],
    [
      "ৱে",
      "ৰ</w>"
    ],
    [
      "ণ",
      ",</w>"
    ],
    [
      "ন",
      "ৌ"
    ],
    [
      "\"",
      "।</w>"
    ],
    [
      "প",
      "ঞ্চ"
    ],
    [
      "থা",
      "ই"
    ],
    [
      "এল",
      "বা"
    ],
    [
      "চেম্পিয়নশ্বি",
      "প</w>"
    ],
    [
      "মন্দি",
      "ৰৰ</w>"
    ],
    [
      "একা",
      "উণ্ট"
    ],
    [
      "কল",
      "া</w>"
    ],
    [
      "ৰাখি",
      "ছিল।</w>"
    ],
    [
      "মু",
      "দ্ৰ"
    ],
    [
      "প্ৰ",
      "স্তা"
    ],
    [
      "ৃ",
      "দ"
    ],
    [
      "ঐতিহাস",
      "িক</w>"
    ],
    [
      "ন",
      "টো</w>"
    ],
    [
      "অধ্য",
      "য়ন</w>"
    ],
    [
      "ব্য",
      "য়</w>"
    ],
    [
      "ম্ব",
      "ৰৰ</w>"
    ],
    [
      "ঘট",
      "না</w>"
    ],
    [
      "ই",
      "লি"
    ],
    [
      "ওপৰ",
      "ৰ</w>"
    ],
    [
      "তথাপি",
      "ও</w>"
    ],
    [
      "ব",
      "লৈ"
    ],
    [
      "ইতি",
      "মধ্য"
    ],
    [
      "আপোন",
      "ালো"
    ],
    [
      "দ",
      "ৌ"
    ],
    [
      "উ",
      "লি"
    ],
    [
      "পা",
      "য়।</w>"
    ],
    [
      "ৰ",
      "িয়া</w>"
    ],
    [
      "ং",
      "ক</w>"
    ],
    [
      "কৰ",
      "ী</w>"
    ],
    [
      "ৰা",
      "ম</w>"
    ],
    [
      "ইট",
      "াল"
    ],
    [
      "ৰাজ",
      "</w>"
    ],
    [
      "প",
      "ত্ৰ</w>"
    ],
    [
      "কৈ",
      "য়ে</w>"
    ],
    [
      "লা",
      "ত</w>"
    ],
    [
      "অভ",
      "িলে"
    ],
    [
      "দ",
      "্ৰা"
    ],
    [
      "বিস্ত",
      "ৃত</w>"
    ],
    [
      "শিল",
      "ালি"
    ],
    [
      "জ",
      "াল"
    ],
    [
      "পৰিৱৰ্ত",
      "ন</w>"
    ],
    [
      "প",
      "’"
    ],
    [
      "টেলি",
      "ভি"
    ],
    [
      "প্ৰতি",
      "বেদ"
    ],
    [
      "োৱাল",
      "ৈকে</w>"
    ],
    [
      "বি",
      "য়া</w>"
    ],
    [
      "এ",
      "বাৰ</w>"
    ],
    [
      "ব্যৱ",
      "হাৰৰ</w>"
    ],
    [
      "ছেপ্টে",
      "ম্বৰত</w>"
    ],
    [
      "বি",
      "জ"
    ],
    [
      "তে",
      "তিয়া</w>"
    ],
    [
      "বাহি",
      "ৰত</w>"
    ],
    [
      "দি",
      "ৱ"
    ],
    [
      "প্ৰ",
      "মাণ</w>"
    ],
    [
      "।",
      "\"</w>"
    ],
    [
      "বি",
      "ষ্ণ"
    ],
    [
      "শং",
      "কা</w>"
    ],
    [
      "নিৰ্",
      "মিত</w>"
    ],
    [
      "কৰ",
      "োঁ"
    ],
    [
      "শব্",
      "দ</w>"
    ],
    [
      "ও",
      "লাই</w>"
    ],
    [
      "নো",
      "হোৱা</w>"
    ],
    [
      "ঘ",
      "ৰ</w>"
    ],
    [
      "অনু",
      "মান</w>"
    ],
    [
      "কৃ",
      "তিৰ</w>"
    ],
    [
      "চ",
      "ৰ্"
    ],
    [
      "ইং",
      "লেণ্ডৰ</w>"
    ],
    [
      "বি",
      "দ"
    ],
    [
      "প্ৰথম",
      "খন</w>"
    ],
    [
      "ড",
      "ত</w>"
    ],
    [
      "হা",
      "ই</w>"
    ],
    [
      "ভা",
      "বি"
    ],
    [
      "অধ",
      "িকাৰ</w>"
    ],
    [
      "অ",
      "ন্ধ"
    ],
    [
      "নি",
      "ৰা"
    ],
    [
      "ং",
      ",</w>"
    ],
    [
      "ফ",
      "্লে"
    ],
    [
      "ই",
      "ড</w>"
    ],
    [
      "কেইবা",
      "খনো</w>"
    ],
    [
      "র",
      "্ব"
    ],
    [
      "\"",
      "ৰ</w>"
    ],
    [
      "অভি",
      "জ্ঞ"
    ],
    [
      "ধ",
      "নৰ</w>"
    ],
    [
      "সৈ",
      "ন্য"
    ],
    [
      "যাত্ৰ",
      "া</w>"
    ],
    [
      "কাৰ",
      "ক</w>"
    ],
    [
      "ই",
      "ল"
    ],
    [
      "পশ্চি",
      "ম"
    ],
    [
      "২০০",
      "৫</w>"
    ],
    [
      "বিনিয়",
      "োগ</w>"
    ],
    [
      "পা",
      "ঠ"
    ],
    [
      "আ",
      "ৱে"
    ],
    [
      "জা",
      "নিব</w>"
    ],
    [
      "২",
      "৩</w>"
    ],
    [
      "টা",
      "ই</w>"
    ],
    [
      "হোৱা",
      "টো</w>"
    ],
    [
      "বাত",
      "ৰি</w>"
    ],
    [
      "দীঘ",
      "লীয়া</w>"
    ],
    [
      "পাশ",
      "ত</w>"
    ],
    [
      "১০",
      "০</w>"
    ],
    [
      "তী",
      "ৰ্থ"
    ],
    [
      "সম",
      "ৰ</w>"
    ],
    [
      "কা",
      "ঠ"
    ],
    [
      "৩",
      "০"
    ],
    [
      "গাঁ",
      "ও"
    ],
    [
      "ধ্বং",
      "স</w>"
    ],
    [
      "ু",
      "ক</w>"
    ],
    [
      "অধ্য",
      "য়"
    ],
    [
      "স্",
      "তি"
    ],
    [
      "চ",
      "ৰা"
    ],
    [
      "ভু",
      "ক্ত"
    ],
    [
      "ফ",
      "াৰ্"
    ],
    [
      "কে",
      "ন্দ্ৰ</w>"
    ],
    [
      "উল্লেখ",
      "যোগ্য</w>"
    ],
    [
      "২",
      "২</w>"
    ],
    [
      "স্প",
      "ষ্ট</w>"
    ],
    [
      "সমস",
      "্যাৰ</w>"
    ],
    [
      "ণ্ড",
      "াৰ"
    ],
    [
      "ণ্ট",
      "ৰ</w>"
    ],
    [
      "ব্যৱহ",
      "ৃত</w>"
    ],
    [
      "গী",
      "ৰ্"
    ],
    [
      "ৰূ",
      "পত</w>"
    ],
    [
      "অভিনে",
      "ত্ৰ"
    ],
    [
      "মুছল",
      "মান</w>"
    ],
    [
      "সম",
      "্ৰা"
    ],
    [
      "কৃ",
      "ষ্"
    ],
    [
      "অষ্ট্ৰেল",
      "িয়াৰ</w>"
    ],
    [
      "মু",
      "ক্ত"
    ],
    [
      "ক্লা",
      "ব</w>"
    ],
    [
      "২০০",
      "৪</w>"
    ],
    [
      "ড",
      "েল"
    ],
    [
      "গে",
      "ই"
    ],
    [
      "চাৰিও",
      "ফালে</w>"
    ],
    [
      "ক",
      "ঢ়"
    ],
    [
      "বছৰ",
      "ীয়া</w>"
    ],
    [
      "ভ",
      "ৱি"
    ],
    [
      "ভৱি",
      "ষ"
    ],
    [
      "ব্যৱ",
      "স্থা"
    ],
    [
      "উ",
      "ত্থা"
    ],
    [
      "ৰাখি",
      "ব</w>"
    ],
    [
      "ট",
      "োৱেই</w>"
    ],
    [
      "বিবাহ",
      "পাশত</w>"
    ],
    [
      "গ’",
      "ল</w>"
    ],
    [
      "উৎপ",
      "ত্তি</w>"
    ],
    [
      "ণ্ট",
      "ে"
    ],
    [
      "জন",
      "সংখ্যাৰ</w>"
    ],
    [
      "কু",
      "ম"
    ],
    [
      "স্বৰূ",
      "পে</w>"
    ],
    [
      "লোক",
      "ক</w>"
    ],
    [
      "হ'",
      "লে</w>"
    ],
    [
      "ৰা",
      "গ"
    ],
    [
      "অন্য",
      "ত"
    ],
    [
      "ছবি",
      "খন</w>"
    ],
    [
      "ৰ",
      "ং</w>"
    ],
    [
      "িক",
      "ত</w>"
    ],
    [
      "খ",
      "ং</w>"
    ],
    [
      "কু",
      "মাৰ"
    ],
    [
      "বাধ",
      "্য</w>"
    ],
    [
      "দেখু",
      "ওৱা</w>"
    ],
    [
      "মিনি",
      "টৰ</w>"
    ],
    [
      "প্ৰ",
      "কৃত</w>"
    ],
    [
      "শা",
      "স্ত্ৰ"
    ],
    [
      "নি",
      "কভাৱে</w>"
    ],
    [
      "শক্ত",
      "িৰ</w>"
    ],
    [
      "পূ",
      "ৰণ</w>"
    ],
    [
      "প্ৰণ",
      "াল"
    ],
    [
      "ফাই",
      "নেল"
    ],
    [
      "ত",
      "লৰ</w>"
    ],
    [
      "নিম্",
      "ন</w>"
    ],
    [
      "প্ৰাথ",
      "মিক</w>"
    ],
    [
      "সাম্ৰা",
      "জ্য"
    ],
    [
      "অভি",
      "যোগ</w>"
    ],
    [
      "আহ",
      "ি</w>"
    ],
    [
      "ঘ",
      "টি"
    ],
    [
      "বিভ",
      "ক্ত</w>"
    ],
    [
      "পদ",
      "ক্ষে"
    ],
    [
      "নিৰ্",
      "দেশ"
    ],
    [
      "নাম",
      "টো</w>"
    ],
    [
      "ক্ষ",
      "তি</w>"
    ],
    [
      "পাৰি",
      "ব।</w>"
    ],
    [
      "এ",
      "বিধ</w>"
    ],
    [
      "ভি",
      "টা"
    ],
    [
      "মা",
      "ন্"
    ],
    [
      "য",
      "ন্ত্ৰ"
    ],
    [
      "বি",
      "নিম"
    ],
    [
      "ষ্টে",
      "ড"
    ],
    [
      "নেতৃত",
      "্ব"
    ],
    [
      "া",
      "ব্"
    ],
    [
      "ঘট",
      "নাৰ</w>"
    ],
    [
      "হতা",
      "শ</w>"
    ],
    [
      "গ",
      "াল"
    ],
    [
      "চকু",
      "ৰ</w>"
    ],
    [
      "পৰ্য",
      "্যা"
    ],
    [
      "শাস",
      "ন"
    ],
    [
      "গ",
      "ঢ়ি</w>"
    ],
    [
      "ক্ষ",
      "ি"
    ],
    [
      "ৰ্",
      "ক"
    ],
    [
      "ইতিমধ্য",
      "ে</w>"
    ],
    [
      "বিচৰ",
      "া</w>"
    ],
    [
      "ধাৰ",
      "ণা"
    ],
    [
      "ন",
      "িয়াৰ</w>"
    ],
    [
      "ৰাজ্য",
      "খনত</w>"
    ],
    [
      "কাহি",
      "নী</w>"
    ],
    [
      "ট",
      "ৰ"
    ],
    [
      "নী",
      "তিৰ</w>"
    ],
    [
      "ক",
      "সকলক</w>"
    ],
    [
      "ত্ব",
      "ৰ</w>"
    ],
    [
      "সন্",
      "মান</w>"
    ],
    [
      "নি",
      "ষ্"
    ],
    [
      "ম",
      "গ"
    ],
    [
      "নিৰ্মা",
      "ণৰ</w>"
    ],
    [
      "ৰে",
      "ডি"
    ],
    [
      "এ",
      "টাৰ</w>"
    ],
    [
      "নিৰ্বা",
      "হ</w>"
    ],
    [
      "দিল্ল",
      "ী</w>"
    ],
    [
      "ভা",
      "স্"
    ],
    [
      "সাম",
      "ৰি</w>"
    ],
    [
      "গাঁ",
      "থ"
    ],
    [
      "পূ",
      "র্"
    ],
    [
      "স্থানা",
      "ন্তৰিত</w>"
    ],
    [
      "মে",
      "ক"
    ],
    [
      "ফেডাৰ",
      "ে"
    ],
    [
      "পে",
      "ৰি"
    ],
    [
      "প্ৰধান",
      "মন্ত্ৰী</w>"
    ],
    [
      "নি",
      "ৰ"
    ],
    [
      "আ",
      "জি</w>"
    ],
    [
      "প",
      "োন"
    ],
    [
      "বি",
      "ন্দ"
    ],
    [
      "ম",
      "নত</w>"
    ],
    [
      "যু",
      "গৰ</w>"
    ],
    [
      "দ",
      "ী</w>"
    ],
    [
      "২",
      "৮</w>"
    ],
    [
      "পৰ্য",
      "ট"
    ],
    [
      "প্ৰ",
      "দেশ</w>"
    ],
    [
      "ঘ",
      "াই"
    ],
    [
      "আলো",
      "চনা</w>"
    ],
    [
      "প্ৰতিষ্ঠ",
      "া"
    ],
    [
      "গ্ৰ",
      "স্ত</w>"
    ],
    [
      "বি",
      "কাশ</w>"
    ],
    [
      "প",
      "িত</w>"
    ],
    [
      "পাঁচ",
      "টা</w>"
    ],
    [
      "বা",
      "চক</w>"
    ],
    [
      "চা",
      "বলৈ</w>"
    ],
    [
      "ভা",
      "গত</w>"
    ],
    [
      "গ",
      "াৰ</w>"
    ],
    [
      "পাছ",
      "ত,</w>"
    ],
    [
      "চিহ্",
      "নিত</w>"
    ],
    [
      "ড",
      "াই"
    ],
    [
      "পেচা",
      "দাৰী</w>"
    ],
    [
      "ত",
      "ল"
    ],
    [
      "নেতৃত",
      "্ব</w>"
    ],
    [
      "ত",
      "্য</w>"
    ],
    [
      "পৃষ্ঠ",
      "পোষ"
    ],
    [
      "সী",
      "মা</w>"
    ],
    [
      "গণ",
      "িত</w>"
    ],
    [
      "পূৰ্",
      "ব</w>"
    ],
    [
      "বা",
      "ই</w>"
    ],
    [
      "ন্দ",
      "া</w>"
    ],
    [
      "মা",
      "ক</w>"
    ],
    [
      "গ'",
      "ল"
    ],
    [
      "ডল",
      "াৰ"
    ],
    [
      "অভিনে",
      "তা</w>"
    ],
    [
      "ৰাখি",
      "বলৈ</w>"
    ],
    [
      "মৃত্য",
      "ু"
    ],
    [
      "অনু",
      "শীল"
    ],
    [
      "ক",
      "মিউ"
    ],
    [
      "অ",
      "শো"
    ],
    [
      "দি",
      "য়"
    ],
    [
      "শিশ",
      "ু</w>"
    ],
    [
      "তথ",
      "্য"
    ],
    [
      "গুৰু",
      "তৰ</w>"
    ],
    [
      "ক",
      "ঠ"
    ],
    [
      "চী",
      "না</w>"
    ],
    [
      "০",
      "-ৰ</w>"
    ],
    [
      "এ",
      "ট"
    ],
    [
      "ব",
      "ৈ</w>"
    ],
    [
      "ৰ",
      "িয়া"
    ],
    [
      "বিবা",
      "হ</w>"
    ],
    [
      "পৰা",
      "জিত</w>"
    ],
    [
      "দ",
      "ণ্ড</w>"
    ],
    [
      "গ",
      "ছ"
    ],
    [
      "কেইটা",
      "মান</w>"
    ],
    [
      "চ্",
      "ছ"
    ],
    [
      "ঙ",
      "ি</w>"
    ],
    [
      "সা",
      "গৰ"
    ],
    [
      "ল",
      "ছ</w>"
    ],
    [
      "প্ৰ",
      "কাশ"
    ],
    [
      "নিউ",
      "য়"
    ],
    [
      "কেলি",
      "ফৰ্"
    ],
    [
      "আ",
      "ন্দ"
    ],
    [
      "িত",
      "্ব"
    ],
    [
      "শ্ব",
      "ু"
    ],
    [
      "জ",
      "ৰু"
    ],
    [
      "দেখু",
      "ৱা"
    ],
    [
      "বাহ",
      "ী</w>"
    ],
    [
      "লক্ষ",
      "ণ</w>"
    ],
    [
      "গ্ৰা",
      "ম"
    ],
    [
      "২",
      "৬</w>"
    ],
    [
      "প্ৰ",
      "চাৰ</w>"
    ],
    [
      "দা",
      "নৰ</w>"
    ],
    [
      "ভূমি",
      "ৰ</w>"
    ],
    [
      "অৱস্থ",
      "া</w>"
    ],
    [
      "মে",
      "ন</w>"
    ],
    [
      "জিল",
      "া"
    ],
    [
      "২",
      "১</w>"
    ],
    [
      "বিনিয়",
      "োগ"
    ],
    [
      "প্ৰশংস",
      "া</w>"
    ],
    [
      "তাৰি",
      "খ"
    ],
    [
      "সৰ্বো",
      "চ্চ</w>"
    ],
    [
      "আধাৰ",
      "িত</w>"
    ],
    [
      "চহৰ",
      "খনৰ</w>"
    ],
    [
      "যুক্তৰাষ্ট্ৰ",
      "ত</w>"
    ],
    [
      "ছে",
      "ই"
    ],
    [
      "চে",
      "ন্"
    ],
    [
      "পি",
      "ং</w>"
    ],
    [
      "খা",
      "দ্য"
    ],
    [
      "ক",
      "্য</w>"
    ],
    [
      "নিৰ্বা",
      "চনত</w>"
    ],
    [
      "সি",
      "ন্ধ"
    ],
    [
      "জ্য",
      "ে"
    ],
    [
      "মাত্ৰ",
      "া</w>"
    ],
    [
      "ভ",
      "িল"
    ],
    [
      "প্ৰশিক্ষ",
      "ণ</w>"
    ],
    [
      "দ",
      "োষ"
    ],
    [
      "কু",
      "ৱা</w>"
    ],
    [
      "মাই",
      "ল"
    ],
    [
      "দুৰ্",
      "গ</w>"
    ],
    [
      "স্ম",
      "ৃ"
    ],
    [
      "কণ",
      "্"
    ],
    [
      "চিন্ত",
      "া</w>"
    ],
    [
      "গ",
      "ে</w>"
    ],
    [
      "বৃ",
      "ত্ত"
    ],
    [
      "ো",
      "প</w>"
    ],
    [
      "খ",
      "িতা"
    ],
    [
      "ৱ",
      "িক</w>"
    ],
    [
      "আগবঢ়",
      "োৱা</w>"
    ],
    [
      "ণ",
      "াৰ</w>"
    ],
    [
      "গু",
      "হা"
    ],
    [
      "শ্ব",
      "</w>"
    ],
    [
      "শতা",
      "ংশ</w>"
    ],
    [
      "মা",
      "ছ</w>"
    ],
    [
      "প্ৰয়োজন",
      "ীয়</w>"
    ],
    [
      "হিচা",
      "পে"
    ],
    [
      "পৰি",
      "ছিল</w>"
    ],
    [
      "ম্",
      "বাই"
    ],
    [
      "ঙ",
      "ত</w>"
    ],
    [
      "অন্যত",
      "ম।</w>"
    ],
    [
      "ন",
      "লৈ</w>"
    ],
    [
      "সন্",
      "দে"
    ],
    [
      "পৰি",
      "মাণ</w>"
    ],
    [
      "অ",
      "ৰণ"
    ],
    [
      "পে",
      "ৰা"
    ],
    [
      "জাৰ্মান",
      "ীৰ</w>"
    ],
    [
      "স্বাভাৱ",
      "িক</w>"
    ],
    [
      "সাক্ষ",
      "া"
    ],
    [
      "ৰ",
      "জা"
    ],
    [
      "তাই",
      "ক</w>"
    ],
    [
      "গ",
      "ৌ"
    ],
    [
      "পৰি",
      "ছে।</w>"
    ],
    [
      "আন্দ",
      "োল"
    ],
    [
      "চ",
      "ক"
    ],
    [
      "সে",
      "ৱাৰ</w>"
    ],
    [
      "পৰি",
      "গণিত</w>"
    ],
    [
      "দু",
      "জন</w>"
    ],
    [
      "বছ",
      "ৰত</w>"
    ],
    [
      "যৌ",
      "ন</w>"
    ],
    [
      "প",
      "ী</w>"
    ],
    [
      "বে",
      "ক্ট"
    ],
    [
      "সংক্ৰম",
      "ণৰ</w>"
    ],
    [
      "হাল",
      "ধ"
    ],
    [
      "িত",
      "ভাৱে</w>"
    ],
    [
      "ফ",
      "ৰা"
    ],
    [
      "ৰাজ্য",
      "ত</w>"
    ],
    [
      "প্ৰ",
      "মাণ"
    ],
    [
      "বস্তু",
      "ৰ</w>"
    ],
    [
      "ইংৰাজ",
      "ী</w>"
    ],
    [
      "টি",
      "ভ</w>"
    ],
    [
      "অনু",
      "মোদ"
    ],
    [
      "গো",
      "ট</w>"
    ],
    [
      "িয়ে",
      "ল</w>"
    ],
    [
      "জনপ্ৰ",
      "িয়"
    ],
    [
      "পদ্ধ",
      "তি"
    ],
    [
      "ও",
      "ৱাৰ</w>"
    ],
    [
      "দ",
      "শ</w>"
    ],
    [
      "টো",
      "ও</w>"
    ],
    [
      "ন্ত",
      "ত</w>"
    ],
    [
      "প্ৰা",
      "কৃতিক</w>"
    ],
    [
      "ভিটা",
      "মিন</w>"
    ],
    [
      "স্বাধীন",
      "তা</w>"
    ],
    [
      "ভ",
      "ত</w>"
    ],
    [
      "বাহি",
      "নী"
    ],
    [
      "এ",
      "য়াৰ"
    ],
    [
      "মাৰা",
      "ঠা</w>"
    ],
    [
      "অন",
      "লাইন</w>"
    ],
    [
      "স",
      "োঁ"
    ],
    [
      "গ্ৰ",
      "ু"
    ],
    [
      "না",
      "গৰ"
    ],
    [
      "ছ",
      "িয়া"
    ],
    [
      "তি",
      "নি</w>"
    ],
    [
      "ম",
      "ছ</w>"
    ],
    [
      "বল",
      "টো</w>"
    ],
    [
      "কমে",
      "ও</w>"
    ],
    [
      "সদা",
      "য়</w>"
    ],
    [
      "জি",
      "ৰ</w>"
    ],
    [
      "দা",
      "ন"
    ],
    [
      "মা",
      "লা"
    ],
    [
      "সাং",
      "স্"
    ],
    [
      "শ্ব",
      "ৰ</w>"
    ],
    [
      "লেণ্ড",
      "ত</w>"
    ],
    [
      "ঘ",
      "ৰ"
    ],
    [
      "মা",
      "ং"
    ],
    [
      "কল",
      "ি"
    ],
    [
      "ক্ত",
      "ন</w>"
    ],
    [
      "ণ",
      "কাৰ"
    ],
    [
      "২০২",
      "২</w>"
    ],
    [
      "মান",
      "ৱ</w>"
    ],
    [
      "ক",
      "টো</w>"
    ],
    [
      "গাড়",
      "ী"
    ],
    [
      "পাই",
      "ছে।</w>"
    ],
    [
      "২",
      "৯</w>"
    ],
    [
      "সন্ত",
      "ান</w>"
    ],
    [
      "কা",
      "প</w>"
    ],
    [
      "ব",
      "য়"
    ],
    [
      "কে",
      "ল"
    ],
    [
      "১",
      "."
    ],
    [
      "দেউ",
      "তা"
    ],
    [
      "সন্ত",
      "ু"
    ],
    [
      "আগবা",
      "ঢ়ি</w>"
    ],
    [
      "র্",
      "শ"
    ],
    [
      "পু",
      "ঁ"
    ],
    [
      "দৃ",
      "শ"
    ],
    [
      "মন্দি",
      "ৰ"
    ],
    [
      "চি",
      "ৰ</w>"
    ],
    [
      "৪",
      "০</w>"
    ],
    [
      "তা",
      "প"
    ],
    [
      "প্ৰধান",
      "কৈ</w>"
    ],
    [
      "অংশ",
      "।</w>"
    ],
    [
      "প্ৰতিযোগিত",
      "াত</w>"
    ],
    [
      "সম",
      "্ব"
    ],
    [
      "ব",
      "ীৰ</w>"
    ],
    [
      "বাণিজ্য",
      "িক</w>"
    ],
    [
      "পথ",
      "ত</w>"
    ],
    [
      "আক্ৰম",
      "ণৰ</w>"
    ],
    [
      "২",
      "৭</w>"
    ],
    [
      "মহাৰা",
      "ষ্ট্ৰ"
    ],
    [
      "ফিল",
      "ি"
    ],
    [
      "শীৰ্ষ",
      "</w>"
    ],
    [
      "খেলুৱৈ",
      "ৰ</w>"
    ],
    [
      "লোকপিয়",
      "ল</w>"
    ],
    [
      "উ",
      "ণ্ট</w>"
    ],
    [
      "ইলি",
      "ন"
    ],
    [
      "ব্ৰা",
      "জিল"
    ],
    [
      "কা",
      "ই</w>"
    ],
    [
      "সু",
      "বিধা"
    ],
    [
      "কেনে",
      "কৈ</w>"
    ],
    [
      "স্",
      "ক</w>"
    ],
    [
      "ল",
      "য়।</w>"
    ],
    [
      "অৰ্থ",
      "নৈতিক</w>"
    ],
    [
      "চতু",
      "ৰ্থ</w>"
    ],
    [
      "ড",
      "ো"
    ],
    [
      "আৰ",
      "োহ"
    ],
    [
      "জ",
      "ীৰ</w>"
    ],
    [
      "কে",
      "ট"
    ],
    [
      "বাহি",
      "ৰে</w>"
    ],
    [
      "ড়",
      "া</w>"
    ],
    [
      "ঞ্",
      "জ</w>"
    ],
    [
      "লোক",
      "সকলক</w>"
    ],
    [
      "জ",
      "গ"
    ],
    [
      "উই",
      "ল"
    ],
    [
      "কি",
      "উ"
    ],
    [
      "কো",
      "টি</w>"
    ],
    [
      "পাঁ",
      "চ</w>"
    ],
    [
      "কু",
      "কু"
    ],
    [
      "গো",
      "ষ্ঠ"
    ],
    [
      "্বি",
      "তা</w>"
    ],
    [
      "বি",
      "কল্প</w>"
    ],
    [
      "ব্",
      "ল"
    ],
    [
      "ম",
      "ছ"
    ],
    [
      "প্ৰা",
      "ক্তন</w>"
    ],
    [
      "২",
      "৫"
    ],
    [
      "ক্ষ",
      "ণ</w>"
    ],
    [
      "স",
      "ঘ"
    ],
    [
      "ব্যক্ত",
      "িৰ</w>"
    ],
    [
      "ৰা",
      "তি"
    ],
    [
      "হ",
      "োৱালৈকে</w>"
    ],
    [
      "তে",
      "জ</w>"
    ],
    [
      "িক",
      "।</w>"
    ],
    [
      "হ",
      "ীন</w>"
    ],
    [
      "মূল",
      "্য"
    ],
    [
      "উত্তৰা",
      "ধি"
    ],
    [
      "ক",
      "তা</w>"
    ],
    [
      "ব",
      "’"
    ],
    [
      "এক",
      "ক</w>"
    ],
    [
      "সঁচা",
      "কৈয়ে</w>"
    ],
    [
      "মু",
      "ম্বাই"
    ],
    [
      "খা",
      "ই</w>"
    ],
    [
      "৬",
      "০</w>"
    ],
    [
      "ম",
      "ৃত"
    ],
    [
      "উ",
      "ঠি"
    ],
    [
      "চলচ্চিত্ৰ",
      "খন</w>"
    ],
    [
      "জ",
      "মা</w>"
    ],
    [
      "এ",
      "."
    ],
    [
      "তালিকা",
      "ভুক্ত</w>"
    ],
    [
      "হি",
      "ং"
    ],
    [
      "টি",
      "ছ</w>"
    ],
    [
      "জিল",
      "াত</w>"
    ],
    [
      "কেৰা",
      "লাৰ</w>"
    ],
    [
      "পাই",
      "ছিল</w>"
    ],
    [
      "কোন",
      "ো"
    ],
    [
      "কু",
      "মাৰ</w>"
    ],
    [
      "ভৱিষ",
      "্য"
    ],
    [
      "থ",
      "ু"
    ],
    [
      "মানু",
      "হ</w>"
    ],
    [
      "ফিল",
      "্ম"
    ],
    [
      "পূ",
      "জা</w>"
    ],
    [
      "কেলিফৰ্",
      "ণ"
    ],
    [
      "গ",
      "তিত</w>"
    ],
    [
      "ত",
      "িয়াল"
    ],
    [
      "কা",
      "প"
    ],
    [
      "পাৰ",
      "ি</w>"
    ],
    [
      "শিশ",
      "ুৰ</w>"
    ],
    [
      "এছ",
      "িয়ান</w>"
    ],
    [
      "একে",
      "টা</w>"
    ],
    [
      "প্ৰ",
      "শ্"
    ],
    [
      "২০০",
      "৩</w>"
    ],
    [
      "যু",
      "ৱ"
    ],
    [
      "বিশেষ",
      "ভাৱে</w>"
    ],
    [
      "ইণ্ড",
      "ো"
    ],
    [
      "মা",
      "নি</w>"
    ],
    [
      "সা",
      "ম্"
    ],
    [
      "আ",
      "ফ"
    ],
    [
      "স্",
      "কু"
    ],
    [
      "শ্বা",
      "হ</w>"
    ],
    [
      "বাং",
      "লা"
    ],
    [
      "অঞ্চল",
      "টো</w>"
    ],
    [
      "ভিতৰ",
      "তে</w>"
    ],
    [
      "কৰ",
      "ে"
    ],
    [
      "ৰি",
      "য়"
    ],
    [
      "বি",
      "ৱ"
    ],
    [
      "ঘ",
      "ৰলৈ</w>"
    ],
    [
      "ৰে",
      "’"
    ],
    [
      "ন",
      "গৰৰ</w>"
    ],
    [
      "ইণ্ড",
      "িয়া</w>"
    ],
    [
      "জে",
      "ই</w>"
    ],
    [
      "তি",
      "য়া"
    ],
    [
      "যুঁ",
      "জ</w>"
    ],
    [
      "ভি",
      "ত্তি</w>"
    ],
    [
      "পিছ",
      "লৈ</w>"
    ],
    [
      "ড",
      "'"
    ],
    [
      "শ্ৰে",
      "ণীৰ</w>"
    ],
    [
      "ক্",
      "লে"
    ],
    [
      "জন",
      "োৱা</w>"
    ],
    [
      "ক্",
      "ল"
    ],
    [
      "ট",
      "্র"
    ],
    [
      "মে",
      "নে"
    ],
    [
      "জল",
      "প্ৰ"
    ],
    [
      "কৈ",
      "ছিল।</w>"
    ],
    [
      "পত্ন",
      "ী</w>"
    ],
    [
      "ওচৰ",
      "লৈ</w>"
    ],
    [
      "র্",
      "থ"
    ],
    [
      "পা",
      "বলৈ</w>"
    ],
    [
      "বিদ্যাল",
      "য়"
    ],
    [
      "আঁত",
      "ৰি</w>"
    ],
    [
      "গৰাক",
      "ীয়ে</w>"
    ],
    [
      "খেল",
      "পথ"
    ],
    [
      "টি",
      "ন</w>"
    ],
    [
      "চা",
      "ই</w>"
    ],
    [
      "ৰে",
      "টি"
    ],
    [
      "ন",
      "কৰে।</w>"
    ],
    [
      "খা",
      "দ"
    ],
    [
      "আনুষ্ঠা",
      "নিকভাৱে</w>"
    ],
    [
      "ীয়",
      "াই</w>"
    ],
    [
      "ড়",
      "</w>"
    ],
    [
      "র",
      "া"
    ],
    [
      "১৯",
      "০"
    ],
    [
      "আই",
      "."
    ],
    [
      "্য",
      "ু"
    ],
    [
      "মা",
      "হ</w>"
    ],
    [
      "শ্ৰ",
      "ী</w>"
    ],
    [
      "দ্ৰ",
      "ুত</w>"
    ],
    [
      "স্",
      "কাৰ</w>"
    ],
    [
      "দৈ",
      "ৰ্ঘ"
    ],
    [
      "ৰ",
      "েল"
    ],
    [
      "না",
      "ছিল"
    ],
    [
      "শ্য",
      "নৰ</w>"
    ],
    [
      "ছ",
      ":</w>"
    ],
    [
      "অপৰা",
      "ধ"
    ],
    [
      "নিশ্",
      "চ"
    ],
    [
      "সি",
      "ং</w>"
    ],
    [
      "চন",
      "ত,</w>"
    ],
    [
      "একে",
      "বাৰে</w>"
    ],
    [
      "আহ",
      "ে।</w>"
    ],
    [
      "ৰঙ",
      "া</w>"
    ],
    [
      "ড",
      "েলি"
    ],
    [
      "উ",
      "জ"
    ],
    [
      "সে",
      "ৱ"
    ],
    [
      "সূ",
      "চ"
    ],
    [
      "১৯৯",
      "৯</w>"
    ],
    [
      "উ",
      "চ"
    ],
    [
      "ছবি",
      "খনত</w>"
    ],
    [
      "হ",
      "ৃদ"
    ],
    [
      "িক",
      "ো"
    ],
    [
      "বেছ",
      "িকৈ</w>"
    ],
    [
      "সকলো",
      "বোৰ</w>"
    ],
    [
      "আ",
      "ই</w>"
    ],
    [
      "ং",
      "কৰ</w>"
    ],
    [
      "ছি",
      "ৰি"
    ],
    [
      "ক",
      "র্"
    ],
    [
      "স",
      "ক্ৰিয়</w>"
    ],
    [
      "বিশ্ববিদ্যাল",
      "য়ৰ</w>"
    ],
    [
      "পা",
      "হাৰৰ</w>"
    ],
    [
      "জু",
      "ৰ</w>"
    ],
    [
      "পাৰ্",
      "থ"
    ],
    [
      "শিল",
      "ৰ</w>"
    ],
    [
      "প",
      "লি"
    ],
    [
      "বিদ্যু",
      "ৎ</w>"
    ],
    [
      "ব",
      "জাৰ"
    ],
    [
      "সাংস্",
      "কৃতিক</w>"
    ],
    [
      "বন্দ",
      "ী</w>"
    ],
    [
      "চূ",
      "ড়"
    ],
    [
      "সমা",
      "প্ত</w>"
    ],
    [
      "আঁত",
      "ৰাই</w>"
    ],
    [
      "গ্র",
      "হ"
    ],
    [
      "সংস্",
      "কৰণ"
    ],
    [
      "এ",
      "ল</w>"
    ],
    [
      "সংক্ৰম",
      "ণ</w>"
    ],
    [
      "এ",
      "চি"
    ],
    [
      "এছ",
      "."
    ],
    [
      "গো",
      "প"
    ],
    [
      "দৃষ্ট",
      "ি"
    ],
    [
      "অস্ত্ৰ",
      "োপ"
    ],
    [
      "ব",
      "দ"
    ],
    [
      "জয়",
      "ী</w>"
    ],
    [
      "৪",
      "০"
    ],
    [
      "ন্",
      "দ্র"
    ],
    [
      "পৰিচাল",
      "ক</w>"
    ],
    [
      "বিদ্যাল",
      "য়</w>"
    ],
    [
      "দেৱ",
      "ী</w>"
    ],
    [
      "ছ",
      "ালৰ</w>"
    ],
    [
      "সম",
      "ৃ"
    ],
    [
      "বি",
      "নামূল"
    ],
    [
      "চে",
      "ণ্ট"
    ],
    [
      "ফ",
      "া</w>"
    ],
    [
      "ৱি",
      "কি"
    ],
    [
      "অ",
      "ত্যা"
    ],
    [
      "এছ",
      "িয়াৰ</w>"
    ],
    [
      "স্ত",
      "্ৰ</w>"
    ],
    [
      "কাৰ্য",
      "নিৰ্বাহ</w>"
    ],
    [
      "অনুস",
      "ৰি,</w>"
    ],
    [
      "ব",
      "ক্স</w>"
    ],
    [
      "সপ্তা",
      "হত</w>"
    ],
    [
      "খ",
      "িল</w>"
    ],
    [
      "ভ",
      "িয়ে"
    ],
    [
      "ঋ",
      "তু"
    ],
    [
      "কাৰ",
      "্ড</w>"
    ],
    [
      "ওঁ",
      "</w>"
    ],
    [
      "প্ৰ",
      "দেশ"
    ],
    [
      "পাকিস্তা",
      "নৰ</w>"
    ],
    [
      "হিচাপে",
      "ও</w>"
    ],
    [
      "ব্যা",
      "পক</w>"
    ],
    [
      "না",
      "থ</w>"
    ],
    [
      "বাহি",
      "নী</w>"
    ],
    [
      "এ",
      "প"
    ],
    [
      "প",
      "ৱ"
    ],
    [
      "ডা",
      "উ"
    ],
    [
      "ঁ",
      "হ"
    ],
    [
      "নাম",
      "কৰণ</w>"
    ],
    [
      "নগৰ",
      "।</w>"
    ],
    [
      "ব",
      "ন"
    ],
    [
      "ই",
      "জি"
    ],
    [
      "তাল",
      "িকা</w>"
    ],
    [
      "উদ",
      "্যা"
    ],
    [
      "প্",
      "তাৰ</w>"
    ],
    [
      "দ",
      "ৰা"
    ],
    [
      "জনাই",
      "ছিল।</w>"
    ],
    [
      "তিয়াল",
      "ৈকে</w>"
    ],
    [
      "মহ",
      "ম্ম"
    ],
    [
      "ভ",
      "ৌ"
    ],
    [
      "ল",
      "ীয়</w>"
    ],
    [
      "সম্",
      "ভৱ</w>"
    ],
    [
      "ম্",
      "বি"
    ],
    [
      "উদ্ধ",
      "াৰ</w>"
    ],
    [
      "ব্যৱসা",
      "য়</w>"
    ],
    [
      "২০০",
      "২</w>"
    ],
    [
      "্ট",
      "ৰ</w>"
    ],
    [
      "ফ্ৰা",
      "ন্সৰ</w>"
    ],
    [
      "ডা",
      "ঙ"
    ],
    [
      "ূ",
      "ৰ্"
    ],
    [
      "বা",
      "সি"
    ],
    [
      "সহ",
      "জ</w>"
    ],
    [
      "হ্ৰ",
      "দ"
    ],
    [
      "পই",
      "ণ্ট</w>"
    ],
    [
      "গ্ৰীষ্ম",
      "কালীন</w>"
    ],
    [
      "বেক্ট",
      "ে"
    ],
    [
      "°",
      "</w>"
    ],
    [
      "অঞ্চল",
      "টোৰ</w>"
    ],
    [
      "খ",
      "াত</w>"
    ],
    [
      "হা",
      "ত"
    ],
    [
      "আ",
      "ঠ"
    ],
    [
      "নে",
      "ৰে</w>"
    ],
    [
      "ট",
      "ছ</w>"
    ],
    [
      "ব",
      "দ্ধ"
    ],
    [
      "প",
      "ঞ্জ"
    ],
    [
      "লি",
      "পি"
    ],
    [
      "আনুষ্ঠা",
      "নিক</w>"
    ],
    [
      "বা",
      "ল"
    ],
    [
      "ল",
      "ে।</w>"
    ],
    [
      "কু",
      "ই"
    ],
    [
      "চলচ্চিত্ৰ",
      "ত</w>"
    ],
    [
      "দৰে",
      "ই</w>"
    ],
    [
      "আত্ম",
      "প্ৰকাশ</w>"
    ],
    [
      "ব",
      "জাই</w>"
    ],
    [
      "স",
      "াৰ</w>"
    ],
    [
      "সমালো",
      "চনা</w>"
    ],
    [
      "নাই",
      ",</w>"
    ],
    [
      "ক",
      "বি"
    ],
    [
      "্ড",
      "ৰ</w>"
    ],
    [
      "শি",
      "ৱ"
    ],
    [
      "বো",
      "ৰ"
    ],
    [
      "কৰি",
      "ছে,</w>"
    ],
    [
      "লা",
      "হে</w>"
    ],
    [
      "শ্য",
      "নেল</w>"
    ],
    [
      "ন",
      "াৰ্"
    ],
    [
      "শৰী",
      "ৰৰ</w>"
    ],
    [
      "মানুহ",
      "ক</w>"
    ],
    [
      "হ’",
      "বলৈ</w>"
    ],
    [
      "বিদ্ৰ",
      "ো"
    ],
    [
      "বি",
      "দ</w>"
    ],
    [
      "ন",
      "িয়া</w>"
    ],
    [
      "ক্ষ",
      "ণ"
    ],
    [
      "ত্ত",
      "্বি"
    ],
    [
      "ক্ৰি",
      "কেট</w>"
    ],
    [
      "সম্",
      "ভা"
    ],
    [
      "আৰ",
      "া"
    ],
    [
      "প",
      "তি"
    ],
    [
      "গু",
      "ণ</w>"
    ],
    [
      "ভ",
      "য়</w>"
    ],
    [
      "ইউৰোপ",
      "ীয়</w>"
    ],
    [
      "দায়",
      "িত্ব</w>"
    ],
    [
      "শি",
      "ষ্ট</w>"
    ],
    [
      "স্",
      "তি</w>"
    ],
    [
      "জ",
      "্য</w>"
    ],
    [
      "দি",
      "নত</w>"
    ],
    [
      "মাৰ্",
      "চ</w>"
    ],
    [
      "অভাৱ",
      "</w>"
    ],
    [
      "চ",
      "নেল</w>"
    ],
    [
      "সং",
      "গ"
    ],
    [
      "মা",
      "ত</w>"
    ],
    [
      "সংৰক্ষ",
      "ণ</w>"
    ],
    [
      "চ",
      "ক্ৰ"
    ],
    [
      "লা",
      "খ</w>"
    ],
    [
      "প্ৰতিযোগিত",
      "া</w>"
    ],
    [
      "চি",
      "ন</w>"
    ],
    [
      "বিক্ৰ",
      "ে"
    ],
    [
      "তেনে",
      "হ’লে</w>"
    ],
    [
      "ৰে'",
      "ল"
    ],
    [
      "শব্দ",
      "টো</w>"
    ],
    [
      "খেলুৱৈ",
      "সকলে</w>"
    ],
    [
      "সু",
      "যোগ</w>"
    ],
    [
      "মনোন",
      "ীত</w>"
    ],
    [
      "দুৰ্",
      "বল</w>"
    ],
    [
      "নোৱাৰ",
      "ে।</w>"
    ],
    [
      "ণ্ড",
      "ে"
    ],
    [
      "অ",
      "গ্"
    ],
    [
      "দেশ",
      "ী</w>"
    ],
    [
      "কাষ",
      "ত</w>"
    ],
    [
      "সঞ্চ",
      "য়</w>"
    ],
    [
      "ড",
      "াল</w>"
    ],
    [
      "স",
      "চৰা"
    ],
    [
      "খ",
      "োৱা</w>"
    ],
    [
      "ড",
      "ী</w>"
    ],
    [
      "আহি",
      "ছিল</w>"
    ],
    [
      "ই",
      "ষ্ট</w>"
    ],
    [
      "কন",
      "্যা</w>"
    ],
    [
      "ভ",
      "ৰি</w>"
    ],
    [
      "দিন",
      "টোত</w>"
    ],
    [
      "থা",
      "ৎ</w>"
    ],
    [
      "দ্ৰু",
      "ত"
    ],
    [
      "গ",
      "ছ</w>"
    ],
    [
      "জীৱ",
      "ন"
    ],
    [
      "নিম্",
      "ন"
    ],
    [
      "খো",
      "জ</w>"
    ],
    [
      "ৱে",
      "ল</w>"
    ],
    [
      "িয়",
      "াৰ"
    ],
    [
      "স্",
      "তৰ</w>"
    ],
    [
      "ব্যৱহাৰ",
      "কাৰ"
    ],
    [
      "অৱ",
      "বাহি"
    ],
    [
      "ভাইৰা",
      "ছৰ</w>"
    ],
    [
      "মান",
      "্য</w>"
    ],
    [
      "ভু",
      "ল</w>"
    ],
    [
      "মুখ",
      "্য"
    ],
    [
      "শৈ",
      "লীৰ</w>"
    ],
    [
      "চূড়",
      "ান্ত</w>"
    ],
    [
      "চ্",
      "ছা"
    ],
    [
      "অ",
      "পাৰে"
    ],
    [
      "জু",
      "ন</w>"
    ],
    [
      "বেং",
      "ক</w>"
    ],
    [
      "পৰ্য",
      "ন্ত</w>"
    ],
    [
      "সা",
      "ৱ"
    ],
    [
      "ফ",
      "'ৰ্"
    ],
    [
      "ফ",
      "'"
    ],
    [
      "গ্ৰ",
      "ীক</w>"
    ],
    [
      "সী",
      "মিত</w>"
    ],
    [
      "প্ৰা",
      "প্ত"
    ],
    [
      "হি",
      "মাল"
    ],
    [
      "মিনি",
      "টত</w>"
    ],
    [
      "অ",
      "বিহ"
    ],
    [
      "স্বা",
      "ক্ষৰ</w>"
    ],
    [
      "সু",
      "ৰ"
    ],
    [
      "শাস",
      "িত</w>"
    ],
    [
      "দ",
      "িয়া"
    ],
    [
      "নি",
      "জ</w>"
    ],
    [
      "অ",
      "গ্ৰ"
    ],
    [
      "আৰম্ভণ",
      "িৰ</w>"
    ],
    [
      "পৰীক্ষ",
      "া"
    ],
    [
      "সম্",
      "পাদ"
    ],
    [
      "ও",
      "ড়"
    ],
    [
      "পা",
      "য়</w>"
    ],
    [
      "পক্ষ",
      "ৰ</w>"
    ],
    [
      "আঘা",
      "তৰ</w>"
    ],
    [
      "বন্ধ",
      "ৰ</w>"
    ],
    [
      "ব্যৱসায়",
      "িক</w>"
    ],
    [
      "ৰ",
      "ন্ধ"
    ],
    [
      "ফু",
      "ট</w>"
    ],
    [
      "টে",
      "ক্সা"
    ],
    [
      "ডে",
      "ল</w>"
    ],
    [
      "হৈছিল",
      "োঁ।</w>"
    ],
    [
      "ব",
      "ক্ত"
    ],
    [
      "স",
      "ন্দ"
    ],
    [
      "কাশ্",
      "মী"
    ],
    [
      "ভাৱ",
      "</w>"
    ],
    [
      "অন্তি",
      "ম</w>"
    ],
    [
      "বি",
      "ফল</w>"
    ],
    [
      "ত্ত",
      "ৰ</w>"
    ],
    [
      "ফ",
      "েল"
    ],
    [
      "ন্",
      "ত্র"
    ],
    [
      "ও",
      "ৱা"
    ],
    [
      "পাছ",
      "লৈ</w>"
    ],
    [
      "আগ",
      "ৰ</w>"
    ],
    [
      "মান",
      "সিক</w>"
    ],
    [
      "পু",
      "ৱা</w>"
    ],
    [
      "পৃথিৱ",
      "ীৰ</w>"
    ],
    [
      "কা",
      "গ"
    ],
    [
      "গৰাক",
      "ীৰ</w>"
    ],
    [
      "ছবি",
      "খনে</w>"
    ],
    [
      "আ",
      "ঙ"
    ],
    [
      "ঞ্",
      "জৰ</w>"
    ],
    [
      "ধ",
      "ৰ"
    ],
    [
      "ট",
      "ক</w>"
    ],
    [
      "ভ",
      "ংগ"
    ],
    [
      "মু",
      "ৰ"
    ],
    [
      "বং",
      "গৰ</w>"
    ],
    [
      "সমালো",
      "চ"
    ],
    [
      "ট",
      "ী</w>"
    ],
    [
      "১",
      "১"
    ],
    [
      "দ",
      "বা</w>"
    ],
    [
      "ব্য",
      "স্ত</w>"
    ],
    [
      "প্ৰ",
      "তী"
    ],
    [
      "খ",
      "ণ্ডৰ</w>"
    ],
    [
      "মূল",
      "্যা"
    ],
    [
      "এ",
      "ণ্টি"
    ],
    [
      "হ",
      "ৰি"
    ],
    [
      "জাপা",
      "নৰ</w>"
    ],
    [
      "১৯৯",
      "৮</w>"
    ],
    [
      "প",
      "ৌ"
    ],
    [
      "ই",
      "লে"
    ],
    [
      "এলে",
      "কা</w>"
    ],
    [
      "গ্ৰে",
      "প্তাৰ</w>"
    ],
    [
      "চু",
      "ক্তি</w>"
    ],
    [
      "বিজয়",
      "ী</w>"
    ],
    [
      "শাস",
      "ক</w>"
    ],
    [
      "উদ্ভ",
      "ৱ</w>"
    ],
    [
      "খ",
      "ণ্ড</w>"
    ],
    [
      "দ",
      "র্শ"
    ],
    [
      "এ",
      "য়া</w>"
    ],
    [
      "জন্",
      "মৰ</w>"
    ],
    [
      "চন",
      "াৰ</w>"
    ],
    [
      "খ্ৰীষ্ট",
      "পূৰ্ব</w>"
    ],
    [
      "মে",
      "ট্ৰ"
    ],
    [
      "গাঁ",
      "ৱৰ</w>"
    ],
    [
      "শাৰী",
      "ৰিক</w>"
    ],
    [
      "গতি",
      "কে</w>"
    ],
    [
      "চ",
      "ন্দ্ৰ"
    ],
    [
      "পাশ",
      "ে</w>"
    ],
    [
      "'",
      "ক</w>"
    ],
    [
      "মল",
      "্ল"
    ],
    [
      "খেলুৱৈ",
      "য়ে</w>"
    ],
    [
      "বৰষু",
      "ণ</w>"
    ],
    [
      "লা",
      "ডা"
    ],
    [
      "গে'",
      "ম</w>"
    ],
    [
      "থাকি",
      "বলৈ</w>"
    ],
    [
      "খাদ",
      "্যৰ</w>"
    ],
    [
      "কৰা",
      ",</w>"
    ],
    [
      "ত",
      "হে</w>"
    ],
    [
      "২",
      ","
    ],
    [
      "প্ৰতিদ্বন্দ",
      "্বিতা</w>"
    ],
    [
      "ম",
      "ুল"
    ],
    [
      "ফৰা",
      "চী</w>"
    ],
    [
      "ভ",
      "ৰ্"
    ],
    [
      "মা",
      "নেই</w>"
    ],
    [
      "যি",
      "খন</w>"
    ],
    [
      "পা",
      "নী"
    ],
    [
      "াই",
      "ছিল</w>"
    ],
    [
      "ল",
      "ং"
    ],
    [
      "জ",
      ",</w>"
    ],
    [
      "ছ",
      "াৰ</w>"
    ],
    [
      "কা",
      "ক"
    ],
    [
      "বিচাৰ",
      "ে।</w>"
    ],
    [
      "ডি",
      "ফে"
    ],
    [
      "চু",
      "বুৰ"
    ],
    [
      "অ",
      "ট্ট"
    ],
    [
      "যুক্ত",
      "ৰাষ্ট"
    ],
    [
      "কৃষ",
      "ি</w>"
    ],
    [
      "ন",
      "ম্বৰ</w>"
    ],
    [
      "সহা",
      "য়</w>"
    ],
    [
      "ভিত",
      "ৰৰ</w>"
    ],
    [
      "স্প",
      "ষ্ট"
    ],
    [
      "বিশ",
      "াল</w>"
    ],
    [
      "চ",
      "ে</w>"
    ],
    [
      "ম্ব",
      "ে"
    ],
    [
      "বিচাৰ",
      "ি"
    ],
    [
      "জৰু",
      "ৰী"
    ],
    [
      "তেখে",
      "তৰ</w>"
    ],
    [
      "দল",
      "টোৰ</w>"
    ],
    [
      "ধ",
      "িত</w>"
    ],
    [
      "বিভা",
      "গৰ</w>"
    ],
    [
      "সু",
      "খ"
    ],
    [
      "নিৰ্",
      "ভৰ"
    ],
    [
      "ৰূ",
      "পৰ</w>"
    ],
    [
      "সচৰা",
      "চৰ</w>"
    ],
    [
      "গ",
      "ু</w>"
    ],
    [
      "ম",
      "’"
    ],
    [
      "ডিজাই",
      "ন</w>"
    ],
    [
      "জাত",
      "ীয়</w>"
    ],
    [
      "পিছ",
      "তে</w>"
    ],
    [
      "ব্ৰি",
      "টে"
    ],
    [
      "শাস",
      "নৰ</w>"
    ],
    [
      "ন",
      "থি"
    ],
    [
      "ই",
      "ন্"
    ],
    [
      "সূ",
      "ৰ্য"
    ],
    [
      "চল",
      "িত</w>"
    ],
    [
      "ছ",
      "’"
    ],
    [
      "আ",
      "নি"
    ],
    [
      "ভ",
      "্য"
    ],
    [
      "পা",
      "ছৰ</w>"
    ],
    [
      "আই",
      "ন"
    ],
    [
      "নি",
      "ছ</w>"
    ],
    [
      "ই",
      "ঞ্জি"
    ],
    [
      "হ",
      "াৰ্"
    ],
    [
      "'",
      "জ</w>"
    ],
    [
      "বায়",
      "ু</w>"
    ],
    [
      "ব",
      "'ৰ্"
    ],
    [
      "হালধ",
      "ীয়া</w>"
    ],
    [
      "উৎ",
      "সাহ"
    ],
    [
      "অনুস",
      "ন্ধ"
    ],
    [
      "ৰাজ",
      "বংশৰ</w>"
    ],
    [
      "ভাৰ",
      "তে</w>"
    ],
    [
      "পোন",
      "পট"
    ],
    [
      "খ",
      "্যা</w>"
    ],
    [
      "ধৰণ",
      "ে</w>"
    ],
    [
      "তা",
      "ত্ত্বি"
    ],
    [
      "ণ্ড",
      "া"
    ],
    [
      "য়",
      "ক</w>"
    ],
    [
      "ু",
      ",</w>"
    ],
    [
      "সপ্তা",
      "হৰ</w>"
    ],
    [
      "গা",
      "য়"
    ],
    [
      "হ",
      "স্ত"
    ],
    [
      "অনুষ্ঠা",
      "নৰ</w>"
    ],
    [
      "বিস্",
      "ফো"
    ],
    [
      "আৰক্ষ",
      "ী</w>"
    ],
    [
      "সংগী",
      "ত"
    ],
    [
      "ইউ",
      "নাই"
    ],
    [
      "সোনকাল",
      "ে</w>"
    ],
    [
      "বিচাৰ",
      "ে</w>"
    ],
    [
      "দক্ষিণ-",
      "পূব</w>"
    ],
    [
      "গো",
      "টৰ</w>"
    ],
    [
      "ও",
      "ৰ</w>"
    ],
    [
      "জ্যে",
      "ষ্ঠ</w>"
    ],
    [
      "অ",
      "ষ্ট"
    ],
    [
      "দিন",
      "ীয়া</w>"
    ],
    [
      "দি",
      "নে</w>"
    ],
    [
      "উপ",
      "হাৰ</w>"
    ],
    [
      "সে",
      "ৱা"
    ],
    [
      "সময়",
      "ত,</w>"
    ],
    [
      "বি",
      "জ্ঞান</w>"
    ],
    [
      "নো",
      "হোৱা"
    ],
    [
      "কঠ",
      "োৰ</w>"
    ],
    [
      "ভূ",
      "ত</w>"
    ],
    [
      "খ্ৰীষ্ট",
      "াব্"
    ],
    [
      "মূল",
      "্যৰ</w>"
    ],
    [
      "সঘ",
      "নাই</w>"
    ],
    [
      "নৃত্য",
      "শিল্প"
    ],
    [
      "স্বাস্থ",
      "্য"
    ],
    [
      "পা",
      "ন</w>"
    ],
    [
      "প্ৰ",
      "ৱা"
    ],
    [
      "সংক্ৰম",
      "িত</w>"
    ],
    [
      "স্থ",
      "িৰ</w>"
    ],
    [
      "িল",
      "ে।</w>"
    ],
    [
      "ন",
      "ীয়"
    ],
    [
      "গৱেষ",
      "ণা</w>"
    ],
    [
      "অধ্য",
      "ক্ষ</w>"
    ],
    [
      "ন",
      "ং</w>"
    ],
    [
      "ট",
      "ছ"
    ],
    [
      "উৎ",
      "স</w>"
    ],
    [
      "ল'",
      "ব</w>"
    ],
    [
      "কে",
      "ন"
    ],
    [
      "নিয়",
      "ম</w>"
    ],
    [
      "য়",
      "াৰৰ</w>"
    ],
    [
      "স্",
      "কি"
    ],
    [
      "সূ",
      "চা"
    ],
    [
      "স",
      "ি</w>"
    ],
    [
      "বিচাৰ",
      "িছিল।</w>"
    ],
    [
      "শ্ৰ",
      "ু"
    ],
    [
      "সা",
      "গৰ</w>"
    ],
    [
      "প্ৰতি",
      "ক্ৰ"
    ],
    [
      "ফা",
      "ঁ"
    ],
    [
      "বি",
      "ধান"
    ],
    [
      "য়",
      "াই</w>"
    ],
    [
      "আৰ",
      "োপ</w>"
    ],
    [
      "লী",
      "গৰ</w>"
    ],
    [
      "ছ",
      "াৰ"
    ],
    [
      "কে",
      "ই</w>"
    ],
    [
      "ক",
      "য়।</w>"
    ],
    [
      "ভগ",
      "ৱান</w>"
    ],
    [
      "মে",
      "ঘ"
    ],
    [
      "কানাড",
      "াৰ</w>"
    ],
    [
      "ক্লা",
      "ব"
    ],
    [
      "বিশ্ব",
      "জুৰি</w>"
    ],
    [
      "অধিকা",
      "ংশ</w>"
    ],
    [
      "নিষ",
      "ি"
    ],
    [
      "পিতৃ",
      "</w>"
    ],
    [
      "চু",
      "টি</w>"
    ],
    [
      "কল",
      "ৈ</w>"
    ],
    [
      "অভিলে",
      "খ</w>"
    ],
    [
      "কেনে",
      "দৰে</w>"
    ],
    [
      "অধ",
      "্যা"
    ],
    [
      "সং",
      "বাদ</w>"
    ],
    [
      "যোগ্য",
      "তা</w>"
    ],
    [
      "সন্ধ",
      "ান</w>"
    ],
    [
      "এনে",
      "কুৱা</w>"
    ],
    [
      "আফ্ৰ",
      "িকা"
    ],
    [
      "থাকি",
      "ব।</w>"
    ],
    [
      "বাৰ্",
      "গ</w>"
    ],
    [
      "ক্ৰা",
      "ন্ত"
    ],
    [
      "দিন",
      "টো</w>"
    ],
    [
      "অনু",
      "ৰোধ</w>"
    ],
    [
      "তী",
      "ব"
    ],
    [
      "তীব",
      "্ৰ</w>"
    ],
    [
      "ফিল",
      "্ড</w>"
    ],
    [
      "হয়",
      ",</w>"
    ],
    [
      "হ",
      "িল"
    ],
    [
      "প্ৰা",
      "য়</w>"
    ],
    [
      "পৌৰ",
      "সভাৰ</w>"
    ],
    [
      "অট্ট",
      "াল"
    ],
    [
      "দা",
      "খিল</w>"
    ],
    [
      "থে",
      "ৰা"
    ],
    [
      "ন",
      ":</w>"
    ],
    [
      "ঔ",
      "ৰ"
    ],
    [
      "ৰে",
      "ৰে</w>"
    ],
    [
      "হৰ",
      "ণ</w>"
    ],
    [
      "কৃ",
      "ষ্ণ"
    ],
    [
      "ঘ",
      "োঁ"
    ],
    [
      "বাহি",
      "ৰৰ</w>"
    ],
    [
      "ে",
      "ন</w>"
    ],
    [
      "ষ্ট",
      "'"
    ],
    [
      "ফাইনেল",
      "ত</w>"
    ],
    [
      "নি",
      "ৰী"
    ],
    [
      "জ্ঞ",
      "</w>"
    ],
    [
      "সংস্",
      "পৰ্"
    ],
    [
      "নি",
      "শা</w>"
    ],
    [
      "পু",
      "ৰী</w>"
    ],
    [
      "পল",
      "্ল"
    ],
    [
      "বিচ্",
      "ছে"
    ],
    [
      "চী",
      "নৰ</w>"
    ],
    [
      "পৰ",
      "ে</w>"
    ],
    [
      "হৈছিল",
      "৷</w>"
    ],
    [
      "অবিহ",
      "নে</w>"
    ],
    [
      "ক",
      "্য"
    ],
    [
      "নেতৃত্ব",
      "ত</w>"
    ],
    [
      "বাত",
      "িল</w>"
    ],
    [
      "উচ",
      "িত।</w>"
    ],
    [
      "আৰম্ভণ",
      "ি</w>"
    ],
    [
      "ক্ষেত্র",
      "ত</w>"
    ],
    [
      "ইতিহা",
      "সৰ</w>"
    ],
    [
      "ব",
      "গা</w>"
    ],
    [
      "যোগা",
      "যোগ</w>"
    ],
    [
      "িক্",
      "স</w>"
    ],
    [
      "গ",
      "্ল"
    ],
    [
      "মন্দি",
      "ৰটো</w>"
    ],
    [
      "জলা",
      "শ"
    ],
    [
      "অঞ্চল",
      "টোত</w>"
    ],
    [
      "স্বী",
      "কৃতি</w>"
    ],
    [
      "আ",
      "ঞ্চল"
    ],
    [
      "ম",
      "িত্ৰ"
    ],
    [
      "আ",
      "জ"
    ],
    [
      "প",
      "ণ</w>"
    ],
    [
      "গ্র",
      "া"
    ],
    [
      "শ্বা",
      "হ"
    ],
    [
      "সিদ্ধ",
      "া"
    ],
    [
      "সং",
      "গঠিত</w>"
    ],
    [
      "অ",
      "ন্ত</w>"
    ],
    [
      "উদ্দেশ",
      "্য</w>"
    ],
    [
      "আৰক্ষ",
      "ীয়ে</w>"
    ],
    [
      "পৰীক্ষ",
      "াৰ</w>"
    ],
    [
      "সংস্",
      "কৰণ</w>"
    ],
    [
      "ি",
      "।</w>"
    ],
    [
      "ড",
      "াল"
    ],
    [
      "ত্ত",
      "ম</w>"
    ],
    [
      "ম",
      "ন্ত"
    ],
    [
      "উ",
      "ৰ্"
    ],
    [
      "খ",
      "বৰ</w>"
    ],
    [
      "আৰ্",
      "থ"
    ],
    [
      "একা",
      "ডে"
    ],
    [
      "সু",
      "স্থ</w>"
    ],
    [
      "বন্ধ",
      "ু</w>"
    ],
    [
      "ঔষ",
      "ধ</w>"
    ],
    [
      "আগ",
      "ত</w>"
    ],
    [
      "োৱ",
      "াৰ"
    ],
    [
      "পেক্ষ",
      "া</w>"
    ],
    [
      "ৎ",
      "স"
    ],
    [
      "সম্প",
      "ন্ন</w>"
    ],
    [
      "দেখ",
      "ুৱ"
    ],
    [
      "সং",
      "গঠ"
    ],
    [
      "ইয়",
      "াত</w>"
    ],
    [
      "প্ৰযো",
      "জনা</w>"
    ],
    [
      "কে",
      "ঁ"
    ],
    [
      "কাউণ্ট",
      "িৰ</w>"
    ],
    [
      "অলিম্প",
      "িকত</w>"
    ],
    [
      "২",
      "."
    ],
    [
      "স",
      "মান</w>"
    ],
    [
      "মুছল",
      "মান"
    ],
    [
      "সে",
      "নাৰ</w>"
    ],
    [
      "প",
      "লা"
    ],
    [
      "দি",
      "ছিল,</w>"
    ],
    [
      "ক্",
      "সৰ</w>"
    ],
    [
      "গ",
      "ৱৰ্"
    ],
    [
      "জৰুৰী",
      "কালীন</w>"
    ],
    [
      "চাৰ",
      "ি</w>"
    ],
    [
      "ৰ",
      "িয়ান</w>"
    ],
    [
      "তামিলনাড",
      "ুৰ</w>"
    ],
    [
      "আ",
      "বেদ"
    ],
    [
      "স",
      "বা"
    ],
    [
      "প্ৰতি",
      "ৰোধ"
    ],
    [
      "চ",
      "লাই</w>"
    ],
    [
      "দূ",
      "ৰত</w>"
    ],
    [
      "ছ",
      "েল"
    ],
    [
      "যু",
      "গত</w>"
    ],
    [
      "প্ৰজা",
      "তিৰ</w>"
    ],
    [
      "জাৰ্",
      "মান</w>"
    ],
    [
      "উ",
      "দ্ব"
    ],
    [
      "ৰে",
      "ও</w>"
    ],
    [
      "ফ",
      "াৰ</w>"
    ],
    [
      "পো",
      "হ"
    ],
    [
      "পৌৰ",
      "সভা"
    ],
    [
      "যক্ষ",
      "্ম"
    ],
    [
      "আহ",
      "্"
    ],
    [
      "দু",
      "ই</w>"
    ],
    [
      "শেহত",
      "ীয়া</w>"
    ],
    [
      "পু",
      "ৰত</w>"
    ],
    [
      "থা",
      "কো"
    ],
    [
      "কিং",
      "বদ"
    ],
    [
      "অনুষ্ঠা",
      "নত</w>"
    ],
    [
      "বয়",
      "সৰ</w>"
    ],
    [
      "ফ",
      "্"
    ],
    [
      "দে",
      "ও"
    ],
    [
      "পৱ",
      "িত্ৰ</w>"
    ],
    [
      "িল",
      "ি"
    ],
    [
      "ব্ৰ",
      "ু"
    ],
    [
      "দৰ্শ",
      "ন</w>"
    ],
    [
      "-",
      "য়ে</w>"
    ],
    [
      "সঞ্",
      "চাল"
    ],
    [
      "ট",
      "াৰে</w>"
    ],
    [
      "চিকিৎ",
      "সা"
    ],
    [
      "উদ",
      "্যান"
    ],
    [
      "জীৱ",
      "-"
    ],
    [
      "বৈশিষ্ট",
      "্য"
    ],
    [
      "খ্ৰীষ্ট",
      "ান</w>"
    ],
    [
      "অভিযা",
      "ন</w>"
    ],
    [
      "মা",
      "লি"
    ],
    [
      "কণ্",
      "ঠ"
    ],
    [
      "পি",
      "ছৰ</w>"
    ],
    [
      "পৰম্",
      "পৰা</w>"
    ],
    [
      "ষ্ট্ৰ",
      "ো"
    ],
    [
      "অ",
      "না</w>"
    ],
    [
      "ইয়",
      "াৰে</w>"
    ],
    [
      "ছা",
      "ন</w>"
    ],
    [
      "স",
      "ৰৰ</w>"
    ],
    [
      "প্ৰ",
      "চেষ্ট"
    ],
    [
      "ী",
      "য়ে</w>"
    ],
    [
      "গৰ্",
      "ভ"
    ],
    [
      "ইয়",
      "া"
    ],
    [
      "গে",
      "ই</w>"
    ],
    [
      "প",
      "দ</w>"
    ],
    [
      "ম",
      "নৰ</w>"
    ],
    [
      "চি",
      "-ৰ</w>"
    ],
    [
      "ক",
      "িয়</w>"
    ],
    [
      "স্",
      "বৰ্"
    ],
    [
      "ছে",
      "কে"
    ],
    [
      "কম্পিউ",
      "টাৰ"
    ],
    [
      "পি",
      "ড"
    ],
    [
      "ৰ",
      "খাৰ</w>"
    ],
    [
      "কাপ",
      "োৰ</w>"
    ],
    [
      "ষ্টেড",
      "িয়া"
    ],
    [
      "না",
      "য়"
    ],
    [
      "ব্যা",
      "খ্যা</w>"
    ],
    [
      "উপা",
      "য়</w>"
    ],
    [
      "নি",
      "ষ্ঠ</w>"
    ],
    [
      "সং",
      "শো"
    ],
    [
      "ছ",
      "নৰ</w>"
    ],
    [
      "দ",
      "িত</w>"
    ],
    [
      "২",
      "টা</w>"
    ],
    [
      "ছি",
      "জনৰ</w>"
    ],
    [
      "সেই",
      "বোৰৰ</w>"
    ],
    [
      "শৈ",
      "লী</w>"
    ],
    [
      "পূর্",
      "ণ</w>"
    ],
    [
      "ক",
      "ই"
    ],
    [
      "চি",
      "টি</w>"
    ],
    [
      "ধ",
      "ূ"
    ],
    [
      "ড্ৰ",
      "াই"
    ],
    [
      "ট",
      "িল</w>"
    ],
    [
      "কিলো",
      "মিটাৰ"
    ],
    [
      "াৰ্",
      "থ</w>"
    ],
    [
      "নিৰ্",
      "দেশ</w>"
    ],
    [
      "ট্ৰ",
      "ি"
    ],
    [
      "মুৰ",
      "ব্ব"
    ],
    [
      "সং",
      "গ্ৰহ"
    ],
    [
      "কা",
      "পো"
    ],
    [
      "অৰ্",
      "থাৎ</w>"
    ],
    [
      "ত",
      "ন্ত্ৰ"
    ],
    [
      "ব্ৰা",
      "হ্ম"
    ],
    [
      "হে",
      "ঁ"
    ],
    [
      "ম",
      "িক"
    ],
    [
      "প্ৰতিযোগিত",
      "াৰ</w>"
    ],
    [
      "ো",
      "।</w>"
    ],
    [
      "মে",
      "ৰু"
    ],
    [
      "মে",
      "ক্স"
    ],
    [
      "ব",
      "ও</w>"
    ],
    [
      "বিকাশ",
      "ৰ</w>"
    ],
    [
      "আঞ্চল",
      "িক</w>"
    ],
    [
      "লাগি",
      "ছিল।</w>"
    ],
    [
      "শিক্ষ",
      "াৰ</w>"
    ],
    [
      "নিয়ম",
      "ীয়া</w>"
    ],
    [
      "৩",
      "১</w>"
    ],
    [
      "সাধাৰ",
      "ণৰ</w>"
    ],
    [
      "এ",
      "লা"
    ],
    [
      "ন্যা",
      "য়াল"
    ],
    [
      "ন",
      "ীয়া</w>"
    ],
    [
      "না",
      "থ"
    ],
    [
      "ত্ৰ",
      "ু"
    ],
    [
      "মনো",
      "ৰ"
    ],
    [
      "পদ্ধ",
      "তি</w>"
    ],
    [
      "ডল",
      "াৰৰ</w>"
    ],
    [
      "ঘণ্ট",
      "া</w>"
    ],
    [
      "এ",
      "ণ্ট"
    ],
    [
      "মাইক্ৰ",
      "'"
    ],
    [
      "কে",
      "ন</w>"
    ],
    [
      "ফল",
      "স্বৰূপে</w>"
    ],
    [
      "অৱ",
      "সৰ</w>"
    ],
    [
      "ত",
      "্যৰ</w>"
    ],
    [
      "নি",
      "জেই</w>"
    ],
    [
      "জ",
      "ীয়াই</w>"
    ],
    [
      "ৰা",
      "ন</w>"
    ],
    [
      "ী",
      "ভাৱে</w>"
    ],
    [
      "প্ৰতি",
      "খন</w>"
    ],
    [
      "না",
      "য়ক</w>"
    ],
    [
      "উঠ",
      "িছিল।</w>"
    ],
    [
      "উপ",
      "যুক্ত</w>"
    ],
    [
      "জ",
      "নত</w>"
    ],
    [
      "জন",
      "।</w>"
    ],
    [
      "ন",
      "সমূহ</w>"
    ],
    [
      "বাব",
      "ে,</w>"
    ],
    [
      "বেছি",
      "ভা"
    ],
    [
      "লা",
      "ভ"
    ],
    [
      "খু",
      "ব</w>"
    ],
    [
      "সম্প",
      "ত্ত"
    ],
    [
      "১৯৪",
      "৭</w>"
    ],
    [
      "তুল",
      "িছিল।</w>"
    ],
    [
      "খ",
      "ল"
    ],
    [
      "অতি",
      "ক্ৰম</w>"
    ],
    [
      "স",
      "জ্"
    ],
    [
      "জিল",
      "ে"
    ],
    [
      "ক",
      "মি"
    ],
    [
      "নে",
      "চনেল</w>"
    ],
    [
      "প্ৰস্তা",
      "ৱ</w>"
    ],
    [
      "অত্য",
      "ধিক</w>"
    ],
    [
      "নিৰ্",
      "ণ"
    ],
    [
      "নি",
      "হত</w>"
    ],
    [
      "তো",
      "কৈ</w>"
    ],
    [
      "লিখ",
      "িত</w>"
    ],
    [
      "খিতা",
      "প</w>"
    ],
    [
      "তে",
      "ত"
    ],
    [
      "আ",
      "ম"
    ],
    [
      "দ্বী",
      "প</w>"
    ],
    [
      "সো",
      "ম"
    ],
    [
      "কাৰ",
      "্ট"
    ],
    [
      "নে",
      "ছ"
    ],
    [
      "শিক্ষ",
      "াৰ্থ"
    ],
    [
      "উদযা",
      "প"
    ],
    [
      "জ",
      "'"
    ],
    [
      "লাই",
      "নত</w>"
    ],
    [
      "বতা",
      "হৰ</w>"
    ],
    [
      "পে",
      "ন"
    ],
    [
      "হা",
      "য়"
    ],
    [
      "দিৱ",
      "স</w>"
    ],
    [
      "ভাতৃ",
      "</w>"
    ],
    [
      "াল",
      "ৈকে</w>"
    ],
    [
      "মাতৃ",
      "</w>"
    ],
    [
      "টা",
      "উ"
    ],
    [
      "ৱ",
      "র্"
    ],
    [
      "ক্ষতি",
      "গ্ৰস্ত</w>"
    ],
    [
      "জন",
      "সাধাৰণৰ</w>"
    ],
    [
      "তাত্ত্বি",
      "ক</w>"
    ],
    [
      "অৱস্থ",
      "াৰ</w>"
    ],
    [
      "য়",
      "ত</w>"
    ],
    [
      "প্ৰয়োজন",
      "ীয়"
    ],
    [
      "১৯৯",
      "৬</w>"
    ],
    [
      "ন",
      "শীল</w>"
    ],
    [
      "নে",
      "কি"
    ],
    [
      "৩",
      "টা</w>"
    ],
    [
      "নৃত",
      "্যৰ</w>"
    ],
    [
      "ইউ",
      "নিয়"
    ],
    [
      "আ",
      "শে"
    ],
    [
      "উত্তৰ-",
      "পূব</w>"
    ],
    [
      "গু",
      "গ"
    ],
    [
      "উ",
      "ণ্ড</w>"
    ],
    [
      "জে",
      "ন</w>"
    ],
    [
      "সন্দ",
      "ৰ্"
    ],
    [
      "খু",
      "ঁ"
    ],
    [
      "আ",
      "ধি"
    ],
    [
      "১৯৯",
      "২</w>"
    ],
    [
      "শি",
      "খ</w>"
    ],
    [
      "স",
      "ভা</w>"
    ],
    [
      "ব",
      "-"
    ],
    [
      "আ",
      "শংকা</w>"
    ],
    [
      "লি",
      "উ"
    ],
    [
      "কি",
      "শো"
    ],
    [
      "ঐতি",
      "হ"
    ],
    [
      "একা",
      "ধিক</w>"
    ],
    [
      "৬",
      "০"
    ],
    [
      "অংশ",
      "গ্ৰহ"
    ],
    [
      "ষ",
      "া"
    ],
    [
      "আশে",
      "-"
    ],
    [
      "স্থান",
      "।</w>"
    ],
    [
      "ডি",
      "ট</w>"
    ],
    [
      "অভিনেত্ৰ",
      "ী</w>"
    ],
    [
      "যু",
      "গ"
    ],
    [
      "আক",
      "ব"
    ],
    [
      "ন",
      "কৰা"
    ],
    [
      "সম্ৰা",
      "ট</w>"
    ],
    [
      "দেশ",
      "িক</w>"
    ],
    [
      "চন",
      "লৈ</w>"
    ],
    [
      "আপোনালো",
      "কে</w>"
    ],
    [
      "লিখি",
      "ছিল।</w>"
    ],
    [
      "বি",
      "দেশী</w>"
    ],
    [
      "ঢ়",
      "</w>"
    ],
    [
      "পা",
      "হ"
    ],
    [
      "দৃশ",
      "্য</w>"
    ],
    [
      "৯",
      "০</w>"
    ],
    [
      "পাৰ",
      "ত</w>"
    ],
    [
      "চলচ্চিত্ৰ",
      "ৰ</w>"
    ],
    [
      "গুৰুত্ব",
      "পূৰ্ণ"
    ],
    [
      "ম",
      "িয়াৰ</w>"
    ],
    [
      "চ",
      "ৰাই"
    ],
    [
      "প্ৰাপ্ত",
      "বয়"
    ],
    [
      "পৰি",
      "ষ্কাৰ</w>"
    ],
    [
      "ং",
      "গু"
    ],
    [
      "ছি",
      "ছ</w>"
    ],
    [
      "না",
      "ছিল,</w>"
    ],
    [
      "২",
      "৪"
    ],
    [
      "আ",
      "শ্ৰ"
    ],
    [
      "সঁ",
      "হাৰ"
    ],
    [
      "বৈ",
      "ধ</w>"
    ],
    [
      "প্ৰথম",
      "তে</w>"
    ],
    [
      "ৱে",
      "ষ্ট</w>"
    ],
    [
      "গ্ৰা",
      "ম</w>"
    ],
    [
      "ন",
      "াৰা"
    ],
    [
      "জ",
      "ীয়ে</w>"
    ],
    [
      "ভ",
      "গ্"
    ],
    [
      "পদ",
      "াৰ্থ"
    ],
    [
      "খেল",
      "খনত</w>"
    ],
    [
      "সা",
      "মান্য</w>"
    ],
    [
      "স্",
      "পৰ্"
    ],
    [
      "প",
      "চ"
    ],
    [
      "টু",
      "কু"
    ],
    [
      "ভ",
      "িক"
    ],
    [
      "গী",
      "তৰ</w>"
    ],
    [
      "শস",
      "্য</w>"
    ],
    [
      "বি",
      "কল্প"
    ],
    [
      "সূ",
      "চী</w>"
    ],
    [
      "ণ",
      "।</w>"
    ],
    [
      "পৰিবহ",
      "ণ</w>"
    ],
    [
      "শীত",
      "কালীন</w>"
    ],
    [
      "আৱি",
      "ষ্কাৰ</w>"
    ],
    [
      "তৃত",
      "ীয়"
    ],
    [
      "পৰ্",
      "তু"
    ],
    [
      "শেহত",
      "ীয়াকৈ</w>"
    ],
    [
      "সাম্",
      "রা"
    ],
    [
      "মা",
      "নিক</w>"
    ],
    [
      "দু",
      "র্"
    ],
    [
      "া",
      "নৰ</w>"
    ],
    [
      "স্থানা",
      "ন্তৰ</w>"
    ],
    [
      "খেল",
      "ি"
    ],
    [
      "ল",
      "ীত</w>"
    ],
    [
      "প্ৰশাস",
      "নিক</w>"
    ],
    [
      "এ",
      "নি"
    ],
    [
      "প",
      "ঞ্"
    ],
    [
      "ত",
      "দ"
    ],
    [
      "দো",
      "কান</w>"
    ],
    [
      "অৰ্",
      "ডাৰ</w>"
    ],
    [
      "জ",
      "টিল</w>"
    ],
    [
      "কি",
      "ন</w>"
    ],
    [
      "ভিত্ত",
      "িক</w>"
    ],
    [
      "মা",
      "টিৰ</w>"
    ],
    [
      "াল",
      "ি</w>"
    ],
    [
      "উ",
      "ল</w>"
    ],
    [
      "ব্যৱ",
      "স্থাৰ</w>"
    ],
    [
      "ভা",
      "বু"
    ],
    [
      "ম",
      "ৰ্"
    ],
    [
      "ন",
      "কৈ</w>"
    ],
    [
      "উত্থা",
      "পন</w>"
    ],
    [
      "দ",
      "িক</w>"
    ],
    [
      "ট",
      "িত</w>"
    ],
    [
      "দিয়",
      "ে।</w>"
    ],
    [
      "আ",
      "গু"
    ],
    [
      "গাঁ",
      "ও</w>"
    ],
    [
      "স্মৃ",
      "তি"
    ],
    [
      "প্ৰ",
      "ৱ"
    ],
    [
      "বা",
      "ক"
    ],
    [
      "ম্",
      "ভ</w>"
    ],
    [
      "উপা",
      "স"
    ],
    [
      "সম",
      "ু"
    ],
    [
      "অভি",
      "হিত</w>"
    ],
    [
      "িয়",
      "াল</w>"
    ],
    [
      "মেণ্ট",
      "ৰ</w>"
    ],
    [
      "উপৰি",
      "ও,</w>"
    ],
    [
      "মাজ",
      "ে</w>"
    ],
    [
      "মে",
      "'ত</w>"
    ],
    [
      "চহৰ",
      "খন</w>"
    ],
    [
      "বিপ",
      "দা"
    ],
    [
      "কাৰ্যাল",
      "য়</w>"
    ],
    [
      "অ'",
      "ৰ</w>"
    ],
    [
      "পে",
      "নাল"
    ],
    [
      "এন",
      "."
    ],
    [
      "সন্দৰ্",
      "ভত</w>"
    ],
    [
      "চক",
      "ু</w>"
    ],
    [
      "যি",
      "সকলে</w>"
    ],
    [
      "-",
      "কা"
    ],
    [
      "বাব",
      "েই</w>"
    ],
    [
      "তি",
      "-"
    ],
    [
      "গো",
      "ল"
    ],
    [
      "ফিল",
      "্ড"
    ],
    [
      "ন",
      "হয়।</w>"
    ],
    [
      "৮",
      "০</w>"
    ],
    [
      "ৰ্",
      "কৰ</w>"
    ],
    [
      "জীৱ",
      "িত</w>"
    ],
    [
      "ক্ষে",
      "প</w>"
    ],
    [
      "চি",
      "ত্র"
    ],
    [
      "ৰেকৰ",
      "্ড</w>"
    ],
    [
      "স",
      "ৰু"
    ],
    [
      "এ",
      "-ৰ</w>"
    ],
    [
      "ভিডি",
      "অ'</w>"
    ],
    [
      "গ",
      "ৰু"
    ],
    [
      "ছেই",
      "ণ্ট</w>"
    ],
    [
      "ডি",
      "জি"
    ],
    [
      "সহ",
      "জে</w>"
    ],
    [
      "গু",
      "হা</w>"
    ],
    [
      "মান্",
      "ব"
    ],
    [
      "প",
      "ণ্ড"
    ],
    [
      "ণ",
      "কাৰী</w>"
    ],
    [
      "খা",
      "নৰ</w>"
    ],
    [
      "যো",
      "দ্ধ"
    ],
    [
      "ৰা",
      "ও</w>"
    ],
    [
      "তিনি",
      "খন</w>"
    ],
    [
      "গৃ",
      "হ</w>"
    ],
    [
      "বু",
      "দ্ধ"
    ],
    [
      "শি",
      "ৱা"
    ],
    [
      "ক",
      "মা"
    ],
    [
      "প্ৰ",
      "ব্ৰ"
    ],
    [
      "বৰ্ষ",
      "ৰ</w>"
    ],
    [
      "আই",
      "নী</w>"
    ],
    [
      "য়",
      "ন</w>"
    ],
    [
      "মা",
      "চু"
    ],
    [
      "সম্পৰ্ক",
      "িত</w>"
    ],
    [
      "ীয়",
      "ভাৱে</w>"
    ],
    [
      "দ্ৰুত",
      "গতিত</w>"
    ],
    [
      "পৰাম",
      "ৰ্শ"
    ],
    [
      "সং",
      "স্থা</w>"
    ],
    [
      "ভ",
      "ীৰ</w>"
    ],
    [
      "কোম্পানী",
      "টোৰ</w>"
    ],
    [
      "খেল",
      "ে।</w>"
    ],
    [
      "আশে-",
      "পাশে</w>"
    ],
    [
      "বৰষু",
      "ণৰ</w>"
    ],
    [
      "বনা",
      "ঞ্চল"
    ],
    [
      "ঔষ",
      "ধ"
    ],
    [
      "চা",
      "ব</w>"
    ],
    [
      "লা",
      ",</w>"
    ],
    [
      "সভা",
      "পতি</w>"
    ],
    [
      "ৰাজ",
      "পু"
    ],
    [
      "যু",
      "ৱ</w>"
    ],
    [
      "জানুৱাৰ",
      "ী</w>"
    ],
    [
      "নিজ",
      "ে</w>"
    ],
    [
      "ভ",
      "ক্ত"
    ],
    [
      "ৰা",
      "ণ"
    ],
    [
      "সাজ",
      "ু</w>"
    ],
    [
      "গ",
      "ছৰ</w>"
    ],
    [
      "সবা",
      "তোকৈ</w>"
    ],
    [
      "এ",
      "ন্"
    ],
    [
      "প্ৰ",
      "সূ"
    ],
    [
      "চিনে",
      "মা"
    ],
    [
      "জ",
      "ো</w>"
    ],
    [
      "পৰ্",
      "বত"
    ],
    [
      "ঠ",
      "িক"
    ],
    [
      "এ",
      "লি"
    ],
    [
      "ইতিহা",
      "স</w>"
    ],
    [
      "ৰি",
      "পা"
    ],
    [
      "দ্বী",
      "পৰ</w>"
    ],
    [
      "চাই",
      "কেল</w>"
    ],
    [
      "মি",
      "ং</w>"
    ],
    [
      "নি",
      "জা"
    ],
    [
      "অংশ",
      "ী"
    ],
    [
      "গুজৰা",
      "টৰ</w>"
    ],
    [
      "গা",
      "ই</w>"
    ],
    [
      "সে",
      "না</w>"
    ],
    [
      "দ",
      "ম্প"
    ],
    [
      "ত",
      "ন্ত্ৰ</w>"
    ],
    [
      "সহা",
      "য়ত</w>"
    ],
    [
      "ধ",
      "নী</w>"
    ],
    [
      "উ",
      "জ্"
    ],
    [
      "লৈ",
      "ছিল</w>"
    ],
    [
      "ভ",
      "ংগ</w>"
    ],
    [
      "বহু",
      "ল</w>"
    ],
    [
      "মাই",
      "ল</w>"
    ],
    [
      "প্ৰা",
      "ণ"
    ],
    [
      "টেলিভি",
      "ছন</w>"
    ],
    [
      "মু",
      "হ"
    ],
    [
      "ম্ব",
      "ৰ"
    ],
    [
      "বেছিভা",
      "গেই</w>"
    ],
    [
      "শু",
      "কান</w>"
    ],
    [
      "প্ৰাৰ্থ",
      "না</w>"
    ],
    [
      "কৰ্",
      "তৃ"
    ],
    [
      "নে",
      "টৰ</w>"
    ],
    [
      "ফ্ল",
      "'"
    ],
    [
      "গৰ",
      "ম</w>"
    ],
    [
      "নাল",
      "া"
    ],
    [
      "ক্ৰ",
      "মান্ব"
    ],
    [
      "ুল",
      "ি"
    ],
    [
      "চৰ",
      "কাৰ</w>"
    ],
    [
      "ন্ত",
      "ৰী"
    ],
    [
      "ী",
      "লৈ</w>"
    ],
    [
      "কে",
      "থ"
    ],
    [
      "আকৰ্ষ",
      "ণ</w>"
    ],
    [
      "গু",
      "ৰু</w>"
    ],
    [
      "পাছ",
      "তে</w>"
    ],
    [
      "মিল",
      "ি"
    ],
    [
      "বিচ্",
      "ছি"
    ],
    [
      "নিৰ্ধাৰ",
      "িত</w>"
    ],
    [
      "চলচ্চিত্ৰ",
      "খনত</w>"
    ],
    [
      "সংস্পৰ্",
      "শ"
    ],
    [
      "সম্ব",
      "ন্ধ"
    ],
    [
      "হাৰ",
      "ি"
    ],
    [
      "্ট",
      "ি</w>"
    ],
    [
      "দ",
      "ণ্ডৰ</w>"
    ],
    [
      "সমা",
      "ধান</w>"
    ],
    [
      "নগ",
      "দ</w>"
    ],
    [
      "বি",
      "ংশ</w>"
    ],
    [
      "ষ্টে",
      "চন</w>"
    ],
    [
      "নে",
      "পাল"
    ],
    [
      "চো",
      "ল</w>"
    ],
    [
      "মাইল",
      ")</w>"
    ],
    [
      "নে",
      "তা</w>"
    ],
    [
      "কংগ্ৰে",
      "ছ</w>"
    ],
    [
      "আহ্",
      "বান</w>"
    ],
    [
      "মো",
      "হ"
    ],
    [
      "ণ্ড",
      "ত</w>"
    ],
    [
      "বাৰ",
      "কৈ</w>"
    ],
    [
      "ভ",
      "ুল"
    ],
    [
      "গ",
      "ৰি"
    ],
    [
      "া",
      "ৱ"
    ],
    [
      "-",
      "ক</w>"
    ],
    [
      "গ",
      "ল"
    ],
    [
      "বি",
      "পদ"
    ],
    [
      "গ",
      "োৱা</w>"
    ],
    [
      "পিতৃ",
      "-"
    ],
    [
      "ব্যক্ত",
      "িয়ে</w>"
    ],
    [
      "ভ",
      "োগ"
    ],
    [
      "বাৰ",
      "্ট"
    ],
    [
      "খে",
      "তি</w>"
    ],
    [
      "ষ্টু",
      "ডি"
    ],
    [
      "ষ্ট",
      "াৰ্"
    ],
    [
      "ছ",
      "ি</w>"
    ],
    [
      "সা",
      "ঁ"
    ],
    [
      "এ",
      "ম</w>"
    ],
    [
      "য়",
      ",</w>"
    ],
    [
      "সিহঁ",
      "তৰ</w>"
    ],
    [
      "গ",
      "াই"
    ],
    [
      "ংগ",
      "া</w>"
    ],
    [
      "নি",
      "ৱেশ"
    ],
    [
      "অনুশীল",
      "ন</w>"
    ],
    [
      "হ",
      "োৱাত</w>"
    ],
    [
      "দা",
      "স"
    ],
    [
      "উপ",
      "মহা"
    ],
    [
      "উদ্দেশ",
      "্য"
    ],
    [
      "সংৰক্ষ",
      "িত</w>"
    ],
    [
      "কৰি",
      "বলগীয়া</w>"
    ],
    [
      "কৰি",
      "বলৈ"
    ],
    [
      "সম",
      "ি"
    ],
    [
      "তিনি",
      "জন</w>"
    ],
    [
      "মূৰ্",
      "তি</w>"
    ],
    [
      "নোহোৱা",
      "কৈ</w>"
    ],
    [
      "ষ্ট",
      "াই"
    ],
    [
      "সাম্ৰাজ",
      "্য</w>"
    ],
    [
      "মাচু",
      "ল</w>"
    ],
    [
      "তা",
      "।</w>"
    ],
    [
      "ন",
      "বোৰ</w>"
    ],
    [
      "১৮",
      "৫"
    ],
    [
      "জা",
      "তিক</w>"
    ],
    [
      "অ",
      "সম"
    ],
    [
      "ষ্ট",
      "ি</w>"
    ],
    [
      "ধ",
      "্ৰ"
    ],
    [
      "জা",
      "ন"
    ],
    [
      "হ",
      "্র"
    ],
    [
      "ৱে",
      "'</w>"
    ],
    [
      "ব্ৰ",
      "হ্ম"
    ],
    [
      "যি",
      "মান</w>"
    ],
    [
      "দ্বীপ",
      "পু"
    ],
    [
      "তু",
      "মি</w>"
    ],
    [
      "ইলে",
      "ক্ট"
    ],
    [
      "না",
      "ছ</w>"
    ],
    [
      "ই",
      "জ"
    ],
    [
      "চন",
      "ৰপৰা</w>"
    ],
    [
      "চ",
      "োৱা"
    ],
    [
      "উৎসাহ",
      "িত</w>"
    ],
    [
      "ব",
      "তৰ</w>"
    ],
    [
      "অ",
      "-"
    ],
    [
      "অ",
      "না"
    ],
    [
      "জ",
      "্যৰ</w>"
    ],
    [
      "ৰা",
      "হে</w>"
    ],
    [
      "অ",
      "র্"
    ],
    [
      "খেল",
      "িছিল</w>"
    ],
    [
      "বু",
      "জি</w>"
    ],
    [
      "হ",
      "ল</w>"
    ],
    [
      "ছ",
      "ী"
    ],
    [
      "বে",
      "ল</w>"
    ],
    [
      "ঁ",
      "</w>"
    ],
    [
      "চাল",
      "ু"
    ],
    [
      "ক্ষে",
      "ত্ৰ</w>"
    ],
    [
      "মিল",
      "িত</w>"
    ],
    [
      "কোম্পানী",
      "টোৱে</w>"
    ],
    [
      "ব্যৱ",
      "স্থাপ"
    ],
    [
      "প্ৰশিক্ষ",
      "ক</w>"
    ],
    [
      "ক্ট",
      "ৰ</w>"
    ],
    [
      "উপলব্",
      "ধ"
    ],
    [
      "স্না",
      "তক</w>"
    ],
    [
      "গ",
      "ভীৰ</w>"
    ],
    [
      "এ",
      "ডি"
    ],
    [
      "গ্রহ",
      "ণ</w>"
    ],
    [
      "লী",
      "উ"
    ],
    [
      "নাট",
      "্য"
    ],
    [
      "ছ",
      "ো</w>"
    ],
    [
      "৫",
      "০০</w>"
    ],
    [
      "ৰেকৰ",
      "্ড"
    ],
    [
      "'",
      "ট</w>"
    ],
    [
      "লী",
      "গত</w>"
    ],
    [
      "নিষি",
      "দ্ধ</w>"
    ],
    [
      "৭",
      "০</w>"
    ],
    [
      "ম",
      "ল</w>"
    ],
    [
      "ই",
      "ৰ</w>"
    ],
    [
      "কৰি",
      "বৰ</w>"
    ],
    [
      "জেনে",
      "ৰেল</w>"
    ],
    [
      "ৱাৰ",
      "্ড</w>"
    ],
    [
      "খেল",
      "খনৰ</w>"
    ],
    [
      "ব",
      "হি"
    ],
    [
      "বিষ",
      "য়া</w>"
    ],
    [
      "এড",
      "াল</w>"
    ],
    [
      "প্ৰতিষ্ঠ",
      "ান"
    ],
    [
      "তুল",
      "ি"
    ],
    [
      "গণ",
      "না</w>"
    ],
    [
      "আনন্দ",
      "</w>"
    ],
    [
      "বা",
      "গ"
    ],
    [
      "প্ৰ",
      "কাৰ</w>"
    ],
    [
      "ইউনাই",
      "টেড</w>"
    ],
    [
      "উদাহৰ",
      "ণ</w>"
    ],
    [
      "তো",
      "লে।</w>"
    ],
    [
      "ব",
      "ন</w>"
    ],
    [
      "অ",
      "ৰি"
    ],
    [
      "পে",
      "শ"
    ],
    [
      "থকা",
      "টো</w>"
    ],
    [
      "ক্ৰমান্ব",
      "য়ে</w>"
    ],
    [
      "উ",
      "ৰি"
    ],
    [
      "৩",
      "."
    ],
    [
      "একে",
      "ৰাহে</w>"
    ],
    [
      "ৰা",
      ",</w>"
    ],
    [
      "নিউ",
      "জিলে"
    ],
    [
      "দিল্ল",
      "ীত</w>"
    ],
    [
      "অক্টো",
      "বৰ</w>"
    ],
    [
      "২",
      "৬"
    ],
    [
      "দি",
      "ছে।</w>"
    ],
    [
      "ন",
      "থকা</w>"
    ],
    [
      "কোম্পা",
      "নীয়ে</w>"
    ],
    [
      "প্ৰ",
      "দেশত</w>"
    ],
    [
      "হাৰ",
      "িয়া"
    ],
    [
      "১৯৯",
      "৫</w>"
    ],
    [
      "দ",
      "ৰি"
    ],
    [
      "প্",
      "ল"
    ],
    [
      "পা",
      "তি"
    ],
    [
      "ই",
      "হু"
    ],
    [
      "ডি",
      "."
    ],
    [
      "যে",
      "নে"
    ],
    [
      "প্ৰক্ৰ",
      "িয়া"
    ],
    [
      "স্",
      "মাৰ"
    ],
    [
      "ত্ব",
      "ত</w>"
    ],
    [
      "জ",
      "টিল"
    ],
    [
      "আ",
      "লে"
    ],
    [
      "চেম্পিয়নশ্বি",
      "পত</w>"
    ],
    [
      "পা",
      "ব।</w>"
    ],
    [
      "মেঘ",
      "াল"
    ],
    [
      "ৰে'",
      "ল</w>"
    ],
    [
      "স্",
      "কো"
    ],
    [
      "গ্ৰাম",
      "্য</w>"
    ],
    [
      "দি",
      "য়াৰ</w>"
    ],
    [
      "অ",
      "সামৰিক</w>"
    ],
    [
      "ক্ৰম",
      "ে</w>"
    ],
    [
      "নি",
      "ং"
    ],
    [
      "১৯৮",
      "০</w>"
    ],
    [
      "পৰা",
      "কৈ</w>"
    ],
    [
      "ধ",
      "ন"
    ],
    [
      "কিছু",
      "মানে</w>"
    ],
    [
      "প্ৰ",
      "য়"
    ],
    [
      "প",
      ",</w>"
    ],
    [
      "ৰ",
      "িক"
    ],
    [
      "সং",
      "যো"
    ],
    [
      "সু",
      "ন্দৰ</w>"
    ],
    [
      "চা",
      "ওক।</w>"
    ],
    [
      "বিত",
      "ৰণ</w>"
    ],
    [
      "মুখ",
      "ৰ</w>"
    ],
    [
      "সিন্ধ",
      "ু</w>"
    ],
    [
      "ভাৱ",
      "ে,</w>"
    ],
    [
      "এ",
      "ঞ্জ"
    ],
    [
      "বা",
      "স্কে"
    ],
    [
      "ট",
      "কা"
    ],
    [
      "গ’",
      "ল"
    ],
    [
      "ঔ",
      "প"
    ],
    [
      "হ",
      "ত্য"
    ],
    [
      "গৈ",
      "ছিল,</w>"
    ],
    [
      "অত্য",
      "ন্ত</w>"
    ],
    [
      "গু",
      "চি</w>"
    ],
    [
      "প্র",
      "তি</w>"
    ],
    [
      "একে",
      "ধৰণৰ</w>"
    ],
    [
      "কা",
      "ং"
    ],
    [
      "নিৰ্বা",
      "চন</w>"
    ],
    [
      "পেল",
      "োৱা</w>"
    ],
    [
      "ভিত্ত",
      "িত</w>"
    ],
    [
      "ই",
      "ংগ"
    ],
    [
      "ল'",
      "বলৈ</w>"
    ],
    [
      "সম্প্ৰদা",
      "য়ৰ</w>"
    ],
    [
      "ন্",
      "থ</w>"
    ],
    [
      "ম",
      "্যা"
    ],
    [
      "পূৰ্ব",
      "তে</w>"
    ],
    [
      "গু",
      "প্ত</w>"
    ],
    [
      "বি",
      "ৰ</w>"
    ],
    [
      "দ্বিতীয়",
      "টো</w>"
    ],
    [
      "য়",
      "ণ</w>"
    ],
    [
      "নে",
      "ও</w>"
    ],
    [
      "ফিল্ম",
      "ফে"
    ],
    [
      "ন্",
      "ট</w>"
    ],
    [
      "বা",
      "স্ত"
    ],
    [
      "২০",
      "০</w>"
    ],
    [
      "চ",
      "না"
    ],
    [
      "যে",
      "তিয়া</w>"
    ],
    [
      "ও",
      "খ</w>"
    ],
    [
      "গা",
      "হ"
    ],
    [
      "মি",
      "জো"
    ],
    [
      "পৰিচ",
      "িত।</w>"
    ],
    [
      "মগ",
      "জুৰ</w>"
    ],
    [
      "জি",
      "ন"
    ],
    [
      "জ",
      "ম</w>"
    ],
    [
      "ৰে",
      "ষ্টু"
    ],
    [
      "ছ",
      "োঁ</w>"
    ],
    [
      "এফ",
      "."
    ],
    [
      "দিয়",
      "ে,</w>"
    ],
    [
      "ৰ",
      "জাৰ</w>"
    ],
    [
      "আঘা",
      "ত"
    ],
    [
      "সহা",
      "য়ক</w>"
    ],
    [
      "সা",
      "গ"
    ],
    [
      "বৈ",
      "দিক</w>"
    ],
    [
      "প্ৰতিনি",
      "ধি</w>"
    ],
    [
      "ক্ৰ",
      "ছ</w>"
    ],
    [
      "পাহাৰ",
      "ীয়া</w>"
    ],
    [
      "বাহ",
      "িত</w>"
    ],
    [
      "থ",
      "িয়</w>"
    ],
    [
      "অনুমোদ",
      "ন</w>"
    ],
    [
      "ছ",
      "নে</w>"
    ],
    [
      "পে",
      "লাইছিল।</w>"
    ],
    [
      "শা",
      "ন্ত</w>"
    ],
    [
      "বহ",
      "ল</w>"
    ],
    [
      "জনা",
      "জা"
    ],
    [
      "নিউয়",
      "ৰ্ক</w>"
    ],
    [
      "চেম্প",
      "িয়ন</w>"
    ],
    [
      "দৈ",
      "নিক</w>"
    ],
    [
      "ডে",
      "ভি"
    ],
    [
      "আমেৰি",
      "কাত</w>"
    ],
    [
      "প্ৰ",
      "কাৰ"
    ],
    [
      "যক্ষ্ম",
      "া</w>"
    ],
    [
      "আৰ্",
      "জে"
    ],
    [
      "বাহি",
      "নীয়ে</w>"
    ],
    [
      "সি",
      "ঙে</w>"
    ],
    [
      "হত্য",
      "াৰ</w>"
    ],
    [
      "আনু",
      "মানিক</w>"
    ],
    [
      "দ",
      "হ"
    ],
    [
      "আউ",
      "ট</w>"
    ],
    [
      "ণ",
      "ক</w>"
    ],
    [
      "আলা",
      "উদ্"
    ],
    [
      "য়",
      "ান</w>"
    ],
    [
      "আগ",
      "ষ্ট</w>"
    ],
    [
      "সহ",
      "যোগী</w>"
    ],
    [
      "থ",
      "িয়ে"
    ],
    [
      "হ",
      "ণা</w>"
    ],
    [
      "ধ",
      "নু"
    ],
    [
      "য়",
      "িক</w>"
    ],
    [
      "বৈশিষ্ট",
      "্য</w>"
    ],
    [
      "তেলে",
      "গু</w>"
    ],
    [
      "ডেলি",
      "ভাৰ"
    ],
    [
      "িক্",
      "স"
    ],
    [
      "জন্ত",
      "ুৰ</w>"
    ],
    [
      "ইলেক্ট",
      "্ৰ"
    ],
    [
      "ট",
      "টো</w>"
    ],
    [
      "ৰা",
      "তি</w>"
    ],
    [
      "পৌৰসভা",
      "।</w>"
    ],
    [
      "ং",
      "ট"
    ],
    [
      "ব",
      "ক্সি"
    ],
    [
      "উত্তৰাধি",
      "কাৰী</w>"
    ],
    [
      "ক",
      "ীয়া</w>"
    ],
    [
      "শা",
      "ন্তি</w>"
    ],
    [
      "প্ৰতি",
      "শ্ৰু"
    ],
    [
      "পৰিস্থি",
      "তিৰ</w>"
    ],
    [
      "বি",
      "জয়</w>"
    ],
    [
      "ৎ",
      "ক্ষণ"
    ],
    [
      "ৰূপা",
      "ন্তৰিত</w>"
    ],
    [
      "টু",
      "ৰ্"
    ],
    [
      "খেল",
      "িবলৈ</w>"
    ],
    [
      "এ",
      "ৰি"
    ],
    [
      "তে",
      "ৰে</w>"
    ],
    [
      "প্র",
      "ে"
    ],
    [
      "য",
      "ত্ন"
    ],
    [
      "সঁজুল",
      "ি</w>"
    ],
    [
      "ধ",
      "্যা"
    ],
    [
      "থ",
      "ো"
    ],
    [
      "মা",
      ",</w>"
    ],
    [
      "কঢ়",
      "িয়াই</w>"
    ],
    [
      "৩",
      ","
    ],
    [
      "ষ্ট",
      "ক</w>"
    ],
    [
      "ক্ৰে",
      "ডিট</w>"
    ],
    [
      "পা",
      "তৰ</w>"
    ],
    [
      "না",
      "থাকে।</w>"
    ],
    [
      "ৰেষ্টু",
      "ৰে"
    ],
    [
      "টি",
      "কা"
    ],
    [
      "ঘূ",
      "ৰ্"
    ],
    [
      "হৈ",
      "ছোঁ।</w>"
    ],
    [
      "সাম",
      "গ্র"
    ],
    [
      "বা",
      "লা"
    ],
    [
      "মহম্ম",
      "দ</w>"
    ],
    [
      "ক্ষ",
      "মা</w>"
    ],
    [
      "য়",
      "নৰ</w>"
    ],
    [
      "িয়া",
      "ন"
    ],
    [
      "ে",
      "ট</w>"
    ],
    [
      "গড়",
      "ৰ</w>"
    ],
    [
      "আগবঢ়",
      "াইছিল।</w>"
    ],
    [
      "ৰা",
      "ত</w>"
    ],
    [
      "সপ্তা",
      "হ"
    ],
    [
      "ব",
      "লি"
    ],
    [
      "নৱে",
      "ম্বৰ</w>"
    ],
    [
      "কাৰ্য",
      "কলা"
    ],
    [
      "বিৰোধ",
      "ী</w>"
    ],
    [
      "একে",
      "ই</w>"
    ],
    [
      "ৱৰ্ত",
      "ন</w>"
    ],
    [
      "ও",
      "জন</w>"
    ],
    [
      "খো",
      "দিত</w>"
    ],
    [
      "প্ৰ",
      "য়ো"
    ],
    [
      "্",
      "ম</w>"
    ],
    [
      "সৰ্ব",
      "শ্ৰেষ্ঠ</w>"
    ],
    [
      "বৃ",
      "ত্তি</w>"
    ],
    [
      "আফ",
      "গা"
    ],
    [
      "বে",
      "য়া</w>"
    ],
    [
      "১৯৯",
      "০</w>"
    ],
    [
      "পৰম্পৰা",
      "গতভাৱে</w>"
    ],
    [
      "দেৱ",
      "তা</w>"
    ],
    [
      "দ",
      "হ</w>"
    ],
    [
      "-",
      "পো"
    ],
    [
      "ফলা",
      "ফল"
    ],
    [
      "ডি",
      "ছ"
    ],
    [
      "বাই",
      "ল</w>"
    ],
    [
      "কেলিফৰ্ণ",
      "িয়াৰ</w>"
    ],
    [
      "সন্",
      "মত</w>"
    ],
    [
      "বি",
      "শিষ্ট</w>"
    ],
    [
      "স্কু",
      "ল</w>"
    ],
    [
      "সোনকাল",
      "েই</w>"
    ],
    [
      "ভৰ্",
      "তি</w>"
    ],
    [
      "বা",
      "ছ</w>"
    ],
    [
      "লেখ",
      "ক</w>"
    ],
    [
      "জা",
      "তিৰ</w>"
    ],
    [
      "পি",
      "ৰ</w>"
    ],
    [
      "কী",
      "য়</w>"
    ],
    [
      "োৱ",
      "াই"
    ],
    [
      "ৰ্",
      "ট</w>"
    ],
    [
      "গৈ",
      "ছে</w>"
    ],
    [
      "চুবুৰ",
      "ীয়া</w>"
    ],
    [
      "ৰা",
      "-"
    ],
    [
      "ৰা",
      "মৰ</w>"
    ],
    [
      "অ",
      "পেক্ষা</w>"
    ],
    [
      "প্ৰা",
      "ণী</w>"
    ],
    [
      "ল’",
      "ব</w>"
    ],
    [
      "ড",
      "া</w>"
    ],
    [
      "ওঁ",
      "।</w>"
    ],
    [
      "উ",
      "ষ্ণ"
    ],
    [
      "এ",
      "ণ্ড্ৰ"
    ],
    [
      "বেণ্ড",
      "ী</w>"
    ],
    [
      "উইণ্ড",
      "'জ</w>"
    ],
    [
      "ন্তৰী",
      "ণ</w>"
    ],
    [
      "ৰ",
      "ভাৱে</w>"
    ],
    [
      "ৰ",
      "হ"
    ],
    [
      "২",
      "-"
    ],
    [
      "কাৰ",
      "ীৰ</w>"
    ],
    [
      "জ্ঞ",
      "া</w>"
    ],
    [
      "বহ",
      "ুল"
    ],
    [
      "নে",
      "কি</w>"
    ],
    [
      "সময়",
      "ৰ</w>"
    ],
    [
      "তা",
      "নু"
    ],
    [
      "বলগ",
      "ীয়া</w>"
    ],
    [
      "লক্ষ",
      "্ম"
    ],
    [
      "প্ৰ",
      "কৃত"
    ],
    [
      "দক্ষি",
      "ণে</w>"
    ],
    [
      "ছি",
      "কি"
    ],
    [
      "গ",
      "েল"
    ],
    [
      "ৰক্ত",
      "ক্ষ"
    ],
    [
      "অলিম্প",
      "িকৰ</w>"
    ],
    [
      "অন্তৰ্",
      "ভুক্ত"
    ],
    [
      "পি",
      "."
    ],
    [
      "স",
      "োৱা"
    ],
    [
      "বে",
      "'"
    ],
    [
      "হায়",
      "দৰা"
    ],
    [
      "জন",
      "ো</w>"
    ],
    [
      "ক্ষম",
      "তাৰ</w>"
    ],
    [
      "সন্তু",
      "ষ্ট</w>"
    ],
    [
      "আগ",
      "তেই</w>"
    ],
    [
      "বিৰ",
      "ল</w>"
    ],
    [
      "ধ",
      "র্"
    ],
    [
      "কা",
      "র্য"
    ],
    [
      "ছুই",
      "জাৰ"
    ],
    [
      "মাৰা",
      "ঠ"
    ],
    [
      "গৰাকী",
      "ক</w>"
    ],
    [
      "পৰ্যা",
      "য়ৰ</w>"
    ],
    [
      "ন্ত্ৰ",
      "িক</w>"
    ],
    [
      "তালিকা",
      "ত</w>"
    ],
    [
      "ইভে",
      "ণ্ট"
    ],
    [
      "ই",
      "ট</w>"
    ],
    [
      "মি",
      "ৰ</w>"
    ],
    [
      "োগ",
      "্ৰা"
    ],
    [
      "ব্যৱসা",
      "য়ৰ</w>"
    ],
    [
      "জা",
      "তি"
    ],
    [
      "জ",
      "িক</w>"
    ],
    [
      "তাৰ",
      "পাছত</w>"
    ],
    [
      "ষ্টে",
      "চন"
    ],
    [
      "ফ",
      "োন"
    ],
    [
      "নকৰা",
      "কৈ</w>"
    ],
    [
      "কাৰ",
      "ো"
    ],
    [
      "বা",
      "ক</w>"
    ],
    [
      "ই",
      "-"
    ],
    [
      "মু",
      "খা"
    ],
    [
      "য়",
      "লৈ</w>"
    ],
    [
      "সন্মুখ",
      "ত</w>"
    ],
    [
      "ভূ",
      "মিত</w>"
    ],
    [
      "মহা",
      "ন</w>"
    ],
    [
      "আন",
      "টো</w>"
    ],
    [
      "চি",
      "ন্"
    ],
    [
      "শাসন",
      "কালত</w>"
    ],
    [
      "শ্ৰী",
      "লং"
    ],
    [
      "সু",
      "ৰ</w>"
    ],
    [
      "মাতৃ",
      "ৰ</w>"
    ],
    [
      "ইতি",
      "বাচক</w>"
    ],
    [
      "হৈ",
      "ছে"
    ],
    [
      "কে",
      "টৰ</w>"
    ],
    [
      "কৰোঁ",
      "তে</w>"
    ],
    [
      "ম",
      "ৌৰ"
    ],
    [
      "তেত",
      "িয়াৰ</w>"
    ],
    [
      "নি",
      "স্তা"
    ],
    [
      "নি",
      "গ"
    ],
    [
      "ফল",
      "প্ৰসূ"
    ],
    [
      "বিজ্ঞা",
      "নৰ</w>"
    ],
    [
      "বাছ",
      "ি</w>"
    ],
    [
      "ঠা",
      "ণ্ডা</w>"
    ],
    [
      "আধাৰ",
      "িত।</w>"
    ],
    [
      "বিমানবন্দ",
      "ৰ</w>"
    ],
    [
      "খ",
      "ালী</w>"
    ],
    [
      "বিষ",
      "</w>"
    ],
    [
      "কে",
      "মে"
    ],
    [
      "মূ",
      "ৰৰ</w>"
    ],
    [
      "বতা",
      "হ</w>"
    ],
    [
      "মহ",
      "ীশ"
    ],
    [
      "মহীশ",
      "ূ"
    ],
    [
      "সম",
      "ী"
    ],
    [
      "হ",
      "ঠা"
    ],
    [
      "ঘ",
      "ো"
    ],
    [
      "দল",
      "ত</w>"
    ],
    [
      "স্ত",
      "ৰৰ</w>"
    ],
    [
      "সো",
      "ণ"
    ],
    [
      "ব্য",
      "য়"
    ],
    [
      "বৃদ্ধ",
      "িৰ</w>"
    ],
    [
      "া",
      "।</w>"
    ],
    [
      "মিল",
      "</w>"
    ],
    [
      "আদি",
      "ৰ</w>"
    ],
    [
      "আঁ",
      "চ"
    ],
    [
      "মুহ",
      "ূৰ্"
    ],
    [
      "ব",
      "লীউ"
    ],
    [
      "স্ক",
      "'"
    ],
    [
      "চেন্",
      "নাই"
    ],
    [
      "২",
      "৭"
    ],
    [
      "ড",
      ",</w>"
    ],
    [
      "স্ক",
      "ট"
    ],
    [
      "ভ",
      "বা</w>"
    ],
    [
      "চা",
      "প</w>"
    ],
    [
      "পৰ্যা",
      "য়ত</w>"
    ],
    [
      "এঞ্জ",
      "েল"
    ],
    [
      "বাহ",
      "ন</w>"
    ],
    [
      "প্",
      "তা"
    ],
    [
      "গ্ৰাহ",
      "ক</w>"
    ],
    [
      "ডি",
      "ভাই"
    ],
    [
      "কেৰা",
      "লা</w>"
    ],
    [
      "কোম্পানী",
      "।</w>"
    ],
    [
      "ৰে",
      "ড</w>"
    ],
    [
      "আই",
      "ডা"
    ],
    [
      "জন",
      "গোষ্ঠ"
    ],
    [
      "নতু",
      "নকৈ</w>"
    ],
    [
      "আগবা",
      "ঢ়"
    ],
    [
      "িল",
      "।</w>"
    ],
    [
      "ড",
      "্র"
    ],
    [
      "দল",
      "টো</w>"
    ],
    [
      "চি",
      ".</w>"
    ],
    [
      "ৰে",
      "হাই</w>"
    ],
    [
      "লি",
      "ৰ</w>"
    ],
    [
      "ল",
      "ক</w>"
    ],
    [
      "সা",
      "ত্মক</w>"
    ],
    [
      "ও",
      "ল"
    ],
    [
      "অ",
      "ক্ষ"
    ],
    [
      "তি",
      "ৰু"
    ],
    [
      "১৯৯",
      "৭</w>"
    ],
    [
      "আ",
      "খ"
    ],
    [
      "চল",
      "োৱা</w>"
    ],
    [
      "জল",
      "সি"
    ],
    [
      "দিশ",
      "ৰ</w>"
    ],
    [
      "মিনি",
      "ট</w>"
    ],
    [
      "বিনামূল",
      "ীয়া</w>"
    ],
    [
      "প্ৰথম",
      "গৰাকী</w>"
    ],
    [
      "৮",
      "০"
    ],
    [
      "ফলা",
      "ফল</w>"
    ],
    [
      "ধ্ৰ",
      "ু"
    ],
    [
      "ঘণ্ট",
      "াৰ</w>"
    ],
    [
      "ৰো",
      "মা"
    ],
    [
      "মনোৰ",
      "ঞ্"
    ],
    [
      "৩",
      "৫"
    ],
    [
      "উল",
      "িয়া"
    ],
    [
      "শ",
      "াল"
    ],
    [
      "উত্ত",
      "ৰাখ"
    ],
    [
      "ৱা",
      "শ্বি"
    ],
    [
      "এটা",
      "।</w>"
    ],
    [
      "লু",
      "ই"
    ],
    [
      "কৰ",
      "াইছিল।</w>"
    ],
    [
      "চ",
      "ম"
    ],
    [
      "অভিযা",
      "নৰ</w>"
    ],
    [
      "লণ্ড",
      "নৰ</w>"
    ],
    [
      "কৌশ",
      "ল</w>"
    ],
    [
      "অ",
      "সংখ"
    ],
    [
      "অসংখ",
      "্য</w>"
    ],
    [
      "আধি",
      "পত"
    ],
    [
      "প",
      "ত্ত"
    ],
    [
      "কৰ্",
      "ণ"
    ],
    [
      "ন্",
      "না"
    ],
    [
      "বিবা",
      "হৰ</w>"
    ],
    [
      "অভিজ্ঞ",
      "তা</w>"
    ],
    [
      "সন্দে",
      "হ</w>"
    ],
    [
      "জন",
      "ী</w>"
    ],
    [
      "১",
      "ত</w>"
    ],
    [
      "পৰ্যা",
      "প্ত</w>"
    ],
    [
      "ন",
      "শীল"
    ],
    [
      "প",
      "ী"
    ],
    [
      "উদ্ভি",
      "দ</w>"
    ],
    [
      "প্ৰতিবেদ",
      "ন</w>"
    ],
    [
      "্য",
      "ই</w>"
    ],
    [
      "ভে",
      "ক"
    ],
    [
      "ৰ্",
      "ট"
    ],
    [
      "এই",
      "ছ"
    ],
    [
      "১৯৯",
      "৩</w>"
    ],
    [
      "মাৰ্",
      "কিন</w>"
    ],
    [
      "ৰে",
      "ই"
    ],
    [
      "ন",
      "হ"
    ],
    [
      "প্র",
      "দান</w>"
    ],
    [
      "আধ",
      "া</w>"
    ],
    [
      "প",
      "ঠি"
    ],
    [
      "ন্",
      "সি"
    ],
    [
      "অভিন",
      "য়ৰ</w>"
    ],
    [
      "ৰ্",
      "ণ</w>"
    ],
    [
      "বিশ্ববিদ্যাল",
      "য়ত</w>"
    ],
    [
      "ট্ট",
      "া"
    ],
    [
      "গ্ৰে",
      "ট</w>"
    ],
    [
      "মা",
      "ৱ"
    ],
    [
      "চহৰ",
      "খনত</w>"
    ],
    [
      "চ",
      "ণ্ড</w>"
    ],
    [
      "বিশ্বা",
      "স"
    ],
    [
      "পাৰ্থ",
      "ক্য</w>"
    ],
    [
      "দ",
      "ত্ত"
    ],
    [
      "কা",
      "মত</w>"
    ],
    [
      "ডে",
      "ন"
    ],
    [
      "মনো",
      "যোগ</w>"
    ],
    [
      "বস",
      "তি</w>"
    ],
    [
      "বি",
      "বি"
    ],
    [
      "আৱে",
      "গ"
    ],
    [
      "কাঠ",
      "ৰ</w>"
    ],
    [
      "এছ",
      "’"
    ],
    [
      "ৰো",
      "মান</w>"
    ],
    [
      "কা",
      ",</w>"
    ],
    [
      "ন",
      "কৰা</w>"
    ],
    [
      "ন",
      "ীয়</w>"
    ],
    [
      "ভা",
      "গৰ</w>"
    ],
    [
      "নেকি",
      "?</w>"
    ],
    [
      "তাপ",
      "মাত্ৰা</w>"
    ],
    [
      "পদ",
      "াৰ্থ</w>"
    ],
    [
      "সাগৰ",
      "ীয়</w>"
    ],
    [
      "কে",
      "ণ্ট"
    ]
  ],
  "vocab_size": 5000,
  "num_merges": 5000,
  "actual_merges": 5000,
  "special_tokens": [
    "<unk>",
    "<pad>",
    "<sos>",
    "<eos>"
  ]
}