{
  "merges": [
    [
      "র",
      "</w>"
    ],
    [
      "ে",
      "</w>"
    ],
    [
      "য",
      "়"
    ],
    [
      "ি",
      "</w>"
    ],
    [
      "্",
      "য"
    ],
    [
      "া",
      "</w>"
    ],
    [
      "ে",
      "র</w>"
    ],
    [
      "।",
      "</w>"
    ],
    [
      "া",
      "র"
    ],
    [
      "ন",
      "</w>"
    ],
    [
      "ক",
      "র"
    ],
    [
      "া",
      "র</w>"
    ],
    [
      ",",
      "</w>"
    ],
    [
      "ন",
      "্"
    ],
    [
      "ট",
      "ি</w>"
    ],
    [
      "স",
      "্"
    ],
    [
      "র",
      "্"
    ],
    [
      "ত",
      "</w>"
    ],
    [
      "া",
      "ল"
    ],
    [
      "া",
      "ন"
    ],
    [
      "ব",
      "ি"
    ],
    [
      "ি",
      "ল"
    ],
    [
      "ং",
      "</w>"
    ],
    [
      "ি",
      "ক"
    ],
    [
      "এ",
      "ব"
    ],
    [
      "এব",
      "ং</w>"
    ],
    [
      "ে",
      "ছ"
    ],
    [
      "এ",
      "ক"
    ],
    [
      "ত",
      "ে</w>"
    ],
    [
      "র",
      "া"
    ],
    [
      "য়",
      "</w>"
    ],
    [
      "ক",
      "ে</w>"
    ],
    [
      "ত",
      "ি"
    ],
    [
      "ন",
      "ি"
    ],
    [
      "ব",
      "া"
    ],
    [
      "ে",
      "ন"
    ],
    [
      "ই",
      "</w>"
    ],
    [
      "ে",
      "।</w>"
    ],
    [
      "্য",
      "</w>"
    ],
    [
      "্য",
      "া"
    ],
    [
      "ত",
      "া"
    ],
    [
      "র",
      "ি"
    ],
    [
      "ও",
      "</w>"
    ],
    [
      "ম",
      "া"
    ],
    [
      "ু",
      "ল"
    ],
    [
      "স",
      "া"
    ],
    [
      "ল",
      "</w>"
    ],
    [
      "এক",
      "টি</w>"
    ],
    [
      "্",
      "ব"
    ],
    [
      "হ",
      "য়"
    ],
    [
      "ম",
      "</w>"
    ],
    [
      "ষ",
      "্"
    ],
    [
      "ী",
      "</w>"
    ],
    [
      "জ",
      "ন"
    ],
    [
      "স",
      "ম"
    ],
    [
      "দ",
      "ের</w>"
    ],
    [
      "ন",
      "া"
    ],
    [
      "ক",
      "</w>"
    ],
    [
      "ক",
      "া"
    ],
    [
      "দ",
      "ে"
    ],
    [
      "েন",
      "।</w>"
    ],
    [
      "ভ",
      "া"
    ],
    [
      "ি",
      "ত</w>"
    ],
    [
      "ব",
      "ে"
    ],
    [
      "প",
      "া"
    ],
    [
      "ণ",
      "</w>"
    ],
    [
      "ড",
      "়"
    ],
    [
      "ার",
      "্"
    ],
    [
      "ে",
      "ল"
    ],
    [
      "ঙ",
      "্"
    ],
    [
      "েছ",
      "িল"
    ],
    [
      "ন",
      "ি</w>"
    ],
    [
      "িক",
      "</w>"
    ],
    [
      "ু",
      "</w>"
    ],
    [
      "গ",
      "ুল"
    ],
    [
      "ি",
      "য়"
    ],
    [
      "অ",
      "ন"
    ],
    [
      "ট",
      "</w>"
    ],
    [
      "স্",
      "থ"
    ],
    [
      "স",
      "</w>"
    ],
    [
      "ে",
      ",</w>"
    ],
    [
      "স",
      "াল"
    ],
    [
      "ব",
      "ে</w>"
    ],
    [
      "ট",
      "ি"
    ],
    [
      "ক",
      "ি"
    ],
    [
      "প",
      "র"
    ],
    [
      "ো",
      "</w>"
    ],
    [
      "ঙ্",
      "গ"
    ],
    [
      "ু",
      "র"
    ],
    [
      "কর",
      "া</w>"
    ],
    [
      "থ",
      "ে"
    ],
    [
      "ও",
      "য়"
    ],
    [
      "ল",
      "া"
    ],
    [
      "্",
      "প"
    ],
    [
      "স",
      "ে"
    ],
    [
      "প",
      "রি"
    ],
    [
      "জন",
      "্য</w>"
    ],
    [
      "হ",
      "া"
    ],
    [
      "ছ",
      "িল"
    ],
    [
      "য",
      "া"
    ],
    [
      "২",
      "০"
    ],
    [
      "হ",
      "ি"
    ],
    [
      "ক",
      "ার"
    ],
    [
      "থে",
      "কে</w>"
    ],
    [
      "ব",
      "্য"
    ],
    [
      "এ",
      "ই</w>"
    ],
    [
      "শ",
      "</w>"
    ],
    [
      "্",
      "র"
    ],
    [
      "ে",
      "ন</w>"
    ],
    [
      "ধ",
      "্য"
    ],
    [
      "দ",
      "ি"
    ],
    [
      "স",
      "ং"
    ],
    [
      "ক",
      "ো"
    ],
    [
      "ভ",
      "ি"
    ],
    [
      "জ",
      "া"
    ],
    [
      "প",
      "ার"
    ],
    [
      "তি",
      "নি</w>"
    ],
    [
      "রা",
      "জ"
    ],
    [
      "া",
      "ন</w>"
    ],
    [
      "স",
      "ি"
    ],
    [
      "তা",
      "ঁ"
    ],
    [
      "ল",
      "ে</w>"
    ],
    [
      "কর",
      "ে</w>"
    ],
    [
      "ন",
      "া</w>"
    ],
    [
      "য়",
      "</w>"
    ],
    [
      "ার",
      "া</w>"
    ],
    [
      "১",
      "৯"
    ],
    [
      "ো",
      "গ"
    ],
    [
      "ম",
      "ি"
    ],
    [
      "আ",
      "প"
    ],
    [
      "্",
      "ড"
    ],
    [
      "ত",
      "া</w>"
    ],
    [
      "ী",
      "য়</w>"
    ],
    [
      "ব",
      "</w>"
    ],
    [
      "এ",
      "টি</w>"
    ],
    [
      "ন্",
      "ত"
    ],
    [
      "ি",
      "র</w>"
    ],
    [
      "েছ",
      "ে।</w>"
    ],
    [
      "প্র",
      "া"
    ],
    [
      "ম",
      "ধ্য"
    ],
    [
      "হয়",
      "।</w>"
    ],
    [
      "স",
      "ঙ্গ"
    ],
    [
      "শ",
      "ি"
    ],
    [
      "ন",
      "ের</w>"
    ],
    [
      "স্",
      "ট"
    ],
    [
      "থ",
      "া"
    ],
    [
      "ু",
      "ক্ত"
    ],
    [
      "জ",
      "ন</w>"
    ],
    [
      "ব",
      "্"
    ],
    [
      "ঞ",
      "্"
    ],
    [
      "ব",
      "া</w>"
    ],
    [
      "এ",
      "র</w>"
    ],
    [
      "দ",
      "া"
    ],
    [
      "ল",
      "ি"
    ],
    [
      "ক",
      "ে"
    ],
    [
      "গুল",
      "ি</w>"
    ],
    [
      "ব",
      "র্"
    ],
    [
      "হ",
      "য়"
    ],
    [
      "ষ্",
      "ট"
    ],
    [
      "ত",
      "ি</w>"
    ],
    [
      "ভ",
      "ার"
    ],
    [
      "র",
      "া</w>"
    ],
    [
      "ম",
      "ান"
    ],
    [
      "ন",
      "ে"
    ],
    [
      "মধ্য",
      "ে</w>"
    ],
    [
      "প্র",
      "তি"
    ],
    [
      "ব্য",
      "ব"
    ],
    [
      "কর",
      "ে।</w>"
    ],
    [
      "ত",
      "ার</w>"
    ],
    [
      "উ",
      "প"
    ],
    [
      "চ",
      "ি"
    ],
    [
      "ণ",
      "্ড"
    ],
    [
      "র",
      "ে</w>"
    ],
    [
      "ম",
      "ে"
    ],
    [
      "দ",
      "ু"
    ],
    [
      "জ",
      "</w>"
    ],
    [
      "ল",
      "ে"
    ],
    [
      "ম",
      "ে</w>"
    ],
    [
      "তাঁ",
      "র</w>"
    ],
    [
      "িক",
      "ে</w>"
    ],
    [
      "অন",
      "ু"
    ],
    [
      "০",
      "</w>"
    ],
    [
      "শ",
      "া"
    ],
    [
      "অ",
      "ব"
    ],
    [
      "ন্",
      "ত</w>"
    ],
    [
      "কর",
      "তে</w>"
    ],
    [
      "চ",
      "ল"
    ],
    [
      "সঙ্গ",
      "ে</w>"
    ],
    [
      "েছিল",
      "।</w>"
    ],
    [
      "য়",
      "ে</w>"
    ],
    [
      "নি",
      "র্"
    ],
    [
      "বি",
      "শ"
    ],
    [
      "র",
      "ে"
    ],
    [
      "হ",
      "ল</w>"
    ],
    [
      "ষ্",
      "ঠ"
    ],
    [
      "য",
      "ে</w>"
    ],
    [
      "ন",
      "ার</w>"
    ],
    [
      "ন",
      "ে</w>"
    ],
    [
      "ট",
      "া</w>"
    ],
    [
      "ূ",
      "র্"
    ],
    [
      "দ",
      "্ব"
    ],
    [
      "সাল",
      "ের</w>"
    ],
    [
      "ক",
      "্"
    ],
    [
      "য",
      "োগ"
    ],
    [
      "খ",
      "েল"
    ],
    [
      "য",
      "ে"
    ],
    [
      "ত্র",
      "</w>"
    ],
    [
      "দ",
      "</w>"
    ],
    [
      "প",
      "্"
    ],
    [
      "য",
      "া</w>"
    ],
    [
      "র",
      "য়"
    ],
    [
      "স",
      "ে</w>"
    ],
    [
      "সাল",
      "ে</w>"
    ],
    [
      "ব",
      "ল"
    ],
    [
      "স",
      "ু"
    ],
    [
      "য়",
      "ে</w>"
    ],
    [
      "াল",
      "</w>"
    ],
    [
      "ড",
      "ি"
    ],
    [
      "ম",
      "ু"
    ],
    [
      "কর",
      "ার</w>"
    ],
    [
      "জ",
      "ি"
    ],
    [
      "আ",
      "ম"
    ],
    [
      "ী",
      "র</w>"
    ],
    [
      "ত",
      "।</w>"
    ],
    [
      "্য",
      "ান"
    ],
    [
      "্",
      "ম"
    ],
    [
      "থা",
      "ক"
    ],
    [
      "ধ",
      "ার"
    ],
    [
      "চ",
      "ে"
    ],
    [
      "ভা",
      "বে</w>"
    ],
    [
      "ষ",
      "</w>"
    ],
    [
      "ত",
      "ীয়</w>"
    ],
    [
      "ও",
      "য়"
    ],
    [
      "ব্যব",
      "হ"
    ],
    [
      "ত",
      "্য"
    ],
    [
      "গ",
      "া"
    ],
    [
      "র",
      "ো"
    ],
    [
      "ট",
      "া"
    ],
    [
      "প",
      "ে"
    ],
    [
      "কর",
      "েন।</w>"
    ],
    [
      "-",
      "এর</w>"
    ],
    [
      "র্",
      "থ"
    ],
    [
      "প",
      "ু"
    ],
    [
      "ন",
      "ও</w>"
    ],
    [
      "তা",
      "দের</w>"
    ],
    [
      "হ",
      "</w>"
    ],
    [
      "ান",
      "ে</w>"
    ],
    [
      "ত",
      "ের</w>"
    ],
    [
      "য়",
      "।</w>"
    ],
    [
      "গ",
      "ো"
    ],
    [
      "২০",
      "১"
    ],
    [
      "ত",
      "্ব"
    ],
    [
      "য",
      "ুক্ত"
    ],
    [
      "র",
      "ের</w>"
    ],
    [
      "দে",
      "খ"
    ],
    [
      "ড",
      "</w>"
    ],
    [
      "প্র",
      "থ"
    ],
    [
      "গ",
      "</w>"
    ],
    [
      "ন্",
      "দ"
    ],
    [
      "ম",
      "ার্"
    ],
    [
      "েছিল",
      "েন।</w>"
    ],
    [
      "দে",
      "শ"
    ],
    [
      "প",
      "ূর্"
    ],
    [
      "প",
      "</w>"
    ],
    [
      "অ",
      "্যা"
    ],
    [
      "স",
      "ের</w>"
    ],
    [
      "পর",
      "্য"
    ],
    [
      "র",
      "ি</w>"
    ],
    [
      "ব",
      "ছ"
    ],
    [
      "য়",
      "ে"
    ],
    [
      "ক",
      "ার</w>"
    ],
    [
      "শ",
      "ে"
    ],
    [
      "প",
      "ুর"
    ],
    [
      "ত",
      "ু"
    ],
    [
      "েছ",
      "ে</w>"
    ],
    [
      "ব",
      "্যা"
    ],
    [
      "ার",
      "ের</w>"
    ],
    [
      "আপ",
      "নার</w>"
    ],
    [
      "অ",
      "ভি"
    ],
    [
      "বে",
      "শ"
    ],
    [
      "ম",
      "্প"
    ],
    [
      "প",
      "ি"
    ],
    [
      "ন",
      "।</w>"
    ],
    [
      "বর্",
      "ত"
    ],
    [
      "য়",
      "া"
    ],
    [
      "ন্",
      "ধ"
    ],
    [
      "খ",
      "ন</w>"
    ],
    [
      "পার",
      "ে।</w>"
    ],
    [
      "সম",
      "্"
    ],
    [
      "ক",
      "ৃ"
    ],
    [
      "ছ",
      "ে</w>"
    ],
    [
      "েন",
      ",</w>"
    ],
    [
      "ল",
      "ো"
    ],
    [
      "হি",
      "সা"
    ],
    [
      "প",
      "র</w>"
    ],
    [
      "ম",
      "্ব"
    ],
    [
      "ত",
      "ো</w>"
    ],
    [
      "আ",
      "ই"
    ],
    [
      "ক",
      "ু"
    ],
    [
      "্য",
      "ের</w>"
    ],
    [
      "চ",
      "াল"
    ],
    [
      "ওয়",
      "া</w>"
    ],
    [
      "ক",
      "ের</w>"
    ],
    [
      "কি",
      "ছ"
    ],
    [
      "ন্",
      "ট"
    ],
    [
      "প্রথ",
      "ম</w>"
    ],
    [
      "য়",
      "ের</w>"
    ],
    [
      "অব",
      "স্থ"
    ],
    [
      "স",
      "ব"
    ],
    [
      "্য",
      "াল"
    ],
    [
      "িয়",
      "ে</w>"
    ],
    [
      "ম",
      "ো"
    ],
    [
      "টি",
      "র</w>"
    ],
    [
      "নি",
      "য়"
    ],
    [
      "ব",
      "ার</w>"
    ],
    [
      "ছিল",
      "</w>"
    ],
    [
      "শ",
      "হ"
    ],
    [
      "ব",
      "ো"
    ],
    [
      "আ",
      "র"
    ],
    [
      "শ",
      "ু"
    ],
    [
      "২০",
      "০"
    ],
    [
      "ম",
      "ের</w>"
    ],
    [
      "স",
      "র"
    ],
    [
      "চ",
      "্"
    ],
    [
      "সম",
      "্প"
    ],
    [
      "দ্ব",
      "ারা</w>"
    ],
    [
      "গুল",
      "ির</w>"
    ],
    [
      "স্",
      "ত"
    ],
    [
      "র",
      "ু"
    ],
    [
      "ম",
      "ূ"
    ],
    [
      "জ",
      "ে"
    ],
    [
      "ান",
      "ের</w>"
    ],
    [
      "শ",
      "্"
    ],
    [
      "আপ",
      "নি</w>"
    ],
    [
      "আ",
      "গ"
    ],
    [
      "খ",
      "ু"
    ],
    [
      "এক",
      "জন</w>"
    ],
    [
      "হিসা",
      "বে</w>"
    ],
    [
      "া",
      "য়</w>"
    ],
    [
      "শ",
      "ুর"
    ],
    [
      "ণ",
      "ের</w>"
    ],
    [
      "ম",
      "্"
    ],
    [
      "কিছ",
      "ু</w>"
    ],
    [
      "চ্চ",
      "ি"
    ],
    [
      "চল",
      "চ্চি"
    ],
    [
      "জ",
      "ান"
    ],
    [
      "ত",
      "ৈ"
    ],
    [
      "দ",
      "্"
    ],
    [
      "অ",
      "ং"
    ],
    [
      "ছিল",
      "।</w>"
    ],
    [
      "৫",
      "</w>"
    ],
    [
      "পর্য",
      "ন্ত</w>"
    ],
    [
      "ট",
      "ে"
    ],
    [
      "১",
      "</w>"
    ],
    [
      "সা",
      "ধার"
    ],
    [
      "ো",
      "র</w>"
    ],
    [
      "স্থ",
      "া"
    ],
    [
      "্",
      "রি"
    ],
    [
      "২",
      "</w>"
    ],
    [
      "ল",
      "্যা"
    ],
    [
      "হয়",
      "ে</w>"
    ],
    [
      "ড়",
      "</w>"
    ],
    [
      "ব",
      "ৃ"
    ],
    [
      ":",
      "</w>"
    ],
    [
      "ওয়",
      "ার</w>"
    ],
    [
      "চ",
      "া"
    ],
    [
      "ক",
      "াল"
    ],
    [
      "ব্যবহ",
      "ার</w>"
    ],
    [
      ")",
      "</w>"
    ],
    [
      "ছ",
      "া"
    ],
    [
      "ি",
      "তে</w>"
    ],
    [
      "উ",
      "ত্ত"
    ],
    [
      "হয়",
      "েছিল।</w>"
    ],
    [
      "উ",
      "ৎ"
    ],
    [
      "ল",
      "ের</w>"
    ],
    [
      "কো",
      "নও</w>"
    ],
    [
      "গ",
      "ু"
    ],
    [
      "ার",
      "া"
    ],
    [
      "বিশ",
      "্ব"
    ],
    [
      "শুর",
      "ু</w>"
    ],
    [
      "অন",
      "ে"
    ],
    [
      "ট",
      "ার</w>"
    ],
    [
      "ন্",
      "ত্র"
    ],
    [
      "স্",
      "ব"
    ],
    [
      "শ",
      "ে</w>"
    ],
    [
      "খ",
      "ানে</w>"
    ],
    [
      "রা",
      "ষ্ট"
    ],
    [
      "ত",
      "ী"
    ],
    [
      "ণ",
      "ে</w>"
    ],
    [
      "রয়",
      "েছে।</w>"
    ],
    [
      "চ",
      "িত</w>"
    ],
    [
      "গ্র",
      "া"
    ],
    [
      "প",
      "ো"
    ],
    [
      "মা",
      "ন</w>"
    ],
    [
      "বছ",
      "র</w>"
    ],
    [
      "ন্",
      "ন</w>"
    ],
    [
      "হ",
      "য়</w>"
    ],
    [
      "ন্",
      "ড"
    ],
    [
      "চ",
      "</w>"
    ],
    [
      "৪",
      "</w>"
    ],
    [
      "খ",
      "া"
    ],
    [
      "প্র",
      "ধ"
    ],
    [
      "হয়",
      "।</w>"
    ],
    [
      "বেশ",
      "ি</w>"
    ],
    [
      "ত",
      "ারা</w>"
    ],
    [
      "তৈ",
      "রি</w>"
    ],
    [
      "ভ",
      "ূ"
    ],
    [
      "এ",
      "ম"
    ],
    [
      "৮",
      "</w>"
    ],
    [
      "শ",
      "ী"
    ],
    [
      "গ্র",
      "হ"
    ],
    [
      "৬",
      "</w>"
    ],
    [
      "৭",
      "</w>"
    ],
    [
      "কি",
      "ন</w>"
    ],
    [
      "ব",
      "লে</w>"
    ],
    [
      "ী",
      "ন</w>"
    ],
    [
      "ক্ষ",
      "ে"
    ],
    [
      "ন",
      "ী"
    ],
    [
      "হ",
      "তে</w>"
    ],
    [
      "মার্",
      "কিন</w>"
    ],
    [
      "ান",
      "।</w>"
    ],
    [
      "ত",
      "িক</w>"
    ],
    [
      "ভ",
      "ে"
    ],
    [
      "রাষ্ট",
      "্র"
    ],
    [
      "ফ",
      "ি"
    ],
    [
      "বা",
      "হ"
    ],
    [
      "ম",
      "তো</w>"
    ],
    [
      "ক",
      "া</w>"
    ],
    [
      "মূ",
      "ল"
    ],
    [
      "৩",
      "</w>"
    ],
    [
      "ক",
      "ি</w>"
    ],
    [
      "ঞ্",
      "চ"
    ],
    [
      "য়",
      "।</w>"
    ],
    [
      "য",
      "ু"
    ],
    [
      "ব্",
      "দ"
    ],
    [
      "ব",
      "ে।</w>"
    ],
    [
      "স",
      "র্"
    ],
    [
      "মান",
      "ু"
    ],
    [
      "ভার",
      "তের</w>"
    ],
    [
      "না",
      "।</w>"
    ],
    [
      "এক",
      "</w>"
    ],
    [
      "ু",
      "র</w>"
    ],
    [
      "ড",
      "া"
    ],
    [
      "ল",
      "্"
    ],
    [
      "অন",
      "্যান"
    ],
    [
      "ম",
      "হ"
    ],
    [
      "এ",
      "</w>"
    ],
    [
      "আ",
      "স"
    ],
    [
      "ম",
      "্যা"
    ],
    [
      "ল",
      "্প"
    ],
    [
      "দ",
      "ি</w>"
    ],
    [
      "অনে",
      "ক</w>"
    ],
    [
      "ন্",
      "দ্র"
    ],
    [
      "জ",
      "ু"
    ],
    [
      "্",
      "রা"
    ],
    [
      "অন্যান",
      "্য</w>"
    ],
    [
      "ক্ষ",
      "ি"
    ],
    [
      "কর",
      "েছিলেন।</w>"
    ],
    [
      "ষ্",
      "ট</w>"
    ],
    [
      "শ",
      "ন</w>"
    ],
    [
      "ত্র",
      "ে</w>"
    ],
    [
      "ই",
      "উ"
    ],
    [
      "িয়",
      "া"
    ],
    [
      "স্",
      "বা"
    ],
    [
      "গ",
      "ি"
    ],
    [
      "সম",
      "য়</w>"
    ],
    [
      "ছিল",
      "েন।</w>"
    ],
    [
      "তি",
      "র</w>"
    ],
    [
      "প",
      "াল"
    ],
    [
      "জ",
      "ী"
    ],
    [
      "ঘ",
      "ট"
    ],
    [
      "ণ",
      "ত</w>"
    ],
    [
      "দ",
      "িকে</w>"
    ],
    [
      "ড়",
      "া"
    ],
    [
      "কা",
      "ছে</w>"
    ],
    [
      ".",
      "এ"
    ],
    [
      "ন",
      "ো"
    ],
    [
      "পর",
      "ে</w>"
    ],
    [
      "ব্য",
      "ক্ত"
    ],
    [
      "ন্ত",
      "র্"
    ],
    [
      "েছ",
      "েন।</w>"
    ],
    [
      "অ",
      "র্থ"
    ],
    [
      "বে",
      "শ</w>"
    ],
    [
      "হি",
      "সে"
    ],
    [
      "ব",
      "্র"
    ],
    [
      "ম",
      "াল"
    ],
    [
      "শ",
      "িল"
    ],
    [
      "দ",
      "ী"
    ],
    [
      "ত",
      "ম</w>"
    ],
    [
      "আম",
      "ি</w>"
    ],
    [
      "স",
      "ার"
    ],
    [
      "ো",
      "ল"
    ],
    [
      "অ",
      "ধ"
    ],
    [
      "লে",
      "খ"
    ],
    [
      "ব",
      "ল</w>"
    ],
    [
      "চ্",
      "ছ"
    ],
    [
      "খ",
      "্রি"
    ],
    [
      "প্রধ",
      "ান</w>"
    ],
    [
      "ফ",
      "ে"
    ],
    [
      "আম",
      "ার</w>"
    ],
    [
      "সং",
      "খ"
    ],
    [
      "জ",
      "ের</w>"
    ],
    [
      "কর",
      "েন</w>"
    ],
    [
      "বি",
      "দ"
    ],
    [
      "গ",
      "ত</w>"
    ],
    [
      "ড",
      "ে"
    ],
    [
      "িল",
      "</w>"
    ],
    [
      "০",
      "০</w>"
    ],
    [
      "ব",
      "ন্ধ"
    ],
    [
      "কি",
      "ন্ত"
    ],
    [
      "ভি",
      "ন্ন</w>"
    ],
    [
      "ওয়",
      "া</w>"
    ],
    [
      "মা",
      "ধ্য"
    ],
    [
      "য়",
      "ার"
    ],
    [
      "\"",
      "</w>"
    ],
    [
      "রাজ",
      "্যের</w>"
    ],
    [
      "ক",
      "টি</w>"
    ],
    [
      "ট",
      "িকে</w>"
    ],
    [
      "ট",
      "ের</w>"
    ],
    [
      "রা",
      "খ"
    ],
    [
      "জ",
      "েল"
    ],
    [
      "ধ",
      "</w>"
    ],
    [
      "কা",
      "জ</w>"
    ],
    [
      "দ্ধ",
      "</w>"
    ],
    [
      "ম",
      "ৃ"
    ],
    [
      "চ",
      "ার"
    ],
    [
      "য",
      "খন</w>"
    ],
    [
      "আর",
      "ও</w>"
    ],
    [
      "ম",
      "া</w>"
    ],
    [
      "কর",
      "্"
    ],
    [
      "ড়",
      "ে</w>"
    ],
    [
      "শ",
      "ো"
    ],
    [
      "সম্প",
      "র্"
    ],
    [
      "স্",
      "ত</w>"
    ],
    [
      "র",
      "ূ"
    ],
    [
      "অনু",
      "ষ্ঠ"
    ],
    [
      "ত",
      "াল"
    ],
    [
      "িয়",
      "া</w>"
    ],
    [
      "ী",
      "দের</w>"
    ],
    [
      "ন",
      ",</w>"
    ],
    [
      "ত",
      "ুল"
    ],
    [
      "গ",
      "ুর"
    ],
    [
      "অ",
      "র্"
    ],
    [
      "কিন্ত",
      "ু</w>"
    ],
    [
      "হিসে",
      "বে</w>"
    ],
    [
      "িক",
      "া"
    ],
    [
      "ধ",
      "র"
    ],
    [
      "স",
      "হ</w>"
    ],
    [
      "্য",
      "া</w>"
    ],
    [
      "হয়",
      "ে</w>"
    ],
    [
      "ক",
      "য়ে"
    ],
    [
      "দু",
      "র্"
    ],
    [
      "শে",
      "ষ</w>"
    ],
    [
      "প্রা",
      "য়</w>"
    ],
    [
      "প্র",
      "দ"
    ],
    [
      "ন্",
      "দি"
    ],
    [
      "উপ",
      "র</w>"
    ],
    [
      "ব",
      "ার"
    ],
    [
      "য়",
      "ো"
    ],
    [
      "ত",
      "ৃ"
    ],
    [
      "৯",
      "</w>"
    ],
    [
      "ফ",
      "</w>"
    ],
    [
      "শা",
      "স"
    ],
    [
      "যোগ",
      "</w>"
    ],
    [
      "গ",
      "ে"
    ],
    [
      "বি",
      "ষ"
    ],
    [
      "নি",
      "য়ে</w>"
    ],
    [
      "ল",
      "ক্ষ"
    ],
    [
      "না",
      "মে</w>"
    ],
    [
      "১৯",
      "৯"
    ],
    [
      "য",
      "দি</w>"
    ],
    [
      "ক",
      "্যা"
    ],
    [
      "বে",
      ",</w>"
    ],
    [
      "দ",
      "ক্ষি"
    ],
    [
      "উ",
      "ন্"
    ],
    [
      "ভা",
      "গ</w>"
    ],
    [
      "স",
      "ো"
    ],
    [
      "হয়",
      "েছে।</w>"
    ],
    [
      "ক্র",
      "ম"
    ],
    [
      "সাল",
      "</w>"
    ],
    [
      "ক্র",
      "া"
    ],
    [
      "মা",
      "ত্র</w>"
    ],
    [
      "য",
      "ার</w>"
    ],
    [
      "পরি",
      "চাল"
    ],
    [
      "দ্",
      "বি"
    ],
    [
      "বি",
      "ভিন্ন</w>"
    ],
    [
      "ভ",
      "</w>"
    ],
    [
      "ান",
      "া"
    ],
    [
      "থ",
      "া</w>"
    ],
    [
      "ধ",
      "র্"
    ],
    [
      "ফ",
      "ু"
    ],
    [
      "প্র",
      "তি</w>"
    ],
    [
      "ভার",
      "তীয়</w>"
    ],
    [
      "কার",
      "ী</w>"
    ],
    [
      "যুক্ত",
      "</w>"
    ],
    [
      "গ্রহ",
      "ণ</w>"
    ],
    [
      "ত্ব",
      "</w>"
    ],
    [
      "জী",
      "ব"
    ],
    [
      "ত",
      "ার"
    ],
    [
      "যা",
      "য়।</w>"
    ],
    [
      "ব",
      "ু"
    ],
    [
      "লা",
      "ই"
    ],
    [
      "হ",
      "ল"
    ],
    [
      "ম",
      "নে</w>"
    ],
    [
      "ক্ত",
      "</w>"
    ],
    [
      "বা",
      "স"
    ],
    [
      "ে",
      "ই</w>"
    ],
    [
      "গুর",
      "ু"
    ],
    [
      "িক",
      "ি"
    ],
    [
      "ফ",
      "ো"
    ],
    [
      "ব",
      "য়"
    ],
    [
      "ত",
      "বে</w>"
    ],
    [
      "ত",
      ",</w>"
    ],
    [
      "ব",
      "ার্"
    ],
    [
      "বিশ",
      "ে"
    ],
    [
      "ম",
      "র"
    ],
    [
      "সাধার",
      "ণত</w>"
    ],
    [
      "ফ",
      "া"
    ],
    [
      "ছ",
      "ো"
    ],
    [
      "কর",
      "েছিল"
    ],
    [
      "ট",
      "ো"
    ],
    [
      "গ",
      "ঠ"
    ],
    [
      "যুক্ত",
      "রাষ্ট্র"
    ],
    [
      "ভা",
      "ষ"
    ],
    [
      "যে",
      "তে</w>"
    ],
    [
      "যে",
      "খানে</w>"
    ],
    [
      "জ",
      "ে</w>"
    ],
    [
      "প",
      "দ"
    ],
    [
      "আগ",
      "ে</w>"
    ],
    [
      "ল",
      "া</w>"
    ],
    [
      "কর",
      "্ম"
    ],
    [
      "ঞ্",
      "চল"
    ],
    [
      "ি",
      "ত।</w>"
    ],
    [
      "ট",
      "ে</w>"
    ],
    [
      "খ্রি",
      "ষ্ট"
    ],
    [
      "চলচ্চি",
      "ত্র"
    ],
    [
      "ব",
      "ৈ"
    ],
    [
      "প",
      "ৌ"
    ],
    [
      "ভা",
      "গ"
    ],
    [
      "ট",
      "্র"
    ],
    [
      "কর",
      "ু"
    ],
    [
      "ভা",
      "ব"
    ],
    [
      "স",
      "ি</w>"
    ],
    [
      "শ্",
      "চি"
    ],
    [
      "-",
      "এ</w>"
    ],
    [
      "য়",
      ",</w>"
    ],
    [
      "ওয়",
      "ার</w>"
    ],
    [
      "র",
      "।</w>"
    ],
    [
      "স",
      "া</w>"
    ],
    [
      "ব",
      "ি</w>"
    ],
    [
      "স",
      "হ"
    ],
    [
      "'",
      "</w>"
    ],
    [
      "সে",
      "ই</w>"
    ],
    [
      "স",
      "ূ"
    ],
    [
      "রাজ",
      "্য"
    ],
    [
      "হ",
      "ো"
    ],
    [
      "দেখ",
      "া</w>"
    ],
    [
      "রয়",
      "েছে</w>"
    ],
    [
      "ঘ",
      "া"
    ],
    [
      "বে",
      "শি"
    ],
    [
      "থ",
      "</w>"
    ],
    [
      "জ",
      "ন্"
    ],
    [
      "বা",
      "স</w>"
    ],
    [
      "সা",
      "ই"
    ],
    [
      "ণ",
      "া"
    ],
    [
      "কার",
      "ণ</w>"
    ],
    [
      "মু",
      "খ"
    ],
    [
      "য",
      "ে,</w>"
    ],
    [
      "কার",
      "ণে</w>"
    ],
    [
      "চে",
      "য়ে</w>"
    ],
    [
      "শিল",
      "্প"
    ],
    [
      "হয়",
      ",</w>"
    ],
    [
      "স্থা",
      "প"
    ],
    [
      "মাধ্য",
      "মে</w>"
    ],
    [
      "ওয়",
      "া"
    ],
    [
      "হ",
      "ে"
    ],
    [
      "খ",
      "নও</w>"
    ],
    [
      "দ",
      "িয়ে</w>"
    ],
    [
      "উ",
      "ই"
    ],
    [
      "ব",
      "হ"
    ],
    [
      "ান",
      "ো</w>"
    ],
    [
      "ুক্ত",
      "</w>"
    ],
    [
      "প",
      "শ্চি"
    ],
    [
      "স",
      "দ"
    ],
    [
      "এ",
      "স"
    ],
    [
      "ষ",
      "ের</w>"
    ],
    [
      "েছ",
      "ে,</w>"
    ],
    [
      "ম",
      "ন্দি"
    ],
    [
      "র",
      "ক্ষ"
    ],
    [
      "প",
      "র্"
    ],
    [
      "উ",
      "দ"
    ],
    [
      "খু",
      "ব</w>"
    ],
    [
      "ম",
      "ি</w>"
    ],
    [
      "প্র",
      "কা"
    ],
    [
      "দেশ",
      "ের</w>"
    ],
    [
      "ন",
      "তু"
    ],
    [
      "র",
      "োগ"
    ],
    [
      "দি",
      "ন</w>"
    ],
    [
      "েছ",
      "েন</w>"
    ],
    [
      "আ",
      "র</w>"
    ],
    [
      "স্ট",
      "ে"
    ],
    [
      "থ",
      "ে</w>"
    ],
    [
      "উ",
      "ল্"
    ],
    [
      "ই",
      "ন"
    ],
    [
      "কে",
      "ন্দ্র"
    ],
    [
      "শ",
      "তা"
    ],
    [
      "শি",
      "ক্ষ"
    ],
    [
      "জা",
      "তীয়</w>"
    ],
    [
      "য",
      "ান।</w>"
    ],
    [
      "ব্",
      "রি"
    ],
    [
      "স্থ",
      "ান"
    ],
    [
      "ক",
      "ম</w>"
    ],
    [
      "অ",
      "থ"
    ],
    [
      "১",
      "৮"
    ],
    [
      "নতু",
      "ন</w>"
    ],
    [
      "খেল",
      "ো"
    ],
    [
      "শ",
      "ের</w>"
    ],
    [
      "ন্",
      "ট</w>"
    ],
    [
      "ণ্ড",
      "</w>"
    ],
    [
      "-",
      "র</w>"
    ],
    [
      "অভি",
      "ন"
    ],
    [
      "হ",
      "ন।</w>"
    ],
    [
      "পূর্",
      "ণ</w>"
    ],
    [
      "প",
      "ার্"
    ],
    [
      "তাঁ",
      "কে</w>"
    ],
    [
      "ে",
      "ও</w>"
    ],
    [
      "ল",
      "ু"
    ],
    [
      "এ",
      "লা"
    ],
    [
      "িক",
      "া</w>"
    ],
    [
      "েছিল",
      "</w>"
    ],
    [
      "ম",
      "হা"
    ],
    [
      "হ",
      "লে</w>"
    ],
    [
      "প্র",
      "ি"
    ],
    [
      "ৃ",
      "ত</w>"
    ],
    [
      "অথ",
      "বা</w>"
    ],
    [
      "ঐ",
      "তি"
    ],
    [
      "য়",
      "ার</w>"
    ],
    [
      "ছিল",
      "েন</w>"
    ],
    [
      "ম",
      "িল"
    ],
    [
      "ধ",
      "ু"
    ],
    [
      "থাক",
      "ে।</w>"
    ],
    [
      "ফ",
      "্"
    ],
    [
      "ক",
      "থা</w>"
    ],
    [
      "প্রতি",
      "ষ্ঠ"
    ],
    [
      "য়",
      "া"
    ],
    [
      "স্",
      "ট</w>"
    ],
    [
      "গুল",
      "িতে</w>"
    ],
    [
      "িয়",
      "ার</w>"
    ],
    [
      "দু",
      "টি</w>"
    ],
    [
      "কর",
      "ে,</w>"
    ],
    [
      "ম",
      "ারা</w>"
    ],
    [
      "অন",
      "্য"
    ],
    [
      "নি",
      "।</w>"
    ],
    [
      "স্ট",
      "্র"
    ],
    [
      "!",
      "</w>"
    ],
    [
      "ম্ব",
      "র</w>"
    ],
    [
      "স",
      "ী"
    ],
    [
      "ণ",
      "ি"
    ],
    [
      "পু",
      "ন"
    ],
    [
      "প",
      "ক্ষ"
    ],
    [
      "সং",
      "স্"
    ],
    [
      "দ্ধ",
      "ে</w>"
    ],
    [
      "বেশি",
      "র"
    ],
    [
      "ণ",
      "া</w>"
    ],
    [
      "েন",
      "া"
    ],
    [
      ",",
      "০"
    ],
    [
      "ম",
      "িত</w>"
    ],
    [
      "উ",
      "</w>"
    ],
    [
      "আ",
      "ন"
    ],
    [
      "১৯",
      "৮"
    ],
    [
      "ফ",
      "লে</w>"
    ],
    [
      "উল্",
      "লেখ"
    ],
    [
      "বা",
      "ই"
    ],
    [
      "মহ",
      "িল"
    ],
    [
      "চ",
      "িকি"
    ],
    [
      "অ",
      "ন্তর্"
    ],
    [
      "চিকি",
      "ৎ"
    ],
    [
      "ভ",
      "াল"
    ],
    [
      "ুল",
      "</w>"
    ],
    [
      "মৃ",
      "ত্য"
    ],
    [
      "এম",
      "ন</w>"
    ],
    [
      "মা",
      "ই"
    ],
    [
      "দে",
      "ওয়া</w>"
    ],
    [
      "পা",
      "দ"
    ],
    [
      "সঙ্গ",
      "ী"
    ],
    [
      "ার",
      "ি"
    ],
    [
      "ক",
      "ার্"
    ],
    [
      "ত",
      "খন</w>"
    ],
    [
      "তা",
      "কে</w>"
    ],
    [
      "ন",
      "দ"
    ],
    [
      "বল",
      "া</w>"
    ],
    [
      "ম",
      "।</w>"
    ],
    [
      "ভ",
      "ুক্ত</w>"
    ],
    [
      "নির্",
      "বা"
    ],
    [
      "ছো",
      "ট</w>"
    ],
    [
      "অবস্থ",
      "িত।</w>"
    ],
    [
      "চ",
      "না</w>"
    ],
    [
      "দ",
      "ো"
    ],
    [
      "দ",
      "শ"
    ],
    [
      "ন",
      "ী</w>"
    ],
    [
      "স",
      "্য"
    ],
    [
      "অর্থ",
      "</w>"
    ],
    [
      "জ",
      "ার</w>"
    ],
    [
      "খ্রিষ্ট",
      "া"
    ],
    [
      "অং",
      "শ</w>"
    ],
    [
      "মা",
      "ণ</w>"
    ],
    [
      "পার",
      "ে</w>"
    ],
    [
      "ব",
      "ের</w>"
    ],
    [
      "দে",
      "শ</w>"
    ],
    [
      "হ",
      "র"
    ],
    [
      "পর",
      "ী"
    ],
    [
      "িক",
      "ার</w>"
    ],
    [
      "ি",
      "নি</w>"
    ],
    [
      "দ",
      "া</w>"
    ],
    [
      "ক",
      "দের</w>"
    ],
    [
      "উ",
      "চ্চ"
    ],
    [
      "বা",
      "দ"
    ],
    [
      "ব",
      "স"
    ],
    [
      "রাজ",
      "্য</w>"
    ],
    [
      "রূ",
      "প"
    ],
    [
      "১৯",
      "৭"
    ],
    [
      "ল",
      "ার</w>"
    ],
    [
      "হ",
      "বে।</w>"
    ],
    [
      "অ",
      "ঞ্চল"
    ],
    [
      "ম",
      "ন</w>"
    ],
    [
      "অ",
      "ঞ্চ"
    ],
    [
      "ব্যক্ত",
      "ি"
    ],
    [
      "ধর",
      "নের</w>"
    ],
    [
      "ন",
      "্যা"
    ],
    [
      "ত",
      "্ম"
    ],
    [
      "র",
      ",</w>"
    ],
    [
      "সম",
      "স্ত</w>"
    ],
    [
      "ছ",
      "বি"
    ],
    [
      "ন",
      "িক</w>"
    ],
    [
      "র",
      "ও</w>"
    ],
    [
      "হি",
      "ন্দ"
    ],
    [
      "ধ",
      "রে</w>"
    ],
    [
      "দ্বি",
      "তীয়</w>"
    ],
    [
      "ম",
      "ুক্ত"
    ],
    [
      "ড়",
      "া</w>"
    ],
    [
      "ক",
      "র</w>"
    ],
    [
      "বা",
      "হি"
    ],
    [
      "না",
      "ম"
    ],
    [
      "গুরু",
      "ত্ব"
    ],
    [
      "ঁ",
      "চ"
    ],
    [
      "খেলো",
      "য়া"
    ],
    [
      "বর্ত",
      "ী</w>"
    ],
    [
      "য",
      "িনি</w>"
    ],
    [
      "ন",
      "টি</w>"
    ],
    [
      "বি",
      "ক্র"
    ],
    [
      "ত",
      "্যা"
    ],
    [
      "অং",
      "শ"
    ],
    [
      "জ",
      "ি</w>"
    ],
    [
      "সব",
      "চেয়ে</w>"
    ],
    [
      "গ",
      "ণ"
    ],
    [
      "ক্ষে",
      "ত্রে</w>"
    ],
    [
      "যুক্তরাষ্ট্র",
      "ের</w>"
    ],
    [
      "চে",
      "ষ্ট"
    ],
    [
      "জ",
      "ো"
    ],
    [
      "ম",
      "ার</w>"
    ],
    [
      "ক্র",
      "ি"
    ],
    [
      "প",
      "ের</w>"
    ],
    [
      "বেশির",
      "ভাগ</w>"
    ],
    [
      "ব",
      "ড়</w>"
    ],
    [
      "ম",
      "ার"
    ],
    [
      "য়",
      "ী</w>"
    ],
    [
      "ষ",
      "ে"
    ],
    [
      "প",
      "ৃ"
    ],
    [
      "অ",
      "তি"
    ],
    [
      "পূর্",
      "ব</w>"
    ],
    [
      "টি",
      "তে</w>"
    ],
    [
      "মি",
      "টার</w>"
    ],
    [
      "কয়ে",
      "কটি</w>"
    ],
    [
      "ান",
      "োর</w>"
    ],
    [
      "ত",
      "ো"
    ],
    [
      "উত্ত",
      "র</w>"
    ],
    [
      "বিদ",
      "্যাল"
    ],
    [
      "ও",
      "ঠ"
    ],
    [
      "না",
      "কে</w>"
    ],
    [
      "দ",
      "ূ"
    ],
    [
      "ত",
      "ে,</w>"
    ],
    [
      "বা",
      "ড়"
    ],
    [
      "স্",
      "ত্র"
    ],
    [
      "দ",
      "ল"
    ],
    [
      "জ",
      "ল"
    ],
    [
      "য়",
      "ের</w>"
    ],
    [
      "ান",
      "ি</w>"
    ],
    [
      "খেল",
      "া"
    ],
    [
      "শ",
      "ক্ত"
    ],
    [
      "অবস্থ",
      "িত</w>"
    ],
    [
      "আ",
      "ল"
    ],
    [
      "সা",
      "থে</w>"
    ],
    [
      "রা",
      "ম"
    ],
    [
      "প্",
      "ত</w>"
    ],
    [
      "গুল",
      "ো</w>"
    ],
    [
      "র্",
      "শ"
    ],
    [
      "না",
      "ম</w>"
    ],
    [
      "প্রতি",
      "যোগ"
    ],
    [
      "ব্যবহ",
      "ৃত</w>"
    ],
    [
      "ই",
      "ং"
    ],
    [
      "িল",
      "্"
    ],
    [
      "দে",
      "ব"
    ],
    [
      "ঘ",
      "ো"
    ],
    [
      "গ",
      "ের</w>"
    ],
    [
      "হ",
      "ওয়ার</w>"
    ],
    [
      "বি",
      "রু"
    ],
    [
      "ং",
      "শ</w>"
    ],
    [
      "স্",
      "তা"
    ],
    [
      "প্র",
      "ে"
    ],
    [
      "কর",
      "েছিল।</w>"
    ],
    [
      "চ",
      "্যা"
    ],
    [
      "প্র",
      "য়ো"
    ],
    [
      "হা",
      "স"
    ],
    [
      "ব",
      "র</w>"
    ],
    [
      "র",
      "ী"
    ],
    [
      "সম্পর্",
      "কে</w>"
    ],
    [
      "র্",
      "ঘ"
    ],
    [
      "ওয়",
      "ে"
    ],
    [
      "দ",
      "লের</w>"
    ],
    [
      "ন",
      "ো</w>"
    ],
    [
      "দ",
      "ৃ"
    ],
    [
      "পরি",
      "চি"
    ],
    [
      "ক্",
      "লা"
    ],
    [
      "স্থ",
      "া</w>"
    ],
    [
      "চলচ্চি",
      "ত্র</w>"
    ],
    [
      "শ",
      "্ব"
    ],
    [
      "পা",
      "ওয়া</w>"
    ],
    [
      "দ",
      "্য</w>"
    ],
    [
      "পার",
      "েন।</w>"
    ],
    [
      "ী",
      "ন"
    ],
    [
      "য়",
      "া</w>"
    ],
    [
      "ল",
      "ী"
    ],
    [
      "বি",
      "ধ"
    ],
    [
      "চ",
      "ার</w>"
    ],
    [
      "২০",
      "</w>"
    ],
    [
      "পরি",
      "বর্ত"
    ],
    [
      "শতা",
      "ব্দ"
    ],
    [
      "স্",
      "ক"
    ],
    [
      "স",
      "ব</w>"
    ],
    [
      "খেল",
      "া</w>"
    ],
    [
      "্য",
      "ু"
    ],
    [
      "গ্র",
      "ে"
    ],
    [
      "অভিন",
      "য়</w>"
    ],
    [
      "ভি",
      "ত্ত"
    ],
    [
      "দক্ষি",
      "ণ</w>"
    ],
    [
      "ফ",
      "েল"
    ],
    [
      "কা",
      "ছ"
    ],
    [
      "বিরু",
      "দ্ধে</w>"
    ],
    [
      "্ড",
      "</w>"
    ],
    [
      "ব্রি",
      "টি"
    ],
    [
      "মানু",
      "ষ</w>"
    ],
    [
      "প্রা",
      "চ"
    ],
    [
      "ঐতি",
      "হ"
    ],
    [
      "র",
      "য়"
    ],
    [
      "ফ",
      "ল"
    ],
    [
      "স",
      "মা"
    ],
    [
      "এ",
      "ন"
    ],
    [
      "বা",
      "ধ"
    ],
    [
      "সা",
      "ম্"
    ],
    [
      "হ",
      "ার"
    ],
    [
      "সা",
      "হা"
    ],
    [
      "ু",
      "য়ার"
    ],
    [
      "নি",
      "য়ে</w>"
    ],
    [
      "শ",
      "ই</w>"
    ],
    [
      "আ",
      "মা"
    ],
    [
      "সাহা",
      "য"
    ],
    [
      "আ",
      "র্"
    ],
    [
      "ৎ",
      "</w>"
    ],
    [
      "অ",
      "ফ</w>"
    ],
    [
      "ক্রা",
      "ন্ত</w>"
    ],
    [
      "প্রা",
      "য়"
    ],
    [
      "ছ",
      "ে।</w>"
    ],
    [
      "জন্",
      "ম"
    ],
    [
      "কর",
      "েছেন।</w>"
    ],
    [
      "য়",
      "ে"
    ],
    [
      "ই",
      "তি"
    ],
    [
      "উ",
      "ভ"
    ],
    [
      "ী",
      "রা</w>"
    ],
    [
      "চ",
      "ো"
    ],
    [
      "হ",
      "য়</w>"
    ],
    [
      "ি",
      "শ"
    ],
    [
      "ঠ",
      "া"
    ],
    [
      "ী",
      ",</w>"
    ],
    [
      "ফ",
      "্র"
    ],
    [
      "১৯",
      "৬"
    ],
    [
      "আপ",
      "নাকে</w>"
    ],
    [
      "বি",
      "ত</w>"
    ],
    [
      "ব",
      "র"
    ],
    [
      "তাঁ",
      "দের</w>"
    ],
    [
      "ক",
      "ল্প"
    ],
    [
      "পুর",
      "স্"
    ],
    [
      "ার",
      "ি</w>"
    ],
    [
      "ড়",
      "ে</w>"
    ],
    [
      "চি",
      "ত্র"
    ],
    [
      "গ",
      "ে</w>"
    ],
    [
      "সর",
      "কার"
    ],
    [
      "সা",
      "ম"
    ],
    [
      "ল",
      "ি</w>"
    ],
    [
      "যা",
      "য়।</w>"
    ],
    [
      "হ",
      "ত</w>"
    ],
    [
      "কর",
      "া"
    ],
    [
      "কর",
      "ণ</w>"
    ],
    [
      "ক",
      "িল"
    ],
    [
      "ড়",
      "</w>"
    ],
    [
      "ণ্ড",
      "ের</w>"
    ],
    [
      "বি",
      "ভাগ"
    ],
    [
      "প্রতিযোগ",
      "ি"
    ],
    [
      "দ",
      "িয়"
    ],
    [
      "স্",
      "প"
    ],
    [
      "১",
      "০"
    ],
    [
      "হা",
      "য়"
    ],
    [
      "এক",
      "টা</w>"
    ],
    [
      "ফ",
      "িল"
    ],
    [
      "দ",
      "ল</w>"
    ],
    [
      "ক",
      "খনও</w>"
    ],
    [
      "্য",
      "ে</w>"
    ],
    [
      "হ",
      "ার</w>"
    ],
    [
      "েল",
      "ি"
    ],
    [
      "সাল",
      "ে,</w>"
    ],
    [
      "সাধার",
      "ণ</w>"
    ],
    [
      "দি",
      "তে</w>"
    ],
    [
      "বৃ",
      "হ"
    ],
    [
      "ফু",
      "ট"
    ],
    [
      "ব্যা",
      "প"
    ],
    [
      "গ",
      "্"
    ],
    [
      "প",
      "ড়"
    ],
    [
      "বিশে",
      "ষ</w>"
    ],
    [
      "িক",
      "ভাবে</w>"
    ],
    [
      "জেল",
      "ার</w>"
    ],
    [
      "দ",
      "ার</w>"
    ],
    [
      "স",
      "ার</w>"
    ],
    [
      "গুল",
      "িকে</w>"
    ],
    [
      "ব্দ",
      "ে</w>"
    ],
    [
      "ত",
      "্য</w>"
    ],
    [
      "চেষ্ট",
      "া</w>"
    ],
    [
      "কর",
      "েছে।</w>"
    ],
    [
      "ম",
      "িক</w>"
    ],
    [
      "গুরুত্ব",
      "পূর্ণ</w>"
    ],
    [
      "েন",
      "ের</w>"
    ],
    [
      "বিশ",
      "্"
    ],
    [
      "ও",
      ",</w>"
    ],
    [
      "ভ",
      "ব"
    ],
    [
      "য",
      "ো"
    ],
    [
      "খু",
      "ঁ"
    ],
    [
      "স",
      "প্"
    ],
    [
      "কার",
      "্য"
    ],
    [
      "পরী",
      "ক্ষ"
    ],
    [
      "হ",
      "ু"
    ],
    [
      "ার",
      "ে"
    ],
    [
      "ী",
      "য়</w>"
    ],
    [
      "েছিল",
      "েন</w>"
    ],
    [
      "ভা",
      "ই"
    ],
    [
      "প্র",
      "ভা"
    ],
    [
      "উ",
      "দ্"
    ],
    [
      "ড়",
      "া"
    ],
    [
      "ব",
      "ারের</w>"
    ],
    [
      "পুর",
      "ু"
    ],
    [
      "সম্",
      "প্র"
    ],
    [
      "বর্",
      "ণ"
    ],
    [
      "দ্ব",
      "ী"
    ],
    [
      "এক",
      "ই</w>"
    ],
    [
      "ক",
      ",</w>"
    ],
    [
      "নির্",
      "দি"
    ],
    [
      "বৃ",
      "দ্ধ"
    ],
    [
      "করু",
      "ন।</w>"
    ],
    [
      "থ",
      "ি"
    ],
    [
      ",০",
      "০০</w>"
    ],
    [
      "কৃ",
      "ত</w>"
    ],
    [
      "অ",
      "্যাল"
    ],
    [
      "ন",
      "্য"
    ],
    [
      "চ্যা",
      "ম্প"
    ],
    [
      "চ",
      "রি"
    ],
    [
      "১",
      "৭"
    ],
    [
      "ধ",
      "ি"
    ],
    [
      "ভ",
      "ার</w>"
    ],
    [
      "জ",
      "ার্"
    ],
    [
      "মে",
      "র"
    ],
    [
      "আ",
      "ন্তর্"
    ],
    [
      "জ",
      "া</w>"
    ],
    [
      "প",
      "ণ"
    ],
    [
      "ক",
      "ম"
    ],
    [
      "ব",
      "ন্দ"
    ],
    [
      "প",
      "ুল"
    ],
    [
      "ান",
      "া</w>"
    ],
    [
      "কাল",
      "ীন</w>"
    ],
    [
      "ান",
      ",</w>"
    ],
    [
      "ব",
      "রা"
    ],
    [
      "শ",
      "ি</w>"
    ],
    [
      "োগ",
      "</w>"
    ],
    [
      "ট",
      "ার"
    ],
    [
      "চ",
      "লে</w>"
    ],
    [
      "স",
      "ভা"
    ],
    [
      "ড",
      "ি</w>"
    ],
    [
      "হ",
      "্"
    ],
    [
      "ট",
      "ু"
    ],
    [
      "ওয়",
      "ার্"
    ],
    [
      "কর",
      "েন,</w>"
    ],
    [
      "শহ",
      "র।</w>"
    ],
    [
      "মা",
      "ঝ"
    ],
    [
      "প্রদ",
      "ান</w>"
    ],
    [
      "আন্তর্",
      "জা"
    ],
    [
      "নির্দি",
      "ষ্ট</w>"
    ],
    [
      "বে",
      "ন</w>"
    ],
    [
      "দি",
      "য়ে</w>"
    ],
    [
      "ঞ্",
      "জা"
    ],
    [
      "স",
      "ুর"
    ],
    [
      "অন",
      "্য</w>"
    ],
    [
      "প্রতি",
      "টি</w>"
    ],
    [
      "জি",
      "নি"
    ],
    [
      "ষ",
      "ণা</w>"
    ],
    [
      "অন্তর্",
      "ভুক্ত</w>"
    ],
    [
      "স্থ",
      "ি"
    ],
    [
      "পশ্চি",
      "ম</w>"
    ],
    [
      "বন্ধ",
      "</w>"
    ],
    [
      "ন",
      "িক"
    ],
    [
      "দী",
      "র্ঘ"
    ],
    [
      "কিল",
      "ো"
    ],
    [
      "ত",
      "েন।</w>"
    ],
    [
      "প্রা",
      "ণ"
    ],
    [
      "ধর্",
      "ম"
    ],
    [
      "ই",
      "ড"
    ],
    [
      "যু",
      "দ্ধ"
    ],
    [
      "ত",
      "থ"
    ],
    [
      "স",
      ",</w>"
    ],
    [
      "স",
      "ার্"
    ],
    [
      "মুক্ত",
      "ি</w>"
    ],
    [
      "ম",
      "নো"
    ],
    [
      "খ",
      "্যা"
    ],
    [
      "প",
      "ি</w>"
    ],
    [
      "পা",
      "ঠ"
    ],
    [
      "পরি",
      "ষে"
    ],
    [
      "১",
      "৫"
    ],
    [
      "চ্যাম্প",
      "িয়"
    ],
    [
      "পরি",
      "চিত</w>"
    ],
    [
      "অ",
      "লি"
    ],
    [
      "প",
      "তি</w>"
    ],
    [
      "য",
      "দি"
    ],
    [
      "প্রকা",
      "শ</w>"
    ],
    [
      "১৯",
      "৫"
    ],
    [
      "ড়",
      "ি</w>"
    ],
    [
      "প্রায়",
      "শই</w>"
    ],
    [
      "না",
      "য়</w>"
    ],
    [
      "দে",
      "য়।</w>"
    ],
    [
      "সংখ",
      "্যা</w>"
    ],
    [
      "প্র",
      "ো"
    ],
    [
      "চ্",
      "ছে</w>"
    ],
    [
      "আন্তর্জা",
      "তিক</w>"
    ],
    [
      "উ",
      "দা"
    ],
    [
      "বয়",
      "সে</w>"
    ],
    [
      "মূল",
      "ক</w>"
    ],
    [
      "ষ্",
      "টি</w>"
    ],
    [
      "টা",
      "ই"
    ],
    [
      "ক",
      "ন"
    ],
    [
      "আ",
      "ক্রম"
    ],
    [
      "অনুষ্ঠ",
      "িত</w>"
    ],
    [
      "ত",
      "ে"
    ],
    [
      "নি",
      "জে"
    ],
    [
      "ম",
      "ন্ত্র"
    ],
    [
      "দ",
      "িক"
    ],
    [
      "বা",
      "দ</w>"
    ],
    [
      "মান",
      "ে</w>"
    ],
    [
      "এ",
      "ই"
    ],
    [
      "পৌ",
      "ঁ"
    ],
    [
      "লি",
      "খ"
    ],
    [
      "উত্ত",
      "র"
    ],
    [
      "প",
      "ে</w>"
    ],
    [
      "বে",
      "দ"
    ],
    [
      "ব",
      "ী"
    ],
    [
      "প",
      "্যা"
    ],
    [
      "দ",
      "িল্"
    ],
    [
      "এলা",
      "কা"
    ],
    [
      "০",
      "-এর</w>"
    ],
    [
      "সি",
      "ং"
    ],
    [
      "স্থ",
      "ান</w>"
    ],
    [
      "ত",
      "র</w>"
    ],
    [
      "যোগ",
      "্য</w>"
    ],
    [
      "ন্",
      "দ</w>"
    ],
    [
      "সাহায",
      "্য</w>"
    ],
    [
      "ভার",
      "তে</w>"
    ],
    [
      "মানু",
      "ষের</w>"
    ],
    [
      "বছ",
      "রের</w>"
    ],
    [
      "সর্",
      "ব"
    ],
    [
      "আ",
      "লা"
    ],
    [
      "অ",
      "ক্"
    ],
    [
      "ব্রিটি",
      "শ</w>"
    ],
    [
      "ড়",
      "ের</w>"
    ],
    [
      "বি",
      "র"
    ],
    [
      "শ",
      "া</w>"
    ],
    [
      "উ",
      "পা"
    ],
    [
      "হয়",
      "েছিল।</w>"
    ],
    [
      "উদা",
      "হর"
    ],
    [
      "স",
      "ফ"
    ],
    [
      "ক",
      "।</w>"
    ],
    [
      "হিন্দ",
      "ু</w>"
    ],
    [
      "ক্ষ",
      "ম"
    ],
    [
      "দেশ",
      "ে</w>"
    ],
    [
      "যা",
      "প"
    ],
    [
      "করেছিল",
      "েন</w>"
    ],
    [
      "ছা",
      "ড়া"
    ],
    [
      "টা",
      "কা</w>"
    ],
    [
      "দু",
      "ই</w>"
    ],
    [
      "প্রি",
      "য়</w>"
    ],
    [
      "গ্র",
      "ী"
    ],
    [
      "অলি",
      "ম্প"
    ],
    [
      "ন",
      "দী"
    ],
    [
      "গো",
      "ল"
    ],
    [
      "হয়",
      "েছিল</w>"
    ],
    [
      "বৃহ",
      "ত্ত"
    ],
    [
      "গো",
      "ষ্ঠ"
    ],
    [
      "স্",
      "তু"
    ],
    [
      "উ",
      "ঠ"
    ],
    [
      "প্র",
      "দেশের</w>"
    ],
    [
      "িয়",
      "ে"
    ],
    [
      "ব",
      "দ্ধ</w>"
    ],
    [
      "ভ",
      "ো"
    ],
    [
      "ত",
      "বে,</w>"
    ],
    [
      "র্থ",
      "</w>"
    ],
    [
      "ধ",
      "া"
    ],
    [
      "উল্লেখ",
      "</w>"
    ],
    [
      "স্থান",
      "ীয়</w>"
    ],
    [
      "বিশ্ব",
      "</w>"
    ],
    [
      "যদি",
      "ও</w>"
    ],
    [
      "জন",
      "্য"
    ],
    [
      "খ",
      "</w>"
    ],
    [
      "ি",
      "য়ে</w>"
    ],
    [
      "স্ট",
      "া"
    ],
    [
      "বিশে",
      "ষ"
    ],
    [
      "সম্প",
      "ূর্"
    ],
    [
      "সং",
      "স্থা"
    ],
    [
      "শু",
      "ধু"
    ],
    [
      "গ",
      "র"
    ],
    [
      "িয়",
      "ান</w>"
    ],
    [
      "ক্র",
      "ো"
    ],
    [
      "অভি",
      "নে"
    ],
    [
      "ম",
      "ী</w>"
    ],
    [
      "তা",
      "হলে</w>"
    ],
    [
      "ন",
      "ৃ"
    ],
    [
      "দা",
      "য়"
    ],
    [
      "হ",
      "বে</w>"
    ],
    [
      "ম",
      "ধ"
    ],
    [
      "-",
      "তে</w>"
    ],
    [
      "পাল",
      "ন</w>"
    ],
    [
      "মা",
      "সে</w>"
    ],
    [
      "া",
      "য়</w>"
    ],
    [
      "প্র",
      "চ"
    ],
    [
      "ি",
      "।</w>"
    ],
    [
      "াল",
      "ো"
    ],
    [
      "অ",
      "প"
    ],
    [
      "ন্",
      "স</w>"
    ],
    [
      "অঞ্চ",
      "লে</w>"
    ],
    [
      "শুধু",
      "মাত্র</w>"
    ],
    [
      "ভূ",
      "ম"
    ],
    [
      "শ",
      "ৈ"
    ],
    [
      "চ",
      "ের</w>"
    ],
    [
      "খ",
      "র"
    ],
    [
      "ম",
      ",</w>"
    ],
    [
      "মি",
      "নি"
    ],
    [
      "শ্র",
      "ে"
    ],
    [
      "ক্র",
      "ী"
    ],
    [
      "ি",
      ",</w>"
    ],
    [
      "পর",
      ",</w>"
    ],
    [
      "তী",
      "য়</w>"
    ],
    [
      "ন্ট",
      "ার"
    ],
    [
      "তা",
      "ই</w>"
    ],
    [
      "নিয়",
      "ন্ত্র"
    ],
    [
      "বি",
      "বে"
    ],
    [
      "দ্ধ",
      "া"
    ],
    [
      "১",
      "৬"
    ],
    [
      "জন",
      "ের</w>"
    ],
    [
      "নি",
      "জের</w>"
    ],
    [
      "রে",
      "খ"
    ],
    [
      "স",
      "েনা"
    ],
    [
      "যা",
      "ত্র"
    ],
    [
      "শ",
      "্য"
    ],
    [
      "প্রা",
      "থ"
    ],
    [
      "আ",
      "ক্রান্ত</w>"
    ],
    [
      "জ",
      "্"
    ],
    [
      "স্ব",
      "ী"
    ],
    [
      "থাক",
      "া</w>"
    ],
    [
      "উন্",
      "ন"
    ],
    [
      "স",
      "্য</w>"
    ],
    [
      "গ",
      "া</w>"
    ],
    [
      "পর",
      "ের</w>"
    ],
    [
      "খেল",
      "ার</w>"
    ],
    [
      "কাল",
      "ে</w>"
    ],
    [
      "ার্",
      "থ"
    ],
    [
      "নির্বা",
      "চ"
    ],
    [
      "পর",
      "্যা"
    ],
    [
      "কো",
      "ম্প"
    ],
    [
      "েছিল",
      ",</w>"
    ],
    [
      "ত",
      "র"
    ],
    [
      "ষ্",
      "টি"
    ],
    [
      "ান",
      "ী</w>"
    ],
    [
      "ম",
      "্যান"
    ],
    [
      "আ",
      "মের"
    ],
    [
      "না",
      ",</w>"
    ],
    [
      "ভার",
      "ত</w>"
    ],
    [
      "১৯",
      "৪"
    ],
    [
      "নি",
      "ত</w>"
    ],
    [
      "উ",
      "দ্ভ"
    ],
    [
      "এ",
      "টা</w>"
    ],
    [
      "ক",
      "ান"
    ],
    [
      "পরি",
      "বর্"
    ],
    [
      "দে",
      "ওয়া</w>"
    ],
    [
      "চ",
      "ে</w>"
    ],
    [
      "পর",
      "িক"
    ],
    [
      "ধ",
      "ি</w>"
    ],
    [
      "বা",
      "ঁ"
    ],
    [
      "স",
      "ৃ"
    ],
    [
      "নি",
      "শ্"
    ],
    [
      "খ্রিষ্টা",
      "ব্দে</w>"
    ],
    [
      "বি",
      "ক</w>"
    ],
    [
      "পৌ",
      "র"
    ],
    [
      "নি",
      "য়"
    ],
    [
      "অর্",
      "জন</w>"
    ],
    [
      "জন্ম",
      "গ্রহণ</w>"
    ],
    [
      "মা",
      "ত্র"
    ],
    [
      "বি",
      "জ"
    ],
    [
      "সম্",
      "ভাব"
    ],
    [
      "তি",
      "নটি</w>"
    ],
    [
      "ক",
      "ম্প"
    ],
    [
      "আ",
      "ত্ম"
    ],
    [
      "পরিক",
      "ল্প"
    ],
    [
      "ঠ",
      "িক</w>"
    ],
    [
      "যা",
      "তে</w>"
    ],
    [
      "ঞ্",
      "জ"
    ],
    [
      "ত্ত",
      "্ব"
    ],
    [
      "দ",
      "েন।</w>"
    ],
    [
      "শ",
      "ন"
    ],
    [
      "প্র",
      "জা"
    ],
    [
      "২০",
      "২"
    ],
    [
      "সপ্",
      "তা"
    ],
    [
      "িক",
      "ে"
    ],
    [
      "মো",
      "ট</w>"
    ],
    [
      "ণ",
      "।</w>"
    ],
    [
      "ী",
      "।</w>"
    ],
    [
      "খ",
      "ো"
    ],
    [
      "ষ্ঠ",
      "</w>"
    ],
    [
      "অনু",
      "সার"
    ],
    [
      "কিলো",
      "মিটার</w>"
    ],
    [
      "ুল",
      "া"
    ],
    [
      "স",
      "হায়"
    ],
    [
      "ৈ",
      "তিক</w>"
    ],
    [
      "ছিল",
      ",</w>"
    ],
    [
      "জ",
      "ৈ"
    ],
    [
      ".",
      "</w>"
    ],
    [
      "দ",
      "ার"
    ],
    [
      "না",
      "মে"
    ],
    [
      "সম",
      "য়</w>"
    ],
    [
      "দ্র",
      "ু"
    ],
    [
      "ব",
      "ং"
    ],
    [
      "যা",
      "য়</w>"
    ],
    [
      "যে",
      "মন</w>"
    ],
    [
      "মধ",
      "্য</w>"
    ],
    [
      "ড",
      "ের</w>"
    ],
    [
      "ট",
      "ন</w>"
    ],
    [
      "থাক",
      "তে</w>"
    ],
    [
      "হ",
      "্যা"
    ],
    [
      "জন",
      "প্রিয়</w>"
    ],
    [
      "না",
      "ট"
    ],
    [
      "ক্ষে",
      "ত্র"
    ],
    [
      "এ",
      "টিকে</w>"
    ],
    [
      "শহ",
      "র"
    ],
    [
      "সর্",
      "বো"
    ],
    [
      "জ",
      "ার"
    ],
    [
      "হ",
      "ত্য"
    ],
    [
      "কর",
      "েছেন</w>"
    ],
    [
      "বিশ্ব",
      "বিদ্যাল"
    ],
    [
      "পু",
      "র</w>"
    ],
    [
      "টি",
      "ং</w>"
    ],
    [
      "ড",
      "ো"
    ],
    [
      "ঐতিহ",
      "্য"
    ],
    [
      "লো",
      "ক"
    ],
    [
      "ফো",
      "র্"
    ],
    [
      "হ",
      "চ্ছে</w>"
    ],
    [
      "সম",
      "র্থ"
    ],
    [
      "প",
      "রাজ"
    ],
    [
      ";",
      "</w>"
    ],
    [
      "য়",
      "া</w>"
    ],
    [
      "শহ",
      "র</w>"
    ],
    [
      "য",
      "ারা</w>"
    ],
    [
      "ক",
      "ৌ"
    ],
    [
      "শহ",
      "রের</w>"
    ],
    [
      "ি",
      "উ"
    ],
    [
      "পা",
      "হা"
    ],
    [
      "রাজ",
      "া</w>"
    ],
    [
      "দি",
      "নের</w>"
    ],
    [
      "জি",
      "ত"
    ],
    [
      "ট",
      "্রা"
    ],
    [
      "ভাল",
      "ো</w>"
    ],
    [
      "১৯",
      "</w>"
    ],
    [
      "্য",
      "ার</w>"
    ],
    [
      "্য",
      "ার"
    ],
    [
      "ম",
      "ারা"
    ],
    [
      "স",
      "্যা"
    ],
    [
      "ন্",
      "দু"
    ],
    [
      "ফ",
      "্রা"
    ],
    [
      "নদ",
      "ীর</w>"
    ],
    [
      "আন",
      "ু"
    ],
    [
      "অ",
      "স্ট্র"
    ],
    [
      "আ",
      "দ"
    ],
    [
      "কো",
      "টি</w>"
    ],
    [
      "রয়",
      "েছে,</w>"
    ],
    [
      "ইউ",
      "রো"
    ],
    [
      "াল",
      "ি"
    ],
    [
      "ষ",
      "ে</w>"
    ],
    [
      "িক",
      "্"
    ],
    [
      "এ",
      "ল"
    ],
    [
      "রে",
      "কর"
    ],
    [
      "ক্",
      "স</w>"
    ],
    [
      "কা",
      "উন্"
    ],
    [
      "এ",
      "ফ"
    ],
    [
      "মৃত্য",
      "ুর</w>"
    ],
    [
      "পা",
      "ত</w>"
    ],
    [
      "আ",
      "ঘা"
    ],
    [
      "ঘো",
      "ষণা</w>"
    ],
    [
      "গ",
      "ান</w>"
    ],
    [
      "ন",
      "শি"
    ],
    [
      "তা",
      "য়</w>"
    ],
    [
      "নির্",
      "মিত</w>"
    ],
    [
      "ফি",
      "রে</w>"
    ],
    [
      "’",
      "</w>"
    ],
    [
      "উৎ",
      "সব"
    ],
    [
      "সি",
      "দ্ধা"
    ],
    [
      "পরিচি",
      "ত।</w>"
    ],
    [
      "টি",
      "।</w>"
    ],
    [
      "স্থাপ",
      "ন</w>"
    ],
    [
      "ণ",
      "্"
    ],
    [
      "বৃদ্ধ",
      "ি</w>"
    ],
    [
      "ক",
      "ল"
    ],
    [
      "১",
      "২"
    ],
    [
      "ই",
      "।</w>"
    ],
    [
      "েল",
      "ে</w>"
    ],
    [
      "জ",
      "্ব"
    ],
    [
      "ব",
      "েন।</w>"
    ],
    [
      "প্রকা",
      "শ"
    ],
    [
      "নিশ্",
      "চিত</w>"
    ],
    [
      "সে",
      "খানে</w>"
    ],
    [
      "নির্",
      "ভ"
    ],
    [
      "মূ",
      "ল</w>"
    ],
    [
      "তাঁ",
      "রা</w>"
    ],
    [
      "পে",
      "য়"
    ],
    [
      "গি",
      "য়"
    ],
    [
      "তার",
      "পর</w>"
    ],
    [
      "অনু",
      "যা"
    ],
    [
      "কম্প",
      "িউ"
    ],
    [
      "ন্",
      "টি"
    ],
    [
      "সঙ্গী",
      "ত</w>"
    ],
    [
      "হ",
      "্র"
    ],
    [
      "েল",
      "ের</w>"
    ],
    [
      "প",
      "ড়"
    ],
    [
      "রা",
      "জন"
    ],
    [
      "পা",
      "শা"
    ],
    [
      "কি",
      "ং"
    ],
    [
      "ু",
      "ঁ"
    ],
    [
      "উদ",
      "যাপ"
    ],
    [
      "চি",
      "হ্"
    ],
    [
      "এক",
      "া"
    ],
    [
      "সম",
      "য়"
    ],
    [
      "চিকিৎ",
      "সা</w>"
    ],
    [
      "পক্ষ",
      "ে</w>"
    ],
    [
      "শী",
      "ল"
    ],
    [
      "ফুট",
      "বল</w>"
    ],
    [
      "সে",
      "প্"
    ],
    [
      "কার",
      "ের</w>"
    ],
    [
      "ব্",
      "রা"
    ],
    [
      "পাশা",
      "পা"
    ],
    [
      "এক",
      "্"
    ],
    [
      "নদ",
      "ী</w>"
    ],
    [
      "প",
      "দ্ধ"
    ],
    [
      "প্রতি",
      "নি"
    ],
    [
      "এ",
      "র"
    ],
    [
      "ধ",
      "্ব"
    ],
    [
      "১",
      "০</w>"
    ],
    [
      "পর",
      "বর্তী</w>"
    ],
    [
      "ন্",
      "স"
    ],
    [
      "হ",
      "িত</w>"
    ],
    [
      "পুরস্",
      "কার</w>"
    ],
    [
      "ব্",
      "দের</w>"
    ],
    [
      "খেলোয়া",
      "ড়"
    ],
    [
      "গ",
      "বে"
    ],
    [
      "উৎ",
      "পাদ"
    ],
    [
      "অ",
      "ভ"
    ],
    [
      "ন্",
      "ড</w>"
    ],
    [
      "ছ",
      "ে"
    ],
    [
      "খুঁ",
      "জে</w>"
    ],
    [
      "ন",
      "ভে"
    ],
    [
      "বি",
      "জ্ঞ"
    ],
    [
      "স্বা",
      "ধ"
    ],
    [
      "বর্ত",
      "মান</w>"
    ],
    [
      "রূপ",
      ",</w>"
    ],
    [
      "ত",
      "ভাবে</w>"
    ],
    [
      "এ",
      "গুলি</w>"
    ],
    [
      "পরিবর্ত",
      "ন</w>"
    ],
    [
      "এ",
      "খন</w>"
    ],
    [
      "য়",
      "ো"
    ],
    [
      "য়",
      ",</w>"
    ],
    [
      "ই",
      "ন</w>"
    ],
    [
      "সে",
      "রা</w>"
    ],
    [
      "ব",
      "াল"
    ],
    [
      "ডি",
      "সে"
    ],
    [
      "অতি",
      "রি"
    ],
    [
      "এ",
      "শ"
    ],
    [
      "পো",
      "র্"
    ],
    [
      "তি",
      "তে</w>"
    ],
    [
      "গো",
      "ল</w>"
    ],
    [
      "যুদ্ধ",
      "ের</w>"
    ],
    [
      "সং",
      "ক্রম"
    ],
    [
      "ঙ্",
      "ক"
    ],
    [
      "পরিচাল",
      "িত</w>"
    ],
    [
      "চ্যাম্পিয়",
      "নশি"
    ],
    [
      "সর",
      "কার</w>"
    ],
    [
      "মর",
      "শু"
    ],
    [
      "আ",
      "রে"
    ],
    [
      "ি",
      "শ</w>"
    ],
    [
      "জ",
      "ল</w>"
    ],
    [
      "লা",
      "ভ</w>"
    ],
    [
      "অতিরি",
      "ক্ত</w>"
    ],
    [
      "নি",
      "উ"
    ],
    [
      "বাহ",
      "ী</w>"
    ],
    [
      "অস্ট্র",
      "েল"
    ],
    [
      "জা",
      "য়"
    ],
    [
      "জান",
      "ুয়ার"
    ],
    [
      "কাছ",
      "</w>"
    ],
    [
      "া",
      "দের</w>"
    ],
    [
      "তি",
      "ন</w>"
    ],
    [
      "্",
      "র</w>"
    ],
    [
      "গ্রা",
      "হ"
    ],
    [
      "হ",
      "ের</w>"
    ],
    [
      "এ",
      "প্র"
    ],
    [
      "হ",
      "ত।</w>"
    ],
    [
      "ক্",
      "স"
    ],
    [
      "গে",
      "ম"
    ],
    [
      "বৃহত্ত",
      "ম</w>"
    ],
    [
      "রি",
      "য়"
    ],
    [
      "পরিচাল",
      "না</w>"
    ],
    [
      "ক",
      "লা"
    ],
    [
      "আ",
      "র্থ"
    ],
    [
      "প",
      "ত্ত"
    ],
    [
      "বিক্র",
      "ি</w>"
    ],
    [
      "ত",
      "োল"
    ],
    [
      "ও",
      "পর</w>"
    ],
    [
      "সেপ্",
      "টে"
    ],
    [
      "ম",
      "েল"
    ],
    [
      "থা",
      "কে</w>"
    ],
    [
      "বাহ",
      "িত</w>"
    ],
    [
      "মু",
      "ঘ"
    ],
    [
      "-",
      "</w>"
    ],
    [
      "ত",
      "র্"
    ],
    [
      "ন",
      "ু"
    ],
    [
      "ই",
      ",</w>"
    ],
    [
      "হয়",
      "েছে</w>"
    ],
    [
      "নির্",
      "ধার"
    ],
    [
      "বি",
      "মান"
    ],
    [
      "প",
      "ূ"
    ],
    [
      "স",
      "ৈ"
    ],
    [
      "গঠ",
      "িত</w>"
    ],
    [
      "অন্য",
      "তম</w>"
    ],
    [
      "ঙ্গ",
      "</w>"
    ],
    [
      "অক্",
      "টো"
    ],
    [
      "স্ব",
      "রূপ,</w>"
    ],
    [
      "প্রতিষ্ঠ",
      "িত</w>"
    ],
    [
      "ম",
      "ৌ"
    ],
    [
      "সম্",
      "ভব"
    ],
    [
      "ক",
      "লে"
    ],
    [
      "হল",
      "ো</w>"
    ],
    [
      "লক্ষ",
      "</w>"
    ],
    [
      "সদ",
      "স্য</w>"
    ],
    [
      "ক",
      "মি"
    ],
    [
      "ষ্",
      "ণ"
    ],
    [
      "লা",
      "গ"
    ],
    [
      "স",
      "ন্"
    ],
    [
      "ক",
      "ী"
    ],
    [
      "ণি",
      "জ"
    ],
    [
      "িক",
      "ার"
    ],
    [
      "সর্বো",
      "চ্চ"
    ],
    [
      "য়",
      "ন</w>"
    ],
    [
      "পার",
      "ে,</w>"
    ],
    [
      "বা",
      "ণিজ"
    ],
    [
      "ক",
      "ঠ"
    ],
    [
      "চ",
      "র"
    ],
    [
      "অঞ্চল",
      "ের</w>"
    ],
    [
      "নি",
      "তে</w>"
    ],
    [
      "পরি",
      "ণত</w>"
    ],
    [
      "দেখ",
      "তে</w>"
    ],
    [
      "র",
      "ঙ"
    ],
    [
      "%",
      "</w>"
    ],
    [
      "ক",
      "াল</w>"
    ],
    [
      "ী",
      "তে</w>"
    ],
    [
      "আমা",
      "দের</w>"
    ],
    [
      "কে",
      "র"
    ],
    [
      "াল",
      "ী</w>"
    ],
    [
      "পরাজ",
      "িত</w>"
    ],
    [
      "ক",
      "্যাল"
    ],
    [
      "স",
      "ন্ধ"
    ],
    [
      "গ",
      "ান"
    ],
    [
      "রাজ",
      "ধ"
    ],
    [
      "স্",
      "কো"
    ],
    [
      "স্",
      "না"
    ],
    [
      "জ",
      "েন"
    ],
    [
      "স্ট",
      "ার</w>"
    ],
    [
      "প্রাথ",
      "মিক</w>"
    ],
    [
      "প্রধ",
      "ান"
    ],
    [
      "ক",
      "ভাবে</w>"
    ],
    [
      "দ",
      "িক</w>"
    ],
    [
      "ি",
      "ন</w>"
    ],
    [
      "মানু",
      "ষ"
    ],
    [
      "দা",
      "ঁ"
    ],
    [
      "ড়",
      "া</w>"
    ],
    [
      "উচ্চ",
      "</w>"
    ],
    [
      "শি",
      "শু"
    ],
    [
      "গি",
      "য়ে</w>"
    ],
    [
      "তথ",
      "্য</w>"
    ],
    [
      "১",
      "৪"
    ],
    [
      "লে",
      "ও</w>"
    ],
    [
      "য়",
      "ার</w>"
    ],
    [
      "সদ",
      "স্য"
    ],
    [
      "চলচ্চিত্র",
      "টি</w>"
    ],
    [
      "স",
      "ী</w>"
    ],
    [
      "র",
      "ক্ত"
    ],
    [
      "রাজ্য",
      "ে</w>"
    ],
    [
      "মু",
      "স"
    ],
    [
      "স্থ",
      "ার</w>"
    ],
    [
      "সম্পূর্",
      "ণ</w>"
    ],
    [
      "প্রয়ো",
      "জন"
    ],
    [
      "চ",
      "ুক্ত"
    ],
    [
      "ব্যব",
      "সা"
    ],
    [
      "জ",
      "ুলা"
    ],
    [
      "ন",
      "ীর</w>"
    ],
    [
      "এ",
      "খনও</w>"
    ],
    [
      "উদাহর",
      "ণ"
    ],
    [
      "বা",
      "ং"
    ],
    [
      "পাশাপা",
      "শি</w>"
    ],
    [
      "পৌঁ",
      "ছ"
    ],
    [
      "মার্",
      "চ</w>"
    ],
    [
      "ওয়",
      "া"
    ],
    [
      "তা",
      "ম"
    ],
    [
      "আ",
      "বার</w>"
    ],
    [
      "ন",
      "গ"
    ],
    [
      "ধ",
      "ের</w>"
    ],
    [
      "বিশ্ব",
      "ের</w>"
    ],
    [
      "ন্",
      "ত্র</w>"
    ],
    [
      "য",
      "ৌ"
    ],
    [
      "সেনা",
      "বাহি"
    ],
    [
      "জু",
      "ন</w>"
    ],
    [
      "দ্রু",
      "ত</w>"
    ],
    [
      "তৃ",
      "তীয়</w>"
    ],
    [
      "দ",
      "ে</w>"
    ],
    [
      "লি",
      "উ"
    ],
    [
      "ক",
      "ূ"
    ],
    [
      "ন",
      "কে</w>"
    ],
    [
      "জা",
      "য়"
    ],
    [
      "ী",
      "নে</w>"
    ],
    [
      "১",
      "৩"
    ],
    [
      "মহিল",
      "া</w>"
    ],
    [
      "যা",
      "ওয়ার</w>"
    ],
    [
      "চ",
      "ু"
    ],
    [
      "নি",
      "ম্"
    ],
    [
      "ঝ",
      "া"
    ],
    [
      "২০১",
      "০</w>"
    ],
    [
      "প্র",
      "যো"
    ],
    [
      "প্র",
      "ত্য"
    ],
    [
      "পরি",
      "বেশ"
    ],
    [
      "স",
      "র</w>"
    ],
    [
      "নে",
      "তৃ"
    ],
    [
      "স্",
      "টি"
    ],
    [
      "ঘ",
      "ু"
    ],
    [
      "স",
      "িল"
    ],
    [
      "চ্ছ",
      "ে।</w>"
    ],
    [
      "ষ",
      "ণ</w>"
    ],
    [
      "চ",
      "ার্"
    ],
    [
      "পর",
      "ে,</w>"
    ],
    [
      "তি",
      "ত</w>"
    ],
    [
      "হ",
      "ন</w>"
    ],
    [
      "মন্দি",
      "র</w>"
    ],
    [
      "ড",
      "ার</w>"
    ],
    [
      "িক",
      "ায়</w>"
    ],
    [
      "সর্বোচ্চ",
      "</w>"
    ],
    [
      "না",
      "ই"
    ],
    [
      "খ",
      "ে"
    ],
    [
      "বি",
      "খ্যা"
    ],
    [
      "সম",
      "য়ের</w>"
    ],
    [
      "২০১",
      "৪</w>"
    ],
    [
      "শি",
      "ষ্ট"
    ],
    [
      "ন্",
      "ন"
    ],
    [
      "ব্যব",
      "স্থা</w>"
    ],
    [
      "স",
      "েল"
    ],
    [
      "প্রাচ",
      "ীন</w>"
    ],
    [
      "দেখ",
      "ে</w>"
    ],
    [
      "রয়",
      "েছে।</w>"
    ],
    [
      "ক্ষ",
      "া"
    ],
    [
      "প্র",
      "শাস"
    ],
    [
      "পা",
      "য়।</w>"
    ],
    [
      "ই",
      "ন্টার"
    ],
    [
      "চলচ্চি",
      "ত্রে</w>"
    ],
    [
      "?",
      "</w>"
    ],
    [
      "নির্বা",
      "চিত</w>"
    ],
    [
      "সা",
      "ং"
    ],
    [
      "গঠ",
      "ন</w>"
    ],
    [
      "মা",
      "স</w>"
    ],
    [
      "সি",
      "রি"
    ],
    [
      "সী",
      "মা"
    ],
    [
      "বর্ত",
      "মানে</w>"
    ],
    [
      "কার",
      "ণ"
    ],
    [
      "ড়",
      "ি</w>"
    ],
    [
      "স্বা",
      "স্থ"
    ],
    [
      "ী",
      "কে</w>"
    ],
    [
      "ী",
      "র"
    ],
    [
      "২০",
      "২০</w>"
    ],
    [
      "গ",
      "র্"
    ],
    [
      "আ",
      "ট"
    ],
    [
      "হত্য",
      "া</w>"
    ],
    [
      "শী",
      "র্"
    ],
    [
      "ফে",
      "ব্র"
    ],
    [
      "গ",
      "ড়</w>"
    ],
    [
      "হ",
      "ওয়ার</w>"
    ],
    [
      "প্র",
      "ত্যা"
    ],
    [
      "দে",
      "ওয়ার</w>"
    ],
    [
      "ত্র",
      "ি"
    ],
    [
      "প্রয়ো",
      "জন</w>"
    ],
    [
      "স্",
      "তি"
    ],
    [
      "গ",
      "েছে।</w>"
    ],
    [
      "শতাব্দ",
      "ীর</w>"
    ],
    [
      "অ",
      "ফি"
    ],
    [
      "ইং",
      "রে"
    ],
    [
      "পর্",
      "ব"
    ],
    [
      "পে",
      "শা"
    ],
    [
      "ড়",
      "িয়ে</w>"
    ],
    [
      "বি",
      "স্ত"
    ],
    [
      "বহ",
      "ু</w>"
    ],
    [
      "বিশ্",
      "বাস</w>"
    ],
    [
      "পরি",
      "মা"
    ],
    [
      "ভ",
      "া</w>"
    ],
    [
      "দ",
      "র্শ"
    ],
    [
      "রা",
      "য়</w>"
    ],
    [
      "তুল",
      "নায়</w>"
    ],
    [
      "কো",
      "নো</w>"
    ],
    [
      "ু",
      "দ্র"
    ],
    [
      "ভিত্ত",
      "ি</w>"
    ],
    [
      "প্র",
      "শিক্ষ"
    ],
    [
      "রি",
      "র</w>"
    ],
    [
      "ভ",
      "ার্"
    ],
    [
      "করু",
      "ন</w>"
    ],
    [
      "কোম্প",
      "ান"
    ],
    [
      "মু",
      "দ্র"
    ],
    [
      "খ",
      "ারা"
    ],
    [
      ".এ",
      "স"
    ],
    [
      "ঝ",
      "ুঁ"
    ],
    [
      "জ",
      "রা"
    ],
    [
      "প",
      "রাম"
    ],
    [
      "জৈ",
      "ন</w>"
    ],
    [
      "বা",
      "য়"
    ],
    [
      "ওঠ",
      "ে।</w>"
    ],
    [
      "পরিষে",
      "বা</w>"
    ],
    [
      "ক",
      "েন"
    ],
    [
      "সং",
      "স্থা</w>"
    ],
    [
      "জীব",
      "ন</w>"
    ],
    [
      "হা",
      "ই"
    ],
    [
      "খ",
      "ান"
    ],
    [
      "হ",
      "্রা"
    ],
    [
      "সূ",
      "চ"
    ],
    [
      "কে",
      "উ</w>"
    ],
    [
      "শ্রে",
      "ণ"
    ],
    [
      "পূর্",
      "ব"
    ],
    [
      "জু",
      "ড়ে</w>"
    ],
    [
      "হল",
      "েন</w>"
    ],
    [
      "দে",
      "য়।</w>"
    ],
    [
      "বি",
      "ল"
    ],
    [
      "িক",
      "ান</w>"
    ],
    [
      "২০১",
      "৩</w>"
    ],
    [
      "বো",
      "র্"
    ],
    [
      "ইং",
      "ল্যা"
    ],
    [
      "চ",
      "তু"
    ],
    [
      "গ্রী",
      "ষ্"
    ],
    [
      "মূল",
      "ত</w>"
    ],
    [
      "সা",
      "মর"
    ],
    [
      "থাক",
      "ে,</w>"
    ],
    [
      "জ",
      "িক</w>"
    ],
    [
      "ভূ",
      "মি"
    ],
    [
      "জ",
      "িত</w>"
    ],
    [
      "সম্ভব",
      "ত</w>"
    ],
    [
      "শী",
      "ল</w>"
    ],
    [
      "নি",
      "উ</w>"
    ],
    [
      "কর",
      "ত।</w>"
    ],
    [
      "নৃ",
      "ত্য"
    ],
    [
      "সিদ্ধা",
      "ন্ত</w>"
    ],
    [
      "সম",
      "য়ে</w>"
    ],
    [
      "স",
      "ত্য"
    ],
    [
      "ই",
      "স"
    ],
    [
      "ক",
      "ানা"
    ],
    [
      "ক্ষ",
      "া</w>"
    ],
    [
      "অ",
      "ত্য"
    ],
    [
      "পরি",
      "বারের</w>"
    ],
    [
      "দ",
      "র"
    ],
    [
      "চলচ্চিত্র",
      "ের</w>"
    ],
    [
      "বা",
      "ন</w>"
    ],
    [
      "ভ",
      "ি</w>"
    ],
    [
      "েল",
      "ে"
    ],
    [
      "রি",
      "ত</w>"
    ],
    [
      "কৃ",
      "তিক</w>"
    ],
    [
      "প্",
      "ত"
    ],
    [
      "সর",
      "বরা"
    ],
    [
      "খ",
      "ের</w>"
    ],
    [
      "নি",
      "রা"
    ],
    [
      "জ",
      "য়"
    ],
    [
      "সামর",
      "িক</w>"
    ],
    [
      "কা",
      "শ"
    ],
    [
      "কৌ",
      "শ"
    ],
    [
      "অন",
      "ুর"
    ],
    [
      "কয়ে",
      "ক</w>"
    ],
    [
      "বি",
      "নিয়"
    ],
    [
      "াল",
      "ের</w>"
    ],
    [
      "হয়",
      "েছে।</w>"
    ],
    [
      "াল",
      "ে</w>"
    ],
    [
      "ন্",
      "দা"
    ],
    [
      "সম্প্র",
      "দা"
    ],
    [
      "করেছিল",
      "েন,</w>"
    ],
    [
      "প",
      "থ"
    ],
    [
      "িক",
      "ের</w>"
    ],
    [
      "অঞ্চ",
      "ল</w>"
    ],
    [
      "গ",
      "ল্প"
    ],
    [
      "২০১",
      "১</w>"
    ],
    [
      "পরি",
      "মাণ</w>"
    ],
    [
      "কৃ",
      "ষ"
    ],
    [
      "পুন",
      "র্"
    ],
    [
      "অধ",
      "ি"
    ],
    [
      "যোগ",
      "া"
    ],
    [
      "আর্থ",
      "িক</w>"
    ],
    [
      "পা",
      "থ"
    ],
    [
      "ট",
      "িক</w>"
    ],
    [
      "অনু",
      "ম"
    ],
    [
      "তা",
      "মিল"
    ],
    [
      "উদ্",
      "দেশ"
    ],
    [
      "জান",
      "া</w>"
    ],
    [
      "ব্যক্ত",
      "ি</w>"
    ],
    [
      "যা",
      "ন</w>"
    ],
    [
      "সহায়",
      "তা</w>"
    ],
    [
      "উভ",
      "য়</w>"
    ],
    [
      "নির্",
      "মাণ</w>"
    ],
    [
      "দক্ষি",
      "ণ"
    ],
    [
      "তাল",
      "িকা"
    ],
    [
      "দায়",
      "ি"
    ],
    [
      "আ",
      "ধু"
    ],
    [
      "রা",
      "স"
    ],
    [
      "সু",
      "বিধ"
    ],
    [
      "দ",
      "ৈ"
    ],
    [
      "মন্ত্র",
      "ী</w>"
    ],
    [
      "১৯",
      "৩"
    ],
    [
      "ব্যবহ",
      "ার"
    ],
    [
      "কর",
      "ছ"
    ],
    [
      "দি",
      "য়"
    ],
    [
      "ডি",
      "ও</w>"
    ],
    [
      "পুরু",
      "ষ"
    ],
    [
      "ব্",
      "দ</w>"
    ],
    [
      "গুল",
      "ি"
    ],
    [
      "ভ",
      "াল</w>"
    ],
    [
      "প্রতি",
      "রো"
    ],
    [
      "বিষ",
      "য়"
    ],
    [
      "কা",
      "উ"
    ],
    [
      "২০১",
      "২</w>"
    ],
    [
      "গা",
      "ছ"
    ],
    [
      "শ",
      "ং"
    ],
    [
      "জা",
      "প"
    ],
    [
      "এই",
      "চ"
    ],
    [
      "কে",
      "ই</w>"
    ],
    [
      "সি",
      "ং</w>"
    ],
    [
      "রাখ",
      "া</w>"
    ],
    [
      "য",
      "ন্ত্র"
    ],
    [
      "ঙ্",
      "ক</w>"
    ],
    [
      "সু",
      "ইড"
    ],
    [
      "উত্তর",
      "-"
    ],
    [
      "ক",
      "ী</w>"
    ],
    [
      "খেলোয়া",
      "ড়</w>"
    ],
    [
      "পা",
      "কি"
    ],
    [
      "উদাহরণ",
      "স্বরূপ,</w>"
    ],
    [
      "প্রচ",
      "ুর</w>"
    ],
    [
      "সরকার",
      "ি</w>"
    ],
    [
      "ক",
      "িত</w>"
    ],
    [
      "আ",
      "য়ো"
    ],
    [
      "থাক",
      "ার</w>"
    ],
    [
      "ক্র",
      "ে"
    ],
    [
      "া",
      ",</w>"
    ],
    [
      "খ",
      "ান</w>"
    ],
    [
      "প",
      "ত্র</w>"
    ],
    [
      "প্রদ",
      "র্শ"
    ],
    [
      "অধ",
      "ীনে</w>"
    ],
    [
      "স",
      "ন</w>"
    ],
    [
      "৫",
      "০</w>"
    ],
    [
      "ত",
      "ন</w>"
    ],
    [
      "ড",
      "ল"
    ],
    [
      "খ",
      "ন"
    ],
    [
      "স",
      "ভার</w>"
    ],
    [
      "শ",
      "ব্দ"
    ],
    [
      "পরিকল্প",
      "না</w>"
    ],
    [
      "ো",
      "প"
    ],
    [
      "পা",
      "শে</w>"
    ],
    [
      "পি",
      "ছ"
    ],
    [
      "ইতি",
      "হা"
    ],
    [
      "পে",
      "তে</w>"
    ],
    [
      "এ",
      "খানে</w>"
    ],
    [
      "শ্র",
      "ী"
    ],
    [
      "মহিল",
      "াদের</w>"
    ],
    [
      "প্রভা",
      "বিত</w>"
    ],
    [
      "ভ",
      "ব</w>"
    ],
    [
      "ড়",
      "ার</w>"
    ],
    [
      "র্",
      "শ</w>"
    ],
    [
      "আ",
      "বি"
    ],
    [
      "মৃত্য",
      "ু</w>"
    ],
    [
      "পু",
      "ত্র</w>"
    ],
    [
      "ধ",
      "িক</w>"
    ],
    [
      "ব",
      "ন"
    ],
    [
      "খারা",
      "প</w>"
    ],
    [
      "মুঘ",
      "ল</w>"
    ],
    [
      "ণ্ড",
      "ে</w>"
    ],
    [
      "নে",
      "ট"
    ],
    [
      "গ",
      "ার</w>"
    ],
    [
      "শ",
      "ত"
    ],
    [
      "রাজধ",
      "ানী</w>"
    ],
    [
      "গ",
      "ৃ"
    ],
    [
      "া",
      "ম</w>"
    ],
    [
      "পা",
      "ঁচ"
    ],
    [
      "আ",
      "লো"
    ],
    [
      "গ্র",
      "ন্"
    ],
    [
      "ং",
      "স</w>"
    ],
    [
      "পৃ",
      "ষ্ঠ"
    ],
    [
      "সম",
      "ালো"
    ],
    [
      "দ",
      "খ"
    ],
    [
      "জুলা",
      "ই</w>"
    ],
    [
      "ন",
      "ার"
    ],
    [
      "ত",
      "্"
    ],
    [
      "এ",
      "তে</w>"
    ],
    [
      "২০১",
      "৭</w>"
    ],
    [
      "আঘা",
      "ত</w>"
    ],
    [
      "দি",
      "নে</w>"
    ],
    [
      "ট",
      "েলি"
    ],
    [
      "জল",
      "প্র"
    ],
    [
      "ন",
      "ক"
    ],
    [
      "এক",
      "মাত্র</w>"
    ],
    [
      "দ্র",
      "ো"
    ],
    [
      "ু",
      "ন</w>"
    ],
    [
      "বিমান",
      "বন্দ"
    ],
    [
      "ক",
      "ং"
    ],
    [
      "কর",
      "তেন।</w>"
    ],
    [
      "ফেব্র",
      "ুয়ার"
    ],
    [
      "র্",
      "শন</w>"
    ],
    [
      "বর্ণ",
      "না</w>"
    ],
    [
      "ল",
      "িক</w>"
    ],
    [
      "্যা",
      "ন</w>"
    ],
    [
      "স্থ",
      "</w>"
    ],
    [
      "আরে",
      "কটি</w>"
    ],
    [
      "খর",
      "চ</w>"
    ],
    [
      "স্থা",
      "য়ী</w>"
    ],
    [
      "চ",
      "ী"
    ],
    [
      "ম",
      "ন"
    ],
    [
      "মহ",
      "ারা"
    ],
    [
      "জন",
      "গণ"
    ],
    [
      "শ",
      "নের</w>"
    ],
    [
      "ত",
      "ু</w>"
    ],
    [
      "নির্",
      "মা"
    ],
    [
      "না",
      "ড়"
    ],
    [
      "শহ",
      "রে</w>"
    ],
    [
      "ছ",
      "বি</w>"
    ],
    [
      "নী",
      "ত</w>"
    ],
    [
      "গ্রা",
      "ম</w>"
    ],
    [
      "ষ্ঠ",
      "ান"
    ],
    [
      "যা",
      "ঁ"
    ],
    [
      "আ",
      "ব"
    ],
    [
      "লাই",
      "ন</w>"
    ],
    [
      "ব",
      "ৌ"
    ],
    [
      "ন",
      "য়।</w>"
    ],
    [
      "অত্য",
      "ন্ত</w>"
    ],
    [
      "বৈ",
      "শিষ্ট"
    ],
    [
      "ক্ষ",
      "</w>"
    ],
    [
      "বৃ",
      "ত্ত"
    ],
    [
      "ক্",
      "ট"
    ],
    [
      "সা",
      "ত"
    ],
    [
      "ু",
      ",</w>"
    ],
    [
      "পৃ",
      "থ"
    ],
    [
      "আধু",
      "নিক</w>"
    ],
    [
      "উ",
      "চি"
    ],
    [
      "চার",
      "টি</w>"
    ],
    [
      "গ",
      "ভ"
    ],
    [
      "২০১",
      "৮</w>"
    ],
    [
      "স",
      "িক</w>"
    ],
    [
      "প্রভা",
      "ব</w>"
    ],
    [
      "স",
      "েন"
    ],
    [
      "আস",
      "ে।</w>"
    ],
    [
      ".",
      "সি"
    ],
    [
      "ই",
      "য়"
    ],
    [
      "সে",
      "টা</w>"
    ],
    [
      "সা",
      "মা"
    ],
    [
      "ক্ষম",
      "তা</w>"
    ],
    [
      "ণ্ড",
      "ি"
    ],
    [
      "১",
      "১"
    ],
    [
      "সর্",
      "বাধ"
    ],
    [
      "প্",
      "লে"
    ],
    [
      "বার্",
      "ষ"
    ],
    [
      "০",
      "০"
    ],
    [
      "প্রতিনি",
      "ধি"
    ],
    [
      "চিহ্",
      "নিত</w>"
    ],
    [
      "সং",
      "রক্ষ"
    ],
    [
      "হয়",
      ",</w>"
    ],
    [
      "হয়",
      "েছিল,</w>"
    ],
    [
      "স",
      "ৌ"
    ],
    [
      "দূ",
      "রে</w>"
    ],
    [
      "ট",
      ",</w>"
    ],
    [
      "অং",
      "শে</w>"
    ],
    [
      "২০",
      "১৯</w>"
    ],
    [
      "এম",
      "ন"
    ],
    [
      "আক্রম",
      "ণ</w>"
    ],
    [
      "এপ্র",
      "িল</w>"
    ],
    [
      "স",
      "ন্ত"
    ],
    [
      "বাই",
      "রে</w>"
    ],
    [
      "পার",
      "ে"
    ],
    [
      "পরীক্ষ",
      "া</w>"
    ],
    [
      "প",
      "থ</w>"
    ],
    [
      "বার",
      "ে</w>"
    ],
    [
      "ষ",
      "া"
    ],
    [
      "কৃ",
      "তি</w>"
    ],
    [
      "ত",
      "েই</w>"
    ],
    [
      "ত",
      "ী</w>"
    ],
    [
      "মাত্র",
      "া</w>"
    ],
    [
      "প্র",
      "স্তু"
    ],
    [
      "রোগ",
      "</w>"
    ],
    [
      "তা",
      ",</w>"
    ],
    [
      "জিনি",
      "স"
    ],
    [
      "সা",
      "গ"
    ],
    [
      "ত্ব",
      "ের</w>"
    ],
    [
      "প্র",
      "স্তা"
    ],
    [
      "ুর",
      "ি</w>"
    ],
    [
      "ম",
      "ূর্"
    ],
    [
      "প",
      "ছ"
    ],
    [
      "চাল",
      "ু</w>"
    ],
    [
      "দ",
      "ান</w>"
    ],
    [
      "অধ",
      "িকা"
    ],
    [
      "প",
      "াল</w>"
    ],
    [
      "ও",
      "ষ"
    ],
    [
      "স্বাধ",
      "ীন"
    ],
    [
      "অনুম",
      "তি</w>"
    ],
    [
      "ন",
      "ৌ"
    ],
    [
      "গ্র",
      "হ</w>"
    ],
    [
      "বিবে",
      "চনা</w>"
    ],
    [
      "প্রথ",
      "ম"
    ],
    [
      "দুর্",
      "গ"
    ],
    [
      "ওষ",
      "ু"
    ],
    [
      "প্রকাশ",
      "িত</w>"
    ],
    [
      "ণ",
      ",</w>"
    ],
    [
      "বিখ্যা",
      "ত</w>"
    ],
    [
      "কর্",
      "তৃ"
    ],
    [
      "গ",
      "িয়ে</w>"
    ],
    [
      "প্রা",
      "প্ত</w>"
    ],
    [
      "মন্দি",
      "র"
    ],
    [
      "ত্র",
      "ের</w>"
    ],
    [
      "স্থ",
      "ানে</w>"
    ],
    [
      "সমর্থ",
      "ন</w>"
    ],
    [
      "প",
      "া</w>"
    ],
    [
      "যোগ",
      "্য"
    ],
    [
      "স",
      "।</w>"
    ],
    [
      "লো",
      "ক</w>"
    ],
    [
      "স",
      "ফ্"
    ],
    [
      "ফা",
      "ই"
    ],
    [
      "সর্বাধ",
      "িক</w>"
    ],
    [
      "গ্রা",
      "ম"
    ],
    [
      "পার",
      "েন</w>"
    ],
    [
      "েছ",
      "ে"
    ],
    [
      "ন্",
      "সের</w>"
    ],
    [
      "ভ",
      "ু"
    ],
    [
      "তা",
      "প"
    ],
    [
      "বি",
      "চ্ছ"
    ],
    [
      "রূ",
      "প</w>"
    ],
    [
      "পো",
      "শা"
    ],
    [
      "নে",
      "ই।</w>"
    ],
    [
      "ঐতিহ্য",
      "বাহী</w>"
    ],
    [
      "নির্ভ",
      "র</w>"
    ],
    [
      "হ",
      "ার্"
    ],
    [
      "হ",
      "ওয়া</w>"
    ],
    [
      "ঠ",
      "া</w>"
    ],
    [
      "প্র",
      "বেশ</w>"
    ],
    [
      "২০০",
      "৮</w>"
    ],
    [
      "চরি",
      "ত্রে</w>"
    ],
    [
      "শে",
      "ষে</w>"
    ],
    [
      "র",
      "ণ</w>"
    ],
    [
      "প্র",
      "কল্প"
    ],
    [
      "ম",
      "্ম"
    ],
    [
      "রা",
      "ধ"
    ],
    [
      "এ",
      "টির</w>"
    ],
    [
      "স",
      "্যা</w>"
    ],
    [
      "দ্বী",
      "প"
    ],
    [
      "জা",
      "হা"
    ],
    [
      "তামিল",
      "নাড়"
    ],
    [
      "শে",
      "ষের</w>"
    ],
    [
      "েন",
      "ে</w>"
    ],
    [
      "হ",
      "ওয়া</w>"
    ],
    [
      "আ",
      "ছে।</w>"
    ],
    [
      "ন্ত",
      "রিত</w>"
    ],
    [
      "র",
      "‍"
    ],
    [
      "্য",
      "ারি"
    ],
    [
      "ওয়ে",
      "ব"
    ],
    [
      "কা",
      "টা</w>"
    ],
    [
      "উল্লেখ",
      "যোগ্য</w>"
    ],
    [
      "স",
      "ত্ত্ব"
    ],
    [
      "পা",
      "ওয়া</w>"
    ],
    [
      "দশ",
      "কে</w>"
    ],
    [
      "কিছ",
      "ু"
    ],
    [
      "দো",
      "ক"
    ],
    [
      "রাষ্ট্র",
      "পতি</w>"
    ],
    [
      "স্বা",
      "ভা"
    ],
    [
      "আগ",
      "স্ট</w>"
    ],
    [
      "প্রতি",
      "দ্ব"
    ],
    [
      "ভাষ",
      "া"
    ],
    [
      "বি",
      "কল্প"
    ],
    [
      "জ",
      "্যা"
    ],
    [
      "কর",
      "বে।</w>"
    ],
    [
      "রাখ",
      "তে</w>"
    ],
    [
      "বা",
      "হ</w>"
    ],
    [
      "কে",
      "বল</w>"
    ],
    [
      "যা",
      "ওয়ার</w>"
    ],
    [
      "জার্",
      "মান"
    ],
    [
      "জ",
      "লের</w>"
    ],
    [
      "দক্ষিণ",
      "-"
    ],
    [
      "রাজন",
      "ৈতিক</w>"
    ],
    [
      "স্বী",
      "কার</w>"
    ],
    [
      "রেকর",
      "্ড</w>"
    ],
    [
      "হ্রা",
      "স</w>"
    ],
    [
      "েছ",
      "েন,</w>"
    ],
    [
      "হ",
      "ে</w>"
    ],
    [
      "মি",
      "শ্র"
    ],
    [
      "ত",
      "েও</w>"
    ],
    [
      "উৎ",
      "সব</w>"
    ],
    [
      "ড",
      "ে</w>"
    ],
    [
      "সফ",
      "ল</w>"
    ],
    [
      "য়",
      "ী</w>"
    ],
    [
      "ভাষ",
      "া</w>"
    ],
    [
      "ঐতি",
      "হাস"
    ],
    [
      "ছ",
      "ু"
    ],
    [
      "যে",
      "টি</w>"
    ],
    [
      "সৃ",
      "ষ্টি</w>"
    ],
    [
      "শী",
      "ত"
    ],
    [
      "স",
      "ক্ষ"
    ],
    [
      "গ্রীষ্",
      "ম"
    ],
    [
      "রা",
      "ই"
    ],
    [
      "গ",
      "ার"
    ],
    [
      "রি",
      "য়ে</w>"
    ],
    [
      "পা",
      "ন</w>"
    ],
    [
      "বিভাগ",
      "ের</w>"
    ],
    [
      "রাখ",
      "ার</w>"
    ],
    [
      "ব",
      "য়"
    ],
    [
      "স্থ",
      "িত</w>"
    ],
    [
      "গবে",
      "ষ"
    ],
    [
      "সম",
      "ুদ্র"
    ],
    [
      "জন",
      "সংখ্যা</w>"
    ],
    [
      "স্ট্র",
      "ো"
    ],
    [
      "দীর্ঘ",
      "</w>"
    ],
    [
      "েছিল",
      "েন,</w>"
    ],
    [
      "শক্ত",
      "িশ"
    ],
    [
      "হি",
      "ন্দু"
    ],
    [
      "হা",
      "জার</w>"
    ],
    [
      "বি",
      "দ্রো"
    ],
    [
      ")",
      ",</w>"
    ],
    [
      "সে",
      "ন</w>"
    ],
    [
      "স্",
      "কে"
    ],
    [
      "কি",
      "ন"
    ],
    [
      "চ",
      "ক</w>"
    ],
    [
      "ন",
      "র"
    ],
    [
      "দি",
      "ন"
    ],
    [
      "-",
      "কে</w>"
    ],
    [
      "অ",
      "্যান"
    ],
    [
      ")",
      "।</w>"
    ],
    [
      "এক্",
      "স"
    ],
    [
      "কম্পিউ",
      "টার</w>"
    ],
    [
      "সম",
      "্ম"
    ],
    [
      "আ",
      "ধ"
    ],
    [
      "চা",
      "ই"
    ],
    [
      "ব্যাপ",
      "ী</w>"
    ],
    [
      "প্র",
      "চল"
    ],
    [
      "উ",
      "পাদ"
    ],
    [
      "পরিবর্",
      "তে</w>"
    ],
    [
      "ব",
      "্য</w>"
    ],
    [
      "ট",
      "ার্"
    ],
    [
      "গ",
      "ানের</w>"
    ],
    [
      "ভ",
      "ক্ত"
    ],
    [
      "গ",
      "ী"
    ],
    [
      "২০১",
      "৬</w>"
    ],
    [
      "জ্ঞ",
      "া"
    ],
    [
      "ট",
      "্যা"
    ],
    [
      "সামা",
      "জিক</w>"
    ],
    [
      "স্",
      "ব</w>"
    ],
    [
      "ব",
      "ান"
    ],
    [
      "সুইড",
      "েনের</w>"
    ],
    [
      "গু",
      "জরা"
    ],
    [
      "করা",
      "।</w>"
    ],
    [
      "ঘট",
      "ে।</w>"
    ],
    [
      "লক্ষ",
      "্য</w>"
    ],
    [
      "কেন্দ্র",
      "</w>"
    ],
    [
      "ক",
      "েনা"
    ],
    [
      "শ",
      "ু</w>"
    ],
    [
      "এলা",
      "কা</w>"
    ],
    [
      "পুল",
      "িশ</w>"
    ],
    [
      "উদ",
      "্যান"
    ],
    [
      "্র",
      "ো"
    ],
    [
      "শক্ত",
      "ি</w>"
    ],
    [
      "দায়ি",
      "ত্ব</w>"
    ],
    [
      "ক্র",
      "িয়া"
    ],
    [
      "চে",
      "য়ে</w>"
    ],
    [
      "কং",
      "গ্রে"
    ],
    [
      "স",
      "ুল"
    ],
    [
      "ী",
      "য়"
    ],
    [
      "ম্ব",
      "রে</w>"
    ],
    [
      "আ",
      "য়"
    ],
    [
      "তা",
      "ন</w>"
    ],
    [
      "কো",
      "ন</w>"
    ],
    [
      "অনুসার",
      "ে,</w>"
    ],
    [
      "নিয়ন্ত্র",
      "ণ</w>"
    ],
    [
      "ধ",
      "ী"
    ],
    [
      "দা",
      "বি</w>"
    ],
    [
      "নভে",
      "ম্বর</w>"
    ],
    [
      "ব",
      "ই</w>"
    ],
    [
      "স",
      "ড়"
    ],
    [
      "হ",
      "চ্ছে।</w>"
    ],
    [
      "শ",
      "ূ"
    ],
    [
      "প্র",
      "ার্থ"
    ],
    [
      "সম",
      "স্যা</w>"
    ],
    [
      "উপ",
      "কূ"
    ],
    [
      "আনু",
      "ষ্ঠান"
    ],
    [
      "ল",
      "ব্"
    ],
    [
      "র‍",
      "্যা"
    ],
    [
      "মূল",
      "্য</w>"
    ],
    [
      "ন্",
      "তে</w>"
    ],
    [
      "ন্ট",
      "ের</w>"
    ],
    [
      "ভা",
      "বে,</w>"
    ],
    [
      "কা",
      "জের</w>"
    ],
    [
      "সংখ",
      "্যা"
    ],
    [
      "ান",
      "ার</w>"
    ],
    [
      "আই",
      "."
    ],
    [
      "জীব",
      "নের</w>"
    ],
    [
      "ডি",
      "গ্র"
    ],
    [
      "ওয়েব",
      "সাই"
    ],
    [
      "২০১",
      "৫</w>"
    ],
    [
      "সেপ্টে",
      "ম্বর</w>"
    ],
    [
      "াল",
      "্"
    ],
    [
      "ডিসে",
      "ম্বর</w>"
    ],
    [
      "প",
      "েন"
    ],
    [
      "পেশা",
      "দার</w>"
    ],
    [
      "গ",
      "ড়ে</w>"
    ],
    [
      "ব্যক্ত",
      "ির</w>"
    ],
    [
      "সাম্",
      "রাজ্যের</w>"
    ],
    [
      "ভূ",
      "মি</w>"
    ],
    [
      "পুরু",
      "ষ</w>"
    ],
    [
      "জন",
      "ক</w>"
    ],
    [
      "পদ",
      "ক</w>"
    ],
    [
      "যু",
      "দ্ধ</w>"
    ],
    [
      "সরকার",
      "ের</w>"
    ],
    [
      "পূর্",
      "বে</w>"
    ],
    [
      "ক্ষ",
      "ণ</w>"
    ],
    [
      "লো",
      "কে"
    ],
    [
      "ফো",
      "ন</w>"
    ],
    [
      "ক্র",
      "িকে"
    ],
    [
      "কা",
      "জ"
    ],
    [
      "ক",
      "কে</w>"
    ],
    [
      "কর্",
      "ণা"
    ],
    [
      "এ",
      "ছাড়া"
    ],
    [
      "ট",
      "স</w>"
    ],
    [
      "বিদ",
      "্যু"
    ],
    [
      "অব",
      "শ্য"
    ],
    [
      "ই",
      "ন্ড"
    ],
    [
      "ন",
      "্য</w>"
    ],
    [
      "ক্র",
      "ম</w>"
    ],
    [
      "কো",
      "র্"
    ],
    [
      "বস",
      "বাস</w>"
    ],
    [
      "বি",
      "রো"
    ],
    [
      "অ",
      "গ্র"
    ],
    [
      "তাম",
      "িল</w>"
    ],
    [
      "ঞ্",
      "জ</w>"
    ],
    [
      "অলিম্প",
      "িক</w>"
    ],
    [
      "শ",
      "রী"
    ],
    [
      "প্র",
      "বাহিত</w>"
    ],
    [
      "বে",
      "ল"
    ],
    [
      "প্র",
      "দেশ</w>"
    ],
    [
      "প",
      "দ</w>"
    ],
    [
      "ন",
      "ব"
    ],
    [
      "শিল্প",
      "</w>"
    ],
    [
      "স",
      "ারা</w>"
    ],
    [
      "৩",
      "০</w>"
    ],
    [
      "।",
      "\"</w>"
    ],
    [
      "তার",
      "ি"
    ],
    [
      "অক্টো",
      "বর</w>"
    ],
    [
      "পুর",
      "ের</w>"
    ],
    [
      "অনুষ্ঠ",
      "ান</w>"
    ],
    [
      "ব্যক্তি",
      "দের</w>"
    ],
    [
      "শি",
      "ষ্ট</w>"
    ],
    [
      "কে",
      "ল</w>"
    ],
    [
      "ড",
      "্রা"
    ],
    [
      "ফ",
      "র্"
    ],
    [
      "বাড়",
      "িতে</w>"
    ],
    [
      "ড",
      "লার</w>"
    ],
    [
      "াল",
      "া</w>"
    ],
    [
      "বার্ষ",
      "িক</w>"
    ],
    [
      "ল",
      "ির</w>"
    ],
    [
      "ল",
      "ড়া"
    ],
    [
      "আমা",
      "কে</w>"
    ],
    [
      "গুল",
      "ো"
    ],
    [
      "গ",
      "্যা"
    ],
    [
      "দে",
      "ওয়ার</w>"
    ],
    [
      "কা",
      "ন</w>"
    ],
    [
      "সা",
      "ন</w>"
    ],
    [
      "ঞ্",
      "জি"
    ],
    [
      "আই",
      "ন</w>"
    ],
    [
      "২০০",
      "৭</w>"
    ],
    [
      "একা",
      "ধিক</w>"
    ],
    [
      "সু",
      "ই"
    ],
    [
      "সম্পর্",
      "কিত</w>"
    ],
    [
      "গা",
      "ড়"
    ],
    [
      "এলাকা",
      "।</w>"
    ],
    [
      "ভাষ",
      "ায়</w>"
    ],
    [
      "স",
      "কে</w>"
    ],
    [
      "ঙ্গ",
      "া"
    ],
    [
      "গুল",
      "োর</w>"
    ],
    [
      "ব",
      "ড়</w>"
    ],
    [
      "সর",
      "ণ</w>"
    ],
    [
      "ক্রা",
      "ন্ত"
    ],
    [
      "াল",
      "া"
    ],
    [
      "টু",
      "র্"
    ],
    [
      "টুর্",
      "নামে"
    ],
    [
      "ব্যক্তি",
      "গত</w>"
    ],
    [
      "রোগ",
      "ের</w>"
    ],
    [
      "অভ",
      "্য"
    ],
    [
      "শক্তিশ",
      "ালী</w>"
    ],
    [
      "১",
      "২</w>"
    ],
    [
      "আলা",
      "দা</w>"
    ],
    [
      "খ",
      "োল"
    ],
    [
      "হিন্দ",
      "ি</w>"
    ],
    [
      "সরবরা",
      "হ</w>"
    ],
    [
      "দ",
      "ৌ"
    ],
    [
      "নি",
      "জ"
    ],
    [
      "৩",
      "০"
    ],
    [
      "ি",
      "য়"
    ],
    [
      "কা",
      "ঠ"
    ],
    [
      "সাধার",
      "ণ"
    ],
    [
      "র",
      "কে</w>"
    ],
    [
      "চ",
      "লা"
    ],
    [
      "ম্যা",
      "চ</w>"
    ],
    [
      "সক্ষ",
      "ম</w>"
    ],
    [
      "মা",
      "ঠ"
    ],
    [
      "যুক্তরাষ্ট্র",
      "ে</w>"
    ],
    [
      "প্র",
      "শং"
    ],
    [
      "২০২",
      "১</w>"
    ],
    [
      "আ",
      "ফ্র"
    ],
    [
      "দে",
      "ন</w>"
    ],
    [
      "ভূ",
      "ত</w>"
    ],
    [
      "রক্ষ",
      "া</w>"
    ],
    [
      "বৃ",
      "ষ্টি"
    ],
    [
      "প্রত্য",
      "ে"
    ],
    [
      "ধর্ম",
      "ীয়</w>"
    ],
    [
      "ও",
      "ড়"
    ],
    [
      "শৈ",
      "ল"
    ],
    [
      "দখ",
      "ল</w>"
    ],
    [
      "রাজ",
      "</w>"
    ],
    [
      "ম",
      "তো"
    ],
    [
      "থা",
      "কা"
    ],
    [
      "পা",
      "ঁ"
    ],
    [
      "ব",
      "ন</w>"
    ],
    [
      "পুন",
      "রু"
    ],
    [
      "কর",
      "েছে</w>"
    ],
    [
      "কার",
      "ীদের</w>"
    ],
    [
      "জেল",
      "া</w>"
    ],
    [
      "ইউরো",
      "প"
    ],
    [
      "নির্",
      "দেশ</w>"
    ],
    [
      "ষ্",
      "কার</w>"
    ],
    [
      "ট",
      "ো</w>"
    ],
    [
      "পরি",
      "স্থি"
    ],
    [
      "পরাম",
      "র্শ</w>"
    ],
    [
      "ত",
      "েন</w>"
    ],
    [
      "হ",
      "্ম"
    ],
    [
      "জায়",
      "গা"
    ],
    [
      "খেলা",
      "টি</w>"
    ],
    [
      "ম্ব",
      "া</w>"
    ],
    [
      "পাকি",
      "স্ত"
    ],
    [
      "য়",
      "ক</w>"
    ],
    [
      "দশ",
      "কের</w>"
    ],
    [
      "ঘট",
      "না"
    ],
    [
      "ড",
      "ু"
    ],
    [
      "ত্ব",
      "ে</w>"
    ],
    [
      "খ্রিষ্টা",
      "ব্দের</w>"
    ],
    [
      "প্র",
      "িয়"
    ],
    [
      "বহ",
      "ন</w>"
    ],
    [
      "আম",
      "রা</w>"
    ],
    [
      "পৌর",
      "সভা"
    ],
    [
      "নামে",
      "ও</w>"
    ],
    [
      "রাজ",
      "বং"
    ],
    [
      "যা",
      "য়</w>"
    ],
    [
      "ক",
      "ে,</w>"
    ],
    [
      "ত",
      "ন্ত্র"
    ],
    [
      "ফা",
      "ইন"
    ],
    [
      "প্রা",
      "ক্ত"
    ],
    [
      "াল",
      "ি</w>"
    ],
    [
      "ক",
      "য়ে"
    ],
    [
      "উপ",
      "লব্"
    ],
    [
      "গ",
      "িয়"
    ],
    [
      "পা",
      "খ"
    ],
    [
      "ছ",
      "ি"
    ],
    [
      "কার",
      "া"
    ],
    [
      "ু",
      "তে</w>"
    ],
    [
      "চি",
      "ন্"
    ],
    [
      "আ",
      "শা</w>"
    ],
    [
      "উপ",
      "স্থিত</w>"
    ],
    [
      "পার",
      "ি"
    ],
    [
      "ড",
      "িয়া"
    ],
    [
      "দু",
      "'"
    ],
    [
      "অ",
      "ন্ত"
    ],
    [
      "প্রাক্ত",
      "ন</w>"
    ],
    [
      "উচি",
      "ত।</w>"
    ],
    [
      "ভা",
      "ব</w>"
    ],
    [
      "ব",
      "দ"
    ],
    [
      "কা",
      "ছা"
    ],
    [
      "কাছা",
      "কাছ"
    ],
    [
      "সং",
      "যুক্ত</w>"
    ],
    [
      "ড়",
      "িয়ে</w>"
    ],
    [
      "ক্",
      "লি"
    ],
    [
      "সংখ",
      "্যার</w>"
    ],
    [
      "গা",
      "ন্ধ"
    ],
    [
      "সা",
      "হি"
    ],
    [
      "টি",
      "উ"
    ],
    [
      "িয়",
      "ায়</w>"
    ],
    [
      "সং",
      "স্থার</w>"
    ],
    [
      "বল",
      "ের</w>"
    ],
    [
      "য়",
      "ার্"
    ],
    [
      "সে",
      "গুলি</w>"
    ],
    [
      "ঘট",
      "না</w>"
    ],
    [
      "২০০",
      "৯</w>"
    ],
    [
      "স্ট",
      "্রি"
    ],
    [
      "মান",
      "ের</w>"
    ],
    [
      "জ",
      "য়</w>"
    ],
    [
      "যু",
      "দ্ধে</w>"
    ],
    [
      "কি",
      "র</w>"
    ],
    [
      "প্রাচ",
      "ীন"
    ],
    [
      "পূর্",
      "বা"
    ],
    [
      "আ",
      "কর্"
    ],
    [
      "জ",
      "র্"
    ],
    [
      "২০০",
      "৬</w>"
    ],
    [
      "আ",
      "ছে</w>"
    ],
    [
      "অবশ্য",
      "ই</w>"
    ],
    [
      "দিক",
      "ে,</w>"
    ],
    [
      "বি",
      "স্"
    ],
    [
      "মি",
      "র</w>"
    ],
    [
      "হ",
      "া</w>"
    ],
    [
      "১৯",
      "২"
    ],
    [
      "প্রতিযোগি",
      "তা"
    ],
    [
      "মহারা",
      "ষ্ট"
    ],
    [
      "প্রচল",
      "িত</w>"
    ],
    [
      "জ",
      "ির</w>"
    ],
    [
      "হ",
      "কি</w>"
    ],
    [
      "ুল",
      "ে</w>"
    ],
    [
      "র",
      "ণ"
    ],
    [
      "পুরুষ",
      "দের</w>"
    ],
    [
      "বর্",
      "ধ"
    ],
    [
      "বি",
      "তা</w>"
    ],
    [
      "প্র",
      "মাণ</w>"
    ],
    [
      "বি",
      "বাহ"
    ],
    [
      "ফ",
      "রা"
    ],
    [
      "লেখ",
      "া</w>"
    ],
    [
      "এমন",
      "কি</w>"
    ],
    [
      "পণ",
      "্য</w>"
    ],
    [
      "কি",
      "ং</w>"
    ],
    [
      "কার",
      "ে</w>"
    ],
    [
      "নি",
      "যুক্ত</w>"
    ],
    [
      "ভে",
      "ঙ"
    ],
    [
      "হা",
      "ঁ"
    ],
    [
      "টা",
      "ই</w>"
    ],
    [
      "তি",
      "ন"
    ],
    [
      "-",
      "এ"
    ],
    [
      "প",
      "ঞ্জা"
    ],
    [
      "ক্র",
      "িয়া</w>"
    ],
    [
      "স",
      "িয়া"
    ],
    [
      "ম",
      "ণি"
    ],
    [
      "বর্",
      "গ</w>"
    ],
    [
      "সি",
      "স্টে"
    ],
    [
      "বি",
      "পরী"
    ],
    [
      "ফ",
      "ি</w>"
    ],
    [
      "টেলি",
      "ভি"
    ],
    [
      "বা",
      "ণ"
    ],
    [
      "ক্যা",
      "ন্"
    ],
    [
      "ভাষ",
      "ার</w>"
    ],
    [
      "ফে",
      "ড"
    ],
    [
      "রয়",
      "েছে</w>"
    ],
    [
      "রি",
      "য়ার</w>"
    ],
    [
      "শাস",
      "ন</w>"
    ],
    [
      "পরিবর্",
      "তিত</w>"
    ],
    [
      "স্ট",
      "ার"
    ],
    [
      "২০০",
      "০</w>"
    ],
    [
      "যা",
      "য়,</w>"
    ],
    [
      "তী",
      "র্থ"
    ],
    [
      "সম্",
      "রা"
    ],
    [
      "রো",
      "হ"
    ],
    [
      "১",
      ","
    ],
    [
      "ছে",
      "ড়ে</w>"
    ],
    [
      "হয়",
      "েছে,</w>"
    ],
    [
      "ন্দ",
      "ো"
    ],
    [
      "ন্ড",
      "ের</w>"
    ],
    [
      "নি",
      "র</w>"
    ],
    [
      "চ",
      "ন্দ্র"
    ],
    [
      "ত্য",
      "ের</w>"
    ],
    [
      "আ",
      "উ"
    ],
    [
      "ফ",
      "লা"
    ],
    [
      "জান",
      "তে</w>"
    ],
    [
      "মা",
      "সের</w>"
    ],
    [
      "জ",
      "ড়"
    ],
    [
      "ুর",
      "ে</w>"
    ],
    [
      "গৃ",
      "হ"
    ],
    [
      "নিজে",
      "কে</w>"
    ],
    [
      "ফ",
      "ল</w>"
    ],
    [
      "প্",
      "ল"
    ],
    [
      "হ",
      "োল"
    ],
    [
      "স",
      "-এর</w>"
    ],
    [
      "জনগণ",
      "না</w>"
    ],
    [
      "প্রতিষ্ঠ",
      "া</w>"
    ],
    [
      "হাস",
      "পা"
    ],
    [
      "এর",
      "পর</w>"
    ],
    [
      "পা",
      "ই"
    ],
    [
      "আদ",
      "াল"
    ],
    [
      "হা",
      "তে</w>"
    ],
    [
      "ক্লা",
      "ব</w>"
    ],
    [
      "ভেঙ",
      "ে</w>"
    ],
    [
      "ঐতিহাস",
      "িক</w>"
    ],
    [
      "খা",
      "বার</w>"
    ],
    [
      "অভ্য",
      "ন্ত"
    ],
    [
      "ব্যবহ",
      "ারের</w>"
    ],
    [
      "ল্",
      "ল"
    ],
    [
      "তি",
      ",</w>"
    ],
    [
      "বিষ",
      "য়ে</w>"
    ],
    [
      "২০০",
      "১</w>"
    ],
    [
      "ফেড",
      "ারে"
    ],
    [
      "ত",
      "টা</w>"
    ],
    [
      "ল",
      "স</w>"
    ],
    [
      "ি",
      "ং</w>"
    ],
    [
      "উৎসব",
      "ের</w>"
    ],
    [
      "এ",
      "স</w>"
    ],
    [
      "কে",
      "ও</w>"
    ],
    [
      "বি",
      "য়ে</w>"
    ],
    [
      "প",
      "ান"
    ],
    [
      "অনু",
      "সরণ</w>"
    ],
    [
      "ধর্",
      "মের</w>"
    ],
    [
      "কর্ণা",
      "ট"
    ],
    [
      "প",
      "ার</w>"
    ],
    [
      "ফ",
      "ার্"
    ],
    [
      "ল",
      "ঙ্"
    ],
    [
      "ডিগ্র",
      "ি</w>"
    ],
    [
      "উদযাপ",
      "ন</w>"
    ],
    [
      "ন্ট",
      "ে</w>"
    ],
    [
      "এক",
      "ে</w>"
    ],
    [
      "পাঁচ",
      "টি</w>"
    ],
    [
      "উ",
      "দ্ব"
    ],
    [
      "গে",
      "ম</w>"
    ],
    [
      "আ",
      "ছ"
    ],
    [
      "স",
      "ঞ্চ"
    ],
    [
      "ভূম",
      "িকা</w>"
    ],
    [
      "ত",
      "িক"
    ],
    [
      "জন্",
      "ম</w>"
    ],
    [
      "যোগা",
      "যোগ</w>"
    ],
    [
      "মাল",
      "িক"
    ],
    [
      "ধর্",
      "ম</w>"
    ],
    [
      "দেখ",
      "া"
    ],
    [
      "ম্যা",
      "ন</w>"
    ],
    [
      "্য",
      "ক</w>"
    ],
    [
      "ল",
      "।</w>"
    ],
    [
      "অ",
      "পে"
    ],
    [
      "মো",
      "দ"
    ],
    [
      "জ",
      "র"
    ],
    [
      "বাণিজ",
      "্য"
    ],
    [
      "অ",
      "সু"
    ],
    [
      "রা",
      "ন</w>"
    ],
    [
      "অ",
      "স্ত্র"
    ],
    [
      "পরিচি",
      "ত,</w>"
    ],
    [
      "বল",
      "েন</w>"
    ],
    [
      "ক্যাল",
      "ি"
    ],
    [
      "যোগ",
      "ের</w>"
    ],
    [
      "স",
      "রাস"
    ],
    [
      "সূ",
      "র"
    ],
    [
      "ব্",
      "ল"
    ],
    [
      "অ",
      "ন্ধ"
    ],
    [
      "পাঁ",
      "চ</w>"
    ],
    [
      "দ",
      "শ</w>"
    ],
    [
      "শো",
      "না</w>"
    ],
    [
      "হা",
      "ত</w>"
    ],
    [
      "উপ",
      "ত্য"
    ],
    [
      "য",
      "থে"
    ],
    [
      "১",
      "৫</w>"
    ],
    [
      "সু",
      "যোগ</w>"
    ],
    [
      "পা",
      "ণ্ড"
    ],
    [
      "মি",
      "ন</w>"
    ],
    [
      "টি",
      ",</w>"
    ],
    [
      "বিশ",
      "াল</w>"
    ],
    [
      "নিজ",
      "স্ব</w>"
    ],
    [
      "সংস্",
      "কর"
    ],
    [
      "২",
      "৫"
    ],
    [
      "সম্ভাব",
      "না</w>"
    ],
    [
      "ইউ",
      "নি"
    ],
    [
      "বল",
      "তে</w>"
    ],
    [
      "বি",
      "ভাগ</w>"
    ],
    [
      "রি",
      "য়ে</w>"
    ],
    [
      "হ",
      "ীন</w>"
    ],
    [
      "ভ",
      "ের</w>"
    ],
    [
      "২",
      "৪"
    ],
    [
      "ভা",
      "ই</w>"
    ],
    [
      "নি",
      ",</w>"
    ],
    [
      "অধিকা",
      "ংশ</w>"
    ],
    [
      "বি",
      "প"
    ],
    [
      "সরাস",
      "রি</w>"
    ],
    [
      "ত্ত",
      "্"
    ],
    [
      "প",
      "য়ে"
    ],
    [
      "ন্ত",
      "ি</w>"
    ],
    [
      "ব্য",
      "র্থ</w>"
    ],
    [
      "এ",
      "সে</w>"
    ],
    [
      "দিল্",
      "লি</w>"
    ],
    [
      "ছবি",
      "টি</w>"
    ],
    [
      "বিভাগ",
      "ে</w>"
    ],
    [
      "স্",
      "ক</w>"
    ],
    [
      "ব্যব",
      "সা</w>"
    ],
    [
      ".এ",
      "ফ"
    ],
    [
      "ভাই",
      "রা"
    ],
    [
      "য়",
      "িক</w>"
    ],
    [
      "জায়",
      "গা"
    ],
    [
      "তুল",
      "ে</w>"
    ],
    [
      "র",
      "েল"
    ],
    [
      "জান",
      "া"
    ],
    [
      "ন্",
      "না"
    ],
    [
      "ব",
      "জা"
    ],
    [
      "চতু",
      "র্থ</w>"
    ],
    [
      "বাহি",
      "নী</w>"
    ],
    [
      "পা",
      "ওয়ার</w>"
    ],
    [
      "জন্য",
      ",</w>"
    ],
    [
      "মে",
      "ন্ট</w>"
    ],
    [
      "নিজে",
      "দের</w>"
    ],
    [
      "ন",
      "ৈতিক</w>"
    ],
    [
      "পরি",
      "ষ"
    ],
    [
      "ন",
      "েন।</w>"
    ],
    [
      "ক",
      "ুর"
    ],
    [
      "ব",
      "েছে</w>"
    ],
    [
      "অ্যা",
      "ন্টি"
    ],
    [
      "হ",
      "তা"
    ],
    [
      "ল",
      "াল</w>"
    ],
    [
      "শ",
      "ার"
    ],
    [
      "কাছাকাছ",
      "ি</w>"
    ],
    [
      "না",
      "মের</w>"
    ],
    [
      "না",
      "মূল"
    ],
    [
      "অনু",
      "শীল"
    ],
    [
      "া",
      "ম।</w>"
    ],
    [
      "পুন",
      "রায়</w>"
    ],
    [
      "স",
      "ঠিক</w>"
    ],
    [
      "স্থ",
      "ানা"
    ],
    [
      "সম",
      "য়"
    ],
    [
      "অনে",
      "ক"
    ],
    [
      "পার্",
      "শ্ব"
    ],
    [
      "ইস",
      "লা"
    ],
    [
      "শিশু",
      "দের</w>"
    ],
    [
      "ক্রি",
      "য়</w>"
    ],
    [
      "প",
      "ঞ্চ"
    ],
    [
      "ং",
      ",</w>"
    ],
    [
      "পা",
      "তের</w>"
    ],
    [
      "বিশেষ",
      "ত</w>"
    ],
    [
      "ম",
      "ত</w>"
    ],
    [
      "নে",
      "ট</w>"
    ],
    [
      "আই",
      "ন"
    ],
    [
      "ল",
      "ণ্ড"
    ],
    [
      "আ",
      "ন্ত"
    ],
    [
      "ম",
      "স</w>"
    ],
    [
      "বু",
      "ঝ"
    ],
    [
      "অনুষ্ঠ",
      "ান"
    ],
    [
      "পণ",
      "্য"
    ],
    [
      "রা",
      "ও</w>"
    ],
    [
      "দে",
      "য়</w>"
    ],
    [
      "ছবি",
      "তে</w>"
    ],
    [
      "যা",
      "ওয়া</w>"
    ],
    [
      "বি",
      "কা"
    ],
    [
      ".এস",
      "."
    ],
    [
      "ঋ",
      "ণ</w>"
    ],
    [
      "কৃ",
      "ষ্"
    ],
    [
      "হা",
      "উ"
    ],
    [
      "বেদ",
      "ন</w>"
    ],
    [
      "ত্ম",
      "ক</w>"
    ],
    [
      "এক",
      "বার</w>"
    ],
    [
      "ম",
      "তে,</w>"
    ],
    [
      "এক",
      "ক</w>"
    ],
    [
      "সা",
      "ফল"
    ],
    [
      "কু",
      "মার</w>"
    ],
    [
      "জন",
      "প্রিয়"
    ],
    [
      "০",
      ",০০০</w>"
    ],
    [
      "খেলো",
      "য়া"
    ],
    [
      "ত",
      "ন্ত্র</w>"
    ],
    [
      "চিকিৎ",
      "সার</w>"
    ],
    [
      "লি",
      "ন"
    ],
    [
      "উদ্ভ",
      "ি"
    ],
    [
      "ট্র",
      "্যা"
    ],
    [
      "লি",
      "তে</w>"
    ],
    [
      "বাং",
      "লা"
    ],
    [
      "ছিল",
      "েন,</w>"
    ],
    [
      "বো",
      "ঝ"
    ],
    [
      "বা",
      "জে"
    ],
    [
      "অ্যাল",
      "বা"
    ],
    [
      "ট",
      "েন"
    ],
    [
      "শন",
      "াল</w>"
    ],
    [
      "মাই",
      "ক্রো"
    ],
    [
      "সঙ্গী",
      "ত"
    ],
    [
      "নে",
      "ওয়ার</w>"
    ],
    [
      "সম্ভাব",
      "্য</w>"
    ],
    [
      "জা",
      "তি"
    ],
    [
      "ম",
      "টি</w>"
    ],
    [
      "িক",
      "ো"
    ],
    [
      "সংখ",
      "্যক</w>"
    ],
    [
      "নির্ধার",
      "ণ</w>"
    ],
    [
      "ম",
      "কে</w>"
    ],
    [
      "বি",
      "ল</w>"
    ],
    [
      "তি",
      "নি।</w>"
    ],
    [
      "থ",
      "ি</w>"
    ],
    [
      "ভিত্ত",
      "িক</w>"
    ],
    [
      "সু",
      "পার"
    ],
    [
      "কঠ",
      "িন</w>"
    ],
    [
      "ভ",
      "ী"
    ],
    [
      "চ্যাম্পিয়নশি",
      "প</w>"
    ],
    [
      "পৃথ",
      "ক</w>"
    ],
    [
      "ক",
      "্যান"
    ],
    [
      "ই",
      "তাল"
    ],
    [
      "প্র",
      "ভাব"
    ],
    [
      "ন্দ",
      "্"
    ],
    [
      "স্",
      "মৃ"
    ],
    [
      "ণ্",
      "ঠ"
    ],
    [
      "রি",
      "য়া</w>"
    ],
    [
      "শতা",
      "ংশ</w>"
    ],
    [
      "পুর",
      "ো"
    ],
    [
      "ষ",
      "ি"
    ],
    [
      "খ",
      "ে</w>"
    ],
    [
      "স",
      "িয়ে"
    ],
    [
      "ব",
      "ীর</w>"
    ],
    [
      "ড",
      "েল"
    ],
    [
      "ধ",
      "ে</w>"
    ],
    [
      "সম",
      "স্যা"
    ],
    [
      "অভিনে",
      "তা</w>"
    ],
    [
      "বন্ধ",
      "ু"
    ],
    [
      "ক",
      "্য</w>"
    ],
    [
      "সম্",
      "ভব</w>"
    ],
    [
      "প্রা",
      "কৃতিক</w>"
    ],
    [
      "মি",
      "উ"
    ],
    [
      "পো",
      "ষ"
    ],
    [
      "দূ",
      "র"
    ],
    [
      "ি",
      "টি</w>"
    ],
    [
      "আ",
      "ই</w>"
    ],
    [
      "ব্যাপ",
      "কভাবে</w>"
    ],
    [
      "প",
      "বি"
    ],
    [
      "মুস",
      "ল"
    ],
    [
      "প্রতিনিধি",
      "ত্ব</w>"
    ],
    [
      "ং",
      "শ"
    ],
    [
      "এক",
      "টি।</w>"
    ],
    [
      "পৌর",
      "সভার</w>"
    ],
    [
      "বা",
      "জ"
    ],
    [
      "যা",
      "ওয়া</w>"
    ],
    [
      "১",
      "০০</w>"
    ],
    [
      "আ",
      "জ"
    ],
    [
      "ঘ",
      "ন</w>"
    ],
    [
      "রা",
      "ম</w>"
    ],
    [
      "রা",
      "গ"
    ],
    [
      "আয়ো",
      "জন</w>"
    ],
    [
      "অংশ",
      "।</w>"
    ],
    [
      "প্রতিদ্ব",
      "ন্দ্"
    ],
    [
      "জানুয়ার",
      "ি</w>"
    ],
    [
      "স্",
      "ত্র</w>"
    ],
    [
      "মা",
      "ম"
    ],
    [
      "অনুষ্ঠ",
      "ানের</w>"
    ],
    [
      "২",
      "২"
    ],
    [
      "বা",
      "দের</w>"
    ],
    [
      "দুর্",
      "গ</w>"
    ],
    [
      "স্ত্র",
      "ী</w>"
    ],
    [
      "রাষ্ট",
      "্র</w>"
    ],
    [
      "ফ",
      "্যা"
    ],
    [
      "ই",
      "ন্দো"
    ],
    [
      "আ",
      "য়</w>"
    ],
    [
      "হ",
      "েল"
    ],
    [
      "দ",
      "্য"
    ],
    [
      "পরিচাল",
      "ক</w>"
    ],
    [
      "ব",
      "ই"
    ],
    [
      "কয়ে",
      "ক"
    ],
    [
      "স্য",
      "ার</w>"
    ],
    [
      "ক্ষ",
      "তি"
    ],
    [
      "সৈ",
      "ন্য"
    ],
    [
      "ম",
      "ঙ্গ"
    ],
    [
      "প্",
      "লা"
    ],
    [
      "ফ্",
      "লো"
    ],
    [
      "জিনি",
      "স</w>"
    ],
    [
      "পশ্চি",
      "ম"
    ],
    [
      "বি",
      "তর্"
    ],
    [
      "প্র",
      "শ্"
    ],
    [
      "ক্ষ",
      "তি</w>"
    ],
    [
      "২০০",
      "৫</w>"
    ],
    [
      "টি",
      "রও</w>"
    ],
    [
      "শতাব্দ",
      "ীতে</w>"
    ],
    [
      "ঝুঁ",
      "কি</w>"
    ],
    [
      "প্র",
      "তী"
    ],
    [
      "মা",
      "য়"
    ],
    [
      "কর",
      "ে"
    ],
    [
      "রা",
      "স্"
    ],
    [
      "'",
      ",</w>"
    ],
    [
      "চ",
      "ূ"
    ],
    [
      "দ্র",
      "া"
    ],
    [
      "স্ট",
      "ো"
    ],
    [
      "অ্যা",
      "সো"
    ],
    [
      "রূ",
      "পা"
    ],
    [
      "পছ",
      "ন্দ</w>"
    ],
    [
      "বা",
      "চক</w>"
    ],
    [
      "শাস",
      "িত</w>"
    ],
    [
      "স্বাভা",
      "বিক</w>"
    ],
    [
      "মা",
      "দ"
    ],
    [
      "আ",
      "জ</w>"
    ],
    [
      "ড",
      "ার"
    ],
    [
      "হে",
      "তু</w>"
    ],
    [
      "পুর",
      "ো</w>"
    ],
    [
      "যথে",
      "ষ্ট</w>"
    ],
    [
      "ন",
      "থি"
    ],
    [
      "জন",
      "া</w>"
    ],
    [
      "জন",
      "।</w>"
    ],
    [
      "দ্র",
      "</w>"
    ],
    [
      "জ",
      "ট"
    ],
    [
      "বর্",
      "ষ"
    ],
    [
      "ল্যা",
      "ণ্ড"
    ],
    [
      "ত",
      "ত্ত্ব"
    ],
    [
      "\"",
      "।</w>"
    ],
    [
      "ুল",
      "ের</w>"
    ],
    [
      "য়",
      "াল"
    ],
    [
      "হ",
      "ৃ"
    ],
    [
      "সংস্",
      "কৃ"
    ],
    [
      "্য",
      "াল</w>"
    ],
    [
      "ম",
      "ুক্ত</w>"
    ],
    [
      "িল",
      "ে</w>"
    ],
    [
      "গ",
      "েল"
    ],
    [
      "কা",
      "ঠা"
    ],
    [
      "ড",
      "ব্"
    ],
    [
      "ক্যালি",
      "ফোর্"
    ],
    [
      "পর্য",
      "ন্ত"
    ],
    [
      "জ",
      "লা"
    ],
    [
      "অংশ",
      "গ্রহণ</w>"
    ],
    [
      "ে",
      "ল</w>"
    ],
    [
      "ভি",
      "ডিও</w>"
    ],
    [
      "ধ",
      "ান</w>"
    ],
    [
      "ন",
      "াল"
    ],
    [
      "ধী",
      "রে</w>"
    ],
    [
      "আমের",
      "িকান</w>"
    ],
    [
      "র",
      "কম</w>"
    ],
    [
      "স্থ",
      "ানের</w>"
    ],
    [
      "গ",
      "তভাবে</w>"
    ],
    [
      "কা",
      "হি"
    ],
    [
      "না",
      "গ"
    ],
    [
      "নিম্",
      "ন"
    ],
    [
      "বৌ",
      "দ্ধ</w>"
    ],
    [
      "কর",
      "ছে।</w>"
    ],
    [
      "বৈ",
      "চিত্র"
    ],
    [
      "হ",
      "'"
    ],
    [
      "বছ",
      "র"
    ],
    [
      "র",
      "ী</w>"
    ],
    [
      "ণ",
      "ার</w>"
    ],
    [
      "ফিল",
      "ি"
    ],
    [
      "কর",
      "লে</w>"
    ],
    [
      "ান",
      "ু"
    ],
    [
      "ড",
      "্র"
    ],
    [
      "মা",
      "ছ"
    ],
    [
      "প",
      "ড়ে</w>"
    ],
    [
      "সম",
      "ূ"
    ],
    [
      "সর",
      "কারী</w>"
    ],
    [
      "দিক",
      "ের</w>"
    ],
    [
      "নি",
      "ম"
    ],
    [
      "সং",
      "ক্রান্ত</w>"
    ],
    [
      "প্রস্তা",
      "ব</w>"
    ],
    [
      "ত্র",
      "ী</w>"
    ],
    [
      "ল",
      ",</w>"
    ],
    [
      "গা",
      "ড়ি</w>"
    ],
    [
      "১",
      "লা</w>"
    ],
    [
      "নিয়",
      "ার</w>"
    ],
    [
      "আ",
      "সে</w>"
    ],
    [
      "প্রশাস",
      "নিক</w>"
    ],
    [
      "কাশ",
      "্ম"
    ],
    [
      "টে",
      "ড</w>"
    ],
    [
      "পর",
      "বর্ত"
    ],
    [
      "সুবিধ",
      "া</w>"
    ],
    [
      "সঙ্গী",
      "তের</w>"
    ],
    [
      "অ",
      "ক্ষ"
    ],
    [
      "ণ্ড",
      "ো"
    ],
    [
      "বাদ",
      "ী</w>"
    ],
    [
      "কার্য",
      "কর</w>"
    ],
    [
      "সম",
      "য়,</w>"
    ],
    [
      "জা",
      "তীয়</w>"
    ],
    [
      "ডি",
      "ও"
    ],
    [
      "লাই",
      "নে</w>"
    ],
    [
      "সি",
      "স</w>"
    ],
    [
      "য",
      "ক্ষ"
    ],
    [
      "কোম্পান",
      "ির</w>"
    ],
    [
      "বি",
      "মান</w>"
    ],
    [
      "শ্র",
      "ী</w>"
    ],
    [
      "কা",
      "প</w>"
    ],
    [
      "ঃ",
      "</w>"
    ],
    [
      "ট",
      "র"
    ],
    [
      "ল",
      "ো</w>"
    ],
    [
      "সব",
      "চেয়ে</w>"
    ],
    [
      "আ",
      "ক"
    ],
    [
      "হ",
      "লেও</w>"
    ],
    [
      "আস",
      "া</w>"
    ],
    [
      "বি",
      "দ</w>"
    ],
    [
      "৪",
      "০</w>"
    ],
    [
      "জ",
      "িল"
    ],
    [
      "ত",
      "ে।</w>"
    ],
    [
      "কর",
      "্প"
    ],
    [
      "স",
      "ভা</w>"
    ],
    [
      "ব্র",
      "্যা"
    ],
    [
      "দ্ধ",
      "ার</w>"
    ],
    [
      "িল",
      "ের</w>"
    ],
    [
      "এক",
      "সঙ্গে</w>"
    ],
    [
      "সি",
      "র</w>"
    ],
    [
      "সন্ধ",
      "ান</w>"
    ],
    [
      "আগ",
      "ে,</w>"
    ],
    [
      "ট",
      "ওয়"
    ],
    [
      "বা",
      "ড়"
    ],
    [
      "ফেব্রুয়ার",
      "ি</w>"
    ],
    [
      "হাসপা",
      "তাল"
    ],
    [
      "মা",
      "ণ"
    ],
    [
      "মুস",
      "লি"
    ],
    [
      "কাল",
      "ের</w>"
    ],
    [
      "আ",
      "ন্দ"
    ],
    [
      "ভ",
      "েল"
    ],
    [
      "নী",
      "তি</w>"
    ],
    [
      "গ্রা",
      "মের</w>"
    ],
    [
      "পরিমা",
      "ণে</w>"
    ],
    [
      "২০০",
      "৪</w>"
    ],
    [
      "ন",
      "র্"
    ],
    [
      "বা",
      "কি</w>"
    ],
    [
      "মা",
      "স"
    ],
    [
      "ম",
      "ী"
    ],
    [
      "পর্য",
      "ট"
    ],
    [
      "ক্লা",
      "ব"
    ],
    [
      "রা",
      "জা"
    ],
    [
      "ত্যা",
      "গ</w>"
    ],
    [
      "তাল",
      "িকা</w>"
    ],
    [
      "রাজবং",
      "শের</w>"
    ],
    [
      "ক",
      "থ"
    ],
    [
      "ব্র",
      "ে"
    ],
    [
      "মান",
      "্য</w>"
    ],
    [
      "প্র",
      "বেশ"
    ],
    [
      "শ",
      "ব্দ</w>"
    ],
    [
      "বয়",
      "সী</w>"
    ],
    [
      "ই",
      "ভে"
    ],
    [
      "খেলোয়াড়",
      "দের</w>"
    ],
    [
      "বি",
      "ষ্ণ"
    ],
    [
      "সং",
      "গ্রহ</w>"
    ],
    [
      "সম্প্রদা",
      "য়ের</w>"
    ],
    [
      "র",
      "বি"
    ],
    [
      "্য",
      "।</w>"
    ],
    [
      "রেকর",
      "্ড"
    ],
    [
      "োগ",
      "ের</w>"
    ],
    [
      "বা",
      "স্ত"
    ],
    [
      "য়",
      "াল</w>"
    ],
    [
      "৬",
      "০</w>"
    ],
    [
      "ন্যা",
      "শনাল</w>"
    ],
    [
      "গুরু",
      "তর</w>"
    ],
    [
      "অ্যাসো",
      "সিয়ে"
    ],
    [
      "প্রতিযোগি",
      "তা</w>"
    ],
    [
      "ম্",
      "বা"
    ],
    [
      "শিল",
      "ালি"
    ],
    [
      "ধ",
      "ন</w>"
    ],
    [
      "রেখ",
      "ে</w>"
    ],
    [
      "সর",
      "ঞ্জা"
    ],
    [
      "শা",
      "হ</w>"
    ],
    [
      "বাধ",
      "্য</w>"
    ],
    [
      "জ",
      "নিত</w>"
    ],
    [
      "পরি",
      "বার</w>"
    ],
    [
      "দ",
      "ক্ষ"
    ],
    [
      "সম",
      "ৃ"
    ],
    [
      "বি",
      "ক"
    ],
    [
      "সহ",
      "জ</w>"
    ],
    [
      "রি",
      "য়া"
    ],
    [
      "থা",
      "ই"
    ],
    [
      "পৌরসভা",
      "।</w>"
    ],
    [
      "না",
      "গর"
    ],
    [
      "ন্ট",
      "ার</w>"
    ],
    [
      "ঁ",
      "</w>"
    ],
    [
      "হ'",
      "ল</w>"
    ],
    [
      "নেট",
      "ওয়ার্"
    ],
    [
      "শ",
      "র্"
    ],
    [
      "চুক্ত",
      "ি</w>"
    ],
    [
      "খ",
      "্যা</w>"
    ],
    [
      "যে",
      "হেতু</w>"
    ],
    [
      "হা",
      "ম"
    ],
    [
      "পর্ব",
      "ত"
    ],
    [
      "১",
      "৬</w>"
    ],
    [
      "প্র",
      "যুক্ত"
    ],
    [
      "শা",
      "হ"
    ],
    [
      "গ্র",
      "স্ত</w>"
    ],
    [
      "২",
      "৩"
    ],
    [
      "সা",
      "মনে</w>"
    ],
    [
      "ভ",
      "বিষ"
    ],
    [
      "ভবিষ",
      "্য"
    ],
    [
      "ল",
      "্ড</w>"
    ],
    [
      "উ",
      "পর"
    ],
    [
      "ট্র",
      "ে"
    ],
    [
      "ু",
      "ন।</w>"
    ],
    [
      "ফ",
      "া</w>"
    ],
    [
      "সম্পর্",
      "ক</w>"
    ],
    [
      "নির্বাচ",
      "নে</w>"
    ],
    [
      "র",
      "ান"
    ],
    [
      "মে",
      "য়া"
    ],
    [
      "বি",
      "বর"
    ],
    [
      "মধ্য",
      "ে,</w>"
    ],
    [
      "হ",
      "াল"
    ],
    [
      "জ",
      "গ"
    ],
    [
      "ব্রিটি",
      "শ"
    ],
    [
      "সাম্",
      "প্র"
    ],
    [
      "ব",
      "ণ"
    ],
    [
      "দৃ",
      "শ"
    ],
    [
      "ভ্র",
      "ম"
    ],
    [
      "২",
      "৫</w>"
    ],
    [
      "নে",
      "ওয়া</w>"
    ],
    [
      "ক্ষেত্র",
      "ে,</w>"
    ],
    [
      "পু",
      "রা"
    ],
    [
      "নিরা",
      "পত্ত"
    ],
    [
      "প্রথ",
      "মে</w>"
    ],
    [
      "নি",
      "ষ্"
    ],
    [
      "আন্দ",
      "োল"
    ],
    [
      "য়",
      "ান</w>"
    ],
    [
      "বিদ্যু",
      "ৎ</w>"
    ],
    [
      "দক্ষি",
      "ণে</w>"
    ],
    [
      "উৎপাদ",
      "ন</w>"
    ],
    [
      "পা",
      "শের</w>"
    ],
    [
      "ন্",
      "দের</w>"
    ],
    [
      "বা",
      "ত"
    ],
    [
      "১",
      "৮</w>"
    ],
    [
      "বিশ্ব",
      "ব্যাপী</w>"
    ],
    [
      "ম্যা",
      "ক"
    ],
    [
      "উ",
      "পরে</w>"
    ],
    [
      "খ্রি",
      "স্টা"
    ],
    [
      "স্বাস্থ",
      "্য</w>"
    ],
    [
      "খ",
      "া</w>"
    ],
    [
      "মাল",
      "া"
    ],
    [
      "ত্ত",
      "</w>"
    ],
    [
      "পোশা",
      "ক</w>"
    ],
    [
      "প",
      "্প"
    ],
    [
      "ছ",
      "ড়িয়ে</w>"
    ],
    [
      "সব",
      "ু"
    ],
    [
      "জন",
      "সংখ্যার</w>"
    ],
    [
      "শিক্ষ",
      "া</w>"
    ],
    [
      "ত্র",
      "ু"
    ],
    [
      "প্রতিদ্বন্দ্",
      "বিতা</w>"
    ],
    [
      "লিখ",
      "িত</w>"
    ],
    [
      "পবি",
      "ত্র</w>"
    ],
    [
      "ভাল",
      "ো"
    ],
    [
      "দো",
      "কান"
    ],
    [
      "অভি",
      "জ্ঞ"
    ],
    [
      "ভ",
      "ক্ত</w>"
    ],
    [
      "খো",
      "ঁ"
    ],
    [
      "মা",
      "থা"
    ],
    [
      "ভ",
      "গ"
    ],
    [
      "বাড়",
      "ি</w>"
    ],
    [
      "গ্রহ",
      "ণ"
    ],
    [
      "ফ",
      "স"
    ],
    [
      "তাপ",
      "মাত্রা</w>"
    ],
    [
      "ফে",
      "র"
    ],
    [
      "আ",
      "রোহ"
    ],
    [
      "নিয়",
      "মিত</w>"
    ],
    [
      "ক্ষে",
      "প</w>"
    ],
    [
      "দা",
      "ম</w>"
    ],
    [
      "অনুসার",
      "ে</w>"
    ],
    [
      "ঙ্গ",
      "ের</w>"
    ],
    [
      "প্রাচীন",
      "তম</w>"
    ],
    [
      "ওয়",
      "ার"
    ],
    [
      "ট",
      "ারের</w>"
    ],
    [
      "স্",
      "তি</w>"
    ],
    [
      "ক্র",
      "মে</w>"
    ],
    [
      "চ",
      "ক্র"
    ],
    [
      "২",
      "৭"
    ],
    [
      "কর",
      "ের</w>"
    ],
    [
      "দে",
      "ব</w>"
    ],
    [
      "পক্ষ",
      "</w>"
    ],
    [
      "আস",
      "ার</w>"
    ],
    [
      "উন্ন",
      "ত</w>"
    ],
    [
      "ফিল",
      "্ম"
    ],
    [
      "শা",
      "স্ত্র"
    ],
    [
      "ফ্র",
      "ে"
    ],
    [
      "নগ",
      "র</w>"
    ],
    [
      "লোকে",
      "রা</w>"
    ],
    [
      "সু",
      "ন্দ"
    ],
    [
      "ম্",
      "ভ"
    ],
    [
      "রা",
      "তে</w>"
    ],
    [
      "ন্ত",
      "ের</w>"
    ],
    [
      "নাম",
      "করণ</w>"
    ],
    [
      "অনু",
      "মোদ"
    ],
    [
      "অধ",
      "িকার</w>"
    ],
    [
      "কলে",
      "জ</w>"
    ],
    [
      "্যাল",
      "ে"
    ],
    [
      "অনুর",
      "ূ"
    ],
    [
      "এ",
      "ত</w>"
    ],
    [
      "বিকল্প",
      "</w>"
    ],
    [
      "পশ্চি",
      "মে</w>"
    ],
    [
      "স",
      "তর্"
    ],
    [
      "উপ",
      "সর্"
    ],
    [
      "রা",
      "শ"
    ],
    [
      "ই",
      "লিন"
    ],
    [
      "আ",
      "বাস"
    ],
    [
      "পার্",
      "থ"
    ],
    [
      "য",
      "েন</w>"
    ],
    [
      "২",
      "৬"
    ],
    [
      "বছ",
      "রে</w>"
    ],
    [
      "নি",
      "র"
    ],
    [
      "গ্র",
      "ু"
    ],
    [
      "দি",
      "ব"
    ],
    [
      "কার্",
      "ড</w>"
    ],
    [
      "স্বাধীন",
      "তা</w>"
    ],
    [
      "অ",
      "ধ্য"
    ],
    [
      "দো",
      "কান</w>"
    ],
    [
      "ন্",
      "দ্ব"
    ],
    [
      "কে",
      "ট</w>"
    ],
    [
      "চরি",
      "ত্র"
    ],
    [
      "ষ",
      "িত</w>"
    ],
    [
      "পা",
      "ত"
    ],
    [
      "যা",
      "দের</w>"
    ],
    [
      "স",
      "ক"
    ],
    [
      "রে",
      "ল</w>"
    ],
    [
      "জ",
      ",</w>"
    ],
    [
      "বা",
      "বা</w>"
    ],
    [
      "ভ",
      "ুল</w>"
    ],
    [
      "গ",
      "তি"
    ],
    [
      "ফ",
      "্রি"
    ],
    [
      "ঘ",
      "ন্"
    ],
    [
      "র",
      "ঙ্গ"
    ],
    [
      "মন্দি",
      "রের</w>"
    ],
    [
      "প",
      "ড়া"
    ],
    [
      "উত্ত",
      "রে</w>"
    ],
    [
      "মধ্য",
      "েই</w>"
    ],
    [
      "গো",
      "ড়ার</w>"
    ],
    [
      "কার",
      "ি"
    ],
    [
      "ব্যাপ",
      "ক</w>"
    ],
    [
      "ন",
      "গুলি</w>"
    ],
    [
      "এ",
      "গিয়ে</w>"
    ],
    [
      "কা",
      "ট"
    ],
    [
      "গু",
      "হা"
    ],
    [
      "ম্যান",
      "ে"
    ],
    [
      "মিনি",
      "ট</w>"
    ],
    [
      "নি",
      "য়া"
    ],
    [
      "মি",
      "ড"
    ],
    [
      "প্রজা",
      "তির</w>"
    ],
    [
      "ান",
      "কে</w>"
    ],
    [
      "নাম",
      "ক</w>"
    ],
    [
      "জান",
      "িয়"
    ],
    [
      "ন্দ",
      "া</w>"
    ],
    [
      "উপ",
      "স্থি"
    ],
    [
      "উৎ",
      "সা"
    ],
    [
      "দল",
      "টি</w>"
    ],
    [
      "কর",
      "ণের</w>"
    ],
    [
      "বি",
      "নো"
    ],
    [
      "বিনিয়",
      "োগ</w>"
    ],
    [
      "ল্যা",
      "ণ্ডের</w>"
    ],
    [
      "জ",
      "মা</w>"
    ],
    [
      "লক্ষ",
      "ণ"
    ],
    [
      "ক্",
      "সা"
    ],
    [
      "স্",
      "পোর্"
    ],
    [
      "অবস্থ",
      "ান</w>"
    ],
    [
      "অ",
      "শো"
    ],
    [
      "চ",
      "ৌ"
    ],
    [
      "পড়",
      "ে।</w>"
    ],
    [
      "চ্",
      "ছা"
    ],
    [
      "সম্প",
      "ন্ন</w>"
    ],
    [
      "তী",
      "য়"
    ],
    [
      "া",
      "।</w>"
    ],
    [
      "গ",
      "ার্"
    ],
    [
      "দে",
      "য়</w>"
    ],
    [
      "ূ",
      "ত</w>"
    ],
    [
      "অলিম্প",
      "িকে</w>"
    ],
    [
      "ো",
      "রে"
    ],
    [
      "ভি",
      "টা"
    ],
    [
      "প্রধান",
      "মন্ত্রী</w>"
    ],
    [
      "সম্",
      "মুখ"
    ],
    [
      "হয়",
      "নি।</w>"
    ],
    [
      "প্রতিরো",
      "ধ</w>"
    ],
    [
      "য়",
      "ী,</w>"
    ],
    [
      "না",
      "য়</w>"
    ],
    [
      "লে",
      "ক"
    ],
    [
      "কা",
      "ঁ"
    ],
    [
      "ইয়",
      "র্"
    ],
    [
      "স্ট",
      "্যা"
    ],
    [
      "ব্",
      "রাজ"
    ],
    [
      "গ",
      "েছে</w>"
    ],
    [
      "ল্যা",
      "ণ্ড</w>"
    ],
    [
      "কানা",
      "ড"
    ],
    [
      "সংক্রম",
      "ণের</w>"
    ],
    [
      "নে",
      "য়।</w>"
    ],
    [
      "সম",
      "য়ে</w>"
    ],
    [
      "মারা",
      "ঠা</w>"
    ],
    [
      "আ",
      "দি"
    ],
    [
      "প্র",
      "সার"
    ],
    [
      "প্রতিযোগি",
      "তার</w>"
    ],
    [
      "ব্য",
      "য়</w>"
    ],
    [
      "প",
      "ন</w>"
    ],
    [
      "ট",
      "র</w>"
    ],
    [
      "প্রাণ",
      "ী</w>"
    ],
    [
      "টি",
      "ন</w>"
    ],
    [
      "ম",
      "স্তি"
    ],
    [
      "ভূম",
      "িকায়</w>"
    ],
    [
      "চ",
      "ারের</w>"
    ],
    [
      "প",
      "ত্র"
    ],
    [
      "সাম",
      "গ্র"
    ],
    [
      "শে",
      "ষ"
    ],
    [
      "পরি",
      "বার"
    ],
    [
      "পে",
      "য়"
    ],
    [
      "রূপ",
      "ে</w>"
    ],
    [
      "লড়া",
      "ই</w>"
    ],
    [
      "খোল",
      "া</w>"
    ],
    [
      "প",
      "থে</w>"
    ],
    [
      "স্কো",
      "র</w>"
    ],
    [
      "মস্তি",
      "ষ্"
    ],
    [
      "ইউরোপ",
      "ীয়</w>"
    ],
    [
      "প্রযো",
      "জ"
    ],
    [
      "য়",
      "ারের</w>"
    ],
    [
      "বিশ্",
      "বাস"
    ],
    [
      "শিল্প",
      "ী</w>"
    ],
    [
      "ড়",
      "ের</w>"
    ],
    [
      "ঙ্গ",
      "ে"
    ],
    [
      "দেব",
      "ী</w>"
    ],
    [
      "২০২",
      "২</w>"
    ],
    [
      "ই",
      "য়া"
    ],
    [
      "স্থাপ",
      "িত</w>"
    ],
    [
      "ই",
      "ঞ্জি"
    ],
    [
      "ার",
      "।</w>"
    ],
    [
      "চো",
      "খের</w>"
    ],
    [
      "অর্থ",
      "নৈতিক</w>"
    ],
    [
      "হ",
      "ারের</w>"
    ],
    [
      "আ",
      "চর"
    ],
    [
      "শাস",
      "ক</w>"
    ],
    [
      "তা",
      "।</w>"
    ],
    [
      "ঘ",
      "র"
    ],
    [
      "স্তা",
      "ন</w>"
    ],
    [
      "ন",
      "ম্বর</w>"
    ],
    [
      "ট",
      "।</w>"
    ],
    [
      "অভি",
      "যোগ</w>"
    ],
    [
      "খ",
      "বর</w>"
    ],
    [
      "বি",
      "নিম"
    ],
    [
      "অব",
      "্যা"
    ],
    [
      "প",
      "ল</w>"
    ],
    [
      "ব",
      "্ব"
    ],
    [
      "পি",
      "ং</w>"
    ],
    [
      "নির্",
      "ণ"
    ],
    [
      "কেন্দ্র",
      "ীয়</w>"
    ],
    [
      "আগ",
      "ের</w>"
    ],
    [
      "জীব",
      "ন"
    ],
    [
      "অভ্যন্ত",
      "রী"
    ],
    [
      "করেছিল",
      "</w>"
    ],
    [
      "ধ্ব",
      "ংস</w>"
    ],
    [
      "বা",
      "সি"
    ],
    [
      "পক্ষ",
      "ের</w>"
    ],
    [
      "স্প",
      "ষ্ট</w>"
    ],
    [
      "ভ",
      "ুক্ত"
    ],
    [
      "সি",
      "টি</w>"
    ],
    [
      "ক্",
      "ল"
    ],
    [
      "মি",
      "টার"
    ],
    [
      "সংক্রম",
      "ণ</w>"
    ],
    [
      "সি",
      "ন্ধ"
    ],
    [
      "১",
      "১</w>"
    ],
    [
      "শার",
      "ীর"
    ],
    [
      "কা",
      "ম"
    ],
    [
      "গ",
      "ু</w>"
    ],
    [
      "দিল্",
      "লির</w>"
    ],
    [
      "পা",
      "য়।</w>"
    ],
    [
      "দৈ",
      "র্ঘ"
    ],
    [
      "ওয়",
      "েল"
    ],
    [
      "কর্প",
      "োরে"
    ],
    [
      "তি",
      "।</w>"
    ],
    [
      "শি",
      "শু</w>"
    ],
    [
      "ক",
      "্য"
    ],
    [
      "ঠ",
      "ি</w>"
    ],
    [
      "টেলিভি",
      "শন</w>"
    ],
    [
      "মুখ",
      "ো"
    ],
    [
      "ই",
      "ঙ্গ"
    ],
    [
      "আ",
      "শে"
    ],
    [
      "ঘট",
      "নার</w>"
    ],
    [
      "য",
      "থা"
    ],
    [
      "বি",
      "শিষ্ট</w>"
    ],
    [
      "ট",
      "ু</w>"
    ],
    [
      "নিয়",
      "া</w>"
    ],
    [
      "কেনা",
      "কাটা</w>"
    ],
    [
      "ি",
      "ই</w>"
    ],
    [
      "বজা",
      "য়</w>"
    ],
    [
      "জি",
      "তে</w>"
    ],
    [
      "সম",
      "ন্"
    ],
    [
      "ক",
      "-"
    ],
    [
      "১৯",
      "০"
    ],
    [
      "পরবর্ত",
      "ী"
    ],
    [
      "নি",
      "হত</w>"
    ],
    [
      "কা",
      "প"
    ],
    [
      "চী",
      "না</w>"
    ],
    [
      "গ",
      "ত"
    ],
    [
      "অ",
      "ল্প"
    ],
    [
      "গ",
      "ৌ"
    ],
    [
      "বিবে",
      "চিত</w>"
    ],
    [
      "না",
      "গা"
    ],
    [
      "যু",
      "গের</w>"
    ],
    [
      "ভি",
      "ত"
    ],
    [
      "সং",
      "ক্রা"
    ],
    [
      "আ",
      "ঞ্চল"
    ],
    [
      "ভ",
      "ঙ্গ"
    ],
    [
      "১",
      "শে</w>"
    ],
    [
      "বল",
      "েন,</w>"
    ],
    [
      "ত",
      "দ"
    ],
    [
      "ক্রী",
      "ড়া</w>"
    ],
    [
      "যুক্ত",
      "।</w>"
    ],
    [
      "জেল",
      "ায়</w>"
    ],
    [
      "দেখ",
      "ানো</w>"
    ],
    [
      "রা",
      "খু"
    ],
    [
      "শব্দ",
      "টি</w>"
    ],
    [
      "চিকিৎ",
      "সা"
    ],
    [
      "কংগ্রে",
      "স</w>"
    ],
    [
      "বা",
      "ব"
    ],
    [
      "মুসলি",
      "ম</w>"
    ],
    [
      "ফু",
      "ট</w>"
    ],
    [
      "ছা",
      "ড়া</w>"
    ],
    [
      "৫",
      "০"
    ],
    [
      "কর্ম",
      "চার"
    ],
    [
      "ধ",
      "রা</w>"
    ],
    [
      "পদ্ধ",
      "তি</w>"
    ],
    [
      "কারণ",
      "ে,</w>"
    ],
    [
      "অর্",
      "থা"
    ],
    [
      "অর্",
      "ধ"
    ],
    [
      "বি",
      "চার"
    ],
    [
      "প্রশিক্ষ",
      "ণ</w>"
    ],
    [
      "শ",
      "্যু"
    ],
    [
      "বি",
      "বাহ</w>"
    ],
    [
      "ধার",
      "ণা</w>"
    ],
    [
      "নি",
      "বন্ধ"
    ],
    [
      "২০০",
      "৩</w>"
    ],
    [
      "লী",
      "গ</w>"
    ],
    [
      "িল",
      "া"
    ],
    [
      "ঙ্গ",
      "া</w>"
    ],
    [
      "বুঝ",
      "তে</w>"
    ],
    [
      "কর",
      "বে</w>"
    ],
    [
      "সাং",
      "স্"
    ],
    [
      "ক্রিকে",
      "ট</w>"
    ],
    [
      "১৯৯",
      "৯</w>"
    ],
    [
      "শি",
      "রো"
    ],
    [
      "বি",
      "র</w>"
    ],
    [
      "শ",
      "ঙ্"
    ],
    [
      "আন্ত",
      "ঃ"
    ],
    [
      "অব",
      "সর</w>"
    ],
    [
      "জিত",
      "েছিলেন।</w>"
    ],
    [
      "ক",
      "েন</w>"
    ],
    [
      "ব্যা",
      "খ্যা</w>"
    ],
    [
      "কর",
      "েন"
    ],
    [
      "উই",
      "ল"
    ],
    [
      "নেতৃ",
      "ত্ব</w>"
    ],
    [
      "চা",
      "প</w>"
    ],
    [
      "দ",
      "র্শন</w>"
    ],
    [
      "স্টে",
      "ডিয়া"
    ],
    [
      "ত্",
      "থ"
    ],
    [
      "য়",
      "ার"
    ],
    [
      ".এ",
      "ল"
    ],
    [
      "বিচ্ছ",
      "ি"
    ],
    [
      "িক্",
      "স</w>"
    ],
    [
      "বা",
      "তা"
    ],
    [
      "সফ্",
      "টওয়"
    ],
    [
      "কি",
      "উ"
    ],
    [
      "দোক",
      "ানে</w>"
    ],
    [
      "গি",
      "র্"
    ],
    [
      "দ্বি",
      "তীয়</w>"
    ],
    [
      "ট",
      "্রি"
    ],
    [
      "অনুযা",
      "য়ী,</w>"
    ],
    [
      "উদ্দেশ",
      "্যে</w>"
    ],
    [
      "প্রদ",
      "র্শন</w>"
    ],
    [
      "ওয়",
      "ে</w>"
    ],
    [
      "এলাকা",
      "য়</w>"
    ],
    [
      "বেশ",
      "ী</w>"
    ],
    [
      "পদ",
      "ে</w>"
    ],
    [
      "ধার",
      "ণা"
    ],
    [
      "পর্যন্ত",
      ",</w>"
    ],
    [
      "স্ত",
      "ো"
    ],
    [
      "হ্র",
      "দ"
    ],
    [
      "টি",
      "স</w>"
    ],
    [
      "কু",
      "মার"
    ],
    [
      "সত্ত্ব",
      "েও</w>"
    ],
    [
      "সম্রা",
      "ট</w>"
    ],
    [
      "গবে",
      "ষণা</w>"
    ],
    [
      "আস",
      "েন।</w>"
    ],
    [
      "মানুষ",
      "কে</w>"
    ],
    [
      "১",
      "৪</w>"
    ],
    [
      "কর",
      "ি</w>"
    ],
    [
      "ম",
      "ণ্ড"
    ],
    [
      "স্না",
      "য়"
    ],
    [
      "সভা",
      "পতি</w>"
    ],
    [
      "গ্রা",
      "মে</w>"
    ],
    [
      "তী",
      "ব্"
    ],
    [
      "তীব্",
      "র</w>"
    ],
    [
      "উৎ",
      "স</w>"
    ],
    [
      "ফরা",
      "সি</w>"
    ],
    [
      "গ্রাহ",
      "ক</w>"
    ],
    [
      "র",
      "চনা</w>"
    ],
    [
      "দা",
      "বা</w>"
    ],
    [
      "স্ক",
      "ুল</w>"
    ],
    [
      "জ",
      "িয়া"
    ],
    [
      "পরি",
      "শো"
    ],
    [
      "প্রয়োজন",
      "ীয়</w>"
    ],
    [
      "র",
      "ো</w>"
    ],
    [
      "গ্রীষ্ম",
      "কালীন</w>"
    ],
    [
      "সম্",
      "পাদ"
    ],
    [
      "ওড়",
      "িশ"
    ],
    [
      "যাঁ",
      "রা</w>"
    ],
    [
      "থ",
      "ের</w>"
    ],
    [
      "ভ",
      "ৌ"
    ],
    [
      "বাত",
      "িল</w>"
    ],
    [
      "সে",
      "ন্ট</w>"
    ],
    [
      "্যার",
      "ো"
    ],
    [
      "শ্ব",
      "র</w>"
    ],
    [
      "মাঝ",
      "ে</w>"
    ],
    [
      "হয়",
      "তো</w>"
    ],
    [
      "দ",
      "লে</w>"
    ],
    [
      "নির্বাচ",
      "ন</w>"
    ],
    [
      "ন্",
      "না</w>"
    ],
    [
      "কৃ",
      "তি"
    ],
    [
      "প",
      "ী"
    ],
    [
      "হো",
      "ক,</w>"
    ],
    [
      "২",
      "৯"
    ],
    [
      "চ",
      "ল</w>"
    ],
    [
      "ক",
      "তা</w>"
    ],
    [
      "বহ",
      "ু"
    ],
    [
      "গ্র",
      "ি"
    ],
    [
      "জন",
      "কে</w>"
    ],
    [
      "সমালো",
      "চ"
    ],
    [
      "কী",
      "ভাবে</w>"
    ],
    [
      "খা",
      "দ্য</w>"
    ],
    [
      "২০০",
      "২</w>"
    ],
    [
      "দৃ",
      "শ্য"
    ],
    [
      "ই",
      "-"
    ],
    [
      "প্রা",
      "য়</w>"
    ],
    [
      "অনুর",
      "ো"
    ],
    [
      "খেল",
      "ায়</w>"
    ],
    [
      "প",
      "ড়ে</w>"
    ],
    [
      "ওয়",
      "াল"
    ],
    [
      "সা",
      "ব"
    ],
    [
      "কিং",
      "বা</w>"
    ],
    [
      "১",
      "৩</w>"
    ],
    [
      "অতি",
      "ক্রম</w>"
    ],
    [
      "ই",
      "ণ্ডি"
    ],
    [
      "কেন",
      "ার</w>"
    ],
    [
      "কি",
      "না</w>"
    ],
    [
      "অভ্যন্তরী",
      "ণ</w>"
    ],
    [
      "আ",
      "হত</w>"
    ],
    [
      "বিস্ত",
      "ৃত</w>"
    ],
    [
      "য়",
      "টি</w>"
    ],
    [
      "বা",
      "বা"
    ],
    [
      "অব্যা",
      "হত</w>"
    ],
    [
      "২",
      "৮"
    ],
    [
      "জায়গা",
      "য়</w>"
    ],
    [
      "সি",
      "নে"
    ],
    [
      "শ",
      "াল</w>"
    ],
    [
      "ছা",
      "ত্র"
    ],
    [
      "ব",
      "ন্য"
    ],
    [
      "অ্যা",
      "কাউ"
    ],
    [
      "হল",
      "ু"
    ],
    [
      "অ",
      "স্বীকার</w>"
    ],
    [
      "ন্দ্র",
      "</w>"
    ],
    [
      "প্রস্তু",
      "ত</w>"
    ],
    [
      "শ",
      "ার</w>"
    ],
    [
      "ক",
      "মা"
    ],
    [
      "পা",
      "বল"
    ],
    [
      "ক",
      "েল"
    ],
    [
      "ডা",
      "ক"
    ],
    [
      "খু",
      "বই</w>"
    ],
    [
      "ান",
      "ো"
    ],
    [
      "বা",
      "সের</w>"
    ],
    [
      "সম",
      "্ব"
    ],
    [
      "হৃ",
      "দ"
    ],
    [
      "পুর",
      "নো</w>"
    ],
    [
      "সং",
      "বাদ"
    ],
    [
      "এক",
      "ে"
    ],
    [
      "আন",
      "ন্দ</w>"
    ],
    [
      "কার্য",
      "কর"
    ],
    [
      "আ",
      "ফ"
    ],
    [
      "মূল",
      "্য"
    ],
    [
      "ডি",
      "."
    ],
    [
      "মাই",
      "ল"
    ],
    [
      "তোল",
      "ে।</w>"
    ],
    [
      "চ",
      "া</w>"
    ],
    [
      "তালিকা",
      "ভুক্ত</w>"
    ],
    [
      "ব্র",
      "ু"
    ],
    [
      "ব",
      "ক্"
    ],
    [
      "ব্যা",
      "ক"
    ],
    [
      "ক",
      "ণ্ঠ"
    ],
    [
      "শিল্প",
      "ের</w>"
    ],
    [
      "সংস্",
      "করণ</w>"
    ],
    [
      "প্র",
      "ণ"
    ],
    [
      "কোম্প",
      "ানি</w>"
    ],
    [
      "১",
      "৭</w>"
    ],
    [
      "কর্ম",
      "কর্"
    ],
    [
      "পর্য",
      "ালো"
    ],
    [
      "ঘট",
      "ে</w>"
    ],
    [
      "তু",
      "ষ"
    ],
    [
      "স্টে",
      "শন</w>"
    ],
    [
      "যা",
      "কে</w>"
    ],
    [
      "ভিটা",
      "মিন</w>"
    ],
    [
      "২",
      ","
    ],
    [
      "মৃত্য",
      "ু"
    ],
    [
      "সাম্",
      "রাজ্য</w>"
    ],
    [
      "ফ",
      "ের</w>"
    ],
    [
      "্য",
      "ো"
    ],
    [
      "সম্পূর্",
      "ণ"
    ],
    [
      "সুর",
      "ক্ষ"
    ],
    [
      "দেখ",
      "ার</w>"
    ],
    [
      "সা",
      "মান্য</w>"
    ],
    [
      "বেশি",
      "।</w>"
    ],
    [
      "আঞ্চল",
      "িক</w>"
    ],
    [
      "িক",
      "দের</w>"
    ],
    [
      "সপ্তা",
      "হ</w>"
    ],
    [
      "ঘ",
      "রে</w>"
    ],
    [
      "জার্মান",
      "ির</w>"
    ],
    [
      "কৌশ",
      "ল</w>"
    ],
    [
      "ধ",
      "নী</w>"
    ],
    [
      "মু",
      "হ"
    ],
    [
      "বি",
      "ভক্ত</w>"
    ],
    [
      "প্র",
      "দেশ"
    ],
    [
      "ইতিহা",
      "স</w>"
    ],
    [
      "গোষ্ঠ",
      "ীর</w>"
    ],
    [
      "রাজন",
      "ী"
    ],
    [
      "জু",
      "ড়ে</w>"
    ],
    [
      "প্রদর্শ",
      "িত</w>"
    ],
    [
      "মনো",
      "নীত</w>"
    ],
    [
      "ন",
      "য়,</w>"
    ],
    [
      "গু",
      "ণ</w>"
    ],
    [
      "গো",
      "লে</w>"
    ],
    [
      "বিশ্ববিদ্যাল",
      "য়</w>"
    ],
    [
      "কার",
      "ীরা</w>"
    ],
    [
      "ভা",
      "স্"
    ],
    [
      "হ",
      "ন,</w>"
    ],
    [
      "য়",
      "ান</w>"
    ],
    [
      "অস্ত্র",
      "োপ"
    ],
    [
      "য়",
      "নের</w>"
    ],
    [
      "ণ্ড",
      "া</w>"
    ],
    [
      "প",
      "ল্ল"
    ],
    [
      "হয়",
      "েছিলেন।</w>"
    ],
    [
      "প্রা",
      "প্ত"
    ],
    [
      "পয়ে",
      "ন্ট</w>"
    ],
    [
      "সহ",
      "যোগ"
    ],
    [
      "সাংস্",
      "কৃতিক</w>"
    ],
    [
      "ব",
      "েন,</w>"
    ],
    [
      "জ",
      "ো</w>"
    ],
    [
      "জার্",
      "মান</w>"
    ],
    [
      "থে",
      "কে,</w>"
    ],
    [
      "অবস্থ",
      "া</w>"
    ],
    [
      "ট",
      "াল</w>"
    ],
    [
      "সম্মুখ",
      "ীন</w>"
    ],
    [
      "চাল",
      "া"
    ],
    [
      "ওয়",
      "ায়</w>"
    ],
    [
      "সং",
      "ক্ষি"
    ],
    [
      "র",
      "িক</w>"
    ],
    [
      "ক",
      "ুল"
    ],
    [
      "সন্",
      "দে"
    ],
    [
      "কা",
      "জে</w>"
    ],
    [
      "ম",
      "ো</w>"
    ],
    [
      "ত",
      "ক</w>"
    ],
    [
      "ি",
      "ত,</w>"
    ],
    [
      "সব",
      "ার্"
    ],
    [
      "মে",
      "ঘ"
    ],
    [
      "রঙ",
      "ের</w>"
    ],
    [
      "উপা",
      "য়</w>"
    ],
    [
      "মূর্",
      "তি</w>"
    ],
    [
      "বিধ",
      "ান"
    ],
    [
      "আনুষ্ঠান",
      "িক</w>"
    ],
    [
      "ক",
      "থা"
    ],
    [
      "আ",
      "য়ো"
    ],
    [
      "ঘ",
      "টা"
    ],
    [
      "থে",
      "কেই</w>"
    ],
    [
      "চ",
      "ান</w>"
    ],
    [
      "গ",
      "তি</w>"
    ],
    [
      "এছাড়া",
      "ও,</w>"
    ],
    [
      "কাউন্",
      "টির</w>"
    ],
    [
      "আলো",
      "চনা</w>"
    ],
    [
      "চে",
      "য়"
    ],
    [
      "ধার",
      "া"
    ],
    [
      "সং",
      "ঘ"
    ],
    [
      "গ্র",
      "</w>"
    ],
    [
      "উ",
      "চিত</w>"
    ],
    [
      "তী",
      "রে</w>"
    ],
    [
      "ত",
      "দের</w>"
    ],
    [
      "নিয়",
      "ম</w>"
    ],
    [
      "সে",
      "টি</w>"
    ],
    [
      "আব",
      "হা"
    ],
    [
      "নিম্",
      "ন</w>"
    ],
    [
      "নৃ",
      "ত্য</w>"
    ],
    [
      "মহারাষ্ট",
      "্র"
    ],
    [
      "৷",
      "</w>"
    ],
    [
      "সত্য",
      "িই</w>"
    ],
    [
      "স",
      ":</w>"
    ],
    [
      "চা",
      "ঁ"
    ],
    [
      "ত",
      "েলে"
    ],
    [
      "বাণিজ্য",
      "িক</w>"
    ],
    [
      "সম",
      "স্যার</w>"
    ],
    [
      "দু",
      "ঃ"
    ],
    [
      "ঐতিহ",
      "্য</w>"
    ],
    [
      "নি",
      "চে</w>"
    ],
    [
      "ডা",
      "ক্ত"
    ],
    [
      "শ্রেণ",
      "ী"
    ],
    [
      "উ",
      "ঁচ"
    ],
    [
      "্র",
      "ু"
    ],
    [
      "উপলব্",
      "ধ</w>"
    ],
    [
      "জী",
      "বাণ"
    ],
    [
      "উই",
      "কি"
    ],
    [
      "ুর",
      "া</w>"
    ],
    [
      "বৈশিষ্ট",
      "্য</w>"
    ],
    [
      "ব",
      "রের</w>"
    ],
    [
      "ব",
      "ক্স</w>"
    ],
    [
      "যা",
      "ই"
    ],
    [
      "অং",
      "শের</w>"
    ],
    [
      "১৯৯",
      "৮</w>"
    ],
    [
      "মান",
      "া</w>"
    ],
    [
      "বিনো",
      "দ"
    ],
    [
      "ইউ",
      "নিয়"
    ],
    [
      "হি",
      "মাল"
    ],
    [
      "ছু",
      "টির</w>"
    ],
    [
      "পি",
      "ড"
    ],
    [
      "অ",
      "পরের</w>"
    ],
    [
      "না",
      "থ</w>"
    ],
    [
      "ং",
      "য়ের</w>"
    ],
    [
      "বি",
      "দেশ"
    ],
    [
      "নির্মা",
      "ণের</w>"
    ],
    [
      "মরশু",
      "মে</w>"
    ],
    [
      "স্ট",
      "ু"
    ],
    [
      "ফ্রা",
      "ন্সের</w>"
    ],
    [
      "কর",
      "বেন</w>"
    ],
    [
      "বোর্",
      "ড</w>"
    ],
    [
      "টি",
      "ভ</w>"
    ],
    [
      "দ্বী",
      "পের</w>"
    ],
    [
      "আর",
      "."
    ],
    [
      "ডে",
      "ল</w>"
    ],
    [
      "জড়",
      "িত</w>"
    ],
    [
      "ত",
      "হ"
    ],
    [
      "রা",
      ",</w>"
    ],
    [
      "জন",
      "গ"
    ],
    [
      "বো",
      "ঝা"
    ],
    [
      "খন",
      "ই</w>"
    ],
    [
      "ঁচ",
      "ে</w>"
    ],
    [
      "ফ",
      "ার"
    ],
    [
      "স",
      "ক্রিয়</w>"
    ],
    [
      "জ",
      "র</w>"
    ],
    [
      "ইংরে",
      "জি</w>"
    ],
    [
      "মিল",
      "িত</w>"
    ],
    [
      "উ",
      "ন</w>"
    ],
    [
      "হ",
      "বে,</w>"
    ],
    [
      "উৎ",
      "পত্ত"
    ],
    [
      "বায়",
      "ু</w>"
    ],
    [
      "যাত্র",
      "া</w>"
    ],
    [
      "ছবি",
      "র</w>"
    ],
    [
      "পাঠ",
      "ানো</w>"
    ],
    [
      "শ",
      "ত</w>"
    ],
    [
      "পূ",
      "রণ</w>"
    ],
    [
      "প্রশং",
      "সা</w>"
    ],
    [
      "প",
      "ান।</w>"
    ],
    [
      "পুর",
      "ে</w>"
    ],
    [
      "প্রা",
      "সা"
    ],
    [
      "পৃষ্ঠ",
      "পোষ"
    ],
    [
      "ই",
      "য়ের</w>"
    ],
    [
      "জ",
      "ারি</w>"
    ],
    [
      "সার",
      "ে</w>"
    ],
    [
      "কাল",
      "ো</w>"
    ],
    [
      "েছিল",
      "াম।</w>"
    ],
    [
      "সাই",
      "কেল</w>"
    ],
    [
      "ব্র",
      "ো"
    ],
    [
      "রাখ",
      "ে।</w>"
    ],
    [
      "বিষ",
      "য়"
    ],
    [
      "নেতৃ",
      "ত্বে</w>"
    ],
    [
      "ম",
      "ুল"
    ],
    [
      "ঘা",
      "ট"
    ],
    [
      "পা",
      "ঞ্জা"
    ],
    [
      "ভার",
      "ী</w>"
    ],
    [
      "নে",
      "ই</w>"
    ],
    [
      "পূর্",
      "ণ।</w>"
    ],
    [
      "সদ",
      "র</w>"
    ],
    [
      "রা",
      "স্তা"
    ],
    [
      "কু",
      "ই"
    ],
    [
      "রে",
      "টি"
    ],
    [
      "অ",
      "বা"
    ],
    [
      "র",
      "ক</w>"
    ],
    [
      "শ্র",
      "ু"
    ],
    [
      "যু",
      "গ"
    ],
    [
      "কা",
      "টার</w>"
    ],
    [
      "ান",
      "দের</w>"
    ],
    [
      "ছ",
      "েলে</w>"
    ],
    [
      "ঙ্",
      "খ"
    ],
    [
      "তন্ত্র",
      "ের</w>"
    ],
    [
      "আ",
      "বদ্ধ</w>"
    ],
    [
      "লি",
      "ন</w>"
    ],
    [
      "ফু",
      "স"
    ],
    [
      "র",
      "ক্ত</w>"
    ],
    [
      "ল",
      "ম্বা</w>"
    ],
    [
      "মন্দির",
      "টি</w>"
    ],
    [
      "অন",
      "লাইনে</w>"
    ],
    [
      "অব",
      "বাহ"
    ],
    [
      "টে",
      "ক্সা"
    ],
    [
      "স্বাস্থ",
      "্য"
    ],
    [
      "গ্রহ",
      "ণের</w>"
    ],
    [
      "ন্ত",
      "র</w>"
    ],
    [
      "বাহি",
      "নীর</w>"
    ],
    [
      "অব",
      "ধি</w>"
    ],
    [
      "স্থানা",
      "ন্তরিত</w>"
    ],
    [
      "স্ত",
      "ু</w>"
    ],
    [
      "মর",
      "্যা"
    ],
    [
      "পরীক্ষ",
      "া"
    ],
    [
      "জন্য",
      "ও</w>"
    ],
    [
      "অঞ্চল",
      "টি</w>"
    ],
    [
      "বি",
      "নামূল"
    ],
    [
      "শে",
      "খ"
    ],
    [
      "ব",
      "স্তু"
    ],
    [
      "বৃষ্টি",
      "পাত</w>"
    ],
    [
      "ত",
      "াল</w>"
    ],
    [
      "বেশির",
      "ভাগ"
    ],
    [
      "হয়",
      "েছিল</w>"
    ],
    [
      ".এ",
      "ন"
    ],
    [
      "লা",
      "দা"
    ],
    [
      "বিক্র",
      "ে"
    ],
    [
      "উভ",
      "য়"
    ],
    [
      "অভিন",
      "য়ের</w>"
    ],
    [
      "প্রধান",
      "ত</w>"
    ],
    [
      "ত",
      "িকে</w>"
    ],
    [
      "স্মৃ",
      "তি"
    ],
    [
      "নী",
      "কে</w>"
    ],
    [
      "মান",
      "সিক</w>"
    ],
    [
      "যাই",
      "হোক,</w>"
    ],
    [
      "নির্ভ",
      "র"
    ],
    [
      "গোষ্ঠ",
      "ী</w>"
    ],
    [
      "নির্",
      "দেশ"
    ],
    [
      "জি",
      "জ্ঞা"
    ],
    [
      "ইন্টার",
      "নেট</w>"
    ],
    [
      "শক্ত",
      "ির</w>"
    ],
    [
      "হাসপাতাল",
      "ে</w>"
    ],
    [
      "দুর্",
      "বল</w>"
    ],
    [
      "অ",
      "ষ্ট"
    ],
    [
      "বাস",
      "ী</w>"
    ],
    [
      "এম",
      "."
    ],
    [
      "নির্ধার",
      "িত</w>"
    ],
    [
      "অনুষ্ঠ",
      "ানে</w>"
    ],
    [
      "দ",
      "ু</w>"
    ],
    [
      "সা",
      "দা</w>"
    ],
    [
      "শৈ",
      "লী"
    ],
    [
      "সব",
      "থেকে</w>"
    ],
    [
      "প্রতি",
      "ক্রিয়া</w>"
    ],
    [
      "ঘ",
      "ণ্"
    ],
    [
      "পাহা",
      "ড়ের</w>"
    ],
    [
      "পি",
      "."
    ],
    [
      "খেল",
      "েছেন।</w>"
    ],
    [
      "লা",
      "ভ"
    ],
    [
      "বে",
      "ও</w>"
    ],
    [
      "ন্",
      "থ"
    ],
    [
      "অব",
      "শেষে</w>"
    ],
    [
      "আ",
      "শ্র"
    ],
    [
      "দা",
      "ই</w>"
    ],
    [
      "খেল",
      "েন।</w>"
    ],
    [
      "পরিষে",
      "বা"
    ],
    [
      "পোর্",
      "ট</w>"
    ],
    [
      "সংস্থা",
      "টি</w>"
    ],
    [
      "চার",
      "পাশে</w>"
    ],
    [
      "চ",
      "্যান"
    ],
    [
      "টা",
      "কে</w>"
    ],
    [
      "তথ",
      "্য"
    ],
    [
      "া",
      "কে</w>"
    ],
    [
      "প্র",
      "চার</w>"
    ],
    [
      "পাল",
      "িত</w>"
    ],
    [
      "মুখ",
      "</w>"
    ],
    [
      "ফাইন",
      "ালে</w>"
    ],
    [
      "য",
      "ন্ত্র</w>"
    ],
    [
      "বিজ",
      "য়"
    ],
    [
      "চলচ্চিত্র",
      "টির</w>"
    ],
    [
      "কিং",
      "বদ"
    ],
    [
      "থাক",
      "েন।</w>"
    ],
    [
      "ত",
      "নের</w>"
    ],
    [
      "বয়",
      "সে</w>"
    ],
    [
      "স",
      "িকি"
    ],
    [
      "দ্বীপ",
      "পু"
    ],
    [
      "জায়",
      "গা</w>"
    ],
    [
      "দ",
      "ুর"
    ],
    [
      "জেন",
      "ারে"
    ],
    [
      "সেনাবাহি",
      "নীর</w>"
    ],
    [
      "ন্",
      "তি"
    ],
    [
      "দ",
      "ণ্ড</w>"
    ],
    [
      "হ",
      "রি"
    ],
    [
      "উপ",
      "হার</w>"
    ],
    [
      "ল্যা",
      "ন্ড"
    ],
    [
      "নাম",
      "টি</w>"
    ],
    [
      "সপ্তা",
      "হে</w>"
    ],
    [
      "পার",
      "্ব"
    ],
    [
      "মে",
      "ক্স"
    ],
    [
      "সাফল",
      "্য</w>"
    ],
    [
      "স্বাধ",
      "ীন</w>"
    ],
    [
      "ত",
      "েল"
    ],
    [
      "মাঝ",
      "া"
    ],
    [
      "মাঝা",
      "মাঝ"
    ],
    [
      "র",
      "্য</w>"
    ],
    [
      "ন",
      "শীল</w>"
    ],
    [
      "গল্প",
      "</w>"
    ],
    [
      "নিক",
      "ট"
    ],
    [
      "মিনি",
      "টের</w>"
    ],
    [
      "ও",
      "র</w>"
    ],
    [
      "অ্যাসোসিয়ে",
      "শন</w>"
    ],
    [
      "ভ",
      "্যা"
    ],
    [
      "চ",
      "ি</w>"
    ],
    [
      "ট",
      "িক"
    ],
    [
      "হলু",
      "দ</w>"
    ],
    [
      "ট",
      "েল"
    ],
    [
      "মুখো",
      "মুখ"
    ],
    [
      "৮",
      "০</w>"
    ],
    [
      "প্রসার",
      "িত</w>"
    ],
    [
      "সম",
      "গ্র</w>"
    ],
    [
      "শি",
      "খ"
    ],
    [
      "যা",
      "বে।</w>"
    ],
    [
      "য়ে",
      "ড</w>"
    ],
    [
      "সঞ্চ",
      "য়</w>"
    ],
    [
      "অর্",
      "ডার</w>"
    ],
    [
      "ইংল্যা",
      "ণ্ডের</w>"
    ],
    [
      "হয়",
      "েছিলেন।</w>"
    ],
    [
      "বল",
      "েছিলেন</w>"
    ],
    [
      "হিসা",
      "বে,</w>"
    ],
    [
      "ব",
      "স্তু</w>"
    ],
    [
      "শারীর",
      "িক</w>"
    ],
    [
      "কর্তৃ",
      "ক</w>"
    ],
    [
      "শতাব্দ",
      "ী</w>"
    ],
    [
      "বা",
      "ই</w>"
    ],
    [
      "হয়",
      "েছে</w>"
    ],
    [
      "করছ",
      "েন।</w>"
    ],
    [
      "২",
      "টি</w>"
    ],
    [
      "ব",
      "ংশ</w>"
    ],
    [
      "পড়া",
      "শোনা</w>"
    ],
    [
      "শ",
      "ৃ"
    ],
    [
      "সড়",
      "ক</w>"
    ],
    [
      "ক্র",
      "্যা"
    ],
    [
      "পুন",
      "রা"
    ],
    [
      "ক্ষতি",
      "গ্রস্ত</w>"
    ],
    [
      "অন",
      "লাইন</w>"
    ],
    [
      "স্",
      "ক্রি"
    ],
    [
      "ডব্",
      "লিউ"
    ],
    [
      "বিষ",
      "য়</w>"
    ],
    [
      "নিয়",
      "োগ</w>"
    ],
    [
      "দৃ",
      "ষ্টি"
    ],
    [
      "ন",
      "কারী</w>"
    ],
    [
      "ক",
      "মে</w>"
    ],
    [
      "ম্যা",
      "চে</w>"
    ],
    [
      "গর্",
      "ভ"
    ],
    [
      "স্ট",
      "ার্"
    ],
    [
      "মুখোমুখ",
      "ি</w>"
    ],
    [
      "অস্ট্রেল",
      "িয়ার</w>"
    ],
    [
      "কো",
      "থা"
    ],
    [
      "শত",
      "কের</w>"
    ],
    [
      "ধ",
      "্রু"
    ],
    [
      "সন্",
      "তান</w>"
    ],
    [
      "এলা",
      "কার</w>"
    ],
    [
      "কো",
      "ড</w>"
    ],
    [
      "ই",
      "ত্যা"
    ],
    [
      "এ",
      "য়ার"
    ],
    [
      "ধ",
      "ী</w>"
    ],
    [
      "িয়া",
      ",</w>"
    ],
    [
      "অভি",
      "য"
    ],
    [
      "শীর্",
      "ষ</w>"
    ],
    [
      "ই",
      "ল"
    ],
    [
      "ফিল",
      "্ড</w>"
    ],
    [
      "হ্র",
      "দ</w>"
    ],
    [
      "টি",
      "ই</w>"
    ],
    [
      "এ",
      "ল</w>"
    ],
    [
      "বাড়",
      "ির</w>"
    ],
    [
      "অধ",
      "্যা"
    ],
    [
      "শ",
      "িত</w>"
    ],
    [
      "স্ত",
      "র</w>"
    ],
    [
      "জায়",
      "গা</w>"
    ],
    [
      "গ",
      "ন্ধ"
    ],
    [
      "ঙ্গ",
      "ু"
    ],
    [
      "ওঠ",
      "েন।</w>"
    ],
    [
      "র",
      "ার</w>"
    ],
    [
      "রোগ",
      "ে</w>"
    ],
    [
      "ার",
      ",</w>"
    ],
    [
      "উ",
      "ল"
    ],
    [
      "ার",
      "ে</w>"
    ],
    [
      "জন্",
      "মের</w>"
    ],
    [
      "চূ",
      "ড়া"
    ],
    [
      "ম্",
      "বি"
    ],
    [
      "ভ",
      "োগ</w>"
    ],
    [
      "শৈল",
      "ী</w>"
    ],
    [
      "অ",
      "পারে"
    ],
    [
      "নথি",
      "ভুক্ত</w>"
    ],
    [
      "প্রাথ",
      "ম"
    ],
    [
      "গ",
      "রি"
    ],
    [
      "খা",
      "বারের</w>"
    ],
    [
      "দক্ষিণ-",
      "পূর্ব</w>"
    ],
    [
      "বা",
      "জার"
    ],
    [
      "স্বা",
      "ক্ষ"
    ],
    [
      "প্রথম",
      "বার</w>"
    ],
    [
      "সেনাবাহি",
      "নী</w>"
    ],
    [
      "সম্প",
      "ত্ত"
    ],
    [
      "ক্যা",
      "থ"
    ],
    [
      "পৃ",
      "থি"
    ],
    [
      "শ",
      "র"
    ],
    [
      "খেলোয়াড়",
      "রা</w>"
    ],
    [
      "ব্রি",
      "ট"
    ],
    [
      "বো",
      "ধ</w>"
    ],
    [
      "পশ্চিম",
      "ব"
    ],
    [
      "ব্যব",
      "স্থার</w>"
    ],
    [
      "কো",
      "ন"
    ],
    [
      "পা",
      "য়</w>"
    ],
    [
      "ড়",
      "ার</w>"
    ],
    [
      "ব্যব",
      "সার</w>"
    ],
    [
      "উপাদ",
      "ান</w>"
    ],
    [
      "দি",
      "ন।</w>"
    ],
    [
      "টে",
      "ল</w>"
    ],
    [
      "দিল্",
      "লিতে</w>"
    ],
    [
      "র",
      "চ"
    ],
    [
      "ই",
      "র"
    ],
    [
      "পরীক্ষ",
      "ার</w>"
    ],
    [
      "উৎ",
      "স"
    ],
    [
      "ধ",
      "ার</w>"
    ],
    [
      "ফ",
      "র"
    ],
    [
      "সং",
      "গঠিত</w>"
    ],
    [
      "ফ",
      "ে</w>"
    ],
    [
      "ান",
      "ি"
    ],
    [
      "ম্",
      "ভ</w>"
    ],
    [
      "বে",
      "ঁচে</w>"
    ],
    [
      "পা",
      "স</w>"
    ],
    [
      "ব্যব",
      "স্থা"
    ],
    [
      "বা",
      "চ্চ"
    ],
    [
      "স্ট",
      "ের</w>"
    ],
    [
      "বিশেষ",
      "জ্ঞ"
    ],
    [
      "২০",
      "০</w>"
    ],
    [
      "্য",
      "ারা"
    ],
    [
      "প্র",
      "চেষ্ট"
    ],
    [
      "মাঝামাঝ",
      "ি</w>"
    ],
    [
      "ভার",
      "ত"
    ],
    [
      "তা",
      "তে</w>"
    ],
    [
      "জা",
      "ত</w>"
    ],
    [
      "প্র",
      "কৃত</w>"
    ],
    [
      "গ্রী",
      "ক</w>"
    ],
    [
      "ব্রা",
      "হ্ম"
    ],
    [
      "নি",
      "বেশ</w>"
    ],
    [
      "বন্ধ",
      "ু</w>"
    ],
    [
      "ক",
      "ীয়</w>"
    ],
    [
      "ত",
      "রু"
    ],
    [
      "ভ",
      "িল"
    ],
    [
      "বিচ্ছ",
      "ে"
    ],
    [
      "নি",
      "ষি"
    ],
    [
      "াল",
      "ার</w>"
    ],
    [
      "ব্যা",
      "ঙ্ক</w>"
    ],
    [
      "মিনি",
      "টে</w>"
    ],
    [
      "শ",
      "ী</w>"
    ],
    [
      "তামিলনাড়",
      "ু</w>"
    ],
    [
      "ধ",
      "ানে</w>"
    ],
    [
      "ছ",
      "েলে"
    ],
    [
      "ঢ",
      "়"
    ],
    [
      "মে",
      "য়ে"
    ],
    [
      "ন",
      "য়</w>"
    ],
    [
      "ণ্ড",
      "ার</w>"
    ],
    [
      "ক্ট",
      "র</w>"
    ],
    [
      "শ",
      "নে</w>"
    ],
    [
      "সাত",
      "টি</w>"
    ],
    [
      "প্রাপ্ত",
      "বয়"
    ],
    [
      "প",
      ",</w>"
    ],
    [
      "ে",
      "স</w>"
    ],
    [
      "ধ",
      "ু</w>"
    ],
    [
      ".এ",
      "."
    ],
    [
      "বল",
      "ে।</w>"
    ],
    [
      "প",
      "্যারি"
    ],
    [
      "পু",
      "ত্র"
    ],
    [
      "সম্",
      "মান"
    ],
    [
      "দিয়",
      "েছিলেন।</w>"
    ],
    [
      "প",
      "তি"
    ],
    [
      "১৯৯",
      "৬</w>"
    ],
    [
      "অল্প",
      "</w>"
    ],
    [
      "যুক্ত",
      "রাষ্ট্র</w>"
    ],
    [
      "গ",
      "ো</w>"
    ],
    [
      "অনু",
      "মান</w>"
    ],
    [
      "মাল",
      "া</w>"
    ],
    [
      "হা",
      "য়"
    ],
    [
      "মাই",
      "ল</w>"
    ],
    [
      "ক্রী",
      "ড়া"
    ],
    [
      "য়",
      "িত</w>"
    ],
    [
      "উদ্ভ",
      "ূত</w>"
    ],
    [
      "সে",
      "কে"
    ],
    [
      "জীব",
      "নে</w>"
    ],
    [
      "ম",
      "ারের</w>"
    ],
    [
      "গা",
      "য়"
    ],
    [
      "পাকিস্ত",
      "ানের</w>"
    ],
    [
      "বাণিজ",
      "্য</w>"
    ],
    [
      "ে",
      "ও,</w>"
    ],
    [
      "ঘ",
      "র</w>"
    ],
    [
      "তা",
      "য়</w>"
    ],
    [
      "মান",
      "িক</w>"
    ],
    [
      "চি",
      "ত্র</w>"
    ],
    [
      "ফা",
      "ঁ"
    ],
    [
      "এ",
      "টি।</w>"
    ],
    [
      "প্রযো",
      "জনা</w>"
    ],
    [
      "৫",
      "০০</w>"
    ],
    [
      "গ",
      "ল</w>"
    ],
    [
      "প্র",
      "য়ো"
    ],
    [
      "যৌ",
      "ন</w>"
    ],
    [
      "আ",
      "বে"
    ],
    [
      "আত্ম",
      "প্রকাশ</w>"
    ],
    [
      "ফিল",
      "্ড"
    ],
    [
      "ব",
      "হি"
    ],
    [
      "অ",
      "ঙ্গ"
    ],
    [
      "উত্ত",
      "রাধ"
    ],
    [
      "শহর",
      "টি</w>"
    ],
    [
      "লেখ",
      "ক</w>"
    ],
    [
      "তি",
      "রু"
    ],
    [
      "যোগ্য",
      "তা</w>"
    ],
    [
      "র্",
      "ণ</w>"
    ],
    [
      "দে",
      "রকে</w>"
    ],
    [
      "পূ",
      "জা</w>"
    ],
    [
      "রঙ",
      "</w>"
    ],
    [
      "স্কে",
      "ট"
    ],
    [
      "চো",
      "ল</w>"
    ],
    [
      "রা",
      "ই</w>"
    ],
    [
      "ভিত্ত",
      "িতে</w>"
    ],
    [
      "পর্",
      "তু"
    ],
    [
      "সম্",
      "মান</w>"
    ],
    [
      "কৃষ",
      "ি</w>"
    ],
    [
      "জ",
      "াল"
    ],
    [
      "ঙ্",
      "কের</w>"
    ],
    [
      "ো",
      "হ"
    ],
    [
      "কর",
      "বেন।</w>"
    ],
    [
      "কে",
      "টে</w>"
    ],
    [
      "উপ",
      "জা"
    ],
    [
      "ং",
      "-এর</w>"
    ],
    [
      "ঙ্গ",
      "ল</w>"
    ],
    [
      "অনুশীল",
      "ন</w>"
    ],
    [
      "দ",
      "ারি"
    ],
    [
      "শ",
      "িকার</w>"
    ],
    [
      "দৃ",
      "ষ্টি</w>"
    ],
    [
      "ই",
      "ট</w>"
    ],
    [
      "ত্ত্",
      "বিক</w>"
    ],
    [
      "না",
      "য়ক</w>"
    ],
    [
      "লে",
      "ও,</w>"
    ],
    [
      "আস",
      "তে</w>"
    ],
    [
      "যু",
      "গে</w>"
    ],
    [
      "শাস্ত্র",
      "ীয়</w>"
    ],
    [
      "সু",
      "র</w>"
    ],
    [
      "ফেল",
      "ে</w>"
    ],
    [
      "বিশেষ",
      "ভাবে</w>"
    ],
    [
      "থ",
      "ার</w>"
    ],
    [
      "ড",
      ",</w>"
    ],
    [
      "বেশিরভাগ",
      "ই</w>"
    ],
    [
      "ভ",
      "র"
    ],
    [
      "প্র",
      "ক্রিয়া"
    ],
    [
      "গু",
      "হা</w>"
    ],
    [
      "সংস্থা",
      "।</w>"
    ],
    [
      "ম",
      "গুলি</w>"
    ],
    [
      "উই",
      "ণ্ডো"
    ],
    [
      "সূ",
      "চনা</w>"
    ],
    [
      "ফিল্ম",
      "ফে"
    ],
    [
      "ণ",
      "িক</w>"
    ],
    [
      "ম",
      "স"
    ],
    [
      "অ",
      "সংখ"
    ],
    [
      "ভ",
      "িল</w>"
    ],
    [
      "র",
      "টি</w>"
    ],
    [
      "স্",
      "বল"
    ],
    [
      "ন",
      "-"
    ],
    [
      "থাক",
      "লে</w>"
    ],
    [
      "্য",
      ",</w>"
    ],
    [
      "প",
      "।</w>"
    ],
    [
      "হি",
      "ং"
    ],
    [
      "রা",
      "গ</w>"
    ],
    [
      "গ্র",
      "্যা"
    ],
    [
      "দ্বী",
      "প</w>"
    ],
    [
      "প্র",
      "চার"
    ],
    [
      "ভ",
      "িয়ে"
    ],
    [
      "ঘন্",
      "টা</w>"
    ],
    [
      "ক",
      "ত</w>"
    ],
    [
      "জান",
      "ো</w>"
    ],
    [
      "শরী",
      "রের</w>"
    ],
    [
      "ব",
      "দ্ধ"
    ],
    [
      "ব্যা",
      "ং"
    ],
    [
      "গ্রা",
      "ম।</w>"
    ],
    [
      "ম",
      "-"
    ],
    [
      "নক",
      "শা</w>"
    ],
    [
      "ধ্ব",
      "ং"
    ],
    [
      "দ",
      ",</w>"
    ],
    [
      "স",
      "মান</w>"
    ],
    [
      "'",
      "-এর</w>"
    ],
    [
      "ব",
      "েন"
    ],
    [
      "জ",
      "োর</w>"
    ],
    [
      "৯",
      "০</w>"
    ],
    [
      "গোল",
      "রক্ষ"
    ],
    [
      "২",
      "-"
    ],
    [
      "স্বল",
      "্প"
    ],
    [
      "বি",
      "ন্যা"
    ],
    [
      "চিকিৎ",
      "স"
    ],
    [
      "বি",
      "."
    ],
    [
      "বিমানবন্দ",
      "র</w>"
    ],
    [
      "ব্যা",
      "ন্ড"
    ],
    [
      "মৌ",
      "লিক</w>"
    ],
    [
      "ন",
      "ারা"
    ],
    [
      "উৎ",
      "সর্"
    ],
    [
      "অসংখ",
      "্য</w>"
    ],
    [
      "সা",
      "হ"
    ],
    [
      "অনুরূ",
      "প</w>"
    ],
    [
      "শু",
      "ন"
    ],
    [
      "প্",
      "তি</w>"
    ],
    [
      "স্",
      "বর্ণ"
    ],
    [
      "ভিত",
      "রে</w>"
    ],
    [
      "১",
      "টি</w>"
    ],
    [
      "শু",
      "ষ্"
    ],
    [
      "সং",
      "গ্রহ"
    ],
    [
      "ম্ব",
      "ে</w>"
    ],
    [
      "অফি",
      "সে</w>"
    ],
    [
      "খান",
      "কার</w>"
    ],
    [
      "জায়গা",
      "য়</w>"
    ],
    [
      "গভ",
      "ীর</w>"
    ],
    [
      "পরি",
      "ষ্কার</w>"
    ],
    [
      "নী",
      "ল</w>"
    ],
    [
      "১৯৯",
      "৫</w>"
    ],
    [
      "কা",
      "গ"
    ],
    [
      "আকর্",
      "ষ"
    ],
    [
      "অনু",
      "ভব</w>"
    ],
    [
      "প",
      "ঞ্"
    ],
    [
      "নদী",
      "তে</w>"
    ],
    [
      ".সি",
      "."
    ],
    [
      "নী",
      "চে</w>"
    ],
    [
      "পো",
      "লো</w>"
    ],
    [
      "কি",
      "মি</w>"
    ],
    [
      "চ",
      ",</w>"
    ],
    [
      "সেন",
      "ে"
    ],
    [
      "ম্ম",
      "দ</w>"
    ],
    [
      "সম",
      "ী"
    ],
    [
      "প",
      "ণ</w>"
    ],
    [
      "ভ",
      "র্"
    ],
    [
      "স",
      "দের</w>"
    ],
    [
      "শী",
      "ঘ"
    ],
    [
      "গু",
      "প্ত</w>"
    ],
    [
      "ী",
      "ত</w>"
    ],
    [
      "কৌশ",
      "ল"
    ],
    [
      "এক",
      "ত্র"
    ],
    [
      "নি",
      "বেশ"
    ],
    [
      "ন্ত্র",
      "িক</w>"
    ],
    [
      "ব",
      "ক্ত"
    ],
    [
      "চূড়া",
      "ন্ত</w>"
    ],
    [
      "স",
      "রে</w>"
    ],
    [
      "মে",
      "রু"
    ],
    [
      "ধ",
      "ূ"
    ],
    [
      "জাপ",
      "ানের</w>"
    ],
    [
      "ট",
      "কে</w>"
    ],
    [
      "স্",
      "মর"
    ],
    [
      "উ",
      "র্"
    ],
    [
      "সা",
      "ঁ"
    ],
    [
      "ল",
      "ে,</w>"
    ],
    [
      "অভিনে",
      "ত্রী</w>"
    ],
    [
      "ব",
      "ী</w>"
    ],
    [
      "পর্যা",
      "য়ে</w>"
    ],
    [
      "কম",
      "পক্ষে</w>"
    ],
    [
      "স্ত",
      "রের</w>"
    ],
    [
      "ট",
      "গুলি</w>"
    ],
    [
      "ব্যবসা",
      "য়িক</w>"
    ],
    [
      "ত্ব",
      "কের</w>"
    ],
    [
      "পেন",
      "াল্"
    ],
    [
      "ফ্রা",
      "ন্"
    ],
    [
      "ও",
      "ই</w>"
    ],
    [
      "আ",
      "হ"
    ],
    [
      "কাল",
      "ে,</w>"
    ],
    [
      "প্রতিনি",
      "ধি</w>"
    ],
    [
      "টি",
      "ও</w>"
    ],
    [
      "ড",
      "েন"
    ],
    [
      "দ্ধ",
      "া</w>"
    ],
    [
      "প্রার্থ",
      "না</w>"
    ],
    [
      "উপ",
      "স্থাপ"
    ],
    [
      "প্র",
      "য়"
    ],
    [
      "খ্রি",
      "স্ট"
    ],
    [
      "কৃ",
      "ত"
    ],
    [
      "২",
      "৪</w>"
    ],
    [
      "জ",
      "েন</w>"
    ],
    [
      "সমৃ",
      "দ্ধ</w>"
    ],
    [
      "সং",
      "যোগ</w>"
    ],
    [
      "পুল",
      "ি"
    ],
    [
      "ফা",
      "উ"
    ],
    [
      "গ",
      "েলে</w>"
    ],
    [
      "উদ্ভ",
      "া"
    ],
    [
      "ছাড়া",
      "ই</w>"
    ],
    [
      "প্র",
      "দেশে</w>"
    ],
    [
      "ন্",
      "ডি"
    ],
    [
      "ভার",
      "তীয়</w>"
    ],
    [
      "দেশ",
      "ীয়</w>"
    ],
    [
      "জ",
      "মি</w>"
    ],
    [
      "হত্য",
      "ার</w>"
    ],
    [
      "রা",
      "উ"
    ],
    [
      "মরশু",
      "মের</w>"
    ],
    [
      "গা",
      "ঁ"
    ],
    [
      "শিক্ষ",
      "ার</w>"
    ],
    [
      "ভগ",
      "বান</w>"
    ],
    [
      "পণ",
      "্যের</w>"
    ],
    [
      "ক",
      "ে।</w>"
    ],
    [
      "ওষু",
      "ধ</w>"
    ],
    [
      "ঞ্চ",
      "লে</w>"
    ],
    [
      "৩",
      "টি</w>"
    ],
    [
      "গঠ",
      "নের</w>"
    ],
    [
      "জেনারে",
      "ল</w>"
    ],
    [
      "ইতি",
      "বাচক</w>"
    ],
    [
      "নে",
      "ওয়ার</w>"
    ],
    [
      "গোষ্ঠ",
      "ী"
    ],
    [
      "পারি",
      "বার"
    ],
    [
      "নী",
      "তির</w>"
    ],
    [
      "জে",
      "ই</w>"
    ],
    [
      "স্",
      "পর্"
    ],
    [
      "হাল",
      "কা</w>"
    ],
    [
      "কল",
      "কা"
    ],
    [
      "রি",
      ",</w>"
    ],
    [
      "দিব",
      "স</w>"
    ],
    [
      "কিছু",
      "টা</w>"
    ],
    [
      "উপ",
      "ার্"
    ],
    [
      "বৃহত্ত",
      "র</w>"
    ],
    [
      "দার",
      "ু"
    ],
    [
      "ড়া",
      "তে</w>"
    ],
    [
      "দ",
      "্যু"
    ],
    [
      "আনুষ্ঠান",
      "িকভাবে</w>"
    ],
    [
      "স",
      "জ্"
    ],
    [
      "মাল",
      "িক</w>"
    ],
    [
      "ব",
      "ড়"
    ],
    [
      "শি",
      "খ</w>"
    ],
    [
      "ম",
      "ে,</w>"
    ],
    [
      "ধি",
      "প"
    ],
    [
      ".এ",
      "স</w>"
    ],
    [
      "ন",
      "ৈ"
    ],
    [
      "উঠ",
      "ে</w>"
    ],
    [
      "ক",
      "তটা</w>"
    ],
    [
      "িয়া",
      "ম</w>"
    ],
    [
      "ার্",
      "স</w>"
    ],
    [
      "বিজ্ঞ",
      "া"
    ],
    [
      "ন্",
      "টা"
    ],
    [
      "অ",
      "গ্"
    ],
    [
      "সা",
      "উ"
    ],
    [
      "উদ্ভি",
      "দ</w>"
    ],
    [
      "মে",
      "ই"
    ],
    [
      "উদ",
      "্যান</w>"
    ],
    [
      "হ্র",
      "দের</w>"
    ],
    [
      "রা",
      "।</w>"
    ],
    [
      "উ",
      "পরের</w>"
    ],
    [
      "য়ে",
      "ল</w>"
    ],
    [
      "কন",
      "্যা</w>"
    ],
    [
      "সা",
      "ক্ষা"
    ],
    [
      "৭",
      "০</w>"
    ],
    [
      "গান",
      "টি</w>"
    ],
    [
      "পারিবার",
      "িক</w>"
    ],
    [
      "আ",
      "ধিপ"
    ],
    [
      "কা",
      "ই"
    ],
    [
      "পাথ",
      "রের</w>"
    ],
    [
      "বে",
      "ল</w>"
    ],
    [
      "১৯৪",
      "৭</w>"
    ],
    [
      "বিদ",
      "্য"
    ],
    [
      "নিরাপত্ত",
      "া</w>"
    ],
    [
      "স্থান",
      "ীয়</w>"
    ],
    [
      "পর্য",
      "টন</w>"
    ],
    [
      "গিয়",
      "েছে।</w>"
    ],
    [
      "মাইক্রো",
      "সফ্"
    ],
    [
      "বা",
      "স্কেট"
    ],
    [
      "স",
      "িত</w>"
    ],
    [
      "পরি",
      "চ"
    ],
    [
      "উদ্দেশ",
      "্য</w>"
    ],
    [
      "শীঘ",
      "্র"
    ],
    [
      "জ",
      "মি"
    ],
    [
      "রাজ",
      "ি</w>"
    ],
    [
      "প্রতিষ্ঠ",
      "া"
    ],
    [
      "গুর",
      "ু</w>"
    ],
    [
      "বৃদ্ধ",
      "ির</w>"
    ],
    [
      "কা",
      "য়</w>"
    ],
    [
      "পার",
      "েন,</w>"
    ],
    [
      "িক",
      "ারের</w>"
    ],
    [
      "১৯৯",
      "২</w>"
    ],
    [
      "র",
      "ে,</w>"
    ],
    [
      "ব্র",
      "হ্ম"
    ],
    [
      "স্ত",
      "রে</w>"
    ],
    [
      "ব্",
      "ল্যা"
    ],
    [
      "ঠ",
      "িক"
    ],
    [
      "চা",
      "হি"
    ],
    [
      "১৮",
      "৫"
    ],
    [
      "ম্ব",
      "র,</w>"
    ],
    [
      "তৈ",
      "রির</w>"
    ],
    [
      "তার",
      "পরে</w>"
    ],
    [
      "রে",
      "স্তো"
    ],
    [
      "রেস্তো",
      "রা"
    ],
    [
      "অভ",
      "য়ার"
    ],
    [
      "অভয়ার",
      "ণ"
    ],
    [
      "উত্তর-",
      "পূর্ব</w>"
    ],
    [
      "শীত",
      "কালীন</w>"
    ],
    [
      "বৈ",
      "দ্যু"
    ],
    [
      "আ",
      "গ্রহ"
    ],
    [
      "ন্ত্র",
      "ণ</w>"
    ],
    [
      "মা",
      ",</w>"
    ],
    [
      "ধ",
      "ীন</w>"
    ],
    [
      "দা",
      "য়"
    ],
    [
      "বিবর",
      "ণ</w>"
    ],
    [
      "পথ",
      "ের</w>"
    ],
    [
      "দৃশ",
      "্য</w>"
    ],
    [
      "প",
      "ক</w>"
    ],
    [
      "সদস্য",
      "দের</w>"
    ],
    [
      "ম",
      "য়</w>"
    ],
    [
      "পরিবেশ",
      "ন</w>"
    ],
    [
      "খেলোয়া",
      "ড়</w>"
    ],
    [
      "আ",
      "না</w>"
    ],
    [
      "বির",
      "ল</w>"
    ],
    [
      "কমি",
      "উ"
    ],
    [
      "আ",
      "ঁ"
    ],
    [
      "আ",
      "গা"
    ],
    [
      "আবি",
      "ষ্"
    ],
    [
      "জলপ্র",
      "পাত</w>"
    ],
    [
      "সংরক্ষ",
      "ণ</w>"
    ],
    [
      "ডে",
      "ভি"
    ],
    [
      "সং",
      "শো"
    ],
    [
      "টা",
      "য়</w>"
    ],
    [
      "ও",
      "কলা"
    ],
    [
      "রা",
      "য়"
    ],
    [
      "চাল",
      "িয়ে</w>"
    ],
    [
      "ই",
      "স্ট</w>"
    ],
    [
      "গ্রে",
      "প্"
    ],
    [
      "সা",
      "ক্ষ"
    ],
    [
      "য়ে",
      "শ"
    ],
    [
      "আ",
      "বেদন</w>"
    ],
    [
      "ে",
      "শ</w>"
    ],
    [
      "ম",
      "র্"
    ],
    [
      "দশ",
      "ক</w>"
    ],
    [
      "প",
      "ির</w>"
    ],
    [
      "সম্প্র",
      "সার"
    ],
    [
      "কাশ্ম",
      "ী"
    ],
    [
      "হার",
      "িয়ে</w>"
    ],
    [
      "বাধ",
      "া</w>"
    ],
    [
      "ণ",
      "কে</w>"
    ],
    [
      ")",
      "-এর</w>"
    ],
    [
      "পা",
      "ঠা"
    ],
    [
      "প্রয়োজন",
      "।</w>"
    ],
    [
      "দূ",
      "র</w>"
    ],
    [
      "েছ",
      "ি।</w>"
    ],
    [
      "প",
      "ত্রের</w>"
    ],
    [
      "ন",
      "য়।</w>"
    ],
    [
      "গো",
      "লা"
    ],
    [
      "না",
      "ক্ত</w>"
    ],
    [
      "ব্",
      "লু"
    ],
    [
      "স",
      "ঞ্"
    ],
    [
      "ফেডারে",
      "শন</w>"
    ],
    [
      "সাগ",
      "র</w>"
    ],
    [
      "অ",
      "তী"
    ],
    [
      "সী",
      "মিত</w>"
    ],
    [
      "ক",
      "ো</w>"
    ],
    [
      "বহ",
      "ুল</w>"
    ],
    [
      "ব্যব",
      "স্থাপ"
    ],
    [
      "গঠ",
      "িত।</w>"
    ],
    [
      "ডি",
      "জি"
    ],
    [
      "চাল",
      "িত</w>"
    ],
    [
      "দোক",
      "ানের</w>"
    ],
    [
      "টি",
      "."
    ],
    [
      "কো",
      "ষ"
    ],
    [
      "ভাইরা",
      "স</w>"
    ],
    [
      "ক",
      "্যারো"
    ],
    [
      "ওকলা",
      "হো"
    ],
    [
      "অবস্থ",
      "ার</w>"
    ],
    [
      "ত",
      "ারা"
    ],
    [
      "অনু",
      "প"
    ],
    [
      "পাল",
      "ের</w>"
    ],
    [
      "আ",
      "কৃ"
    ],
    [
      "জিল",
      "্যা"
    ],
    [
      "মুসল",
      "মান"
    ],
    [
      "জ",
      "।</w>"
    ],
    [
      "আকর্",
      "ষণ</w>"
    ],
    [
      "নে",
      "ওয়া</w>"
    ],
    [
      "পূর্",
      "ণ"
    ],
    [
      "ফোর্",
      "ড</w>"
    ],
    [
      "জাপ",
      "ানি</w>"
    ],
    [
      "অপে",
      "ক্ষা</w>"
    ],
    [
      "নাট",
      "্য"
    ],
    [
      "কাউন্",
      "ট</w>"
    ],
    [
      "ক্রী",
      "ড়া"
    ],
    [
      "থাক",
      "বে।</w>"
    ],
    [
      "ক্রে",
      "ডি"
    ],
    [
      "ক",
      "ল</w>"
    ],
    [
      "ট",
      "িকা"
    ],
    [
      "রাজ",
      "ত্ব"
    ],
    [
      "ছ",
      "য়</w>"
    ],
    [
      "ভ্র",
      "া"
    ],
    [
      "িয়",
      "ন</w>"
    ],
    [
      "রাজ",
      "পু"
    ],
    [
      "বিদ্রো",
      "হ</w>"
    ],
    [
      "সংক্ষি",
      "প্ত</w>"
    ],
    [
      "য",
      "ত"
    ],
    [
      "ন",
      "াল</w>"
    ],
    [
      "জিজ্ঞা",
      "সা</w>"
    ],
    [
      "মার্",
      "শাল</w>"
    ],
    [
      "এ",
      "গিয়ে</w>"
    ],
    [
      "উদাহর",
      "ণ</w>"
    ],
    [
      "পাথ",
      "র</w>"
    ],
    [
      "সম্প",
      "দ</w>"
    ],
    [
      "বু",
      "দ্ধ"
    ],
    [
      "স্থ",
      "ল</w>"
    ],
    [
      "পড়",
      "ে।</w>"
    ],
    [
      "ত",
      "ল</w>"
    ],
    [
      "মেঘ",
      "াল"
    ],
    [
      "ধর",
      "ণের</w>"
    ],
    [
      "ব্যা",
      "ণ্ড"
    ],
    [
      "রঙ্গ",
      "জে"
    ],
    [
      "নাট",
      "্য</w>"
    ],
    [
      "হে",
      "রে</w>"
    ],
    [
      "ব",
      ",</w>"
    ],
    [
      "সাম্প্র",
      "তিক</w>"
    ],
    [
      "আক্রম",
      "ণের</w>"
    ],
    [
      "অ",
      "-"
    ],
    [
      "অনুযা",
      "য়ী</w>"
    ],
    [
      "এ",
      "ড"
    ],
    [
      "ড়",
      "ি"
    ],
    [
      "সিরি",
      "জ</w>"
    ],
    [
      "ইঙ্গ",
      "িত</w>"
    ],
    [
      "কর্ম",
      "সূচ"
    ],
    [
      "ম",
      "িয়ার</w>"
    ],
    [
      "১৫",
      "ই</w>"
    ],
    [
      "রয়",
      "েছে"
    ],
    [
      "ত",
      "ম।</w>"
    ],
    [
      "সিং",
      "হ</w>"
    ],
    [
      "ঔ",
      "রঙ্গজে"
    ],
    [
      "উপ",
      "মহা"
    ],
    [
      "৪",
      "০"
    ],
    [
      "ব",
      "-"
    ],
    [
      "গুলি",
      "ও</w>"
    ],
    [
      "নী",
      "তে</w>"
    ],
    [
      "িকার",
      "ী</w>"
    ],
    [
      "না",
      "ও</w>"
    ],
    [
      "অন্য",
      "দের</w>"
    ],
    [
      "বিশ্ববিদ্যাল",
      "য়ের</w>"
    ],
    [
      "মৃ",
      "ত"
    ],
    [
      "বে",
      "ক্ষণ</w>"
    ],
    [
      "ফুস",
      "ফু"
    ],
    [
      "মে",
      "ট্র"
    ],
    [
      "মি",
      "ং</w>"
    ],
    [
      "েছিল",
      "াম</w>"
    ],
    [
      "ণ",
      "ী</w>"
    ],
    [
      "স",
      "িক"
    ],
    [
      "আন",
      "ন্দ"
    ],
    [
      "পরিস্থি",
      "তি</w>"
    ],
    [
      "উদ",
      "্য"
    ],
    [
      "বৈশিষ্ট",
      "্য"
    ],
    [
      "ফিল্মফে",
      "য়ার</w>"
    ],
    [
      "পে",
      "র"
    ],
    [
      "ম",
      "ল"
    ],
    [
      "অনু",
      "ভূ"
    ],
    [
      "বল",
      "েছেন</w>"
    ],
    [
      "গোল",
      "টি</w>"
    ],
    [
      "আম",
      "্ব"
    ],
    [
      "আগ",
      "েই</w>"
    ],
    [
      "স্ট",
      "ে</w>"
    ],
    [
      "কেন্দ্র",
      "ে</w>"
    ],
    [
      "ষ্",
      "টির</w>"
    ],
    [
      "ট",
      "িকি"
    ],
    [
      "ভূমি",
      "র</w>"
    ],
    [
      "প",
      "ট"
    ],
    [
      "ওয়ার্",
      "ল্ড</w>"
    ],
    [
      "প",
      "লি"
    ],
    [
      "উদ্ব",
      "ে"
    ],
    [
      "চ",
      "র্"
    ],
    [
      "রাজ্য",
      "টি</w>"
    ],
    [
      "বিকা",
      "শ</w>"
    ],
    [
      "গ",
      "্যাল"
    ],
    [
      "খ্যা",
      "ন</w>"
    ],
    [
      "প্রে",
      "ক্ষা"
    ],
    [
      "ুল",
      "ি"
    ],
    [
      "আবি",
      "র্"
    ],
    [
      "ভূমি",
      "তে</w>"
    ],
    [
      "অক্টো",
      "ব"
    ],
    [
      "এছাড়া",
      "ও</w>"
    ],
    [
      "পেয়",
      "েছে।</w>"
    ],
    [
      "অনুরো",
      "ধ</w>"
    ],
    [
      "১৯৯",
      "৭</w>"
    ],
    [
      "প্রাথম",
      "িকভাবে</w>"
    ],
    [
      "কঠ",
      "োর</w>"
    ],
    [
      "দিয়",
      "েছে।</w>"
    ],
    [
      "ণ",
      "টি</w>"
    ],
    [
      "ু",
      "কে</w>"
    ],
    [
      "প",
      "েল"
    ],
    [
      "আর",
      "ব</w>"
    ],
    [
      "টি",
      "ভি</w>"
    ],
    [
      "সাধারণ",
      "ত,</w>"
    ],
    [
      "করু",
      "ন,</w>"
    ],
    [
      "স্ব",
      "র"
    ],
    [
      "ন্ট",
      "ে"
    ],
    [
      "কম্পিউ",
      "টার"
    ],
    [
      "উভয়",
      "ই</w>"
    ],
    [
      "দ",
      "ত্ত"
    ],
    [
      "দ",
      "িল"
    ],
    [
      "মুখ",
      "ের</w>"
    ],
    [
      "শ্রে",
      "ষ্ঠ</w>"
    ],
    [
      "কু",
      "র</w>"
    ],
    [
      "বরা",
      "বর</w>"
    ],
    [
      "কর্ম",
      "ী</w>"
    ],
    [
      "সহ",
      "জেই</w>"
    ],
    [
      "বল",
      "টি</w>"
    ],
    [
      "না",
      "য়"
    ],
    [
      "র্",
      "ন"
    ],
    [
      "পুরস্",
      "কারের</w>"
    ],
    [
      "চ",
      "ণ্ড"
    ],
    [
      "মুহ",
      "ূর্"
    ],
    [
      "জ",
      "ক</w>"
    ],
    [
      "ঘ",
      "রের</w>"
    ],
    [
      "য",
      "ত্ন"
    ],
    [
      "শু",
      "ধু</w>"
    ],
    [
      "সপ্তা",
      "হের</w>"
    ],
    [
      "লে",
      "ই</w>"
    ],
    [
      "পরিষে",
      "বার</w>"
    ],
    [
      "সত্ত্ব",
      "েও,</w>"
    ],
    [
      "তা",
      "ৎ"
    ],
    [
      "ু",
      "য়"
    ],
    [
      "অংশ",
      "গ্রহণ"
    ],
    [
      "রি",
      "তে</w>"
    ],
    [
      "িল",
      "ি"
    ],
    [
      "স্থ",
      "ান।</w>"
    ],
    [
      "তর",
      "ণ</w>"
    ],
    [
      "মাইল",
      ")</w>"
    ],
    [
      "৪",
      "টি</w>"
    ],
    [
      "নে",
      "তা</w>"
    ],
    [
      "বা",
      "গ"
    ],
    [
      "বল",
      "ার</w>"
    ],
    [
      "১৪",
      "ই</w>"
    ],
    [
      "পঞ্চ",
      "ম</w>"
    ],
    [
      "২",
      "রা</w>"
    ],
    [
      "খু",
      "শি</w>"
    ],
    [
      "ট",
      "টি</w>"
    ],
    [
      "এশ",
      "িয়ান</w>"
    ],
    [
      "মাছ",
      "</w>"
    ],
    [
      "খ",
      "্র"
    ],
    [
      "ল্যা",
      "ন্ড</w>"
    ],
    [
      "অ্যান",
      "ি"
    ],
    [
      "কর",
      "ছে</w>"
    ],
    [
      "ম",
      "ীর</w>"
    ],
    [
      "মালিক",
      "ানা"
    ],
    [
      "যু",
      "ব"
    ],
    [
      "খ",
      "ানের</w>"
    ],
    [
      "১",
      "-"
    ],
    [
      "অন",
      "ন্য</w>"
    ],
    [
      "স্বা",
      "মী</w>"
    ],
    [
      "কয়েক",
      "জন</w>"
    ],
    [
      "দুর্গ",
      "টি</w>"
    ],
    [
      "আনু",
      "মানিক</w>"
    ],
    [
      "ক্ষ",
      "ু"
    ],
    [
      "গো",
      "লের</w>"
    ],
    [
      "চাল",
      "ানোর</w>"
    ],
    [
      "ব্য",
      "স্ত</w>"
    ],
    [
      "স",
      "চি"
    ],
    [
      "ক্",
      "লে"
    ],
    [
      "পরি",
      "বহ"
    ],
    [
      "ঘ",
      "ূর্"
    ],
    [
      "ক্র",
      "ু"
    ],
    [
      "নদী",
      "টি</w>"
    ],
    [
      "শি",
      "ং"
    ],
    [
      "অনু",
      "সন্ধান</w>"
    ],
    [
      "প্রতি",
      "শ্রু"
    ],
    [
      "ক",
      "ন্ন"
    ],
    [
      "করেছিল",
      ",</w>"
    ],
    [
      "সরঞ্জা",
      "ম</w>"
    ],
    [
      "ল",
      "ীয়</w>"
    ],
    [
      "হ",
      "স্ত"
    ],
    [
      "টে",
      "ক"
    ],
    [
      "মন্দি",
      "রে</w>"
    ],
    [
      "বৌ",
      "দ্ধ"
    ],
    [
      "অর্ধ",
      "ে"
    ],
    [
      "না",
      "থ"
    ],
    [
      "অ",
      "ভাব</w>"
    ],
    [
      "নিউ",
      "জিল্যা"
    ],
    [
      "তামিলনাড়",
      "ুর</w>"
    ],
    [
      "মূ",
      "ল্যা"
    ],
    [
      "নি",
      "জ</w>"
    ],
    [
      "দ্বী",
      "পে</w>"
    ],
    [
      "ল",
      "াল"
    ],
    [
      "বিজ",
      "য়</w>"
    ],
    [
      "ম",
      "ন্ত"
    ],
    [
      "বন্ধ",
      "নে</w>"
    ],
    [
      "ই",
      "হু"
    ],
    [
      "ডা",
      "ই"
    ],
    [
      "সিন্ধ",
      "ু</w>"
    ],
    [
      "বং",
      "শ"
    ],
    [
      "ল",
      "েন"
    ],
    [
      "চ্যাম্পিয়নশি",
      "পে</w>"
    ],
    [
      "গিয়",
      "েছিল।</w>"
    ],
    [
      "প",
      "শু"
    ],
    [
      "তে",
      "ল</w>"
    ],
    [
      "বিচ্ছি",
      "ন্ন</w>"
    ],
    [
      "ব",
      "ো</w>"
    ],
    [
      "খ্র",
      "ী"
    ],
    [
      "সে",
      "ল</w>"
    ],
    [
      "প্রতিযোগি",
      "তায়</w>"
    ],
    [
      "কানা",
      "ডার</w>"
    ],
    [
      "মি",
      "জো"
    ],
    [
      "অ",
      "স"
    ],
    [
      "দ",
      "ান"
    ],
    [
      "ম",
      "েন"
    ],
    [
      "ব্যা",
      "ট"
    ],
    [
      "ড",
      "া</w>"
    ],
    [
      "প্রশ্",
      "ন</w>"
    ],
    [
      "রো",
      "মা"
    ],
    [
      "তিন",
      "জন</w>"
    ],
    [
      "ঘ",
      "ি"
    ],
    [
      "ড্রা",
      "ই"
    ],
    [
      "খেল",
      "তে</w>"
    ],
    [
      "দ",
      "ানের</w>"
    ],
    [
      "স্",
      "বর্"
    ],
    [
      "জ্ঞ",
      "ান"
    ],
    [
      "পা",
      "ওয়ার</w>"
    ],
    [
      "চ্যাম্পিয়",
      "ন</w>"
    ],
    [
      "ঞ্",
      "জেল"
    ],
    [
      "অন্তর্",
      "ভুক্ত"
    ],
    [
      "স্না",
      "তক</w>"
    ],
    [
      "জী",
      "বিত</w>"
    ],
    [
      "গ",
      "ড়"
    ],
    [
      "পার্থ",
      "ক্য</w>"
    ],
    [
      "য",
      "ান"
    ],
    [
      "প্র",
      "ত্ন"
    ],
    [
      "খোঁ",
      "জ</w>"
    ],
    [
      "উৎপত্ত",
      "ি</w>"
    ],
    [
      "মো",
      "বাই"
    ],
    [
      "কর",
      "তেন</w>"
    ],
    [
      "মহা",
      "কা"
    ],
    [
      "লি",
      "ঙ্গ</w>"
    ],
    [
      "তেল",
      "ু"
    ],
    [
      "রূপা",
      "ন্তরিত</w>"
    ],
    [
      "ব",
      "লিউ"
    ],
    [
      "বিদেশ",
      "ী</w>"
    ],
    [
      "কর",
      "েছেন,</w>"
    ],
    [
      "হ",
      "ারা"
    ],
    [
      "অগ্র",
      "সর</w>"
    ],
    [
      "উপ",
      "ভোগ</w>"
    ],
    [
      "পার",
      "েন"
    ],
    [
      "জন্য",
      "।</w>"
    ],
    [
      "৫",
      "টি</w>"
    ],
    [
      "গুজরা",
      "ট</w>"
    ],
    [
      "বস",
      "বাস"
    ],
    [
      "ম",
      "ুর"
    ],
    [
      "তু",
      "র্"
    ],
    [
      "অনুযা",
      "য়"
    ],
    [
      "উ",
      "জ্"
    ],
    [
      "উঁচ",
      "ু</w>"
    ],
    [
      "দ",
      "ী</w>"
    ],
    [
      "৭",
      "ই</w>"
    ],
    [
      "ধ",
      "ুল"
    ],
    [
      "থ",
      "্র"
    ],
    [
      "সুর",
      "ক্ষা</w>"
    ],
    [
      "থ",
      "ো"
    ],
    [
      "বির",
      "ক্ত"
    ],
    [
      "সা",
      "য়"
    ],
    [
      "রি",
      "।</w>"
    ],
    [
      "গর",
      "ম</w>"
    ],
    [
      "মস্তিষ্",
      "কের</w>"
    ],
    [
      "ক্রেডি",
      "ট</w>"
    ],
    [
      "ফ",
      "ার</w>"
    ],
    [
      "ল",
      "ব"
    ],
    [
      "শ্রেণ",
      "ীর</w>"
    ],
    [
      "স্বী",
      "কৃতি</w>"
    ],
    [
      "স",
      "্যের</w>"
    ],
    [
      "সম্ম",
      "েল"
    ],
    [
      "পুরস্",
      "কার"
    ],
    [
      "একত্র",
      "িত</w>"
    ],
    [
      "সী",
      "মা</w>"
    ],
    [
      "কর্ম",
      "জীবন</w>"
    ],
    [
      "আস",
      "ল</w>"
    ],
    [
      "ছা",
      "ড়া"
    ],
    [
      "বৃত্ত",
      "ি</w>"
    ],
    [
      "সম্পূর্ণ",
      "রূপে</w>"
    ],
    [
      "চী",
      "নের</w>"
    ],
    [
      "বে",
      "ই</w>"
    ],
    [
      "বাহ",
      "ন</w>"
    ],
    [
      "ম্প",
      "</w>"
    ],
    [
      "সুরক্ষ",
      "িত</w>"
    ],
    [
      "বিশ্ববিদ্যাল",
      "য়ে</w>"
    ],
    [
      "তোল",
      "ার</w>"
    ],
    [
      "মুক্ত",
      "ির</w>"
    ],
    [
      "শিক্ষ",
      "ার্থ"
    ],
    [
      "প্রতি",
      "স্থাপন</w>"
    ],
    [
      "সম",
      "ি"
    ],
    [
      "পরি",
      "বহন</w>"
    ],
    [
      "েছ",
      "ি</w>"
    ],
    [
      "ইন্ড",
      "িয়া</w>"
    ],
    [
      "অ",
      "নি"
    ],
    [
      "জর",
      "ুরি</w>"
    ],
    [
      "বাদ",
      "ে</w>"
    ],
    [
      "প্র",
      "বণ"
    ],
    [
      "শীঘ্র",
      "ই</w>"
    ],
    [
      "মুদ্র",
      "া</w>"
    ],
    [
      "উচ্চ",
      "তা</w>"
    ],
    [
      "বির",
      "ক্ত</w>"
    ],
    [
      "১৯৯",
      "৪</w>"
    ],
    [
      "র",
      "ই</w>"
    ],
    [
      "শ",
      "ো</w>"
    ],
    [
      "দৈর্ঘ",
      "্য</w>"
    ],
    [
      "ড",
      "েলি"
    ],
    [
      "নে",
      "য়।</w>"
    ],
    [
      "ঝ",
      "ড়</w>"
    ],
    [
      "কাঠ",
      "ের</w>"
    ],
    [
      "পে",
      "য়ে</w>"
    ],
    [
      "মান",
      "ব</w>"
    ],
    [
      "খ্রী",
      "ষ্ট"
    ],
    [
      "১৯৯",
      "৩</w>"
    ],
    [
      "ফ্লো",
      "রি"
    ],
    [
      "কিন",
      "তে</w>"
    ],
    [
      "উদযাপ",
      "িত</w>"
    ],
    [
      "এ",
      "ম</w>"
    ],
    [
      "খা",
      "বার"
    ],
    [
      "উইণ্ডো",
      "জ</w>"
    ],
    [
      "বিপরী",
      "তে</w>"
    ],
    [
      "দে",
      ",</w>"
    ],
    [
      "নি",
      "ষ্ঠ</w>"
    ],
    [
      "লা",
      "য়</w>"
    ],
    [
      "চাল",
      "ু"
    ],
    [
      "সিং",
      "হাস"
    ],
    [
      "২৩",
      "শে</w>"
    ],
    [
      "দ্ব",
      "ন্দ্ব"
    ],
    [
      "সো",
      "ম"
    ],
    [
      "পদ্ধ",
      "তি"
    ],
    [
      "থ",
      "ু"
    ],
    [
      "সুল",
      "তান</w>"
    ],
    [
      "আলা",
      "উদ্"
    ],
    [
      "হ",
      "রিয়"
    ],
    [
      "সংস্",
      "পর্"
    ],
    [
      "প",
      "ড়া</w>"
    ],
    [
      "এশ",
      "িয়ার</w>"
    ],
    [
      "খো",
      "দাই</w>"
    ],
    [
      "আই",
      "নি</w>"
    ],
    [
      "ও",
      "জন</w>"
    ],
    [
      "ম্ব",
      "রের</w>"
    ],
    [
      "লা",
      "স</w>"
    ],
    [
      "জ",
      "িক"
    ],
    [
      "পুলি",
      "শের</w>"
    ],
    [
      "আ",
      "মি"
    ],
    [
      "গাছ",
      "</w>"
    ],
    [
      "ক্রান্ত",
      "ীয়</w>"
    ],
    [
      "নিক",
      "ো"
    ],
    [
      "ার্",
      "ড</w>"
    ],
    [
      "বি",
      "বাহিত</w>"
    ],
    [
      "মহ",
      "ী"
    ],
    [
      "গ্রেপ্",
      "তার</w>"
    ],
    [
      "ফের",
      "ত</w>"
    ],
    [
      "বি",
      "পক্ষে</w>"
    ],
    [
      "ক্রম",
      "বর্ধ"
    ],
    [
      "প্রদ",
      "ানের</w>"
    ],
    [
      "ব",
      "ন্দু"
    ],
    [
      "জনগ",
      "ণের</w>"
    ],
    [
      "আশে",
      "পাশের</w>"
    ],
    [
      ".",
      "৫</w>"
    ],
    [
      "সম",
      "য়ের</w>"
    ],
    [
      "সমূ",
      "হ</w>"
    ],
    [
      "সং",
      "মিশ্র"
    ],
    [
      "বি",
      "চার</w>"
    ],
    [
      "ে",
      "রও</w>"
    ],
    [
      "যে",
      "টা</w>"
    ],
    [
      "চলচ্চিত্র",
      "।</w>"
    ],
    [
      "ন্ট",
      "্র"
    ],
    [
      "ব্যা",
      "পারে</w>"
    ],
    [
      "যন্ত্র",
      "ের</w>"
    ],
    [
      "ত্র",
      "া"
    ],
    [
      "পর্যালো",
      "চনা</w>"
    ],
    [
      "ার্",
      "থ</w>"
    ],
    [
      "বল",
      "ী</w>"
    ],
    [
      "উত্ত",
      "ে"
    ],
    [
      "স",
      "-"
    ],
    [
      "বা",
      "দা"
    ],
    [
      "দে",
      "বে।</w>"
    ],
    [
      "দ",
      "প্"
    ],
    [
      "ক্ষ",
      "ো"
    ],
    [
      "উল্লেখ",
      "যোগ্য"
    ],
    [
      "সার্",
      "ভি"
    ],
    [
      "উৎসা",
      "হিত</w>"
    ],
    [
      "ক্ষে",
      "ত্র</w>"
    ],
    [
      "দর্শ",
      "কদের</w>"
    ],
    [
      "হার",
      "ে</w>"
    ],
    [
      "গ্",
      "ন</w>"
    ],
    [
      "ছো",
      "ট"
    ],
    [
      "বিনামূল",
      "্যে</w>"
    ],
    [
      "মা",
      "থা</w>"
    ],
    [
      "স্প",
      "ষ্ট"
    ],
    [
      "পরিবর্ত",
      "নের</w>"
    ],
    [
      "দ",
      "ম্প"
    ],
    [
      "য",
      "ত</w>"
    ],
    [
      "অনুযায়",
      "ী,</w>"
    ],
    [
      "ইতি",
      "মধ্যেই</w>"
    ],
    [
      "বাই",
      "রের</w>"
    ],
    [
      "হার",
      "িক"
    ],
    [
      "যা",
      "য়,</w>"
    ],
    [
      "জট",
      "িল"
    ],
    [
      "চ্ছ",
      "ে"
    ],
    [
      "অপ",
      "রাধ"
    ],
    [
      "প্রায়",
      "ই</w>"
    ],
    [
      "সে",
      "ট</w>"
    ],
    [
      "ণ",
      "কারী</w>"
    ],
    [
      "সি",
      "ন</w>"
    ],
    [
      "স্ট্রো",
      "কের</w>"
    ],
    [
      "মাধ্য",
      "ম</w>"
    ],
    [
      "প্",
      "ল্যা"
    ],
    [
      "সবু",
      "জ</w>"
    ],
    [
      "ব",
      "না"
    ],
    [
      "শ",
      "ার্"
    ],
    [
      "ডে",
      "টা</w>"
    ],
    [
      "ক",
      "ম।</w>"
    ],
    [
      "লক্ষ",
      "ণ</w>"
    ],
    [
      "স",
      "-এ</w>"
    ],
    [
      "সিং",
      "হ"
    ],
    [
      "ম",
      "নের</w>"
    ],
    [
      "হ",
      "ান"
    ],
    [
      "শিলালি",
      "পি"
    ],
    [
      "আল",
      "ী</w>"
    ],
    [
      "ভর্",
      "তি</w>"
    ],
    [
      "৪",
      "ঠা</w>"
    ],
    [
      "বৈ",
      "দিক</w>"
    ],
    [
      "খ",
      "ালি</w>"
    ],
    [
      "জি",
      "ন</w>"
    ],
    [
      "অভি",
      "হিত</w>"
    ],
    [
      "রাস্",
      "তা</w>"
    ],
    [
      "প্র",
      "চেষ্টা</w>"
    ],
    [
      "আট",
      "কে</w>"
    ],
    [
      "কাঠা",
      "মো"
    ],
    [
      "ফলা",
      "ফল</w>"
    ],
    [
      "১৯৯",
      "১</w>"
    ],
    [
      "নে",
      "মে</w>"
    ],
    [
      "ক",
      "লা</w>"
    ],
    [
      "সং",
      "যোগ"
    ],
    [
      "শিল্প",
      "ীদের</w>"
    ],
    [
      "দেব",
      "তা</w>"
    ],
    [
      "১৩",
      "ই</w>"
    ],
    [
      "জা",
      "দু"
    ],
    [
      "৬",
      "ই</w>"
    ],
    [
      "অফি",
      "স</w>"
    ],
    [
      "গ্রাহ",
      "কদের</w>"
    ],
    [
      "তা",
      "ত্ত্বিক</w>"
    ],
    [
      "স্টা",
      "ই"
    ],
    [
      "গুরুত্ব",
      "পূর্ণ।</w>"
    ],
    [
      "আ",
      "কারের</w>"
    ],
    [
      "রয়",
      "ে"
    ],
    [
      "ওষু",
      "ধ"
    ],
    [
      "গ্রে",
      "ট</w>"
    ],
    [
      "যাত্র",
      "ার</w>"
    ],
    [
      "অং",
      "শী"
    ],
    [
      "বাং",
      "লা</w>"
    ],
    [
      "ওয়ার্",
      "ড</w>"
    ],
    [
      "সুল",
      "ত"
    ],
    [
      "পাল",
      "িয়ে</w>"
    ],
    [
      "তা",
      "ন্ত্রিক</w>"
    ],
    [
      "ম্যা",
      "চ"
    ],
    [
      "অব",
      "দান</w>"
    ],
    [
      "রো",
      "মান</w>"
    ],
    [
      "জ",
      "টি</w>"
    ],
    [
      "ং",
      "য়ের</w>"
    ],
    [
      "পিছ",
      "নে</w>"
    ],
    [
      "ক্র",
      "মা"
    ],
    [
      "হতা",
      "শ</w>"
    ],
    [
      "বো",
      "ন</w>"
    ],
    [
      "টা",
      "কার</w>"
    ],
    [
      "মুক্ত",
      "ি"
    ],
    [
      "ভাব",
      "ের</w>"
    ],
    [
      "ট",
      "নের</w>"
    ],
    [
      "স্ব",
      "তন্ত্র</w>"
    ],
    [
      "ন",
      "ষ্ট</w>"
    ],
    [
      "চ",
      "ান,</w>"
    ],
    [
      "আর্",
      "জে"
    ],
    [
      "বাঁ",
      "ধ"
    ],
    [
      "অ্যা",
      "কাউন্ট</w>"
    ],
    [
      "১৮",
      "৬"
    ],
    [
      "ম",
      "ডেল</w>"
    ],
    [
      "স্পোর্",
      "টস</w>"
    ],
    [
      "স্ট্রো",
      "ক</w>"
    ],
    [
      "ড",
      "্ড"
    ],
    [
      "প্রত্যা",
      "খ্যান</w>"
    ],
    [
      "ডে",
      "মি</w>"
    ],
    [
      "দ",
      "েন,</w>"
    ],
    [
      "ত",
      "বু"
    ],
    [
      "ছ",
      "ত্ত"
    ],
    [
      "অনেক",
      "গুলি</w>"
    ],
    [
      "লিখ",
      "েছেন</w>"
    ],
    [
      "ইতিহা",
      "সে</w>"
    ],
    [
      "রাজ",
      "ার</w>"
    ],
    [
      "কয়ে",
      "কটি</w>"
    ],
    [
      "অভিজ্ঞ",
      "তা</w>"
    ],
    [
      "সা",
      "ত</w>"
    ],
    [
      "এ",
      "."
    ],
    [
      "৬",
      "টি</w>"
    ],
    [
      "রাজ",
      "বংশ</w>"
    ],
    [
      "১৯৯",
      "০</w>"
    ],
    [
      "চণ্ড",
      "ী"
    ],
    [
      "জট",
      "িল</w>"
    ],
    [
      "চা",
      "করি</w>"
    ],
    [
      "কা",
      "বা"
    ],
    [
      "খেলোয়া",
      "ড়ের</w>"
    ],
    [
      "ক",
      "গুলি</w>"
    ],
    [
      "উপর",
      "ন্ত"
    ],
    [
      "খেল",
      "ে।</w>"
    ],
    [
      "জ্ব",
      "াল"
    ],
    [
      "প্র",
      "বাহ"
    ],
    [
      "পেনাল্",
      "টি</w>"
    ],
    [
      "মাইক্রোসফ্",
      "ট</w>"
    ],
    [
      "আমের",
      "িকার</w>"
    ],
    [
      "একে",
      "বারে</w>"
    ],
    [
      "উত্ত",
      "রাখ"
    ],
    [
      "রে",
      "ড</w>"
    ],
    [
      "ডে",
      "মো"
    ],
    [
      "অ্যা",
      "সি"
    ],
    [
      "আই",
      "ডা"
    ],
    [
      "দি",
      "র</w>"
    ],
    [
      "গান্ধ",
      "ী</w>"
    ],
    [
      "র",
      "হ"
    ],
    [
      "লক্ষ",
      "্ম"
    ],
    [
      "২০",
      "শে</w>"
    ],
    [
      "পূর্ব",
      "বর্তী</w>"
    ],
    [
      "এ",
      "ত"
    ],
    [
      "পুর",
      "ি</w>"
    ],
    [
      "আউ",
      "ট</w>"
    ],
    [
      "মুঘ",
      "ল"
    ],
    [
      "পুর",
      "ী</w>"
    ],
    [
      "উদ্ব",
      "ো"
    ],
    [
      "ক্ষম",
      "তার</w>"
    ],
    [
      "শ",
      "িকা"
    ],
    [
      ",০",
      "০০"
    ],
    [
      "ন",
      "শীল"
    ],
    [
      "বিশ্",
      "লে"
    ],
    [
      "তুল",
      "তে</w>"
    ],
    [
      "মি",
      "শ"
    ],
    [
      "ইন্দো",
      "-"
    ],
    [
      "লাগ",
      "ে।</w>"
    ],
    [
      "ও",
      "ল"
    ],
    [
      "নিষি",
      "দ্ধ</w>"
    ],
    [
      "জেল",
      "া"
    ],
    [
      "আ",
      "ংশ"
    ],
    [
      "ফস",
      "ল</w>"
    ],
    [
      "সংস্",
      "কৃতি</w>"
    ],
    [
      "রাস্",
      "তার</w>"
    ],
    [
      "রাখু",
      "ন।</w>"
    ],
    [
      "উঠ",
      "েছে।</w>"
    ],
    [
      "আস",
      "ছে।</w>"
    ],
    [
      "বা",
      "য়ো"
    ],
    [
      "শ্",
      "বাস"
    ],
    [
      "লী",
      "গে</w>"
    ],
    [
      "বা",
      "বার</w>"
    ],
    [
      "ওয়",
      "ায়</w>"
    ],
    [
      "উপস্থি",
      "তি</w>"
    ],
    [
      "নারা",
      "য়"
    ],
    [
      "'",
      "-এ</w>"
    ],
    [
      "ক",
      "শন</w>"
    ],
    [
      "মুখ",
      "ে</w>"
    ],
    [
      "১১",
      "ই</w>"
    ],
    [
      "বিদ্রো",
      "হ"
    ],
    [
      "শ্যু",
      "টিং</w>"
    ],
    [
      "১০",
      "ই</w>"
    ],
    [
      "ম্যা",
      "চের</w>"
    ],
    [
      "ম",
      "ল</w>"
    ],
    [
      "অ্যা",
      "ণ্ড</w>"
    ],
    [
      "নাগা",
      "দ</w>"
    ],
    [
      "গি",
      "রি</w>"
    ],
    [
      "সহ",
      "-"
    ],
    [
      "আপ",
      "না"
    ],
    [
      "সী",
      "মানা</w>"
    ],
    [
      "কিন্ত",
      "ু,</w>"
    ],
    [
      "২",
      "২</w>"
    ],
    [
      "ইউনি",
      "ভার্"
    ],
    [
      "ধ",
      "ো"
    ],
    [
      "এ",
      "গুলির</w>"
    ],
    [
      "মি",
      "থ"
    ],
    [
      "রা",
      "মের</w>"
    ],
    [
      "ই",
      "রা"
    ],
    [
      "বাঁ",
      "ধ</w>"
    ],
    [
      "স্",
      "কি"
    ],
    [
      "শুষ্",
      "ক</w>"
    ],
    [
      "সফ্টওয়",
      "্যার</w>"
    ],
    [
      "মা",
      "সিক</w>"
    ],
    [
      "স্",
      "পে"
    ],
    [
      "ই",
      "."
    ],
    [
      "নৃত্য",
      "ের</w>"
    ],
    [
      "যক্ষ",
      "্ম"
    ],
    [
      "প",
      "িক"
    ],
    [
      "খ",
      "ি"
    ],
    [
      "স্ব",
      "রূপ</w>"
    ],
    [
      "বিরো",
      "ধী</w>"
    ],
    [
      "শীর্",
      "ষ"
    ],
    [
      "লি",
      "ং</w>"
    ],
    [
      "দা",
      "ক্ষি"
    ],
    [
      "ছত্ত",
      "িশ"
    ],
    [
      "দি",
      "ন,</w>"
    ],
    [
      "ইতি",
      "হাস"
    ],
    [
      "দুর্",
      "দা"
    ],
    [
      "সাম্",
      "রাজ্য"
    ],
    [
      "ওয়",
      "ের</w>"
    ],
    [
      "বা",
      "জার</w>"
    ],
    [
      "্",
      "ল"
    ],
    [
      "ক",
      "ল্যা"
    ],
    [
      "স্থ",
      "ির</w>"
    ],
    [
      "প্রতি",
      "দিন</w>"
    ],
    [
      "উপ",
      "-"
    ],
    [
      "ণ",
      "ায়</w>"
    ],
    [
      "নী",
      "তি"
    ],
    [
      "নে",
      "দার"
    ],
    [
      "নি",
      "জে</w>"
    ],
    [
      "শ্রী",
      "লঙ্"
    ],
    [
      "সমা",
      "ধান</w>"
    ],
    [
      "বিজ্ঞ",
      "ান"
    ],
    [
      "আধ",
      "িকার"
    ],
    [
      "বে",
      "ড়ে</w>"
    ],
    [
      "১৮",
      "৯"
    ],
    [
      "স্ট",
      "িক</w>"
    ],
    [
      "মা",
      "টি</w>"
    ],
    [
      "আচর",
      "ণ</w>"
    ],
    [
      "নির্বাচ",
      "নের</w>"
    ],
    [
      "ব্যক্ত",
      "িকে</w>"
    ],
    [
      "তেলে",
      "ঙ্গ"
    ],
    [
      "স্থি",
      "তি"
    ],
    [
      "ঐতিহ",
      "্যের</w>"
    ],
    [
      "সাহি",
      "ত্য"
    ],
    [
      "পুনরু",
      "দ্ধার</w>"
    ],
    [
      "শুর",
      "ুতে</w>"
    ],
    [
      "বস",
      "তি</w>"
    ],
    [
      "স্ট",
      "্রা"
    ],
    [
      "পরিষ",
      "দ</w>"
    ]
  ],
  "vocab_size": 5000,
  "num_merges": 5000,
  "actual_merges": 5000,
  "special_tokens": [
    "<unk>",
    "<pad>",
    "<sos>",
    "<eos>"
  ]
}