{
  "merges": [
    [
      "ा",
      "य"
    ],
    [
      "ि",
      "</w>"
    ],
    [
      "ो",
      "न"
    ],
    [
      "न",
      "ि</w>"
    ],
    [
      "ा",
      "</w>"
    ],
    [
      "ो",
      "</w>"
    ],
    [
      "ा",
      "व"
    ],
    [
      "।",
      "</w>"
    ],
    [
      "ो",
      "र"
    ],
    [
      "म",
      "ोन"
    ],
    [
      "ा",
      "न"
    ],
    [
      "ा",
      "र"
    ],
    [
      "ाय",
      "</w>"
    ],
    [
      "ो",
      "ं"
    ],
    [
      "थ",
      "ा"
    ],
    [
      "ाव",
      "</w>"
    ],
    [
      "फ",
      "ोर"
    ],
    [
      ",",
      "</w>"
    ],
    [
      "ौ",
      "</w>"
    ],
    [
      "ख",
      "ौ</w>"
    ],
    [
      "े",
      "</w>"
    ],
    [
      "ा",
      "ं"
    ],
    [
      "ब",
      "ि"
    ],
    [
      "आ",
      "र"
    ],
    [
      "द",
      "ों"
    ],
    [
      "्",
      "र"
    ],
    [
      "स",
      "ि"
    ],
    [
      "ज",
      "ा"
    ],
    [
      "ल",
      "ा"
    ],
    [
      "दों",
      "मोन"
    ],
    [
      "आर",
      "ो</w>"
    ],
    [
      "न",
      "्"
    ],
    [
      "ब",
      "े"
    ],
    [
      "ग",
      "ो"
    ],
    [
      "स",
      "े</w>"
    ],
    [
      "ै",
      "</w>"
    ],
    [
      "न",
      "ाय"
    ],
    [
      "ख",
      "ा"
    ],
    [
      "न",
      "</w>"
    ],
    [
      "ि",
      "य"
    ],
    [
      "आ",
      "</w>"
    ],
    [
      "ु",
      "ं"
    ],
    [
      "दोंमोन",
      "।</w>"
    ],
    [
      "ह",
      "ा"
    ],
    [
      "स",
      "ा"
    ],
    [
      "े",
      "र"
    ],
    [
      "न",
      "ाय</w>"
    ],
    [
      "न",
      "ो</w>"
    ],
    [
      "ज",
      "ाय"
    ],
    [
      "ो",
      "।</w>"
    ],
    [
      "ब",
      "ा"
    ],
    [
      "म",
      "ा"
    ],
    [
      "आ",
      "व"
    ],
    [
      "न",
      "ि"
    ],
    [
      "ज",
      "ों"
    ],
    [
      "स",
      "्"
    ],
    [
      "ग",
      "ा"
    ],
    [
      "ि",
      "र"
    ],
    [
      "था",
      "इ"
    ],
    [
      "ां",
      "</w>"
    ],
    [
      "मोन",
      "से</w>"
    ],
    [
      "आव",
      "</w>"
    ],
    [
      "े",
      "ल"
    ],
    [
      "जों",
      "</w>"
    ],
    [
      "स",
      "ो"
    ],
    [
      "्",
      "ल"
    ],
    [
      "था",
      "ख"
    ],
    [
      "ार",
      "ि</w>"
    ],
    [
      "ु",
      "ब"
    ],
    [
      "म",
      "ाय"
    ],
    [
      "म",
      "</w>"
    ],
    [
      "र",
      "ा"
    ],
    [
      "थ",
      "ि"
    ],
    [
      "फ",
      "्र"
    ],
    [
      "बि",
      "था"
    ],
    [
      "ं",
      "</w>"
    ],
    [
      "ज",
      "ान"
    ],
    [
      "थ",
      "ाय"
    ],
    [
      "ब",
      "ो</w>"
    ],
    [
      "ला",
      "म"
    ],
    [
      "थाख",
      "ाय</w>"
    ],
    [
      "न",
      "ा"
    ],
    [
      "ब",
      "े</w>"
    ],
    [
      "स",
      "ोर"
    ],
    [
      "ह",
      "ाय"
    ],
    [
      "ब",
      "ो"
    ],
    [
      "ान",
      "्"
    ],
    [
      "फोर",
      "ा</w>"
    ],
    [
      "खा",
      "लाम"
    ],
    [
      "ज",
      "ि"
    ],
    [
      "म",
      "ि"
    ],
    [
      "द",
      "ि"
    ],
    [
      "फोर",
      "नि</w>"
    ],
    [
      "ज",
      "ो"
    ],
    [
      "ह",
      "ो"
    ],
    [
      "ङ",
      "ा</w>"
    ],
    [
      "थ",
      "ि</w>"
    ],
    [
      "स",
      "े"
    ],
    [
      "माय",
      "थाइ"
    ],
    [
      "ल",
      "ि"
    ],
    [
      "म",
      "ु"
    ],
    [
      "ग",
      "ोन"
    ],
    [
      "द",
      "ि</w>"
    ],
    [
      "ज",
      "े"
    ],
    [
      "ज",
      "ेर"
    ],
    [
      "ग",
      "िर"
    ],
    [
      "ब",
      "ाय"
    ],
    [
      "ह",
      "ोन"
    ],
    [
      "ार",
      "्"
    ],
    [
      "फोर",
      "खौ</w>"
    ],
    [
      "फोर",
      "</w>"
    ],
    [
      "ार",
      "</w>"
    ],
    [
      "2",
      "0"
    ],
    [
      "ल",
      "ाय"
    ],
    [
      "ह",
      "र"
    ],
    [
      "स्",
      "ट"
    ],
    [
      "मोन",
      "।</w>"
    ],
    [
      "जा",
      "दोंमोन।</w>"
    ],
    [
      "ग",
      "ाव"
    ],
    [
      "द",
      "ं"
    ],
    [
      "र",
      "्"
    ],
    [
      "फ",
      "ा"
    ],
    [
      "म",
      "्"
    ],
    [
      "ग",
      "े"
    ],
    [
      "य",
      "ो</w>"
    ],
    [
      "फ",
      "ि"
    ],
    [
      "फ्र",
      "ाय</w>"
    ],
    [
      "सि",
      "न</w>"
    ],
    [
      "ब",
      "ा</w>"
    ],
    [
      "ु",
      "न"
    ],
    [
      "स",
      "ान"
    ],
    [
      "य",
      "ाव</w>"
    ],
    [
      "नाय",
      "नि</w>"
    ],
    [
      "र",
      "ाय"
    ],
    [
      "म",
      "ान"
    ],
    [
      "क",
      "्"
    ],
    [
      "द",
      "ा"
    ],
    [
      "ग",
      "ुब"
    ],
    [
      "स",
      "</w>"
    ],
    [
      "जाय",
      "ो।</w>"
    ],
    [
      "बिथा",
      "ङा</w>"
    ],
    [
      "'",
      "</w>"
    ],
    [
      "ार",
      "ि"
    ],
    [
      "गो",
      "ब"
    ],
    [
      "1",
      "9"
    ],
    [
      "म",
      "े"
    ],
    [
      "ि",
      "क"
    ],
    [
      "ग",
      "ि"
    ],
    [
      "स",
      "ाव"
    ],
    [
      "नि",
      "फ्राय</w>"
    ],
    [
      "ु",
      "न</w>"
    ],
    [
      "उ",
      "न"
    ],
    [
      "ो",
      ",</w>"
    ],
    [
      "ल",
      "</w>"
    ],
    [
      "ब",
      "्ल"
    ],
    [
      "ख",
      "ो"
    ],
    [
      "ाव",
      ",</w>"
    ],
    [
      "स",
      "ुब"
    ],
    [
      "म",
      "हर"
    ],
    [
      "स",
      "म"
    ],
    [
      "न",
      "ा</w>"
    ],
    [
      "बिथा",
      "ं"
    ],
    [
      "0",
      "</w>"
    ],
    [
      "ग",
      "ु"
    ],
    [
      "न्",
      "ट"
    ],
    [
      "गे",
      "जेर"
    ],
    [
      "न",
      "ों"
    ],
    [
      "र",
      "</w>"
    ],
    [
      "फ",
      "ो"
    ],
    [
      "थ",
      "ान"
    ],
    [
      "म",
      "ो"
    ],
    [
      "ी",
      "</w>"
    ],
    [
      "ग",
      "ाय"
    ],
    [
      "ेल",
      "े"
    ],
    [
      "ब",
      "ां"
    ],
    [
      "सुब",
      "ुं"
    ],
    [
      "ज",
      "ाय</w>"
    ],
    [
      "द",
      "</w>"
    ],
    [
      "न्",
      "ड"
    ],
    [
      "बे",
      "यो</w>"
    ],
    [
      "्",
      "ला"
    ],
    [
      "ज",
      "ु"
    ],
    [
      "दोंमोन",
      "</w>"
    ],
    [
      "ख",
      "्र"
    ],
    [
      "े",
      "ट"
    ],
    [
      "गोब",
      "ां</w>"
    ],
    [
      "स",
      "न"
    ],
    [
      "िय",
      "ा</w>"
    ],
    [
      "ान",
      "</w>"
    ],
    [
      "गिर",
      "ि"
    ],
    [
      "ाय",
      "ाव</w>"
    ],
    [
      "था",
      "ं"
    ],
    [
      "ा",
      "नि</w>"
    ],
    [
      "ब",
      "ु"
    ],
    [
      "ग",
      "ोर"
    ],
    [
      "गुब",
      "ुन</w>"
    ],
    [
      "र",
      "ो"
    ],
    [
      "मोन",
      "्"
    ],
    [
      "मायथाइ",
      "याव</w>"
    ],
    [
      "भ",
      "ार"
    ],
    [
      "इ",
      "ं</w>"
    ],
    [
      "ब्ल",
      "ा</w>"
    ],
    [
      "द",
      "े"
    ],
    [
      "ल",
      "े"
    ],
    [
      "ग",
      "ेले"
    ],
    [
      "ब",
      "्र"
    ],
    [
      "ब",
      "</w>"
    ],
    [
      "द",
      "ै"
    ],
    [
      "ज",
      "ौ"
    ],
    [
      "गाव",
      "नि</w>"
    ],
    [
      "स",
      "ु"
    ],
    [
      "ए",
      "बा</w>"
    ],
    [
      "हा",
      "ग"
    ],
    [
      "र",
      "े"
    ],
    [
      "स",
      "्र"
    ],
    [
      "जान",
      "ाय</w>"
    ],
    [
      "ल",
      "ो"
    ],
    [
      "फोर",
      "ाव</w>"
    ],
    [
      "थ",
      "ाय</w>"
    ],
    [
      "ै",
      "य"
    ],
    [
      "म",
      "ाव"
    ],
    [
      "दं",
      "।</w>"
    ],
    [
      "म",
      "ुं"
    ],
    [
      "भार",
      "त"
    ],
    [
      "न्",
      "द"
    ],
    [
      "दोंमोन",
      ",</w>"
    ],
    [
      "बे",
      "खौ</w>"
    ],
    [
      "ल",
      "्"
    ],
    [
      "महर",
      "ै</w>"
    ],
    [
      "सो",
      "ल"
    ],
    [
      "बि",
      "सोर"
    ],
    [
      "ला",
      "इ"
    ],
    [
      "ख",
      "'"
    ],
    [
      "बा",
      "हाय"
    ],
    [
      "ल",
      "ु"
    ],
    [
      "म",
      "ा</w>"
    ],
    [
      "र",
      "ि"
    ],
    [
      "क",
      "ा"
    ],
    [
      "द",
      "ेर"
    ],
    [
      "ब",
      "्ला"
    ],
    [
      "ान",
      "ै</w>"
    ],
    [
      "ज",
      "ोन"
    ],
    [
      "क",
      "</w>"
    ],
    [
      "सा",
      "से</w>"
    ],
    [
      "ह",
      "ा</w>"
    ],
    [
      "ान",
      "ाय"
    ],
    [
      "ब",
      "ुं"
    ],
    [
      "क",
      "े"
    ],
    [
      "थ",
      "िय"
    ],
    [
      "सि",
      "म</w>"
    ],
    [
      "ट",
      "ि"
    ],
    [
      "नाय",
      "ाव</w>"
    ],
    [
      "ा",
      "इ"
    ],
    [
      "ग्र",
      "ा</w>"
    ],
    [
      "बो",
      "सोर"
    ],
    [
      "मा",
      "इ"
    ],
    [
      "न",
      "े"
    ],
    [
      "20",
      "1"
    ],
    [
      "ड",
      "ि"
    ],
    [
      "द",
      "ोर"
    ],
    [
      "न",
      "ो"
    ],
    [
      "ड",
      "</w>"
    ],
    [
      "गेजेर",
      "ाव</w>"
    ],
    [
      "गोन",
      "ां</w>"
    ],
    [
      "आर",
      "ि</w>"
    ],
    [
      "द",
      "ो"
    ],
    [
      "ेल",
      "</w>"
    ],
    [
      "उन",
      "ाव</w>"
    ],
    [
      "ाय",
      "ा</w>"
    ],
    [
      ".",
      "</w>"
    ],
    [
      "ट",
      "</w>"
    ],
    [
      "द",
      "ाव"
    ],
    [
      "ख",
      "ु"
    ],
    [
      "नाय",
      "ा</w>"
    ],
    [
      "जो",
      "ब"
    ],
    [
      "व",
      "ा"
    ],
    [
      "े",
      "न"
    ],
    [
      "म्",
      "प"
    ],
    [
      "स",
      "ा</w>"
    ],
    [
      "स",
      "ार"
    ],
    [
      "थ",
      "ा</w>"
    ],
    [
      "रा",
      "ज"
    ],
    [
      "म",
      "नि</w>"
    ],
    [
      "ख",
      "ा</w>"
    ],
    [
      "बां",
      "सिन</w>"
    ],
    [
      "ब",
      "ार"
    ],
    [
      "ख",
      "ुं"
    ],
    [
      ".",
      "ए"
    ],
    [
      "1",
      "</w>"
    ],
    [
      "दि",
      "न्"
    ],
    [
      "प",
      "ु"
    ],
    [
      "बे",
      "नि</w>"
    ],
    [
      "ह",
      "ाय</w>"
    ],
    [
      "क",
      "'"
    ],
    [
      "ल",
      "ां"
    ],
    [
      "5",
      "</w>"
    ],
    [
      "ख",
      "ोन"
    ],
    [
      "न",
      "ु"
    ],
    [
      "साव",
      "थ"
    ],
    [
      "जान",
      "ाय"
    ],
    [
      "ह",
      "ि"
    ],
    [
      "दों",
      "।</w>"
    ],
    [
      "2",
      "</w>"
    ],
    [
      "क",
      "ि"
    ],
    [
      "जा",
      "ब"
    ],
    [
      "स",
      "ोन"
    ],
    [
      "ख",
      "ान्"
    ],
    [
      "ख",
      "ि"
    ],
    [
      "हाग",
      "ौ"
    ],
    [
      "ह",
      "ान"
    ],
    [
      "ु",
      "इ"
    ],
    [
      "द",
      "ां"
    ],
    [
      "थान",
      "ाय</w>"
    ],
    [
      "िय",
      "ा"
    ],
    [
      "जान",
      "ो</w>"
    ],
    [
      "ह",
      "े"
    ],
    [
      "ल",
      "'"
    ],
    [
      "हा",
      "दोर"
    ],
    [
      "स",
      "ो</w>"
    ],
    [
      "स",
      "रा"
    ],
    [
      "आ",
      "ं</w>"
    ],
    [
      "अ",
      "न"
    ],
    [
      "मा",
      "नि</w>"
    ],
    [
      "सन",
      "स्र"
    ],
    [
      "मा",
      "खा"
    ],
    [
      "सरा",
      "सनस्र"
    ],
    [
      "बिथां",
      "नि</w>"
    ],
    [
      "ओ",
      "न"
    ],
    [
      "ख",
      "ौ"
    ],
    [
      "ख",
      "ार"
    ],
    [
      "गिर",
      "ि</w>"
    ],
    [
      "आ",
      "इ"
    ],
    [
      "बाय",
      "दि</w>"
    ],
    [
      "स",
      "ं"
    ],
    [
      "थ",
      "ु"
    ],
    [
      "नि",
      "ख्र"
    ],
    [
      "नाय",
      "खौ</w>"
    ],
    [
      "फोर",
      "जों</w>"
    ],
    [
      "गो",
      "द"
    ],
    [
      "4",
      "</w>"
    ],
    [
      "ट",
      "्र"
    ],
    [
      "सि",
      "ग"
    ],
    [
      "रो",
      "खो"
    ],
    [
      "20",
      "0"
    ],
    [
      "ग्र",
      "ा"
    ],
    [
      "लो",
      "गो"
    ],
    [
      "आ",
      "य"
    ],
    [
      "ब",
      "ि</w>"
    ],
    [
      "8",
      "</w>"
    ],
    [
      "ल",
      "ा</w>"
    ],
    [
      "प",
      "्"
    ],
    [
      "म",
      "ेर"
    ],
    [
      "न",
      "नि</w>"
    ],
    [
      "फ",
      "े"
    ],
    [
      "स",
      "नि</w>"
    ],
    [
      "फ",
      "ुं"
    ],
    [
      "ं",
      "ग"
    ],
    [
      "7",
      "</w>"
    ],
    [
      "निख्र",
      "ुइ"
    ],
    [
      "माखा",
      "से</w>"
    ],
    [
      "ब",
      "य"
    ],
    [
      "नों",
      "था"
    ],
    [
      "6",
      "</w>"
    ],
    [
      "थाइ",
      "</w>"
    ],
    [
      "ान",
      "ि"
    ],
    [
      "ओन",
      "सोल"
    ],
    [
      "नोंथा",
      "ङा</w>"
    ],
    [
      "ब",
      "ानाय"
    ],
    [
      "3",
      "</w>"
    ],
    [
      "क",
      "ु"
    ],
    [
      "ज",
      "ो</w>"
    ],
    [
      "र",
      "'"
    ],
    [
      "जेर",
      "ाव</w>"
    ],
    [
      "माइ",
      "थाय"
    ],
    [
      "ट",
      "े"
    ],
    [
      "गा",
      "स"
    ],
    [
      "ब",
      "ै"
    ],
    [
      "गोन",
      "ां"
    ],
    [
      "गोन",
      "।</w>"
    ],
    [
      "सि",
      "न"
    ],
    [
      "स",
      "ाय"
    ],
    [
      "प",
      "ि"
    ],
    [
      "गा",
      "हाय</w>"
    ],
    [
      "न",
      "ै"
    ],
    [
      "थ",
      "ाव"
    ],
    [
      "नो",
      "गोर"
    ],
    [
      "ख",
      "ै"
    ],
    [
      "ज",
      "ा</w>"
    ],
    [
      "मोन",
      "</w>"
    ],
    [
      "प",
      "ा"
    ],
    [
      "हागौ",
      "।</w>"
    ],
    [
      "ाय",
      "ै</w>"
    ],
    [
      "न",
      "ानै</w>"
    ],
    [
      "ना",
      "थाय</w>"
    ],
    [
      "सम",
      "ाव</w>"
    ],
    [
      "न",
      "ां"
    ],
    [
      "जो",
      "बो"
    ],
    [
      "सावथ",
      "ुन"
    ],
    [
      "ख",
      "ां"
    ],
    [
      "ज",
      "िर"
    ],
    [
      "जोबो",
      "द</w>"
    ],
    [
      "फ",
      "ार"
    ],
    [
      "ो",
      "ब"
    ],
    [
      "जे",
      "ब्ला</w>"
    ],
    [
      "स",
      "आ</w>"
    ],
    [
      "िय",
      "ाव</w>"
    ],
    [
      "भ",
      "ि"
    ],
    [
      ")",
      "</w>"
    ],
    [
      "थ",
      "्र"
    ],
    [
      "न",
      "'"
    ],
    [
      "द",
      "ोन"
    ],
    [
      "य",
      "ो।</w>"
    ],
    [
      "ा",
      "।</w>"
    ],
    [
      "होन",
      "ाय</w>"
    ],
    [
      "ङ",
      "ाव</w>"
    ],
    [
      "दिन्",
      "थि"
    ],
    [
      "मेर",
      "िक"
    ],
    [
      "ज",
      "</w>"
    ],
    [
      "स",
      "ायाव</w>"
    ],
    [
      "फ",
      "ै"
    ],
    [
      "बय",
      "निख्रुइ"
    ],
    [
      "गि",
      "बि</w>"
    ],
    [
      "ग",
      "ैय"
    ],
    [
      "आ",
      "मेरिक"
    ],
    [
      "ह",
      "ु"
    ],
    [
      "ङ",
      "ै</w>"
    ],
    [
      "र",
      "ै"
    ],
    [
      "जा",
      "गाय"
    ],
    [
      "नों",
      "थां"
    ],
    [
      "बा",
      "द"
    ],
    [
      "सा",
      "म"
    ],
    [
      "ग",
      "्ल"
    ],
    [
      "खालाम",
      "नो</w>"
    ],
    [
      "र",
      "ु"
    ],
    [
      "फ",
      "ु"
    ],
    [
      "आ",
      "ं"
    ],
    [
      "ो",
      "म"
    ],
    [
      "बा",
      "हा"
    ],
    [
      "ल",
      "ान"
    ],
    [
      "सो",
      "लाय"
    ],
    [
      "्",
      "य"
    ],
    [
      "ल",
      "ि</w>"
    ],
    [
      "जाय",
      "ो,</w>"
    ],
    [
      "खालाम",
      "नाय</w>"
    ],
    [
      "गो",
      "हो"
    ],
    [
      "थ",
      "ार"
    ],
    [
      "गा",
      "सि"
    ],
    [
      "द",
      "ु"
    ],
    [
      "जा",
      "होन"
    ],
    [
      "ज",
      "ां</w>"
    ],
    [
      "मोन",
      ",</w>"
    ],
    [
      "फ",
      "राय"
    ],
    [
      "फो",
      "साव"
    ],
    [
      "इ",
      "उ"
    ],
    [
      "ख",
      "े"
    ],
    [
      "जे",
      "न"
    ],
    [
      "र",
      "ां</w>"
    ],
    [
      "जाय",
      "खौ</w>"
    ],
    [
      "ग",
      "ार"
    ],
    [
      "ल",
      "िर"
    ],
    [
      "सा",
      "लि"
    ],
    [
      "प",
      "े"
    ],
    [
      "हाय",
      "ो।</w>"
    ],
    [
      "म्",
      "ब"
    ],
    [
      "सो",
      "मोन्"
    ],
    [
      "लोगो",
      "से</w>"
    ],
    [
      "होन",
      "ो</w>"
    ],
    [
      "अ",
      "ब्ला</w>"
    ],
    [
      "ह",
      "ार"
    ],
    [
      "न",
      "ै</w>"
    ],
    [
      "0",
      "0</w>"
    ],
    [
      "मि",
      "थि"
    ],
    [
      "ल",
      "नि</w>"
    ],
    [
      "व",
      "े"
    ],
    [
      "मायथाइ",
      "नि</w>"
    ],
    [
      "द",
      "ान"
    ],
    [
      "9",
      "</w>"
    ],
    [
      "ब",
      "ै</w>"
    ],
    [
      "व",
      "ि"
    ],
    [
      "न",
      "ङ"
    ],
    [
      "बि",
      "यो</w>"
    ],
    [
      "य",
      "ा</w>"
    ],
    [
      "थ",
      "ोन"
    ],
    [
      "र",
      "नि</w>"
    ],
    [
      "न",
      "ाव</w>"
    ],
    [
      "मान",
      "</w>"
    ],
    [
      "ह",
      "ान्"
    ],
    [
      "ग",
      "</w>"
    ],
    [
      "ग",
      "ा</w>"
    ],
    [
      "र",
      "ां"
    ],
    [
      "बाहा",
      "गो"
    ],
    [
      "भारत",
      "नि</w>"
    ],
    [
      "मो",
      "जां</w>"
    ],
    [
      "ै",
      ",</w>"
    ],
    [
      "िक",
      "</w>"
    ],
    [
      "फ",
      "ारि"
    ],
    [
      "खोन",
      "्"
    ],
    [
      "य",
      "ाव,</w>"
    ],
    [
      "क्",
      "ट"
    ],
    [
      "ी",
      "नि</w>"
    ],
    [
      "त",
      "ा"
    ],
    [
      "श",
      "ि"
    ],
    [
      "ज",
      "्र"
    ],
    [
      "ो",
      "म</w>"
    ],
    [
      "ग",
      "ं"
    ],
    [
      "मु",
      "लु"
    ],
    [
      "हा",
      "म"
    ],
    [
      "स्ट",
      "्र"
    ],
    [
      "राय",
      "जो</w>"
    ],
    [
      "गि",
      "बि"
    ],
    [
      "ु",
      "</w>"
    ],
    [
      "द",
      "ा</w>"
    ],
    [
      "सुबुं",
      "</w>"
    ],
    [
      "थाय",
      "नि</w>"
    ],
    [
      "जि",
      "उ"
    ],
    [
      "फ",
      "</w>"
    ],
    [
      "हो",
      "दोंमोन।</w>"
    ],
    [
      "गोद",
      "ान</w>"
    ],
    [
      "न",
      "आ</w>"
    ],
    [
      "सा",
      "ब"
    ],
    [
      "गेले",
      "मु"
    ],
    [
      "मायथाइ",
      "याव,</w>"
    ],
    [
      "गाव",
      "सोर"
    ],
    [
      "ओ",
      "ं"
    ],
    [
      "ल",
      "ाव</w>"
    ],
    [
      "हो",
      "यो।</w>"
    ],
    [
      "ष",
      "्"
    ],
    [
      "ह",
      "म"
    ],
    [
      "ग",
      "'"
    ],
    [
      "सा",
      "इ"
    ],
    [
      "जाय",
      "ो</w>"
    ],
    [
      "ै",
      "बो</w>"
    ],
    [
      "जोन",
      "ि</w>"
    ],
    [
      "च",
      "े"
    ],
    [
      "रोखो",
      "म"
    ],
    [
      "दं",
      "मोन।</w>"
    ],
    [
      "साय",
      "ख'"
    ],
    [
      "थि",
      "नि</w>"
    ],
    [
      "बि",
      "जिर"
    ],
    [
      "गास",
      "ै</w>"
    ],
    [
      "ा",
      ",</w>"
    ],
    [
      "ल",
      "्ल"
    ],
    [
      "ह",
      "ै"
    ],
    [
      "ाव",
      "नो</w>"
    ],
    [
      "ड",
      "े"
    ],
    [
      "थ",
      "ै"
    ],
    [
      "\"",
      "</w>"
    ],
    [
      "सुबुं",
      "फोरा</w>"
    ],
    [
      "प",
      "</w>"
    ],
    [
      "ार",
      "नि</w>"
    ],
    [
      "स्",
      "क"
    ],
    [
      "जाय",
      "ा</w>"
    ],
    [
      "म",
      "ार्"
    ],
    [
      "ा",
      "खै"
    ],
    [
      "ख",
      "र"
    ],
    [
      "बि",
      "नि</w>"
    ],
    [
      "ग",
      "ौ"
    ],
    [
      "बे",
      "से"
    ],
    [
      "स",
      "ेल"
    ],
    [
      "ेट",
      "</w>"
    ],
    [
      "दों",
      "</w>"
    ],
    [
      "19",
      "9"
    ],
    [
      "ले",
      "न्ड"
    ],
    [
      "द",
      "ै</w>"
    ],
    [
      "थ",
      "ाव</w>"
    ],
    [
      "बोसोर",
      "</w>"
    ],
    [
      "श",
      "</w>"
    ],
    [
      "बे",
      "रा"
    ],
    [
      "फि",
      "न"
    ],
    [
      "गासि",
      "नो</w>"
    ],
    [
      "गावसोर",
      "नि</w>"
    ],
    [
      "जा",
      "दों।</w>"
    ],
    [
      "ल",
      "िय"
    ],
    [
      "गो",
      "ख्र"
    ],
    [
      "थ",
      "'"
    ],
    [
      "सरासनस्र",
      "ायै</w>"
    ],
    [
      "ट",
      "ा"
    ],
    [
      "ब्ला",
      ",</w>"
    ],
    [
      "क",
      "म्प"
    ],
    [
      "बिथां",
      "खौ</w>"
    ],
    [
      "ह",
      "ुन"
    ],
    [
      "ल",
      "ै"
    ],
    [
      "सिग",
      "ां"
    ],
    [
      "स",
      "ि</w>"
    ],
    [
      "स",
      "'"
    ],
    [
      "थाय",
      "ो।</w>"
    ],
    [
      "नोंथां",
      "नि</w>"
    ],
    [
      "ाय",
      "नि</w>"
    ],
    [
      "दि",
      "हुन"
    ],
    [
      "द",
      "ो</w>"
    ],
    [
      "ब",
      "बे"
    ],
    [
      "ज",
      "ुन"
    ],
    [
      "बि",
      "फ"
    ],
    [
      "स्",
      "त"
    ],
    [
      "फा",
      "हाम"
    ],
    [
      "ल",
      "ी"
    ],
    [
      "र",
      "ाव"
    ],
    [
      "ल",
      "'</w>"
    ],
    [
      "उन",
      "ाव,</w>"
    ],
    [
      "मान",
      "ि"
    ],
    [
      "गा",
      "ज्र"
    ],
    [
      "बिसोर",
      "</w>"
    ],
    [
      "बयनिख्रुइ",
      "बो</w>"
    ],
    [
      "ब",
      "ाय</w>"
    ],
    [
      "थ",
      "िया</w>"
    ],
    [
      "ो",
      "मोन।</w>"
    ],
    [
      "जा",
      "दोंमोन</w>"
    ],
    [
      "सि",
      "य"
    ],
    [
      "सोल",
      "ों"
    ],
    [
      "म",
      "द"
    ],
    [
      "स",
      "ौ"
    ],
    [
      "राय",
      "जो"
    ],
    [
      "सि",
      "म"
    ],
    [
      "ोन",
      "ा</w>"
    ],
    [
      "थिय",
      "ाव</w>"
    ],
    [
      "!",
      "</w>"
    ],
    [
      "थ",
      "ोर"
    ],
    [
      "्र",
      "ा"
    ],
    [
      "मि",
      "न"
    ],
    [
      "बा",
      "ङ"
    ],
    [
      "गिरि",
      "फोरा</w>"
    ],
    [
      "मुं",
      "दां"
    ],
    [
      "बाद",
      "ाय"
    ],
    [
      "जा",
      "दोंमोन,</w>"
    ],
    [
      "गो",
      "सो</w>"
    ],
    [
      "हा",
      "दोंमोन।</w>"
    ],
    [
      "थाइ",
      "नि</w>"
    ],
    [
      "आमेरिक",
      "ानि</w>"
    ],
    [
      "हाय",
      "ुं"
    ],
    [
      "मान",
      "ोना</w>"
    ],
    [
      "अन",
      "जि"
    ],
    [
      "ख",
      "ाव"
    ],
    [
      "आ",
      "ग"
    ],
    [
      "खा",
      "मानि</w>"
    ],
    [
      "िय",
      "ानि</w>"
    ],
    [
      "माय",
      "ा</w>"
    ],
    [
      "ब",
      "ान्"
    ],
    [
      "मा",
      "ब्ला"
    ],
    [
      "इ",
      "ं"
    ],
    [
      "दाव",
      "बाय"
    ],
    [
      "म",
      "'"
    ],
    [
      "साम",
      "लाय"
    ],
    [
      "गो",
      "सो"
    ],
    [
      "सा",
      "-"
    ],
    [
      "दं",
      ",</w>"
    ],
    [
      "ल",
      "ेर"
    ],
    [
      "भारत",
      "ारि</w>"
    ],
    [
      "ग",
      "नाय"
    ],
    [
      "ग",
      "िय"
    ],
    [
      "फ्र",
      "ोम"
    ],
    [
      "आ",
      "फा"
    ],
    [
      "गुब",
      "ुन"
    ],
    [
      "ाय",
      "नो</w>"
    ],
    [
      "आ",
      "थि"
    ],
    [
      "ध",
      "ोर"
    ],
    [
      "बाय",
      "दि"
    ],
    [
      "ह",
      "ोर"
    ],
    [
      "खौ",
      "बो</w>"
    ],
    [
      "बा",
      "हाग"
    ],
    [
      "हि",
      "न्द"
    ],
    [
      "जे",
      "न्"
    ],
    [
      "ै",
      "नो</w>"
    ],
    [
      "माइथाय",
      "ाव</w>"
    ],
    [
      "बाहाग",
      "ो</w>"
    ],
    [
      "जाय",
      "नि</w>"
    ],
    [
      "ड",
      "ा"
    ],
    [
      "फ",
      "ाव"
    ],
    [
      "सोन",
      "ा"
    ],
    [
      "बुं",
      "नाय</w>"
    ],
    [
      "प",
      "ार्"
    ],
    [
      "थ",
      "ार</w>"
    ],
    [
      "प",
      "'"
    ],
    [
      "खालाम",
      "दोंमोन।</w>"
    ],
    [
      "बो",
      "थोर"
    ],
    [
      "क्",
      "स"
    ],
    [
      "नै",
      "थि</w>"
    ],
    [
      "फा",
      "लां"
    ],
    [
      "ान",
      "ो</w>"
    ],
    [
      "स्ट",
      "े"
    ],
    [
      "स",
      "ान्"
    ],
    [
      "जानाय",
      "नि</w>"
    ],
    [
      "स",
      "ारि</w>"
    ],
    [
      "थु",
      "म"
    ],
    [
      "बै",
      "सो"
    ],
    [
      "म",
      "ार"
    ],
    [
      "ोन",
      "ि</w>"
    ],
    [
      "ज",
      "ौ</w>"
    ],
    [
      "सो",
      "होर"
    ],
    [
      "फोर",
      "माय"
    ],
    [
      "ह",
      "ारि"
    ],
    [
      "हा",
      "बा"
    ],
    [
      "माव",
      "ख'"
    ],
    [
      "स",
      "ी"
    ],
    [
      "गं",
      "से</w>"
    ],
    [
      "मि",
      "ट"
    ],
    [
      "दे",
      "ं"
    ],
    [
      "म",
      "ै"
    ],
    [
      "ान",
      "नि</w>"
    ],
    [
      "जु",
      "थाइ</w>"
    ],
    [
      "गा",
      "हाय"
    ],
    [
      "बाहाय",
      "नाय</w>"
    ],
    [
      "फो",
      "लेर"
    ],
    [
      "फ",
      "्ल"
    ],
    [
      "आ",
      "द"
    ],
    [
      "थि",
      "खौ</w>"
    ],
    [
      "न्ट",
      "</w>"
    ],
    [
      "फि",
      "सा"
    ],
    [
      "बो",
      ",</w>"
    ],
    [
      "सिग",
      "ां</w>"
    ],
    [
      "ङ",
      "ारि</w>"
    ],
    [
      "थिय",
      "ारि</w>"
    ],
    [
      "फोर",
      ",</w>"
    ],
    [
      "प्",
      "त"
    ],
    [
      "सरासनस्र",
      "ा</w>"
    ],
    [
      "सि",
      "ं"
    ],
    [
      "मुलु",
      "ग"
    ],
    [
      "थाख",
      "ाय"
    ],
    [
      "क",
      "र्"
    ],
    [
      "ह",
      "'"
    ],
    [
      "19",
      "8"
    ],
    [
      "बिसोर",
      "नि</w>"
    ],
    [
      "ब",
      "र"
    ],
    [
      "था",
      "म</w>"
    ],
    [
      "सि",
      "ङाव</w>"
    ],
    [
      "20",
      "</w>"
    ],
    [
      "सा",
      "ल"
    ],
    [
      "च",
      "ि"
    ],
    [
      "गाज्र",
      "ि</w>"
    ],
    [
      "क",
      "ार्"
    ],
    [
      "ङ",
      "ो।</w>"
    ],
    [
      "रै",
      "खा"
    ],
    [
      "बादाय",
      "लाय"
    ],
    [
      "फ्रोम",
      "बो</w>"
    ],
    [
      "बिसोर",
      "ो</w>"
    ],
    [
      "ब",
      "्"
    ],
    [
      "जा",
      "नि</w>"
    ],
    [
      "खालाम",
      "ो।</w>"
    ],
    [
      "ज",
      "'"
    ],
    [
      "र",
      "ुं"
    ],
    [
      "द",
      "िर"
    ],
    [
      "फि",
      "सा</w>"
    ],
    [
      "ज",
      "ाव"
    ],
    [
      "जे",
      "ं"
    ],
    [
      "ानि",
      ",</w>"
    ],
    [
      "1",
      "8"
    ],
    [
      "ी",
      "आ</w>"
    ],
    [
      "म",
      "िर"
    ],
    [
      "दिन्थि",
      "फुं"
    ],
    [
      "गोहो",
      "म</w>"
    ],
    [
      "ग",
      "ो</w>"
    ],
    [
      "त",
      "</w>"
    ],
    [
      "रोखो",
      "मनि</w>"
    ],
    [
      "आं",
      "नि</w>"
    ],
    [
      "प",
      "्ल"
    ],
    [
      ",",
      "0"
    ],
    [
      "क",
      "ार"
    ],
    [
      "बे",
      "रे"
    ],
    [
      "अ",
      "फ</w>"
    ],
    [
      "ब्र",
      "ि"
    ],
    [
      "र",
      "ान"
    ],
    [
      "फ्र",
      "ा</w>"
    ],
    [
      "ना",
      "गिर"
    ],
    [
      "का",
      "उ"
    ],
    [
      "सो",
      "द्र"
    ],
    [
      "ब",
      "'"
    ],
    [
      "आर",
      "्"
    ],
    [
      "हा",
      "ब"
    ],
    [
      "बे",
      "ं"
    ],
    [
      "बि",
      "र"
    ],
    [
      "थ",
      "े"
    ],
    [
      "नाय",
      "।</w>"
    ],
    [
      "आ",
      "खु"
    ],
    [
      "थान",
      "ो</w>"
    ],
    [
      "हायुं",
      "आरि</w>"
    ],
    [
      "ज",
      "्ल"
    ],
    [
      "रा",
      "इ"
    ],
    [
      "र",
      "ौ"
    ],
    [
      "जौ",
      "गा"
    ],
    [
      "द",
      "ङ"
    ],
    [
      ".ए",
      "स"
    ],
    [
      "19",
      "7"
    ],
    [
      "ट",
      "'"
    ],
    [
      "सोद्र",
      "ो"
    ],
    [
      "सि",
      "बि"
    ],
    [
      "-",
      "</w>"
    ],
    [
      "मद",
      "द</w>"
    ],
    [
      "स",
      "आव</w>"
    ],
    [
      "बु",
      "हु"
    ],
    [
      "हा",
      "नि</w>"
    ],
    [
      "क",
      "्ल"
    ],
    [
      "बे",
      "फोर</w>"
    ],
    [
      "जे",
      "बो</w>"
    ],
    [
      "जोन",
      "ोम</w>"
    ],
    [
      "फ",
      "ान"
    ],
    [
      "ख",
      "्ल"
    ],
    [
      "रौ",
      "न"
    ],
    [
      "फो",
      "थाय"
    ],
    [
      "जाय",
      "गा"
    ],
    [
      "आफा",
      "द"
    ],
    [
      "ब",
      "ोर"
    ],
    [
      "हे",
      "फा"
    ],
    [
      "द",
      "ं</w>"
    ],
    [
      "रुं",
      "सारि</w>"
    ],
    [
      "बे",
      "सा"
    ],
    [
      "जा",
      "ब</w>"
    ],
    [
      "बा",
      "थ्र"
    ],
    [
      "ट",
      "नि</w>"
    ],
    [
      "मोन",
      "से"
    ],
    [
      "फा",
      "लि"
    ],
    [
      "जेर",
      "ै</w>"
    ],
    [
      "न",
      "ार"
    ],
    [
      "ज",
      "ारि"
    ],
    [
      "अ",
      "न्"
    ],
    [
      "प्र",
      "ि"
    ],
    [
      "आथि",
      "खा"
    ],
    [
      "ब",
      "ार्"
    ],
    [
      "ह",
      "ौ"
    ],
    [
      "र",
      "ाव</w>"
    ],
    [
      "नि",
      "उ"
    ],
    [
      "स",
      "ै"
    ],
    [
      "मुं",
      "</w>"
    ],
    [
      "क्",
      "ला"
    ],
    [
      "गेजेर",
      "जों</w>"
    ],
    [
      "ब",
      "ाव"
    ],
    [
      "नाय",
      ",</w>"
    ],
    [
      "ग",
      "ल"
    ],
    [
      "ेल",
      "ि"
    ],
    [
      "गोन",
      "</w>"
    ],
    [
      "मायथाइ",
      "निफ्राय</w>"
    ],
    [
      "ख",
      "ि</w>"
    ],
    [
      "न",
      "खौ</w>"
    ],
    [
      "थाख",
      "ो"
    ],
    [
      "म्ब",
      "र</w>"
    ],
    [
      "ग्ल",
      "ोब"
    ],
    [
      "ग",
      "ान्"
    ],
    [
      "जाय",
      "गाय"
    ],
    [
      "स्ट",
      "</w>"
    ],
    [
      "श",
      "ा"
    ],
    [
      "नाय",
      "जों</w>"
    ],
    [
      "गि",
      "दिर"
    ],
    [
      "बबे",
      "ख"
    ],
    [
      "सोमोन्",
      "दो</w>"
    ],
    [
      "ला",
      "दोंमोन।</w>"
    ],
    [
      "बबेख",
      "ानि,</w>"
    ],
    [
      "होन",
      "्"
    ],
    [
      "हो",
      "ब"
    ],
    [
      "च",
      "</w>"
    ],
    [
      "य",
      "ु"
    ],
    [
      "साब",
      "सिन</w>"
    ],
    [
      ":",
      "</w>"
    ],
    [
      "थ",
      "ो"
    ],
    [
      "गोर",
      "ोब"
    ],
    [
      "बयनिख्रुइ",
      "</w>"
    ],
    [
      "क",
      "नि</w>"
    ],
    [
      "गास",
      "ैबो</w>"
    ],
    [
      "गो",
      "जौ"
    ],
    [
      "हान",
      "ाय</w>"
    ],
    [
      "गो",
      "जौ</w>"
    ],
    [
      "आव",
      ",</w>"
    ],
    [
      "था",
      "म"
    ],
    [
      "जाहोन",
      "ाव</w>"
    ],
    [
      "थाय",
      "ाव</w>"
    ],
    [
      "ि",
      "नि</w>"
    ],
    [
      "गिबि",
      "सिन</w>"
    ],
    [
      "मोन",
      "नो</w>"
    ],
    [
      "ेर",
      "ा"
    ],
    [
      "गा",
      "ग्लोब"
    ],
    [
      "माय",
      "ाव</w>"
    ],
    [
      "राय",
      "जोनि</w>"
    ],
    [
      "इ",
      "न"
    ],
    [
      "ट",
      "ी"
    ],
    [
      "मुंदां",
      "खा</w>"
    ],
    [
      "गोब",
      "्रा"
    ],
    [
      "लाइ",
      "</w>"
    ],
    [
      "इ",
      "न्ड"
    ],
    [
      "ग",
      "थ'"
    ],
    [
      "थि",
      "ं</w>"
    ],
    [
      "सेल",
      "'</w>"
    ],
    [
      "ड",
      "़"
    ],
    [
      "ख",
      "ायै</w>"
    ],
    [
      "म",
      "न"
    ],
    [
      "अ",
      "र"
    ],
    [
      "मान",
      "सि"
    ],
    [
      "गो",
      "सार"
    ],
    [
      "आर",
      "ि"
    ],
    [
      "गाय",
      "सन"
    ],
    [
      "अ",
      "'"
    ],
    [
      "स",
      "खौ</w>"
    ],
    [
      "ए",
      "न"
    ],
    [
      "सो",
      "म"
    ],
    [
      "सि",
      "नाय"
    ],
    [
      "ल",
      "आ</w>"
    ],
    [
      "ेट",
      "ि"
    ],
    [
      "लो",
      "गो</w>"
    ],
    [
      "ला",
      "मा"
    ],
    [
      "म",
      "खौ</w>"
    ],
    [
      "सावथ",
      "ुन</w>"
    ],
    [
      "से",
      "ब"
    ],
    [
      "ेल",
      "्"
    ],
    [
      "बेसा",
      "द"
    ],
    [
      ",0",
      "00</w>"
    ],
    [
      "नि",
      "फ्र"
    ],
    [
      "श",
      "न"
    ],
    [
      "ब",
      "नि</w>"
    ],
    [
      "फ",
      "'"
    ],
    [
      "फ",
      "्"
    ],
    [
      "हा",
      "बा</w>"
    ],
    [
      "े",
      "न</w>"
    ],
    [
      "सो",
      "दो"
    ],
    [
      "काउ",
      "न्ट"
    ],
    [
      "ख",
      "ान"
    ],
    [
      "ब",
      "ान"
    ],
    [
      "19",
      "6"
    ],
    [
      "फ",
      "ाय"
    ],
    [
      "गिरि",
      "फोरनि</w>"
    ],
    [
      "व",
      "ार"
    ],
    [
      "आ",
      "बुं"
    ],
    [
      "जु",
      "दि</w>"
    ],
    [
      "फि",
      "न्"
    ],
    [
      "ड",
      "्र"
    ],
    [
      "ाव",
      "बो</w>"
    ],
    [
      "गिदिर",
      "</w>"
    ],
    [
      "ग",
      "ान"
    ],
    [
      "जौ",
      "खोन्"
    ],
    [
      "म",
      "आ</w>"
    ],
    [
      "र",
      ",</w>"
    ],
    [
      "ृ",
      "ष्"
    ],
    [
      "ग्र",
      "े"
    ],
    [
      "ग",
      "ौ</w>"
    ],
    [
      "नों",
      "</w>"
    ],
    [
      "ैय",
      "ै</w>"
    ],
    [
      "दों",
      ",</w>"
    ],
    [
      "सम",
      "नि</w>"
    ],
    [
      "फो",
      "जोब"
    ],
    [
      "दै",
      "दे"
    ],
    [
      "त",
      "ु"
    ],
    [
      "खा",
      "थियाव</w>"
    ],
    [
      "ला",
      "नि</w>"
    ],
    [
      "िय",
      "ान</w>"
    ],
    [
      "फि",
      "न</w>"
    ],
    [
      "ङ",
      "ो</w>"
    ],
    [
      "मुं",
      "नि</w>"
    ],
    [
      "र्",
      "ड"
    ],
    [
      "गुबुन",
      "-"
    ],
    [
      "खान्",
      "थियारि</w>"
    ],
    [
      "ल",
      "्ला"
    ],
    [
      "स",
      "ार्"
    ],
    [
      "य",
      "ा"
    ],
    [
      "प",
      "ार"
    ],
    [
      "गनाय",
      "थि</w>"
    ],
    [
      "बाय",
      "।</w>"
    ],
    [
      "भ",
      "ा"
    ],
    [
      "साल",
      "ियाव</w>"
    ],
    [
      "इ",
      "न्"
    ],
    [
      "सम",
      "ावनो</w>"
    ],
    [
      "फोर",
      "निफ्राय</w>"
    ],
    [
      "स",
      "म</w>"
    ],
    [
      "ज",
      "ार्"
    ],
    [
      "गुबुन-",
      "गुबुन</w>"
    ],
    [
      "स",
      "ार</w>"
    ],
    [
      "खान्",
      "थि"
    ],
    [
      "ं",
      "नि</w>"
    ],
    [
      "न",
      "ेट"
    ],
    [
      "स",
      "न्"
    ],
    [
      "स",
      "ल'"
    ],
    [
      "उ",
      "द"
    ],
    [
      "ाइ",
      "</w>"
    ],
    [
      "य",
      "</w>"
    ],
    [
      "व",
      "ा</w>"
    ],
    [
      "आबुं",
      "</w>"
    ],
    [
      "ए",
      "स"
    ],
    [
      "गो",
      "ग्ल"
    ],
    [
      "बु",
      "थार"
    ],
    [
      "रो",
      "खा</w>"
    ],
    [
      "ल",
      "खौ</w>"
    ],
    [
      "फ",
      "ाव</w>"
    ],
    [
      "हाग",
      "ौ</w>"
    ],
    [
      "मोन",
      "ो।</w>"
    ],
    [
      "ग",
      "ल</w>"
    ],
    [
      "ग",
      "ि</w>"
    ],
    [
      "आ",
      "न"
    ],
    [
      "ैय",
      "ो।</w>"
    ],
    [
      "श",
      "न</w>"
    ],
    [
      "मायथाइ",
      "सिम</w>"
    ],
    [
      "म",
      "ी"
    ],
    [
      "बानाय",
      "नाय</w>"
    ],
    [
      "बे",
      "याव</w>"
    ],
    [
      "हे",
      "ं"
    ],
    [
      "होन्",
      "ना</w>"
    ],
    [
      "गोनां",
      "थि</w>"
    ],
    [
      "स",
      "मा"
    ],
    [
      "क्",
      "स</w>"
    ],
    [
      "द",
      "ुं"
    ],
    [
      "र",
      "ा</w>"
    ],
    [
      "इ",
      "न्ट"
    ],
    [
      "त",
      "ि"
    ],
    [
      "खो",
      "ला</w>"
    ],
    [
      "ल",
      "ाव"
    ],
    [
      "सोद्रो",
      "मा"
    ],
    [
      "श",
      "्"
    ],
    [
      "थाय",
      "ा</w>"
    ],
    [
      "देर",
      "सिन</w>"
    ],
    [
      "म्प",
      "िय"
    ],
    [
      "नु",
      "नो</w>"
    ],
    [
      "म",
      "न्"
    ],
    [
      "होन",
      "ना</w>"
    ],
    [
      "नोगोर",
      "</w>"
    ],
    [
      "ेन",
      "नि</w>"
    ],
    [
      "ट",
      "्"
    ],
    [
      "मि",
      "नि"
    ],
    [
      "स",
      "ुं"
    ],
    [
      "सुबुं",
      "फोरनि</w>"
    ],
    [
      "ज",
      "ि</w>"
    ],
    [
      "19",
      "</w>"
    ],
    [
      "क",
      "आ</w>"
    ],
    [
      "बा",
      "इ"
    ],
    [
      "ब",
      "ी"
    ],
    [
      "नङ",
      "ा।</w>"
    ],
    [
      "जोब",
      "था</w>"
    ],
    [
      "क्र",
      "ि"
    ],
    [
      "ना",
      "इ"
    ],
    [
      "द",
      "ाय"
    ],
    [
      "धोर",
      "ोम"
    ],
    [
      "खो",
      "ख्ल"
    ],
    [
      "िय",
      "'"
    ],
    [
      "ब",
      "ल</w>"
    ],
    [
      "न",
      "ो,</w>"
    ],
    [
      "ट",
      "ाइ"
    ],
    [
      "रु",
      "जु"
    ],
    [
      "ाखै",
      "मोन।</w>"
    ],
    [
      "ा",
      "बो</w>"
    ],
    [
      "बां",
      "सिन"
    ],
    [
      "दु",
      "खु"
    ],
    [
      "न",
      ",</w>"
    ],
    [
      "ट्र",
      "े"
    ],
    [
      "ए",
      "ल"
    ],
    [
      "फराय",
      "सालि"
    ],
    [
      "स",
      "र"
    ],
    [
      "चे",
      "म्पिय"
    ],
    [
      "थ",
      "</w>"
    ],
    [
      "ट",
      "आ</w>"
    ],
    [
      "गेजेर",
      "</w>"
    ],
    [
      "जा",
      "दों</w>"
    ],
    [
      "स",
      "न</w>"
    ],
    [
      "जा",
      "फुं"
    ],
    [
      "सोर",
      "खार"
    ],
    [
      "गैय",
      "ा"
    ],
    [
      "ब्र",
      "ै</w>"
    ],
    [
      "मोन्",
      "नाय</w>"
    ],
    [
      "19",
      "5"
    ],
    [
      "बा",
      "दि</w>"
    ],
    [
      "ब्र",
      "ा"
    ],
    [
      "ज",
      "ोर"
    ],
    [
      "जाय",
      "ो"
    ],
    [
      "ज",
      "ार"
    ],
    [
      "क्ट",
      "'"
    ],
    [
      "फा",
      "इ"
    ],
    [
      "भ",
      "</w>"
    ],
    [
      "जि",
      "ब"
    ],
    [
      "ब्र",
      "ु"
    ],
    [
      "न्ड",
      "</w>"
    ],
    [
      "लान",
      "ो</w>"
    ],
    [
      ";",
      "</w>"
    ],
    [
      "जागाय",
      "जेन्"
    ],
    [
      "र",
      "आ</w>"
    ],
    [
      "गुब",
      "ै</w>"
    ],
    [
      "माब्ला",
      "बा"
    ],
    [
      "सिगां",
      "नि</w>"
    ],
    [
      "ज",
      "ै"
    ],
    [
      "न",
      "ान"
    ],
    [
      "ों",
      "</w>"
    ],
    [
      "ओं",
      "खार"
    ],
    [
      "ं",
      "क"
    ],
    [
      "ब्ला",
      "बो</w>"
    ],
    [
      "ब",
      "ोन"
    ],
    [
      "थोन",
      "</w>"
    ],
    [
      "क",
      "ान"
    ],
    [
      "स",
      ",</w>"
    ],
    [
      "हा",
      "इ"
    ],
    [
      "ड",
      "'"
    ],
    [
      "र",
      "ं"
    ],
    [
      "जि",
      "ल्ला"
    ],
    [
      "फोर",
      "ों"
    ],
    [
      "दैदे",
      "न"
    ],
    [
      "र",
      "ि</w>"
    ],
    [
      "गोब्रा",
      "ब</w>"
    ],
    [
      "जें",
      "ना"
    ],
    [
      "सम",
      "ाव,</w>"
    ],
    [
      "ए",
      "म"
    ],
    [
      "रैखा",
      "थि</w>"
    ],
    [
      "खे",
      "ब"
    ],
    [
      "जा",
      "गोन।</w>"
    ],
    [
      "गो",
      "जा"
    ],
    [
      "देर",
      "हादोंमोन।</w>"
    ],
    [
      "फोसाव",
      "नाय</w>"
    ],
    [
      "ज",
      "'</w>"
    ],
    [
      "ल",
      "ार</w>"
    ],
    [
      "हिन्द",
      "ु</w>"
    ],
    [
      "1",
      "0</w>"
    ],
    [
      "भ",
      "े"
    ],
    [
      "ग",
      "ारि"
    ],
    [
      "लाय",
      "ो।</w>"
    ],
    [
      "साव",
      "राय"
    ],
    [
      "न",
      "आव</w>"
    ],
    [
      "खि",
      "जाया</w>"
    ],
    [
      "ी",
      ",</w>"
    ],
    [
      "ब्रि",
      "टि"
    ],
    [
      "प",
      "ान्"
    ],
    [
      "रा",
      "जा"
    ],
    [
      "बिथां",
      "मोन"
    ],
    [
      "अ",
      "स्ट्र"
    ],
    [
      "फार",
      "से</w>"
    ],
    [
      "बैसो",
      "आव</w>"
    ],
    [
      "जा",
      "थाव</w>"
    ],
    [
      "म",
      "ाव</w>"
    ],
    [
      "कि",
      "ल'"
    ],
    [
      "हेफा",
      "जाब</w>"
    ],
    [
      "माब्ला",
      "बा</w>"
    ],
    [
      "‍",
      "‍"
    ],
    [
      "िय",
      "ै</w>"
    ],
    [
      "ब्ल",
      "ि"
    ],
    [
      "मु",
      "वा"
    ],
    [
      "थ",
      "िर"
    ],
    [
      "सो",
      "लि"
    ],
    [
      "सोना",
      "ब</w>"
    ],
    [
      "नां",
      "गौ"
    ],
    [
      "जाय",
      "खिजाया</w>"
    ],
    [
      "ओनसोल",
      "ाव</w>"
    ],
    [
      "्र",
      "ाय"
    ],
    [
      "स्",
      "प"
    ],
    [
      "20",
      "2"
    ],
    [
      "दि",
      "ल्ल"
    ],
    [
      "स",
      "ारि"
    ],
    [
      "कम्प",
      "ानि"
    ],
    [
      "ता",
      "मि"
    ],
    [
      "लि",
      "म्प"
    ],
    [
      "जिउ",
      "</w>"
    ],
    [
      ".",
      "सि"
    ],
    [
      "मे",
      "न्ट"
    ],
    [
      "आ",
      "ला"
    ],
    [
      "जानाय",
      "।</w>"
    ],
    [
      "य",
      "ो,</w>"
    ],
    [
      "ल",
      "ुब"
    ],
    [
      "थां",
      "खि"
    ],
    [
      "ानि",
      "फ्राय</w>"
    ],
    [
      "न्",
      "स</w>"
    ],
    [
      "ख",
      "ो</w>"
    ],
    [
      "ट",
      "ार"
    ],
    [
      "जान",
      "ु"
    ],
    [
      "हौ",
      "वा"
    ],
    [
      "आ",
      "खा"
    ],
    [
      "थाव",
      "नि"
    ],
    [
      "बोसोर",
      "नि</w>"
    ],
    [
      "दोर",
      "ो"
    ],
    [
      "ज",
      "नि</w>"
    ],
    [
      "दिन्",
      "थिय"
    ],
    [
      "स्ट",
      "'"
    ],
    [
      "ल",
      "ुं"
    ],
    [
      "जाय",
      "ोमोन।</w>"
    ],
    [
      "न्द",
      "िर"
    ],
    [
      "मिट",
      "ार</w>"
    ],
    [
      "मिर",
      "ु"
    ],
    [
      "दा",
      "म"
    ],
    [
      "फ",
      "ा</w>"
    ],
    [
      "गिर",
      "िया</w>"
    ],
    [
      "सान",
      "जा</w>"
    ],
    [
      "खालाम",
      "नायनि</w>"
    ],
    [
      "साम",
      "्राय"
    ],
    [
      "गो",
      "जोन"
    ],
    [
      "थ्र",
      "ि</w>"
    ],
    [
      "ल",
      ",</w>"
    ],
    [
      "व",
      "र्"
    ],
    [
      "ग",
      "ाव</w>"
    ],
    [
      "रो",
      "जाब"
    ],
    [
      "रे",
      "ब"
    ],
    [
      "ल",
      "ार"
    ],
    [
      "थि",
      "सन"
    ],
    [
      "प",
      "ेर"
    ],
    [
      "गुब",
      "ैयै</w>"
    ],
    [
      "ड",
      "ी"
    ],
    [
      "राय",
      "ज्ल"
    ],
    [
      "ख्र",
      "ि"
    ],
    [
      "गा",
      "नि</w>"
    ],
    [
      "सि",
      "नि</w>"
    ],
    [
      "ा",
      "खौ</w>"
    ],
    [
      "गैय",
      "ै</w>"
    ],
    [
      "19",
      "4"
    ],
    [
      "ला",
      "खि"
    ],
    [
      "खे",
      "ब</w>"
    ],
    [
      "देर",
      "हा"
    ],
    [
      "बि",
      "था</w>"
    ],
    [
      "दुखु",
      "</w>"
    ],
    [
      "दा",
      "इ"
    ],
    [
      "र",
      "ों"
    ],
    [
      "क",
      "ेर"
    ],
    [
      "ओ",
      "रै"
    ],
    [
      "ब",
      "र्"
    ],
    [
      "1",
      "0"
    ],
    [
      "सोना",
      "ब"
    ],
    [
      "अन",
      "गाय"
    ],
    [
      "ने",
      "म"
    ],
    [
      "फ",
      "र्"
    ],
    [
      "मुलु",
      "ग</w>"
    ],
    [
      "बेरे",
      "खायै</w>"
    ],
    [
      "फाव",
      "खुं"
    ],
    [
      "सि",
      "गा"
    ],
    [
      "स",
      "जों</w>"
    ],
    [
      "बिर",
      "ख"
    ],
    [
      "थाय",
      "खौ</w>"
    ],
    [
      "थाय",
      "ारि</w>"
    ],
    [
      "खै",
      "फो"
    ],
    [
      "गोग्ल",
      "ै"
    ],
    [
      "सा",
      "लाय"
    ],
    [
      "नि",
      "ख"
    ],
    [
      "ानाय",
      "नि</w>"
    ],
    [
      "गो",
      "जान"
    ],
    [
      "प",
      "नि</w>"
    ],
    [
      "खो",
      "ला"
    ],
    [
      "मिथि",
      "नाय</w>"
    ],
    [
      "आइ",
      "जो"
    ],
    [
      "1",
      "7"
    ],
    [
      "ब्रिटि",
      "श</w>"
    ],
    [
      "गेजेर",
      "ारि</w>"
    ],
    [
      "बान्",
      "था</w>"
    ],
    [
      "मि",
      "लिय"
    ],
    [
      "जा",
      "थाव"
    ],
    [
      "जान",
      "ानै</w>"
    ],
    [
      "नो",
      "जोर"
    ],
    [
      "खा",
      "नि</w>"
    ],
    [
      "क्र",
      "'"
    ],
    [
      "खान्",
      "थि</w>"
    ],
    [
      "ओं",
      "थिया</w>"
    ],
    [
      "गु",
      "दि</w>"
    ],
    [
      "सौ",
      "है"
    ],
    [
      "ज",
      "ी"
    ],
    [
      "स",
      "ां"
    ],
    [
      "खा",
      "लि</w>"
    ],
    [
      "माइथाय",
      "नि</w>"
    ],
    [
      "द",
      "नि</w>"
    ],
    [
      "य",
      "ार"
    ],
    [
      "ख",
      "न"
    ],
    [
      "दें",
      "खो"
    ],
    [
      "ट",
      "आव</w>"
    ],
    [
      "हान्",
      "जा"
    ],
    [
      "मोन",
      "नै</w>"
    ],
    [
      "व",
      "ार्"
    ],
    [
      "दै",
      "मा"
    ],
    [
      "हा",
      "थ"
    ],
    [
      "ग",
      "्"
    ],
    [
      "सुब",
      "ु"
    ],
    [
      "थ",
      "ै</w>"
    ],
    [
      "उन",
      "नि</w>"
    ],
    [
      "फोर",
      "नो</w>"
    ],
    [
      "ज",
      "य"
    ],
    [
      "बाहाय",
      "नो</w>"
    ],
    [
      "सावथुन",
      "ा</w>"
    ],
    [
      "बिसोर",
      "खौ</w>"
    ],
    [
      "ज",
      "न</w>"
    ],
    [
      "म",
      "न्दिर"
    ],
    [
      "मोन",
      "नाय</w>"
    ],
    [
      "दै",
      "थाय"
    ],
    [
      "बायदि",
      "ब्ला,</w>"
    ],
    [
      "ए",
      "से</w>"
    ],
    [
      "म",
      ",</w>"
    ],
    [
      "गोन",
      ",</w>"
    ],
    [
      "जाब",
      "ाय</w>"
    ],
    [
      "सा",
      "लि</w>"
    ],
    [
      "ब",
      "ां</w>"
    ],
    [
      "आइ",
      "."
    ],
    [
      "गोख्र",
      "ों</w>"
    ],
    [
      "िय",
      "ारि</w>"
    ],
    [
      "खौ",
      "रां</w>"
    ],
    [
      "गा",
      "ब"
    ],
    [
      "दङ",
      "।</w>"
    ],
    [
      "स्र",
      "ि</w>"
    ],
    [
      "बाय",
      "जो"
    ],
    [
      "मोन्",
      "नै</w>"
    ],
    [
      "बोथोर",
      "नि</w>"
    ],
    [
      "सोम",
      "जि"
    ],
    [
      "दे",
      "श"
    ],
    [
      "बार",
      "ह"
    ],
    [
      "खा",
      "मानि"
    ],
    [
      "ट",
      "ार</w>"
    ],
    [
      "न",
      "खर"
    ],
    [
      "मुं",
      "खौ</w>"
    ],
    [
      "लाय",
      "ाव</w>"
    ],
    [
      "अ",
      "लिम्प"
    ],
    [
      "हाबा",
      "फारि"
    ],
    [
      "चेम्पिय",
      "न"
    ],
    [
      "ड",
      "नि</w>"
    ],
    [
      "ख",
      "ृष्"
    ],
    [
      "3",
      "0</w>"
    ],
    [
      "ट",
      "िक"
    ],
    [
      "ना",
      "नि</w>"
    ],
    [
      "द",
      "ाव</w>"
    ],
    [
      "दोन",
      "्"
    ],
    [
      "अस्ट्र",
      "ेल"
    ],
    [
      "बे",
      "व"
    ],
    [
      "ड",
      "आ</w>"
    ],
    [
      "ब्ला",
      "बो,</w>"
    ],
    [
      "स्र",
      "ि"
    ],
    [
      "सोमोन्",
      "दै</w>"
    ],
    [
      "ग्र",
      "ि"
    ],
    [
      "स",
      "ों"
    ],
    [
      "थाय",
      "ो,</w>"
    ],
    [
      "1",
      "5"
    ],
    [
      "बुं",
      "दोंमोन</w>"
    ],
    [
      "हान",
      "जा"
    ],
    [
      "आथिखा",
      "लाव</w>"
    ],
    [
      "ए",
      "न्ट"
    ],
    [
      "थु",
      "लुं"
    ],
    [
      "मे",
      "ड"
    ],
    [
      "जोब",
      "नायाव</w>"
    ],
    [
      "बाय",
      "द"
    ],
    [
      "नङ",
      "ा"
    ],
    [
      "थाम",
      "थि</w>"
    ],
    [
      "लेन्ड",
      "नि</w>"
    ],
    [
      "बि",
      "गिय"
    ],
    [
      "जोन",
      "ो"
    ],
    [
      "बा",
      "ग"
    ],
    [
      "गि",
      "दि"
    ],
    [
      "ह",
      "ां"
    ],
    [
      "ह",
      "ो</w>"
    ],
    [
      "लान",
      "ाय</w>"
    ],
    [
      "स",
      "ेर"
    ],
    [
      "गाहाय",
      "ाव</w>"
    ],
    [
      "हागौ",
      ",</w>"
    ],
    [
      "थ्र",
      "ि"
    ],
    [
      "ड",
      "ु"
    ],
    [
      "मो",
      "सान"
    ],
    [
      "अ",
      "क्ट'"
    ],
    [
      "खां",
      "नायनि</w>"
    ],
    [
      "मिन",
      "ारि</w>"
    ],
    [
      "द",
      "'</w>"
    ],
    [
      "जा",
      "ग्रा</w>"
    ],
    [
      "खा",
      "थि"
    ],
    [
      "खे",
      "व"
    ],
    [
      "201",
      "0</w>"
    ],
    [
      "आर",
      "ोब"
    ],
    [
      "जेन",
      "दोंमोन।</w>"
    ],
    [
      "ए",
      "फ"
    ],
    [
      "समा",
      "ज"
    ],
    [
      "थाख",
      "ोनि</w>"
    ],
    [
      "मन",
      "ां</w>"
    ],
    [
      "प्र",
      "े"
    ],
    [
      "ट",
      "ि</w>"
    ],
    [
      "बुहु",
      "मनां</w>"
    ],
    [
      "थाखाय",
      ",</w>"
    ],
    [
      "मोन्",
      "नै"
    ],
    [
      "दि",
      "से"
    ],
    [
      "प",
      "ी"
    ],
    [
      "स्ट",
      "ि"
    ],
    [
      "फोर",
      "ाव,</w>"
    ],
    [
      "पु",
      "लि"
    ],
    [
      "न",
      "बे"
    ],
    [
      "दैथाय",
      "हर"
    ],
    [
      "नि",
      "बो</w>"
    ],
    [
      "म",
      "ि</w>"
    ],
    [
      "फोर",
      "नाव</w>"
    ],
    [
      "क",
      "ेल</w>"
    ],
    [
      "स्",
      "क'"
    ],
    [
      "गो",
      "लाव</w>"
    ],
    [
      "सावथुन",
      "नि</w>"
    ],
    [
      "ना",
      "गार"
    ],
    [
      "रौन",
      "िया"
    ],
    [
      ".एस",
      "."
    ],
    [
      "थि",
      "ं"
    ],
    [
      "आरोब",
      "ाव</w>"
    ],
    [
      "सिं",
      "ह"
    ],
    [
      "दोरो",
      "ङारि</w>"
    ],
    [
      "मोन",
      "फ्रोमबो</w>"
    ],
    [
      "गिरि",
      "मोन।</w>"
    ],
    [
      "ए",
      "प्रि"
    ],
    [
      "दाव",
      "हानि</w>"
    ],
    [
      "थिर",
      "ां"
    ],
    [
      "र",
      "खौ</w>"
    ],
    [
      "खा",
      "बु"
    ],
    [
      "बो",
      "खार"
    ],
    [
      "बि",
      "ब"
    ],
    [
      "थां",
      "खि</w>"
    ],
    [
      "मि",
      "न्"
    ],
    [
      "ख",
      "हा</w>"
    ],
    [
      "बेव",
      "हाय</w>"
    ],
    [
      "आरि",
      "मु"
    ],
    [
      "फ",
      "ां"
    ],
    [
      "बि",
      "खौ</w>"
    ],
    [
      "प",
      "र्"
    ],
    [
      "ल",
      "ी</w>"
    ],
    [
      "चेम्पियन",
      "शि"
    ],
    [
      "मुं",
      "ख'"
    ],
    [
      "जानु",
      "व"
    ],
    [
      "हा",
      "जो"
    ],
    [
      "द",
      "ान्"
    ],
    [
      "जा",
      "प"
    ],
    [
      "201",
      "4</w>"
    ],
    [
      "व",
      "ी"
    ],
    [
      "गोनां",
      "थार</w>"
    ],
    [
      "ं",
      "आ</w>"
    ],
    [
      "सान",
      "</w>"
    ],
    [
      "फोर",
      "।</w>"
    ],
    [
      "फोर",
      "बो</w>"
    ],
    [
      "सोन",
      "ि</w>"
    ],
    [
      "मो",
      "गा"
    ],
    [
      "ट",
      "िक</w>"
    ],
    [
      "थ",
      "ान्"
    ],
    [
      "20",
      "20</w>"
    ],
    [
      "जि",
      "ल्ल"
    ],
    [
      "मो",
      "जा"
    ],
    [
      "रा",
      "गा</w>"
    ],
    [
      "ह",
      "गार"
    ],
    [
      "न्",
      "द</w>"
    ],
    [
      "नाय",
      "निफ्राय</w>"
    ],
    [
      "न",
      "ं"
    ],
    [
      "मोन्",
      "नो</w>"
    ],
    [
      "बि",
      "जाब"
    ],
    [
      "इन्ट",
      "ार"
    ],
    [
      "हो",
      "जानाय</w>"
    ],
    [
      "थान",
      "सालि"
    ],
    [
      "ग",
      "ारि</w>"
    ],
    [
      "बे",
      "निख"
    ],
    [
      "ट",
      "ु"
    ],
    [
      "फालां",
      "गिय"
    ],
    [
      "ड",
      "्"
    ],
    [
      "सु",
      "इ"
    ],
    [
      "सिम",
      ",</w>"
    ],
    [
      "नां",
      "गौ</w>"
    ],
    [
      "जाय",
      "ाव</w>"
    ],
    [
      "आय",
      "दा"
    ],
    [
      "आन",
      "जा"
    ],
    [
      "जो",
      "आ</w>"
    ],
    [
      "रायज्ल",
      "ाय"
    ],
    [
      "श",
      "'"
    ],
    [
      "ः",
      "</w>"
    ],
    [
      "सिगा",
      "ङाव</w>"
    ],
    [
      "फ्र",
      "ोम</w>"
    ],
    [
      "गैय",
      "ा।</w>"
    ],
    [
      "हाय",
      "ो</w>"
    ],
    [
      "गासि",
      "बो</w>"
    ],
    [
      "क्",
      "सि"
    ],
    [
      "1",
      "6"
    ],
    [
      "इं",
      "राज"
    ],
    [
      "बि",
      "लाइ"
    ],
    [
      "था",
      "ग्रा</w>"
    ],
    [
      "जा",
      "थाय"
    ],
    [
      "हारि",
      "मु"
    ],
    [
      "रोखोम",
      "से</w>"
    ],
    [
      "द",
      "ी"
    ],
    [
      "खोन्",
      "दो"
    ],
    [
      "महर",
      "ै,</w>"
    ],
    [
      "उद",
      "ां</w>"
    ],
    [
      "द",
      "्"
    ],
    [
      "आखा",
      "इ"
    ],
    [
      "नों",
      "नि</w>"
    ],
    [
      "जा",
      "से</w>"
    ],
    [
      "हो",
      "यो</w>"
    ],
    [
      "होन",
      "ायनि</w>"
    ],
    [
      "रै",
      "खा</w>"
    ],
    [
      "हाय",
      "ा</w>"
    ],
    [
      "फ्र",
      "ान्"
    ],
    [
      "हाय",
      "ाव</w>"
    ],
    [
      "गा",
      "मि"
    ],
    [
      "ज",
      "्"
    ],
    [
      "द",
      "न्द"
    ],
    [
      "होन",
      "ाय"
    ],
    [
      "क",
      "र"
    ],
    [
      "ट",
      "ेल"
    ],
    [
      "स्ट",
      "ार</w>"
    ],
    [
      "हें",
      "था</w>"
    ],
    [
      "1",
      "2</w>"
    ],
    [
      "जै",
      "न</w>"
    ],
    [
      "न्",
      "स"
    ],
    [
      "रौन",
      "िया</w>"
    ],
    [
      "इउ",
      "र'"
    ],
    [
      "20",
      "19</w>"
    ],
    [
      "-",
      "मो"
    ],
    [
      "मा",
      "सि"
    ],
    [
      "गेलेमु",
      "</w>"
    ],
    [
      "आग",
      "स्त"
    ],
    [
      "ग",
      "नि</w>"
    ],
    [
      "मुंदां",
      "खा"
    ],
    [
      "गो",
      "हो</w>"
    ],
    [
      "फ्र",
      "े"
    ],
    [
      "बि",
      "दिन्"
    ],
    [
      "दे",
      "हा</w>"
    ],
    [
      "निफ्र",
      "ायनो</w>"
    ],
    [
      "द",
      "ार"
    ],
    [
      "गिरि",
      "फोरखौ</w>"
    ],
    [
      "भारत",
      "आव</w>"
    ],
    [
      "न'",
      "आव</w>"
    ],
    [
      "य",
      "ार</w>"
    ],
    [
      "ख",
      "ाय"
    ],
    [
      "व",
      "</w>"
    ],
    [
      "बे",
      "खेव"
    ],
    [
      "लुब",
      "ै"
    ],
    [
      "ि",
      "फ्राय</w>"
    ],
    [
      "फे",
      "ब्रु"
    ],
    [
      "आ",
      "बाद"
    ],
    [
      "ब्र",
      "ै"
    ],
    [
      "सोन",
      "ार"
    ],
    [
      "से",
      "थि</w>"
    ],
    [
      ".",
      "नि</w>"
    ],
    [
      "सोदो",
      "ब"
    ],
    [
      "मे",
      "ग"
    ],
    [
      "हो",
      "दोंमोन</w>"
    ],
    [
      "जान",
      "ां"
    ],
    [
      "गिरि",
      "नि</w>"
    ],
    [
      "बो",
      "है"
    ],
    [
      "ग",
      "ां"
    ],
    [
      "ह",
      "ार</w>"
    ],
    [
      "मोन",
      "ो</w>"
    ],
    [
      "201",
      "1</w>"
    ],
    [
      "201",
      "2</w>"
    ],
    [
      "खोख्ल",
      "ै"
    ],
    [
      "201",
      "3</w>"
    ],
    [
      "फि",
      "ल्"
    ],
    [
      "फोर",
      "बो"
    ],
    [
      "मु",
      "गानि</w>"
    ],
    [
      "मोन",
      "दोंमोन।</w>"
    ],
    [
      "न्",
      "ज"
    ],
    [
      "थै",
      "नायनि</w>"
    ],
    [
      "राज",
      "ा</w>"
    ],
    [
      "सा",
      "से"
    ],
    [
      "गेले",
      "नाय</w>"
    ],
    [
      "मोन",
      "थाम</w>"
    ],
    [
      "महर",
      "</w>"
    ],
    [
      "1",
      "5</w>"
    ],
    [
      "ग",
      "र"
    ],
    [
      "गोर",
      "ल"
    ],
    [
      "आद",
      "ब"
    ],
    [
      "लान",
      "ानै</w>"
    ],
    [
      "च",
      "ार्"
    ],
    [
      "िय",
      "ायाव</w>"
    ],
    [
      "जायगाय",
      "ाव</w>"
    ],
    [
      "रुजु",
      "नायाव</w>"
    ],
    [
      "अनजि",
      "माया</w>"
    ],
    [
      "च",
      "ी"
    ],
    [
      "द",
      "'"
    ],
    [
      "मि",
      "न</w>"
    ],
    [
      "प्त",
      "े"
    ],
    [
      "बेसे",
      "न</w>"
    ],
    [
      "बि",
      "सायख'"
    ],
    [
      "?",
      "</w>"
    ],
    [
      "ने",
      "व"
    ],
    [
      "बे",
      "फोरखौ</w>"
    ],
    [
      "ढ",
      "़"
    ],
    [
      "सोमोन्",
      "दो"
    ],
    [
      "थां",
      "नाय</w>"
    ],
    [
      "हाय",
      "ारि</w>"
    ],
    [
      "जोनो",
      "मा</w>"
    ],
    [
      "न्",
      "द्र"
    ],
    [
      "लाम",
      "्"
    ],
    [
      "मोजा",
      "ङै</w>"
    ],
    [
      "जागाय",
      "जेन"
    ],
    [
      "सेब",
      "खां"
    ],
    [
      ".",
      "आ</w>"
    ],
    [
      "म",
      "ेल"
    ],
    [
      "न",
      "ेर"
    ],
    [
      "मे",
      "थाइ"
    ],
    [
      "ज",
      "रा"
    ],
    [
      "गोजा",
      "म</w>"
    ],
    [
      "माव",
      "दोंमोन।</w>"
    ],
    [
      "बिदिन्",
      "थि</w>"
    ],
    [
      "त",
      "्"
    ],
    [
      "201",
      "7</w>"
    ],
    [
      "गेले",
      "दोंमोन।</w>"
    ],
    [
      "लै",
      "खोन"
    ],
    [
      "से",
      "प्ते"
    ],
    [
      "ब",
      "न्द"
    ],
    [
      "खुं",
      "थायनि</w>"
    ],
    [
      "हादोर",
      "नि</w>"
    ],
    [
      "सुबुं",
      "फोर</w>"
    ],
    [
      "गाव",
      "ारि</w>"
    ],
    [
      "प",
      "आव</w>"
    ],
    [
      "लाम",
      "ा</w>"
    ],
    [
      "हो",
      "यो,</w>"
    ],
    [
      "ख",
      "्"
    ],
    [
      "सा",
      "नि</w>"
    ],
    [
      "मा",
      "खौ</w>"
    ],
    [
      "ख",
      "म"
    ],
    [
      "5",
      "0</w>"
    ],
    [
      "गोर",
      "ोन"
    ],
    [
      "्य",
      "</w>"
    ],
    [
      "स",
      "प्त"
    ],
    [
      "201",
      "8</w>"
    ],
    [
      "बिथांमोन",
      "हा</w>"
    ],
    [
      "न",
      "जों</w>"
    ],
    [
      "ई",
      "</w>"
    ],
    [
      "व",
      "ार</w>"
    ],
    [
      "निख्रुइ",
      "</w>"
    ],
    [
      "क",
      "ल"
    ],
    [
      "बारह",
      "ुं"
    ],
    [
      "म",
      "हार"
    ],
    [
      "्य",
      "ा"
    ],
    [
      "थाव",
      "नि</w>"
    ],
    [
      ".ए",
      "फ"
    ],
    [
      "बेरा",
      "म</w>"
    ],
    [
      "ी",
      "खौ</w>"
    ],
    [
      "दं",
      "मोन,</w>"
    ],
    [
      "फु",
      "ट"
    ],
    [
      "आय",
      "ेन</w>"
    ],
    [
      "घ",
      "न्ट"
    ],
    [
      "ना",
      "ङ"
    ],
    [
      "ओरै",
      "बायदि</w>"
    ],
    [
      "भ",
      "ु"
    ],
    [
      "दि",
      "था"
    ],
    [
      "बे",
      "ंग"
    ],
    [
      "कि",
      "स्त"
    ],
    [
      "जाफुं",
      "सार"
    ],
    [
      "उ",
      "न्द"
    ],
    [
      "बाङ",
      "ाइ</w>"
    ],
    [
      "ग",
      "ै"
    ],
    [
      "क",
      "आव</w>"
    ],
    [
      "था",
      "दोंमोन।</w>"
    ],
    [
      "सु",
      "जु"
    ],
    [
      "सां",
      "ग्र"
    ],
    [
      "मिट",
      "ार"
    ],
    [
      "ग",
      "ढ़"
    ],
    [
      "फ",
      "ान्"
    ],
    [
      "प्र",
      "देश"
    ],
    [
      "ाय",
      "नाय</w>"
    ],
    [
      "रो",
      "जा</w>"
    ],
    [
      "जौ",
      "थाइनि</w>"
    ],
    [
      "रां",
      "खान्थियारि</w>"
    ],
    [
      "सोलाय",
      "नाय</w>"
    ],
    [
      "हादोर",
      "</w>"
    ],
    [
      "मा",
      "ल"
    ],
    [
      "दै",
      "नि</w>"
    ],
    [
      "नाय",
      "नो</w>"
    ],
    [
      "कान",
      "ा"
    ],
    [
      "ज",
      "र'"
    ],
    [
      "उ",
      "दां"
    ],
    [
      "था",
      "सारि"
    ],
    [
      "ड",
      "िय"
    ],
    [
      "गोरोन",
      "्"
    ],
    [
      "पु",
      "र"
    ],
    [
      "ला",
      "बो"
    ],
    [
      "दै",
      "मानि</w>"
    ],
    [
      "खा",
      "जोन"
    ],
    [
      "ण",
      "</w>"
    ],
    [
      "सोर",
      "जि"
    ],
    [
      "फ",
      "ारि</w>"
    ],
    [
      "ट",
      "खौ</w>"
    ],
    [
      "ड",
      "ार"
    ],
    [
      "आमेरिक",
      "ायाव</w>"
    ],
    [
      "ज",
      "आ</w>"
    ],
    [
      "बिजिर",
      "सं"
    ],
    [
      "जाय",
      "गा</w>"
    ],
    [
      "ज",
      "ां"
    ],
    [
      "मे",
      "च"
    ],
    [
      "गु",
      "</w>"
    ],
    [
      "जिल्ला",
      "नि</w>"
    ],
    [
      "इ",
      "य"
    ],
    [
      "मोगा",
      "-मो"
    ],
    [
      "गु",
      "दुं"
    ],
    [
      "200",
      "8</w>"
    ],
    [
      "ब",
      "ार</w>"
    ],
    [
      "मावख'",
      "आरि</w>"
    ],
    [
      "ख",
      "</w>"
    ],
    [
      "जों",
      "नि</w>"
    ],
    [
      "थ",
      "ों"
    ],
    [
      "धोरोम",
      "ारि</w>"
    ],
    [
      "जुन",
      "िया</w>"
    ],
    [
      "क",
      "ा</w>"
    ],
    [
      "देर",
      "</w>"
    ],
    [
      "जोब",
      "नाय"
    ],
    [
      "फ",
      "सं"
    ],
    [
      "गा",
      "थोन"
    ],
    [
      "सिनाय",
      "थि</w>"
    ],
    [
      "बि",
      "गु"
    ],
    [
      "फावखुं",
      "गु"
    ],
    [
      "बे",
      "बादि</w>"
    ],
    [
      "सिम",
      "बो</w>"
    ],
    [
      "क",
      "ं"
    ],
    [
      "बाथ्र",
      "ा</w>"
    ],
    [
      "थ",
      "ो</w>"
    ],
    [
      "श",
      "े"
    ],
    [
      "रा",
      "हा"
    ],
    [
      "आ",
      "बो</w>"
    ],
    [
      "इ",
      "सोर"
    ],
    [
      "बान्",
      "था"
    ],
    [
      "थ",
      "ुन"
    ],
    [
      "ह",
      "ार्"
    ],
    [
      "फ",
      "ोन"
    ],
    [
      "फालांगिय",
      "ारि</w>"
    ],
    [
      "ब",
      "ौ"
    ],
    [
      ".ए",
      "ल"
    ],
    [
      "बिरख",
      "ं</w>"
    ],
    [
      "के",
      "न्"
    ],
    [
      "मुलुग",
      "सोलों"
    ],
    [
      "रेब",
      "गान्"
    ],
    [
      "बाग",
      "ै</w>"
    ],
    [
      "बानाय",
      "नो</w>"
    ],
    [
      "मोन",
      "फ्रोम</w>"
    ],
    [
      "ह",
      "ेर"
    ],
    [
      "िय",
      "ेल</w>"
    ],
    [
      "जौ",
      "थाइ"
    ],
    [
      "गोब",
      "ां"
    ],
    [
      "क",
      "म"
    ],
    [
      "मु",
      "लाम्"
    ],
    [
      "ा",
      "ग"
    ],
    [
      "गो",
      "थार</w>"
    ],
    [
      "म",
      "ह"
    ],
    [
      "महार",
      "ा"
    ],
    [
      "नोजोर",
      "</w>"
    ],
    [
      "लां",
      "नाय</w>"
    ],
    [
      "बेनिख",
      "ायनो</w>"
    ],
    [
      "ल",
      "ों"
    ],
    [
      "बा",
      "द</w>"
    ],
    [
      "कम्प",
      "ान"
    ],
    [
      "बि",
      "बां"
    ],
    [
      "2",
      "5</w>"
    ],
    [
      "बिफ",
      "ां"
    ],
    [
      "खान्",
      "थिनि</w>"
    ],
    [
      "थाख",
      "ो</w>"
    ],
    [
      "आ",
      "बु"
    ],
    [
      "ज",
      "गाय"
    ],
    [
      "सुबुं",
      "फोरखौ</w>"
    ],
    [
      "थि",
      "नाय</w>"
    ],
    [
      "म्",
      "फ"
    ],
    [
      "लाइ",
      "न</w>"
    ],
    [
      "201",
      "6</w>"
    ],
    [
      "न",
      "ख"
    ],
    [
      "बु",
      "थुम"
    ],
    [
      "गोब",
      "ाव</w>"
    ],
    [
      "स",
      "ै</w>"
    ],
    [
      "आं",
      "खा"
    ],
    [
      "रे",
      "कर्"
    ],
    [
      "प्ल",
      "े"
    ],
    [
      "ख",
      "र्"
    ],
    [
      "था",
      "ङो।</w>"
    ],
    [
      "च",
      "ा"
    ],
    [
      ".",
      "पि"
    ],
    [
      "दिन्थिय",
      "ो।</w>"
    ],
    [
      "आथिखा",
      "लनि</w>"
    ],
    [
      "ङ",
      "ो,</w>"
    ],
    [
      "थुलुं",
      "गा</w>"
    ],
    [
      "हान्",
      "जानि</w>"
    ],
    [
      "ए",
      "क्स"
    ],
    [
      "जायगाय",
      "ारि</w>"
    ],
    [
      "क",
      "न्"
    ],
    [
      "निफ्र",
      "ाय"
    ],
    [
      "मोनसे",
      "।</w>"
    ],
    [
      "थ",
      "ौ"
    ],
    [
      "थाय",
      "ो</w>"
    ],
    [
      "द",
      "ारि"
    ],
    [
      "स",
      "ाव</w>"
    ],
    [
      "व",
      "ु"
    ],
    [
      "िय",
      "ान"
    ],
    [
      "खोला",
      "-"
    ],
    [
      "क",
      "ेट"
    ],
    [
      "सोन",
      "</w>"
    ],
    [
      "से",
      "न्ट"
    ],
    [
      "मानि",
      "नाय</w>"
    ],
    [
      "गोनां",
      "।</w>"
    ],
    [
      "हान",
      "जानि</w>"
    ],
    [
      "हि",
      "न"
    ],
    [
      "दे",
      "व"
    ],
    [
      "ग",
      "ुन"
    ],
    [
      "आ",
      "थोन"
    ],
    [
      "ओनसोल",
      "नि</w>"
    ],
    [
      "सान",
      "नि</w>"
    ],
    [
      "क",
      "खौ</w>"
    ],
    [
      "गो",
      "मा"
    ],
    [
      "ह",
      "</w>"
    ],
    [
      "खालाम",
      "ो</w>"
    ],
    [
      "ं",
      "खौ</w>"
    ],
    [
      "1",
      "4</w>"
    ],
    [
      "ख",
      "म</w>"
    ],
    [
      "बानाय",
      "दोंमोन।</w>"
    ],
    [
      "पा",
      "किस्त"
    ],
    [
      "श",
      "ु"
    ],
    [
      "राज",
      "फोलेर"
    ],
    [
      "सि",
      "न्"
    ],
    [
      "द्ध",
      "</w>"
    ],
    [
      "रों",
      "ग'"
    ],
    [
      "बिथां",
      "आ</w>"
    ],
    [
      "य",
      "'"
    ],
    [
      "ए",
      "क्"
    ],
    [
      "गु",
      "वार"
    ],
    [
      "खोन",
      "ि</w>"
    ],
    [
      "दें",
      "खो</w>"
    ],
    [
      "मोन",
      "सेल'</w>"
    ],
    [
      "थाखो",
      "आव</w>"
    ],
    [
      "बा",
      "उ"
    ],
    [
      "ब",
      "ल"
    ],
    [
      "लि",
      "ं"
    ],
    [
      "ड",
      "िया"
    ],
    [
      "सिय",
      "ानि</w>"
    ],
    [
      "स्र",
      "ां"
    ],
    [
      "त",
      "ा</w>"
    ],
    [
      "म",
      "आव</w>"
    ],
    [
      "202",
      "1</w>"
    ],
    [
      "गो",
      "लो"
    ],
    [
      "जो",
      "लु"
    ],
    [
      "हादोर",
      "ारि</w>"
    ],
    [
      "जानाय",
      ",</w>"
    ],
    [
      "मु",
      "लि"
    ],
    [
      "201",
      "5</w>"
    ],
    [
      "दिन्थि",
      "नाय</w>"
    ],
    [
      "बिगिय",
      "ान"
    ],
    [
      "थिरां",
      "था</w>"
    ],
    [
      "व",
      "र"
    ],
    [
      "हेफा",
      "जाब"
    ],
    [
      "गोद",
      "ायनि</w>"
    ],
    [
      "ब्र",
      "े"
    ],
    [
      "ल",
      "ाय</w>"
    ],
    [
      "स",
      "माय"
    ],
    [
      "-",
      "बि"
    ],
    [
      "गोजान",
      "ाव</w>"
    ],
    [
      "उ",
      "न</w>"
    ],
    [
      "आय",
      "ेन"
    ],
    [
      "मिलिय",
      "न</w>"
    ],
    [
      "मा",
      "दाव</w>"
    ],
    [
      "क",
      "ी</w>"
    ],
    [
      "त्र",
      "ि"
    ],
    [
      "हान्",
      "जाया</w>"
    ],
    [
      "मो",
      "ब्लि"
    ],
    [
      "दाव",
      "हा</w>"
    ],
    [
      "न",
      "'</w>"
    ],
    [
      "ं",
      "गाय"
    ],
    [
      "फालां",
      "गि"
    ],
    [
      "1",
      "2"
    ],
    [
      "साव",
      "गारि"
    ],
    [
      "मु",
      "ङै</w>"
    ],
    [
      "1",
      "1</w>"
    ],
    [
      "सिय",
      "ा"
    ],
    [
      "हो",
      "दोंमोन,</w>"
    ],
    [
      "म",
      "े</w>"
    ],
    [
      "निउ",
      "</w>"
    ],
    [
      "हर",
      "खा"
    ],
    [
      "बि",
      "ल"
    ],
    [
      "लाय",
      "नाय</w>"
    ],
    [
      "दा",
      "जाब"
    ],
    [
      ".ए",
      "न"
    ],
    [
      "मार",
      "ा"
    ],
    [
      "लै",
      "थो"
    ],
    [
      "जौखोन्",
      "दो"
    ],
    [
      "काना",
      "ड"
    ],
    [
      "फ",
      "ं"
    ],
    [
      "1",
      "6</w>"
    ],
    [
      "फार",
      "से"
    ],
    [
      "द",
      "र"
    ],
    [
      "ंग",
      "ा</w>"
    ],
    [
      "जा",
      "इ"
    ],
    [
      "दि",
      "हु"
    ],
    [
      "सि",
      "ज"
    ],
    [
      "फोन",
      "ां"
    ],
    [
      "थान",
      "ाय"
    ],
    [
      "बे",
      "न्ड"
    ],
    [
      "टे",
      "ड</w>"
    ],
    [
      "भारत",
      "</w>"
    ],
    [
      "आ",
      "ई"
    ],
    [
      "जानुव",
      "ारि</w>"
    ],
    [
      "ए",
      "श"
    ],
    [
      "बां",
      "द्र"
    ],
    [
      "ला",
      "म</w>"
    ],
    [
      "मोन्",
      "दां"
    ],
    [
      "जा",
      "दों,</w>"
    ],
    [
      "सोनाब",
      "ारि</w>"
    ],
    [
      "त",
      "नि</w>"
    ],
    [
      "िय",
      "ाया</w>"
    ],
    [
      "फारि",
      "लाइ"
    ],
    [
      "बोर",
      "ै</w>"
    ],
    [
      "1",
      "8</w>"
    ],
    [
      "दा",
      "सिमबो</w>"
    ],
    [
      "स",
      "फ्"
    ],
    [
      "पु",
      "र</w>"
    ],
    [
      "उ",
      "त्त"
    ],
    [
      "स्",
      "पे"
    ],
    [
      "खालाम",
      "दोंमोन</w>"
    ],
    [
      "गोर",
      "ा</w>"
    ],
    [
      "ट्र",
      "ा"
    ],
    [
      "19",
      "3"
    ],
    [
      "र",
      "ेल"
    ],
    [
      "फोर",
      "मान</w>"
    ],
    [
      "देर",
      "नाय</w>"
    ],
    [
      "सो",
      "माव"
    ],
    [
      "ब",
      "ोनि</w>"
    ],
    [
      "बु",
      "ङो</w>"
    ],
    [
      "गो",
      "दो"
    ],
    [
      "सावथुन",
      "ाव</w>"
    ],
    [
      "अ",
      "र्"
    ],
    [
      "गोलो",
      "म</w>"
    ],
    [
      "मोगा-मो",
      "गि</w>"
    ],
    [
      "हाय",
      "ो,</w>"
    ],
    [
      "बाहाय",
      "ो।</w>"
    ],
    [
      "दोन",
      "थुम"
    ],
    [
      "फालि",
      "नाय</w>"
    ],
    [
      "सान",
      "ै</w>"
    ],
    [
      "साव",
      "स्रि</w>"
    ],
    [
      "नोगोर",
      "मा"
    ],
    [
      "मन्",
      "थ्रि</w>"
    ],
    [
      "ष्",
      "ट्र"
    ],
    [
      "म",
      "जों</w>"
    ],
    [
      "बाङ",
      "ाय</w>"
    ],
    [
      "ार",
      "खौ</w>"
    ],
    [
      "सान",
      "ाव</w>"
    ],
    [
      "गाव",
      "खौ</w>"
    ],
    [
      "ए",
      "सेल'</w>"
    ],
    [
      "लेन्ड",
      "</w>"
    ],
    [
      "200",
      "7</w>"
    ],
    [
      "1",
      "7</w>"
    ],
    [
      "थान",
      "ायनि</w>"
    ],
    [
      ")",
      ",</w>"
    ],
    [
      "ख",
      "े</w>"
    ],
    [
      "मोन्नै",
      "बो</w>"
    ],
    [
      "जाय",
      "ाखै"
    ],
    [
      "ै",
      "बो,</w>"
    ],
    [
      "गिरि",
      "फोर</w>"
    ],
    [
      "खृष्",
      "ट"
    ],
    [
      "तामि",
      "ल"
    ],
    [
      "्य",
      "ु"
    ],
    [
      "सुबु",
      "र"
    ],
    [
      "फोर",
      "ाबो</w>"
    ],
    [
      "दोन",
      "ि</w>"
    ],
    [
      "जाहोन",
      "</w>"
    ],
    [
      "हा",
      "गोन।</w>"
    ],
    [
      "था",
      "ब"
    ],
    [
      "बे",
      "र"
    ],
    [
      "मोन",
      "दां"
    ],
    [
      "सालि",
      "नि</w>"
    ],
    [
      "आबु",
      "ङै</w>"
    ],
    [
      "ग्रा",
      "फोरा</w>"
    ],
    [
      "उ",
      "न्ड"
    ],
    [
      "म",
      "ण"
    ],
    [
      "स",
      "न्द"
    ],
    [
      "क",
      "ेरा"
    ],
    [
      "समाज",
      "ारि</w>"
    ],
    [
      "मोन",
      "ब्रै</w>"
    ],
    [
      "2",
      "4</w>"
    ],
    [
      "वे",
      "ब"
    ],
    [
      "बो",
      "खाव"
    ],
    [
      ".एस",
      ".</w>"
    ],
    [
      "‍‍",
      "‍‍"
    ],
    [
      "नाय",
      "फोरखौ</w>"
    ],
    [
      "द",
      "ाय</w>"
    ],
    [
      "बेरे",
      "खा</w>"
    ],
    [
      "स्",
      "लि"
    ],
    [
      "बाय",
      "नो</w>"
    ],
    [
      "ए",
      "खे</w>"
    ],
    [
      "पार्",
      "ट"
    ],
    [
      "ग्र",
      "ाया</w>"
    ],
    [
      "1",
      "3</w>"
    ],
    [
      "मुलुग",
      "नि</w>"
    ],
    [
      "स्",
      "क्रि"
    ],
    [
      "दि",
      "प"
    ],
    [
      "ड",
      "ी</w>"
    ],
    [
      "बन्द",
      "'</w>"
    ],
    [
      "मो",
      "दो"
    ],
    [
      "बायजो",
      "आव</w>"
    ],
    [
      "स्ट",
      "ा"
    ],
    [
      "ब",
      "र</w>"
    ],
    [
      "ल",
      "ेट"
    ],
    [
      "ड",
      "ाय"
    ],
    [
      "जुन",
      "ार"
    ],
    [
      "द",
      "ान</w>"
    ],
    [
      "बे",
      "बायदि</w>"
    ],
    [
      "क्ल",
      "ि"
    ],
    [
      "मु",
      "गल</w>"
    ],
    [
      "इ",
      "स्"
    ],
    [
      "ग्र",
      "ानि</w>"
    ],
    [
      "फोर",
      "्"
    ],
    [
      "कं",
      "ग्रे"
    ],
    [
      "ग्र",
      "ाय"
    ],
    [
      "फिसा",
      "ज्ल"
    ],
    [
      "न",
      "ी</w>"
    ],
    [
      "गु",
      "वार</w>"
    ],
    [
      "ख",
      "ारि</w>"
    ],
    [
      "खैफो",
      "द"
    ],
    [
      "आ",
      "उ"
    ],
    [
      "दिहु",
      "न्"
    ],
    [
      "व",
      "ाइ"
    ],
    [
      "मिथि",
      "नो</w>"
    ],
    [
      "ने",
      "शन"
    ],
    [
      "जान",
      "ाया</w>"
    ],
    [
      "दोन",
      "नाय</w>"
    ],
    [
      "गोजौ",
      "सिन</w>"
    ],
    [
      "ओनसोल",
      "ारि</w>"
    ],
    [
      "जों",
      "बो</w>"
    ],
    [
      "आ",
      "फ्र"
    ],
    [
      "जौखोन्",
      "दो</w>"
    ],
    [
      "क",
      "ार</w>"
    ],
    [
      "200",
      "9</w>"
    ],
    [
      "भ",
      "'"
    ],
    [
      "स",
      "ल"
    ],
    [
      "200",
      "0</w>"
    ],
    [
      "थाइ",
      "खौ</w>"
    ],
    [
      "लु",
      "</w>"
    ],
    [
      "बोसोर",
      "ाव</w>"
    ],
    [
      ".ए",
      "म"
    ],
    [
      "सन्द",
      "ेर"
    ],
    [
      "जा",
      "बाय।</w>"
    ],
    [
      "सावथुन",
      "खौ</w>"
    ],
    [
      "अनगाय",
      "ैबो,</w>"
    ],
    [
      "बि",
      "बुं"
    ],
    [
      "व",
      "िक"
    ],
    [
      "बांद्र",
      "ाय</w>"
    ],
    [
      "मा",
      "बोरै</w>"
    ],
    [
      "बिथां",
      "जोआ</w>"
    ],
    [
      "नोगोर",
      "ारि</w>"
    ],
    [
      "य",
      "ै</w>"
    ],
    [
      "खालाम",
      "जानाय</w>"
    ],
    [
      "माब्लाबा",
      "-"
    ],
    [
      "स",
      "मान</w>"
    ],
    [
      "खालाम",
      "ो,</w>"
    ],
    [
      "ान",
      "ा</w>"
    ],
    [
      "बौ",
      "द्ध</w>"
    ],
    [
      "खुं",
      "नाय</w>"
    ],
    [
      "भ",
      "ार्"
    ],
    [
      "गोख्र",
      "ै"
    ],
    [
      "न",
      "ङै</w>"
    ],
    [
      "जानाय",
      "खौ</w>"
    ],
    [
      "फै",
      "दोंमोन।</w>"
    ],
    [
      "ख",
      "ारि"
    ],
    [
      "मार्",
      "च</w>"
    ],
    [
      "माइथाय",
      "ाव,</w>"
    ],
    [
      "त",
      "ि</w>"
    ],
    [
      "माइथाय",
      "निफ्राय</w>"
    ],
    [
      "नार",
      "सिन"
    ],
    [
      "गोख्र",
      "ै</w>"
    ],
    [
      "म",
      "ेले"
    ],
    [
      "ाव",
      "नो,</w>"
    ],
    [
      "जों",
      ",</w>"
    ],
    [
      "फ",
      "ेले"
    ],
    [
      "माव",
      "नो</w>"
    ],
    [
      "अ",
      "खा</w>"
    ],
    [
      "क",
      "न"
    ],
    [
      "रायजो",
      "आरि</w>"
    ],
    [
      "नांगौ",
      "।</w>"
    ],
    [
      "0",
      ",000</w>"
    ],
    [
      "क्र",
      "िक"
    ],
    [
      "बर",
      "नाय"
    ],
    [
      "लां",
      "दोंमोन।</w>"
    ],
    [
      "गा",
      "म"
    ],
    [
      "जारि",
      "मिनारि</w>"
    ],
    [
      "बोन",
      "ो</w>"
    ],
    [
      "देर",
      "हान"
    ],
    [
      "सो",
      "मोन"
    ],
    [
      "स",
      "ी</w>"
    ],
    [
      "क",
      "ान्"
    ],
    [
      "महर",
      "ाव</w>"
    ],
    [
      "ह",
      "्"
    ],
    [
      "फिसा",
      "ज"
    ],
    [
      "थान्",
      "दै"
    ],
    [
      "ड",
      "खौ</w>"
    ],
    [
      "क्ला",
      "ब"
    ],
    [
      "क",
      "ेलि"
    ],
    [
      "ड",
      "ेननि</w>"
    ],
    [
      "जा",
      "हाथ"
    ],
    [
      "ेर",
      "</w>"
    ],
    [
      "सोरखार",
      "ा</w>"
    ],
    [
      "सै",
      "।</w>"
    ],
    [
      "बि",
      "दा"
    ],
    [
      "बाव",
      "ै"
    ],
    [
      "फो",
      "थार"
    ],
    [
      "जाहाथ",
      "े</w>"
    ],
    [
      "खौ",
      "नो</w>"
    ],
    [
      "लि",
      "नि</w>"
    ],
    [
      "बि",
      "बान"
    ],
    [
      "फ",
      "ब"
    ],
    [
      "भ",
      "ाइ"
    ],
    [
      "ार",
      "आ</w>"
    ],
    [
      "ब",
      "न्द</w>"
    ],
    [
      "एप्रि",
      "ल</w>"
    ],
    [
      "4",
      "0</w>"
    ],
    [
      "ग",
      "ला"
    ],
    [
      "जु",
      "रि"
    ],
    [
      "क",
      ",</w>"
    ],
    [
      "ैय",
      "ो,</w>"
    ],
    [
      "किल'",
      "मिटार</w>"
    ],
    [
      "दं",
      "मोन</w>"
    ],
    [
      "खान",
      "ाय</w>"
    ],
    [
      "दिन्थिफुं",
      "नाय</w>"
    ],
    [
      "िय",
      "ो।</w>"
    ],
    [
      "फाय",
      "ो।</w>"
    ],
    [
      "खो",
      "मान"
    ],
    [
      "आं",
      "खौ</w>"
    ],
    [
      "धोर",
      "ो"
    ],
    [
      "ज",
      "ुन</w>"
    ],
    [
      "ड",
      "आव</w>"
    ],
    [
      "गिबि",
      "याव</w>"
    ],
    [
      "सा",
      "जाय"
    ],
    [
      "ट",
      "ा</w>"
    ],
    [
      "नु",
      "जा"
    ],
    [
      "थार",
      "ैनो</w>"
    ],
    [
      "ग्र",
      "ि</w>"
    ],
    [
      "सोर",
      "गिदि"
    ],
    [
      "सोहोर",
      "नि</w>"
    ],
    [
      "न्ड",
      "्र"
    ],
    [
      "प्र",
      "'"
    ],
    [
      "बे",
      "फोरनि</w>"
    ],
    [
      "राज",
      "खान्थियारि</w>"
    ],
    [
      "सन",
      "आ</w>"
    ],
    [
      "िय",
      "ार</w>"
    ],
    [
      "ला",
      "ङो।</w>"
    ],
    [
      "200",
      "6</w>"
    ],
    [
      "थि",
      "फोरखौ</w>"
    ],
    [
      "ष्",
      "ण"
    ],
    [
      "होब",
      "थानो</w>"
    ],
    [
      "दावबाय",
      "ारि"
    ],
    [
      "ी",
      "या</w>"
    ],
    [
      "फार",
      "ियाव</w>"
    ],
    [
      "रां",
      "खौ</w>"
    ],
    [
      ".",
      "आइ."
    ],
    [
      "बबे",
      "खानि</w>"
    ],
    [
      "ी",
      "आव</w>"
    ],
    [
      "आर",
      "'"
    ],
    [
      "हो",
      "ग्रा</w>"
    ],
    [
      "लाय",
      "ा</w>"
    ],
    [
      "न",
      "र्"
    ],
    [
      "गिरि",
      "फोरजों</w>"
    ],
    [
      "म",
      "ौ"
    ],
    [
      "मु",
      "सु"
    ],
    [
      "1",
      "3"
    ],
    [
      "नङ",
      "ा,</w>"
    ],
    [
      "खालाम",
      "नायाव</w>"
    ],
    [
      "ख्र",
      "ि</w>"
    ],
    [
      "ड",
      "ेन"
    ],
    [
      "बिब",
      "ान</w>"
    ],
    [
      "1",
      "00</w>"
    ],
    [
      "थाय",
      "ोमोन।</w>"
    ],
    [
      ".",
      "आर"
    ],
    [
      "मि",
      "जि"
    ],
    [
      "फेले",
      "ं</w>"
    ],
    [
      "माब्लाबा",
      "बो</w>"
    ],
    [
      "नि",
      "क</w>"
    ],
    [
      "ार",
      "ा</w>"
    ],
    [
      "बि",
      "ग्राय"
    ],
    [
      "कु",
      "मार"
    ],
    [
      "ग",
      "्ला"
    ],
    [
      "गो",
      "मो"
    ],
    [
      "स",
      "मान"
    ],
    [
      "ड",
      "ेल"
    ],
    [
      "फो",
      "साब"
    ],
    [
      "दा",
      "बि</w>"
    ],
    [
      "जागाय",
      "दोंमोन।</w>"
    ],
    [
      "खाबु",
      "</w>"
    ],
    [
      "अनजि",
      "मा</w>"
    ],
    [
      "र",
      "न"
    ],
    [
      "बि",
      "मा"
    ],
    [
      "खालाम",
      "नानै</w>"
    ],
    [
      "म्ब",
      "र,</w>"
    ],
    [
      "रा",
      "हा</w>"
    ],
    [
      "ट",
      "ार्"
    ],
    [
      "था",
      "सार"
    ],
    [
      "गिरि",
      "।</w>"
    ],
    [
      "थाखाय",
      "बो</w>"
    ],
    [
      "बेरा",
      "मनि</w>"
    ],
    [
      "त",
      "े"
    ],
    [
      "फिसाज",
      "्ला"
    ],
    [
      "ग्रा",
      "फोरनि</w>"
    ],
    [
      "आय",
      "'"
    ],
    [
      "स",
      "ाया</w>"
    ],
    [
      "स्ट",
      "ु"
    ],
    [
      "तामिल",
      "ना"
    ],
    [
      "फ्ल",
      "'"
    ],
    [
      "जाय",
      "ा"
    ],
    [
      "हिन्द",
      "ु"
    ],
    [
      "क्र",
      "े"
    ],
    [
      "श्र",
      "ी"
    ],
    [
      "मे",
      "न"
    ],
    [
      "हाय",
      "ेन"
    ],
    [
      "फ्ल",
      "े"
    ],
    [
      "व",
      "े</w>"
    ],
    [
      "खालाम",
      "दोंमोन,</w>"
    ],
    [
      "ख",
      "न्"
    ],
    [
      "गौ",
      "।</w>"
    ],
    [
      "ना",
      "ट"
    ],
    [
      "ल",
      "ोर"
    ],
    [
      "बोर",
      "ि"
    ],
    [
      "च",
      "ु"
    ],
    [
      "बाहागो",
      "आव</w>"
    ],
    [
      "नबे",
      "म्बर</w>"
    ],
    [
      "फे",
      "जेन"
    ],
    [
      "सा",
      "हा</w>"
    ],
    [
      "बि",
      "थोन"
    ],
    [
      "फ",
      "ार्"
    ],
    [
      "ख",
      "ाया</w>"
    ],
    [
      "ए",
      "ंग"
    ],
    [
      "अ",
      "नु"
    ],
    [
      "खो",
      "म</w>"
    ],
    [
      "क",
      "ृष्"
    ],
    [
      "च",
      "'"
    ],
    [
      ".",
      "बि"
    ],
    [
      "अलिम्प",
      "िक</w>"
    ],
    [
      "सु",
      "र"
    ],
    [
      "सोमाव",
      "सार"
    ],
    [
      "टे",
      "क्"
    ],
    [
      "ह",
      "ैयो।</w>"
    ],
    [
      "दिसे",
      "म्बर</w>"
    ],
    [
      "गु",
      "जरा"
    ],
    [
      "आ",
      "ल्"
    ],
    [
      "थाइ",
      "या</w>"
    ],
    [
      "सान",
      "जेर"
    ],
    [
      "हार",
      "सि"
    ],
    [
      "ग",
      "'</w>"
    ],
    [
      "दै",
      "माया</w>"
    ],
    [
      "मिथि",
      "ंगाय"
    ],
    [
      "गोन",
      "ि</w>"
    ],
    [
      "हादोर",
      "फोराव</w>"
    ],
    [
      "से",
      "नि</w>"
    ],
    [
      "इन्ड",
      "'"
    ],
    [
      "से",
      ",</w>"
    ],
    [
      "फोर",
      "खौबो</w>"
    ],
    [
      "ग्र",
      "ी"
    ],
    [
      "ले",
      "-"
    ],
    [
      "गाव",
      "नो</w>"
    ],
    [
      "्",
      "स</w>"
    ],
    [
      "मे",
      "न्ट</w>"
    ],
    [
      "सोलि",
      "बाय</w>"
    ],
    [
      "बेसे",
      "न"
    ],
    [
      "रा",
      "ङारि</w>"
    ],
    [
      "ं",
      "आव</w>"
    ],
    [
      "म",
      "ख'"
    ],
    [
      "बायद",
      "िय"
    ],
    [
      "-",
      "खा"
    ],
    [
      "सोरगिदि",
      "ं</w>"
    ],
    [
      "स्",
      "नि</w>"
    ],
    [
      "जि",
      "न"
    ],
    [
      "हान",
      "जाया</w>"
    ],
    [
      "जाफुं",
      "सार</w>"
    ],
    [
      "नाय",
      "मोन।</w>"
    ],
    [
      "आ",
      "बाद</w>"
    ],
    [
      "म",
      "ध"
    ],
    [
      "अनजि",
      "मानि</w>"
    ],
    [
      "मार्",
      "च"
    ],
    [
      "सि",
      "फाय"
    ],
    [
      "ट",
      "ी</w>"
    ],
    [
      "ाव",
      "।</w>"
    ],
    [
      "घ",
      "ा"
    ],
    [
      "य",
      "ारि</w>"
    ],
    [
      "हा",
      "उ"
    ],
    [
      "ज",
      "ी</w>"
    ],
    [
      "म",
      "ान्"
    ],
    [
      "जारि",
      "मि"
    ],
    [
      "2",
      "2</w>"
    ],
    [
      "जिल्ल",
      "ायाव</w>"
    ],
    [
      "वेब",
      "साइ"
    ],
    [
      "सोहोर",
      "।</w>"
    ],
    [
      "फ",
      "ी"
    ],
    [
      "जिउ",
      "नि</w>"
    ],
    [
      "सुबुं",
      "नि</w>"
    ],
    [
      "आनजा",
      "द</w>"
    ],
    [
      "िया",
      ",</w>"
    ],
    [
      "नङ",
      "ि</w>"
    ],
    [
      "ल्",
      "ड</w>"
    ],
    [
      "ला",
      "सै</w>"
    ],
    [
      "उ",
      "इ"
    ],
    [
      "माब्लाबा-",
      "माब्लाबा</w>"
    ],
    [
      "दा",
      "हार"
    ],
    [
      "जे",
      "ब्लाबो</w>"
    ],
    [
      ")",
      "।</w>"
    ],
    [
      "द्र",
      "ा"
    ],
    [
      "ानाय",
      "ा</w>"
    ],
    [
      "ओनसोल",
      "फोराव</w>"
    ],
    [
      "सेब",
      "ां</w>"
    ],
    [
      "नोगोर",
      "।</w>"
    ],
    [
      "ल",
      "आव</w>"
    ],
    [
      "खां",
      "नाय</w>"
    ],
    [
      "200",
      "1</w>"
    ],
    [
      "माव",
      "ो।</w>"
    ],
    [
      "जाय",
      "ै</w>"
    ],
    [
      "प",
      "ेट"
    ],
    [
      "इउ",
      "नाइ"
    ],
    [
      "सल'",
      "बा"
    ],
    [
      "लो",
      "म"
    ],
    [
      "इ",
      "टा"
    ],
    [
      "फोसाव",
      "दोंमोन।</w>"
    ],
    [
      "था",
      "ं</w>"
    ],
    [
      "बेसे",
      "बां</w>"
    ],
    [
      "बे",
      "नो</w>"
    ],
    [
      "ै",
      "नि</w>"
    ],
    [
      "बि",
      "थोन</w>"
    ],
    [
      "फुं",
      "खा"
    ],
    [
      "लेन्ड",
      "आव</w>"
    ],
    [
      "फराय",
      "सं"
    ],
    [
      "मायथाइ",
      "सिम,</w>"
    ],
    [
      "द",
      "ब"
    ],
    [
      "सि",
      "या</w>"
    ],
    [
      "क",
      "ौ"
    ],
    [
      "ले",
      "क्"
    ],
    [
      "हान",
      "जा</w>"
    ],
    [
      "जा",
      "हा"
    ],
    [
      "साम्राय",
      "जोनि</w>"
    ],
    [
      "1",
      ","
    ],
    [
      "नाय",
      "ाव,</w>"
    ],
    [
      "गो",
      "जां</w>"
    ],
    [
      "महारा",
      "ष्ट्र"
    ],
    [
      "नागिर",
      "ना</w>"
    ],
    [
      "फसं",
      "थान"
    ],
    [
      "मिथिंगाय",
      "ारि</w>"
    ],
    [
      "जाप",
      "ाननि</w>"
    ],
    [
      "गल",
      "े</w>"
    ],
    [
      "व",
      "ान"
    ],
    [
      "रायजो",
      "आव</w>"
    ],
    [
      "भारत",
      "ाव</w>"
    ],
    [
      "न",
      "ङा</w>"
    ],
    [
      "ि",
      "उ"
    ],
    [
      "जोलु",
      "र</w>"
    ],
    [
      "बोसोर",
      "फ्रोमबो</w>"
    ],
    [
      "2",
      "3</w>"
    ],
    [
      "ग",
      "आ</w>"
    ],
    [
      "था",
      "बै"
    ],
    [
      "े",
      "श"
    ],
    [
      "बांसिन",
      "ै</w>"
    ],
    [
      "अ",
      "र्ड"
    ],
    [
      "स्ट्र",
      "'"
    ],
    [
      "बा",
      "ख्"
    ],
    [
      "थाव",
      "ना</w>"
    ],
    [
      "गुदुं",
      "</w>"
    ],
    [
      "बोसोर",
      "ारि</w>"
    ],
    [
      "सिगां",
      ",</w>"
    ],
    [
      "फ'",
      "र्"
    ],
    [
      "स्ट",
      "ाइ"
    ],
    [
      "हायुं",
      "</w>"
    ],
    [
      "हाय",
      "ा।</w>"
    ],
    [
      "बाहागो",
      "।</w>"
    ],
    [
      "व",
      "ानि</w>"
    ],
    [
      "तामि",
      "ल</w>"
    ],
    [
      "ब्रै",
      "थि</w>"
    ],
    [
      "ट",
      "र"
    ],
    [
      "म",
      "ी</w>"
    ],
    [
      "मारा",
      "ठ"
    ],
    [
      "पान्",
      "जाब"
    ],
    [
      "मोन",
      "ो,</w>"
    ],
    [
      "स्",
      "कु"
    ],
    [
      "र",
      "ेटि"
    ],
    [
      "2",
      "1</w>"
    ],
    [
      "न्",
      "सनि</w>"
    ],
    [
      "ू",
      "</w>"
    ],
    [
      "अ",
      "राय"
    ],
    [
      "फिसाज्ल",
      "ा</w>"
    ],
    [
      "सा",
      "खौ</w>"
    ],
    [
      "बार",
      "ा</w>"
    ],
    [
      "गे",
      "म्"
    ],
    [
      "नोंथां",
      "नो</w>"
    ],
    [
      "प",
      "आ</w>"
    ],
    [
      "आ",
      "ल"
    ],
    [
      "ब्ल",
      "े"
    ],
    [
      "सि",
      "रि"
    ],
    [
      "माइथाय",
      "सिम</w>"
    ],
    [
      "रां",
      "नि</w>"
    ],
    [
      "बि",
      "य"
    ],
    [
      "थो",
      "जासे</w>"
    ],
    [
      "आगस्त",
      "</w>"
    ],
    [
      "ख",
      "ां</w>"
    ],
    [
      ".ए",
      ".</w>"
    ],
    [
      "ब",
      "ो।</w>"
    ],
    [
      "गु",
      "दि"
    ],
    [
      "सा",
      "फोरा</w>"
    ],
    [
      "ए",
      "ल्"
    ],
    [
      "आफ्र",
      "िक"
    ],
    [
      "1",
      "4"
    ],
    [
      ".",
      "डि"
    ],
    [
      "आइ",
      "जो</w>"
    ],
    [
      "ग",
      "र</w>"
    ],
    [
      "ह",
      "ाव"
    ],
    [
      "नाय",
      "फोरा</w>"
    ],
    [
      "ना",
      ",</w>"
    ],
    [
      "फु",
      "र"
    ],
    [
      "लाय",
      "-"
    ],
    [
      "फै",
      "फिन"
    ],
    [
      "श्",
      "व"
    ],
    [
      "ना",
      "ङै</w>"
    ],
    [
      "फारि",
      "लाइ</w>"
    ],
    [
      "फालां",
      "गि</w>"
    ],
    [
      "बाहाय",
      "नानै</w>"
    ],
    [
      "क",
      "मि"
    ],
    [
      "'",
      "नि</w>"
    ],
    [
      "आद",
      "ार</w>"
    ],
    [
      "होन",
      "ां"
    ],
    [
      "सि",
      "मा</w>"
    ],
    [
      "आ",
      ",</w>"
    ],
    [
      "'",
      "आ</w>"
    ],
    [
      "सा",
      "फोरनि</w>"
    ],
    [
      "ए",
      "ड"
    ],
    [
      "धोर",
      "ोम</w>"
    ],
    [
      "म",
      "ार</w>"
    ],
    [
      "द",
      "आ</w>"
    ],
    [
      "था",
      "नि</w>"
    ],
    [
      "जे",
      "न्ट"
    ],
    [
      "जाय",
      "ाखैमोन।</w>"
    ],
    [
      "जि",
      "थाइ"
    ],
    [
      "ट",
      "ेन"
    ],
    [
      "गुवार",
      "ै</w>"
    ],
    [
      "\"",
      "।</w>"
    ],
    [
      "क",
      "ेल"
    ],
    [
      "ज",
      "न"
    ],
    [
      "गु",
      "सुं"
    ],
    [
      "जु",
      "जि"
    ],
    [
      "जाय",
      "फोरा</w>"
    ],
    [
      "फोथाय",
      "नाय</w>"
    ],
    [
      "आला",
      "दा</w>"
    ],
    [
      "मोन",
      "बा</w>"
    ],
    [
      "200",
      "5</w>"
    ],
    [
      "उ",
      "फ्रा</w>"
    ],
    [
      "स्ट",
      "ार"
    ],
    [
      "जौ",
      "ग"
    ],
    [
      "जेन",
      "ेर"
    ],
    [
      "ो",
      "ब्ला</w>"
    ],
    [
      "खान्",
      "थिखौ</w>"
    ],
    [
      "बायदिय",
      "ै,</w>"
    ],
    [
      "दि",
      "दो"
    ],
    [
      "थाबै",
      "नो</w>"
    ],
    [
      "ले",
      "ङ"
    ],
    [
      "ज",
      "र्"
    ],
    [
      "सि",
      "स्टे"
    ],
    [
      "बायद",
      "ियै</w>"
    ],
    [
      "बाख्",
      "नाय"
    ],
    [
      "ल",
      "िया"
    ],
    [
      "बै",
      "याव</w>"
    ],
    [
      "ओनसोल",
      "ा</w>"
    ],
    [
      "बै",
      "सोनि</w>"
    ],
    [
      "न",
      "ख'"
    ],
    [
      "मुंख'",
      "नाय</w>"
    ],
    [
      "गे",
      "देर</w>"
    ],
    [
      "नाय",
      "बिजिर"
    ],
    [
      "आव",
      "बो</w>"
    ],
    [
      "क",
      "न्ट"
    ],
    [
      "ारि",
      ",</w>"
    ],
    [
      "खुं",
      "थाय"
    ],
    [
      "पेर",
      "ि"
    ],
    [
      "ओनसोल",
      "।</w>"
    ],
    [
      "नान",
      "ै,</w>"
    ],
    [
      "ल",
      "े</w>"
    ],
    [
      "मा",
      ",</w>"
    ],
    [
      "ड",
      "िय'"
    ],
    [
      "पा",
      "ब्ल"
    ],
    [
      "ं",
      ",</w>"
    ],
    [
      "खा",
      "लाम</w>"
    ],
    [
      "लां",
      "नो</w>"
    ],
    [
      "अ",
      "डि"
    ],
    [
      "फार",
      "ाग"
    ],
    [
      "जाय",
      "ा।</w>"
    ],
    [
      "सायख'",
      "नाय</w>"
    ],
    [
      "ान",
      "ाव</w>"
    ],
    [
      "गेले",
      "नायनि</w>"
    ],
    [
      "फेब्रु",
      "आरि</w>"
    ],
    [
      "ानाय",
      "खौ</w>"
    ],
    [
      "नेशन",
      "ेल</w>"
    ],
    [
      "नोंथां",
      "खौ</w>"
    ],
    [
      "लान",
      "ा</w>"
    ],
    [
      "जि",
      "थाइनि</w>"
    ],
    [
      "हर",
      "्"
    ],
    [
      "ए",
      "</w>"
    ],
    [
      "6",
      "0</w>"
    ],
    [
      "नख",
      "रनि</w>"
    ],
    [
      "ख",
      "िया</w>"
    ],
    [
      "मेड",
      "ेल</w>"
    ],
    [
      "य",
      "र्"
    ],
    [
      "अस्ट्रेल",
      "ियानि</w>"
    ],
    [
      "ला",
      ",</w>"
    ],
    [
      "ो",
      "ब्ला,</w>"
    ],
    [
      "202",
      "2</w>"
    ],
    [
      "थां",
      "नो</w>"
    ],
    [
      "गायसन",
      "दोंमोन।</w>"
    ],
    [
      ".",
      "सी"
    ],
    [
      "ए",
      "यार"
    ],
    [
      "ल्",
      "त"
    ],
    [
      "जा",
      "सिम</w>"
    ],
    [
      "-",
      "जो"
    ],
    [
      "ल",
      "न्द"
    ],
    [
      "ए",
      "थ"
    ],
    [
      "बो",
      "सोन</w>"
    ],
    [
      "मा",
      "बा</w>"
    ],
    [
      "खाथि",
      "-खा"
    ],
    [
      "दै",
      "मा</w>"
    ],
    [
      "जु",
      "लाइ</w>"
    ],
    [
      "क",
      "ी"
    ],
    [
      "ट",
      ",</w>"
    ],
    [
      "गाज्र",
      "ि"
    ],
    [
      "गोरल",
      "ै</w>"
    ],
    [
      "आथोन",
      "ारि</w>"
    ],
    [
      "इउ",
      "नि"
    ],
    [
      "पि",
      "ं</w>"
    ],
    [
      "फि",
      "थाय</w>"
    ],
    [
      "मु",
      "स्लि"
    ],
    [
      "हौ",
      "वा</w>"
    ],
    [
      "राज",
      "थावनि</w>"
    ],
    [
      "देरहान",
      "ो</w>"
    ],
    [
      "ब",
      "लखौ</w>"
    ],
    [
      "सुबुर",
      "ुन</w>"
    ],
    [
      "सिन",
      "।</w>"
    ],
    [
      "क",
      "ै"
    ],
    [
      "अन",
      "लाइन</w>"
    ],
    [
      "गाव",
      "सिनि</w>"
    ],
    [
      "केन्",
      "सार"
    ],
    [
      "फा",
      "नि</w>"
    ],
    [
      "अलिम्प",
      "िक"
    ],
    [
      "बाहागो",
      "खौ</w>"
    ],
    [
      "प",
      "ाइ"
    ],
    [
      "गा",
      "बनि</w>"
    ],
    [
      "ड",
      "लार</w>"
    ],
    [
      "स्",
      "त्र"
    ],
    [
      "मो",
      "दाइ"
    ],
    [
      "सान्",
      "थ्रि</w>"
    ],
    [
      "ारि",
      "फोरा</w>"
    ],
    [
      "थाय",
      ",</w>"
    ],
    [
      "मोसान",
      "ाय</w>"
    ],
    [
      "ग",
      "ान</w>"
    ],
    [
      "बार",
      "नि</w>"
    ],
    [
      "लै",
      "थो</w>"
    ],
    [
      "बाहाय",
      "नायनि</w>"
    ],
    [
      "मिन्",
      "थि"
    ],
    [
      "2",
      "6</w>"
    ],
    [
      "बि",
      "सि"
    ],
    [
      "र",
      "ी</w>"
    ],
    [
      "फोनां",
      "जाब"
    ],
    [
      "ड",
      "ि</w>"
    ],
    [
      "बाथ्र",
      "ाखौ</w>"
    ],
    [
      "आ",
      "न्"
    ],
    [
      "न",
      "ुन"
    ],
    [
      "2",
      "7</w>"
    ],
    [
      "लाइ",
      "मोन</w>"
    ],
    [
      "न",
      "िया</w>"
    ],
    [
      "म",
      "-"
    ],
    [
      "सन",
      "नि</w>"
    ],
    [
      "य",
      "नि</w>"
    ],
    [
      "लिर",
      "बि"
    ],
    [
      "बादायलाय",
      "नायाव</w>"
    ],
    [
      "दोर",
      "ों"
    ],
    [
      "ना",
      "जाव"
    ],
    [
      "खालाम",
      "दों।</w>"
    ],
    [
      "ला",
      "मायाव</w>"
    ],
    [
      "म",
      "।</w>"
    ],
    [
      "होन",
      "ानै</w>"
    ],
    [
      "फ",
      "ेर"
    ],
    [
      "बे",
      "फोर"
    ],
    [
      "200",
      "4</w>"
    ],
    [
      "दि",
      "नै</w>"
    ],
    [
      "दिहुन",
      "जानाय</w>"
    ],
    [
      "र",
      "आव</w>"
    ],
    [
      "सु",
      "</w>"
    ],
    [
      "मोन",
      "नै"
    ],
    [
      "लु",
      "नाय</w>"
    ],
    [
      "ग",
      "आव</w>"
    ],
    [
      "थाय",
      "ै</w>"
    ],
    [
      "माइ",
      "ल"
    ],
    [
      "ट",
      "न</w>"
    ],
    [
      "म",
      "हा"
    ],
    [
      "स",
      "नानि</w>"
    ],
    [
      "न",
      "ियाव</w>"
    ],
    [
      "सोद्रोमा",
      "मोन।</w>"
    ],
    [
      "जिब",
      "ख्रि"
    ],
    [
      "दान",
      "नि</w>"
    ],
    [
      "सा",
      "हा"
    ],
    [
      "दाव",
      "हायाव</w>"
    ],
    [
      "दि",
      "था</w>"
    ],
    [
      "198",
      "0</w>"
    ],
    [
      "जा",
      "गासिनो</w>"
    ],
    [
      "बाहाय",
      "जानाय</w>"
    ],
    [
      "सो",
      "ल</w>"
    ],
    [
      "नां",
      "गोन।</w>"
    ],
    [
      ".",
      "टि"
    ],
    [
      "ग",
      "ार्"
    ],
    [
      "द",
      "खौ</w>"
    ],
    [
      "2",
      "9</w>"
    ],
    [
      "उन्द",
      "ै</w>"
    ],
    [
      "ट्र",
      "ि"
    ],
    [
      "अ",
      "'</w>"
    ],
    [
      "किल'",
      "मिटार"
    ],
    [
      "जान",
      "ा</w>"
    ],
    [
      "गु",
      "फु"
    ],
    [
      "खालाम",
      "नाया</w>"
    ],
    [
      "कम्प",
      "िउ"
    ],
    [
      "शा",
      "ह"
    ],
    [
      "मिर",
      "ु</w>"
    ],
    [
      "ड",
      ",</w>"
    ],
    [
      "लिर",
      "नाय</w>"
    ],
    [
      "सेप्ते",
      "म्बर</w>"
    ],
    [
      "राइ",
      "जो</w>"
    ],
    [
      "199",
      "0</w>"
    ],
    [
      "ब्लि",
      "उ"
    ],
    [
      "ट्र",
      "'"
    ],
    [
      "माव",
      "फुं"
    ],
    [
      "गु",
      "रु"
    ],
    [
      "ट",
      "ेलि"
    ],
    [
      "हा",
      "थिय"
    ],
    [
      "बाहा",
      "गोनि</w>"
    ],
    [
      ".",
      "इ"
    ],
    [
      "कि",
      "ं</w>"
    ],
    [
      "साव",
      "गारि</w>"
    ],
    [
      "स्",
      "थान"
    ],
    [
      "फिन्",
      "नाय</w>"
    ],
    [
      "ख",
      "माय"
    ],
    [
      "नेट",
      "वर्"
    ],
    [
      "ण",
      "्"
    ],
    [
      "रो",
      "दा"
    ],
    [
      "ल",
      "जों</w>"
    ],
    [
      "सोलाय",
      "नो</w>"
    ],
    [
      "सोद्रो",
      "मा</w>"
    ],
    [
      "2",
      "8</w>"
    ],
    [
      "हिन्द",
      "ी</w>"
    ],
    [
      "ग",
      "ं</w>"
    ],
    [
      "सेल",
      "्"
    ],
    [
      "धोरो",
      "मनि</w>"
    ],
    [
      "क",
      "ि</w>"
    ],
    [
      "रि",
      "ं"
    ],
    [
      "बाहागो",
      "आ</w>"
    ],
    [
      "मध",
      "्य</w>"
    ],
    [
      "खान्",
      "थिया</w>"
    ],
    [
      "खु",
      "लि"
    ],
    [
      "नेर",
      "सोन"
    ],
    [
      "मे",
      "क"
    ],
    [
      "नेव",
      "सि"
    ],
    [
      "दाइ",
      "न</w>"
    ],
    [
      "प",
      "र"
    ],
    [
      "गिरि",
      ",</w>"
    ],
    [
      "थि",
      "न"
    ],
    [
      "सांग्र",
      "ां</w>"
    ],
    [
      "ए",
      "से"
    ],
    [
      "तु",
      "र्"
    ],
    [
      "गोनां",
      "थार"
    ],
    [
      "क'",
      "र्"
    ],
    [
      "सफ्",
      "ट"
    ],
    [
      "प",
      "ेरा"
    ],
    [
      "स्",
      "के"
    ],
    [
      "सु",
      "ल्त"
    ],
    [
      "गे",
      "म</w>"
    ],
    [
      "थां",
      "दोंमोन।</w>"
    ],
    [
      "सो",
      "फा"
    ],
    [
      "प",
      "खौ</w>"
    ],
    [
      "व",
      "ेल्"
    ],
    [
      "माइ",
      "क्र'"
    ],
    [
      "खाजोन",
      "ा</w>"
    ],
    [
      "एल",
      "बा"
    ],
    [
      "ह",
      "ानायनि</w>"
    ],
    [
      "जो",
      "खोम</w>"
    ],
    [
      "फोजोब",
      "स्रां"
    ],
    [
      "बु",
      "मिन"
    ],
    [
      "फ्रान्",
      "सनि</w>"
    ],
    [
      "सोहोर",
      "ाव</w>"
    ],
    [
      "क",
      "ल</w>"
    ],
    [
      "गोसो",
      "खां"
    ],
    [
      "फुट",
      "बल</w>"
    ],
    [
      "सुइ",
      "डेननि</w>"
    ],
    [
      "सि",
      "मा"
    ],
    [
      "सोर",
      "बा</w>"
    ],
    [
      "द्र",
      "ा</w>"
    ],
    [
      "सिं",
      "नि</w>"
    ],
    [
      "दन्द",
      "र"
    ],
    [
      "इउनाइ",
      "टेड</w>"
    ],
    [
      "सोर",
      "खारि</w>"
    ],
    [
      "गोब्रा",
      "ब"
    ],
    [
      "ए",
      "का"
    ],
    [
      "बो",
      "आव</w>"
    ],
    [
      "मा",
      "उ"
    ],
    [
      "दा",
      "हार</w>"
    ],
    [
      "मु",
      "म्"
    ],
    [
      "जु",
      "लि</w>"
    ],
    [
      "ग",
      "ी"
    ],
    [
      "बिबां",
      "नि</w>"
    ],
    [
      "बि",
      "न्द"
    ],
    [
      "ख",
      "ाय</w>"
    ],
    [
      "ए",
      "र"
    ],
    [
      "हिन",
      "जाव"
    ],
    [
      "न",
      "ेट</w>"
    ],
    [
      "ह",
      "ां</w>"
    ],
    [
      "जो",
      "खौ</w>"
    ],
    [
      "भारत",
      "आ</w>"
    ],
    [
      "ज",
      "खौ</w>"
    ],
    [
      "दोन्",
      "नाय</w>"
    ],
    [
      "नाय",
      "फोरनि</w>"
    ],
    [
      "र",
      "ी"
    ],
    [
      "ए",
      "स'"
    ],
    [
      "बोसोर",
      "फोराव</w>"
    ],
    [
      "सुबु",
      "ङा</w>"
    ],
    [
      "गेले",
      "गिरिफोरा</w>"
    ],
    [
      "न्",
      "सि"
    ],
    [
      "प",
      "ेन"
    ],
    [
      "प",
      "ार</w>"
    ],
    [
      "मे",
      "थाइ</w>"
    ],
    [
      "कृष्",
      "ण"
    ],
    [
      "अ",
      "म"
    ],
    [
      "ग",
      "ुन</w>"
    ],
    [
      "फि",
      "लि"
    ],
    [
      "दान",
      "ख'"
    ],
    [
      "च",
      "ेन"
    ],
    [
      "जुन",
      "िय"
    ],
    [
      "त",
      "ी</w>"
    ],
    [
      "लाय",
      "ो</w>"
    ],
    [
      "फोलेर",
      "नि</w>"
    ],
    [
      "ज",
      "थाय</w>"
    ],
    [
      "गान्",
      "ध"
    ],
    [
      "फाइ",
      "ना"
    ],
    [
      "गो",
      "बाङ"
    ],
    [
      "थे",
      "व"
    ],
    [
      "सायख'",
      "जादोंमोन।</w>"
    ],
    [
      "ख",
      "ुब"
    ],
    [
      "ड",
      "्रा"
    ],
    [
      "गोजोन",
      "</w>"
    ],
    [
      "न्",
      "च"
    ],
    [
      "हरखा",
      "ब</w>"
    ],
    [
      "न",
      "ी"
    ],
    [
      "गोजौ",
      "आव</w>"
    ],
    [
      "प",
      "्ला"
    ],
    [
      "मो",
      "जां"
    ],
    [
      "गो",
      "म"
    ],
    [
      "हौवा",
      "फोरनि</w>"
    ],
    [
      "नोगोरमा",
      "।</w>"
    ],
    [
      "थि",
      "जों</w>"
    ],
    [
      "राव",
      "नि</w>"
    ],
    [
      "जायगा",
      "नि</w>"
    ],
    [
      "बे",
      "जों</w>"
    ],
    [
      "ान",
      "आ</w>"
    ],
    [
      "ध",
      "ा"
    ],
    [
      "बोथोर",
      "</w>"
    ],
    [
      "मिरु",
      "आरि</w>"
    ],
    [
      "ओन",
      "सोल</w>"
    ],
    [
      "आ",
      "सार"
    ],
    [
      "गुफु",
      "र</w>"
    ],
    [
      "य",
      "ू"
    ],
    [
      "बुं",
      "फुर"
    ],
    [
      "चे",
      "न्"
    ],
    [
      "200",
      "2</w>"
    ],
    [
      "जाथाव",
      "ना</w>"
    ],
    [
      "ना",
      "मा"
    ],
    [
      "तामिलना",
      "डु"
    ],
    [
      "मोन",
      "-"
    ],
    [
      "ब्ला",
      "सिम</w>"
    ],
    [
      "एन्ट",
      "ि"
    ],
    [
      "हा",
      "जो</w>"
    ],
    [
      "र",
      "िय"
    ],
    [
      "्ल",
      "ि"
    ],
    [
      "र",
      "ान</w>"
    ],
    [
      "स्टे",
      "डिया"
    ],
    [
      "ेल",
      "आ</w>"
    ],
    [
      "च",
      "ेर"
    ],
    [
      "बर्",
      "ग</w>"
    ],
    [
      "जाय",
      "जों</w>"
    ],
    [
      "लोगो",
      "से,</w>"
    ],
    [
      "ेल",
      "नि</w>"
    ],
    [
      "मान",
      "ो</w>"
    ],
    [
      "द",
      "ां</w>"
    ],
    [
      "ख",
      "र'"
    ],
    [
      "न'",
      "नि</w>"
    ],
    [
      "सान",
      "स्रि"
    ],
    [
      "दें",
      "खोनि</w>"
    ],
    [
      "न्",
      "सआ</w>"
    ],
    [
      "बैसो",
      "याव</w>"
    ],
    [
      "नं",
      "गुबै</w>"
    ],
    [
      "बा",
      "दि"
    ],
    [
      "।",
      "\"</w>"
    ],
    [
      "आ",
      "जिर"
    ],
    [
      "गोर",
      "ा"
    ],
    [
      "हो",
      "दों।</w>"
    ],
    [
      "बाङ",
      "ाय"
    ],
    [
      "कि",
      "ं"
    ],
    [
      "गो",
      "लाव"
    ],
    [
      "म्",
      "स</w>"
    ],
    [
      "मुलाम्",
      "फा</w>"
    ],
    [
      "का",
      "श्"
    ],
    [
      "ना",
      "थ"
    ],
    [
      "फै",
      "नाय</w>"
    ],
    [
      "बायदि",
      "ब्ला</w>"
    ],
    [
      "त",
      "ी"
    ],
    [
      "नि",
      "।</w>"
    ],
    [
      "सा",
      "थाम</w>"
    ],
    [
      "माखा",
      "से"
    ],
    [
      "गोद",
      "ो</w>"
    ],
    [
      "गोसो",
      "म</w>"
    ],
    [
      "ड",
      "लार"
    ],
    [
      "गो",
      "थां</w>"
    ],
    [
      "हि",
      "ं"
    ],
    [
      "बिफ",
      "ाया</w>"
    ],
    [
      "अ",
      "ल"
    ],
    [
      "थाय",
      "फोर</w>"
    ],
    [
      "आग",
      "ान</w>"
    ],
    [
      "आग",
      "जु"
    ],
    [
      "साल",
      "िया</w>"
    ],
    [
      "अक्ट'",
      "बर</w>"
    ],
    [
      "बाय",
      ",</w>"
    ],
    [
      "र्",
      "ना"
    ],
    [
      "क्",
      "सनि</w>"
    ],
    [
      "ए",
      "न्"
    ],
    [
      "क",
      "म्"
    ],
    [
      "र",
      "ेल</w>"
    ],
    [
      "राज",
      "स्थान"
    ],
    [
      "जि",
      "नो</w>"
    ],
    [
      "मण",
      "ि"
    ],
    [
      "इ",
      "लि"
    ],
    [
      "क्र",
      "ान्"
    ],
    [
      "ंग",
      "</w>"
    ],
    [
      "क्",
      "सआ</w>"
    ],
    [
      "गाहाय",
      "ै</w>"
    ],
    [
      "आफाद",
      "नि</w>"
    ],
    [
      "भ",
      "ार</w>"
    ],
    [
      "डि",
      "जाइ"
    ],
    [
      "दोंमोन",
      "!</w>"
    ],
    [
      "थ",
      "'</w>"
    ],
    [
      "प",
      "ाव"
    ],
    [
      "हो",
      "आ"
    ],
    [
      "सोमोन",
      "ां"
    ],
    [
      "क",
      "ले"
    ],
    [
      "जायगा",
      "खौ</w>"
    ],
    [
      "हो",
      "खार"
    ],
    [
      "श्र",
      "ी</w>"
    ],
    [
      "हाय",
      "ाखैमोन।</w>"
    ],
    [
      "197",
      "0</w>"
    ],
    [
      "जिर",
      "ायनाय</w>"
    ],
    [
      "न",
      "ार</w>"
    ],
    [
      "ट",
      "ेल</w>"
    ],
    [
      "न'",
      "इ"
    ],
    [
      "जिर",
      "ाय"
    ],
    [
      "खाव",
      "से</w>"
    ],
    [
      "च",
      "ार"
    ],
    [
      "बार",
      "ाव</w>"
    ],
    [
      "थि",
      "फोर</w>"
    ],
    [
      "फारसे",
      "थिं</w>"
    ],
    [
      ".",
      "भि"
    ],
    [
      "आमेरिक",
      "ान</w>"
    ],
    [
      "फिन्",
      "नो</w>"
    ],
    [
      "हान्",
      "जा</w>"
    ],
    [
      "भ",
      "ी"
    ],
    [
      "एंग",
      "ार"
    ],
    [
      "गोहो",
      "खौ</w>"
    ],
    [
      "200",
      "3</w>"
    ],
    [
      "मिनि",
      "टनि</w>"
    ],
    [
      "खा",
      "लामा"
    ],
    [
      "20",
      "0</w>"
    ],
    [
      "न",
      "ेल</w>"
    ],
    [
      "उत्त",
      "र</w>"
    ],
    [
      "ड",
      "ार्"
    ],
    [
      "सान",
      "थांखि</w>"
    ],
    [
      "मुम्",
      "बाइ"
    ],
    [
      "जर'",
      "खा</w>"
    ],
    [
      "इ",
      "</w>"
    ],
    [
      "गुसुं",
      "</w>"
    ],
    [
      "नाय",
      "फोर</w>"
    ],
    [
      "क्ला",
      "ब</w>"
    ],
    [
      "ड",
      "ब्लिउ"
    ],
    [
      "थ",
      "ेरा"
    ],
    [
      "स्र",
      "िनि</w>"
    ],
    [
      "बाहाय",
      "दोंमोन।</w>"
    ],
    [
      "थां",
      "खिया</w>"
    ],
    [
      "सावथुन",
      "फोराव</w>"
    ],
    [
      "मद",
      "द"
    ],
    [
      "8",
      "0</w>"
    ],
    [
      "बुहु",
      "मनि</w>"
    ],
    [
      "न्ड",
      "ि"
    ],
    [
      "टि",
      "ं</w>"
    ],
    [
      "सान",
      "थौ"
    ],
    [
      "अन्",
      "थाइ</w>"
    ],
    [
      "पान्",
      "ड"
    ],
    [
      "खालाम",
      "।</w>"
    ],
    [
      "गोजा",
      "म"
    ],
    [
      "खो",
      "ब"
    ],
    [
      "लाय",
      "नायनि</w>"
    ],
    [
      "दा",
      "उ"
    ],
    [
      "ला",
      "दोंमोन</w>"
    ],
    [
      "म",
      "न</w>"
    ],
    [
      "गोसो",
      "आरि</w>"
    ],
    [
      "सर",
      "जाब"
    ],
    [
      "गेले",
      "नो</w>"
    ],
    [
      "मन्",
      "थ्रि"
    ],
    [
      "फ",
      "ैयो।</w>"
    ],
    [
      "टि",
      "स</w>"
    ],
    [
      "ला",
      "ख"
    ],
    [
      "प'",
      "र्"
    ],
    [
      "ग",
      "ेर"
    ],
    [
      "दङ",
      ",</w>"
    ],
    [
      "जोब",
      "थे"
    ],
    [
      "दाव",
      "गा"
    ],
    [
      "थां",
      "ना</w>"
    ],
    [
      "थै",
      "दोंमोन।</w>"
    ],
    [
      "सुबुं",
      "फोर"
    ],
    [
      "म",
      "फोरनि</w>"
    ],
    [
      "बेरा",
      "मि"
    ],
    [
      "दे",
      "ब"
    ],
    [
      "ट",
      "जों</w>"
    ],
    [
      "खा",
      "थि</w>"
    ],
    [
      "मिथि",
      "जानाय</w>"
    ],
    [
      "अ",
      "फि"
    ],
    [
      "फार",
      "ियै</w>"
    ],
    [
      "ङ",
      "ा"
    ],
    [
      "गोरोन्",
      "थि</w>"
    ],
    [
      "रा",
      "हायारि</w>"
    ],
    [
      "्ल",
      "्"
    ],
    [
      "गथ'",
      "फोरनि</w>"
    ],
    [
      "मु",
      "ङा</w>"
    ],
    [
      "सान",
      "जा"
    ],
    [
      "मुसु",
      "खा"
    ],
    [
      "प्रदेश",
      "नि</w>"
    ],
    [
      "रोखोम",
      "ै</w>"
    ],
    [
      "लेङ",
      "ाइ</w>"
    ],
    [
      "फ्र",
      "ि"
    ],
    [
      "गु",
      "प्त"
    ],
    [
      "हो",
      "गोन।</w>"
    ],
    [
      "से",
      "न्ट</w>"
    ],
    [
      "ख",
      "ार</w>"
    ],
    [
      "बा",
      "ला"
    ],
    [
      "गेले",
      "यो।</w>"
    ],
    [
      "होन",
      "ि</w>"
    ],
    [
      "राइ",
      "जो"
    ],
    [
      "गो",
      "जा</w>"
    ],
    [
      "ग्रा",
      "फोरखौ</w>"
    ],
    [
      "घन्ट",
      "ा"
    ],
    [
      "भि",
      "टा"
    ],
    [
      "फावखुंगु",
      "र</w>"
    ],
    [
      "बि",
      "जाब</w>"
    ],
    [
      "व",
      "ान</w>"
    ],
    [
      "निफ्राय",
      ",</w>"
    ],
    [
      "ड",
      "ल"
    ],
    [
      "गोदो",
      "-"
    ],
    [
      "था",
      "गिबि</w>"
    ],
    [
      "गु",
      "र"
    ],
    [
      "ज",
      "थु"
    ],
    [
      "ल",
      "ानायनि</w>"
    ],
    [
      "र",
      "िक"
    ],
    [
      "आजिर",
      "ा</w>"
    ],
    [
      "खा",
      "मान"
    ],
    [
      "लिरबि",
      "दां"
    ],
    [
      "दिल्ल",
      "ी"
    ],
    [
      "खौ",
      "ल'</w>"
    ],
    [
      "प्",
      "ता"
    ],
    [
      "प",
      "ू"
    ],
    [
      "फा",
      "मु"
    ],
    [
      "प्ल",
      "ेट"
    ],
    [
      "रि",
      "पाब्ल"
    ],
    [
      "मुस्लि",
      "म</w>"
    ],
    [
      "ा",
      "म"
    ],
    [
      "ैय",
      "ा</w>"
    ],
    [
      "गान",
      "ाय</w>"
    ],
    [
      "काश्",
      "मी"
    ],
    [
      "बार",
      "ग'"
    ],
    [
      "इंराज",
      "ि</w>"
    ],
    [
      "ज",
      "ार</w>"
    ],
    [
      "इ",
      "उन"
    ],
    [
      "ए",
      "म्"
    ],
    [
      "खा",
      "थिनि</w>"
    ],
    [
      "मा",
      "से</w>"
    ],
    [
      "199",
      "8</w>"
    ],
    [
      "गेजेर",
      "ाव,</w>"
    ],
    [
      "199",
      "9</w>"
    ],
    [
      ".ए",
      "."
    ],
    [
      "9",
      "0</w>"
    ],
    [
      "ब्रा",
      "जि"
    ],
    [
      "सिग",
      "ार"
    ],
    [
      "था",
      "खौ</w>"
    ],
    [
      "भ",
      "ाय"
    ],
    [
      "मु",
      "सल"
    ],
    [
      "जो",
      "थोन</w>"
    ],
    [
      "म",
      "ारि</w>"
    ],
    [
      "रो",
      "जा"
    ],
    [
      "दान्",
      "थे"
    ],
    [
      "सान",
      "से"
    ],
    [
      "दे",
      "श</w>"
    ],
    [
      "मोन्",
      "दोंमोन।</w>"
    ],
    [
      "ध",
      "्र"
    ],
    [
      "उ",
      "ल्"
    ],
    [
      "गिर",
      "्"
    ],
    [
      "ज",
      "न्"
    ],
    [
      "आ",
      "क"
    ],
    [
      "न",
      "र"
    ],
    [
      "बोसोर",
      "सिम</w>"
    ],
    [
      "अ",
      "पार"
    ],
    [
      "डिय",
      "'</w>"
    ],
    [
      "सांग्र",
      "ां"
    ],
    [
      "सो",
      "ब"
    ],
    [
      "रेल",
      "वे</w>"
    ],
    [
      "फा",
      "लिय"
    ],
    [
      "बेसे",
      "ननि</w>"
    ],
    [
      "गेलेमु",
      "खौ</w>"
    ],
    [
      "हें",
      "थायै</w>"
    ],
    [
      "बि",
      "बा"
    ],
    [
      "बि",
      "लो"
    ],
    [
      "बुं",
      "फब"
    ],
    [
      "जर'",
      "खायै</w>"
    ],
    [
      "बि",
      "गोमा"
    ],
    [
      "जें",
      "ना</w>"
    ],
    [
      "बे",
      "द"
    ],
    [
      "मुंदांखा",
      "।</w>"
    ],
    [
      "ल्",
      "ड"
    ],
    [
      "लाखि",
      "नो</w>"
    ],
    [
      "हादोर",
      "गिरि</w>"
    ],
    [
      "सा",
      "स</w>"
    ],
    [
      "लिर",
      "दोंमोन।</w>"
    ],
    [
      "नखर",
      "ारि</w>"
    ],
    [
      "ेल",
      "ु"
    ],
    [
      "इ",
      "च"
    ],
    [
      "भ",
      "िय"
    ],
    [
      "जौ",
      "थायनि</w>"
    ],
    [
      "बि",
      "हो"
    ],
    [
      "ख",
      "ुन"
    ],
    [
      "इ",
      "न</w>"
    ],
    [
      "दाजाब",
      "देर"
    ],
    [
      "गेलेमु",
      "नि</w>"
    ],
    [
      "-",
      "फा"
    ],
    [
      "थाय",
      "फोरखौ</w>"
    ],
    [
      "खोन",
      "ा"
    ],
    [
      "ट्",
      "स</w>"
    ],
    [
      "मो",
      "सा"
    ],
    [
      "बिथां",
      "नो</w>"
    ],
    [
      "सानजेर",
      "</w>"
    ],
    [
      "स्क",
      "ेट"
    ],
    [
      "प",
      "लि"
    ],
    [
      "के",
      "न्ट"
    ],
    [
      "ए",
      "सि"
    ],
    [
      "काउन्ट",
      "ि"
    ],
    [
      "च",
      "न्द्र"
    ],
    [
      "र",
      "जों</w>"
    ],
    [
      "जारि",
      "मिन"
    ],
    [
      "न",
      "ार्"
    ],
    [
      "ु",
      "य"
    ],
    [
      "सा",
      "जा</w>"
    ],
    [
      "0",
      "0"
    ],
    [
      "होन",
      "ायाव</w>"
    ],
    [
      "टेल",
      "ी"
    ],
    [
      "आय",
      "जो"
    ],
    [
      "खृष्",
      "टा"
    ],
    [
      "सोदो",
      "ब</w>"
    ],
    [
      "गा",
      "ब</w>"
    ],
    [
      "लाय",
      "ो,</w>"
    ],
    [
      "गिदि",
      "ं"
    ],
    [
      "पु",
      "रनि</w>"
    ],
    [
      "ड",
      "ाइ"
    ],
    [
      "ज",
      "आव</w>"
    ],
    [
      "ग",
      "ुं"
    ],
    [
      ".",
      "आइ"
    ],
    [
      "बुमिन",
      "सार"
    ],
    [
      "गैय",
      "ा</w>"
    ],
    [
      "खालाम",
      "ग्रा</w>"
    ],
    [
      "स्ट",
      "ार्"
    ],
    [
      "ल",
      "ान्"
    ],
    [
      "फोर",
      "मान"
    ],
    [
      "आखु",
      "</w>"
    ],
    [
      "गा",
      "खोन"
    ],
    [
      "बिथां",
      "खि"
    ],
    [
      "थाय",
      "फोरनि</w>"
    ],
    [
      "बेफोर",
      "ो</w>"
    ],
    [
      "गिरि",
      "खौ</w>"
    ],
    [
      "इस्",
      "लाम"
    ],
    [
      "बाथ्र",
      "ा"
    ],
    [
      "एस'",
      "सि"
    ],
    [
      "ला",
      "खौ</w>"
    ],
    [
      "ट",
      "ेर"
    ],
    [
      "बावै",
      "सो</w>"
    ],
    [
      "-",
      "गाव</w>"
    ],
    [
      "आ",
      "द्रा</w>"
    ],
    [
      "न",
      "ारि</w>"
    ],
    [
      "स",
      "म्फ"
    ],
    [
      "क",
      "जों</w>"
    ],
    [
      "ै",
      "।</w>"
    ],
    [
      "खृष्टा",
      "ब्"
    ],
    [
      "द्",
      "दा"
    ],
    [
      "प",
      "ि</w>"
    ],
    [
      "खु",
      "द"
    ],
    [
      "लि",
      "क</w>"
    ],
    [
      "19",
      "0"
    ],
    [
      "उन",
      "मोन"
    ],
    [
      "रा",
      "म"
    ],
    [
      "दि",
      "ं"
    ],
    [
      "पुलि",
      "स</w>"
    ],
    [
      "बेसाद",
      "फोरखौ</w>"
    ],
    [
      ".",
      "के"
    ],
    [
      "बायजो",
      "आरि</w>"
    ],
    [
      "ना",
      "ल्"
    ],
    [
      "एस",
      ".</w>"
    ],
    [
      "उ",
      "प"
    ],
    [
      "बे",
      "क्ट"
    ],
    [
      "ला",
      "फा"
    ],
    [
      "गैया",
      "मोन।</w>"
    ],
    [
      "समाय",
      "ना</w>"
    ],
    [
      "रन",
      "साय"
    ],
    [
      "ृ",
      "त"
    ],
    [
      "भि",
      "जन</w>"
    ],
    [
      "जार्",
      "मानि"
    ],
    [
      "हा",
      "खौ</w>"
    ],
    [
      "था",
      "बाय"
    ],
    [
      "ट",
      "र</w>"
    ],
    [
      "स्ट",
      "ेट"
    ],
    [
      "नुजा",
      "थि"
    ],
    [
      "खेब",
      "से</w>"
    ],
    [
      "मे",
      "न</w>"
    ],
    [
      "हर",
      "नाय</w>"
    ],
    [
      "7",
      "0</w>"
    ],
    [
      "हो",
      "य"
    ],
    [
      "बांसिन",
      "ानो</w>"
    ],
    [
      "ग",
      "ार</w>"
    ],
    [
      "टु",
      "र्ना"
    ],
    [
      "रि",
      "लि"
    ],
    [
      "िय",
      "ार"
    ],
    [
      "ला",
      "सै"
    ],
    [
      "थाइ",
      "याव</w>"
    ],
    [
      "जा",
      "गोन</w>"
    ],
    [
      "फि",
      "थाइ</w>"
    ],
    [
      "बिथां",
      "हा</w>"
    ],
    [
      "दिल्ल",
      "ी</w>"
    ],
    [
      "हाब",
      "दोंमोन।</w>"
    ],
    [
      "मि",
      "थिय"
    ],
    [
      "दां",
      "नो</w>"
    ],
    [
      "रे",
      "ब्"
    ],
    [
      "र",
      "य"
    ],
    [
      "1",
      "."
    ],
    [
      "फिन",
      "नाय</w>"
    ],
    [
      "बेक्ट",
      "ेर"
    ],
    [
      "गाय",
      "सन्"
    ],
    [
      "5",
      "00</w>"
    ],
    [
      "इं",
      "लेन्डनि</w>"
    ],
    [
      "मख'",
      "जाथाव</w>"
    ],
    [
      "बि",
      "थि"
    ],
    [
      "जाय",
      "ारि</w>"
    ],
    [
      "आइजो",
      "फोरनि</w>"
    ],
    [
      "सोरखार",
      "नि</w>"
    ],
    [
      "-",
      "सि"
    ],
    [
      "सौहै",
      "नो</w>"
    ],
    [
      "फ",
      "नि</w>"
    ],
    [
      "बि",
      "दिन्थि"
    ],
    [
      "मिथि",
      "जायो।</w>"
    ],
    [
      "लाइ",
      "फां"
    ],
    [
      "दै",
      "-"
    ],
    [
      "कम्पानि",
      "नि</w>"
    ],
    [
      "प",
      "ा</w>"
    ],
    [
      "बिथां",
      "जोनि</w>"
    ],
    [
      "र",
      "बि"
    ],
    [
      "आ",
      "प"
    ],
    [
      "गैया",
      "ला"
    ],
    [
      "सिन",
      "ै</w>"
    ],
    [
      "मु",
      "लि</w>"
    ],
    [
      "मो",
      "खां"
    ],
    [
      "रा",
      "ग"
    ],
    [
      "ड",
      "ेल्"
    ],
    [
      "मोब्लि",
      "ब</w>"
    ],
    [
      "प्",
      "यु"
    ],
    [
      "मि",
      "ड"
    ],
    [
      "म्",
      "म"
    ],
    [
      "ए",
      "न्ड</w>"
    ],
    [
      "म",
      "ंग"
    ],
    [
      "का",
      "प</w>"
    ],
    [
      "आखाइ",
      "</w>"
    ],
    [
      "दं",
      "फायो।</w>"
    ],
    [
      "मिजि",
      "ं</w>"
    ],
    [
      "सिबि",
      "थाय</w>"
    ],
    [
      "ए",
      "नि"
    ],
    [
      "ग",
      "ले-"
    ],
    [
      "गाव",
      "-"
    ],
    [
      "खा",
      "म"
    ],
    [
      "क्ला",
      "सि"
    ],
    [
      "ं",
      "गा"
    ],
    [
      "रोखो",
      "म</w>"
    ],
    [
      "बे",
      "ल"
    ],
    [
      "गोजाम",
      "सिन</w>"
    ],
    [
      "भिटा",
      "मिन</w>"
    ],
    [
      "खौ",
      "रां"
    ],
    [
      "माय",
      "ारि</w>"
    ],
    [
      "बि",
      "सि</w>"
    ],
    [
      "अ",
      "ना"
    ],
    [
      "सा",
      "खाथियाव</w>"
    ],
    [
      "गेले",
      "गिरिफोरनि</w>"
    ],
    [
      "गो",
      "होनि</w>"
    ],
    [
      "बोथोर",
      "ाव</w>"
    ],
    [
      "दान",
      "ाय</w>"
    ],
    [
      "फोर",
      "ावबो</w>"
    ],
    [
      "सि",
      "लि"
    ],
    [
      "जि",
      "ंगा</w>"
    ],
    [
      ".सि",
      ".</w>"
    ],
    [
      "बें",
      "खन"
    ],
    [
      "बादायलाय",
      "नाय</w>"
    ],
    [
      "खाव",
      "लाय"
    ],
    [
      "गोसो",
      "आव</w>"
    ],
    [
      "स्",
      "लाय"
    ],
    [
      "जा",
      "ब्र"
    ],
    [
      "कम्पान",
      "िया</w>"
    ],
    [
      "सि",
      "स</w>"
    ],
    [
      "दे",
      "हायारि</w>"
    ],
    [
      "दे",
      "हानि</w>"
    ],
    [
      "सामलाय",
      "नो</w>"
    ],
    [
      "गोदो-",
      "गोदायनि</w>"
    ],
    [
      "खा",
      "थाय"
    ],
    [
      "कि",
      "उ"
    ],
    [
      "हा",
      "थाव</w>"
    ],
    [
      "फोरमाय",
      "थि</w>"
    ],
    [
      "अ",
      "क्ट"
    ],
    [
      "दिथा",
      "गिरि</w>"
    ],
    [
      "्य",
      "ू"
    ],
    [
      "बिफ",
      "ाव</w>"
    ],
    [
      "टि",
      "नि</w>"
    ],
    [
      "बा",
      "ज्र"
    ],
    [
      "मार्",
      "श"
    ],
    [
      "ख्र",
      "ा"
    ],
    [
      "खि",
      "न्"
    ],
    [
      "र",
      "ान्"
    ],
    [
      "ब",
      "क्स</w>"
    ],
    [
      "बा",
      "स</w>"
    ],
    [
      "कर्",
      "नाट"
    ],
    [
      "ख",
      "ानाय"
    ],
    [
      "ख",
      "िर"
    ],
    [
      "सान",
      "नाय</w>"
    ],
    [
      "ज",
      "िया"
    ],
    [
      "गायसन",
      "नाय</w>"
    ],
    [
      "मेग",
      "न</w>"
    ],
    [
      "बाज्र",
      "ु"
    ],
    [
      "ट",
      "फोरखौ</w>"
    ],
    [
      "उदां",
      "स्रि</w>"
    ],
    [
      "राव",
      "बो</w>"
    ],
    [
      "अ",
      "ज"
    ],
    [
      "बाय",
      "मोन।</w>"
    ],
    [
      "बे",
      "खौबो</w>"
    ],
    [
      "इय",
      "ुन"
    ],
    [
      "मु",
      "गाय"
    ],
    [
      "जायगा",
      "फोराव</w>"
    ],
    [
      "ट",
      "'</w>"
    ],
    [
      "फिन्",
      "नायनि</w>"
    ],
    [
      "सम",
      "्रा"
    ],
    [
      "बि",
      "मुं</w>"
    ],
    [
      "मु",
      "वा</w>"
    ],
    [
      "गां",
      "से</w>"
    ],
    [
      "ट",
      "फोरा</w>"
    ],
    [
      "बादायलाय",
      "नायनि</w>"
    ],
    [
      "ब्ल",
      "ानो</w>"
    ],
    [
      "से",
      "प्"
    ],
    [
      "ह",
      "ेल"
    ],
    [
      "3",
      "1</w>"
    ],
    [
      "गो",
      "थै</w>"
    ],
    [
      "ज",
      "िय"
    ],
    [
      "जायाखै",
      "।</w>"
    ],
    [
      "लो",
      "ब्"
    ],
    [
      "स",
      "त"
    ],
    [
      "स",
      "प्ता"
    ],
    [
      "राय",
      "ा</w>"
    ],
    [
      "क",
      "'</w>"
    ],
    [
      "िक",
      "ेल</w>"
    ],
    [
      "नि",
      ",</w>"
    ],
    [
      "न",
      "ाव"
    ],
    [
      "फाहाम",
      "नो</w>"
    ],
    [
      "जे",
      "न</w>"
    ],
    [
      "जौ",
      "थाय"
    ],
    [
      "ख",
      "'</w>"
    ],
    [
      "जान",
      "ायाव</w>"
    ],
    [
      "खा",
      "म्"
    ],
    [
      "थान",
      "ां"
    ],
    [
      "मे",
      "क्सि"
    ],
    [
      "म",
      "न्ट"
    ],
    [
      "सफ्ट",
      "वे"
    ],
    [
      "बे",
      "ल्"
    ],
    [
      "मोसान",
      "ाय"
    ],
    [
      "इ",
      "जि"
    ],
    [
      "ओनसोल",
      "खौ</w>"
    ],
    [
      "रा",
      "म</w>"
    ],
    [
      "जारिमि",
      "नाव</w>"
    ],
    [
      "दा",
      "लाय</w>"
    ],
    [
      "ु",
      "नि</w>"
    ],
    [
      "गोबां",
      "सिन</w>"
    ],
    [
      "दो",
      "लो"
    ],
    [
      "थि",
      "खि"
    ],
    [
      "खा",
      "माय"
    ],
    [
      "मि",
      "उ"
    ],
    [
      "फि",
      "थाइ"
    ],
    [
      "खुं",
      "जानाय</w>"
    ],
    [
      "के",
      "म्प"
    ],
    [
      "%",
      "</w>"
    ],
    [
      "नेव",
      "सिगार"
    ],
    [
      "ए",
      "च"
    ],
    [
      "ख",
      "ै</w>"
    ],
    [
      "जु",
      "लाइ"
    ],
    [
      "थासार",
      "ियाव</w>"
    ],
    [
      "स्",
      "व"
    ],
    [
      "था",
      "ङो</w>"
    ],
    [
      "खान्",
      "थियाव</w>"
    ],
    [
      "ए",
      "सिय"
    ],
    [
      "‍‍‍‍",
      "‍‍‍‍"
    ],
    [
      "हारिमु",
      "आरि</w>"
    ],
    [
      "फे",
      "डार"
    ],
    [
      "फ",
      "ां</w>"
    ],
    [
      "राइ",
      "जोनि</w>"
    ],
    [
      "उ",
      "ल"
    ],
    [
      "दिन्थिफुं",
      "नायनि</w>"
    ],
    [
      "फ",
      "िर"
    ],
    [
      "ट",
      "फोरनि</w>"
    ],
    [
      "म",
      "फोरा</w>"
    ],
    [
      "बे",
      "क"
    ],
    [
      "आव",
      "नो</w>"
    ],
    [
      "फिन",
      "दोंमोन।</w>"
    ],
    [
      "ड",
      "ा</w>"
    ],
    [
      "सप्त",
      "ानि</w>"
    ],
    [
      "गले-",
      "गले</w>"
    ],
    [
      "जा",
      "खौ</w>"
    ],
    [
      "थि",
      ",</w>"
    ],
    [
      "सिन",
      "ाव</w>"
    ],
    [
      "हा",
      "गोन</w>"
    ],
    [
      "गा",
      "सिन"
    ],
    [
      "ज",
      "मा</w>"
    ],
    [
      "ना",
      "जा"
    ],
    [
      "दब",
      "थाय"
    ],
    [
      "199",
      "6</w>"
    ],
    [
      "सं",
      "स"
    ],
    [
      "जौ",
      "सिन</w>"
    ],
    [
      "लोर",
      "बां</w>"
    ],
    [
      "जाय",
      "हा</w>"
    ],
    [
      "ल्",
      "स</w>"
    ],
    [
      "अ",
      "ट'"
    ],
    [
      "आरि",
      ",</w>"
    ],
    [
      "स्टे",
      "शन"
    ],
    [
      "ए",
      "प"
    ],
    [
      "काउन्ट",
      "िनि</w>"
    ],
    [
      "रा",
      "नि</w>"
    ],
    [
      "महर",
      "ैबो</w>"
    ],
    [
      "सा",
      "फोरखौ</w>"
    ],
    [
      "196",
      "0</w>"
    ],
    [
      "सान",
      "खौ</w>"
    ],
    [
      "आमेरिक",
      "ा</w>"
    ],
    [
      "फोलेर",
      "ारि</w>"
    ],
    [
      "अ",
      "खा"
    ],
    [
      "बाहागो",
      "फोराव</w>"
    ],
    [
      "चेम्पियनशि",
      "प</w>"
    ],
    [
      "मे",
      "ने"
    ],
    [
      "ार",
      "ाव</w>"
    ],
    [
      "कानाड",
      "ानि</w>"
    ],
    [
      "ेट",
      "िक</w>"
    ],
    [
      "म्ब",
      "र"
    ],
    [
      "गु",
      "सु</w>"
    ],
    [
      "हि",
      "न्"
    ],
    [
      "सिन्",
      "ध"
    ],
    [
      "बेसे",
      "ना</w>"
    ],
    [
      "प",
      "ल्ल"
    ],
    [
      "बुंफुर",
      "लु"
    ],
    [
      "मा",
      "सि</w>"
    ],
    [
      "बा",
      "नि</w>"
    ],
    [
      "इसोर",
      "</w>"
    ],
    [
      "म",
      "फोर</w>"
    ],
    [
      "फोर",
      "बोनि</w>"
    ],
    [
      "द",
      "ायाव</w>"
    ],
    [
      "ब",
      "ी</w>"
    ],
    [
      "ान",
      "ाय</w>"
    ],
    [
      "इउ",
      "र"
    ],
    [
      "िया",
      "खौ</w>"
    ],
    [
      "जाब्र",
      "ब"
    ],
    [
      "ग्र",
      "ु"
    ],
    [
      "गेले",
      "नायखौ</w>"
    ],
    [
      "नुन",
      "ानै</w>"
    ],
    [
      "हम",
      "दांनो</w>"
    ],
    [
      "ज",
      "थाय"
    ],
    [
      "दाय",
      "नि"
    ],
    [
      "इउर'",
      "प"
    ],
    [
      "आर'",
      "ज</w>"
    ],
    [
      "जे",
      "ब्लासिम</w>"
    ],
    [
      "मु",
      "ङ"
    ],
    [
      "ह",
      "ेन"
    ],
    [
      ".",
      "आव</w>"
    ],
    [
      "इ",
      "लेक्"
    ],
    [
      "बाङ",
      "ाइ"
    ],
    [
      "सावथुन",
      "।</w>"
    ],
    [
      "रोखोम",
      "से"
    ],
    [
      "सान",
      "ैबो</w>"
    ],
    [
      "नङा",
      "मोन।</w>"
    ],
    [
      "क्रिक",
      "ेट</w>"
    ],
    [
      "ल",
      "क्ष"
    ],
    [
      "म्",
      "बे"
    ],
    [
      "थि",
      "फोरा</w>"
    ],
    [
      "रेबगान्",
      "थि</w>"
    ],
    [
      "अक्ट'",
      "बर"
    ],
    [
      "फराय",
      "सालि</w>"
    ],
    [
      "ख",
      "र</w>"
    ],
    [
      "सं",
      "स्क"
    ],
    [
      "र्",
      "ड</w>"
    ],
    [
      "जिब",
      "-"
    ],
    [
      "लि",
      "न</w>"
    ],
    [
      "क्",
      "ट</w>"
    ],
    [
      "सान",
      "खो</w>"
    ],
    [
      "गोबाङ",
      "ैनो</w>"
    ],
    [
      "ट्",
      "स"
    ],
    [
      "राजफोलेर",
      "नि</w>"
    ],
    [
      "बोखार",
      "नाय</w>"
    ],
    [
      "ाय",
      "ाव,</w>"
    ],
    [
      "जार्",
      "मान"
    ],
    [
      "गोनां",
      ",</w>"
    ],
    [
      "रा",
      "जानि</w>"
    ],
    [
      "फाहाम",
      "सालियाव</w>"
    ],
    [
      "भ",
      "आ</w>"
    ],
    [
      "पाकिस्त",
      "ाननि</w>"
    ],
    [
      "ान",
      "खौ</w>"
    ],
    [
      "-",
      "दाव"
    ],
    [
      "हि",
      "माल"
    ],
    [
      "बिसोर",
      "नो</w>"
    ],
    [
      "म",
      "फोरखौ</w>"
    ],
    [
      "जार्",
      "मान</w>"
    ],
    [
      "प्र",
      "ा"
    ],
    [
      "नोंथां",
      "नाव</w>"
    ],
    [
      "जिल्ल",
      "ा</w>"
    ],
    [
      "स्ट्र",
      "ि"
    ],
    [
      "विक",
      "ि"
    ],
    [
      "सि",
      "ख"
    ],
    [
      "गेले",
      "गिरि</w>"
    ],
    [
      "खुं",
      "थायारि</w>"
    ],
    [
      "दै",
      "खां"
    ],
    [
      "निउ",
      "यर्"
    ],
    [
      "द",
      "ी</w>"
    ],
    [
      "फं",
      "बाय"
    ],
    [
      "दा",
      "नि</w>"
    ],
    [
      "5",
      "0"
    ],
    [
      "सिगां",
      "निफ्रायनो</w>"
    ],
    [
      "आर",
      "ज</w>"
    ],
    [
      "मोन",
      "दों।</w>"
    ],
    [
      "अनु",
      "मान</w>"
    ],
    [
      "ने",
      "पा"
    ],
    [
      "बां",
      "ग्ला"
    ],
    [
      "बोन",
      "ाय</w>"
    ],
    [
      "बि",
      "थिं"
    ],
    [
      "डि",
      "ं</w>"
    ],
    [
      "राज",
      "थावनि"
    ],
    [
      "गाव",
      "स्र"
    ],
    [
      "गो",
      "सा</w>"
    ],
    [
      "सि",
      "ङ"
    ],
    [
      "गोर",
      "्"
    ],
    [
      "क्क",
      "ि"
    ],
    [
      "न्ड",
      "ार</w>"
    ],
    [
      "दावबाय",
      "ारि</w>"
    ],
    [
      "ए",
      "लि"
    ],
    [
      "सा",
      "उ"
    ],
    [
      "सिम",
      "ाव</w>"
    ],
    [
      "हां",
      "खो"
    ],
    [
      "रो",
      "गा"
    ],
    [
      "उन",
      "सं"
    ],
    [
      "च",
      "ौ"
    ],
    [
      "िक",
      "ा"
    ],
    [
      "अ",
      "र</w>"
    ],
    [
      "बिफ",
      "ा</w>"
    ],
    [
      "अनगाय",
      "ै</w>"
    ],
    [
      "रु",
      "गुं"
    ],
    [
      "हम",
      "ो।</w>"
    ],
    [
      "कम",
      "प्यु"
    ],
    [
      "फारि",
      "नि</w>"
    ],
    [
      "फारि",
      "खौ</w>"
    ],
    [
      "ध",
      "ोन"
    ],
    [
      "जागाय",
      "ो।</w>"
    ],
    [
      "नागिर",
      "नो</w>"
    ],
    [
      "खुं",
      "दोंमोन।</w>"
    ],
    [
      "त",
      "आ</w>"
    ],
    [
      "अन्",
      "थाइ"
    ],
    [
      "सम",
      "ावनो,</w>"
    ],
    [
      "बिर",
      "ों"
    ],
    [
      "शा",
      "स्त्र"
    ],
    [
      "रेकर्",
      "ड</w>"
    ],
    [
      "बायदि",
      ",</w>"
    ],
    [
      "से",
      "न</w>"
    ],
    [
      "न",
      "ां</w>"
    ],
    [
      "सुबुं",
      "फोरजों</w>"
    ],
    [
      "ओं",
      "थि</w>"
    ],
    [
      "ब",
      "लनि</w>"
    ],
    [
      "बें",
      "क</w>"
    ],
    [
      "काउन्ट",
      "ीनि</w>"
    ],
    [
      "ो",
      "मोन</w>"
    ],
    [
      "हाय",
      "ु"
    ],
    [
      "थुन",
      "फाव"
    ],
    [
      "199",
      "5</w>"
    ],
    [
      "दान",
      "ाव</w>"
    ],
    [
      "थ",
      "ेल"
    ],
    [
      "ार",
      ",</w>"
    ],
    [
      "गामि",
      "नि</w>"
    ],
    [
      "न",
      "ियानि</w>"
    ],
    [
      "आयेन",
      "ारि</w>"
    ],
    [
      "ला",
      "ख</w>"
    ],
    [
      "बाय",
      "नाय</w>"
    ],
    [
      "म",
      "डेल"
    ],
    [
      "से",
      "के"
    ],
    [
      "बाय",
      "'"
    ],
    [
      "लिर",
      "</w>"
    ],
    [
      "हो",
      "जादोंमोन।</w>"
    ],
    [
      "फोजोब",
      "नो</w>"
    ],
    [
      "िय",
      "'</w>"
    ],
    [
      "ड्र",
      "ाइ"
    ],
    [
      "फिन",
      "नो</w>"
    ],
    [
      "म",
      "नि"
    ],
    [
      "हाय",
      "ाखै"
    ],
    [
      "नाय",
      "फोराव</w>"
    ],
    [
      "ला",
      "द्दा"
    ],
    [
      "व",
      "ाय"
    ],
    [
      "खामानि",
      "खौ</w>"
    ],
    [
      "ड़",
      "</w>"
    ],
    [
      "सि",
      "ं</w>"
    ],
    [
      "ग",
      "सं"
    ],
    [
      "मानसि",
      "फोरखौ</w>"
    ],
    [
      "ला",
      "दोंमोन,</w>"
    ],
    [
      "सोन",
      "ो</w>"
    ],
    [
      "सुबुं",
      "खौ</w>"
    ],
    [
      "-",
      "ए"
    ],
    [
      "दा",
      "बा</w>"
    ],
    [
      "2",
      ","
    ],
    [
      "इउर'",
      "पनि</w>"
    ],
    [
      "बर",
      "फ</w>"
    ],
    [
      "व",
      "ै"
    ],
    [
      "भ",
      "ेर"
    ],
    [
      "बाहाय",
      "नाया</w>"
    ],
    [
      "ला",
      "।</w>"
    ],
    [
      ".",
      ")</w>"
    ],
    [
      "लाइ",
      "न"
    ],
    [
      "े",
      "न्ट"
    ],
    [
      "इलि",
      "न'इ"
    ],
    [
      "ो",
      "दि</w>"
    ],
    [
      "दैदे",
      "न्"
    ],
    [
      "ु",
      "आ</w>"
    ],
    [
      "लासै",
      "-"
    ],
    [
      "बिसायख'",
      "थियाव</w>"
    ],
    [
      "रायजो",
      "आ</w>"
    ],
    [
      "स्",
      "वा"
    ],
    [
      "मुं",
      "जों</w>"
    ],
    [
      "ाव",
      "ल'</w>"
    ],
    [
      "ह्",
      "म"
    ],
    [
      "दाव",
      "राव"
    ],
    [
      "जागायजेन",
      "ो।</w>"
    ],
    [
      "आसार",
      "-"
    ],
    [
      "ल",
      "ेटि"
    ],
    [
      "श",
      "ाय"
    ],
    [
      "ए",
      "न्ज"
    ],
    [
      "फोरबो",
      "खौ</w>"
    ],
    [
      "इउ",
      ".एस.</w>"
    ],
    [
      "रिपाब्ल",
      "िक"
    ],
    [
      "प्र",
      "ग्रा"
    ],
    [
      "इन्ड",
      "िया</w>"
    ],
    [
      "बिजिर",
      "सालिनि</w>"
    ],
    [
      "गोनां",
      "सिन</w>"
    ],
    [
      "सा",
      "सन</w>"
    ],
    [
      "सन",
      "खौ</w>"
    ],
    [
      "बान",
      "ा</w>"
    ],
    [
      "खोमान",
      "ा</w>"
    ],
    [
      "माव",
      "नाय</w>"
    ],
    [
      "जि",
      "-जो"
    ],
    [
      "नाङ",
      "ैनो</w>"
    ],
    [
      "बि",
      "ल्"
    ],
    [
      "ड",
      "ार</w>"
    ],
    [
      "सोल",
      "'</w>"
    ],
    [
      "सन्",
      "दे"
    ],
    [
      "मि",
      "क</w>"
    ],
    [
      "नों",
      "खौ</w>"
    ],
    [
      "मुवा",
      "फोरखौ</w>"
    ],
    [
      "बार",
      "देर"
    ],
    [
      "व",
      "ेल"
    ],
    [
      "ी",
      "जों</w>"
    ],
    [
      "ल",
      "म</w>"
    ],
    [
      "होन",
      "ाया</w>"
    ],
    [
      "फ",
      "ार</w>"
    ],
    [
      "बारह",
      "ाव"
    ],
    [
      "उ",
      "रि"
    ],
    [
      "मोन",
      "दोंमोन</w>"
    ],
    [
      "ग",
      "लाय"
    ],
    [
      "मुंदांखा",
      "सिन</w>"
    ],
    [
      "ारि",
      "नि</w>"
    ],
    [
      "गेलेमु",
      "आ</w>"
    ],
    [
      "19",
      "थि</w>"
    ],
    [
      "कार्",
      "ड</w>"
    ],
    [
      "दङ",
      "</w>"
    ],
    [
      "ल'",
      "जि"
    ],
    [
      "दा",
      "ब"
    ],
    [
      "मोन",
      "!</w>"
    ],
    [
      "फालांगि",
      "नि</w>"
    ],
    [
      "सिंह",
      "</w>"
    ],
    [
      "फं",
      "बाय</w>"
    ],
    [
      "हायु",
      "ङारि</w>"
    ],
    [
      "आ",
      "नो</w>"
    ],
    [
      "श",
      "ननि</w>"
    ],
    [
      "बाय",
      "नायनि</w>"
    ],
    [
      "नां",
      "दोंमोन।</w>"
    ],
    [
      "सान्",
      "थ्रि"
    ],
    [
      "थुन",
      "लाइ"
    ],
    [
      "आउ",
      "ट</w>"
    ],
    [
      "बि",
      "मा</w>"
    ],
    [
      "ड",
      "ेट"
    ],
    [
      "बेसाद",
      "नि</w>"
    ],
    [
      "खालाम",
      "गोन।</w>"
    ],
    [
      "मुङ",
      "ैबो</w>"
    ],
    [
      "ो",
      "!</w>"
    ],
    [
      "नु",
      "जादोंमोन।</w>"
    ],
    [
      "दिल्ल",
      "ीनि</w>"
    ],
    [
      "द",
      "ख"
    ],
    [
      "राज",
      "</w>"
    ],
    [
      "फोथाय",
      "ो</w>"
    ],
    [
      "खे",
      "बनि</w>"
    ],
    [
      "इ",
      "ड</w>"
    ],
    [
      "आफा",
      "द</w>"
    ],
    [
      "फोरमाय",
      "ो।</w>"
    ],
    [
      "ग",
      "थ'</w>"
    ],
    [
      "गेले",
      "नायाव</w>"
    ],
    [
      "श",
      "आ</w>"
    ],
    [
      "फोर",
      "निख्रुइ</w>"
    ],
    [
      "थ",
      "आ</w>"
    ],
    [
      "टुर्ना",
      "मेन्ट"
    ],
    [
      "हा",
      "ग्रा"
    ],
    [
      "स्",
      "कि"
    ],
    [
      "आफाद",
      "गिरि</w>"
    ],
    [
      "गढ़",
      "</w>"
    ],
    [
      "हम",
      "दोंमोन।</w>"
    ],
    [
      "हान्",
      "जायाव</w>"
    ],
    [
      "खामानि",
      "नि</w>"
    ],
    [
      "गाम",
      "ियारि</w>"
    ],
    [
      "सा",
      "फोर</w>"
    ],
    [
      "ह",
      "िर"
    ],
    [
      "सोर",
      "</w>"
    ],
    [
      "हम",
      "नो</w>"
    ],
    [
      "महर",
      "नि</w>"
    ],
    [
      "बै",
      "फोर</w>"
    ],
    [
      "बै",
      "सो</w>"
    ],
    [
      "वे",
      "स्ट</w>"
    ],
    [
      "ब",
      "ानो</w>"
    ],
    [
      "दि",
      "नै"
    ],
    [
      "खाव",
      "से"
    ],
    [
      "एका",
      "दे"
    ],
    [
      "बुं",
      "दोंमोन।</w>"
    ],
    [
      "बोखाव",
      "नाय</w>"
    ],
    [
      "दं",
      "फां"
    ],
    [
      "स्ट",
      "ी"
    ],
    [
      "डि",
      "ग्र"
    ],
    [
      "आ",
      "सा</w>"
    ],
    [
      "व",
      "्"
    ],
    [
      "जार्मानि",
      "नि</w>"
    ],
    [
      "खैफो",
      "द</w>"
    ],
    [
      "होन",
      "नानै</w>"
    ],
    [
      ".",
      "मि"
    ],
    [
      "उन",
      "ावनो</w>"
    ],
    [
      "शा",
      "ह</w>"
    ],
    [
      "ज",
      ",</w>"
    ],
    [
      "आन",
      "न्द"
    ],
    [
      "सोलाय",
      "-"
    ],
    [
      "कार",
      "ा</w>"
    ],
    [
      "2",
      "-"
    ],
    [
      "लां",
      "दां</w>"
    ],
    [
      "ध",
      "्य"
    ],
    [
      "मिन्",
      "थिनाय</w>"
    ],
    [
      "जानाय",
      "जों</w>"
    ],
    [
      "क",
      "ानि</w>"
    ],
    [
      "र",
      "िया</w>"
    ],
    [
      "हाबा",
      "फारि</w>"
    ],
    [
      "त",
      "ेलु"
    ],
    [
      "आ",
      "ब"
    ],
    [
      "हादोर",
      "फोरनि</w>"
    ],
    [
      "ब'",
      "र्ड"
    ],
    [
      "जय",
      "ै</w>"
    ],
    [
      "ए",
      ".</w>"
    ],
    [
      "जिउ",
      "राहायारि</w>"
    ],
    [
      "सि",
      "दो"
    ],
    [
      "अलिम्पिक",
      "आव</w>"
    ],
    [
      "इउन",
      "िय"
    ],
    [
      "साम्राय",
      "जो"
    ],
    [
      "ग",
      "खौ</w>"
    ],
    [
      "ली",
      "आ</w>"
    ],
    [
      "नाय",
      "सै।</w>"
    ],
    [
      "क",
      "े</w>"
    ],
    [
      "जागायजेन्",
      "नायाव</w>"
    ],
    [
      "सु",
      "पार"
    ],
    [
      "मोन",
      "गोन।</w>"
    ],
    [
      "है",
      "दोंमोन।</w>"
    ],
    [
      "गोसो",
      "खौ</w>"
    ],
    [
      "दावराव",
      "-दाव"
    ],
    [
      "ला",
      "मानि</w>"
    ],
    [
      "फ",
      "आ</w>"
    ],
    [
      "सोलों",
      "थाय</w>"
    ],
    [
      "फोजोब",
      "दोंमोन।</w>"
    ],
    [
      "199",
      "2</w>"
    ],
    [
      "फ्र",
      "ु"
    ],
    [
      "हाय",
      "ा"
    ],
    [
      "ड्र",
      "े"
    ],
    [
      "खम",
      "ैबो</w>"
    ],
    [
      "बाय",
      "ा</w>"
    ],
    [
      "सुबुं",
      "फोरनाव</w>"
    ],
    [
      "उ",
      "</w>"
    ],
    [
      "के",
      "स"
    ],
    [
      "उ",
      "न्"
    ],
    [
      "साजाय",
      "नाय</w>"
    ],
    [
      "आरिमु",
      "</w>"
    ],
    [
      "म",
      "स्"
    ],
    [
      "जुन",
      "ार</w>"
    ],
    [
      "भ",
      "ेन"
    ],
    [
      "बुहु",
      "म"
    ],
    [
      "ेटि",
      "ं</w>"
    ],
    [
      "ख",
      "ृ"
    ],
    [
      "बि",
      "लाइ</w>"
    ],
    [
      "फ्",
      "ट</w>"
    ],
    [
      "ग्रा",
      "ह"
    ],
    [
      "ब्र",
      "ान्"
    ],
    [
      "माइल",
      ")</w>"
    ],
    [
      "प",
      "द्"
    ],
    [
      "सान",
      "ै"
    ],
    [
      "बिफ",
      "ाव"
    ],
    [
      "नो",
      "बो</w>"
    ],
    [
      "मा",
      "जों</w>"
    ],
    [
      "गोसो",
      "खां</w>"
    ],
    [
      "खालाम",
      "ना</w>"
    ],
    [
      "दान",
      "रेब्"
    ],
    [
      "गोर",
      "ान</w>"
    ],
    [
      "सि",
      "क्कि"
    ],
    [
      "द्व",
      "ी"
    ],
    [
      "मिट",
      "ारनि</w>"
    ],
    [
      "खोन्दो",
      "आव</w>"
    ],
    [
      "2",
      "."
    ],
    [
      "डा",
      "क्ट"
    ],
    [
      "बि",
      "लिय"
    ],
    [
      "डे",
      "म'"
    ],
    [
      "दु",
      "र्"
    ],
    [
      "ज",
      "य</w>"
    ],
    [
      "फे",
      "जेनदोंमोन।</w>"
    ],
    [
      "ा",
      "ला"
    ],
    [
      "थों",
      "जो"
    ],
    [
      "जा",
      "थाय</w>"
    ],
    [
      "म्ब",
      "राव</w>"
    ],
    [
      "गिरि",
      "आ</w>"
    ],
    [
      "क्र",
      "ा"
    ],
    [
      "मो",
      "सौ"
    ],
    [
      "य",
      "े"
    ],
    [
      "वर",
      "्ल्"
    ],
    [
      "त्र",
      "</w>"
    ],
    [
      "बेखेव",
      "नाय</w>"
    ],
    [
      "आं",
      "नो</w>"
    ],
    [
      "बि",
      "ख"
    ],
    [
      "ाव",
      "मोन।</w>"
    ],
    [
      "हार",
      "ियारि</w>"
    ],
    [
      "लाय",
      "ारि</w>"
    ],
    [
      "क",
      "ल्"
    ],
    [
      "नि",
      "मा"
    ],
    [
      "आ",
      "फ"
    ],
    [
      "लिर",
      "गिरि</w>"
    ],
    [
      "आव",
      "ग्रि"
    ],
    [
      "जानां",
      "गौ।</w>"
    ],
    [
      "खाथि",
      "खा"
    ],
    [
      "त",
      "ार"
    ],
    [
      "फान",
      "ाय</w>"
    ],
    [
      "से",
      "ं"
    ],
    [
      "जिर",
      "ा"
    ],
    [
      "ान",
      "ा"
    ],
    [
      "रु",
      "गु"
    ],
    [
      "थाय",
      "फोरा</w>"
    ],
    [
      "ड",
      "जों</w>"
    ],
    [
      "ाय",
      "ारि</w>"
    ],
    [
      "दै",
      "बाज्रु"
    ],
    [
      "सा-",
      "सानजा</w>"
    ],
    [
      "ो",
      "ल</w>"
    ],
    [
      "ए",
      "काउन्ट"
    ],
    [
      "केर",
      "'"
    ],
    [
      "गैय",
      "ा,</w>"
    ],
    [
      "न्ड",
      "'"
    ],
    [
      "अराय",
      "था</w>"
    ],
    [
      "जि",
      "न</w>"
    ],
    [
      "फे",
      "हेर"
    ],
    [
      "थान्",
      "दै</w>"
    ],
    [
      "प्र",
      "देश</w>"
    ],
    [
      "ब",
      "द"
    ],
    [
      "बिथां",
      "खि</w>"
    ],
    [
      "बि",
      "या"
    ],
    [
      "हादोर",
      "ाव</w>"
    ],
    [
      "डल",
      "ारनि</w>"
    ],
    [
      "अन्",
      "थाइनि</w>"
    ],
    [
      "ओं",
      "खा"
    ],
    [
      "20",
      "थि</w>"
    ],
    [
      "ब",
      "ारि</w>"
    ],
    [
      "व",
      "ेर"
    ],
    [
      "मुसल",
      "मान"
    ],
    [
      "ना",
      "थ</w>"
    ],
    [
      "ली",
      "वु"
    ],
    [
      "ब",
      "ंग"
    ],
    [
      "जानाय",
      "मोन।</w>"
    ],
    [
      "स",
      "ौ</w>"
    ],
    [
      "गाग्लोब",
      "नायनि</w>"
    ],
    [
      "जा",
      "थायनि</w>"
    ],
    [
      "खुं",
      "थाय</w>"
    ],
    [
      "सों",
      "खारि"
    ],
    [
      "बानाय",
      "जानाय</w>"
    ],
    [
      "रौनिया",
      "फोरखौ</w>"
    ],
    [
      "हाय",
      "ै</w>"
    ],
    [
      "ारि",
      "फोरनि</w>"
    ],
    [
      "बबे",
      "बा</w>"
    ],
    [
      "सम",
      "सिम</w>"
    ],
    [
      "न्",
      "य"
    ],
    [
      "न",
      "-"
    ],
    [
      "उन्द",
      "ु"
    ],
    [
      "स",
      "र्"
    ],
    [
      "डे",
      "न</w>"
    ],
    [
      "मेर",
      "ि"
    ],
    [
      "अनजि",
      "माखौ</w>"
    ],
    [
      "ले",
      "खा</w>"
    ],
    [
      "त",
      "िर"
    ],
    [
      "ए",
      "पि"
    ],
    [
      "क्ल",
      "े"
    ],
    [
      "लु",
      "इ"
    ],
    [
      "क",
      "िक"
    ],
    [
      "क्रिक",
      "ेट"
    ],
    [
      "क्",
      "वा"
    ],
    [
      "थोंजो",
      "ङै</w>"
    ],
    [
      "खु",
      "सि</w>"
    ],
    [
      "मे",
      "थाइनि</w>"
    ],
    [
      "जों",
      "नो</w>"
    ],
    [
      "जाहोन",
      "ा</w>"
    ],
    [
      "सम",
      "निफ्रायनो</w>"
    ],
    [
      "नामा",
      "?</w>"
    ],
    [
      "टि",
      "उ"
    ],
    [
      "खै",
      "मोन।</w>"
    ],
    [
      "ह",
      "ों"
    ],
    [
      "फोर",
      "मोन।</w>"
    ],
    [
      "हार",
      "आ</w>"
    ],
    [
      "सम",
      "जों</w>"
    ],
    [
      "अ",
      "ब"
    ],
    [
      "क्रान्",
      "त"
    ],
    [
      "ेन",
      "आ</w>"
    ],
    [
      "क्ल",
      "'"
    ],
    [
      "फाइना",
      "लाव</w>"
    ],
    [
      "सिंह",
      "आ</w>"
    ],
    [
      "स्ट",
      "नि</w>"
    ],
    [
      "द",
      "र्"
    ],
    [
      "सिज",
      "ननि</w>"
    ],
    [
      "194",
      "7</w>"
    ],
    [
      "आन्",
      "जा"
    ],
    [
      "थ",
      "ौ</w>"
    ],
    [
      "ज",
      "ाव</w>"
    ],
    [
      "ज",
      "ारि</w>"
    ],
    [
      "ा",
      "म</w>"
    ],
    [
      "मोन",
      "द'</w>"
    ],
    [
      "ग",
      "ंगा</w>"
    ],
    [
      "बो",
      "मोन।</w>"
    ],
    [
      "खुं",
      "थाइनि</w>"
    ],
    [
      "बि",
      "सावराय"
    ],
    [
      "सि",
      "आ</w>"
    ],
    [
      "ब",
      "्या"
    ],
    [
      "खुं",
      "थाइ"
    ],
    [
      "बा",
      "स्केट"
    ],
    [
      "गामि",
      "।</w>"
    ],
    [
      "ह",
      "ी"
    ],
    [
      "जाहोन",
      "ाव,</w>"
    ],
    [
      "हिन्",
      "जाव"
    ],
    [
      "आव",
      "गाय"
    ],
    [
      "मे",
      "य"
    ],
    [
      "ल",
      "ीनि</w>"
    ],
    [
      "र",
      "ू"
    ],
    [
      "रौनिया",
      "फोरा</w>"
    ],
    [
      "ोर",
      "</w>"
    ],
    [
      "ह",
      "'</w>"
    ],
    [
      "खन्",
      "थाइ"
    ],
    [
      "डि",
      "फे"
    ],
    [
      "फि",
      "सा-"
    ],
    [
      "राज",
      "ि</w>"
    ],
    [
      "दिदो",
      "म"
    ],
    [
      "-",
      "आ"
    ],
    [
      "सरासनस्र",
      "ा"
    ],
    [
      "खालाम",
      "नाय।</w>"
    ],
    [
      "थों",
      "जों</w>"
    ],
    [
      "स",
      "ू"
    ],
    [
      "प",
      "इन्ट"
    ],
    [
      "इन्टार",
      "नेट</w>"
    ],
    [
      "मोन्दां",
      "थि</w>"
    ],
    [
      "ड",
      "ेल</w>"
    ],
    [
      "ओरै",
      "बादि</w>"
    ],
    [
      "3",
      "5</w>"
    ],
    [
      "बानाय",
      "ो।</w>"
    ],
    [
      "गोद",
      "ानै</w>"
    ],
    [
      "बे",
      "क</w>"
    ],
    [
      "बादायलाय",
      "नायखौ</w>"
    ],
    [
      "1",
      "-"
    ],
    [
      "दै",
      "याव</w>"
    ],
    [
      "जायो",
      "मोन,</w>"
    ],
    [
      "था",
      "ङ"
    ],
    [
      "खो",
      "मा"
    ],
    [
      "ना",
      "।</w>"
    ],
    [
      "बिहो",
      "मा</w>"
    ],
    [
      "ान",
      ",</w>"
    ],
    [
      "बेसे",
      "नखौ</w>"
    ],
    [
      "गेले",
      "गिरिया</w>"
    ],
    [
      "गं",
      "-"
    ],
    [
      "नाय",
      "नाय</w>"
    ],
    [
      "मानसि",
      "फ्रा</w>"
    ],
    [
      "खुंथाय",
      "।</w>"
    ],
    [
      "त्रि",
      "पु"
    ],
    [
      "मार्च",
      ",</w>"
    ],
    [
      "रा",
      "सियानि</w>"
    ],
    [
      "बिथांमोन",
      "नि</w>"
    ],
    [
      "ेल",
      "ा</w>"
    ],
    [
      "ा",
      "जों</w>"
    ],
    [
      "प",
      "इ"
    ],
    [
      "माराठ",
      "ा</w>"
    ],
    [
      "फरायसालि",
      "नि</w>"
    ],
    [
      "ग्रा",
      "खौ</w>"
    ],
    [
      "I",
      "I"
    ],
    [
      "जा",
      "गोन,</w>"
    ],
    [
      "दोंमोन",
      ";</w>"
    ],
    [
      "195",
      "0</w>"
    ],
    [
      "बिफां",
      "-"
    ],
    [
      "भु",
      "म"
    ],
    [
      "मुवा",
      "फोर</w>"
    ],
    [
      "न्ड",
      "ार"
    ],
    [
      "हाउ",
      "स</w>"
    ],
    [
      "ए",
      "ल</w>"
    ],
    [
      "डेम'",
      "क्र"
    ],
    [
      "हान",
      "जायाव</w>"
    ],
    [
      "पु",
      "ल"
    ],
    [
      "लिं",
      "हर"
    ],
    [
      "स",
      "हाय"
    ],
    [
      "ग्रा",
      "फोर</w>"
    ],
    [
      "मि",
      "ल"
    ],
    [
      "'",
      ",</w>"
    ],
    [
      "आखा",
      "-फा"
    ],
    [
      "र",
      "िया"
    ],
    [
      "नेर",
      "सोन</w>"
    ],
    [
      "डिग्र",
      "ी</w>"
    ],
    [
      "खर",
      "ं"
    ],
    [
      "नोगोर",
      "नि</w>"
    ],
    [
      "गा",
      "खो"
    ],
    [
      "जे",
      "सेबां</w>"
    ],
    [
      "199",
      "3</w>"
    ],
    [
      "ल",
      "ेट</w>"
    ],
    [
      "ए",
      "स</w>"
    ],
    [
      "पे",
      "नाल्"
    ],
    [
      "मे",
      "इ"
    ],
    [
      "ड",
      "े</w>"
    ],
    [
      "लोब्",
      "बा</w>"
    ],
    [
      "18",
      "5"
    ],
    [
      "सौहै",
      "दोंमोन।</w>"
    ],
    [
      "गोर",
      "लै"
    ],
    [
      "अडि",
      "श"
    ],
    [
      "बे",
      "ल</w>"
    ],
    [
      "क्ट",
      "र</w>"
    ],
    [
      "ए",
      "ट"
    ],
    [
      "लाइ",
      "जा"
    ],
    [
      "र",
      "फोरा</w>"
    ],
    [
      "ए",
      "सेबां</w>"
    ],
    [
      "गेजेर",
      "नि</w>"
    ],
    [
      "नां",
      "जाब"
    ],
    [
      "रे",
      "न्ट"
    ],
    [
      "जा",
      "मुं"
    ],
    [
      "क्रे",
      "डि"
    ],
    [
      "बिगु",
      "रनि</w>"
    ],
    [
      "बारहुं",
      "खा</w>"
    ],
    [
      "सो",
      "लो"
    ],
    [
      "फोसाव",
      "जादोंमोन।</w>"
    ],
    [
      "थेव",
      "ब्लाबो</w>"
    ],
    [
      "गोरोब",
      "लाय"
    ],
    [
      "दख",
      "ल</w>"
    ],
    [
      "बो",
      "सोन"
    ],
    [
      "ल",
      "ं"
    ],
    [
      "गा",
      "मि</w>"
    ],
    [
      "गाव",
      "जों"
    ],
    [
      "रा",
      "साय"
    ],
    [
      "ग",
      "न्"
    ],
    [
      "सान",
      "ो</w>"
    ],
    [
      "दि",
      "क</w>"
    ],
    [
      "डिजाइ",
      "न</w>"
    ],
    [
      "लेन्ड",
      "आ</w>"
    ],
    [
      "ाय",
      "ै,</w>"
    ],
    [
      "बे",
      "न्"
    ],
    [
      "ट",
      "फोर</w>"
    ],
    [
      "मार्श",
      "ियेल</w>"
    ],
    [
      "पु",
      "र्"
    ],
    [
      "199",
      "4</w>"
    ],
    [
      "ल",
      "क"
    ],
    [
      "फावखुं",
      "ग्रि</w>"
    ],
    [
      "सम",
      "खौ</w>"
    ],
    [
      "इ",
      "हु"
    ],
    [
      "बार",
      "ाय"
    ],
    [
      "मानि",
      "फ्राय</w>"
    ],
    [
      "सोर",
      "ां"
    ],
    [
      "देंखो",
      "आरि</w>"
    ],
    [
      "म",
      "िया</w>"
    ],
    [
      "गेले",
      "ग्रा</w>"
    ],
    [
      "फे",
      "ग्रा</w>"
    ],
    [
      "सा",
      "त"
    ],
    [
      "ग",
      "थाय"
    ],
    [
      "ने",
      "हर"
    ],
    [
      "फ्र",
      "ाव</w>"
    ],
    [
      "जा",
      "दों"
    ],
    [
      "स",
      "भ"
    ],
    [
      "ि",
      "आ</w>"
    ],
    [
      "हर",
      "</w>"
    ],
    [
      "गिबि",
      "खेब</w>"
    ],
    [
      "के",
      "न"
    ],
    [
      "दो",
      "ल"
    ],
    [
      "जोब",
      "दोंमोन।</w>"
    ],
    [
      "जागायजेन्",
      "नाय</w>"
    ],
    [
      "बिरों",
      "दा"
    ],
    [
      "दिन्थि",
      "नो</w>"
    ],
    [
      "ह",
      "की</w>"
    ],
    [
      "बार",
      "ग'</w>"
    ],
    [
      "जोबनाय",
      "ाव,</w>"
    ],
    [
      "े",
      "शन</w>"
    ],
    [
      "स्",
      "नि"
    ],
    [
      "मो",
      "दाय"
    ],
    [
      "खोख्ल",
      "ैनो</w>"
    ],
    [
      "थि",
      "फोरनि</w>"
    ],
    [
      "था",
      "ल"
    ],
    [
      "थु",
      "</w>"
    ],
    [
      "मे",
      "घा"
    ],
    [
      "'",
      "आव</w>"
    ],
    [
      "दान्थे",
      "-बि"
    ],
    [
      "साहा",
      "थिं</w>"
    ],
    [
      "खु",
      "र"
    ],
    [
      "फै",
      "गौ</w>"
    ],
    [
      "मोननै",
      "बो</w>"
    ],
    [
      "सेबखां",
      "नाय</w>"
    ],
    [
      "न्",
      "त"
    ],
    [
      "सोनाब",
      "ाव</w>"
    ],
    [
      "हाबा",
      "नि</w>"
    ],
    [
      "दिहुन",
      "दोंमोन।</w>"
    ],
    [
      "सोलाय",
      "नायनि</w>"
    ],
    [
      "7",
      "5</w>"
    ],
    [
      "दावबाय",
      "नायनि</w>"
    ],
    [
      "मु",
      "ङाव</w>"
    ],
    [
      "क",
      "ल'"
    ],
    [
      "199",
      "7</w>"
    ],
    [
      "स",
      "निफ्राय</w>"
    ],
    [
      "ए",
      "सियानि</w>"
    ],
    [
      "था",
      ",</w>"
    ],
    [
      "द",
      "ाया</w>"
    ],
    [
      "आ",
      "थोन</w>"
    ],
    [
      "बे",
      "स"
    ],
    [
      "सान",
      "फ्रोमबो</w>"
    ],
    [
      "सायख'",
      "जानाय</w>"
    ],
    [
      "फिल्",
      "म"
    ],
    [
      "सान",
      "रि"
    ],
    [
      "थोन",
      "ि</w>"
    ],
    [
      "आनजा",
      "द"
    ],
    [
      "लासै-",
      "लासै</w>"
    ],
    [
      "फा",
      "खौ</w>"
    ],
    [
      "य",
      "ुन"
    ],
    [
      "बिबुं",
      "थि</w>"
    ],
    [
      "जेनेर",
      "ेल</w>"
    ],
    [
      ".",
      "अ"
    ],
    [
      "गिरि",
      "जों</w>"
    ],
    [
      "गोरल",
      "ैयै</w>"
    ],
    [
      "से",
      "न"
    ],
    [
      "बा",
      "थि</w>"
    ],
    [
      "ल",
      "िया</w>"
    ],
    [
      "हारि",
      "नि</w>"
    ],
    [
      "बिसोर",
      "हा</w>"
    ],
    [
      "ली",
      "ग</w>"
    ],
    [
      "ग्रा",
      ",</w>"
    ],
    [
      "रा",
      "हाया</w>"
    ],
    [
      "खर्",
      "सा</w>"
    ],
    [
      "खोला-",
      "सानजा</w>"
    ],
    [
      "ड्र",
      "ि"
    ],
    [
      "मु",
      "गल"
    ],
    [
      "ग्र",
      "ेट</w>"
    ],
    [
      "हाब",
      "नो</w>"
    ],
    [
      "4",
      "5</w>"
    ],
    [
      "हा",
      "दोंमोन</w>"
    ],
    [
      "ला",
      "ल</w>"
    ],
    [
      "रायज्ल",
      "ायनो</w>"
    ],
    [
      "बि",
      "गो"
    ],
    [
      "सान",
      "जायारि</w>"
    ],
    [
      "रोखोम",
      "खौ</w>"
    ],
    [
      "थान",
      "सालि</w>"
    ],
    [
      "ड",
      "िया</w>"
    ],
    [
      "बिसोर",
      "नाव</w>"
    ],
    [
      "गेलेमु",
      "आव</w>"
    ],
    [
      "ग्रा",
      "फि"
    ],
    [
      "मन्दिर",
      "ा</w>"
    ],
    [
      "थेरा",
      "पि"
    ],
    [
      "टि",
      "भ</w>"
    ],
    [
      "र",
      "ंग"
    ],
    [
      "हरखा",
      "बै</w>"
    ],
    [
      "र",
      "ारि</w>"
    ],
    [
      "से",
      "नआ</w>"
    ],
    [
      "सौ",
      "फै"
    ],
    [
      "खर",
      "'</w>"
    ],
    [
      "अन",
      "गा</w>"
    ],
    [
      "जुनिय",
      "ायै</w>"
    ],
    [
      "गि",
      "ख्र"
    ],
    [
      "फिसा",
      "जो</w>"
    ],
    [
      "पइ",
      "न्ट</w>"
    ],
    [
      "बे",
      "बायदि"
    ],
    [
      "बि",
      "नान"
    ],
    [
      "न",
      "फोरा</w>"
    ],
    [
      "सु",
      "थु"
    ],
    [
      "फ",
      "र"
    ],
    [
      "मिलिय",
      "न"
    ],
    [
      "जागायजेन्",
      "दोंमोन।</w>"
    ],
    [
      "था",
      "दोंमोन</w>"
    ],
    [
      "न्ड",
      "नि</w>"
    ],
    [
      "ए",
      "डि"
    ],
    [
      ".",
      "खौ</w>"
    ],
    [
      "आ",
      "न्द"
    ],
    [
      "केलि",
      "फ'र्"
    ],
    [
      "ं",
      "ट"
    ],
    [
      "श",
      "पिं</w>"
    ],
    [
      "ं",
      "गु"
    ],
    [
      "कु",
      "म्"
    ],
    [
      "सान्",
      "नाय</w>"
    ],
    [
      "जि",
      "नि</w>"
    ],
    [
      "गिख्र",
      "ं"
    ],
    [
      "कु",
      "मार</w>"
    ],
    [
      "इन्",
      "जु"
    ],
    [
      "राज",
      "खान्थि"
    ],
    [
      "सा",
      "ह"
    ],
    [
      "ड",
      "ु</w>"
    ],
    [
      "बुं",
      "नो</w>"
    ],
    [
      "ची",
      "ननि</w>"
    ],
    [
      "थि",
      "गोनां</w>"
    ],
    [
      "मायथाइ",
      "आव</w>"
    ],
    [
      "गाज्रि",
      "सिन</w>"
    ],
    [
      "प्",
      "प"
    ],
    [
      "हाबाफारि",
      "नि</w>"
    ],
    [
      "च",
      "ै"
    ],
    [
      "बा",
      "हाय</w>"
    ],
    [
      "हगार",
      "नाय</w>"
    ],
    [
      "न्ड",
      "ा"
    ],
    [
      "सान",
      "खोनि</w>"
    ],
    [
      "बि",
      "ष्ण"
    ],
    [
      "मेघा",
      "ल"
    ],
    [
      "दिर",
      "ुं"
    ],
    [
      "फालिय",
      "ो।</w>"
    ],
    [
      "3",
      "."
    ],
    [
      "साय",
      "ख"
    ],
    [
      "गोन",
      "ो"
    ],
    [
      "गो",
      "थौ"
    ],
    [
      "ो",
      "मोन,</w>"
    ],
    [
      "निमा",
      "हा</w>"
    ],
    [
      "स्ट",
      "आ</w>"
    ],
    [
      "सेब",
      "ाव</w>"
    ],
    [
      "ं",
      "जों</w>"
    ],
    [
      "राज",
      "मह"
    ],
    [
      "से",
      "य"
    ],
    [
      "ना",
      "खौ</w>"
    ],
    [
      "वार्",
      "ड</w>"
    ],
    [
      "फोसाव",
      "दोंमोन</w>"
    ],
    [
      "मुलुगसोलों",
      "सालि"
    ],
    [
      "दिल्ली",
      "याव</w>"
    ],
    [
      "गोद",
      "ान"
    ],
    [
      "स",
      "ल'</w>"
    ],
    [
      "थाखाय",
      "।</w>"
    ],
    [
      "फ",
      "्ला"
    ],
    [
      "आब",
      "हाव"
    ],
    [
      "म",
      "िया"
    ],
    [
      "जां",
      "ख्रि"
    ],
    [
      "चेम्पियनशि",
      "पआव</w>"
    ],
    [
      "मुलुगसोलों",
      "सालियाव</w>"
    ],
    [
      "मै",
      "हु"
    ],
    [
      "गोसार",
      "नाय</w>"
    ],
    [
      ".एल",
      ".</w>"
    ],
    [
      "देंखो",
      "खौ</w>"
    ],
    [
      "सान",
      "थांखि"
    ],
    [
      "खालाम",
      "जानाय।</w>"
    ],
    [
      "बि",
      "खान्थि"
    ],
    [
      "रि",
      "पर्"
    ],
    [
      "सेर",
      "</w>"
    ],
    [
      "रे",
      "न्"
    ],
    [
      "दाजाब",
      "देरनाय</w>"
    ],
    [
      "सप्त",
      "ायाव</w>"
    ],
    [
      "लाद्दा",
      "ख"
    ],
    [
      "स्ट",
      "ेन"
    ],
    [
      "लैखोन",
      "फोरा</w>"
    ],
    [
      "उ",
      "लाफा"
    ],
    [
      "जथु",
      "म्"
    ],
    [
      "ल",
      "ानाय"
    ],
    [
      "वे",
      "नि</w>"
    ],
    [
      "ो",
      ";</w>"
    ],
    [
      "भ",
      "ेल"
    ],
    [
      "फे",
      "स्"
    ],
    [
      "नाय",
      "-"
    ],
    [
      "ना",
      "जादोंमोन।</w>"
    ],
    [
      "नाय",
      "सिम</w>"
    ],
    [
      "दैदेन",
      "गिरि</w>"
    ],
    [
      "क",
      "िर"
    ],
    [
      "मोन",
      "ा"
    ],
    [
      "होब",
      "थाग्रा</w>"
    ],
    [
      "क्",
      "लाइ"
    ],
    [
      "लोगो",
      "-"
    ],
    [
      "स्क्रि",
      "प्"
    ],
    [
      "स",
      "ेल</w>"
    ],
    [
      "फोर्",
      "बो"
    ],
    [
      "ना",
      "गा"
    ],
    [
      "मिनि",
      "ट"
    ],
    [
      "बेसा",
      "द</w>"
    ],
    [
      "गुबुन",
      "फोरा</w>"
    ],
    [
      "बिन्द",
      "ो"
    ],
    [
      "मि",
      "ज'"
    ],
    [
      "क्ष",
      "ा</w>"
    ],
    [
      "सोहोर",
      "</w>"
    ],
    [
      "ुय",
      "बो</w>"
    ],
    [
      "ान",
      "ै,</w>"
    ],
    [
      "क",
      "लि"
    ],
    [
      "गोसार",
      "ना</w>"
    ],
    [
      "जि",
      "नाय</w>"
    ],
    [
      "अ",
      "फ"
    ],
    [
      "गेले",
      "दोंमोन</w>"
    ],
    [
      ".",
      "डी"
    ],
    [
      "सामलाय",
      "गिरि</w>"
    ],
    [
      "वर्ल्",
      "ड</w>"
    ],
    [
      "आइजो",
      "फोरा</w>"
    ],
    [
      "बेसाद",
      "फोरनि</w>"
    ],
    [
      "च",
      "ाइ"
    ],
    [
      "इन्",
      "जिन"
    ],
    [
      "बे",
      "हा</w>"
    ],
    [
      "सरासनस्र",
      "ायै,</w>"
    ],
    [
      "रं",
      "जा"
    ],
    [
      "रैखा",
      "थिनि</w>"
    ],
    [
      "गि",
      "थावना</w>"
    ],
    [
      "निख्र",
      "ुयबो</w>"
    ],
    [
      "मासि",
      "याव</w>"
    ],
    [
      "हा",
      "ला"
    ],
    [
      "\"",
      "नि</w>"
    ],
    [
      "बिगिय",
      "ान</w>"
    ],
    [
      "स'",
      "न"
    ],
    [
      "ज",
      "र</w>"
    ],
    [
      "मौ",
      "र्"
    ],
    [
      "सामलाय",
      "नाय</w>"
    ],
    [
      "सिबि",
      "य"
    ],
    [
      "मोन्",
      "नायनि</w>"
    ],
    [
      "मा",
      "ला"
    ],
    [
      "सोलाय",
      "दोंमोन।</w>"
    ],
    [
      "मे",
      "ट्र"
    ],
    [
      "रिलि",
      "ज</w>"
    ],
    [
      "किं",
      "ड"
    ],
    [
      "दै",
      "खौ</w>"
    ],
    [
      ".",
      "टी"
    ],
    [
      "बे",
      "गे"
    ],
    [
      "ट्र",
      "ान्"
    ],
    [
      "जु",
      "थाय</w>"
    ],
    [
      "रे",
      "ड</w>"
    ],
    [
      "रायजो",
      "खौ</w>"
    ],
    [
      "खुं",
      "गिरि</w>"
    ],
    [
      "ब",
      "आ</w>"
    ],
    [
      "जाहोन",
      "फोरनि</w>"
    ],
    [
      "सो",
      "दोंमोन।</w>"
    ],
    [
      "स्ट",
      "ेट</w>"
    ],
    [
      "हानजा",
      "खौ</w>"
    ],
    [
      "ारि",
      "फोरखौ</w>"
    ],
    [
      "थासारि",
      "खौ</w>"
    ],
    [
      "ना",
      "जायो।</w>"
    ],
    [
      "ए",
      "इच"
    ],
    [
      "2",
      "5"
    ],
    [
      "फोथार",
      "ाव</w>"
    ],
    [
      "गैय",
      "ै"
    ],
    [
      "फु",
      "ट</w>"
    ],
    [
      "ङ",
      "ैनो</w>"
    ],
    [
      "नि",
      "आ</w>"
    ],
    [
      "नाङ",
      "ा।</w>"
    ],
    [
      "व",
      "ारि</w>"
    ],
    [
      "पु",
      "राव</w>"
    ],
    [
      "सोदोब",
      "खौ</w>"
    ],
    [
      "रे",
      "स्टु"
    ],
    [
      "केरा",
      "लानि</w>"
    ],
    [
      "फाहाम",
      "थायनि</w>"
    ],
    [
      "ेर",
      "'"
    ],
    [
      "अन",
      "साय"
    ],
    [
      "र",
      "त"
    ],
    [
      "खोला",
      "हा</w>"
    ],
    [
      "लैथो",
      "आरि</w>"
    ],
    [
      "खालाम",
      "गासिनो</w>"
    ],
    [
      "नार",
      "ाय"
    ],
    [
      "ना",
      "थाय,</w>"
    ],
    [
      "सा",
      "सेल'</w>"
    ],
    [
      "हान्जा",
      "खौ</w>"
    ],
    [
      "जे",
      "ब्लानो</w>"
    ],
    [
      "अ",
      "खानाय"
    ],
    [
      "गोहो",
      "म"
    ],
    [
      "ाय",
      "नो,</w>"
    ],
    [
      "फोरमाय",
      "ो</w>"
    ],
    [
      "ना",
      "लि"
    ],
    [
      "दानख'",
      "नाय</w>"
    ],
    [
      ".",
      "जि"
    ],
    [
      "गा",
      "थोन</w>"
    ],
    [
      "क्स",
      "आव</w>"
    ],
    [
      "गास",
      "ै"
    ],
    [
      "सान",
      "जायाव</w>"
    ],
    [
      "ल",
      "फोरा</w>"
    ],
    [
      "केन्सार",
      "जों</w>"
    ],
    [
      "ग",
      ",</w>"
    ],
    [
      "उत्त",
      "रा"
    ],
    [
      "इजि",
      "प्"
    ],
    [
      "ए",
      "रि"
    ],
    [
      "श",
      "र्"
    ],
    [
      "ने",
      "म</w>"
    ],
    [
      "थां",
      "नानै</w>"
    ],
    [
      "सोमोन्दो",
      "खौ</w>"
    ],
    [
      "प्र",
      "ी"
    ],
    [
      "केर",
      "िय"
    ],
    [
      "च",
      "ान्"
    ],
    [
      "म",
      "र्"
    ],
    [
      "सिगा",
      "ङ"
    ],
    [
      "रोंग'",
      "थि</w>"
    ],
    [
      "सामलाय",
      "ो।</w>"
    ],
    [
      "गावजों",
      "-गाव</w>"
    ],
    [
      "क",
      "ेले"
    ],
    [
      "द",
      "त्त"
    ],
    [
      "अ",
      "ख्र"
    ],
    [
      "गाव",
      "जों</w>"
    ],
    [
      "भ",
      "ि</w>"
    ],
    [
      "199",
      "1</w>"
    ],
    [
      "नि",
      "स</w>"
    ],
    [
      "बेसाद",
      "फोर</w>"
    ],
    [
      "खर",
      "ंआ</w>"
    ],
    [
      "स्",
      "ले"
    ],
    [
      "गु",
      "गो"
    ],
    [
      "खाथि-खा",
      "लानि</w>"
    ],
    [
      "रिं",
      "सार"
    ],
    [
      "टि",
      "न</w>"
    ],
    [
      "बेरा",
      "मा</w>"
    ],
    [
      "सि",
      "न्ड्र"
    ],
    [
      "सन",
      "देर"
    ],
    [
      "डि",
      "स"
    ],
    [
      "गैया",
      "जासे</w>"
    ],
    [
      "फराय",
      "दोंमोन।</w>"
    ],
    [
      "गुरु",
      "</w>"
    ],
    [
      "खामान",
      "ियाव</w>"
    ],
    [
      "ज",
      "िया</w>"
    ],
    [
      "अ",
      "श"
    ],
    [
      "होनाय",
      "खौ</w>"
    ],
    [
      "म्",
      "फै"
    ],
    [
      "माव",
      "थांखि"
    ],
    [
      "नं",
      "खाय</w>"
    ],
    [
      "सोद्रोमा",
      "फोरा</w>"
    ],
    [
      "3",
      ","
    ],
    [
      "सा",
      "खोन"
    ],
    [
      "सान",
      "से</w>"
    ],
    [
      "गेले",
      "नाया</w>"
    ],
    [
      "जायगा",
      "।</w>"
    ],
    [
      "क्रेडि",
      "ट</w>"
    ],
    [
      "क्रान्त",
      "ियारि</w>"
    ],
    [
      "वा",
      "शि"
    ],
    [
      "मि",
      "ं</w>"
    ],
    [
      "कौ",
      "टि</w>"
    ],
    [
      "सा",
      "गान</w>"
    ],
    [
      "आ",
      "गु"
    ],
    [
      "ब्",
      "ब"
    ],
    [
      "बय",
      "निख्रुयबो</w>"
    ],
    [
      "198",
      "7</w>"
    ],
    [
      "सि",
      "ख</w>"
    ],
    [
      "बिदा",
      "-"
    ],
    [
      "क्",
      "य"
    ],
    [
      "बि",
      "जा"
    ],
    [
      "बान्था",
      "नि</w>"
    ],
    [
      "सान",
      "दां"
    ],
    [
      "द",
      "ौ"
    ],
    [
      "सान",
      "ा</w>"
    ],
    [
      "लि",
      ",</w>"
    ],
    [
      "हाइ",
      "</w>"
    ],
    [
      "गोख्र",
      "ों"
    ],
    [
      "दारि",
      "मि"
    ],
    [
      "जिउ",
      "खौ</w>"
    ],
    [
      "द",
      "आव</w>"
    ],
    [
      "क",
      "र</w>"
    ],
    [
      "गोर्",
      "बोआव</w>"
    ],
    [
      "बा",
      "दा"
    ],
    [
      "सोनार",
      "ो।</w>"
    ],
    [
      "दिदो",
      "म</w>"
    ],
    [
      "रुगु",
      "ङाव</w>"
    ],
    [
      "दा",
      "बो</w>"
    ],
    [
      "जोब",
      "नायनि</w>"
    ],
    [
      "स",
      "फोरा</w>"
    ],
    [
      "-सि",
      "खोन"
    ],
    [
      "अर्ड",
      "ार</w>"
    ],
    [
      "ह",
      "ो।</w>"
    ],
    [
      "बांसिन",
      "।</w>"
    ],
    [
      "मुलुग",
      "नाङैनो</w>"
    ],
    [
      "फ्ल'",
      "रि"
    ],
    [
      "मानसि",
      "या</w>"
    ],
    [
      "क्",
      "यु"
    ],
    [
      "बिजिर",
      "सालियाव</w>"
    ],
    [
      "बुथार",
      "नो</w>"
    ],
    [
      "एस'सि",
      "ए"
    ],
    [
      "थिसन",
      "नाय</w>"
    ],
    [
      "दिन्थिय",
      "ो</w>"
    ],
    [
      "रे",
      "जि"
    ],
    [
      "खेब",
      "नै</w>"
    ],
    [
      "मौ",
      "सु"
    ],
    [
      "मान",
      "सि</w>"
    ],
    [
      "बे",
      "नो"
    ],
    [
      "थ",
      "गाय"
    ],
    [
      "थिं",
      ",</w>"
    ],
    [
      "आय",
      "ेननि</w>"
    ],
    [
      "ग्री",
      "क</w>"
    ],
    [
      "अन्",
      "ध्र"
    ],
    [
      "डि",
      "अ'</w>"
    ],
    [
      "8",
      "5</w>"
    ],
    [
      "फु",
      "</w>"
    ],
    [
      "मिथि",
      "जायोमोन।</w>"
    ],
    [
      "3",
      "00</w>"
    ],
    [
      "डि",
      "ं"
    ],
    [
      "आ",
      "हार</w>"
    ],
    [
      "केलि",
      "फर्"
    ],
    [
      "बेरा",
      "मखौ</w>"
    ],
    [
      "बो",
      "ल</w>"
    ],
    [
      "का",
      "इ"
    ],
    [
      "गर",
      "ाय</w>"
    ],
    [
      "जा",
      "सि"
    ],
    [
      "थाखाय",
      "ल'</w>"
    ],
    [
      "खालाम",
      "नायखौ</w>"
    ],
    [
      "ल",
      "ाव,</w>"
    ],
    [
      "हाथ",
      "र"
    ],
    [
      "बि",
      "हार"
    ],
    [
      "बिथि",
      "ङाव</w>"
    ],
    [
      "ह",
      "ानाय"
    ],
    [
      "ान",
      "ी</w>"
    ],
    [
      "र",
      "फोरनि</w>"
    ],
    [
      "हारसि",
      "ं</w>"
    ],
    [
      "बैसो",
      "गोरा"
    ],
    [
      "िय",
      "ारि"
    ],
    [
      "सा",
      ",</w>"
    ],
    [
      "पु",
      "रा"
    ],
    [
      "फाहाम",
      "थाय</w>"
    ],
    [
      "चि",
      "ननि</w>"
    ],
    [
      "खृष्ट",
      "गिबि</w>"
    ],
    [
      "मा",
      "ल्"
    ],
    [
      "सु",
      "बिदा"
    ],
    [
      "प",
      ",</w>"
    ],
    [
      "च",
      "ल</w>"
    ],
    [
      "इउ",
      ".</w>"
    ],
    [
      "नि",
      "क'"
    ],
    [
      "न",
      "ियायाव</w>"
    ],
    [
      "खृ",
      "स्ट"
    ],
    [
      "उ",
      "न्ड</w>"
    ],
    [
      "चे",
      "क</w>"
    ],
    [
      "भाइ",
      "रा"
    ],
    [
      "बार्",
      "ग</w>"
    ],
    [
      "उ",
      "इन्ड'"
    ],
    [
      "सम्रा",
      "ट</w>"
    ],
    [
      "क",
      "ेट</w>"
    ],
    [
      "कन्",
      "न"
    ],
    [
      "ड्र",
      "'"
    ],
    [
      "4",
      "00</w>"
    ],
    [
      "देरहा",
      "सार"
    ],
    [
      "क",
      "ुइ"
    ],
    [
      "खो",
      "म"
    ],
    [
      "198",
      "4</w>"
    ],
    [
      "रौनिया",
      "फोरनि</w>"
    ],
    [
      "निउ",
      "जि"
    ],
    [
      "1",
      "1"
    ],
    [
      "3",
      "0"
    ],
    [
      "जोन",
      "ोम"
    ],
    [
      "रां",
      "खान्थि</w>"
    ],
    [
      "क",
      "पि"
    ],
    [
      "मोदो",
      "म</w>"
    ],
    [
      "नख",
      "र</w>"
    ],
    [
      "हाथिय",
      "ार</w>"
    ],
    [
      "फोथाय",
      "नो</w>"
    ],
    [
      "तु",
      "ल"
    ],
    [
      "थाखो",
      "आ</w>"
    ],
    [
      "थ",
      "नि</w>"
    ],
    [
      "ब",
      "न</w>"
    ],
    [
      "सि",
      "खौ</w>"
    ],
    [
      "ग्रा",
      "।</w>"
    ],
    [
      "डे",
      "भि"
    ],
    [
      "आखु",
      "थाय</w>"
    ],
    [
      "जौखोन्",
      "दोनि</w>"
    ],
    [
      "ब",
      "बे</w>"
    ],
    [
      "बाइ",
      "ल</w>"
    ],
    [
      "राज",
      "उलाफा"
    ],
    [
      "ज",
      "ीआ</w>"
    ],
    [
      "म्म",
      "द</w>"
    ],
    [
      "चा",
      "लु"
    ],
    [
      "लाय",
      "ा"
    ],
    [
      "गोहो",
      "आ</w>"
    ],
    [
      "सोफा",
      "देर"
    ],
    [
      "ला",
      "बोनो</w>"
    ],
    [
      "थानाय",
      "खौ</w>"
    ],
    [
      "स्ट",
      "आव</w>"
    ],
    [
      "भ",
      "र्"
    ],
    [
      "सि",
      "सनि</w>"
    ],
    [
      "दाव",
      "ग"
    ],
    [
      "\"",
      ",</w>"
    ],
    [
      "नि",
      "नि</w>"
    ],
    [
      "सं",
      "नाय</w>"
    ],
    [
      "अ",
      "ल्"
    ],
    [
      "सान",
      "।</w>"
    ],
    [
      "्",
      "सनि</w>"
    ],
    [
      "थान्दै",
      "थि</w>"
    ],
    [
      "क",
      "फोरा</w>"
    ],
    [
      "कम्पिउ",
      "टार</w>"
    ],
    [
      "प",
      "न्च"
    ],
    [
      "स्ट",
      "िक</w>"
    ],
    [
      "य",
      "ार्"
    ],
    [
      "बैसो",
      "गोरा</w>"
    ],
    [
      "भाय",
      "रा"
    ],
    [
      "फ",
      "न</w>"
    ],
    [
      "स",
      "ना</w>"
    ],
    [
      "फिल्म",
      "फे"
    ],
    [
      "जे",
      "नो</w>"
    ],
    [
      "3",
      "-"
    ],
    [
      "फार",
      "िया</w>"
    ],
    [
      "गाम",
      "ियाव</w>"
    ],
    [
      "खेब",
      "सेबाव</w>"
    ],
    [
      "मो",
      "गि</w>"
    ],
    [
      "था",
      "गोन।</w>"
    ],
    [
      "बेंग",
      "ल</w>"
    ],
    [
      "बानाय",
      "नायनि</w>"
    ],
    [
      "जौ",
      "गानाय</w>"
    ],
    [
      "आंखा",
      "लनि</w>"
    ],
    [
      "आथि",
      "ंनि</w>"
    ],
    [
      "सं",
      "बिजिर"
    ],
    [
      "बाहाय",
      "नायखौ</w>"
    ],
    [
      "सामलाय",
      "नायनि</w>"
    ],
    [
      "जेर",
      "ै"
    ],
    [
      "ल",
      "ै</w>"
    ],
    [
      "अ",
      "देब"
    ],
    [
      "म",
      "न'"
    ],
    [
      "सा",
      "फा</w>"
    ],
    [
      "ख",
      "बा"
    ],
    [
      "अर",
      "न"
    ],
    [
      "स्प",
      "र्"
    ],
    [
      "गोम",
      "ो</w>"
    ],
    [
      "ज",
      "ियो।</w>"
    ],
    [
      "क्र",
      "ु"
    ],
    [
      "अ",
      "मा"
    ],
    [
      "जाहा",
      "ज</w>"
    ],
    [
      "ड",
      "'</w>"
    ],
    [
      "नख'",
      "रारि</w>"
    ],
    [
      "था",
      "ङो,</w>"
    ],
    [
      "ब",
      "रनि</w>"
    ],
    [
      "क",
      "ाया</w>"
    ],
    [
      "बे",
      "ला"
    ],
    [
      "ी",
      "य</w>"
    ],
    [
      "ग",
      "हे"
    ],
    [
      "थै",
      "नाय</w>"
    ],
    [
      "ड़",
      "ा</w>"
    ],
    [
      "बांग्ला",
      "देश"
    ],
    [
      "आर",
      "ब</w>"
    ],
    [
      "मे",
      "च</w>"
    ],
    [
      "आय",
      "दा</w>"
    ],
    [
      "दाव",
      "हार"
    ],
    [
      "लां",
      "नायनि</w>"
    ],
    [
      "गा",
      "इ"
    ],
    [
      "लु",
      "दोंमोन।</w>"
    ],
    [
      "फ",
      "ि</w>"
    ],
    [
      "राहा",
      "खौ</w>"
    ],
    [
      "बां",
      "होनो</w>"
    ],
    [
      "गोजान",
      "</w>"
    ],
    [
      "सा",
      "ब</w>"
    ],
    [
      "ज",
      "े</w>"
    ],
    [
      "बिमा",
      "-"
    ],
    [
      "फोरों",
      "थाय</w>"
    ],
    [
      "सि",
      "रि</w>"
    ],
    [
      "सा",
      "फ्रोमबो</w>"
    ],
    [
      "जुन",
      ",</w>"
    ],
    [
      "उ",
      "खि"
    ],
    [
      "अदेब",
      "ानि,</w>"
    ],
    [
      "ब्र",
      "ाय"
    ],
    [
      "केन्",
      "सार</w>"
    ],
    [
      "सोलाय-",
      "सोल'</w>"
    ],
    [
      "मैहु",
      "र</w>"
    ],
    [
      "सा",
      "जों</w>"
    ],
    [
      "मुलुग",
      "नां</w>"
    ],
    [
      "18",
      "6"
    ],
    [
      "पेट",
      "्र"
    ],
    [
      "नेट",
      "नि</w>"
    ],
    [
      "ब्र",
      "'"
    ],
    [
      "ना",
      "स</w>"
    ],
    [
      "बि",
      "दुं"
    ],
    [
      "सि",
      "फिलि"
    ],
    [
      "प",
      "ै"
    ],
    [
      "नां",
      "नाय</w>"
    ],
    [
      "पा",
      "ल</w>"
    ],
    [
      "आ",
      "दि"
    ],
    [
      "जोबथे",
      "सालियाव</w>"
    ],
    [
      "लिर",
      "जानाय</w>"
    ],
    [
      "देर",
      "हानायनि</w>"
    ],
    [
      "नि",
      "खाव"
    ],
    [
      "सा",
      "ख्रि</w>"
    ],
    [
      "जा",
      "उनाव</w>"
    ],
    [
      "फोर",
      "हा</w>"
    ],
    [
      "दैथायहर",
      "नाय</w>"
    ],
    [
      "195",
      "6</w>"
    ],
    [
      "ज",
      "थाइ</w>"
    ],
    [
      "गु",
      "लि</w>"
    ],
    [
      "बरनाय",
      "नाय</w>"
    ],
    [
      "जेंना",
      "फोर</w>"
    ],
    [
      "गो",
      "-"
    ],
    [
      "ग्रे",
      "जु"
    ],
    [
      "बुं",
      "थि"
    ],
    [
      "भ",
      "ान्"
    ],
    [
      "कम्पिउ",
      "टार"
    ],
    [
      "ध",
      "र्"
    ],
    [
      "साखोन",
      "-सिखोन"
    ],
    [
      "गोजोन",
      "्"
    ],
    [
      "ह",
      "न</w>"
    ],
    [
      "दारि",
      "मिन"
    ],
    [
      "बाहागो",
      "मोन।</w>"
    ],
    [
      "ग",
      "ण"
    ],
    [
      "खोख्ल",
      "ैयो।</w>"
    ],
    [
      "उत्तरा",
      "ख"
    ],
    [
      "अन्",
      "जि"
    ],
    [
      "कि",
      ".मि"
    ],
    [
      "दन्द",
      "र</w>"
    ],
    [
      "ए",
      "ले"
    ],
    [
      "एम्",
      "बु"
    ],
    [
      "गो",
      "मान"
    ],
    [
      "दिन्थिफुं",
      "नाया</w>"
    ],
    [
      "हो",
      "जायो।</w>"
    ],
    [
      "दि",
      "न"
    ],
    [
      "फे",
      "जेन्"
    ],
    [
      "मो",
      "सौ</w>"
    ],
    [
      "ने",
      "दार"
    ],
    [
      "ह",
      "ल</w>"
    ],
    [
      "ग",
      "ानि"
    ],
    [
      "स्",
      "वि"
    ],
    [
      "ाखै",
      "मोन</w>"
    ],
    [
      "फालां",
      "ग"
    ],
    [
      "सोलाय",
      "ै</w>"
    ],
    [
      "थि",
      "।</w>"
    ],
    [
      "हारसि",
      "ङै</w>"
    ],
    [
      "स",
      "ुन"
    ],
    [
      ".",
      "बी"
    ],
    [
      "खो",
      "लायारि</w>"
    ],
    [
      "स",
      "।</w>"
    ],
    [
      "कल",
      "म्"
    ],
    [
      "गेले",
      "गिरिफोरखौ</w>"
    ],
    [
      "न",
      "गर</w>"
    ],
    [
      "उ",
      "सु"
    ],
    [
      "सिबि",
      "थाइ"
    ],
    [
      "ले",
      "ं"
    ],
    [
      "टाइ",
      "म</w>"
    ],
    [
      "साइ",
      "ड</w>"
    ],
    [
      "गोनांथार",
      "।</w>"
    ],
    [
      "ेटि",
      "भ</w>"
    ],
    [
      "सा",
      "उन्ड"
    ],
    [
      "बारहुं",
      "खानि</w>"
    ],
    [
      "क'",
      "ड</w>"
    ],
    [
      "2",
      "4"
    ],
    [
      "सोमजि",
      "होनो</w>"
    ],
    [
      "ृ",
      "त</w>"
    ],
    [
      "रोजाब",
      "गिरि</w>"
    ],
    [
      "लै",
      "थोनि</w>"
    ],
    [
      "मै",
      "देर"
    ],
    [
      "कार",
      "आ</w>"
    ],
    [
      "दावबाय",
      "नाय</w>"
    ],
    [
      "बय",
      "जोंबो</w>"
    ],
    [
      "साव",
      "नाय</w>"
    ],
    [
      "ाव",
      "बो,</w>"
    ],
    [
      "ो",
      "ङै</w>"
    ],
    [
      "ने",
      "हाथ"
    ],
    [
      "अ",
      "भार"
    ],
    [
      "बिबां",
      "खौ</w>"
    ],
    [
      "श",
      "ी"
    ],
    [
      "बिब",
      "ार</w>"
    ],
    [
      "गोलाव",
      "सिन</w>"
    ],
    [
      "न्",
      "यु"
    ],
    [
      ".",
      "जों</w>"
    ],
    [
      "बा",
      "ल्"
    ],
    [
      "गल",
      "खौ</w>"
    ],
    [
      "ले",
      "ण्"
    ],
    [
      "तेलु",
      "गु</w>"
    ],
    [
      "से",
      "आव</w>"
    ],
    [
      "198",
      "9</w>"
    ],
    [
      "था",
      "ब</w>"
    ],
    [
      "खोन्",
      "दोनि</w>"
    ],
    [
      "ेर",
      "ि</w>"
    ],
    [
      ")",
      "नि</w>"
    ],
    [
      "सेल्",
      "सिया"
    ],
    [
      "हादोर",
      "फोरा</w>"
    ],
    [
      "स्",
      "वी"
    ],
    [
      "मे",
      ",</w>"
    ],
    [
      "सावथुन",
      "फोरनि</w>"
    ],
    [
      "कंग्रे",
      "स</w>"
    ],
    [
      "लि",
      "ग</w>"
    ],
    [
      "मु",
      "ह"
    ],
    [
      "मेन्ट",
      "नि</w>"
    ],
    [
      "म",
      "न्ड"
    ],
    [
      "था",
      "दोंमोन,</w>"
    ],
    [
      "मेथाइ",
      "खौ</w>"
    ],
    [
      "स",
      "-"
    ],
    [
      "भा",
      "स्क"
    ],
    [
      "2",
      "6"
    ],
    [
      "राजफोलेर",
      "ारि</w>"
    ],
    [
      "गो",
      "थौ</w>"
    ],
    [
      "समाय",
      "खिर"
    ],
    [
      "साइ",
      "</w>"
    ],
    [
      "चेम्पिय",
      "न</w>"
    ],
    [
      "खुब",
      "ै"
    ],
    [
      "सल'बा",
      "था"
    ],
    [
      "196",
      "4</w>"
    ],
    [
      "गे",
      "दे"
    ],
    [
      "नि",
      "नो</w>"
    ],
    [
      "आयजो",
      "फोरनि</w>"
    ],
    [
      "197",
      "1</w>"
    ],
    [
      "हों",
      "गो-"
    ],
    [
      "होंगो-",
      "दों"
    ],
    [
      "ख",
      "ेर"
    ],
    [
      "बारग'",
      "नो</w>"
    ],
    [
      "ब",
      "लीवु"
    ],
    [
      "च",
      "आ</w>"
    ],
    [
      "थो",
      "ब</w>"
    ],
    [
      "रेब",
      "थुम"
    ],
    [
      "गोग्ल",
      "ैयो।</w>"
    ],
    [
      "भ",
      "नि</w>"
    ],
    [
      "नि",
      "ग"
    ],
    [
      "बो",
      "लाव"
    ],
    [
      "बु",
      "क</w>"
    ],
    [
      "जोनो",
      "मनि</w>"
    ],
    [
      "मन्दिर",
      "</w>"
    ],
    [
      "मौसु",
      "मि</w>"
    ],
    [
      "म",
      "ेल</w>"
    ],
    [
      "आउ",
      "ट"
    ],
    [
      "फ",
      "ैयो,</w>"
    ],
    [
      "198",
      "2</w>"
    ],
    [
      "जौखोन्दो",
      "सो</w>"
    ],
    [
      "न्ट",
      "ि"
    ],
    [
      "ली",
      ",</w>"
    ],
    [
      "ग्र",
      "ह"
    ],
    [
      "इउर'प",
      "ियान</w>"
    ],
    [
      "कार",
      "्ल"
    ],
    [
      "सान",
      "ाय"
    ],
    [
      "ब",
      "रा"
    ],
    [
      "दोन",
      "नो</w>"
    ],
    [
      "बाव",
      "नाय</w>"
    ],
    [
      "जि",
      "म</w>"
    ],
    [
      "197",
      "2</w>"
    ],
    [
      "बिफ",
      "ाननि</w>"
    ],
    [
      "किल'मिटार",
      "सो</w>"
    ],
    [
      "ए",
      "म्फ"
    ],
    [
      "हाय",
      "ेननि</w>"
    ],
    [
      "ट्रे",
      "क</w>"
    ],
    [
      "मोब्लि",
      "बारि</w>"
    ],
    [
      "स",
      "नि"
    ],
    [
      "बा",
      "जे"
    ],
    [
      "फेब्रु",
      "आरि,</w>"
    ],
    [
      "गि",
      "लिर</w>"
    ],
    [
      "जायो",
      "ब्ला</w>"
    ],
    [
      "फ",
      "ानो</w>"
    ],
    [
      "म",
      "निफ्राय</w>"
    ],
    [
      "बाद",
      "नि</w>"
    ],
    [
      "र",
      "ण"
    ],
    [
      "से",
      "नो</w>"
    ],
    [
      "सान",
      "बोलाव"
    ],
    [
      "खम",
      "लाय"
    ],
    [
      "दायनि",
      "गिरि</w>"
    ],
    [
      "आफा",
      "दा</w>"
    ],
    [
      "सुल्त",
      "ान"
    ],
    [
      "ट",
      "ाव"
    ],
    [
      "लि",
      "आ</w>"
    ],
    [
      "बादायलाय",
      "नाया</w>"
    ],
    [
      "जि",
      "ं</w>"
    ],
    [
      "गेलेमु",
      "फोरनि</w>"
    ],
    [
      "मेक्सि",
      "क'"
    ],
    [
      "ट",
      "नआ</w>"
    ],
    [
      "दोंमोन",
      "ब्लाबो,</w>"
    ],
    [
      "दै",
      "जों</w>"
    ],
    [
      "ज",
      "र"
    ],
    [
      "चेन्",
      "ना"
    ],
    [
      "क",
      "ारनि</w>"
    ],
    [
      "नोगोर",
      "ाव</w>"
    ],
    [
      ".पि",
      ".</w>"
    ],
    [
      "फराय",
      "सालियाव</w>"
    ],
    [
      "ध",
      "ु"
    ],
    [
      "थां",
      "नायनि</w>"
    ],
    [
      "दा",
      "लां"
    ],
    [
      "रैखा",
      "थुम"
    ],
    [
      "थिय",
      "ाव,</w>"
    ],
    [
      "कन्ट",
      "्र"
    ],
    [
      "बेर",
      "फ्रु"
    ],
    [
      "जेंना",
      "फोरखौ</w>"
    ],
    [
      "खे",
      "ं"
    ],
    [
      "न",
      "ग"
    ],
    [
      "बा",
      "साय"
    ],
    [
      "नबे",
      "म्बर,</w>"
    ],
    [
      "गोरोब",
      "नाय</w>"
    ],
    [
      "तामिलनाडु",
      "नि</w>"
    ],
    [
      "'",
      "न"
    ],
    [
      "बेसाद",
      "खौ</w>"
    ],
    [
      "सोमजि",
      "होयो।</w>"
    ],
    [
      "सोदो",
      "बा</w>"
    ],
    [
      "गेलेमु",
      "फोराव</w>"
    ],
    [
      "आर'",
      "ज"
    ],
    [
      "रेस्टु",
      "रेन्ट"
    ],
    [
      "ग",
      "लायाव</w>"
    ],
    [
      ")",
      "आ</w>"
    ],
    [
      "मिनि",
      "टआव</w>"
    ],
    [
      ".",
      "चि"
    ],
    [
      "जौथाइ",
      "आव</w>"
    ],
    [
      "सेप्ते",
      "म्बर,</w>"
    ],
    [
      "इन्ड",
      "ियान</w>"
    ],
    [
      "आक",
      "बर"
    ],
    [
      "उदां",
      "स्रिनि</w>"
    ],
    [
      "हर",
      "दोंमोन।</w>"
    ],
    [
      "हाला",
      "ग"
    ],
    [
      "निउयर्",
      "क</w>"
    ],
    [
      "ला",
      "स</w>"
    ],
    [
      "बिसायख'",
      "थि</w>"
    ],
    [
      "थाव",
      "ै</w>"
    ],
    [
      "म",
      "ां"
    ],
    [
      "मोगा",
      "मोगि</w>"
    ],
    [
      "गोख्र",
      "ैनो</w>"
    ],
    [
      ".ए",
      "च"
    ],
    [
      "गुजरा",
      "तनि</w>"
    ],
    [
      "ल",
      "ंक"
    ],
    [
      "माव",
      "नायनि</w>"
    ],
    [
      "श",
      "ंक"
    ],
    [
      "खोख्लै",
      "दोंमोन।</w>"
    ],
    [
      "क्लासि",
      "केल</w>"
    ],
    [
      "जुरि",
      "जेनदोंमोन।</w>"
    ],
    [
      "क्",
      "सु"
    ],
    [
      "198",
      "8</w>"
    ],
    [
      "अ",
      "ंग"
    ],
    [
      "अनजि",
      "मा"
    ],
    [
      "थावनि",
      "।</w>"
    ],
    [
      "काउ",
      "न्ट</w>"
    ],
    [
      "नां",
      "गोन</w>"
    ],
    [
      "जाथाव",
      "।</w>"
    ],
    [
      "बेनिख",
      "ायनो,</w>"
    ],
    [
      "का",
      "बा"
    ],
    [
      "मेले",
      "मारि</w>"
    ],
    [
      "बिरख",
      "ं"
    ],
    [
      "गोदो",
      "मिनारि</w>"
    ],
    [
      "ए",
      "जेन्"
    ],
    [
      "ेट",
      "आ</w>"
    ],
    [
      "सोफा",
      "देरनाय</w>"
    ],
    [
      "आ",
      "ट"
    ],
    [
      "टे",
      "स्ट</w>"
    ],
    [
      "मा",
      "सु"
    ],
    [
      "सानरि",
      "खि"
    ],
    [
      "फेस्",
      "ला</w>"
    ],
    [
      "रोजाब",
      "नाय</w>"
    ],
    [
      "बे",
      "ग"
    ],
    [
      "टेलि",
      "भिजन</w>"
    ],
    [
      "कार",
      "ा"
    ],
    [
      "न",
      "सुं"
    ],
    [
      "साम्राय",
      "जोआ</w>"
    ],
    [
      "आद",
      "ार"
    ],
    [
      "ाखै",
      "।</w>"
    ],
    [
      "सम",
      "ा</w>"
    ],
    [
      "लि",
      "ं</w>"
    ],
    [
      "आ",
      "गु</w>"
    ],
    [
      "ति",
      "ब्ब"
    ],
    [
      "बिमा",
      "-बि"
    ],
    [
      "प",
      "ेले"
    ],
    [
      "जाय",
      "ा,</w>"
    ],
    [
      "स्",
      "पि"
    ],
    [
      "ग",
      "न</w>"
    ],
    [
      "कम्प",
      "ानि</w>"
    ],
    [
      "ि",
      ",</w>"
    ],
    [
      "ब",
      "ृ"
    ],
    [
      "र",
      "ियानि</w>"
    ],
    [
      "ओनसोल",
      "फोरनि</w>"
    ],
    [
      "ग",
      "ल्"
    ],
    [
      "श्व",
      "र</w>"
    ],
    [
      "ओंखा",
      "म</w>"
    ],
    [
      "दु",
      "गै"
    ],
    [
      "जौथाइ",
      "याव</w>"
    ],
    [
      "गोजौ",
      "नि</w>"
    ],
    [
      "ती",
      "र्"
    ],
    [
      "जानुव",
      "ारि,</w>"
    ],
    [
      "मानसि",
      "फोरा</w>"
    ],
    [
      "फाहाम",
      "नाय</w>"
    ],
    [
      "अ",
      "क्ला"
    ],
    [
      "पु",
      "झ"
    ],
    [
      "श",
      "नि</w>"
    ],
    [
      "दा",
      "ब</w>"
    ],
    [
      "खान",
      "ा</w>"
    ],
    [
      "थ",
      "े</w>"
    ],
    [
      "8",
      "6</w>"
    ],
    [
      "देरहा",
      "दोंमोन,</w>"
    ],
    [
      "जोबनाय",
      "थिं</w>"
    ],
    [
      "ल",
      "निफ्राय</w>"
    ],
    [
      "लिय",
      "ान</w>"
    ],
    [
      "न",
      "क"
    ],
    [
      "जिउ",
      "आव</w>"
    ],
    [
      "प",
      "ान"
    ],
    [
      "गोनां",
      "मोन।</w>"
    ],
    [
      "त",
      "ेले"
    ],
    [
      "खु",
      "गा</w>"
    ],
    [
      "नि",
      "श</w>"
    ],
    [
      "ए",
      "यार</w>"
    ],
    [
      "नि",
      "ं</w>"
    ],
    [
      "य",
      "क्ष"
    ],
    [
      "थ",
      "ुं"
    ],
    [
      "सिन",
      ",</w>"
    ],
    [
      "ऋ",
      "ष"
    ],
    [
      "ट",
      "ारनि</w>"
    ],
    [
      "डि",
      "ग्रि</w>"
    ],
    [
      "खाम्",
      "फा"
    ],
    [
      "दाम",
      "जु"
    ],
    [
      "इलेक्",
      "ट्र"
    ],
    [
      "प्र",
      "ाइ"
    ],
    [
      "बुं",
      "दों</w>"
    ],
    [
      "बि",
      "दु"
    ],
    [
      "सिदो",
      "ब</w>"
    ],
    [
      "नि",
      "न"
    ],
    [
      "मि",
      "स</w>"
    ],
    [
      "-",
      "नङि</w>"
    ],
    [
      "कुमार",
      "ा</w>"
    ],
    [
      "198",
      "5</w>"
    ],
    [
      "लेन्ड",
      ",</w>"
    ],
    [
      "197",
      "9</w>"
    ],
    [
      "खौ",
      "राङारि</w>"
    ],
    [
      "दैदेन",
      "दोंमोन।</w>"
    ],
    [
      "आफ्रिक",
      "ानि</w>"
    ],
    [
      "मोन",
      "दोंमोन,</w>"
    ],
    [
      "दा",
      "लाइ"
    ],
    [
      "स्ट",
      "िक"
    ],
    [
      "18",
      "9"
    ],
    [
      "मु",
      "खुब"
    ],
    [
      "लोर",
      "बां"
    ],
    [
      "हो",
      "बाय</w>"
    ],
    [
      "नु",
      "दोंमोन।</w>"
    ],
    [
      "ख्र",
      "िनि</w>"
    ],
    [
      "दंफां",
      "नि</w>"
    ],
    [
      "ेल",
      "खौ</w>"
    ],
    [
      "िया",
      "जों</w>"
    ],
    [
      "ब'",
      "र्ड</w>"
    ],
    [
      "जौगा",
      "होनाय</w>"
    ],
    [
      "बु",
      "जि"
    ],
    [
      "गो",
      "बा"
    ],
    [
      "सुइ",
      "जार"
    ],
    [
      "क्स",
      "खौ</w>"
    ],
    [
      ".",
      "अ'"
    ],
    [
      "फिसा-",
      "फिसा</w>"
    ],
    [
      "बावै",
      "सोनि</w>"
    ],
    [
      "प्र",
      "फे"
    ],
    [
      "स्प",
      "ाइ"
    ],
    [
      "टेक्",
      "सा"
    ],
    [
      "एन",
      ".</w>"
    ],
    [
      "मन्थ्रि",
      "मोन।</w>"
    ],
    [
      "टि",
      "सनि</w>"
    ],
    [
      "नि",
      "सिम</w>"
    ],
    [
      "बिजिर",
      "सालि"
    ],
    [
      "ज",
      "ीनि</w>"
    ],
    [
      "भ",
      "ा</w>"
    ],
    [
      "बोखार",
      "नो</w>"
    ],
    [
      "लक्ष",
      "्"
    ],
    [
      "गोहो",
      "मखौ</w>"
    ],
    [
      "बिबा",
      "ङा</w>"
    ],
    [
      "जौ",
      "य"
    ],
    [
      "हा",
      "दोंमोन,</w>"
    ],
    [
      "न्ड",
      "ी"
    ],
    [
      "कु",
      "म"
    ],
    [
      "196",
      "9</w>"
    ],
    [
      "महर",
      "खौ</w>"
    ],
    [
      "मुलुग",
      "ाव</w>"
    ],
    [
      "ट",
      "ानि</w>"
    ],
    [
      "ओ",
      "न्"
    ],
    [
      "गोग्लै",
      "नायनि</w>"
    ],
    [
      "16",
      "थि</w>"
    ],
    [
      "श",
      "ेर"
    ],
    [
      "थि",
      "आ</w>"
    ],
    [
      "रो",
      "खायै</w>"
    ],
    [
      "ना",
      "म"
    ],
    [
      "स्",
      "मि"
    ],
    [
      "बुहुम",
      "नाङै</w>"
    ],
    [
      "हाब",
      "फै"
    ],
    [
      "थ",
      "ोब"
    ],
    [
      "मान",
      "आ</w>"
    ],
    [
      "बे",
      "निफ्राय</w>"
    ],
    [
      "थाखो",
      "खौ</w>"
    ],
    [
      "दान",
      "ारि</w>"
    ],
    [
      "साइ",
      "केल</w>"
    ],
    [
      "कार्",
      "त"
    ],
    [
      "सान",
      "खो"
    ],
    [
      "ट",
      "र्"
    ],
    [
      "आगस्त",
      ",</w>"
    ],
    [
      "ज",
      "क्षा</w>"
    ],
    [
      "लां",
      "दोंमोन</w>"
    ],
    [
      "पार्",
      "टी"
    ],
    [
      "फिन",
      "ो।</w>"
    ],
    [
      "मोन",
      "नायनि</w>"
    ],
    [
      "दु",
      "</w>"
    ],
    [
      "दारि",
      "मिनारि</w>"
    ],
    [
      "बोथोर",
      "ा</w>"
    ],
    [
      "4",
      "0"
    ],
    [
      "ख्ल",
      "ाय"
    ],
    [
      "अन्ध्र",
      "</w>"
    ],
    [
      "त",
      ",</w>"
    ],
    [
      "198",
      "3</w>"
    ],
    [
      "दा",
      "इन"
    ],
    [
      "टे",
      "न</w>"
    ],
    [
      "ई",
      "नि</w>"
    ],
    [
      "मावख'",
      "गिरि</w>"
    ],
    [
      "फुं",
      "खा</w>"
    ],
    [
      "बे",
      "थ"
    ],
    [
      "सायख'",
      "नो</w>"
    ],
    [
      "मार्",
      "क</w>"
    ],
    [
      "होनां",
      "गौ</w>"
    ],
    [
      "द",
      "ो।</w>"
    ],
    [
      "डि",
      "जि"
    ],
    [
      "अ",
      "क्"
    ],
    [
      "फि",
      "सि"
    ],
    [
      "ब्र",
      "ह्म"
    ],
    [
      "के",
      "थ'"
    ],
    [
      "एनि",
      "मे"
    ],
    [
      "बान्",
      "दो"
    ],
    [
      "इ",
      "ज"
    ],
    [
      "ब्राजि",
      "लनि</w>"
    ],
    [
      "िक",
      "े"
    ],
    [
      "जायगाय",
      "ा</w>"
    ],
    [
      "थान",
      "ा</w>"
    ],
    [
      "न",
      "निफ्राय</w>"
    ],
    [
      "इ",
      "न्द"
    ],
    [
      "फिसा",
      "जो"
    ],
    [
      "ब",
      "खौ</w>"
    ],
    [
      "य",
      "आ</w>"
    ],
    [
      "हाथिय",
      "ार"
    ],
    [
      "बार",
      "ा"
    ],
    [
      "3",
      "2</w>"
    ],
    [
      "फु",
      "थु"
    ],
    [
      "बद",
      "लै</w>"
    ],
    [
      "मि",
      "लि"
    ],
    [
      "रायजो",
      "फोरनि</w>"
    ],
    [
      "्य",
      "ा</w>"
    ],
    [
      "ट्र",
      "ेन"
    ],
    [
      "बिलाइ",
      "नि</w>"
    ],
    [
      "था",
      "द'"
    ],
    [
      "बुथार",
      "दोंमोन।</w>"
    ],
    [
      "शि",
      "व"
    ],
    [
      "खोना",
      "सं"
    ],
    [
      "तेले",
      "ंग"
    ],
    [
      "खार",
      "नाय</w>"
    ],
    [
      "आग",
      "दा</w>"
    ],
    [
      "खुं",
      "थाइ</w>"
    ],
    [
      "थि",
      "-"
    ],
    [
      "आ",
      "सा"
    ],
    [
      "मिनि",
      "ट</w>"
    ],
    [
      "बो",
      "दों।</w>"
    ],
    [
      "ला",
      "फोरखौ</w>"
    ],
    [
      "ल",
      "फोरखौ</w>"
    ],
    [
      "िय",
      "ाव,</w>"
    ],
    [
      "रां",
      "बाव"
    ],
    [
      "बिथां",
      "जोखौ</w>"
    ],
    [
      "दों",
      "ब्ला,</w>"
    ],
    [
      "काबा",
      "ड्"
    ],
    [
      "पाव",
      "ार</w>"
    ],
    [
      "बे",
      "न्ड</w>"
    ]
  ],
  "vocab_size": 5000,
  "num_merges": 5000,
  "actual_merges": 5000,
  "special_tokens": [
    "<unk>",
    "<pad>",
    "<sos>",
    "<eos>"
  ]
}