{
  "merges": [
    [
      "े",
      "</w>"
    ],
    [
      "ी",
      "</w>"
    ],
    [
      "ा",
      "</w>"
    ],
    [
      "ं",
      "</w>"
    ],
    [
      "।",
      "</w>"
    ],
    [
      "द",
      "े</w>"
    ],
    [
      "र",
      "</w>"
    ],
    [
      "े",
      "ं</w>"
    ],
    [
      "ह",
      "्"
    ],
    [
      "‌",
      "‌"
    ],
    [
      "ै",
      "</w>"
    ],
    [
      "च",
      "</w>"
    ],
    [
      "स",
      "्"
    ],
    [
      "न",
      "</w>"
    ],
    [
      "द",
      "ा</w>"
    ],
    [
      "द",
      "ी</w>"
    ],
    [
      "क",
      "</w>"
    ],
    [
      "ह्",
      "‌‌"
    ],
    [
      ",",
      "</w>"
    ],
    [
      "ा",
      "र"
    ],
    [
      "न",
      "े</w>"
    ],
    [
      "ि",
      "य"
    ],
    [
      "त",
      "े</w>"
    ],
    [
      "ग",
      "ी</w>"
    ],
    [
      "ल",
      "</w>"
    ],
    [
      "र",
      "्"
    ],
    [
      "ऐ",
      "।</w>"
    ],
    [
      "क",
      "र"
    ],
    [
      "ा",
      "ं</w>"
    ],
    [
      "त",
      "</w>"
    ],
    [
      "न",
      "्"
    ],
    [
      "ह",
      "ो"
    ],
    [
      "स",
      "</w>"
    ],
    [
      "ई",
      "</w>"
    ],
    [
      "र",
      "ा"
    ],
    [
      "क",
      "्"
    ],
    [
      "ह",
      "ा"
    ],
    [
      "े",
      "आ"
    ],
    [
      "न्",
      "न"
    ],
    [
      "इ",
      "क</w>"
    ],
    [
      "ह्‌‌",
      "‌"
    ],
    [
      "म",
      "</w>"
    ],
    [
      "ल",
      "्"
    ],
    [
      "क",
      "ी"
    ],
    [
      "स्",
      "त"
    ],
    [
      "प",
      "र</w>"
    ],
    [
      "ेआ",
      "</w>"
    ],
    [
      "म",
      "ा"
    ],
    [
      "न",
      "ा"
    ],
    [
      "क",
      "न्न"
    ],
    [
      "न",
      "ें</w>"
    ],
    [
      "्",
      "य"
    ],
    [
      "ल",
      "ा"
    ],
    [
      "की",
      "त"
    ],
    [
      "ह्‌‌",
      "</w>"
    ],
    [
      "कन्न",
      "ै</w>"
    ],
    [
      "न",
      "े"
    ],
    [
      "क",
      "ा"
    ],
    [
      "ऐ",
      "</w>"
    ],
    [
      "ह्",
      "‌"
    ],
    [
      "क्",
      "ख"
    ],
    [
      "ज",
      "ा"
    ],
    [
      "ज",
      "ि"
    ],
    [
      "न",
      "।</w>"
    ],
    [
      "न",
      "ा</w>"
    ],
    [
      "क",
      "ो"
    ],
    [
      "ं",
      "ग"
    ],
    [
      "द",
      "ि"
    ],
    [
      "ल",
      "ी</w>"
    ],
    [
      "न",
      "ी</w>"
    ],
    [
      "आ",
      "स्त"
    ],
    [
      "ज",
      "े"
    ],
    [
      "व",
      "ि"
    ],
    [
      "ं",
      "दा</w>"
    ],
    [
      "ब",
      "ा"
    ],
    [
      "र",
      "ी</w>"
    ],
    [
      "आस्त",
      "ै</w>"
    ],
    [
      "ज",
      "े</w>"
    ],
    [
      "श",
      "</w>"
    ],
    [
      "ल",
      "ा</w>"
    ],
    [
      "द",
      "</w>"
    ],
    [
      "ट",
      "</w>"
    ],
    [
      "ल",
      "े</w>"
    ],
    [
      "ड",
      "़"
    ],
    [
      "प",
      "र"
    ],
    [
      "म",
      "्"
    ],
    [
      "ै",
      "ं"
    ],
    [
      "स",
      "ा"
    ],
    [
      "श",
      "्"
    ],
    [
      "क",
      "ि"
    ],
    [
      "र",
      "ू"
    ],
    [
      "न",
      "ि"
    ],
    [
      "स",
      "ं"
    ],
    [
      "ब",
      "ी</w>"
    ],
    [
      "श",
      "ा</w>"
    ],
    [
      "ल",
      "ो"
    ],
    [
      "प",
      "ा"
    ],
    [
      "व",
      "ा"
    ],
    [
      "क",
      "ार"
    ],
    [
      "द",
      "ा"
    ],
    [
      "अ",
      "प"
    ],
    [
      "ई",
      "ं</w>"
    ],
    [
      "िय",
      "ां</w>"
    ],
    [
      "2",
      "0"
    ],
    [
      "क",
      "े"
    ],
    [
      "स्",
      "स"
    ],
    [
      "ल",
      "े"
    ],
    [
      "िय",
      "ें</w>"
    ],
    [
      "ग",
      "े"
    ],
    [
      "ब",
      "्"
    ],
    [
      "ट",
      "्"
    ],
    [
      "ड",
      "</w>"
    ],
    [
      "ण",
      "</w>"
    ],
    [
      "म",
      "ि"
    ],
    [
      "म",
      "ु"
    ],
    [
      "स",
      "ि"
    ],
    [
      "ए",
      "ह्‌‌</w>"
    ],
    [
      "हा",
      "।</w>"
    ],
    [
      "प",
      "ै"
    ],
    [
      "कीत",
      "ा</w>"
    ],
    [
      "ज",
      "</w>"
    ],
    [
      "र",
      "े"
    ],
    [
      "त",
      "ा</w>"
    ],
    [
      "श",
      "ा"
    ],
    [
      "त",
      "ा"
    ],
    [
      "त",
      "ु"
    ],
    [
      "द",
      "े"
    ],
    [
      "हो",
      "ई</w>"
    ],
    [
      "ह",
      "ि"
    ],
    [
      "ं",
      "द"
    ],
    [
      "स",
      "म"
    ],
    [
      "स",
      "क"
    ],
    [
      "त",
      "्"
    ],
    [
      "र",
      "ी"
    ],
    [
      "त",
      "ी</w>"
    ],
    [
      "ं",
      "ʼ"
    ],
    [
      ".",
      "</w>"
    ],
    [
      "ज",
      "ंदा</w>"
    ],
    [
      "1",
      "9"
    ],
    [
      "प",
      "</w>"
    ],
    [
      "प",
      "्"
    ],
    [
      "र",
      "ा</w>"
    ],
    [
      "र",
      "ो"
    ],
    [
      "ार",
      "्"
    ],
    [
      "ब",
      "ि"
    ],
    [
      "रा",
      "ज"
    ],
    [
      "च",
      "ा"
    ],
    [
      "प",
      "ू"
    ],
    [
      "र",
      "ि"
    ],
    [
      "ख",
      "े"
    ],
    [
      "त",
      "ि"
    ],
    [
      "कर",
      "ने</w>"
    ],
    [
      "प",
      "ु"
    ],
    [
      "ार",
      "ी</w>"
    ],
    [
      "र",
      "ें</w>"
    ],
    [
      "ग",
      "ेआ</w>"
    ],
    [
      "ʼ",
      "नें</w>"
    ],
    [
      "ी",
      "।</w>"
    ],
    [
      "ए",
      "ं</w>"
    ],
    [
      "इ",
      "स</w>"
    ],
    [
      "ह",
      "े"
    ],
    [
      "ह्",
      "</w>"
    ],
    [
      "क",
      "ु"
    ],
    [
      "0",
      "</w>"
    ],
    [
      "ल",
      "ि"
    ],
    [
      "ने",
      "ईं</w>"
    ],
    [
      "म",
      "े"
    ],
    [
      "ऐ",
      ",</w>"
    ],
    [
      "ओ",
      "ह्‌‌</w>"
    ],
    [
      "ह्‌‌‌",
      "दे</w>"
    ],
    [
      "फ",
      "्"
    ],
    [
      "ड",
      "्"
    ],
    [
      "ो",
      "</w>"
    ],
    [
      "िय",
      "ा</w>"
    ],
    [
      "ज",
      "ां</w>"
    ],
    [
      "ल",
      "ै</w>"
    ],
    [
      "दि",
      "त्त"
    ],
    [
      "ग",
      "</w>"
    ],
    [
      "स्",
      "ट"
    ],
    [
      "थ",
      "ा"
    ],
    [
      "ं",
      "दे</w>"
    ],
    [
      "्य",
      "ा"
    ],
    [
      "क",
      "ा</w>"
    ],
    [
      "फ",
      "ि"
    ],
    [
      "क",
      "ें</w>"
    ],
    [
      "म",
      "ां</w>"
    ],
    [
      "भ",
      "ा"
    ],
    [
      "म",
      "ी"
    ],
    [
      "उ",
      "ʼनें</w>"
    ],
    [
      "भ",
      "ार"
    ],
    [
      "कर",
      "ी</w>"
    ],
    [
      "व",
      "</w>"
    ],
    [
      "द",
      "ु"
    ],
    [
      "ं",
      "दी</w>"
    ],
    [
      "जे",
      "ह्‌‌"
    ],
    [
      "क",
      "ी</w>"
    ],
    [
      "त",
      "ौ"
    ],
    [
      "ं",
      "ड"
    ],
    [
      "उ",
      "ंʼ"
    ],
    [
      "ल",
      "ें</w>"
    ],
    [
      "स",
      "ी</w>"
    ],
    [
      "जेह्‌‌",
      "ड़"
    ],
    [
      "ब",
      "क्ख"
    ],
    [
      "आ",
      "ह्‌‌‌"
    ],
    [
      "ब",
      "</w>"
    ],
    [
      "्य",
      "</w>"
    ],
    [
      "म",
      "ें</w>"
    ],
    [
      "िय",
      "ा"
    ],
    [
      "ू",
      "</w>"
    ],
    [
      "अप",
      "ने</w>"
    ],
    [
      "त",
      "क्क"
    ],
    [
      "ल",
      "ै"
    ],
    [
      "श",
      "ु"
    ],
    [
      "ऽ",
      "</w>"
    ],
    [
      "स",
      "े"
    ],
    [
      "र",
      "ै</w>"
    ],
    [
      "य",
      "ा"
    ],
    [
      "ह",
      "ा</w>"
    ],
    [
      "न",
      ",</w>"
    ],
    [
      "स",
      "ु"
    ],
    [
      "क",
      "े</w>"
    ],
    [
      "स",
      "ी"
    ],
    [
      "ंग",
      "</w>"
    ],
    [
      "तक्क",
      "र</w>"
    ],
    [
      "स",
      "भ"
    ],
    [
      "ए",
      "</w>"
    ],
    [
      "ट",
      "ी"
    ],
    [
      "थ",
      "मां</w>"
    ],
    [
      "ग",
      "ा"
    ],
    [
      "ख",
      "ा"
    ],
    [
      "ल",
      "ी"
    ],
    [
      "य",
      "ा</w>"
    ],
    [
      "ब",
      "ना"
    ],
    [
      "हे",
      "।</w>"
    ],
    [
      "त",
      "र</w>"
    ],
    [
      "िय",
      "ै</w>"
    ],
    [
      "को",
      "ला</w>"
    ],
    [
      "य",
      "</w>"
    ],
    [
      "ट",
      "ि"
    ],
    [
      "ेआ",
      "।</w>"
    ],
    [
      "श",
      "ै"
    ],
    [
      "ह",
      "ी।</w>"
    ],
    [
      "सभ",
      "नें</w>"
    ],
    [
      "व",
      "े"
    ],
    [
      "ह",
      "ी</w>"
    ],
    [
      "म",
      "ी</w>"
    ],
    [
      "कि",
      "श</w>"
    ],
    [
      "20",
      "1"
    ],
    [
      "य",
      "ू"
    ],
    [
      "प",
      "े"
    ],
    [
      "फि",
      "ल्"
    ],
    [
      "त",
      "ां</w>"
    ],
    [
      "स",
      "लै</w>"
    ],
    [
      "रू",
      "प</w>"
    ],
    [
      "ड्",
      "ड"
    ],
    [
      "र",
      "ु"
    ],
    [
      "खे",
      "ढ"
    ],
    [
      "ब",
      "े"
    ],
    [
      "इ",
      "य"
    ],
    [
      "म",
      "ै"
    ],
    [
      "का",
      "र</w>"
    ],
    [
      "राज",
      "्य</w>"
    ],
    [
      "श",
      "ि"
    ],
    [
      "कीत",
      "ी</w>"
    ],
    [
      "ग",
      "ु"
    ],
    [
      "प",
      "ि"
    ],
    [
      "ग",
      "्"
    ],
    [
      "य",
      "ो"
    ],
    [
      "ग",
      "ै</w>"
    ],
    [
      "आ",
      "ख"
    ],
    [
      "र",
      "े</w>"
    ],
    [
      "ा",
      "।</w>"
    ],
    [
      "द",
      "ियां</w>"
    ],
    [
      "व",
      "र्"
    ],
    [
      "ड",
      "ि"
    ],
    [
      "1",
      "</w>"
    ],
    [
      "म",
      "ा</w>"
    ],
    [
      "त्त",
      "</w>"
    ],
    [
      "ज",
      "ु"
    ],
    [
      "च",
      ",</w>"
    ],
    [
      "श",
      "न</w>"
    ],
    [
      "ति",
      "</w>"
    ],
    [
      "ट",
      "ी</w>"
    ],
    [
      "ग",
      "ो"
    ],
    [
      "कर",
      "दे</w>"
    ],
    [
      "ध",
      "ा"
    ],
    [
      "2",
      "</w>"
    ],
    [
      ")",
      "</w>"
    ],
    [
      "ड़",
      "ी</w>"
    ],
    [
      "ब",
      "ं"
    ],
    [
      "त्",
      "थ"
    ],
    [
      "स",
      "र"
    ],
    [
      "5",
      "</w>"
    ],
    [
      "भार",
      "त</w>"
    ],
    [
      "ज",
      "ी"
    ],
    [
      "पर",
      "ैं"
    ],
    [
      "आ",
      "ह्‌"
    ],
    [
      "ट्ट",
      "</w>"
    ],
    [
      "ज",
      "ी</w>"
    ],
    [
      "ज",
      "़"
    ],
    [
      "ब",
      "ʼ"
    ],
    [
      "ज",
      "न"
    ],
    [
      "न",
      "ु"
    ],
    [
      "द",
      "्"
    ],
    [
      "उ",
      "प्"
    ],
    [
      "म",
      "ल</w>"
    ],
    [
      "स",
      "ै"
    ],
    [
      "के",
      "ईं</w>"
    ],
    [
      "स",
      "ू"
    ],
    [
      "ज",
      "ै"
    ],
    [
      "ट",
      "ा"
    ],
    [
      "फ",
      "</w>"
    ],
    [
      "सक",
      "दा</w>"
    ],
    [
      "ब",
      "र</w>"
    ],
    [
      "स्",
      "थ"
    ],
    [
      "स",
      "ो"
    ],
    [
      "क",
      "म्"
    ],
    [
      "ज",
      "ो"
    ],
    [
      "हि",
      "स्स"
    ],
    [
      "अ",
      "म"
    ],
    [
      "शा",
      "मल</w>"
    ],
    [
      "प",
      "ी"
    ],
    [
      "हो",
      "ंदा</w>"
    ],
    [
      "मा",
      "ल</w>"
    ],
    [
      "ट",
      "र</w>"
    ],
    [
      "तु",
      "स</w>"
    ],
    [
      "क",
      "ं"
    ],
    [
      "ल्",
      "ली</w>"
    ],
    [
      "20",
      "0"
    ],
    [
      "म",
      "ौ"
    ],
    [
      "4",
      "</w>"
    ],
    [
      "इ",
      "स्त"
    ],
    [
      "बि",
      "च्च"
    ],
    [
      "ना",
      "ं"
    ],
    [
      "नि",
      "र्"
    ],
    [
      "क्ख",
      "</w>"
    ],
    [
      "उप्",
      "पर</w>"
    ],
    [
      "जि",
      "सलै</w>"
    ],
    [
      "8",
      "</w>"
    ],
    [
      "इस्त",
      "े"
    ],
    [
      "द",
      "ू"
    ],
    [
      "द",
      "र्"
    ],
    [
      "तौ",
      "रा</w>"
    ],
    [
      "च",
      "ी"
    ],
    [
      "ले",
      "ई</w>"
    ],
    [
      "इस्ते",
      "माल</w>"
    ],
    [
      "3",
      "</w>"
    ],
    [
      "श्",
      "ट्"
    ],
    [
      "म",
      "ो"
    ],
    [
      "ए",
      "ह्‌‌‌दे</w>"
    ],
    [
      "च",
      "्"
    ],
    [
      "ज",
      "्"
    ],
    [
      "च्",
      "छ"
    ],
    [
      "ी",
      ",</w>"
    ],
    [
      "अ",
      "ं"
    ],
    [
      "ट",
      "े"
    ],
    [
      "अप",
      "नी</w>"
    ],
    [
      "6",
      "</w>"
    ],
    [
      "स",
      "ेआ</w>"
    ],
    [
      "क",
      "ै"
    ],
    [
      "7",
      "</w>"
    ],
    [
      "उंʼ",
      "दे</w>"
    ],
    [
      "हो",
      "र</w>"
    ],
    [
      "ब",
      "ार"
    ],
    [
      "रू",
      "</w>"
    ],
    [
      "क",
      "र</w>"
    ],
    [
      "पै",
      "ह्‌‌‌"
    ],
    [
      "च",
      "ि"
    ],
    [
      "दित्त",
      "ा</w>"
    ],
    [
      "लो",
      "कें</w>"
    ],
    [
      "ख",
      "</w>"
    ],
    [
      "स्",
      "था"
    ],
    [
      "हो",
      "ने</w>"
    ],
    [
      "व",
      "ा</w>"
    ],
    [
      "ब",
      "ड्ड"
    ],
    [
      "रा",
      "श्ट्"
    ],
    [
      "फिल्",
      "म</w>"
    ],
    [
      "आ",
      "सेआ</w>"
    ],
    [
      "कीत",
      "ा।</w>"
    ],
    [
      "हो",
      "आ"
    ],
    [
      "पू",
      "र्"
    ],
    [
      "ार",
      "ा</w>"
    ],
    [
      "-",
      "</w>"
    ],
    [
      "प",
      "ो"
    ],
    [
      "परैं",
      "त्त</w>"
    ],
    [
      "फ",
      "ा"
    ],
    [
      "स",
      "ें</w>"
    ],
    [
      "ू",
      "न</w>"
    ],
    [
      "ल",
      "ैं"
    ],
    [
      "आह्‌‌‌",
      "ले</w>"
    ],
    [
      "घ",
      "ट्ट</w>"
    ],
    [
      "न",
      "ै</w>"
    ],
    [
      "ंद",
      "र</w>"
    ],
    [
      "सक",
      "दे</w>"
    ],
    [
      "व",
      "ी"
    ],
    [
      "कर",
      "दा</w>"
    ],
    [
      "ए",
      "ह्</w>"
    ],
    [
      "जेह्‌‌ड़",
      "ा</w>"
    ],
    [
      "ब",
      "र"
    ],
    [
      "म",
      "ू"
    ],
    [
      "ब",
      "ो"
    ],
    [
      "उ",
      "प"
    ],
    [
      "ं",
      ",</w>"
    ],
    [
      "स",
      "ै</w>"
    ],
    [
      "य",
      "ु"
    ],
    [
      "इ",
      "स"
    ],
    [
      "ग",
      "ि"
    ],
    [
      "रू",
      "प"
    ],
    [
      "बं",
      "ध"
    ],
    [
      "ब",
      "ी"
    ],
    [
      "शु",
      "रू</w>"
    ],
    [
      "द",
      "ियें</w>"
    ],
    [
      "ह",
      "े</w>"
    ],
    [
      "सम",
      "ें</w>"
    ],
    [
      "अ",
      "ध"
    ],
    [
      "गे",
      "ई</w>"
    ],
    [
      "द्ध",
      "</w>"
    ],
    [
      "ग",
      "ेआ।</w>"
    ],
    [
      "त",
      "े"
    ],
    [
      "न",
      "ी"
    ],
    [
      "शै",
      "ह्‌"
    ],
    [
      "र",
      "ौ"
    ],
    [
      "स्स",
      "ी</w>"
    ],
    [
      "ज",
      "ा</w>"
    ],
    [
      "उ",
      "ं"
    ],
    [
      "र",
      "क्ख"
    ],
    [
      "म्",
      "ह"
    ],
    [
      "ड",
      "ा"
    ],
    [
      "त",
      "ी"
    ],
    [
      "अम",
      "री"
    ],
    [
      "स्थ",
      "ि"
    ],
    [
      "ग",
      "ै"
    ],
    [
      "ब",
      "र्"
    ],
    [
      "जा",
      "न"
    ],
    [
      "आ",
      "म"
    ],
    [
      "स",
      "ंग"
    ],
    [
      "पै",
      "ह्‌"
    ],
    [
      "उ",
      "त्त"
    ],
    [
      "ड",
      "े"
    ],
    [
      "इ",
      "ं"
    ],
    [
      "र्",
      "थ"
    ],
    [
      "ह",
      "र</w>"
    ],
    [
      "जा",
      "ने</w>"
    ],
    [
      "ो",
      "आ"
    ],
    [
      "कार",
      "ण</w>"
    ],
    [
      "0",
      "0</w>"
    ],
    [
      "स",
      "ल</w>"
    ],
    [
      "बा",
      "द</w>"
    ],
    [
      "त्थ",
      "ै</w>"
    ],
    [
      "कम्",
      "म</w>"
    ],
    [
      ".",
      "ऐ"
    ],
    [
      "क",
      "र्"
    ],
    [
      "नां",
      "ऽ</w>"
    ],
    [
      "लो",
      "क</w>"
    ],
    [
      "ं",
      "।</w>"
    ],
    [
      "कु",
      "सै</w>"
    ],
    [
      "मा",
      "न</w>"
    ],
    [
      "ई",
      "।</w>"
    ],
    [
      "न",
      "ो"
    ],
    [
      "जे",
      "ह्‌"
    ],
    [
      "रा",
      "न</w>"
    ],
    [
      "दि",
      "क्ख"
    ],
    [
      "ं",
      "-"
    ],
    [
      "त",
      "र"
    ],
    [
      "ि",
      "</w>"
    ],
    [
      "ज",
      "ें</w>"
    ],
    [
      "आख",
      "ेआ</w>"
    ],
    [
      "ज",
      "ंदी</w>"
    ],
    [
      "9",
      "</w>"
    ],
    [
      "श",
      "े"
    ],
    [
      "कार",
      "्"
    ],
    [
      "भार",
      "ती</w>"
    ],
    [
      "ज",
      "न</w>"
    ],
    [
      "मि",
      "ल"
    ],
    [
      "द",
      "ौ"
    ],
    [
      "हो",
      "ंदी</w>"
    ],
    [
      "च",
      "ु"
    ],
    [
      "ह",
      "</w>"
    ],
    [
      "म",
      "ं"
    ],
    [
      "म",
      "ते</w>"
    ],
    [
      "मी",
      "ं</w>"
    ],
    [
      "स",
      "ा</w>"
    ],
    [
      "हो",
      "ंदे</w>"
    ],
    [
      "द",
      "ें</w>"
    ],
    [
      "ज",
      "ू"
    ],
    [
      "ज",
      "ने"
    ],
    [
      "ब",
      "ारी</w>"
    ],
    [
      "इय",
      "ै</w>"
    ],
    [
      "राश्ट्",
      "री</w>"
    ],
    [
      "ब",
      "न</w>"
    ],
    [
      "कर",
      "ियै</w>"
    ],
    [
      "जे",
      "ह्‌‌‌दे</w>"
    ],
    [
      "खे",
      "तर</w>"
    ],
    [
      "को",
      "ई</w>"
    ],
    [
      "बʼ",
      "रें</w>"
    ],
    [
      "जा",
      "ई</w>"
    ],
    [
      "क्त",
      "</w>"
    ],
    [
      "बक्ख",
      "</w>"
    ],
    [
      "म",
      "ती</w>"
    ],
    [
      "न",
      "िय"
    ],
    [
      "ए",
      "ह्‌‌‌"
    ],
    [
      "ग्",
      "ग"
    ],
    [
      "कार",
      "ी</w>"
    ],
    [
      "ड़",
      "ी</w>"
    ],
    [
      "कर",
      "ना</w>"
    ],
    [
      "भा",
      "व"
    ],
    [
      "ड़",
      "</w>"
    ],
    [
      "कर",
      "ी"
    ],
    [
      "होआ",
      "</w>"
    ],
    [
      "'",
      "नें</w>"
    ],
    [
      "प",
      "ं"
    ],
    [
      "वि",
      "श्"
    ],
    [
      "र",
      ",</w>"
    ],
    [
      "ब",
      "ु"
    ],
    [
      "तु",
      "सें</w>"
    ],
    [
      "ग",
      "।</w>"
    ],
    [
      "च",
      "े"
    ],
    [
      "को",
      "ल</w>"
    ],
    [
      "द्व",
      "ारा</w>"
    ],
    [
      "ग्र",
      "ा"
    ],
    [
      "ल्",
      "ल"
    ],
    [
      "तु",
      "ंʼ"
    ],
    [
      "म",
      "ार्"
    ],
    [
      "स्",
      "क"
    ],
    [
      "फ",
      "ो"
    ],
    [
      "जै",
      "दा"
    ],
    [
      "म्",
      "म"
    ],
    [
      "ड़",
      "ा</w>"
    ],
    [
      "ड़",
      "े</w>"
    ],
    [
      "त",
      "ें</w>"
    ],
    [
      "ओ",
      "</w>"
    ],
    [
      "म",
      "द"
    ],
    [
      "आ",
      "ई"
    ],
    [
      "कीत",
      "ी।</w>"
    ],
    [
      "स",
      "र</w>"
    ],
    [
      "ग",
      "र</w>"
    ],
    [
      "कं",
      "प"
    ],
    [
      "त",
      "करी"
    ],
    [
      "उंʼ",
      "दी</w>"
    ],
    [
      "तकरी",
      "बन</w>"
    ],
    [
      "द",
      "क्ख"
    ],
    [
      "पैह्‌‌‌",
      "लें</w>"
    ],
    [
      "रूप",
      "ै</w>"
    ],
    [
      "ग",
      "े</w>"
    ],
    [
      "लैं",
      "ड</w>"
    ],
    [
      "ह",
      "ै"
    ],
    [
      "न",
      "िया</w>"
    ],
    [
      "स",
      "न</w>"
    ],
    [
      "च",
      "ा</w>"
    ],
    [
      "य",
      "ां</w>"
    ],
    [
      "प्र",
      "ा"
    ],
    [
      "चा",
      "ल्ली</w>"
    ],
    [
      "ं",
      "गी</w>"
    ],
    [
      "\"",
      "</w>"
    ],
    [
      "स्",
      "ट्"
    ],
    [
      "हा",
      "सल</w>"
    ],
    [
      "स",
      "ार"
    ],
    [
      "ड़",
      "ा</w>"
    ],
    [
      "्य",
      "ू"
    ],
    [
      "ब",
      "द"
    ],
    [
      "बिच्च",
      "ा</w>"
    ],
    [
      "तौ",
      "र</w>"
    ],
    [
      "ओ",
      "ह्</w>"
    ],
    [
      "19",
      "9"
    ],
    [
      "ऊ",
      "ं</w>"
    ],
    [
      "फ",
      "ै"
    ],
    [
      "उ",
      "त्"
    ],
    [
      "म",
      "ता</w>"
    ],
    [
      "ता",
      "ब"
    ],
    [
      "दे",
      "श</w>"
    ],
    [
      "र",
      "ै"
    ],
    [
      "स",
      "दी</w>"
    ],
    [
      "शु",
      "रु"
    ],
    [
      "क्",
      "स</w>"
    ],
    [
      "जि",
      "ʼ"
    ],
    [
      "ट",
      "ो"
    ],
    [
      "मु",
      "क्ख</w>"
    ],
    [
      "द",
      "ो</w>"
    ],
    [
      "उ",
      "स</w>"
    ],
    [
      "शुरु",
      "आ"
    ],
    [
      "हिस्स",
      "ा</w>"
    ],
    [
      "इस",
      "गी</w>"
    ],
    [
      "दु",
      "ए</w>"
    ],
    [
      "खेढ",
      "</w>"
    ],
    [
      "ब",
      "ै"
    ],
    [
      "यु",
      "क्त</w>"
    ],
    [
      "ल्",
      "ल</w>"
    ],
    [
      "हा",
      "ला"
    ],
    [
      "सा",
      "म"
    ],
    [
      "व",
      "ै"
    ],
    [
      "शैह्‌",
      "र</w>"
    ],
    [
      "था",
      "ह्‌‌‌"
    ],
    [
      "ध",
      "</w>"
    ],
    [
      "भ",
      "ू"
    ],
    [
      "ु",
      "</w>"
    ],
    [
      "जैदा",
      "तर</w>"
    ],
    [
      "स्त",
      "ा"
    ],
    [
      "ज",
      "ंदे</w>"
    ],
    [
      "सर",
      "बंध"
    ],
    [
      "-",
      "बक्ख</w>"
    ],
    [
      "दे",
      "श"
    ],
    [
      "द",
      "र"
    ],
    [
      "ल",
      "ग"
    ],
    [
      "बक्ख",
      "-बक्ख</w>"
    ],
    [
      "व",
      "ी</w>"
    ],
    [
      "ी",
      "त</w>"
    ],
    [
      "का",
      "ब"
    ],
    [
      "ब",
      "नी</w>"
    ],
    [
      "ट्ट",
      "ी</w>"
    ],
    [
      "म",
      "न्न"
    ],
    [
      "ध",
      "ार"
    ],
    [
      "दा",
      "न</w>"
    ],
    [
      "न",
      "ै"
    ],
    [
      "ग्र",
      "े"
    ],
    [
      "द",
      "ो"
    ],
    [
      "म",
      "ार"
    ],
    [
      "फ",
      "ु"
    ],
    [
      "ला",
      "इ"
    ],
    [
      "हा",
      ",</w>"
    ],
    [
      "स",
      "र्"
    ],
    [
      "ट्",
      "ठ"
    ],
    [
      "ढ",
      "़"
    ],
    [
      "की",
      "ते</w>"
    ],
    [
      "ल",
      "ौ"
    ],
    [
      "य",
      "र</w>"
    ],
    [
      "ड",
      "ी"
    ],
    [
      "स्था",
      "प"
    ],
    [
      "दु",
      "रान</w>"
    ],
    [
      "कर",
      "ा"
    ],
    [
      "मा",
      "न"
    ],
    [
      "ब",
      "ू"
    ],
    [
      "ड़",
      "</w>"
    ],
    [
      "थ",
      "</w>"
    ],
    [
      "पर",
      "त"
    ],
    [
      "चा",
      "र</w>"
    ],
    [
      "ल",
      "ु"
    ],
    [
      "पर",
      "ि"
    ],
    [
      "उ",
      "ʼ"
    ],
    [
      "फ",
      "ी"
    ],
    [
      "आह्‌",
      "ले</w>"
    ],
    [
      "ख",
      "री"
    ],
    [
      "ट",
      "ै"
    ],
    [
      "फ",
      "े"
    ],
    [
      "कर",
      "ो"
    ],
    [
      "त",
      "री"
    ],
    [
      "आह्‌‌‌",
      "ली</w>"
    ],
    [
      "ओ",
      "।</w>"
    ],
    [
      "व",
      "र</w>"
    ],
    [
      "ट",
      "ें</w>"
    ],
    [
      "त्त",
      "र</w>"
    ],
    [
      "म",
      "ताब"
    ],
    [
      "रौ",
      "ं"
    ],
    [
      "ह",
      "ें</w>"
    ],
    [
      "ल",
      "ं"
    ],
    [
      "श",
      "ी"
    ],
    [
      "दा",
      "र</w>"
    ],
    [
      "जि",
      "त्त"
    ],
    [
      "उ",
      "'नें</w>"
    ],
    [
      "द",
      "स्स"
    ],
    [
      "द",
      "ी"
    ],
    [
      "ख",
      "ु"
    ],
    [
      "म",
      "ारी</w>"
    ],
    [
      "ह",
      "ार"
    ],
    [
      "मौ",
      "त</w>"
    ],
    [
      "जेह्‌‌ड़",
      "े</w>"
    ],
    [
      "जे",
      "कर</w>"
    ],
    [
      "र",
      "-"
    ],
    [
      "ह",
      "ु"
    ],
    [
      "म",
      "क</w>"
    ],
    [
      "लि",
      "ख"
    ],
    [
      "अमरी",
      "का</w>"
    ],
    [
      "ंद",
      "ियां</w>"
    ],
    [
      "प्र",
      "मु"
    ],
    [
      "मद",
      "द</w>"
    ],
    [
      "स्",
      "ट</w>"
    ],
    [
      "पूर्",
      "ण</w>"
    ],
    [
      "क",
      ",</w>"
    ],
    [
      "न",
      "दी</w>"
    ],
    [
      "ने",
      "ंगी</w>"
    ],
    [
      "व",
      "्य"
    ],
    [
      "'",
      "ऊं</w>"
    ],
    [
      "आम",
      "तौरा</w>"
    ],
    [
      "सा",
      "इ"
    ],
    [
      "स्थि",
      "त</w>"
    ],
    [
      "ब",
      "्या"
    ],
    [
      "प्र",
      "ति"
    ],
    [
      "सं",
      "युक्त</w>"
    ],
    [
      "बार",
      "े</w>"
    ],
    [
      "प्रमु",
      "ख</w>"
    ],
    [
      "ं",
      "ट</w>"
    ],
    [
      "गे",
      "ई।</w>"
    ],
    [
      "आ",
      "म</w>"
    ],
    [
      "म",
      "हा"
    ],
    [
      "प्र",
      "ो"
    ],
    [
      "स्ट",
      "े"
    ],
    [
      "1",
      "8"
    ],
    [
      "प",
      "च्छ"
    ],
    [
      "च",
      "ी</w>"
    ],
    [
      "यो",
      "ज"
    ],
    [
      "इ",
      "ʼनें</w>"
    ],
    [
      "रे",
      "ल"
    ],
    [
      "अ",
      "ग"
    ],
    [
      "ड़",
      "े</w>"
    ],
    [
      "ं",
      "द</w>"
    ],
    [
      "व",
      "न</w>"
    ],
    [
      "ण",
      "ें</w>"
    ],
    [
      "ड",
      "ी</w>"
    ],
    [
      "S",
      "</w>"
    ],
    [
      "रा",
      "ज</w>"
    ],
    [
      "खा",
      "स</w>"
    ],
    [
      "म",
      "त</w>"
    ],
    [
      "जेह्‌‌ड़",
      "ी</w>"
    ],
    [
      "र",
      "क्ष"
    ],
    [
      "ै",
      ",</w>"
    ],
    [
      "हा",
      "र</w>"
    ],
    [
      "स",
      "द"
    ],
    [
      "19",
      "8"
    ],
    [
      "िया",
      "ं।</w>"
    ],
    [
      "म्ह",
      "त्त"
    ],
    [
      "स",
      "त</w>"
    ],
    [
      "बिच्च",
      "</w>"
    ],
    [
      "प",
      "ता</w>"
    ],
    [
      "ब",
      "ध"
    ],
    [
      "कर",
      "ण</w>"
    ],
    [
      "ब",
      "ैं"
    ],
    [
      "अ",
      "नु"
    ],
    [
      "पैह्‌",
      "ली</w>"
    ],
    [
      "म",
      "ना"
    ],
    [
      "ला",
      "ई</w>"
    ],
    [
      "पा",
      "नी</w>"
    ],
    [
      "ह",
      "ू"
    ],
    [
      "प",
      "ी</w>"
    ],
    [
      "आ",
      "ं"
    ],
    [
      "सि",
      "ं"
    ],
    [
      "ओ",
      "ह्‌‌‌दे</w>"
    ],
    [
      "दि",
      "न</w>"
    ],
    [
      "गे",
      "।</w>"
    ],
    [
      "ं",
      "बर</w>"
    ],
    [
      "सम",
      "ू"
    ],
    [
      "प",
      "ार्"
    ],
    [
      "संग",
      "ीत</w>"
    ],
    [
      "व",
      "री</w>"
    ],
    [
      "प",
      "रा"
    ],
    [
      "सक",
      "दी</w>"
    ],
    [
      "पै",
      "ह्‌‌"
    ],
    [
      "इय",
      "ें</w>"
    ],
    [
      "श",
      "ो"
    ],
    [
      "ब्",
      "रि"
    ],
    [
      "ज",
      "ारी</w>"
    ],
    [
      "0",
      "00</w>"
    ],
    [
      "ड",
      "िय"
    ],
    [
      "च",
      "ल"
    ],
    [
      "म",
      "न</w>"
    ],
    [
      "का",
      "ल</w>"
    ],
    [
      "ट",
      "न</w>"
    ],
    [
      "निर्",
      "मा"
    ],
    [
      "अ",
      "दा"
    ],
    [
      ":",
      "</w>"
    ],
    [
      "म",
      "त"
    ],
    [
      "जि",
      "त्थै</w>"
    ],
    [
      "चा",
      "हि"
    ],
    [
      "व",
      "पूर्ण</w>"
    ],
    [
      "20",
      "</w>"
    ],
    [
      "19",
      "7"
    ],
    [
      "एह्‌‌‌",
      "दा</w>"
    ],
    [
      ".",
      "ए"
    ],
    [
      "दित्त",
      "ी</w>"
    ],
    [
      "क",
      "ल</w>"
    ],
    [
      "ख",
      "ा</w>"
    ],
    [
      "ंग",
      "ा"
    ],
    [
      "पु",
      "र"
    ],
    [
      "ब",
      "रा"
    ],
    [
      "ख",
      "ी"
    ],
    [
      "ल",
      "र</w>"
    ],
    [
      "प्र",
      "दर्"
    ],
    [
      "न्न",
      "ै</w>"
    ],
    [
      "हि",
      "ंद"
    ],
    [
      "ि",
      "क</w>"
    ],
    [
      "ट",
      "ा</w>"
    ],
    [
      "दित्त",
      "ा।</w>"
    ],
    [
      "ल",
      "न</w>"
    ],
    [
      "शुरुआ",
      "त</w>"
    ],
    [
      "भ",
      "ु"
    ],
    [
      "अध",
      "ि"
    ],
    [
      "ब",
      "न"
    ],
    [
      "त्र",
      "</w>"
    ],
    [
      "बक्ख",
      "ी</w>"
    ],
    [
      "स",
      "म्"
    ],
    [
      "स्स",
      "ै</w>"
    ],
    [
      "जान",
      "ेआ</w>"
    ],
    [
      "लौ",
      "ह्‌‌‌"
    ],
    [
      "सद",
      "स्"
    ],
    [
      "हाला",
      "ं-"
    ],
    [
      "ध",
      "र्"
    ],
    [
      "पर",
      "ोआ"
    ],
    [
      "घ",
      "ा"
    ],
    [
      "श",
      "ी</w>"
    ],
    [
      "अप",
      "ना</w>"
    ],
    [
      "उ",
      "सलै</w>"
    ],
    [
      "स",
      "ौ"
    ],
    [
      "सम",
      "र्थ"
    ],
    [
      "उंʼ",
      "दा</w>"
    ],
    [
      "ई",
      ",</w>"
    ],
    [
      "'",
      "</w>"
    ],
    [
      "म",
      "हि"
    ],
    [
      "टी",
      "म</w>"
    ],
    [
      "ा",
      ",</w>"
    ],
    [
      "स्",
      "प"
    ],
    [
      "लो",
      "क"
    ],
    [
      "त्र",
      "ी</w>"
    ],
    [
      "म्हत्त",
      "वपूर्ण</w>"
    ],
    [
      "ट",
      "र"
    ],
    [
      "म्ह",
      "ी"
    ],
    [
      "तुंʼ",
      "दे</w>"
    ],
    [
      "दक्ख",
      "न</w>"
    ],
    [
      "र",
      "िय"
    ],
    [
      "ह",
      "म"
    ],
    [
      "ं",
      "ड</w>"
    ],
    [
      "मी",
      "टर</w>"
    ],
    [
      "त",
      "ियें</w>"
    ],
    [
      "य",
      "र"
    ],
    [
      "आ",
      "र"
    ],
    [
      "'",
      "दे</w>"
    ],
    [
      "प्र",
      "भाव"
    ],
    [
      "क",
      "न</w>"
    ],
    [
      "न",
      "ल</w>"
    ],
    [
      "खरी",
      "द"
    ],
    [
      "स",
      "मा"
    ],
    [
      "ल",
      ",</w>"
    ],
    [
      "थाह्‌‌‌",
      "र</w>"
    ],
    [
      "ब्",
      "हा"
    ],
    [
      "्या",
      "र</w>"
    ],
    [
      "मन्न",
      "ेआ</w>"
    ],
    [
      "खे",
      "त"
    ],
    [
      "आह्‌",
      "ली</w>"
    ],
    [
      "ति",
      "हा"
    ],
    [
      "नि",
      "क</w>"
    ],
    [
      "ने",
      "हा</w>"
    ],
    [
      "ल्",
      "लै</w>"
    ],
    [
      "बना",
      "या</w>"
    ],
    [
      "ठ",
      "</w>"
    ],
    [
      "म",
      "ंदर</w>"
    ],
    [
      "कर",
      "दी</w>"
    ],
    [
      "स्",
      "त</w>"
    ],
    [
      "ं",
      "स</w>"
    ],
    [
      "न",
      "ौ"
    ],
    [
      "दे",
      "ने</w>"
    ],
    [
      "ब",
      "ॉ"
    ],
    [
      "परत",
      "ियै</w>"
    ],
    [
      "जे",
      "ह्"
    ],
    [
      "ड",
      "ो"
    ],
    [
      "ल",
      "ब</w>"
    ],
    [
      "बर",
      "त"
    ],
    [
      "फ्",
      "ही</w>"
    ],
    [
      "च",
      "त</w>"
    ],
    [
      "पू",
      "र"
    ],
    [
      "गे",
      "दे</w>"
    ],
    [
      "उ",
      "च्च"
    ],
    [
      "सार",
      "े</w>"
    ],
    [
      "िय",
      "ो"
    ],
    [
      "च",
      "ौ"
    ],
    [
      "म",
      "ै</w>"
    ],
    [
      "ष",
      "्"
    ],
    [
      "अमरी",
      "की</w>"
    ],
    [
      "घ",
      "ो"
    ],
    [
      "म",
      "नु"
    ],
    [
      "ल",
      "य</w>"
    ],
    [
      "को",
      "श"
    ],
    [
      "कंप",
      "नी</w>"
    ],
    [
      "जिʼ",
      "यां</w>"
    ],
    [
      "लो",
      "ड़</w>"
    ],
    [
      "न",
      "-"
    ],
    [
      "च",
      "ो"
    ],
    [
      "बा",
      "ल</w>"
    ],
    [
      "19",
      "6"
    ],
    [
      "छ",
      "ो"
    ],
    [
      "बड्ड",
      "े</w>"
    ],
    [
      "श",
      "त</w>"
    ],
    [
      "पू",
      "री</w>"
    ],
    [
      "अ",
      "ला"
    ],
    [
      "न्",
      "ने</w>"
    ],
    [
      "इ",
      "तिहा"
    ],
    [
      "र",
      "िया</w>"
    ],
    [
      "ल",
      "ब्"
    ],
    [
      "ध",
      "्या"
    ],
    [
      "ख",
      "ो"
    ],
    [
      "स",
      "े</w>"
    ],
    [
      "िय",
      "</w>"
    ],
    [
      "क",
      "दें</w>"
    ],
    [
      "ञ",
      "्या"
    ],
    [
      ".",
      "सी"
    ],
    [
      "ख",
      "त"
    ],
    [
      "ा",
      "ई</w>"
    ],
    [
      "फ्",
      "फ"
    ],
    [
      "क",
      "ृ"
    ],
    [
      "बना",
      "ई</w>"
    ],
    [
      "लै",
      "ता</w>"
    ],
    [
      "म",
      "काब"
    ],
    [
      "क्",
      "स"
    ],
    [
      "दौ",
      "नें</w>"
    ],
    [
      "के",
      ",</w>"
    ],
    [
      "भ",
      "े"
    ],
    [
      "त्",
      "मक</w>"
    ],
    [
      "ज़",
      "</w>"
    ],
    [
      "म",
      "जू"
    ],
    [
      "विश्",
      "व</w>"
    ],
    [
      "ा",
      "न</w>"
    ],
    [
      "आ",
      "ई</w>"
    ],
    [
      "अ",
      "व"
    ],
    [
      "इय",
      "ां</w>"
    ],
    [
      "गो",
      "ल</w>"
    ],
    [
      "च",
      "ै"
    ],
    [
      "हो",
      "र"
    ],
    [
      "त",
      "ै"
    ],
    [
      "प",
      "र्"
    ],
    [
      "हिस्स",
      "े</w>"
    ],
    [
      "र",
      "ल</w>"
    ],
    [
      "बड्ड",
      "ी</w>"
    ],
    [
      "मा",
      "म"
    ],
    [
      "ता",
      "न</w>"
    ],
    [
      "का",
      "म"
    ],
    [
      "उत्",
      "पा"
    ],
    [
      "स",
      "मु"
    ],
    [
      "बना",
      "ने</w>"
    ],
    [
      "गे",
      "दा</w>"
    ],
    [
      "पु",
      "र</w>"
    ],
    [
      "ह",
      "ियां।</w>"
    ],
    [
      "कार",
      "्य"
    ],
    [
      "अ",
      "भ"
    ],
    [
      "वि",
      "द्य"
    ],
    [
      "क",
      "मा"
    ],
    [
      "पु",
      "ज्"
    ],
    [
      "रा",
      "इ"
    ],
    [
      "प",
      "ौ"
    ],
    [
      "ह्‌",
      "</w>"
    ],
    [
      "निर्मा",
      "ण</w>"
    ],
    [
      "म",
      "श्"
    ],
    [
      "उत्त",
      "र</w>"
    ],
    [
      "मि",
      "गी</w>"
    ],
    [
      "मश्",
      "हू"
    ],
    [
      "आह्‌‌‌",
      "ला</w>"
    ],
    [
      "तु",
      "ल"
    ],
    [
      "श",
      "ब्"
    ],
    [
      "पैह्‌‌‌",
      "ले</w>"
    ],
    [
      "दु",
      "निया</w>"
    ],
    [
      "प्र",
      "े"
    ],
    [
      "ख",
      "ला"
    ],
    [
      "अ",
      "बा"
    ],
    [
      "हिंद",
      "ू</w>"
    ],
    [
      "कोश",
      "श</w>"
    ],
    [
      "ऐ",
      "स्स"
    ],
    [
      "ज",
      "र्"
    ],
    [
      "होर",
      "नें</w>"
    ],
    [
      "त",
      "ो"
    ],
    [
      "ंग",
      "्"
    ],
    [
      "ग",
      "र्"
    ],
    [
      "ले",
      "इयै</w>"
    ],
    [
      "प्",
      "प"
    ],
    [
      "न",
      "र</w>"
    ],
    [
      "ं",
      "भ"
    ],
    [
      "स्क",
      "ू"
    ],
    [
      "उ",
      "सी</w>"
    ],
    [
      "मू",
      "ल</w>"
    ],
    [
      "क",
      "ल्"
    ],
    [
      "जि",
      "सी</w>"
    ],
    [
      "श",
      "क</w>"
    ],
    [
      "न",
      "ग"
    ],
    [
      "शि",
      "क्ष"
    ],
    [
      "'",
      "र"
    ],
    [
      "यो",
      "ग</w>"
    ],
    [
      "ख",
      "्"
    ],
    [
      "न्",
      "यू"
    ],
    [
      "र",
      "ण</w>"
    ],
    [
      "िय",
      "न</w>"
    ],
    [
      "िया",
      "ई</w>"
    ],
    [
      "कु",
      "ल</w>"
    ],
    [
      "ख",
      "र्"
    ],
    [
      "बा",
      "र</w>"
    ],
    [
      "था",
      "ह्‌"
    ],
    [
      "का",
      "उं"
    ],
    [
      "मश्हू",
      "र</w>"
    ],
    [
      "स्",
      "वी"
    ],
    [
      "फ",
      "ी</w>"
    ],
    [
      "फ",
      "ौ"
    ],
    [
      "ेआ",
      ",</w>"
    ],
    [
      "ग",
      "ी"
    ],
    [
      "त",
      "्य"
    ],
    [
      "ब",
      "जा"
    ],
    [
      "ध",
      "ी</w>"
    ],
    [
      "घ",
      "र</w>"
    ],
    [
      "ंग",
      "ा</w>"
    ],
    [
      "त्त",
      ",</w>"
    ],
    [
      "उ",
      "स्सी</w>"
    ],
    [
      "गि",
      "न"
    ],
    [
      "आ",
      "</w>"
    ],
    [
      "सा",
      "न</w>"
    ],
    [
      "क",
      "ैं"
    ],
    [
      "कार्",
      "ड</w>"
    ],
    [
      "न्न",
      "ा</w>"
    ],
    [
      "ह",
      "ी"
    ],
    [
      "19",
      "5"
    ],
    [
      ",",
      "000</w>"
    ],
    [
      "धा",
      "न</w>"
    ],
    [
      "ओ",
      "ह्‌‌‌"
    ],
    [
      "ता",
      "एं</w>"
    ],
    [
      "प्",
      "हा"
    ],
    [
      "परैं",
      "त्त,</w>"
    ],
    [
      "ं",
      "द्र"
    ],
    [
      "उ",
      "म"
    ],
    [
      "कार",
      "ें</w>"
    ],
    [
      "सं",
      "घ"
    ],
    [
      "जन",
      "म</w>"
    ],
    [
      "ह",
      "ून</w>"
    ],
    [
      ".ऐ",
      "स्स"
    ],
    [
      "स",
      "क</w>"
    ],
    [
      "ट",
      "े</w>"
    ],
    [
      "(",
      "</w>"
    ],
    [
      "क",
      "ला"
    ],
    [
      "क",
      "म"
    ],
    [
      "च",
      "े</w>"
    ],
    [
      "थ",
      "्"
    ],
    [
      "लोक",
      "प्र"
    ],
    [
      "स्त",
      "र</w>"
    ],
    [
      "क्र",
      "ि"
    ],
    [
      "थ",
      "ी</w>"
    ],
    [
      "जु",
      "द्ध</w>"
    ],
    [
      "उʼ",
      "नेंगी</w>"
    ],
    [
      "क्त",
      "ि</w>"
    ],
    [
      "य",
      "क</w>"
    ],
    [
      "क",
      "न"
    ],
    [
      "ब",
      "गै"
    ],
    [
      "मा",
      "इ"
    ],
    [
      "आ",
      "र्"
    ],
    [
      "बड्ड",
      "ा</w>"
    ],
    [
      "सर",
      "कार</w>"
    ],
    [
      "र",
      "त</w>"
    ],
    [
      "ध",
      "ि</w>"
    ],
    [
      "सा",
      "ं"
    ],
    [
      "ल",
      "ियें</w>"
    ],
    [
      "स",
      "ला"
    ],
    [
      "टा",
      "इ"
    ],
    [
      "भा",
      "शा</w>"
    ],
    [
      "19",
      "</w>"
    ],
    [
      "काम",
      "या"
    ],
    [
      "चा",
      "ं"
    ],
    [
      "ता",
      "र</w>"
    ],
    [
      "‌",
      "हा"
    ],
    [
      "न",
      "में</w>"
    ],
    [
      "बं",
      "द</w>"
    ],
    [
      "ग",
      "त</w>"
    ],
    [
      "मताब",
      "क</w>"
    ],
    [
      "क्र",
      "ो"
    ],
    [
      "रा",
      "हें</w>"
    ],
    [
      "अ",
      "ग्ग"
    ],
    [
      "प्रभाव",
      "त</w>"
    ],
    [
      "फु",
      "ट"
    ],
    [
      "ं",
      "त्र"
    ],
    [
      "पो",
      "र्"
    ],
    [
      "ल्",
      "ड</w>"
    ],
    [
      "हे",
      ",</w>"
    ],
    [
      "पर",
      ",</w>"
    ],
    [
      "प्र",
      "ै"
    ],
    [
      "ए",
      "ं"
    ],
    [
      "हो",
      "ग।</w>"
    ],
    [
      "ना",
      "ट"
    ],
    [
      "ार",
      "ें</w>"
    ],
    [
      "र",
      "ंग"
    ],
    [
      "म",
      "ध"
    ],
    [
      "एह्‌‌‌",
      "दी</w>"
    ],
    [
      "स्ट",
      "ा"
    ],
    [
      "प्रदर्",
      "शन</w>"
    ],
    [
      "न",
      "ियें</w>"
    ],
    [
      "अबा",
      "दी</w>"
    ],
    [
      "बा",
      "द्ध"
    ],
    [
      "ल",
      "ू"
    ],
    [
      "ड",
      "ा</w>"
    ],
    [
      "अ",
      "ंदर</w>"
    ],
    [
      "क",
      "ला</w>"
    ],
    [
      "जि",
      "ले</w>"
    ],
    [
      "सदस्",
      "य</w>"
    ],
    [
      "द",
      "ोआ"
    ],
    [
      "त",
      "न</w>"
    ],
    [
      "ार",
      "त</w>"
    ],
    [
      "ड",
      "न</w>"
    ],
    [
      "ह",
      "ी,</w>"
    ],
    [
      "दि",
      "ंदा</w>"
    ],
    [
      "राज",
      "ा</w>"
    ],
    [
      "राज",
      "्य"
    ],
    [
      "र्",
      "स</w>"
    ],
    [
      "ऐ",
      "न्न"
    ],
    [
      "ार",
      "ियें</w>"
    ],
    [
      "थ",
      "ो"
    ],
    [
      "पू",
      "रा</w>"
    ],
    [
      "का",
      "ं"
    ],
    [
      "पि",
      "क</w>"
    ],
    [
      "त",
      "र्"
    ],
    [
      "स्क",
      "ृ"
    ],
    [
      "इ",
      "ंड"
    ],
    [
      "े",
      "।</w>"
    ],
    [
      "जी",
      "वन</w>"
    ],
    [
      "को",
      "</w>"
    ],
    [
      "या",
      "।</w>"
    ],
    [
      "फ",
      "ा</w>"
    ],
    [
      "ला",
      "ज</w>"
    ],
    [
      "ओ",
      "ड़"
    ],
    [
      "खला",
      "फ</w>"
    ],
    [
      "व",
      "ो"
    ],
    [
      "उत्त",
      "री</w>"
    ],
    [
      "क्र",
      "म</w>"
    ],
    [
      "स",
      "म</w>"
    ],
    [
      "ओ",
      ",</w>"
    ],
    [
      "टि",
      "श</w>"
    ],
    [
      "द",
      "न</w>"
    ],
    [
      "जेह्‌",
      "दे</w>"
    ],
    [
      "म",
      "सा"
    ],
    [
      "ब",
      "रे"
    ],
    [
      "मा",
      "ल"
    ],
    [
      "ब",
      "रो"
    ],
    [
      "ख",
      "ढ"
    ],
    [
      "कर",
      "ा</w>"
    ],
    [
      "ना",
      "एं</w>"
    ],
    [
      "ै",
      "-"
    ],
    [
      "मै",
      "च</w>"
    ],
    [
      "दा",
      "।</w>"
    ],
    [
      "ा",
      "ं"
    ],
    [
      "य",
      "न</w>"
    ],
    [
      "ब",
      "ा</w>"
    ],
    [
      "पा",
      "र</w>"
    ],
    [
      "जि",
      "ंʼ"
    ],
    [
      "1",
      "0"
    ],
    [
      "परोआ",
      "र</w>"
    ],
    [
      "ख",
      "ड"
    ],
    [
      "न",
      "व"
    ],
    [
      "अग्ग",
      "ें</w>"
    ],
    [
      "श",
      "ें</w>"
    ],
    [
      "s",
      "</w>"
    ],
    [
      "दि",
      "ल्ली</w>"
    ],
    [
      "र्",
      "ड</w>"
    ],
    [
      "शे",
      "श</w>"
    ],
    [
      "पैह्‌‌",
      "ला</w>"
    ],
    [
      "फा",
      "इ"
    ],
    [
      "19",
      "4"
    ],
    [
      "नि",
      "श्"
    ],
    [
      "सं",
      "क्र"
    ],
    [
      "रौ",
      "ह्‌‌‌"
    ],
    [
      "भु",
      "ग"
    ],
    [
      "लै",
      "ता"
    ],
    [
      "दस्स",
      "ेआ</w>"
    ],
    [
      "र",
      "च"
    ],
    [
      "कं",
      "ढ"
    ],
    [
      "म",
      "र्"
    ],
    [
      "तुल",
      "ना</w>"
    ],
    [
      "ब्या",
      "ह्‌‌</w>"
    ],
    [
      "लै",
      "ने</w>"
    ],
    [
      "होआ",
      "।</w>"
    ],
    [
      "घ",
      "ट"
    ],
    [
      "ब",
      "ंगा"
    ],
    [
      "पू",
      "रे</w>"
    ],
    [
      "द",
      "र</w>"
    ],
    [
      "ण",
      "ा"
    ],
    [
      "धा",
      "र</w>"
    ],
    [
      "ब्रि",
      "टिश</w>"
    ],
    [
      "साम",
      "राज</w>"
    ],
    [
      "लोकप्र",
      "िय</w>"
    ],
    [
      "न",
      "ां</w>"
    ],
    [
      "ए",
      "श"
    ],
    [
      "क्क",
      "</w>"
    ],
    [
      "ज",
      "ै</w>"
    ],
    [
      "व",
      "े</w>"
    ],
    [
      "क",
      "ल"
    ],
    [
      "टि",
      "ंग</w>"
    ],
    [
      "लाइ",
      "न</w>"
    ],
    [
      "वा",
      "न</w>"
    ],
    [
      "ओ",
      "लं"
    ],
    [
      "क",
      "मी</w>"
    ],
    [
      "प्",
      "त</w>"
    ],
    [
      "मताब",
      "क,</w>"
    ],
    [
      "शा",
      "सन</w>"
    ],
    [
      "पा",
      "लि"
    ],
    [
      "सम",
      "झ"
    ],
    [
      "ब",
      "ज"
    ],
    [
      "ख",
      "ि"
    ],
    [
      "त",
      "्यार</w>"
    ],
    [
      "ब",
      "े</w>"
    ],
    [
      "मनु",
      "क्ख"
    ],
    [
      "ब",
      "द्ध</w>"
    ],
    [
      "स",
      ",</w>"
    ],
    [
      "ल",
      "ड़"
    ],
    [
      "प्र",
      "देश</w>"
    ],
    [
      "अं",
      "ग्रे"
    ],
    [
      "1",
      "5"
    ],
    [
      "भू",
      "मि"
    ],
    [
      "ट्",
      "स</w>"
    ],
    [
      "1",
      "7"
    ],
    [
      "ल",
      "ियां</w>"
    ],
    [
      "सरबंध",
      "ी</w>"
    ],
    [
      "पु",
      "ल"
    ],
    [
      "फी",
      "सदी</w>"
    ],
    [
      "खेढ",
      "ें</w>"
    ],
    [
      "स्थाप",
      "त</w>"
    ],
    [
      "स्",
      "स</w>"
    ],
    [
      "प",
      "िय"
    ],
    [
      "त्र",
      "ै</w>"
    ],
    [
      "ङ",
      "न।</w>"
    ],
    [
      "पच्छ",
      "मी</w>"
    ],
    [
      "गे",
      "दी</w>"
    ],
    [
      "भुग",
      "तान</w>"
    ],
    [
      "काउं",
      "टी</w>"
    ],
    [
      "डिय",
      "ो</w>"
    ],
    [
      "ची",
      "न</w>"
    ],
    [
      "पूर्",
      "व</w>"
    ],
    [
      "ी",
      "क</w>"
    ],
    [
      "त",
      "ै</w>"
    ],
    [
      "हो",
      "ए</w>"
    ],
    [
      "जेह्‌",
      "दा</w>"
    ],
    [
      "2",
      "1</w>"
    ],
    [
      "ह",
      "फ्"
    ],
    [
      "म",
      "ज"
    ],
    [
      "के",
      "इयें</w>"
    ],
    [
      "ल",
      "िय"
    ],
    [
      "श्",
      "ट</w>"
    ],
    [
      "पै",
      "दा</w>"
    ],
    [
      "धर्",
      "म</w>"
    ],
    [
      "सै",
      "ना</w>"
    ],
    [
      "ह्‌‌",
      "र</w>"
    ],
    [
      "ः",
      "</w>"
    ],
    [
      "फ्",
      "रा"
    ],
    [
      "हालां-",
      "के</w>"
    ],
    [
      "रक्ख",
      "ेआ</w>"
    ],
    [
      "फै",
      "स"
    ],
    [
      "र",
      "िया"
    ],
    [
      "ह्‌",
      "दे</w>"
    ],
    [
      "प",
      "ति</w>"
    ],
    [
      "न",
      "ती"
    ],
    [
      "ब",
      "शेश</w>"
    ],
    [
      "का",
      "स</w>"
    ],
    [
      "जै",
      "न</w>"
    ],
    [
      "ब",
      "ल</w>"
    ],
    [
      "समू",
      "ह्</w>"
    ],
    [
      "जने",
      "ह्</w>"
    ],
    [
      "ग",
      "ल</w>"
    ],
    [
      "दि",
      "ंदे</w>"
    ],
    [
      "स्थाप",
      "ना</w>"
    ],
    [
      "रो",
      "क"
    ],
    [
      "श",
      "री"
    ],
    [
      "स्ट",
      "ो"
    ],
    [
      "1",
      "0</w>"
    ],
    [
      "ल्",
      "स</w>"
    ],
    [
      "ब",
      "मारी</w>"
    ],
    [
      "ड",
      "र</w>"
    ],
    [
      "सं",
      "स्"
    ],
    [
      "ज",
      "र</w>"
    ],
    [
      "म",
      "का"
    ],
    [
      "ली",
      "ग</w>"
    ],
    [
      "उप",
      "लब्"
    ],
    [
      "खेत",
      "रें</w>"
    ],
    [
      "लैता",
      "।</w>"
    ],
    [
      "ब",
      "ने</w>"
    ],
    [
      "ी",
      "ल</w>"
    ],
    [
      "दि",
      "नें</w>"
    ],
    [
      "से",
      "वा</w>"
    ],
    [
      "ं",
      "ट"
    ],
    [
      "1",
      "6"
    ],
    [
      "201",
      "0</w>"
    ],
    [
      "ले",
      "ख"
    ],
    [
      "प्र",
      "दान</w>"
    ],
    [
      "ओलं",
      "पिक</w>"
    ],
    [
      "हिस्स",
      "ें</w>"
    ],
    [
      "ट्",
      "रा"
    ],
    [
      "ध",
      "ि"
    ],
    [
      "ध्या",
      "न</w>"
    ],
    [
      "करो",
      "ड़</w>"
    ],
    [
      "ग",
      "ा</w>"
    ],
    [
      "स्ता",
      "न</w>"
    ],
    [
      ";",
      "</w>"
    ],
    [
      "म",
      "र"
    ],
    [
      "ज",
      "ंग"
    ],
    [
      "शैह्‌",
      "रै</w>"
    ],
    [
      "धार",
      "ण</w>"
    ],
    [
      "र्",
      "‌हा"
    ],
    [
      "न",
      "िया"
    ],
    [
      "म",
      ",</w>"
    ],
    [
      "दे",
      "व"
    ],
    [
      "वर्",
      "त"
    ],
    [
      "जि",
      "स्सी</w>"
    ],
    [
      "ब",
      "ल्"
    ],
    [
      "पर",
      "ं"
    ],
    [
      "लो",
      "</w>"
    ],
    [
      "व",
      "ं"
    ],
    [
      "क",
      "दे"
    ],
    [
      "फ",
      "र्"
    ],
    [
      "मा",
      "र</w>"
    ],
    [
      "न",
      "गर</w>"
    ],
    [
      "इं",
      "टर"
    ],
    [
      "पर",
      "े"
    ],
    [
      "करो",
      "।</w>"
    ],
    [
      "अ",
      "र्"
    ],
    [
      "पि",
      "छ"
    ],
    [
      "र",
      "ख"
    ],
    [
      "म",
      "ैं"
    ],
    [
      "प",
      "ार"
    ],
    [
      "ठ",
      "ीक</w>"
    ],
    [
      "रौं",
      "ह्‌‌‌दे</w>"
    ],
    [
      "वि",
      "ज्ञ"
    ],
    [
      "ल",
      "म्"
    ],
    [
      "योज",
      "त</w>"
    ],
    [
      "201",
      "4</w>"
    ],
    [
      "न्",
      "न</w>"
    ],
    [
      "अ",
      "ल्"
    ],
    [
      "के",
      "ंदर</w>"
    ],
    [
      "ब",
      "ौ"
    ],
    [
      "स",
      "ार्"
    ],
    [
      "देश",
      "ें</w>"
    ],
    [
      "त",
      "री</w>"
    ],
    [
      "बगै",
      "र</w>"
    ],
    [
      "त्",
      "व</w>"
    ],
    [
      "ख",
      "रा"
    ],
    [
      "जन",
      "क</w>"
    ],
    [
      "बʼ",
      "रे</w>"
    ],
    [
      "ला",
      "ने</w>"
    ],
    [
      "इ",
      "स्सी</w>"
    ],
    [
      "द",
      "'ऊं</w>"
    ],
    [
      "ना",
      "इ"
    ],
    [
      "ह्",
      "दे</w>"
    ],
    [
      "सि",
      "स्ट"
    ],
    [
      "द्",
      "हा"
    ],
    [
      "ब",
      "ड़ा</w>"
    ],
    [
      "न",
      "र्"
    ],
    [
      "शब्",
      "द</w>"
    ],
    [
      "ं",
      "ब"
    ],
    [
      "ग",
      "ल्ल</w>"
    ],
    [
      "ब्",
      "रा"
    ],
    [
      "ल",
      "ग्ग"
    ],
    [
      "ची",
      "जें</w>"
    ],
    [
      "फ",
      "र"
    ],
    [
      "य",
      "ें</w>"
    ],
    [
      "प",
      "न</w>"
    ],
    [
      "दू",
      "ई</w>"
    ],
    [
      "सिं",
      "ह</w>"
    ],
    [
      "अ",
      "ज्"
    ],
    [
      "स्ट",
      "र</w>"
    ],
    [
      "सि",
      "त"
    ],
    [
      "प",
      "सं"
    ],
    [
      "ल्",
      "ले</w>"
    ],
    [
      "स",
      "िया"
    ],
    [
      "कर",
      "ो</w>"
    ],
    [
      "ड्ड",
      "ी</w>"
    ],
    [
      "छ",
      "ा"
    ],
    [
      "च",
      "र्"
    ],
    [
      "उम",
      "री</w>"
    ],
    [
      "स्थि",
      "ति</w>"
    ],
    [
      "शै",
      "ल</w>"
    ],
    [
      "ड्",
      "ढ"
    ],
    [
      "जन",
      "वरी</w>"
    ],
    [
      "ब",
      "ड़ा</w>"
    ],
    [
      "ध",
      "ु"
    ],
    [
      "%",
      "</w>"
    ],
    [
      "इ",
      "न</w>"
    ],
    [
      "ना",
      "म</w>"
    ],
    [
      "स्ट्",
      "रेल"
    ],
    [
      "फिल्",
      "में</w>"
    ],
    [
      "मि",
      "ली</w>"
    ],
    [
      "ा",
      "लय</w>"
    ],
    [
      "रक्ष",
      "ा</w>"
    ],
    [
      "बा",
      "प"
    ],
    [
      "जा",
      "त"
    ],
    [
      "आ",
      "ं</w>"
    ],
    [
      "पु",
      "रा"
    ],
    [
      "ी",
      "र</w>"
    ],
    [
      "हो",
      "ंदियां</w>"
    ],
    [
      "व",
      "्या"
    ],
    [
      "आह्‌",
      "ला</w>"
    ],
    [
      "औ",
      "ने</w>"
    ],
    [
      "ब",
      "चा"
    ],
    [
      "ग्रा",
      "ं"
    ],
    [
      "जा",
      "ना</w>"
    ],
    [
      "रो",
      "</w>"
    ],
    [
      "ठ",
      "न</w>"
    ],
    [
      "क्र",
      "े"
    ],
    [
      "तौ",
      "रै</w>"
    ],
    [
      "मार्",
      "च</w>"
    ],
    [
      "पालि",
      "का</w>"
    ],
    [
      "वे",
      "श</w>"
    ],
    [
      "ऐ",
      "फ्फ"
    ],
    [
      "राश्ट्",
      "र"
    ],
    [
      "त्र",
      "ि"
    ],
    [
      "स",
      "ल"
    ],
    [
      "सम",
      "स्"
    ],
    [
      "क",
      "ॉ"
    ],
    [
      "अ",
      "ंद"
    ],
    [
      "ऑ",
      "फ</w>"
    ],
    [
      "ग",
      "ण"
    ],
    [
      ".",
      "आई"
    ],
    [
      "क",
      "सत</w>"
    ],
    [
      "पं",
      "जा"
    ],
    [
      "बार",
      "ै</w>"
    ],
    [
      "जि",
      "ं"
    ],
    [
      "अ",
      "प्रै"
    ],
    [
      "क्",
      "हा"
    ],
    [
      "छ",
      "ड़ा</w>"
    ],
    [
      "उपलब्",
      "ध</w>"
    ],
    [
      "उ",
      "त्थै</w>"
    ],
    [
      "मं",
      "त्री</w>"
    ],
    [
      ".सी",
      ".</w>"
    ],
    [
      "अध",
      "्य"
    ],
    [
      "अ",
      "मे"
    ],
    [
      "कदे",
      "ं-"
    ],
    [
      "दि",
      "सं"
    ],
    [
      "ल्",
      "यू"
    ],
    [
      "बा",
      "ह्‌‌र</w>"
    ],
    [
      "जान",
      "कारी</w>"
    ],
    [
      "वा",
      "द</w>"
    ],
    [
      "विश्",
      "व"
    ],
    [
      "ग्",
      "गी</w>"
    ],
    [
      "न्",
      "स</w>"
    ],
    [
      "र",
      "म</w>"
    ],
    [
      "3",
      "0</w>"
    ],
    [
      "ख",
      "ʼ"
    ],
    [
      "ल",
      "त</w>"
    ],
    [
      "अं",
      "तर्"
    ],
    [
      "सरबंध",
      "त</w>"
    ],
    [
      "ल",
      "-"
    ],
    [
      "दिक्ख",
      "ेआ</w>"
    ],
    [
      "शि",
      "प</w>"
    ],
    [
      "रौं",
      "ह्‌‌‌"
    ],
    [
      "नु",
      "क"
    ],
    [
      "लग",
      "दा</w>"
    ],
    [
      "पा",
      "ल</w>"
    ],
    [
      "धा",
      "नी</w>"
    ],
    [
      "अध",
      "ारत</w>"
    ],
    [
      "ली",
      "ज</w>"
    ],
    [
      "सि",
      "द्ध"
    ],
    [
      "न",
      "भा"
    ],
    [
      "ण",
      "ा</w>"
    ],
    [
      "ल",
      "क्ष"
    ],
    [
      "पे",
      "श</w>"
    ],
    [
      "उं",
      "'"
    ],
    [
      "दू",
      "र</w>"
    ],
    [
      "ार्",
      "थ"
    ],
    [
      "म",
      "सू"
    ],
    [
      "201",
      "3</w>"
    ],
    [
      "बद",
      "ल"
    ],
    [
      "2",
      "2</w>"
    ],
    [
      "निय",
      "ंत्र"
    ],
    [
      "र",
      "न</w>"
    ],
    [
      "मजू",
      "द</w>"
    ],
    [
      "बा",
      "की</w>"
    ],
    [
      "टि",
      "क</w>"
    ],
    [
      "त",
      ",</w>"
    ],
    [
      "शुरुआ",
      "ती</w>"
    ],
    [
      "कंप",
      "्यू"
    ],
    [
      "ार",
      "ो"
    ],
    [
      "ऐ",
      "म्म"
    ],
    [
      "न्न",
      "ी</w>"
    ],
    [
      "द्य",
      "ो"
    ],
    [
      "ट",
      "ू"
    ],
    [
      "ब",
      "ंड"
    ],
    [
      "उ",
      "द्"
    ],
    [
      "ला",
      "एं</w>"
    ],
    [
      "श्र",
      "े"
    ],
    [
      "आ",
      "पू"
    ],
    [
      "य",
      "ू</w>"
    ],
    [
      "पच्छ",
      "म</w>"
    ],
    [
      "के",
      "रल</w>"
    ],
    [
      "हा",
      "इ"
    ],
    [
      "उं",
      "'दे</w>"
    ],
    [
      "म",
      "ंद"
    ],
    [
      ".",
      "बी"
    ],
    [
      "ध",
      "ो"
    ],
    [
      "स्थ",
      "ा</w>"
    ],
    [
      "घ",
      "ैं"
    ],
    [
      "सं",
      "स्कृ"
    ],
    [
      "ऊ",
      "</w>"
    ],
    [
      "नि",
      "जी</w>"
    ],
    [
      "फ्",
      "री"
    ],
    [
      "इतिहा",
      "स</w>"
    ],
    [
      "ल",
      "गा"
    ],
    [
      "वा",
      ",</w>"
    ],
    [
      "पिय",
      "न"
    ],
    [
      "शै",
      "ह्‌‌‌"
    ],
    [
      "ज",
      "मी"
    ],
    [
      "कीत",
      "ा,</w>"
    ],
    [
      "वि",
      "कास</w>"
    ],
    [
      "बरत",
      "ून</w>"
    ],
    [
      "वर्",
      "ग</w>"
    ],
    [
      "ब",
      "धा"
    ],
    [
      "ड",
      "ु"
    ],
    [
      "ए",
      "।</w>"
    ],
    [
      "च",
      "ली</w>"
    ],
    [
      "हो",
      "ई।</w>"
    ],
    [
      "मा",
      "ं"
    ],
    [
      "रे",
      "ह्"
    ],
    [
      "ण",
      "न</w>"
    ],
    [
      "201",
      "1</w>"
    ],
    [
      "फुट",
      "बाल</w>"
    ],
    [
      "द्हा",
      "के</w>"
    ],
    [
      "इ",
      "क"
    ],
    [
      "मत",
      "लब</w>"
    ],
    [
      "स",
      "ैं"
    ],
    [
      "न",
      "ियां</w>"
    ],
    [
      "शा",
      "स्"
    ],
    [
      "निश्",
      "चत</w>"
    ],
    [
      "ल",
      "ू</w>"
    ],
    [
      "जि",
      "स</w>"
    ],
    [
      "1",
      "2</w>"
    ],
    [
      "न",
      "क</w>"
    ],
    [
      "201",
      "2</w>"
    ],
    [
      "झ",
      "ा"
    ],
    [
      "ं",
      "ज</w>"
    ],
    [
      "ड",
      "ब्"
    ],
    [
      "ब",
      "'"
    ],
    [
      "ह",
      "ियां</w>"
    ],
    [
      "दू",
      "आ</w>"
    ],
    [
      "नां",
      "S</w>"
    ],
    [
      "इ",
      "या"
    ],
    [
      "क्र",
      "िया</w>"
    ],
    [
      "ब",
      "श्"
    ],
    [
      "पि",
      "ता</w>"
    ],
    [
      "े",
      "ं,</w>"
    ],
    [
      "फैस",
      "ला</w>"
    ],
    [
      "जेह्‌‌ड़",
      "ियां</w>"
    ],
    [
      "इ",
      "ʼ"
    ],
    [
      "न",
      "मीं</w>"
    ],
    [
      "म",
      "क"
    ],
    [
      "अ",
      "जा"
    ],
    [
      "इ",
      "ंग्"
    ],
    [
      "वर्त",
      "मान</w>"
    ],
    [
      "कदें-",
      "कदें</w>"
    ],
    [
      "ज",
      "ून</w>"
    ],
    [
      "गै",
      "र-"
    ],
    [
      "अप्रै",
      "ल</w>"
    ],
    [
      "म",
      "हार"
    ],
    [
      "च",
      "ें</w>"
    ],
    [
      "सू",
      "ची</w>"
    ],
    [
      "क्",
      "लब</w>"
    ],
    [
      "नव",
      "ंबर</w>"
    ],
    [
      "लो",
      "मीटर</w>"
    ],
    [
      "िय",
      "र</w>"
    ],
    [
      "तुंʼ",
      "दी</w>"
    ],
    [
      "बंगा",
      "ल</w>"
    ],
    [
      "20",
      "20</w>"
    ],
    [
      "ज",
      "रू"
    ],
    [
      "कामया",
      "ब</w>"
    ],
    [
      "ग",
      "ंभ"
    ],
    [
      "प्र",
      "ति</w>"
    ],
    [
      "अ",
      "न"
    ],
    [
      "मसा",
      "ल</w>"
    ],
    [
      "महार",
      "ा"
    ],
    [
      "ब",
      "च्च"
    ],
    [
      "तरी",
      "के</w>"
    ],
    [
      "व",
      "ु"
    ],
    [
      "भ",
      "ग"
    ],
    [
      "राज",
      "धानी</w>"
    ],
    [
      "ब",
      "्य"
    ],
    [
      "कार्य",
      "क्रम</w>"
    ],
    [
      "दिसं",
      "बर</w>"
    ],
    [
      "म",
      "रा"
    ],
    [
      "ओह्‌‌‌",
      "दी</w>"
    ],
    [
      "स",
      "फ"
    ],
    [
      "20",
      "19</w>"
    ],
    [
      "सर्",
      "व"
    ],
    [
      "नुक",
      "सान</w>"
    ],
    [
      "शै",
      "ली</w>"
    ],
    [
      "ट्ठ",
      "े</w>"
    ],
    [
      "गे",
      "म</w>"
    ],
    [
      "अ",
      "र"
    ],
    [
      "प्",
      "ले"
    ],
    [
      "ट",
      "ु"
    ],
    [
      "ण",
      "ी</w>"
    ],
    [
      "ज",
      "र"
    ],
    [
      "ता",
      "ब</w>"
    ],
    [
      "ञ्या",
      "णें</w>"
    ],
    [
      "दित्त",
      "े</w>"
    ],
    [
      "पियन",
      "शिप</w>"
    ],
    [
      "अमे",
      "रि"
    ],
    [
      "च",
      "ैं"
    ],
    [
      "स",
      "त"
    ],
    [
      "भ",
      "ो"
    ],
    [
      "इ",
      "च</w>"
    ],
    [
      "फो",
      "र्"
    ],
    [
      "चाहि",
      "दा।</w>"
    ],
    [
      "तौ",
      "ले</w>"
    ],
    [
      "बॉ",
      "ल</w>"
    ],
    [
      "र",
      "ैं"
    ],
    [
      "खढ",
      "ारी</w>"
    ],
    [
      "ज",
      "ली</w>"
    ],
    [
      "स्कू",
      "ल</w>"
    ],
    [
      "पर",
      "ा</w>"
    ],
    [
      "साम",
      "नै</w>"
    ],
    [
      "आ",
      "यो"
    ],
    [
      "अ",
      "र्थ"
    ],
    [
      "निर्",
      "देश"
    ],
    [
      "म्म",
      "े</w>"
    ],
    [
      "मकाब",
      "ले</w>"
    ],
    [
      "रौह्‌‌‌",
      "ने</w>"
    ],
    [
      "भ",
      "रो"
    ],
    [
      "त्र",
      "'ऊं</w>"
    ],
    [
      "लौह्‌‌‌",
      "के</w>"
    ],
    [
      "मे",
      "रे</w>"
    ],
    [
      "महि",
      "ला</w>"
    ],
    [
      "स",
      "धारण</w>"
    ],
    [
      "दू",
      "ं</w>"
    ],
    [
      "कि",
      "स्"
    ],
    [
      "खर्",
      "च</w>"
    ],
    [
      "म",
      "ंड"
    ],
    [
      "चु",
      "न"
    ],
    [
      "ब्हा",
      "ई</w>"
    ],
    [
      "सार्",
      "व"
    ],
    [
      "क",
      "ब्"
    ],
    [
      "खी",
      "री</w>"
    ],
    [
      "स्था",
      "नी</w>"
    ],
    [
      "कन्न",
      "ै,</w>"
    ],
    [
      "राज्य",
      "ें</w>"
    ],
    [
      "आपू",
      "ं</w>"
    ],
    [
      "क",
      "थ"
    ],
    [
      "क्",
      "शन</w>"
    ],
    [
      "क्क",
      "ी</w>"
    ],
    [
      "क",
      "ना"
    ],
    [
      "रक्ख",
      "ने</w>"
    ],
    [
      "बू",
      "त</w>"
    ],
    [
      "`",
      "नें</w>"
    ],
    [
      "महि",
      "लाएं</w>"
    ],
    [
      "जा",
      "ं"
    ],
    [
      "श्",
      "ठ</w>"
    ],
    [
      "जी",
      "व"
    ],
    [
      "200",
      "8</w>"
    ],
    [
      "चां",
      "ह्‌‌‌दे</w>"
    ],
    [
      "क",
      "ू"
    ],
    [
      "201",
      "8</w>"
    ],
    [
      "न",
      "वा"
    ],
    [
      "प",
      "त्त"
    ],
    [
      "उ",
      "'"
    ],
    [
      "रूप",
      "ा</w>"
    ],
    [
      "म",
      "नो"
    ],
    [
      "माम",
      "लें</w>"
    ],
    [
      "रेह्",
      "।</w>"
    ],
    [
      "रो",
      "क</w>"
    ],
    [
      ".",
      "पी"
    ],
    [
      ".ए",
      ".</w>"
    ],
    [
      "मि",
      "क</w>"
    ],
    [
      "201",
      "7</w>"
    ],
    [
      "क",
      "ै</w>"
    ],
    [
      "हो",
      "ना</w>"
    ],
    [
      "म",
      "-"
    ],
    [
      "बरा",
      "बर</w>"
    ],
    [
      "ज",
      "रा"
    ],
    [
      "द्व",
      "ी"
    ],
    [
      "भ",
      "र</w>"
    ],
    [
      "पुर",
      "स्"
    ],
    [
      "बश्",
      "कार</w>"
    ],
    [
      "ड",
      "िया</w>"
    ],
    [
      "व",
      "्"
    ],
    [
      "ला",
      "या</w>"
    ],
    [
      "ब्",
      "ब"
    ],
    [
      "अ",
      "सर</w>"
    ],
    [
      "ज",
      "त</w>"
    ],
    [
      "पू",
      "</w>"
    ],
    [
      "ंद",
      "री</w>"
    ],
    [
      "ग",
      "ें</w>"
    ],
    [
      "ना",
      ",</w>"
    ],
    [
      "स्वी",
      "डन</w>"
    ],
    [
      "योज",
      "ना</w>"
    ],
    [
      "पार्",
      "टी</w>"
    ],
    [
      "नाट",
      "क</w>"
    ],
    [
      "हालां-",
      "के,</w>"
    ],
    [
      ".",
      "डी"
    ],
    [
      "5",
      "0</w>"
    ],
    [
      "फो",
      "न</w>"
    ],
    [
      "ं",
      "त</w>"
    ],
    [
      "गे",
      "ंद</w>"
    ],
    [
      "ट",
      "ल</w>"
    ],
    [
      "म",
      "च्छ"
    ],
    [
      "कर",
      "दियां</w>"
    ],
    [
      "ब",
      "पार</w>"
    ],
    [
      "मि",
      "ल</w>"
    ],
    [
      "जने",
      "ही</w>"
    ],
    [
      "त",
      "क</w>"
    ],
    [
      "ली",
      ",</w>"
    ],
    [
      "हाला",
      "ं"
    ],
    [
      "म",
      "े</w>"
    ],
    [
      "त",
      "ग"
    ],
    [
      "कु",
      "मार</w>"
    ],
    [
      "ख",
      "ला</w>"
    ],
    [
      "1",
      "5</w>"
    ],
    [
      "अ",
      "क्"
    ],
    [
      "पूर",
      "बी</w>"
    ],
    [
      "च",
      "ार"
    ],
    [
      "सित",
      "ंबर</w>"
    ],
    [
      "ज",
      "ना"
    ],
    [
      "इंग्",
      "लैंड</w>"
    ],
    [
      "च",
      "म"
    ],
    [
      "स्त",
      "ु"
    ],
    [
      "घो",
      "श"
    ],
    [
      "रि",
      "क</w>"
    ],
    [
      "बर्",
      "ग</w>"
    ],
    [
      "लि",
      "ंग</w>"
    ],
    [
      "वि",
      "कसत</w>"
    ],
    [
      "सं",
      "भाव"
    ],
    [
      "सि",
      "टी</w>"
    ],
    [
      "भ",
      "ै"
    ],
    [
      "रे",
      "ही</w>"
    ],
    [
      "द्",
      "द"
    ],
    [
      "बर",
      "खा</w>"
    ],
    [
      "न्",
      "या"
    ],
    [
      "ल्",
      "लें</w>"
    ],
    [
      "ड",
      "ल</w>"
    ],
    [
      "द",
      "स"
    ],
    [
      "'र",
      "दे</w>"
    ],
    [
      "म",
      "ंग"
    ],
    [
      "ब",
      "ड़ी</w>"
    ],
    [
      "जि",
      "'"
    ],
    [
      "अं",
      "तर"
    ],
    [
      "त्त",
      "ा</w>"
    ],
    [
      "धा",
      "न"
    ],
    [
      "पा",
      "कि"
    ],
    [
      "ल",
      "म</w>"
    ],
    [
      "जिंʼ",
      "दे</w>"
    ],
    [
      "जा",
      "न</w>"
    ],
    [
      "ग",
      "ति"
    ],
    [
      "ख",
      "्य"
    ],
    [
      "फर",
      "वरी</w>"
    ],
    [
      "अ",
      "क्त"
    ],
    [
      "अक्त",
      "ू"
    ],
    [
      "बे",
      "ल्लै</w>"
    ],
    [
      "मरा",
      "ठ"
    ],
    [
      "वा",
      "र</w>"
    ],
    [
      "हा",
      "ल</w>"
    ],
    [
      "म",
      "न"
    ],
    [
      "ज",
      "ंदियां</w>"
    ],
    [
      "अला",
      "वा,</w>"
    ],
    [
      "द्",
      "</w>"
    ],
    [
      "वा",
      "दी</w>"
    ],
    [
      "अ",
      "जें</w>"
    ],
    [
      "सि",
      "क्क"
    ],
    [
      "ह",
      "ार्"
    ],
    [
      "जो",
      "ड़"
    ],
    [
      "201",
      "6</w>"
    ],
    [
      "द",
      ",</w>"
    ],
    [
      "ब्",
      "दी</w>"
    ],
    [
      "कंप्यू",
      "टर</w>"
    ],
    [
      "क",
      "ौ"
    ],
    [
      "प्र",
      "बंध"
    ],
    [
      "पि",
      "च्छ"
    ],
    [
      "व",
      "ृ"
    ],
    [
      "नग",
      "र"
    ],
    [
      "प्र",
      "धान</w>"
    ],
    [
      "अधि",
      "कार"
    ],
    [
      "स्",
      "व"
    ],
    [
      "ना",
      "ग"
    ],
    [
      ".",
      ")</w>"
    ],
    [
      "सु",
      "रक्षा</w>"
    ],
    [
      "भूमि",
      "का</w>"
    ],
    [
      "ता",
      "प"
    ],
    [
      "सु",
      "आ"
    ],
    [
      "क",
      "ट</w>"
    ],
    [
      "र",
      "ण"
    ],
    [
      "सक",
      "दियां</w>"
    ],
    [
      "र्",
      "फ</w>"
    ],
    [
      "भ",
      "ग</w>"
    ],
    [
      "म",
      "ण"
    ],
    [
      "बाप",
      "स</w>"
    ],
    [
      "जि",
      "त्त</w>"
    ],
    [
      "गिन",
      "तरी</w>"
    ],
    [
      "मे",
      "द</w>"
    ],
    [
      "मना",
      "या</w>"
    ],
    [
      "गंभ",
      "ीर</w>"
    ],
    [
      "पिछ",
      "ले</w>"
    ],
    [
      "त",
      "ब्"
    ],
    [
      "हम",
      "ला</w>"
    ],
    [
      "त",
      "क"
    ],
    [
      "के",
      "ट</w>"
    ],
    [
      "स",
      "नै</w>"
    ],
    [
      "त",
      "्य</w>"
    ],
    [
      "अ",
      "ड्ड"
    ],
    [
      "बु",
      "निया"
    ],
    [
      "बʼ",
      "रै</w>"
    ],
    [
      "बा",
      "ह्‌"
    ],
    [
      "श",
      "ता"
    ],
    [
      "कंढ",
      "े</w>"
    ],
    [
      "ार्",
      "क</w>"
    ],
    [
      "ंड",
      "े</w>"
    ],
    [
      "म",
      "नी</w>"
    ],
    [
      "ज",
      "री</w>"
    ],
    [
      "सं",
      "चा"
    ],
    [
      "भ",
      "र"
    ],
    [
      "अंतर्",
      "राश्ट्री</w>"
    ],
    [
      "समर्थ",
      "</w>"
    ],
    [
      "बि",
      "जली</w>"
    ],
    [
      "इ",
      "न्"
    ],
    [
      "ी",
      "न</w>"
    ],
    [
      "समर्थ",
      "न</w>"
    ],
    [
      "तक्क",
      "र,</w>"
    ],
    [
      "तब्",
      "दी"
    ],
    [
      "ब",
      "च"
    ],
    [
      "म्",
      "स</w>"
    ],
    [
      "ल",
      "क्ख</w>"
    ],
    [
      "खरा",
      "ब</w>"
    ],
    [
      "भ्र",
      "ा"
    ],
    [
      "मसू",
      "स</w>"
    ],
    [
      "सम",
      "ां</w>"
    ],
    [
      "विद्य",
      "ालय</w>"
    ],
    [
      "ना",
      "ऽ</w>"
    ],
    [
      "बि",
      "चार</w>"
    ],
    [
      "ग",
      ",</w>"
    ],
    [
      "शा",
      "स"
    ],
    [
      "छ",
      "ु"
    ],
    [
      "खा",
      "ने</w>"
    ],
    [
      "1",
      "2"
    ],
    [
      "अग",
      "स्त</w>"
    ],
    [
      "गा",
      "ने</w>"
    ],
    [
      "जु",
      "लाई</w>"
    ],
    [
      "ू",
      "नी</w>"
    ],
    [
      "प्र",
      "णा"
    ],
    [
      "रा",
      "न,</w>"
    ],
    [
      "पसं",
      "द</w>"
    ],
    [
      "भे",
      "ज"
    ],
    [
      "ल",
      "क</w>"
    ],
    [
      "इ",
      "ंʼ"
    ],
    [
      "ल",
      "म्मे</w>"
    ],
    [
      ".",
      "टी"
    ],
    [
      "टे",
      "ड</w>"
    ],
    [
      "च",
      "ंगा</w>"
    ],
    [
      "मध",
      "्य</w>"
    ],
    [
      "घोश",
      "ना</w>"
    ],
    [
      "ृ",
      "ं"
    ],
    [
      "’",
      "र"
    ],
    [
      "म",
      "ण</w>"
    ],
    [
      "मं",
      "जू"
    ],
    [
      "ह",
      "न</w>"
    ],
    [
      "थाह्‌",
      "रें</w>"
    ],
    [
      "ट",
      ",</w>"
    ],
    [
      "न",
      "वेश</w>"
    ],
    [
      "दो",
      "ऐ</w>"
    ],
    [
      "ार",
      "ा"
    ],
    [
      "र",
      "ं"
    ],
    [
      "लग",
      "भग</w>"
    ],
    [
      "स्प",
      "श्ट</w>"
    ],
    [
      "ब",
      "ड़े</w>"
    ],
    [
      "पैह्‌",
      "ले</w>"
    ],
    [
      "संघ",
      "</w>"
    ],
    [
      "शता",
      "ब्दी</w>"
    ],
    [
      "पे",
      "श"
    ],
    [
      "द",
      "ारी</w>"
    ],
    [
      "आस्त",
      "ै,</w>"
    ],
    [
      "ह",
      "त्थ"
    ],
    [
      "न",
      "ो</w>"
    ],
    [
      "बाद्ध",
      "ू</w>"
    ],
    [
      "सा",
      "हि"
    ],
    [
      "दक्ख",
      "नी</w>"
    ],
    [
      "स्था",
      "न</w>"
    ],
    [
      "पु",
      "त्तर</w>"
    ],
    [
      "अ",
      "द्ध"
    ],
    [
      "अभ",
      "ि"
    ],
    [
      "ते",
      "हार</w>"
    ],
    [
      "इ",
      "स्सै</w>"
    ],
    [
      "ण",
      "े</w>"
    ],
    [
      "वा",
      "यर"
    ],
    [
      "अ",
      "क्ख"
    ],
    [
      "फा",
      "य"
    ],
    [
      "201",
      "5</w>"
    ],
    [
      "इ",
      "स्"
    ],
    [
      "रा",
      "नी</w>"
    ],
    [
      "अग",
      "ले</w>"
    ],
    [
      "व्य",
      "व"
    ],
    [
      "निर्",
      "धार"
    ],
    [
      "त्",
      "म</w>"
    ],
    [
      "सार्व",
      "जनक</w>"
    ],
    [
      "क",
      "म</w>"
    ],
    [
      "सम",
      "ारो"
    ],
    [
      "श्र",
      "ृं"
    ],
    [
      "खड",
      "ारी</w>"
    ],
    [
      "2",
      "5</w>"
    ],
    [
      "पं",
      "ज</w>"
    ],
    [
      "उच्च",
      "</w>"
    ],
    [
      "श",
      "ू"
    ],
    [
      "वा",
      "य"
    ],
    [
      "ह",
      "त्य"
    ],
    [
      "भ",
      "</w>"
    ],
    [
      "घ",
      "रै</w>"
    ],
    [
      "री",
      ",</w>"
    ],
    [
      "ट्",
      "रै"
    ],
    [
      "ड़",
      "ें</w>"
    ],
    [
      "इया",
      "ं।</w>"
    ],
    [
      "क",
      "ड्ढ"
    ],
    [
      "ध",
      "न</w>"
    ],
    [
      "के",
      "ह्‌‌</w>"
    ],
    [
      "म",
      "च"
    ],
    [
      "द",
      "री</w>"
    ],
    [
      "ध",
      "ियें</w>"
    ],
    [
      "सो",
      "च"
    ],
    [
      "मी",
      "र</w>"
    ],
    [
      "1",
      "3"
    ],
    [
      "अं",
      "दा"
    ],
    [
      "सभ",
      "ा</w>"
    ],
    [
      "लि",
      "न</w>"
    ],
    [
      "ता",
      "ल</w>"
    ],
    [
      "म्ही",
      "ने</w>"
    ],
    [
      "सा",
      "र</w>"
    ],
    [
      "ण",
      "ु</w>"
    ],
    [
      "ख",
      "त्म</w>"
    ],
    [
      "आ",
      "स्स"
    ],
    [
      "ना",
      "ड"
    ],
    [
      "जा",
      "’र"
    ],
    [
      "टा",
      "पू</w>"
    ],
    [
      "पैह्‌",
      "लें</w>"
    ],
    [
      "ग्रा",
      "म</w>"
    ],
    [
      "प",
      "द"
    ],
    [
      "यू",
      "रो"
    ],
    [
      "वं",
      "श</w>"
    ],
    [
      "क्र",
      "ा"
    ],
    [
      "ंड",
      "ो"
    ],
    [
      "र",
      "ॉ"
    ],
    [
      "ड",
      "ै"
    ],
    [
      "पा",
      "न</w>"
    ],
    [
      "क्हा",
      "नी</w>"
    ],
    [
      "ना",
      "च</w>"
    ],
    [
      "सिया",
      "सी</w>"
    ],
    [
      "सि",
      "स</w>"
    ],
    [
      "अज्",
      "ज</w>"
    ],
    [
      "ज",
      "य"
    ],
    [
      "ख्",
      "त</w>"
    ],
    [
      "ग",
      "ल्"
    ],
    [
      "हि",
      "ंदी</w>"
    ],
    [
      "उʼ",
      "न्नै</w>"
    ],
    [
      "क्",
      "टर</w>"
    ],
    [
      "र",
      "स्"
    ],
    [
      "आ",
      "र्थ"
    ],
    [
      "उप",
      "योग</w>"
    ],
    [
      "ड",
      "ॉ"
    ],
    [
      "जि",
      "स"
    ],
    [
      "ी",
      "-"
    ],
    [
      "ड",
      ",</w>"
    ],
    [
      "ब",
      "ड़ी</w>"
    ],
    [
      "ग्र",
      "ी</w>"
    ],
    [
      "दित्त",
      "ी।</w>"
    ],
    [
      "स",
      "व</w>"
    ],
    [
      "ं",
      "टें</w>"
    ],
    [
      "ने",
      "-"
    ],
    [
      "ग",
      "न</w>"
    ],
    [
      "ड्",
      "स</w>"
    ],
    [
      "ची",
      "नी</w>"
    ],
    [
      "कि",
      "त्"
    ],
    [
      "प",
      "क</w>"
    ],
    [
      "क",
      "प</w>"
    ],
    [
      "ट्",
      "रे"
    ],
    [
      "त",
      "मिल</w>"
    ],
    [
      "मे",
      "ल</w>"
    ],
    [
      "ो",
      "।</w>"
    ],
    [
      "मे",
      "ई</w>"
    ],
    [
      "डा",
      "लर</w>"
    ],
    [
      "ह्‌‌‌",
      "त</w>"
    ],
    [
      "मा",
      "य"
    ],
    [
      "खरीद",
      "ारी</w>"
    ],
    [
      "श",
      "नल</w>"
    ],
    [
      "व",
      "र"
    ],
    [
      "ी",
      "क्ष"
    ],
    [
      "अक्तू",
      "बर</w>"
    ],
    [
      "ऑ",
      "स्ट्रेल"
    ],
    [
      "न",
      "शी"
    ],
    [
      "लि",
      "क</w>"
    ],
    [
      "सा",
      "ई</w>"
    ],
    [
      "ं",
      "स"
    ],
    [
      "व्य",
      "क्ति</w>"
    ],
    [
      "से",
      "न</w>"
    ],
    [
      ".ऐ",
      "फ्फ"
    ],
    [
      "ओड़",
      "ेआ</w>"
    ],
    [
      "कन्न",
      "ै-"
    ],
    [
      "खा",
      "न</w>"
    ],
    [
      "अदा",
      "कारी</w>"
    ],
    [
      "आ",
      "प"
    ],
    [
      "इ",
      "सी</w>"
    ],
    [
      "ंद",
      "न</w>"
    ],
    [
      "उ",
      "द्यो"
    ],
    [
      "सं",
      "रक्ष"
    ],
    [
      "सि",
      "र्फ</w>"
    ],
    [
      "कार",
      "ा</w>"
    ],
    [
      "0",
      "एं</w>"
    ],
    [
      "ल",
      "स"
    ],
    [
      "ट्ट",
      "े</w>"
    ],
    [
      "जि",
      "ʼनें</w>"
    ],
    [
      "20",
      "21</w>"
    ],
    [
      "ला",
      ",</w>"
    ],
    [
      "पंजा",
      "ब</w>"
    ],
    [
      "मौ",
      "ती</w>"
    ],
    [
      "अध्य",
      "यन</w>"
    ],
    [
      "पू",
      "जा</w>"
    ],
    [
      "शिक्ष",
      "ा</w>"
    ],
    [
      "ला",
      "ग"
    ],
    [
      "प्र",
      "त"
    ],
    [
      "अमेरि",
      "का</w>"
    ],
    [
      "रे",
      "हा</w>"
    ],
    [
      "200",
      "9</w>"
    ],
    [
      "ल",
      "ॉ"
    ],
    [
      "ग",
      "ेआ,</w>"
    ],
    [
      "रि",
      "कार्ड</w>"
    ],
    [
      "दे",
      "व</w>"
    ],
    [
      "1",
      "4"
    ],
    [
      "क्",
      "सि"
    ],
    [
      "डब्",
      "ल्यू"
    ],
    [
      "त",
      "मिल"
    ],
    [
      "थाह्‌‌‌",
      "रै</w>"
    ],
    [
      "आम",
      "तौर</w>"
    ],
    [
      "निर्धार",
      "त</w>"
    ],
    [
      "घ",
      "रेल"
    ],
    [
      "ले",
      "ख</w>"
    ],
    [
      "इ",
      "जा"
    ],
    [
      "ध",
      "्"
    ],
    [
      "ल",
      "ग्गी</w>"
    ],
    [
      "ा",
      "त्मक</w>"
    ],
    [
      "क",
      "ां</w>"
    ],
    [
      "राश्ट्र",
      "पति</w>"
    ],
    [
      "हत्य",
      "ा</w>"
    ],
    [
      "जि",
      "'नें</w>"
    ],
    [
      "ि",
      "त</w>"
    ],
    [
      "स्",
      "वा"
    ],
    [
      "वा",
      "ई</w>"
    ],
    [
      "िया",
      "ं,</w>"
    ],
    [
      "मा",
      "ली</w>"
    ],
    [
      "शि",
      "का"
    ],
    [
      "आ",
      "इ"
    ],
    [
      "बौ",
      "द्ध</w>"
    ],
    [
      "सी",
      ".</w>"
    ],
    [
      "ब्",
      "रे"
    ],
    [
      "ड",
      "े</w>"
    ],
    [
      "1",
      "1</w>"
    ],
    [
      "द्र",
      "ो"
    ],
    [
      "डि",
      "ग्री</w>"
    ],
    [
      "ज",
      "ग"
    ],
    [
      "पिच्छ",
      "ें</w>"
    ],
    [
      "ऐ",
      "च्च"
    ],
    [
      "प्र",
      "का"
    ],
    [
      "न",
      "ंद</w>"
    ],
    [
      "द",
      "क</w>"
    ],
    [
      "इ",
      "क्क"
    ],
    [
      "स्",
      "को"
    ],
    [
      "श",
      "े</w>"
    ],
    [
      "बैं",
      "क</w>"
    ],
    [
      "त्र",
      "ें</w>"
    ],
    [
      "ख",
      "ी</w>"
    ],
    [
      "बद",
      "ली</w>"
    ],
    [
      "कन्नै-",
      "कन्नै</w>"
    ],
    [
      "औ",
      "ंदा</w>"
    ],
    [
      "नाड",
      "ु</w>"
    ],
    [
      "नगर",
      "पालिका</w>"
    ],
    [
      "दिक्ख",
      "ने</w>"
    ],
    [
      "अ",
      "योजत</w>"
    ],
    [
      "कि",
      "ंग</w>"
    ],
    [
      "शा",
      "न</w>"
    ],
    [
      "1",
      "4</w>"
    ],
    [
      "श",
      "ल</w>"
    ],
    [
      "पे",
      "शे"
    ],
    [
      "200",
      "0</w>"
    ],
    [
      "कि",
      "र"
    ],
    [
      "ह",
      "ॉ"
    ],
    [
      "मु",
      "सल"
    ],
    [
      "म",
      "का</w>"
    ],
    [
      "पा",
      "ंड"
    ],
    [
      "जा",
      "म</w>"
    ],
    [
      "सर",
      "कारी</w>"
    ],
    [
      "ध",
      "ार्"
    ],
    [
      "ब",
      "ंद"
    ],
    [
      "ग्र",
      "ै"
    ],
    [
      "मै",
      "न</w>"
    ],
    [
      "ल्ल",
      ".</w>"
    ],
    [
      "बना",
      "ए</w>"
    ],
    [
      "मु",
      "गल</w>"
    ],
    [
      "घरेल",
      "ू</w>"
    ],
    [
      "व",
      "ें</w>"
    ],
    [
      "प",
      "ा</w>"
    ],
    [
      "200",
      "7</w>"
    ],
    [
      "संस्",
      "करण</w>"
    ],
    [
      "स",
      "ब्"
    ],
    [
      "जिं",
      "'दे</w>"
    ],
    [
      "स्",
      "या"
    ],
    [
      "ओ",
      "ह्‌</w>"
    ],
    [
      "न",
      "ू</w>"
    ],
    [
      "फ्",
      "ट</w>"
    ],
    [
      "पुज्",
      "ज"
    ],
    [
      "ज",
      "न्"
    ],
    [
      "ले",
      "ं,</w>"
    ],
    [
      "छ",
      "ड़े</w>"
    ],
    [
      "ब",
      "ग"
    ],
    [
      "संक्र",
      "मण</w>"
    ],
    [
      "ट",
      "ो</w>"
    ],
    [
      "माम",
      "ले</w>"
    ],
    [
      "इ",
      "त्थै</w>"
    ],
    [
      "को",
      "ड</w>"
    ],
    [
      "कम्",
      "मै</w>"
    ],
    [
      "यू",
      "नि"
    ],
    [
      "अ",
      "फ्री"
    ],
    [
      "प",
      "ें</w>"
    ],
    [
      "र्",
      "श</w>"
    ],
    [
      "ब्",
      "र"
    ],
    [
      "विज्ञ",
      "ा"
    ],
    [
      "छ",
      "े"
    ],
    [
      "सी",
      "मा</w>"
    ],
    [
      "थ",
      "े"
    ],
    [
      "ल",
      "ां</w>"
    ],
    [
      "हफ्",
      "ते</w>"
    ],
    [
      "19",
      "3"
    ],
    [
      "द्",
      "द</w>"
    ],
    [
      "अंतर",
      "-"
    ],
    [
      "उ",
      "स्सै</w>"
    ],
    [
      "मु",
      "म"
    ],
    [
      "क",
      "शा</w>"
    ],
    [
      "कार",
      "ो"
    ],
    [
      "त",
      "ला"
    ],
    [
      "ल",
      "ंदन</w>"
    ],
    [
      "फ्रा",
      "ं"
    ],
    [
      "मं",
      "द</w>"
    ],
    [
      "पु",
      "श्"
    ],
    [
      "स्त",
      "ी</w>"
    ],
    [
      "खत",
      "म</w>"
    ],
    [
      "ग्र",
      "ं"
    ],
    [
      "लगा",
      "तार</w>"
    ],
    [
      "फ",
      "ार्"
    ],
    [
      ")",
      ",</w>"
    ],
    [
      "पूर",
      "ब</w>"
    ],
    [
      "ट",
      "र्"
    ],
    [
      "च",
      "कित्"
    ],
    [
      "जु",
      "द्ध"
    ],
    [
      "लो",
      "च"
    ],
    [
      "गु",
      "प्त</w>"
    ],
    [
      "श्रृं",
      "खला</w>"
    ],
    [
      "लिख",
      "े</w>"
    ],
    [
      "ला",
      "ज"
    ],
    [
      "त",
      "ं"
    ],
    [
      "आ",
      "धु"
    ],
    [
      "स्",
      "पे"
    ],
    [
      "जां",
      "च</w>"
    ],
    [
      "िय",
      "े</w>"
    ],
    [
      "भ",
      "ी"
    ],
    [
      "जि",
      "कर</w>"
    ],
    [
      "पोर्",
      "ट</w>"
    ],
    [
      "बे",
      "च"
    ],
    [
      "बजा",
      "ए</w>"
    ],
    [
      ".",
      "आर"
    ],
    [
      "ंड",
      "ा</w>"
    ],
    [
      "भू",
      "मका</w>"
    ],
    [
      "ओड़",
      "ेआ।</w>"
    ],
    [
      "दे",
      "ई</w>"
    ],
    [
      "न",
      "लाइन</w>"
    ],
    [
      "न",
      "ार्"
    ],
    [
      "1",
      "8</w>"
    ],
    [
      "वि",
      "जन</w>"
    ],
    [
      "पुरस्",
      "कार</w>"
    ],
    [
      "पै",
      "से</w>"
    ],
    [
      "कै",
      "लि"
    ],
    [
      "1",
      "6</w>"
    ],
    [
      "ग",
      "ौ"
    ],
    [
      "हो",
      "इयै</w>"
    ],
    [
      "त्त",
      "रा</w>"
    ],
    [
      "ते",
      "ज</w>"
    ],
    [
      "त",
      "ियां</w>"
    ],
    [
      "ठ",
      "ा"
    ],
    [
      "लड़",
      "ाई</w>"
    ],
    [
      "ढ़",
      "</w>"
    ],
    [
      "र",
      "फ्"
    ],
    [
      "गा",
      "र</w>"
    ],
    [
      "ल",
      "ने</w>"
    ],
    [
      "प",
      "ढ़"
    ],
    [
      "खी",
      "र</w>"
    ],
    [
      "लैं",
      "दे</w>"
    ],
    [
      "साइ",
      "ट</w>"
    ],
    [
      "ब",
      "ार्"
    ],
    [
      "अक्",
      "सर</w>"
    ],
    [
      "ञ्या",
      "णे</w>"
    ],
    [
      "200",
      "6</w>"
    ],
    [
      "ऐस्स",
      ".</w>"
    ],
    [
      "रच",
      "ना</w>"
    ],
    [
      "गिन",
      "ती</w>"
    ],
    [
      "श्र",
      "ी"
    ],
    [
      "ल",
      "भ"
    ],
    [
      "मै",
      "ह्‌‌‌"
    ],
    [
      "ए",
      ".</w>"
    ],
    [
      "स",
      "द</w>"
    ],
    [
      "पा",
      "ई</w>"
    ],
    [
      "उत्पा",
      "दन</w>"
    ],
    [
      "स",
      "िय"
    ],
    [
      "जर्",
      "मनी</w>"
    ],
    [
      "फिल्",
      "मा</w>"
    ],
    [
      "पुल",
      "स</w>"
    ],
    [
      "ब",
      "त</w>"
    ],
    [
      "च",
      "ला"
    ],
    [
      "1",
      "3</w>"
    ],
    [
      "ज",
      "दूं</w>"
    ],
    [
      "चैं",
      "पियनशिप</w>"
    ],
    [
      "त्र",
      "ी"
    ],
    [
      "अ",
      "नाम</w>"
    ],
    [
      "मुम",
      "कन</w>"
    ],
    [
      "ल",
      "क"
    ],
    [
      "ड़",
      "ने</w>"
    ],
    [
      "ए",
      "ह्‌</w>"
    ],
    [
      "मण",
      "ि"
    ],
    [
      "श",
      "ां</w>"
    ],
    [
      "परत",
      "ो"
    ],
    [
      "हो",
      "ऐ।</w>"
    ],
    [
      "ज",
      "ैं"
    ],
    [
      "व",
      "जू"
    ],
    [
      "प्हा",
      "ड़ी</w>"
    ],
    [
      "आ",
      "फ</w>"
    ],
    [
      "जु",
      "ड़े</w>"
    ],
    [
      "जो",
      "ग</w>"
    ],
    [
      "अ",
      "सल</w>"
    ],
    [
      "सम",
      "र्"
    ],
    [
      "प",
      "त</w>"
    ],
    [
      "गति",
      "वि"
    ],
    [
      "एश",
      "िया</w>"
    ],
    [
      "प",
      "न्"
    ],
    [
      "मू",
      "र्"
    ],
    [
      "सिस्ट",
      "म</w>"
    ],
    [
      "रि",
      "लीज</w>"
    ],
    [
      "कु",
      "दर"
    ],
    [
      "ला",
      "कें</w>"
    ],
    [
      "ंद",
      "गी</w>"
    ],
    [
      "वे",
      "यर</w>"
    ],
    [
      "आधु",
      "निक</w>"
    ],
    [
      "मकाब",
      "ला</w>"
    ],
    [
      "छ",
      "ू"
    ],
    [
      "आ",
      "ए</w>"
    ],
    [
      "ज",
      "वा"
    ],
    [
      "बू",
      "ह्‌‌"
    ],
    [
      "शि",
      "ला"
    ],
    [
      "ब'",
      "रें</w>"
    ],
    [
      "श",
      "नें</w>"
    ],
    [
      "स्",
      "हे"
    ],
    [
      "शा",
      "ही</w>"
    ],
    [
      "ड्",
      "रो"
    ],
    [
      "परा",
      "ने</w>"
    ],
    [
      "निय",
      "म</w>"
    ],
    [
      "2",
      "4</w>"
    ],
    [
      "त",
      "ृ"
    ],
    [
      "कैलि",
      "फोर्"
    ],
    [
      "1",
      "00</w>"
    ],
    [
      "रौंह्‌‌‌",
      "दा</w>"
    ],
    [
      "ख",
      "ल</w>"
    ],
    [
      "कीत",
      "ी,</w>"
    ],
    [
      "संग",
      "ी"
    ],
    [
      "क",
      "ली</w>"
    ],
    [
      "े",
      ",</w>"
    ],
    [
      "मे",
      "ंट</w>"
    ],
    [
      "पै",
      "हा</w>"
    ],
    [
      "बध",
      "ी</w>"
    ],
    [
      "समु",
      "ंदरी</w>"
    ],
    [
      "र",
      "ंग</w>"
    ],
    [
      "पा",
      "स्सै</w>"
    ],
    [
      "द",
      "रान</w>"
    ],
    [
      "ै",
      "।</w>"
    ],
    [
      "च",
      "ार्"
    ],
    [
      "वी",
      "डियो</w>"
    ],
    [
      "म",
      "िया</w>"
    ],
    [
      "वि",
      "क</w>"
    ],
    [
      "परं",
      "परा"
    ],
    [
      "दे",
      "वी</w>"
    ],
    [
      ".ऐस्स",
      ".</w>"
    ],
    [
      "स्टे",
      "शन</w>"
    ],
    [
      "त्त",
      "ें</w>"
    ],
    [
      "इ",
      "लाज</w>"
    ],
    [
      "कमा",
      "ई</w>"
    ],
    [
      "ल",
      "क्ख"
    ],
    [
      "प्रणा",
      "ली</w>"
    ],
    [
      "पाकि",
      "स्तान</w>"
    ],
    [
      "थो",
      "ह्‌"
    ],
    [
      "कि",
      "ल्"
    ],
    [
      "पुज्",
      "जी</w>"
    ],
    [
      "क्",
      "ला"
    ],
    [
      "रु",
      "ट्टी</w>"
    ],
    [
      "न",
      "मां</w>"
    ],
    [
      "ण",
      ",</w>"
    ],
    [
      "से",
      "वा"
    ],
    [
      "पेशे",
      "वर</w>"
    ],
    [
      "ने",
      "ही</w>"
    ],
    [
      "भ",
      "ारी</w>"
    ],
    [
      "बार",
      "ें</w>"
    ],
    [
      "भग",
      "वान</w>"
    ],
    [
      "आ",
      "कर्"
    ],
    [
      "ने",
      "ई"
    ],
    [
      "स्हे",
      "ई</w>"
    ],
    [
      "दर्",
      "शा"
    ],
    [
      "तक",
      "नी"
    ],
    [
      "बो",
      "र्ड</w>"
    ],
    [
      "सू",
      "र"
    ],
    [
      "प्रत",
      "ियो"
    ],
    [
      "सि",
      "क</w>"
    ],
    [
      "क्",
      "यू"
    ],
    [
      "ताप",
      "मान</w>"
    ],
    [
      "ट",
      "्यू"
    ],
    [
      "रोक",
      "ने</w>"
    ],
    [
      "ज",
      "य</w>"
    ],
    [
      "च",
      "'ऊं</w>"
    ],
    [
      "का",
      "ल"
    ],
    [
      "ची",
      "ज</w>"
    ],
    [
      "गु",
      "रु"
    ],
    [
      "प",
      "त"
    ],
    [
      "लाग",
      "ू</w>"
    ],
    [
      "वि",
      "कल्"
    ],
    [
      "कैलिफोर्",
      "निया</w>"
    ],
    [
      "मी",
      ".</w>"
    ],
    [
      "ले",
      "ई,</w>"
    ],
    [
      "गा",
      "ं"
    ],
    [
      "म्",
      "मे"
    ],
    [
      "अला",
      "वा</w>"
    ],
    [
      "मका",
      "मी</w>"
    ],
    [
      "खʼ",
      "ल्ल</w>"
    ],
    [
      "बा",
      "इ"
    ],
    [
      "चम",
      "ड़ी</w>"
    ],
    [
      "मि",
      "न</w>"
    ],
    [
      "आ",
      "ं।</w>"
    ],
    [
      "क्क",
      "े</w>"
    ],
    [
      "स",
      "च्च"
    ],
    [
      "दर्",
      "ज</w>"
    ],
    [
      "तुंʼ",
      "दा</w>"
    ],
    [
      "ख",
      "ब"
    ],
    [
      "द",
      "बा"
    ],
    [
      "प्र",
      "ि"
    ],
    [
      "जित्त",
      "ेआ।</w>"
    ],
    [
      "घ",
      "ु"
    ],
    [
      "न्",
      "यू</w>"
    ],
    [
      "य",
      "ार्क</w>"
    ],
    [
      "0",
      ",000</w>"
    ],
    [
      "सम",
      "ीक्ष"
    ],
    [
      "ह",
      "ारी</w>"
    ],
    [
      "वी",
      ".</w>"
    ],
    [
      "कृ",
      "ष्"
    ],
    [
      "आई",
      ".</w>"
    ],
    [
      "पा",
      "लन</w>"
    ],
    [
      "विश्व",
      "-"
    ],
    [
      "छो",
      "ड़ी</w>"
    ],
    [
      "जा",
      "पान</w>"
    ],
    [
      "ढ़",
      "</w>"
    ],
    [
      "छो",
      "ड़"
    ],
    [
      "ख्य",
      "ा</w>"
    ],
    [
      "ब",
      "ें</w>"
    ],
    [
      "ती",
      "र्थ"
    ],
    [
      "तमिल",
      "नाडु</w>"
    ],
    [
      "मजू",
      "दा</w>"
    ],
    [
      "ंड",
      "र</w>"
    ],
    [
      "कर्",
      "मच"
    ],
    [
      "ज",
      "क</w>"
    ],
    [
      "इक",
      "-"
    ],
    [
      "बैं",
      "ड</w>"
    ],
    [
      "मान",
      "त</w>"
    ],
    [
      "ली",
      "विजन</w>"
    ],
    [
      "गे",
      "इयां</w>"
    ],
    [
      "िय",
      "म</w>"
    ],
    [
      "आस्स",
      "ै-"
    ],
    [
      "ख",
      "ें</w>"
    ],
    [
      "ओह्‌‌‌",
      "दा</w>"
    ],
    [
      "संग",
      "ठन</w>"
    ],
    [
      "फ्",
      "रे"
    ],
    [
      "म",
      "दा"
    ],
    [
      "श",
      "क्ति</w>"
    ],
    [
      "उ",
      "न</w>"
    ],
    [
      "प्रा",
      "चीन</w>"
    ],
    [
      "द",
      "ल</w>"
    ],
    [
      "शा",
      "ह</w>"
    ],
    [
      "ंड",
      "ी</w>"
    ],
    [
      "ि",
      "श्"
    ],
    [
      "त",
      "फा"
    ],
    [
      "श्र",
      "ी</w>"
    ],
    [
      "च",
      "ंद्र"
    ],
    [
      "ची",
      "जां</w>"
    ],
    [
      "ध",
      "ी"
    ],
    [
      "उं'",
      "दी</w>"
    ],
    [
      "पार्",
      "क</w>"
    ],
    [
      "कब्",
      "जा</w>"
    ],
    [
      "बा",
      "वजू"
    ],
    [
      "पर",
      "ियो"
    ],
    [
      "कि",
      "ला</w>"
    ],
    [
      "ज",
      "ना</w>"
    ],
    [
      "सम",
      "े"
    ],
    [
      "ग",
      "ो</w>"
    ],
    [
      "1",
      "7</w>"
    ],
    [
      "दु",
      "र्"
    ],
    [
      "दु",
      "रान,</w>"
    ],
    [
      "दि",
      "ंदी</w>"
    ],
    [
      "स्",
      "का"
    ],
    [
      "बर्",
      "णन</w>"
    ],
    [
      "द्वी",
      "प</w>"
    ],
    [
      "व",
      "ार"
    ],
    [
      "कि",
      "ʼ"
    ],
    [
      "जो",
      "र</w>"
    ],
    [
      "यो",
      "र"
    ],
    [
      "स",
      "ब"
    ],
    [
      "दि",
      "नै</w>"
    ],
    [
      "किʼ",
      "यां</w>"
    ],
    [
      "ह",
      "ै</w>"
    ],
    [
      "तरी",
      "का</w>"
    ],
    [
      "न",
      "ू"
    ],
    [
      "!",
      "</w>"
    ],
    [
      "म्",
      "हे"
    ],
    [
      "झ",
      "ील</w>"
    ],
    [
      "ब",
      "म</w>"
    ],
    [
      "कां",
      "ग्रे"
    ],
    [
      "प्र",
      "धान"
    ],
    [
      "रा",
      "व"
    ],
    [
      "राज",
      "वंश</w>"
    ],
    [
      "ल",
      "ता</w>"
    ],
    [
      "जेह्",
      "ड़ा</w>"
    ],
    [
      "ई",
      "सा</w>"
    ],
    [
      "ज़",
      "ि"
    ],
    [
      "र",
      "क</w>"
    ],
    [
      "म",
      "ग"
    ],
    [
      "कना",
      "डा</w>"
    ],
    [
      "नि",
      "कल"
    ],
    [
      "ट्ठ",
      "ी</w>"
    ],
    [
      "तु",
      "प्प"
    ],
    [
      "श",
      "र्"
    ],
    [
      "ति",
      "क</w>"
    ],
    [
      "सं",
      "दर्"
    ],
    [
      "ख",
      "ू"
    ],
    [
      "सम",
      "ग्ग"
    ],
    [
      "पा",
      "ल"
    ],
    [
      "स्",
      "के"
    ],
    [
      "मंजू",
      "र</w>"
    ],
    [
      "ड़",
      "ें</w>"
    ],
    [
      "तग",
      "मा</w>"
    ],
    [
      "जने",
      "हे</w>"
    ],
    [
      "गु",
      "जरा"
    ],
    [
      "क",
      "श्"
    ],
    [
      "श",
      "तर"
    ],
    [
      "ज्",
      "हा"
    ],
    [
      "उ",
      "`नें</w>"
    ],
    [
      "ग",
      "ड्डी</w>"
    ],
    [
      "पु",
      "च्छ"
    ],
    [
      "वा",
      "स</w>"
    ],
    [
      "म",
      "ला"
    ],
    [
      "म",
      "ॉ"
    ],
    [
      "च",
      "र</w>"
    ],
    [
      "तु",
      "</w>"
    ],
    [
      "वायर",
      "स</w>"
    ],
    [
      "ना",
      "त्मक</w>"
    ],
    [
      "ज",
      ",</w>"
    ],
    [
      "स्ट",
      "ि"
    ],
    [
      "ह",
      "ियें</w>"
    ],
    [
      "डि",
      "जा"
    ],
    [
      "बक्ख",
      "रे</w>"
    ],
    [
      "क",
      "ट"
    ],
    [
      "ड़",
      "ियां</w>"
    ],
    [
      "नियंत्र",
      "ण</w>"
    ],
    [
      "न्यू",
      "यार्क</w>"
    ],
    [
      "ख",
      "ंड</w>"
    ],
    [
      "ज़",
      "ी</w>"
    ],
    [
      "चै",
      "म्"
    ],
    [
      "अजा",
      "दी</w>"
    ],
    [
      "स",
      "ब</w>"
    ],
    [
      "माइ",
      "क्रो"
    ],
    [
      "मु",
      "श्"
    ],
    [
      "जने",
      "हा</w>"
    ],
    [
      "2",
      "3</w>"
    ],
    [
      "ग",
      "ी,</w>"
    ],
    [
      "श",
      "िया</w>"
    ],
    [
      "तै",
      "ह्‌‌‌त</w>"
    ],
    [
      "शरी",
      "र</w>"
    ],
    [
      "य",
      "ी</w>"
    ],
    [
      "ने",
      "ट</w>"
    ],
    [
      "200",
      "1</w>"
    ],
    [
      "त",
      "बा"
    ],
    [
      "स",
      "रा"
    ],
    [
      "क्क",
      "ा</w>"
    ],
    [
      "उत्पा",
      "द</w>"
    ],
    [
      "सं",
      "पर्"
    ],
    [
      "शैह्‌‌‌",
      "रें</w>"
    ],
    [
      "साम",
      "ना</w>"
    ],
    [
      "दे",
      "सी</w>"
    ],
    [
      "कुदर",
      "ती</w>"
    ],
    [
      "मा",
      "त्तरा</w>"
    ],
    [
      "व",
      "रें</w>"
    ],
    [
      "200",
      "5</w>"
    ],
    [
      "ं",
      "घ"
    ],
    [
      "मि",
      "ंटें</w>"
    ],
    [
      "हा",
      "ई</w>"
    ],
    [
      "मत",
      "ियां</w>"
    ],
    [
      "व",
      "ार्"
    ],
    [
      "इस",
      "दे</w>"
    ],
    [
      "स्",
      "वी</w>"
    ],
    [
      "कीत",
      "े।</w>"
    ],
    [
      "वु",
      "ड</w>"
    ],
    [
      "खे",
      "ती"
    ],
    [
      "ग",
      "ीत</w>"
    ],
    [
      "हा",
      "न</w>"
    ],
    [
      "बन",
      "ने</w>"
    ],
    [
      "म",
      "ल"
    ],
    [
      "पा",
      "ए</w>"
    ],
    [
      "ज",
      "ार्"
    ],
    [
      "आस्सै-",
      "पास्सै</w>"
    ],
    [
      "मनु",
      "क्ख</w>"
    ],
    [
      "वै",
      "ब"
    ],
    [
      "ऐ",
      "सा</w>"
    ],
    [
      "शतर",
      "ंज</w>"
    ],
    [
      "तु",
      "र्"
    ],
    [
      "ओ",
      "डि"
    ],
    [
      "मु",
      "ंब"
    ],
    [
      "बʼ",
      "रा</w>"
    ],
    [
      "म्ही",
      "नें</w>"
    ],
    [
      "श",
      "ं"
    ],
    [
      "किल्",
      "लोमीटर</w>"
    ],
    [
      "आ",
      "द"
    ],
    [
      "ने",
      "ह्</w>"
    ],
    [
      "अ",
      "स"
    ],
    [
      "कैं",
      "सर</w>"
    ],
    [
      "श",
      "कें</w>"
    ],
    [
      "आ",
      "या</w>"
    ],
    [
      "जरू",
      "री</w>"
    ],
    [
      "पार",
      "ं"
    ],
    [
      "जेह्‌",
      "दी</w>"
    ],
    [
      "रि",
      "श्"
    ],
    [
      "पौ",
      "ंदा</w>"
    ],
    [
      "इंʼ",
      "दे</w>"
    ],
    [
      "म",
      "र</w>"
    ],
    [
      "बर",
      ",</w>"
    ],
    [
      "?",
      "</w>"
    ],
    [
      "सां",
      "झ"
    ],
    [
      "औ",
      "ंदे</w>"
    ],
    [
      "के",
      "ंद"
    ],
    [
      "रे",
      "ह्</w>"
    ],
    [
      "चुन",
      "ेआ</w>"
    ],
    [
      "फ्",
      "ट"
    ],
    [
      "गा",
      "ह्‌‌"
    ],
    [
      "बद",
      "ला"
    ],
    [
      "जात",
      "रा</w>"
    ],
    [
      "भ",
      "रै</w>"
    ],
    [
      "घट",
      "ना</w>"
    ],
    [
      "इस्",
      "ला"
    ],
    [
      "लाज",
      "मी</w>"
    ],
    [
      "ऑ",
      "नलाइन</w>"
    ],
    [
      "क्",
      "या</w>"
    ],
    [
      "बक्ख",
      "रा</w>"
    ],
    [
      "आ",
      "न</w>"
    ],
    [
      "टी",
      "में</w>"
    ],
    [
      "से",
      "ल्"
    ],
    [
      "जन्",
      "म</w>"
    ],
    [
      "त",
      "न"
    ],
    [
      "ग",
      "ू"
    ],
    [
      "को",
      "र्"
    ],
    [
      "प",
      "वि"
    ],
    [
      "ने",
      ",</w>"
    ],
    [
      "ला",
      "ल</w>"
    ],
    [
      "इंड",
      "िया</w>"
    ],
    [
      "लब्",
      "भ"
    ],
    [
      "का",
      "य"
    ],
    [
      "भा",
      "शा"
    ],
    [
      "सू",
      "च"
    ],
    [
      "ह",
      "ौ"
    ],
    [
      "हो",
      "ग</w>"
    ],
    [
      "स्",
      "वि"
    ],
    [
      "आयो",
      "वा</w>"
    ],
    [
      "जा",
      "ति</w>"
    ],
    [
      "य",
      "ौ"
    ],
    [
      "रेल",
      "वे</w>"
    ],
    [
      "कामया",
      "बी</w>"
    ],
    [
      "मि",
      "ट्टी</w>"
    ],
    [
      "दौ",
      "र</w>"
    ],
    [
      "त्र",
      "ा</w>"
    ],
    [
      "खड",
      "ारियें</w>"
    ],
    [
      "का",
      "फी</w>"
    ],
    [
      "इ",
      "कमा"
    ],
    [
      "कार",
      "ात्मक</w>"
    ],
    [
      "एश",
      "ियाई</w>"
    ],
    [
      "ह",
      "टा"
    ],
    [
      "टे",
      "न</w>"
    ],
    [
      "ख",
      "ताब</w>"
    ],
    [
      "फ",
      "ार"
    ],
    [
      "जा",
      "ग"
    ],
    [
      "अ",
      "ंग"
    ],
    [
      "5",
      "एं</w>"
    ],
    [
      "स",
      "क्र"
    ],
    [
      "अंतर-",
      "राश्ट्री</w>"
    ],
    [
      "र",
      "पे"
    ],
    [
      "स्ट्",
      "रोक</w>"
    ],
    [
      "ऐ",
      "ं"
    ],
    [
      "रा",
      "म</w>"
    ],
    [
      "के",
      "ंद्र"
    ],
    [
      "क्",
      "ल"
    ],
    [
      "अव",
      "धि</w>"
    ],
    [
      "खेती",
      "बा"
    ],
    [
      "संपर्",
      "क</w>"
    ],
    [
      "म",
      "ृ"
    ],
    [
      "यूनि",
      "वर्"
    ],
    [
      "ट",
      "रें</w>"
    ],
    [
      "घ",
      "रें</w>"
    ],
    [
      "स्ता",
      "र</w>"
    ],
    [
      "प्र",
      "ती"
    ],
    [
      "ग",
      "वर्"
    ],
    [
      "ई",
      "साई</w>"
    ],
    [
      "कांग्रे",
      "स</w>"
    ],
    [
      "परं",
      "परा</w>"
    ],
    [
      "निर्",
      "भर</w>"
    ],
    [
      "सु",
      "न्ने</w>"
    ],
    [
      "प्रे",
      "रत</w>"
    ],
    [
      "जमी",
      "न</w>"
    ],
    [
      "झ",
      "ी"
    ],
    [
      "यो",
      "जन</w>"
    ],
    [
      "खेढ",
      "ेआ</w>"
    ],
    [
      "िया",
      ",</w>"
    ],
    [
      "त्र",
      "ु"
    ],
    [
      "आख",
      "र"
    ],
    [
      "घैं",
      "टे</w>"
    ],
    [
      "फ",
      "े</w>"
    ],
    [
      "त्र",
      "िये</w>"
    ],
    [
      "स्",
      "को</w>"
    ],
    [
      "पर",
      "ख</w>"
    ],
    [
      "आ",
      "त्"
    ],
    [
      "क्त",
      "ि"
    ],
    [
      "ज",
      "द्</w>"
    ],
    [
      "स्त",
      "ा</w>"
    ],
    [
      "द्र",
      "िश्"
    ],
    [
      "उत्",
      "सव</w>"
    ],
    [
      "त",
      "गर</w>"
    ],
    [
      "सि",
      "न</w>"
    ],
    [
      "फ्",
      "लो"
    ],
    [
      "ला",
      "के</w>"
    ],
    [
      "हो",
      "</w>"
    ],
    [
      "हो",
      "ई,</w>"
    ],
    [
      "ट्",
      "रो"
    ],
    [
      "हालां",
      "के,</w>"
    ],
    [
      "ले",
      "-"
    ],
    [
      "200",
      "4</w>"
    ],
    [
      "है",
      "न।</w>"
    ],
    [
      "4",
      "0</w>"
    ],
    [
      "क",
      "ता</w>"
    ],
    [
      ".",
      "ई"
    ],
    [
      "दा",
      "खल</w>"
    ],
    [
      "ते",
      "हार"
    ],
    [
      "कृ",
      "त</w>"
    ],
    [
      "सा",
      "ढ़"
    ],
    [
      "आं",
      "ह्‌"
    ],
    [
      "क्",
      "ट</w>"
    ],
    [
      "कि",
      "ले</w>"
    ],
    [
      "जो",
      "ग"
    ],
    [
      "हो",
      "ऐ</w>"
    ],
    [
      "2",
      "6</w>"
    ],
    [
      "संस्कृ",
      "ति</w>"
    ],
    [
      "अधिकार",
      "ियें</w>"
    ],
    [
      "ज",
      "ल"
    ],
    [
      "प्र",
      "ी"
    ],
    [
      "फौ",
      "रन</w>"
    ],
    [
      "बरो",
      "धी</w>"
    ],
    [
      "ड",
      "ो</w>"
    ],
    [
      "ए",
      "यर"
    ],
    [
      "न",
      "काल</w>"
    ],
    [
      "ह",
      "थ"
    ],
    [
      ".",
      "ओ"
    ],
    [
      "खेढ",
      "े</w>"
    ],
    [
      "महारा",
      "श्ट्"
    ],
    [
      "पे",
      "ई</w>"
    ],
    [
      "कन",
      "ून</w>"
    ],
    [
      "घा",
      "टी</w>"
    ],
    [
      "चाहि",
      "दा</w>"
    ],
    [
      "संगी",
      "त"
    ],
    [
      "साहि",
      "त्य</w>"
    ],
    [
      "ू",
      "ं</w>"
    ],
    [
      "198",
      "0</w>"
    ],
    [
      "उ",
      "स"
    ],
    [
      "अदा",
      "कार</w>"
    ],
    [
      "ह",
      "रा"
    ],
    [
      "द",
      "ी।</w>"
    ],
    [
      "म",
      "्यू"
    ],
    [
      "थ",
      "ै"
    ],
    [
      "कन",
      "ूनी</w>"
    ],
    [
      "समारो",
      "ह्‌‌</w>"
    ],
    [
      "6",
      "0</w>"
    ],
    [
      "डा",
      "य"
    ],
    [
      "वि",
      "कि"
    ],
    [
      "ह्‌",
      "त</w>"
    ],
    [
      "पवि",
      "त्तर</w>"
    ],
    [
      "1",
      ","
    ],
    [
      "सै",
      "न</w>"
    ],
    [
      "प",
      "ेआ</w>"
    ],
    [
      "मिल",
      "दा</w>"
    ],
    [
      "अभ",
      "्या"
    ],
    [
      "त्त",
      "े</w>"
    ],
    [
      "ट्ठ",
      "ा</w>"
    ],
    [
      "199",
      "0</w>"
    ],
    [
      "प्र",
      "क्रिया</w>"
    ],
    [
      "प",
      "त्न"
    ],
    [
      "ल्",
      "टी</w>"
    ],
    [
      "ह",
      "र"
    ],
    [
      "आ",
      "दि"
    ],
    [
      "श्",
      "ती</w>"
    ],
    [
      "ग",
      "ठन</w>"
    ],
    [
      "गे",
      "इयां।</w>"
    ],
    [
      "प्र",
      "शिक्ष"
    ],
    [
      "ने",
      "हे</w>"
    ],
    [
      "कम्",
      "में</w>"
    ],
    [
      "लै",
      "ती</w>"
    ],
    [
      "रा",
      "ट</w>"
    ],
    [
      "ख",
      "ून</w>"
    ],
    [
      "नती",
      "जे</w>"
    ],
    [
      "वि",
      "टा"
    ],
    [
      "मुंब",
      "ई</w>"
    ],
    [
      "लम्",
      "मी</w>"
    ],
    [
      "द",
      "शक</w>"
    ],
    [
      "विज्ञ",
      "ान</w>"
    ],
    [
      "दिक्ख",
      "ी</w>"
    ],
    [
      "समग्ग",
      "री</w>"
    ],
    [
      "लौह्‌‌‌",
      "की</w>"
    ],
    [
      "कीत",
      "ियां</w>"
    ],
    [
      "द",
      "मा"
    ],
    [
      "ंग",
      ",</w>"
    ],
    [
      ".ऐ",
      "म्म"
    ],
    [
      ".आई",
      ".</w>"
    ],
    [
      "कर्",
      "ता</w>"
    ],
    [
      "ज",
      "ो</w>"
    ],
    [
      "200",
      "3</w>"
    ],
    [
      "ना",
      "थ</w>"
    ],
    [
      "मै",
      "ह्‌‌"
    ],
    [
      "उद्यो",
      "ग</w>"
    ],
    [
      "खो",
      "ज</w>"
    ],
    [
      "ड़",
      "ियें</w>"
    ],
    [
      "बो",
      "ल्ली</w>"
    ],
    [
      "वर्",
      "क</w>"
    ],
    [
      "ह्‌",
      "ने</w>"
    ],
    [
      "ई",
      "स्वी</w>"
    ],
    [
      "इस",
      "दा</w>"
    ],
    [
      "ए",
      ",</w>"
    ],
    [
      "स",
      "प्"
    ],
    [
      "अधि",
      "कारी</w>"
    ],
    [
      "चल",
      "दा</w>"
    ],
    [
      "जिʼ",
      "न्नै</w>"
    ],
    [
      "खब",
      "रै</w>"
    ],
    [
      "रक्ख",
      "ी</w>"
    ],
    [
      "द",
      "गार</w>"
    ],
    [
      "का",
      "ली</w>"
    ],
    [
      "समस्",
      "या</w>"
    ],
    [
      "मनुक्ख",
      "ें</w>"
    ],
    [
      "मनुक्ख",
      "ी</w>"
    ],
    [
      "स्",
      "रो"
    ],
    [
      "मे",
      "री</w>"
    ],
    [
      "श",
      "रा"
    ],
    [
      "स्",
      "रे"
    ],
    [
      "थ",
      "ि"
    ],
    [
      "मी",
      "डिया</w>"
    ],
    [
      "20",
      "22</w>"
    ],
    [
      "मु",
      "ल्"
    ],
    [
      "ज",
      "ल</w>"
    ],
    [
      "मन्न",
      "ना</w>"
    ],
    [
      "सी",
      "जन</w>"
    ],
    [
      "सै",
      "ह्‌‌"
    ],
    [
      "सक्र",
      "िय</w>"
    ],
    [
      "स",
      "ख्त</w>"
    ],
    [
      "पं",
      "'"
    ],
    [
      "ग",
      "ल्लै</w>"
    ],
    [
      ".ऐ",
      "न्न"
    ],
    [
      "20",
      "0</w>"
    ],
    [
      "धो",
      "ड़ी</w>"
    ],
    [
      "प",
      "द्"
    ],
    [
      "सम्",
      "मान</w>"
    ],
    [
      "ने",
      "ट"
    ],
    [
      "यू",
      "ना"
    ],
    [
      "न",
      "स</w>"
    ],
    [
      "शो",
      "ध</w>"
    ],
    [
      "गो",
      "ल"
    ],
    [
      "म",
      "द्ध</w>"
    ],
    [
      "मराठ",
      "ा</w>"
    ],
    [
      "आख",
      "ना</w>"
    ],
    [
      "कर्",
      "नाटक</w>"
    ],
    [
      "रे",
      "हा।</w>"
    ],
    [
      "डि",
      "ंग</w>"
    ],
    [
      "आं",
      "ह्"
    ],
    [
      "पी",
      "ड़"
    ],
    [
      "प",
      "ैं"
    ],
    [
      "प",
      "ट"
    ],
    [
      "ध",
      "ा</w>"
    ],
    [
      "र",
      "ता</w>"
    ],
    [
      "ब",
      "ने"
    ],
    [
      "चो",
      "ल</w>"
    ],
    [
      "ठ",
      "ी</w>"
    ],
    [
      "न",
      "ंबर</w>"
    ],
    [
      "2",
      "7</w>"
    ],
    [
      "हम",
      "ले</w>"
    ],
    [
      "हा",
      "ल"
    ],
    [
      "वि",
      "शे"
    ],
    [
      "टि",
      "स</w>"
    ],
    [
      "ट",
      "ल्ले</w>"
    ],
    [
      "`",
      "दे</w>"
    ],
    [
      "मु",
      "ल्ल</w>"
    ],
    [
      "2",
      "9</w>"
    ],
    [
      "टि",
      "न</w>"
    ],
    [
      "टी",
      "मा</w>"
    ],
    [
      "स्रे",
      "श्ठ</w>"
    ],
    [
      "डिय",
      "म</w>"
    ],
    [
      "से",
      "ं"
    ],
    [
      "इ",
      "त्थ"
    ],
    [
      "-",
      "बा"
    ],
    [
      "च",
      "ट्ट"
    ],
    [
      "ं",
      "ढ"
    ],
    [
      "स्",
      "हा"
    ],
    [
      "स",
      "बूत</w>"
    ],
    [
      "अ",
      "धार</w>"
    ],
    [
      "खत",
      "रा</w>"
    ],
    [
      "ध",
      "्य"
    ],
    [
      "सदस्",
      "यें</w>"
    ],
    [
      "ड्",
      "ड</w>"
    ],
    [
      "फ्रा",
      "ंस</w>"
    ],
    [
      "पु",
      "री</w>"
    ],
    [
      "फ",
      "लस"
    ],
    [
      "2",
      "8</w>"
    ],
    [
      "मद",
      "दगार</w>"
    ],
    [
      "जित्त",
      "ने</w>"
    ],
    [
      "सू",
      "ची"
    ],
    [
      "कि",
      "ट्ठे</w>"
    ],
    [
      "विश्व-",
      "विद्यालय</w>"
    ],
    [
      "गु",
      "ण"
    ],
    [
      "फाइ",
      "नल</w>"
    ],
    [
      "बे",
      "ल्"
    ],
    [
      "स",
      "ू</w>"
    ],
    [
      "खरीद",
      "ने</w>"
    ],
    [
      "प्र",
      "सार"
    ],
    [
      "रा",
      "य"
    ],
    [
      "दि",
      "ख"
    ],
    [
      "लिख",
      "ेआ</w>"
    ],
    [
      "सा",
      "थी</w>"
    ],
    [
      "ऐ",
      "स्स</w>"
    ],
    [
      "ब",
      "ड़े</w>"
    ],
    [
      "ग्र",
      "ु"
    ],
    [
      "रि",
      "ंग</w>"
    ],
    [
      "व्यव",
      "स्था</w>"
    ],
    [
      "ज",
      "ॉ"
    ],
    [
      "च",
      "रण</w>"
    ],
    [
      "क",
      "वि"
    ],
    [
      "ड़",
      "ियें</w>"
    ],
    [
      "वा",
      "स्तु"
    ],
    [
      "न",
      "युक्त</w>"
    ],
    [
      "क्ष",
      "े"
    ],
    [
      "हो",
      "ए।</w>"
    ],
    [
      "बंड",
      "ेआ</w>"
    ],
    [
      "छ",
      "े</w>"
    ],
    [
      "बरो",
      "ध</w>"
    ],
    [
      "दोआ",
      "इयें</w>"
    ],
    [
      "पी",
      "ने</w>"
    ],
    [
      "मा",
      "ने</w>"
    ],
    [
      "रफ्",
      "तार</w>"
    ],
    [
      "टै",
      "क्स</w>"
    ],
    [
      "आ",
      "उ"
    ],
    [
      "द",
      "म"
    ],
    [
      "जुद्ध",
      "ै</w>"
    ],
    [
      "यू",
      "नाइ"
    ],
    [
      "माय",
      "ंदगी</w>"
    ],
    [
      "आख",
      "दे</w>"
    ],
    [
      "मंद",
      "रें</w>"
    ],
    [
      "महाराश्ट्",
      "र</w>"
    ],
    [
      "ु",
      "एं</w>"
    ],
    [
      "अनु",
      "भ"
    ],
    [
      "कर",
      "ियर</w>"
    ],
    [
      "ा",
      "र</w>"
    ],
    [
      "मंड",
      "ल</w>"
    ],
    [
      "बा",
      "जी</w>"
    ],
    [
      "फर्",
      "क</w>"
    ],
    [
      "ंग",
      "ल</w>"
    ],
    [
      "मिल",
      "ने</w>"
    ],
    [
      "ट",
      "ै</w>"
    ],
    [
      "औ",
      "सत</w>"
    ],
    [
      "ख",
      "ड़"
    ],
    [
      "विटा",
      "मिन</w>"
    ],
    [
      "ब",
      "चत</w>"
    ],
    [
      "अप",
      "ने-"
    ],
    [
      "भ",
      "वि"
    ],
    [
      "संभाव",
      "ना</w>"
    ],
    [
      "ते",
      "जी</w>"
    ],
    [
      "ब",
      "ंग"
    ],
    [
      "ंड",
      "े"
    ],
    [
      "श",
      "ॉ"
    ],
    [
      "प्रो",
      "ग्राम</w>"
    ],
    [
      "थ",
      "ें</w>"
    ],
    [
      "तृ",
      "त्व</w>"
    ],
    [
      "स",
      "धार</w>"
    ],
    [
      "ली",
      "न</w>"
    ],
    [
      "क",
      "श</w>"
    ],
    [
      "का",
      "म</w>"
    ],
    [
      "निर्",
      "दे"
    ],
    [
      "इʼ",
      "न्नै</w>"
    ],
    [
      "अ",
      "ग्"
    ],
    [
      "ज",
      "बा"
    ],
    [
      "ड",
      "म</w>"
    ],
    [
      ".बी",
      ".</w>"
    ],
    [
      "रे",
      "शन</w>"
    ],
    [
      "तो",
      "ड़ी</w>"
    ],
    [
      "ग",
      "ंगा</w>"
    ],
    [
      "ह",
      "ट्ट"
    ],
    [
      "न",
      "ी,</w>"
    ],
    [
      "निर्देश",
      "क</w>"
    ],
    [
      "मी",
      "ल</w>"
    ],
    [
      "आम",
      "तौरै</w>"
    ],
    [
      "प्रबंध",
      "न</w>"
    ],
    [
      "197",
      "0</w>"
    ],
    [
      "सी",
      "मत</w>"
    ],
    [
      "इ",
      "लि"
    ],
    [
      "पं'",
      "जें</w>"
    ],
    [
      "सा",
      "स</w>"
    ],
    [
      "इंटर",
      "नै"
    ],
    [
      "भ्रा",
      "ऽ</w>"
    ],
    [
      "बज",
      "ट</w>"
    ],
    [
      "स",
      "ʼ"
    ],
    [
      "उत्त",
      "रा"
    ],
    [
      "र्",
      "ना"
    ],
    [
      "सब्",
      "भ"
    ],
    [
      "समु",
      "दा"
    ],
    [
      "यूनाइ",
      "टेड</w>"
    ],
    [
      "प्रधान",
      "मंत्री</w>"
    ],
    [
      "अ",
      "ल"
    ],
    [
      "प्रा",
      "प्त</w>"
    ],
    [
      "का",
      "व"
    ],
    [
      "ार्",
      "ड</w>"
    ],
    [
      "स",
      "त्र</w>"
    ],
    [
      "परा",
      "ना</w>"
    ],
    [
      "दक्ख",
      "न-"
    ],
    [
      "गर्",
      "म</w>"
    ],
    [
      "जि",
      "क</w>"
    ],
    [
      "ने",
      "तृत्व</w>"
    ],
    [
      "शा",
      "सक</w>"
    ],
    [
      "स",
      "मान</w>"
    ],
    [
      "सर्व",
      "स्रेश्ठ</w>"
    ],
    [
      "बाद्ध",
      "ा</w>"
    ],
    [
      "चि",
      "त्र"
    ],
    [
      "डिजा",
      "इन</w>"
    ],
    [
      "फ्",
      "हा"
    ],
    [
      "लौह्‌‌‌",
      "का</w>"
    ],
    [
      "सो",
      "आ"
    ],
    [
      "ड़",
      "ै</w>"
    ],
    [
      "'र",
      "दा</w>"
    ],
    [
      "हो",
      "रें</w>"
    ],
    [
      "गु",
      "फा</w>"
    ],
    [
      "ज्ञ",
      "ा"
    ],
    [
      "स्ट",
      "ी"
    ],
    [
      "कर",
      "ग।</w>"
    ],
    [
      "प",
      "त्थ"
    ],
    [
      "वृ",
      "त्त"
    ],
    [
      "अभ्या",
      "स</w>"
    ],
    [
      "आह्‌‌‌",
      "लियां</w>"
    ],
    [
      "दे",
      "ना</w>"
    ],
    [
      "श्",
      "ठ"
    ],
    [
      "गुजरा",
      "त</w>"
    ],
    [
      "शु",
      "</w>"
    ],
    [
      "पी",
      ".</w>"
    ],
    [
      "ार्",
      "थी</w>"
    ],
    [
      ".ऐ",
      "ल्ल.</w>"
    ],
    [
      "खेढ",
      "ी</w>"
    ],
    [
      "शि",
      "व</w>"
    ],
    [
      "की",
      "जे</w>"
    ],
    [
      "मा",
      "ह्‌"
    ],
    [
      "ब",
      "द्ध"
    ],
    [
      "पैह्‌‌‌",
      "लें,</w>"
    ],
    [
      "ता",
      "व"
    ],
    [
      "ार",
      "े</w>"
    ],
    [
      "ब",
      "ल"
    ],
    [
      "​",
      "​"
    ],
    [
      "पा",
      "या</w>"
    ],
    [
      "अप",
      "रा"
    ],
    [
      "स",
      "पा"
    ],
    [
      "सै",
      "ह्‌"
    ],
    [
      "।",
      "\"</w>"
    ],
    [
      "खेढ",
      "ने</w>"
    ],
    [
      "वि",
      "ंडो"
    ],
    [
      "उप",
      "-"
    ],
    [
      "ढ़",
      "ा"
    ],
    [
      "फ्ट",
      "वेयर</w>"
    ],
    [
      "द्",
      "दा"
    ],
    [
      "ग",
      "ल्ल"
    ],
    [
      "व्या",
      "पक</w>"
    ],
    [
      "ग",
      "म</w>"
    ],
    [
      "सम्",
      "राट</w>"
    ],
    [
      "खेतीबा",
      "ड़ी</w>"
    ],
    [
      "खु",
      "श</w>"
    ],
    [
      "शास",
      "नकाल</w>"
    ],
    [
      "बैं",
      "डी</w>"
    ],
    [
      "उत्त",
      "र-"
    ],
    [
      "थाह्‌",
      "र</w>"
    ],
    [
      "सि",
      "ने"
    ],
    [
      "सम्",
      "मानत</w>"
    ],
    [
      "परि",
      "श"
    ],
    [
      "अप",
      "ना"
    ],
    [
      "कर",
      "न</w>"
    ],
    [
      "आखर",
      "कार</w>"
    ],
    [
      "मु",
      "द्"
    ],
    [
      "सब्भ",
      "ै</w>"
    ],
    [
      "ग",
      "ति</w>"
    ],
    [
      "वा",
      "इ"
    ],
    [
      "मैं",
      "ट</w>"
    ],
    [
      "जिʼ",
      "नेंगी</w>"
    ],
    [
      "जेह्",
      "दे</w>"
    ],
    [
      "कि",
      "लोमीटर</w>"
    ],
    [
      "दी",
      "न</w>"
    ],
    [
      "जि",
      "म्मे"
    ],
    [
      "पू",
      "र</w>"
    ],
    [
      "फी",
      "ल्ड</w>"
    ],
    [
      "हा",
      "की</w>"
    ],
    [
      "करा",
      "'रदे</w>"
    ],
    [
      "मध",
      "्य"
    ],
    [
      "स",
      "'"
    ],
    [
      "गा",
      "य"
    ],
    [
      "200",
      "2</w>"
    ],
    [
      "8",
      "0</w>"
    ],
    [
      "पुर",
      "शें</w>"
    ],
    [
      "आप",
      "ै</w>"
    ],
    [
      ".ऐ",
      "च्च"
    ],
    [
      "प्र",
      "वा"
    ],
    [
      "दौ",
      "रा</w>"
    ],
    [
      "बने",
      "।</w>"
    ],
    [
      "जोग",
      "दान</w>"
    ],
    [
      "इं",
      "त"
    ],
    [
      "अ",
      "क"
    ],
    [
      "च",
      "ढ़"
    ],
    [
      "ह्‌",
      "दा</w>"
    ],
    [
      "स्टा",
      "र</w>"
    ],
    [
      "जु",
      "ग</w>"
    ],
    [
      "सि",
      "ए"
    ],
    [
      "दा",
      "ह्‌‌‌"
    ],
    [
      "े",
      "े"
    ],
    [
      "लग्ग",
      "ा</w>"
    ],
    [
      "सला",
      "ह्‌‌</w>"
    ],
    [
      "ड्",
      "राइ"
    ],
    [
      "परे",
      "शान</w>"
    ],
    [
      "पारं",
      "परि"
    ],
    [
      "अ",
      "ख"
    ],
    [
      "नी",
      "ति</w>"
    ],
    [
      "श्",
      "वर</w>"
    ],
    [
      "बरे",
      "सू</w>"
    ],
    [
      "अ",
      "फ"
    ],
    [
      "प",
      "श्"
    ],
    [
      "ब",
      "हु"
    ],
    [
      "प",
      "क्ख</w>"
    ],
    [
      "सा",
      "उ"
    ],
    [
      "से",
      "व"
    ],
    [
      "ऐन्न",
      ".</w>"
    ],
    [
      "प",
      "ढ़"
    ],
    [
      "ब",
      "री</w>"
    ],
    [
      "कश्",
      "मीर</w>"
    ],
    [
      "सि",
      "क्ख"
    ],
    [
      "प्",
      "ला"
    ],
    [
      "ग",
      "री"
    ],
    [
      "उं'",
      "दा</w>"
    ],
    [
      "ट",
      "री</w>"
    ],
    [
      "ऑस्ट्रेल",
      "िया</w>"
    ],
    [
      "ओ",
      "ड़"
    ],
    [
      "दिक्ख",
      "-"
    ],
    [
      "ग्र",
      "ां</w>"
    ],
    [
      "पारंपरि",
      "क</w>"
    ],
    [
      "मार",
      "े</w>"
    ],
    [
      "स्टो",
      "र</w>"
    ],
    [
      "क्ष",
      "</w>"
    ],
    [
      "क",
      "ताब"
    ],
    [
      "नि",
      "वे"
    ],
    [
      "पुश्",
      "टी</w>"
    ],
    [
      "लि",
      "स</w>"
    ],
    [
      "पूर्",
      "वी</w>"
    ],
    [
      "राज",
      "स्थान</w>"
    ],
    [
      "त",
      "ैं"
    ],
    [
      "ा",
      "नें</w>"
    ],
    [
      "शास्",
      "त्री</w>"
    ],
    [
      "जा",
      "ह्"
    ],
    [
      "खत",
      "रे</w>"
    ],
    [
      "चौ",
      "थ"
    ],
    [
      "संक्र",
      "मत</w>"
    ],
    [
      "दित्त",
      "ा,</w>"
    ],
    [
      "प्रदर्",
      "शत</w>"
    ],
    [
      "सां",
      "स्कृ"
    ],
    [
      "रे",
      "टि"
    ],
    [
      "इ",
      "श"
    ],
    [
      "मज",
      "बूत</w>"
    ],
    [
      "जित्त",
      "ी</w>"
    ],
    [
      "द्र",
      "</w>"
    ],
    [
      "प",
      "क"
    ],
    [
      "भ",
      "ि"
    ],
    [
      "रि",
      "स</w>"
    ],
    [
      "मे",
      "जबा"
    ],
    [
      "मौ",
      "सम</w>"
    ],
    [
      "जा",
      "तियें</w>"
    ],
    [
      "पूर्",
      "व"
    ],
    [
      "िय",
      "ो</w>"
    ],
    [
      "धि",
      "कार"
    ],
    [
      "बि",
      "क्क"
    ],
    [
      "फ्रां",
      "सी"
    ],
    [
      "मज",
      "बू"
    ],
    [
      "ए",
      "ह्‌दे</w>"
    ],
    [
      "कृष्",
      "ण</w>"
    ],
    [
      "जु",
      "ड़ी</w>"
    ],
    [
      "अ",
      "स</w>"
    ],
    [
      "तफा",
      "न</w>"
    ],
    [
      "ँ",
      "</w>"
    ],
    [
      "ज़",
      "</w>"
    ],
    [
      "बुनिया",
      "दी</w>"
    ],
    [
      "च",
      "नाऽ</w>"
    ],
    [
      "म",
      "दान</w>"
    ],
    [
      "आर",
      ".</w>"
    ],
    [
      "रख",
      "दे</w>"
    ],
    [
      "समू",
      "हें</w>"
    ],
    [
      "स",
      "ज्"
    ],
    [
      "बरा",
      "दरी</w>"
    ],
    [
      "ज",
      "श</w>"
    ],
    [
      "चा",
      "ई</w>"
    ],
    [
      "म",
      "री"
    ],
    [
      "छ",
      "ान</w>"
    ],
    [
      "ह",
      "ट्टी</w>"
    ],
    [
      "कि",
      "."
    ],
    [
      "जर्",
      "मन</w>"
    ],
    [
      "थ",
      "ु"
    ],
    [
      "ंड",
      "ें</w>"
    ],
    [
      "मुसल",
      "मान</w>"
    ],
    [
      "पुर",
      "श</w>"
    ],
    [
      "पत्त",
      "ि</w>"
    ],
    [
      "क",
      "़"
    ],
    [
      "ए",
      "ह्दे</w>"
    ],
    [
      "स",
      "ारी</w>"
    ],
    [
      "प",
      "्यार</w>"
    ],
    [
      "बरे",
      "सा</w>"
    ],
    [
      "मै",
      "क"
    ],
    [
      "प्रतियो",
      "गि"
    ],
    [
      "न",
      "न</w>"
    ],
    [
      "पो",
      "लो</w>"
    ],
    [
      "कि",
      "समें</w>"
    ],
    [
      "चे",
      "ता</w>"
    ],
    [
      "बे",
      "ह"
    ],
    [
      "त्र",
      "ो"
    ],
    [
      "ल्",
      "ट</w>"
    ],
    [
      "आख",
      "र</w>"
    ],
    [
      "जेह्‌",
      "ड़ा</w>"
    ],
    [
      "ला",
      "का</w>"
    ],
    [
      "ज",
      "ं"
    ],
    [
      "199",
      "8</w>"
    ],
    [
      "बै",
      "ठ"
    ],
    [
      "ज़",
      "त</w>"
    ],
    [
      "199",
      "9</w>"
    ],
    [
      "चकित्",
      "सा</w>"
    ],
    [
      "औ",
      "ंदी</w>"
    ],
    [
      "ले",
      ",</w>"
    ],
    [
      "ल",
      ")</w>"
    ],
    [
      "जंग",
      "ल</w>"
    ],
    [
      "मान",
      "ता</w>"
    ],
    [
      "वि",
      "ल</w>"
    ],
    [
      "ली",
      "वुड</w>"
    ],
    [
      "जा’र",
      "दा</w>"
    ],
    [
      "इजा",
      "ज़त</w>"
    ],
    [
      "संग",
      "ठ"
    ],
    [
      "स्",
      "क्र"
    ],
    [
      "प्र",
      "भा"
    ],
    [
      "पत्न",
      "ी</w>"
    ],
    [
      "प्रति",
      "नि"
    ],
    [
      "यू",
      ".</w>"
    ],
    [
      "पै",
      "हे</w>"
    ],
    [
      "ङ",
      "न</w>"
    ],
    [
      "प",
      "क्ख"
    ],
    [
      "पु",
      "त्त"
    ],
    [
      "निर्देश",
      "त</w>"
    ],
    [
      "उप्",
      "पर"
    ],
    [
      "सक",
      "ें</w>"
    ],
    [
      "ड",
      "ें</w>"
    ],
    [
      "द",
      "शा</w>"
    ],
    [
      "न",
      "दियें</w>"
    ],
    [
      "आ",
      "य"
    ],
    [
      "सक",
      "ै।</w>"
    ],
    [
      "व्य",
      "ं"
    ],
    [
      "प्र",
      "स्ता"
    ],
    [
      "पन्",
      "छान</w>"
    ],
    [
      "ला",
      "ंदे</w>"
    ],
    [
      "सरबंध",
      "</w>"
    ],
    [
      "कथ",
      "ा</w>"
    ],
    [
      "क",
      "ट्ट"
    ],
    [
      "ब्रि",
      "टेन</w>"
    ],
    [
      "ट्ठ",
      "</w>"
    ],
    [
      "रो",
      "की</w>"
    ],
    [
      "टू",
      "र्ना"
    ],
    [
      "के",
      ".</w>"
    ],
    [
      "ा",
      "एं</w>"
    ],
    [
      "शैह्‌‌‌",
      "री</w>"
    ],
    [
      "समस्",
      "या"
    ],
    [
      "द",
      "फ"
    ],
    [
      "खेत",
      "रै</w>"
    ],
    [
      "ज",
      "ार"
    ],
    [
      "खढ",
      "ारियें</w>"
    ],
    [
      "ता",
      ",</w>"
    ],
    [
      "ह्",
      "त</w>"
    ],
    [
      "पैह्‌",
      "ला</w>"
    ],
    [
      "ए",
      "ल्"
    ],
    [
      "लिख",
      "ी</w>"
    ],
    [
      "न",
      "ने</w>"
    ],
    [
      "ं",
      "सी</w>"
    ],
    [
      "ए",
      "ड"
    ],
    [
      "े",
      "-"
    ],
    [
      "बिक्क",
      "री</w>"
    ],
    [
      "ओ",
      "ह्दे</w>"
    ],
    [
      "रिय",
      "न</w>"
    ],
    [
      "परियो",
      "जना</w>"
    ],
    [
      "प",
      "े</w>"
    ],
    [
      "क",
      "त</w>"
    ],
    [
      "न",
      "मायंदगी</w>"
    ],
    [
      "कि",
      "सम"
    ],
    [
      "1",
      "."
    ],
    [
      "स",
      "ियें</w>"
    ],
    [
      "सं",
      "ख्या</w>"
    ],
    [
      "पु",
      "नर्"
    ],
    [
      "या",
      "ं"
    ],
    [
      "अदा",
      "लत</w>"
    ],
    [
      "म",
      "ह"
    ],
    [
      "ल",
      "द्दा"
    ],
    [
      "स्त",
      "ें</w>"
    ],
    [
      "ब",
      "स्तार</w>"
    ],
    [
      "व",
      "िय"
    ],
    [
      "फ्रांसी",
      "सी</w>"
    ],
    [
      "यौ",
      "न</w>"
    ],
    [
      "स्टे",
      "डियम</w>"
    ],
    [
      "इलि",
      "नो"
    ],
    [
      "टी",
      ".</w>"
    ],
    [
      "स्",
      "मार"
    ],
    [
      "डे",
      "वि"
    ],
    [
      "ड्",
      "रा"
    ],
    [
      "करा",
      "र</w>"
    ],
    [
      "लै",
      "ंदा</w>"
    ],
    [
      "फ्",
      "रैं"
    ],
    [
      "टी",
      "न</w>"
    ],
    [
      "ने",
      "ता</w>"
    ],
    [
      "ह",
      "त</w>"
    ],
    [
      "स",
      "ल्"
    ],
    [
      "ढ",
      "ा"
    ],
    [
      "उ",
      "द"
    ],
    [
      "नि",
      "ंग</w>"
    ],
    [
      "लि",
      "ं"
    ],
    [
      "सिय",
      "स</w>"
    ],
    [
      "ब",
      "प"
    ],
    [
      "ला",
      "स</w>"
    ],
    [
      "पुज्ज",
      "ने</w>"
    ],
    [
      "खड़",
      "ो"
    ],
    [
      "वि",
      "धा"
    ],
    [
      "आ",
      "प</w>"
    ],
    [
      "दा",
      ",</w>"
    ],
    [
      "माह्‌",
      "नू</w>"
    ],
    [
      "अर",
      "ब</w>"
    ],
    [
      "फलस",
      "रूप</w>"
    ],
    [
      "स",
      "ॉ"
    ],
    [
      "वि",
      "ष्"
    ],
    [
      "ब",
      "ै</w>"
    ],
    [
      "कि",
      "सम</w>"
    ],
    [
      "ल",
      "िया</w>"
    ],
    [
      "जेह्",
      "ड़ी</w>"
    ],
    [
      "व",
      "ती</w>"
    ],
    [
      "फै",
      "ले</w>"
    ],
    [
      "ला",
      "गत</w>"
    ],
    [
      "गवर्",
      "नर</w>"
    ],
    [
      "मुश्",
      "कल</w>"
    ],
    [
      "मनो",
      "रं"
    ],
    [
      "बरे",
      "स</w>"
    ],
    [
      "श",
      "र"
    ],
    [
      "ट्",
      "र"
    ],
    [
      "पर",
      "मा"
    ],
    [
      "कला",
      "कार</w>"
    ],
    [
      "मिल",
      "दी</w>"
    ],
    [
      "राज",
      "ें</w>"
    ],
    [
      "समर्",
      "पत</w>"
    ],
    [
      "विकल्",
      "प</w>"
    ],
    [
      "छु",
      "ट्टी</w>"
    ],
    [
      "शा",
      "ं"
    ],
    [
      "ख",
      "म</w>"
    ],
    [
      "ए",
      "क्"
    ],
    [
      "डी",
      ".</w>"
    ],
    [
      "स्",
      "पोर्"
    ],
    [
      "सा",
      "फ</w>"
    ],
    [
      "रस्",
      "ते</w>"
    ],
    [
      "इतिहा",
      "सक</w>"
    ],
    [
      "त्र",
      "ै"
    ],
    [
      "कर",
      "नी</w>"
    ],
    [
      "नेई",
      "ं।</w>"
    ],
    [
      "जग",
      "ह</w>"
    ],
    [
      "स",
      "ट्ट</w>"
    ],
    [
      "भ",
      "ंड"
    ],
    [
      "बा",
      "ई</w>"
    ],
    [
      "स्को",
      "र</w>"
    ],
    [
      "प्रति",
      "क्रिया</w>"
    ],
    [
      "को",
      "शिका"
    ],
    [
      "सेवा",
      "एं</w>"
    ],
    [
      "जित्त",
      "ेआ</w>"
    ],
    [
      "क",
      "ताब</w>"
    ],
    [
      "लै",
      "क्"
    ],
    [
      "दर",
      "ेआ</w>"
    ],
    [
      "ह",
      "रण</w>"
    ],
    [
      "दू",
      "री</w>"
    ],
    [
      "स",
      "हा"
    ],
    [
      "अंग्रे",
      "ज़ी</w>"
    ],
    [
      "अफ्री",
      "का</w>"
    ],
    [
      "र",
      "वा"
    ],
    [
      "स्प",
      "ताल</w>"
    ],
    [
      "ले",
      "ज</w>"
    ],
    [
      "रा",
      "ती"
    ],
    [
      "जैं",
      "सी</w>"
    ],
    [
      "प",
      "ेआ।</w>"
    ],
    [
      "मि",
      "ंग</w>"
    ],
    [
      "सिद्ध",
      "ां"
    ],
    [
      "ल",
      "क्"
    ],
    [
      "अं",
      "क</w>"
    ],
    [
      "ऐ",
      "क्स"
    ],
    [
      "डे",
      "ल्"
    ],
    [
      "ार्",
      "थ</w>"
    ],
    [
      "य",
      "े"
    ],
    [
      "से",
      "ंट</w>"
    ],
    [
      "उ",
      "दा"
    ],
    [
      "बुनिया",
      "द</w>"
    ],
    [
      "फ",
      "र</w>"
    ],
    [
      "रे",
      "ल</w>"
    ],
    [
      "5",
      "00</w>"
    ],
    [
      "ट्रै",
      "क</w>"
    ],
    [
      "सूची",
      "बद्ध</w>"
    ],
    [
      "आह्‌",
      "लें</w>"
    ],
    [
      "19",
      "0"
    ],
    [
      "च",
      "न</w>"
    ],
    [
      "सु",
      "झा"
    ],
    [
      "च",
      "ू"
    ],
    [
      "ग्रु",
      "प</w>"
    ],
    [
      "ंग",
      "टन</w>"
    ],
    [
      "सूर",
      "ज</w>"
    ],
    [
      "ग्रां",
      "S</w>"
    ],
    [
      "बजा",
      "र</w>"
    ],
    [
      "गा",
      "यक</w>"
    ],
    [
      "हो",
      "ली</w>"
    ],
    [
      "पेश",
      "कश</w>"
    ],
    [
      "शिला",
      "लेख</w>"
    ],
    [
      "कर्मच",
      "ारी</w>"
    ],
    [
      "कि",
      "न्ना</w>"
    ],
    [
      "9",
      "0</w>"
    ],
    [
      "स्थि",
      "तियें</w>"
    ],
    [
      "दे",
      "।</w>"
    ],
    [
      "सि",
      "ंग</w>"
    ],
    [
      "आ",
      "त"
    ],
    [
      "शरी",
      "रै</w>"
    ],
    [
      "तब्दी",
      "ल</w>"
    ],
    [
      "न",
      "जर</w>"
    ],
    [
      "ह",
      "र्"
    ],
    [
      "भाशा",
      "एं</w>"
    ],
    [
      "न",
      "म</w>"
    ],
    [
      "तर",
      "ण</w>"
    ],
    [
      "ज",
      "नें</w>"
    ],
    [
      "ट",
      "ली</w>"
    ],
    [
      "मार",
      "ने</w>"
    ],
    [
      "दि",
      "लै</w>"
    ],
    [
      "ब्",
      "राज"
    ],
    [
      "वि",
      "धान</w>"
    ],
    [
      "ते",
      "लु"
    ],
    [
      "ब्य",
      "ौ"
    ],
    [
      "फु",
      "ट्ट</w>"
    ],
    [
      "अंद",
      "ो"
    ],
    [
      "आ",
      "धिकार"
    ],
    [
      "आंह्‌",
      "गर</w>"
    ],
    [
      "य",
      "ै</w>"
    ],
    [
      "का",
      "न्"
    ],
    [
      "य",
      "ता</w>"
    ],
    [
      "आख",
      "री</w>"
    ],
    [
      "ला",
      "ना</w>"
    ],
    [
      "आम",
      "दन</w>"
    ],
    [
      "मजबू",
      "र</w>"
    ],
    [
      "निर्दे",
      "शन</w>"
    ],
    [
      "भा",
      "ल</w>"
    ],
    [
      "स",
      "ड़"
    ],
    [
      "पा",
      "स</w>"
    ],
    [
      "र",
      "लीज</w>"
    ],
    [
      "मि",
      "ंट</w>"
    ],
    [
      "व",
      "ल</w>"
    ],
    [
      "ले",
      "क्"
    ],
    [
      "गुरु",
      "</w>"
    ],
    [
      "अड्ड",
      "े</w>"
    ],
    [
      "ग",
      "ढ़</w>"
    ],
    [
      "न",
      "रा"
    ],
    [
      "ना",
      "क</w>"
    ],
    [
      "आं",
      "ढ"
    ],
    [
      "प्रका",
      "शत</w>"
    ],
    [
      "बल्",
      "के</w>"
    ],
    [
      "समीक्ष",
      "ा</w>"
    ],
    [
      "7",
      "0</w>"
    ],
    [
      "फौ",
      "जी</w>"
    ],
    [
      "चा",
      "ल्"
    ],
    [
      "फो",
      "र्ड</w>"
    ],
    [
      "ो",
      "-"
    ],
    [
      "निय",
      "र</w>"
    ],
    [
      "ऐफ्फ",
      ".</w>"
    ],
    [
      "मच्छ",
      "ी</w>"
    ],
    [
      "स्ट",
      "ू"
    ],
    [
      "बना",
      "ंदे</w>"
    ],
    [
      "शो",
      "ध"
    ],
    [
      "सिं",
      "ड्रो"
    ],
    [
      "ट",
      "ां</w>"
    ],
    [
      "आ",
      "स्ट्रेल"
    ],
    [
      "निर्मा",
      "ता</w>"
    ],
    [
      "हत्थ",
      "ें</w>"
    ],
    [
      "19",
      "मीं</w>"
    ],
    [
      "ऑ",
      "र्"
    ],
    [
      "शा",
      "न"
    ],
    [
      "स",
      "त्त</w>"
    ],
    [
      "किर",
      "दार</w>"
    ],
    [
      "वर्",
      "णन</w>"
    ],
    [
      "द",
      "स्ता"
    ],
    [
      "सं",
      "भा"
    ],
    [
      "नि",
      "</w>"
    ],
    [
      "क",
      "-"
    ],
    [
      "ट्",
      "रि"
    ],
    [
      "न",
      "ारा"
    ],
    [
      "नौ",
      "करी</w>"
    ],
    [
      "स",
      "-"
    ],
    [
      "गां",
      "धी</w>"
    ],
    [
      "ड़",
      "ियां</w>"
    ],
    [
      "चर्",
      "च</w>"
    ],
    [
      "समा",
      "ज</w>"
    ],
    [
      "ट",
      "ियें</w>"
    ],
    [
      "आ",
      "ह्"
    ],
    [
      "सर",
      "दार</w>"
    ],
    [
      "न्न",
      "ा"
    ],
    [
      "न",
      "ॉ"
    ],
    [
      "िय",
      "ै,</w>"
    ],
    [
      "म",
      "री</w>"
    ],
    [
      "क्रि",
      "केट</w>"
    ],
    [
      "प",
      "द</w>"
    ],
    [
      "यूनिवर्",
      "सिटी</w>"
    ],
    [
      "मु",
      "क्त</w>"
    ],
    [
      "तैं",
      "तर</w>"
    ],
    [
      "घो",
      "शत</w>"
    ],
    [
      "से",
      "ही</w>"
    ],
    [
      "अजा",
      "द</w>"
    ],
    [
      "ल्",
      "ला</w>"
    ],
    [
      "च्छ",
      "</w>"
    ],
    [
      "शु",
      "मारी</w>"
    ],
    [
      "मे",
      "रा</w>"
    ],
    [
      "हि",
      "ं"
    ],
    [
      "जैदा",
      "द</w>"
    ],
    [
      "बो",
      "र्"
    ],
    [
      "ग्रां",
      "ऽ</w>"
    ],
    [
      "ओडि",
      "शा</w>"
    ],
    [
      "रंग",
      "ै</w>"
    ],
    [
      "के",
      "ई</w>"
    ],
    [
      "विशे",
      "श"
    ],
    [
      "जवा",
      "ब</w>"
    ],
    [
      "कार्य",
      "क्र"
    ],
    [
      "ी",
      "ं</w>"
    ],
    [
      "ण",
      "त</w>"
    ],
    [
      "काल",
      "ज</w>"
    ],
    [
      "निय",
      "में</w>"
    ],
    [
      "राती",
      "ं</w>"
    ],
    [
      "-",
      "ब"
    ],
    [
      "चाहि",
      "दी।</w>"
    ],
    [
      "शू",
      "टिंग</w>"
    ],
    [
      "खेढ",
      "दे</w>"
    ],
    [
      "रे",
      "ट</w>"
    ],
    [
      ".पी",
      ".</w>"
    ],
    [
      "विद्य",
      "ार्थी</w>"
    ],
    [
      "रिय",
      "ल</w>"
    ],
    [
      "द्य",
      "</w>"
    ],
    [
      "कै",
      "ड"
    ],
    [
      "ल",
      "स</w>"
    ],
    [
      "सो",
      "हे</w>"
    ],
    [
      "इ",
      "का"
    ],
    [
      "ग",
      "ढ़</w>"
    ],
    [
      "व",
      "त</w>"
    ],
    [
      "मू",
      "ल्"
    ],
    [
      "म",
      "ंग</w>"
    ],
    [
      "हु",
      "कम</w>"
    ],
    [
      "ए",
      "क्स"
    ],
    [
      "ट्ट",
      "ा</w>"
    ],
    [
      "बा",
      "ल"
    ],
    [
      "च्च",
      "</w>"
    ],
    [
      "नि",
      "कें</w>"
    ],
    [
      "अक",
      "बर</w>"
    ],
    [
      "ख",
      "त</w>"
    ],
    [
      "नारा",
      "य"
    ],
    [
      "समे",
      "त</w>"
    ],
    [
      "संभाव",
      "त</w>"
    ],
    [
      "बंग",
      "ला"
    ],
    [
      "ई",
      "स्ट</w>"
    ],
    [
      "समु",
      "ंदर</w>"
    ],
    [
      "कंप",
      "नियें</w>"
    ],
    [
      "जिस",
      "ले</w>"
    ],
    [
      "लम्",
      "मा</w>"
    ],
    [
      "स्ट",
      "न</w>"
    ],
    [
      "गु",
      "फा"
    ],
    [
      "चि",
      "त्त"
    ],
    [
      "ंग",
      "े</w>"
    ],
    [
      "परंपरा",
      "गत</w>"
    ],
    [
      "अंद",
      "रू"
    ],
    [
      "दाह्‌‌‌",
      "वा</w>"
    ],
    [
      "पु",
      "र्"
    ],
    [
      "धार्",
      "मक</w>"
    ],
    [
      "टि",
      "बंध"
    ],
    [
      "ं",
      "त"
    ],
    [
      "इक-",
      "दुए</w>"
    ],
    [
      "फ",
      "ल</w>"
    ],
    [
      "द",
      "ारें</w>"
    ],
    [
      "समस्या",
      "एं</w>"
    ],
    [
      "4",
      "एं</w>"
    ],
    [
      "बि",
      "ंद"
    ],
    [
      "ना",
      "यक</w>"
    ],
    [
      "मु",
      "ख"
    ],
    [
      "खी",
      "र"
    ],
    [
      "रक्ख",
      "ेआ।</w>"
    ],
    [
      "वैब",
      "साइट</w>"
    ],
    [
      "प",
      "शा"
    ],
    [
      "नै",
      "ट्ट"
    ],
    [
      "जान",
      "वरें</w>"
    ],
    [
      "ने",
      "शनल</w>"
    ],
    [
      "अ",
      "गु"
    ],
    [
      "फै",
      "ली</w>"
    ],
    [
      "अ",
      "ना"
    ],
    [
      "जे",
      "ं"
    ],
    [
      "कोशिका",
      "एं</w>"
    ],
    [
      "छ",
      "ड़ी</w>"
    ],
    [
      "मा",
      "न्"
    ],
    [
      "जा",
      "नी</w>"
    ],
    [
      "मा",
      "ध्य"
    ],
    [
      "खा",
      "ते</w>"
    ],
    [
      "गण",
      "ना</w>"
    ],
    [
      "ब्",
      "ला"
    ],
    [
      "उद्",
      "देश</w>"
    ],
    [
      "बै",
      "क्"
    ],
    [
      "त",
      "रा"
    ],
    [
      "196",
      "0</w>"
    ],
    [
      "ऐ",
      "ल्ल"
    ],
    [
      "अदा",
      "कारा</w>"
    ],
    [
      "गु",
      "</w>"
    ],
    [
      "फि",
      "स</w>"
    ],
    [
      "सं",
      "त</w>"
    ],
    [
      "पश्",
      "चि"
    ],
    [
      "ह",
      "म्म"
    ],
    [
      "मु",
      "स्"
    ],
    [
      "क्क",
      "र</w>"
    ],
    [
      "बावजू",
      "द</w>"
    ],
    [
      "ि",
      "म</w>"
    ],
    [
      "सु",
      "रक्ख"
    ],
    [
      "दर्",
      "शकें</w>"
    ],
    [
      "मि",
      "श्र"
    ],
    [
      "निय",
      "मत</w>"
    ],
    [
      "श",
      "न"
    ],
    [
      "क",
      "ू</w>"
    ],
    [
      "ब्या",
      "ज</w>"
    ],
    [
      "ब",
      "ी,</w>"
    ],
    [
      "शा",
      "ली</w>"
    ],
    [
      "त",
      "म</w>"
    ],
    [
      "नियंत्र",
      "त</w>"
    ],
    [
      "सु",
      "ख"
    ],
    [
      "अंदरू",
      "नी</w>"
    ],
    [
      "बधा",
      "ने</w>"
    ],
    [
      "अनुभ",
      "व</w>"
    ],
    [
      "एं",
      "टी"
    ],
    [
      "ई",
      ".</w>"
    ],
    [
      "सू",
      "बे</w>"
    ],
    [
      "जा",
      "ह्‌"
    ],
    [
      "अध",
      "्या"
    ],
    [
      "सिंड्रो",
      "म</w>"
    ],
    [
      "स",
      "रूप</w>"
    ],
    [
      "कम्",
      "प"
    ],
    [
      "कंढ",
      "ै</w>"
    ],
    [
      "घ",
      "े"
    ],
    [
      ".",
      "वी.</w>"
    ],
    [
      "ज",
      "मा"
    ],
    [
      "शा",
      "सत</w>"
    ],
    [
      "ओ",
      "ह्‌दे</w>"
    ],
    [
      "द",
      "स्सी</w>"
    ],
    [
      "अर्थ",
      "</w>"
    ],
    [
      "लं",
      "घ"
    ],
    [
      "हो",
      "न</w>"
    ],
    [
      "गे",
      ",</w>"
    ],
    [
      "र",
      "ां</w>"
    ],
    [
      "शी",
      "र्श</w>"
    ],
    [
      "प",
      "ॉ"
    ],
    [
      "दम",
      "शुमारी</w>"
    ],
    [
      "ज",
      "तन</w>"
    ],
    [
      "ऐम्म",
      ".</w>"
    ],
    [
      "दर",
      "ेआ"
    ],
    [
      ".",
      "जी"
    ],
    [
      "तरी",
      "न</w>"
    ],
    [
      "इकमा",
      "त्तर</w>"
    ],
    [
      "बा",
      "द,</w>"
    ],
    [
      "बूह्‌‌",
      "टे</w>"
    ],
    [
      "सं",
      "सद</w>"
    ],
    [
      "बि",
      "द्रो"
    ],
    [
      "प्रा",
      "ंत</w>"
    ],
    [
      "सा",
      "नी</w>"
    ],
    [
      "फ्हा",
      "जत</w>"
    ],
    [
      "यूना",
      "नी</w>"
    ],
    [
      "खु",
      "'"
    ],
    [
      "तै",
      "ऽ</w>"
    ],
    [
      "प",
      "ल</w>"
    ],
    [
      "बंगला",
      "देश</w>"
    ],
    [
      "ग्र",
      "ी"
    ],
    [
      "फा",
      "ई</w>"
    ],
    [
      "रा",
      "ती</w>"
    ],
    [
      "जेह्",
      "ड़े</w>"
    ],
    [
      "मा",
      "नें</w>"
    ],
    [
      "चां",
      "ह्‌‌‌"
    ],
    [
      "ष",
      "</w>"
    ],
    [
      "रा",
      "म"
    ],
    [
      "सा",
      "गर</w>"
    ],
    [
      "प्र",
      "शासन</w>"
    ],
    [
      "प्रती",
      "क</w>"
    ],
    [
      "प",
      "ियन</w>"
    ],
    [
      "शी",
      "र्"
    ],
    [
      "तो",
      "ह्‌‌"
    ],
    [
      "ब",
      "स</w>"
    ],
    [
      "वर्",
      "ड</w>"
    ],
    [
      "वा",
      "ह"
    ],
    [
      "बल्",
      "ले"
    ],
    [
      "काब",
      "ल</w>"
    ],
    [
      "क्",
      "वा"
    ],
    [
      "स",
      "जा"
    ],
    [
      "सर्व",
      "श्रे"
    ],
    [
      "पि",
      "ंग</w>"
    ],
    [
      "ब्",
      "रै"
    ],
    [
      "कै",
      "रो"
    ],
    [
      "वास्तु",
      "कला</w>"
    ],
    [
      "चे",
      "न्न"
    ],
    [
      "मा",
      "ला</w>"
    ],
    [
      "स्ता",
      "नी</w>"
    ],
    [
      "मार्",
      "ग</w>"
    ],
    [
      "चल",
      "ने</w>"
    ],
    [
      "दु",
      "एं</w>"
    ],
    [
      "हा",
      "उस</w>"
    ],
    [
      "ंग",
      "र</w>"
    ],
    [
      "चु",
      "के</w>"
    ],
    [
      "सा",
      "ब"
    ],
    [
      "य",
      "ो</w>"
    ],
    [
      "उत्पा",
      "दें</w>"
    ],
    [
      "सं",
      "चार</w>"
    ],
    [
      "ज़",
      "ो"
    ],
    [
      "जा",
      "र</w>"
    ],
    [
      "1",
      "1"
    ],
    [
      "ी",
      "य</w>"
    ],
    [
      "फाय",
      "दा</w>"
    ],
    [
      "चल",
      "दे</w>"
    ],
    [
      "र्",
      "य</w>"
    ],
    [
      "प्रा",
      "ग</w>"
    ],
    [
      "डि",
      "स्"
    ],
    [
      "ता",
      "-"
    ],
    [
      "ग",
      "ार्"
    ],
    [
      "3",
      "1</w>"
    ],
    [
      "संचा",
      "लन</w>"
    ],
    [
      "अं",
      "त</w>"
    ],
    [
      "खा",
      "सी</w>"
    ],
    [
      "मौ",
      "का</w>"
    ],
    [
      "ल",
      "ग्"
    ],
    [
      "जु",
      "र्"
    ],
    [
      "का",
      "एं</w>"
    ],
    [
      "समा",
      "जक</w>"
    ],
    [
      "पा",
      "ने</w>"
    ],
    [
      "फुट",
      "बॉल</w>"
    ],
    [
      "मि",
      "स्"
    ],
    [
      "भवि",
      "क्ख</w>"
    ],
    [
      "वि",
      "द्व"
    ],
    [
      "बी",
      "मा</w>"
    ],
    [
      "जना",
      "नी</w>"
    ],
    [
      "अ",
      "कैड"
    ],
    [
      "मं",
      "च</w>"
    ],
    [
      "रो",
      "ग</w>"
    ],
    [
      "लक्ख",
      "न</w>"
    ],
    [
      "पा",
      "त</w>"
    ],
    [
      "जंग",
      "ली</w>"
    ],
    [
      "मौ",
      "के</w>"
    ],
    [
      "लद्दा",
      "ख</w>"
    ],
    [
      "दस",
      "दा</w>"
    ],
    [
      "ब",
      "ढ़ा"
    ],
    [
      "अंदो",
      "लन</w>"
    ],
    [
      "चर्",
      "चा</w>"
    ],
    [
      "र",
      "कम</w>"
    ],
    [
      "मना",
      "सब</w>"
    ],
    [
      "ब",
      "स"
    ],
    [
      "हम्म",
      "द</w>"
    ],
    [
      "देव",
      "ता</w>"
    ],
    [
      "प्हा",
      "ड़ियें</w>"
    ],
    [
      "किस्",
      "में</w>"
    ],
    [
      "सुरक्ख",
      "त</w>"
    ],
    [
      "तुप्प",
      "ने</w>"
    ],
    [
      "बी",
      ".</w>"
    ],
    [
      "आ",
      "र</w>"
    ],
    [
      "शा",
      "नी</w>"
    ],
    [
      "परा",
      "नी</w>"
    ],
    [
      "वे",
      "द"
    ],
    [
      "अस",
      "ली</w>"
    ],
    [
      "कि.",
      "मी.</w>"
    ],
    [
      "टी",
      ",</w>"
    ],
    [
      "मणि",
      "पुर</w>"
    ],
    [
      "हे",
      "ठ</w>"
    ],
    [
      "म",
      "ले"
    ],
    [
      "ब",
      "िया</w>"
    ],
    [
      "हालां",
      "के</w>"
    ],
    [
      "ब",
      "ढ़"
    ],
    [
      "पे",
      "ं"
    ],
    [
      "सिक्क",
      "िम</w>"
    ],
    [
      "जि'",
      "ले</w>"
    ],
    [
      "भ",
      "ौ"
    ],
    [
      "रि",
      "कार्"
    ],
    [
      "नती",
      "जा</w>"
    ],
    [
      "यो",
      "ग"
    ],
    [
      "छू",
      "ट</w>"
    ],
    [
      "रौंह्‌‌‌",
      "दी</w>"
    ],
    [
      "194",
      "7</w>"
    ],
    [
      "जात",
      "ियां</w>"
    ],
    [
      "मन",
      "दे</w>"
    ],
    [
      "5",
      "0"
    ],
    [
      "सि",
      "र</w>"
    ],
    [
      "म",
      "ियें</w>"
    ],
    [
      "कार",
      ",</w>"
    ],
    [
      "कि",
      "शो"
    ],
    [
      "रूप",
      "ें</w>"
    ],
    [
      "धार्",
      "मिक</w>"
    ],
    [
      "प्र",
      "ार्थ"
    ],
    [
      "र",
      "गा"
    ],
    [
      "उं",
      "ड</w>"
    ],
    [
      "अ",
      "लोच"
    ],
    [
      "बना",
      "ंदा</w>"
    ],
    [
      "नाराय",
      "ण</w>"
    ],
    [
      "दस्स",
      "ने</w>"
    ],
    [
      "कु",
      "तै</w>"
    ],
    [
      "कर्",
      "ज</w>"
    ],
    [
      "अंग्रे",
      "जी</w>"
    ],
    [
      "जि",
      "ला</w>"
    ],
    [
      "ह",
      "रि"
    ],
    [
      "बढ़ा",
      "वा</w>"
    ],
    [
      "संस्",
      "कार</w>"
    ],
    [
      "झ",
      "ु"
    ],
    [
      "आ",
      "योजत</w>"
    ],
    [
      "गा",
      "न</w>"
    ],
    [
      "सौ",
      "खा</w>"
    ],
    [
      "म",
      "झा"
    ],
    [
      "कल्",
      "प"
    ],
    [
      "भो",
      "जन</w>"
    ],
    [
      "य",
      "हू"
    ],
    [
      "इलिनो",
      "य</w>"
    ],
    [
      "गु",
      "ला"
    ],
    [
      "उं",
      "’"
    ],
    [
      "सहा",
      "यक</w>"
    ],
    [
      "/",
      "</w>"
    ],
    [
      "का",
      ",</w>"
    ],
    [
      "बेच",
      "ने</w>"
    ],
    [
      "रे",
      "खा</w>"
    ],
    [
      "घ",
      "ट्ट"
    ],
    [
      "कारो",
      "बार</w>"
    ],
    [
      "अ",
      "ंड"
    ],
    [
      "गतिवि",
      "धियें</w>"
    ],
    [
      "199",
      "5</w>"
    ],
    [
      "श",
      "क्ति"
    ],
    [
      "साढ़",
      "े</w>"
    ],
    [
      "सेल्",
      "सियस</w>"
    ],
    [
      "ट्",
      "री</w>"
    ],
    [
      "ट्ठ",
      "ें</w>"
    ],
    [
      "मन्न",
      "ी</w>"
    ],
    [
      "न",
      "स"
    ],
    [
      "की",
      "न</w>"
    ],
    [
      "म",
      "शी"
    ],
    [
      "ट",
      "करा"
    ],
    [
      "किसम",
      "ा</w>"
    ],
    [
      "परोआ",
      "रै</w>"
    ],
    [
      "इ",
      "ल्"
    ],
    [
      "स",
      "कारात्मक</w>"
    ],
    [
      "हु",
      "नै</w>"
    ],
    [
      "ह",
      "म</w>"
    ],
    [
      "द",
      "स</w>"
    ],
    [
      "शान",
      "दार</w>"
    ],
    [
      "ध्",
      "र</w>"
    ],
    [
      ".टी",
      ".</w>"
    ],
    [
      "कला",
      "कारें</w>"
    ],
    [
      "पै",
      "रा"
    ],
    [
      "य",
      "े</w>"
    ],
    [
      "र्",
      "जा</w>"
    ],
    [
      "थाह्‌‌‌",
      "रा</w>"
    ],
    [
      "संस्कृ",
      "त</w>"
    ],
    [
      "जि",
      "`नें</w>"
    ],
    [
      "र",
      "ियें</w>"
    ],
    [
      "ऐ",
      ";</w>"
    ],
    [
      "ले",
      "ट</w>"
    ],
    [
      "रू",
      "स</w>"
    ],
    [
      "क",
      "था"
    ],
    [
      "कार",
      "णें</w>"
    ],
    [
      "डा",
      "ल"
    ],
    [
      "न",
      "जरी</w>"
    ],
    [
      "म्हे",
      "शां</w>"
    ],
    [
      "ू",
      "र</w>"
    ],
    [
      "क्",
      "य</w>"
    ],
    [
      "म",
      "्या"
    ],
    [
      "लेख",
      "ें</w>"
    ],
    [
      "कार",
      "क</w>"
    ],
    [
      "अग",
      "ली</w>"
    ],
    [
      "फिल्",
      "म"
    ],
    [
      "म",
      "स"
    ],
    [
      "तेहार",
      "ै</w>"
    ],
    [
      "जी",
      "व</w>"
    ],
    [
      "बच",
      "ने</w>"
    ],
    [
      "व",
      "न"
    ],
    [
      "लेख",
      "क</w>"
    ],
    [
      "ंग",
      "ें</w>"
    ],
    [
      "त्र",
      "िया</w>"
    ],
    [
      "वी",
      "जन</w>"
    ],
    [
      "ंभ",
      "</w>"
    ],
    [
      "अकैड",
      "मी</w>"
    ],
    [
      "त",
      "त्"
    ],
    [
      "बना",
      "ना</w>"
    ],
    [
      "ट्",
      "स"
    ],
    [
      "फे",
      "फ"
    ],
    [
      "2",
      "."
    ],
    [
      "त",
      "त्व</w>"
    ],
    [
      "ड",
      "ू"
    ],
    [
      "आर्थ",
      "िक</w>"
    ],
    [
      "सो",
      "सिए"
    ],
    [
      "मैह्‌‌‌",
      "ना</w>"
    ],
    [
      "उम",
      "र</w>"
    ],
    [
      "रा",
      "क</w>"
    ],
    [
      "सू",
      "न</w>"
    ],
    [
      "इ",
      "'नें</w>"
    ],
    [
      "पा",
      "इ"
    ],
    [
      "आ",
      "नंद</w>"
    ],
    [
      "पु",
      "रा</w>"
    ],
    [
      "वि",
      "शे</w>"
    ],
    [
      "आ",
      "लोच"
    ],
    [
      "ब",
      "मार"
    ],
    [
      "गे",
      "ई,</w>"
    ],
    [
      "आद",
      "मी</w>"
    ],
    [
      "भा",
      "ग</w>"
    ],
    [
      "शब्",
      "दें</w>"
    ],
    [
      "सं",
      "स्थान</w>"
    ],
    [
      "यूरो",
      "प</w>"
    ],
    [
      "शि",
      "व"
    ],
    [
      "ल्",
      "ड"
    ],
    [
      "टि",
      "व</w>"
    ],
    [
      "बदल",
      "ने</w>"
    ],
    [
      "शी",
      "ल</w>"
    ],
    [
      "अ",
      "ट"
    ],
    [
      "खू",
      "नै</w>"
    ],
    [
      "सौ",
      "ं"
    ],
    [
      "ए",
      "ल"
    ],
    [
      "ल",
      "ख"
    ],
    [
      "भा",
      "र</w>"
    ],
    [
      "च",
      "ल</w>"
    ],
    [
      "सु",
      "न"
    ],
    [
      "त्र",
      "ा"
    ],
    [
      "शरा",
      "ब</w>"
    ],
    [
      "मूल्",
      "यां"
    ],
    [
      "क",
      "पूर</w>"
    ],
    [
      "बदला",
      "ऽ</w>"
    ],
    [
      "काब",
      "ले-"
    ],
    [
      "च",
      "।</w>"
    ],
    [
      "नि",
      "रा"
    ],
    [
      "त",
      "-"
    ],
    [
      "चैम्",
      "पियनशिप</w>"
    ],
    [
      "समझ",
      "ौ"
    ],
    [
      "गा",
      "ना</w>"
    ],
    [
      "आ",
      "यर"
    ],
    [
      "ण",
      "्"
    ],
    [
      "संघ",
      "र्श</w>"
    ],
    [
      "को",
      "रिया</w>"
    ],
    [
      "2",
      "एं</w>"
    ],
    [
      "हफ्",
      "तें</w>"
    ],
    [
      "स्पोर्",
      "ट्स</w>"
    ],
    [
      "मा",
      "डल</w>"
    ],
    [
      "प्रतिनि",
      "धि</w>"
    ],
    [
      "ह",
      "वा</w>"
    ],
    [
      "दे",
      "सें</w>"
    ],
    [
      "कि",
      "ंग"
    ],
    [
      "आंह्",
      "गर</w>"
    ],
    [
      "पौ",
      "ने</w>"
    ],
    [
      "म्ही",
      "नै</w>"
    ],
    [
      "सा",
      "फ्ट</w>"
    ],
    [
      "अ",
      "योजन</w>"
    ],
    [
      "ै",
      "ं</w>"
    ],
    [
      "जन",
      "रल</w>"
    ],
    [
      "त",
      "्या"
    ],
    [
      "अ",
      "ट्ठ</w>"
    ],
    [
      "मान",
      "क</w>"
    ],
    [
      "ज",
      "मा</w>"
    ],
    [
      "फे",
      "यर</w>"
    ],
    [
      "अ",
      "ली</w>"
    ],
    [
      "न्न",
      "-"
    ],
    [
      "'",
      "'"
    ],
    [
      "ला",
      "ड़ी</w>"
    ],
    [
      "ई",
      "-"
    ],
    [
      "रा",
      ",</w>"
    ],
    [
      "उ",
      "ल्"
    ],
    [
      "या",
      "त्रा</w>"
    ],
    [
      "मि",
      "त</w>"
    ],
    [
      "त",
      "गा"
    ],
    [
      "क्क",
      "न</w>"
    ],
    [
      "आह्‌‌‌",
      "लें</w>"
    ],
    [
      "ध",
      "ु</w>"
    ],
    [
      "ति",
      "रु"
    ],
    [
      "बज",
      "ह</w>"
    ],
    [
      ")",
      "।</w>"
    ],
    [
      "प",
      "्य"
    ],
    [
      "इंटरनै",
      "ट्ट</w>"
    ],
    [
      "शास्",
      "त्र</w>"
    ],
    [
      "प्र",
      "शास"
    ],
    [
      "पीड़",
      "त</w>"
    ],
    [
      "कार्यक्र",
      "में</w>"
    ],
    [
      "आधिकार",
      "िक</w>"
    ],
    [
      "परिश",
      "द्</w>"
    ],
    [
      "क",
      "िया</w>"
    ],
    [
      "िय",
      "ें,</w>"
    ],
    [
      "डि",
      "ट</w>"
    ],
    [
      "पुर्",
      "तगा"
    ],
    [
      "्य",
      "ें</w>"
    ],
    [
      "प",
      "ल्ल"
    ],
    [
      "ह",
      "क्क</w>"
    ],
    [
      "थाह्‌",
      "रै</w>"
    ],
    [
      "उच्च",
      "ी</w>"
    ],
    [
      "ठ",
      "ो"
    ],
    [
      "बर्",
      "फ"
    ],
    [
      "क",
      "ियें</w>"
    ],
    [
      "मु",
      "द्र"
    ],
    [
      "199",
      "6</w>"
    ],
    [
      "हि",
      "न्"
    ],
    [
      "र",
      ")</w>"
    ],
    [
      "स्टू",
      "डियो</w>"
    ],
    [
      ".डी",
      ".</w>"
    ],
    [
      "बाह्‌",
      "र</w>"
    ],
    [
      "मर",
      "दमशुमारी</w>"
    ],
    [
      "ता",
      "ल"
    ],
    [
      "य",
      "ार"
    ],
    [
      "हा",
      "द"
    ],
    [
      "अंग्रे",
      "जें</w>"
    ],
    [
      "संरक्ष",
      "ण</w>"
    ],
    [
      "रक्ख",
      "ना</w>"
    ],
    [
      "वे",
      "ं"
    ],
    [
      "द",
      "गी</w>"
    ],
    [
      "हत्थ",
      "</w>"
    ],
    [
      "जि",
      "त्थ"
    ],
    [
      "ज",
      "ब</w>"
    ],
    [
      "आ",
      "बो"
    ],
    [
      "ं",
      "ह्</w>"
    ],
    [
      "प्",
      "पी</w>"
    ],
    [
      "दे",
      "सै</w>"
    ],
    [
      "क",
      "स्"
    ],
    [
      "ब",
      "खा"
    ],
    [
      "सार",
      "ें</w>"
    ],
    [
      "खे",
      "तर"
    ],
    [
      "तेलु",
      "गु</w>"
    ],
    [
      "टे",
      "लीविजन</w>"
    ],
    [
      "ब्या",
      "ह्</w>"
    ],
    [
      "फिल्",
      "मै</w>"
    ],
    [
      "काबले-",
      "जिकर</w>"
    ],
    [
      "गण",
      "राज्य</w>"
    ],
    [
      "ब्",
      "बी</w>"
    ],
    [
      "च",
      "लाने</w>"
    ],
    [
      "सु",
      "ल्"
    ],
    [
      "सर्",
      "जरी</w>"
    ],
    [
      "मां",
      "कन</w>"
    ],
    [
      "स्ट",
      "र्"
    ],
    [
      "सं",
      "वेद"
    ],
    [
      "ला",
      "ं"
    ],
    [
      "गल्",
      "त</w>"
    ],
    [
      "जेह्‌",
      "ड़े</w>"
    ],
    [
      "स",
      "ड़"
    ],
    [
      "`",
      "ऊं</w>"
    ],
    [
      "रिय",
      "ो</w>"
    ],
    [
      "इ",
      "टली</w>"
    ],
    [
      "ग्रं",
      "थें</w>"
    ],
    [
      "माल",
      "क</w>"
    ],
    [
      "ज़",
      "ा"
    ],
    [
      "स्",
      "की</w>"
    ],
    [
      "वी",
      "र</w>"
    ],
    [
      "स्कू",
      "लें</w>"
    ],
    [
      "कु",
      "ड़ी</w>"
    ],
    [
      "संदर्",
      "भ</w>"
    ],
    [
      "गाह्‌‌",
      "क</w>"
    ],
    [
      "रा",
      "व</w>"
    ],
    [
      "18",
      "5"
    ],
    [
      "ो",
      "बद्ध</w>"
    ],
    [
      "ला",
      "य"
    ],
    [
      "सा",
      "ल</w>"
    ],
    [
      "साब",
      "का</w>"
    ],
    [
      "को",
      "लं"
    ],
    [
      "तबा",
      "ह्‌‌</w>"
    ],
    [
      "मु",
      "हा"
    ],
    [
      "अम",
      "र"
    ],
    [
      "दर्",
      "जे</w>"
    ],
    [
      "राइ",
      "ट</w>"
    ],
    [
      "कर",
      "णें</w>"
    ],
    [
      "स्टे",
      "ट</w>"
    ],
    [
      "टै",
      "लीविजन</w>"
    ],
    [
      "र",
      "द्द</w>"
    ],
    [
      "च",
      "ढ़"
    ],
    [
      "आ",
      "ह्‌‌"
    ],
    [
      "शि",
      "क</w>"
    ],
    [
      "ल",
      "ेआ</w>"
    ],
    [
      "ड",
      "र्"
    ],
    [
      "र",
      "ती</w>"
    ],
    [
      "र",
      "वाय"
    ],
    [
      "अड्ड",
      "ा</w>"
    ],
    [
      "तरी",
      "कें</w>"
    ],
    [
      "य",
      ",</w>"
    ],
    [
      "द",
      "ी,</w>"
    ],
    [
      "सौ",
      "</w>"
    ],
    [
      "बो",
      "ल"
    ],
    [
      "अम",
      "ू"
    ],
    [
      "क्र",
      "िया"
    ],
    [
      "गु",
      "आंढ"
    ],
    [
      "सिद्ध",
      "े</w>"
    ],
    [
      "मैह्‌‌",
      "ल</w>"
    ],
    [
      "होआ",
      ",</w>"
    ],
    [
      "दु",
      "आ"
    ],
    [
      "न",
      "मू"
    ],
    [
      "आर्थ",
      "क</w>"
    ],
    [
      "ब्",
      "ब</w>"
    ],
    [
      "कर",
      "ङन।</w>"
    ],
    [
      "क",
      "ट्ठे</w>"
    ],
    [
      "वर्",
      "ल्ड</w>"
    ],
    [
      "धर्",
      "म"
    ],
    [
      "ब",
      ",</w>"
    ],
    [
      "को",
      "शि"
    ],
    [
      "स्ट",
      "ै"
    ],
    [
      "मै",
      "न"
    ],
    [
      "रे",
      "ही।</w>"
    ],
    [
      "मल",
      "या"
    ],
    [
      "पा",
      "सेआ</w>"
    ],
    [
      "आकर्",
      "शत</w>"
    ],
    [
      "त्त",
      "ी</w>"
    ],
    [
      "क्",
      "ले"
    ],
    [
      "सर्वश्रे",
      "श्ठ</w>"
    ],
    [
      "मृ",
      "तु</w>"
    ],
    [
      "मार्",
      "क</w>"
    ],
    [
      "को",
      "ण</w>"
    ],
    [
      "दे",
      "ओ</w>"
    ],
    [
      "चु",
      "क्क"
    ],
    [
      "ऐ",
      "ल्"
    ],
    [
      "ड़",
      "ने</w>"
    ],
    [
      "उत्",
      "पत्ति</w>"
    ],
    [
      "क्रो",
      "स</w>"
    ],
    [
      "ह",
      "ियां,</w>"
    ],
    [
      "व",
      "ै</w>"
    ],
    [
      "जर",
      "नै"
    ],
    [
      "त",
      "ना"
    ],
    [
      "खा",
      "ड़ी</w>"
    ],
    [
      "मूल्यां",
      "कन</w>"
    ],
    [
      "सं",
      "स्थाप"
    ],
    [
      "अ",
      "ल</w>"
    ],
    [
      "घट",
      "नाएं</w>"
    ],
    [
      "बद्ध",
      "ोबद्ध</w>"
    ],
    [
      "इतिहा",
      "स"
    ],
    [
      "उ",
      "त्थ"
    ],
    [
      "ज",
      "िया</w>"
    ],
    [
      "इश",
      "ारा</w>"
    ],
    [
      "रा",
      "य</w>"
    ],
    [
      "शा",
      "ंत</w>"
    ],
    [
      "रा",
      "ग</w>"
    ],
    [
      "दो",
      "स्त</w>"
    ],
    [
      "दौ",
      "रान</w>"
    ],
    [
      "त",
      "स्वी"
    ],
    [
      "7",
      "एं</w>"
    ],
    [
      "मै",
      "चें</w>"
    ],
    [
      "राश्ट्",
      "र</w>"
    ],
    [
      "नी",
      "-"
    ],
    [
      "मा",
      "ई</w>"
    ],
    [
      "उ",
      "चाई</w>"
    ],
    [
      "कम",
      "जोर</w>"
    ],
    [
      "जने",
      "हियां</w>"
    ],
    [
      "प्रो",
      "टीन</w>"
    ],
    [
      "मी",
      "ल)</w>"
    ],
    [
      "माइक्रो",
      "साफ्ट</w>"
    ],
    [
      "ंद्र",
      "</w>"
    ],
    [
      "न",
      "ार"
    ],
    [
      "ख",
      "े</w>"
    ],
    [
      "विष्",
      "णु</w>"
    ],
    [
      "सप्",
      "लाई</w>"
    ],
    [
      "199",
      "3</w>"
    ],
    [
      "पु",
      "ज"
    ],
    [
      "वि",
      "लिय"
    ],
    [
      "तर",
      "ती"
    ],
    [
      "सू",
      "र</w>"
    ],
    [
      "आं",
      "ध्र</w>"
    ],
    [
      "डा",
      "क्"
    ],
    [
      "ख",
      "र</w>"
    ],
    [
      "भ",
      "्या"
    ],
    [
      "पुर",
      "म</w>"
    ],
    [
      "म्ही",
      "म</w>"
    ],
    [
      "इत्थ",
      "ूं</w>"
    ],
    [
      "र",
      "ियाई</w>"
    ],
    [
      "खेत",
      "री</w>"
    ],
    [
      "छ",
      "ि"
    ],
    [
      "ड्",
      "रि"
    ],
    [
      "ष्",
      "ण"
    ],
    [
      "म्",
      "म</w>"
    ],
    [
      "क्र",
      "ां"
    ],
    [
      "3",
      "."
    ],
    [
      "ख",
      "ंड"
    ],
    [
      "चेन्न",
      "ई</w>"
    ],
    [
      "जा",
      "गत</w>"
    ],
    [
      "आ",
      "ए।</w>"
    ],
    [
      "ना",
      "।</w>"
    ],
    [
      "घैं",
      "टें</w>"
    ],
    [
      "199",
      "7</w>"
    ],
    [
      "व",
      "री,</w>"
    ],
    [
      "गे",
      "ंद"
    ],
    [
      "स",
      "ह"
    ],
    [
      "लक",
      "ड़ी</w>"
    ],
    [
      "यु",
      "वा</w>"
    ],
    [
      "ब",
      "देसी</w>"
    ],
    [
      "चि",
      "ट्ठी</w>"
    ],
    [
      "डे",
      "टा</w>"
    ],
    [
      "कार",
      "ण,</w>"
    ],
    [
      "पद",
      "ार्थ</w>"
    ],
    [
      "ख",
      "ो</w>"
    ],
    [
      "बंद",
      "रगा"
    ],
    [
      "खर्",
      "चें</w>"
    ],
    [
      "सा",
      "बत</w>"
    ],
    [
      "लै",
      "ते</w>"
    ],
    [
      "गुण",
      "व"
    ],
    [
      "8",
      "एं</w>"
    ],
    [
      "ब्",
      "लै"
    ],
    [
      "क्",
      "लि"
    ],
    [
      "भे",
      "जी</w>"
    ],
    [
      "व",
      "हन</w>"
    ],
    [
      "ढ",
      "ां"
    ],
    [
      "ने",
      "ताएं</w>"
    ],
    [
      "गल्ल",
      "-बा"
    ],
    [
      "ंग",
      "ु"
    ],
    [
      "आउ",
      "ट</w>"
    ],
    [
      "सला",
      "ह्‌‌‌"
    ],
    [
      "अर्थ",
      "व्यवस्था</w>"
    ],
    [
      "जन",
      "गणना</w>"
    ],
    [
      "लै",
      "त"
    ],
    [
      "फ",
      "ां</w>"
    ],
    [
      "ट",
      "लैंड</w>"
    ],
    [
      "बचा",
      "ने</w>"
    ],
    [
      "द्यो",
      "गि"
    ],
    [
      "ज़",
      "े"
    ],
    [
      "ह",
      "ड्डी</w>"
    ],
    [
      "पी",
      "ले</w>"
    ],
    [
      "उदा",
      "हरण</w>"
    ],
    [
      "क",
      "न्"
    ],
    [
      "2",
      "5"
    ],
    [
      "न",
      "दियां</w>"
    ],
    [
      "जिंʼ",
      "दा</w>"
    ],
    [
      "जा",
      "ग।</w>"
    ],
    [
      "स्था",
      "ई</w>"
    ],
    [
      "वृत्त",
      "ि</w>"
    ],
    [
      "बद",
      "ले</w>"
    ],
    [
      "पुल",
      "सा</w>"
    ],
    [
      "प्री",
      "म"
    ],
    [
      "ि",
      "का</w>"
    ],
    [
      "तब्दी",
      "ली</w>"
    ],
    [
      "ंग्",
      "स</w>"
    ],
    [
      "ड़",
      "ा"
    ],
    [
      "सुझा",
      "ऽ</w>"
    ],
    [
      "रे",
      "-"
    ],
    [
      "श",
      "ौ"
    ],
    [
      "आबो",
      "हवा</w>"
    ],
    [
      "ब्य",
      "हार</w>"
    ],
    [
      "मंद",
      "रै</w>"
    ],
    [
      "केंद",
      "रत</w>"
    ],
    [
      "हा",
      "ड़</w>"
    ],
    [
      "मे",
      "घा"
    ],
    [
      "जरनै",
      "ली</w>"
    ],
    [
      "दर्",
      "शन</w>"
    ],
    [
      "199",
      "2</w>"
    ],
    [
      "जे",
      "ता</w>"
    ],
    [
      "क",
      "प"
    ],
    [
      "पर",
      "वा"
    ],
    [
      "ब",
      "’"
    ],
    [
      "गू",
      "गल</w>"
    ],
    [
      "फिल्म",
      "फेयर</w>"
    ],
    [
      "या",
      ",</w>"
    ],
    [
      "लै",
      "ना</w>"
    ],
    [
      "म्हत्त",
      "व</w>"
    ],
    [
      "दोआ",
      "ई</w>"
    ],
    [
      "195",
      "0</w>"
    ],
    [
      "मनुक्ख",
      "ै</w>"
    ],
    [
      "महा",
      "द्वीप</w>"
    ],
    [
      "हार",
      "े</w>"
    ],
    [
      "पद",
      "ार्थ"
    ],
    [
      "बै",
      "क</w>"
    ],
    [
      "प",
      "ण</w>"
    ],
    [
      "राज",
      "पू"
    ],
    [
      "दा",
      "ई</w>"
    ],
    [
      "इ",
      "लैक्"
    ],
    [
      "से",
      "ना</w>"
    ],
    [
      "पै",
      "माने</w>"
    ],
    [
      "द",
      "-"
    ],
    [
      "मि",
      "ले</w>"
    ],
    [
      "कम",
      "रे</w>"
    ],
    [
      "बेल्",
      "ज"
    ],
    [
      "श",
      "कार</w>"
    ],
    [
      "ओ",
      "ह्‌‌"
    ],
    [
      "जी",
      "न</w>"
    ],
    [
      "ट",
      "ू</w>"
    ],
    [
      "‌",
      "</w>"
    ],
    [
      "न",
      "र"
    ],
    [
      "न",
      "वे"
    ],
    [
      "आत्",
      "म"
    ],
    [
      "द",
      "'"
    ],
    [
      "मू",
      "ली</w>"
    ],
    [
      "ने",
      "ई</w>"
    ],
    [
      "च",
      "ारें</w>"
    ],
    [
      "द",
      "ू</w>"
    ],
    [
      "ड",
      "्यू"
    ],
    [
      "ज़",
      "ा</w>"
    ],
    [
      "बना",
      "या।</w>"
    ],
    [
      "खʼ",
      "ल"
    ],
    [
      "क्सि",
      "को</w>"
    ],
    [
      "ने",
      "ड़"
    ],
    [
      "योर",
      "प</w>"
    ],
    [
      "इं",
      "स्टा"
    ],
    [
      "दौ",
      "रे</w>"
    ],
    [
      "रो",
      "मन</w>"
    ],
    [
      "ड",
      "च</w>"
    ],
    [
      "योर",
      "पी</w>"
    ],
    [
      "रिया",
      "स"
    ],
    [
      "सु",
      "पर"
    ],
    [
      "र",
      "'"
    ],
    [
      "आ",
      "से"
    ],
    [
      "संदर्",
      "भ"
    ],
    [
      "बा",
      "ज</w>"
    ],
    [
      "जि",
      "त</w>"
    ],
    [
      "प्रभाव",
      "ी</w>"
    ],
    [
      "गि",
      "रफ्तार</w>"
    ],
    [
      "ार",
      ",</w>"
    ],
    [
      "न्या",
      "स</w>"
    ],
    [
      "धी",
      "ऽ</w>"
    ],
    [
      "जि",
      "ंग</w>"
    ],
    [
      "ैं",
      "ड</w>"
    ],
    [
      "उच्च",
      "े</w>"
    ],
    [
      "को",
      "च</w>"
    ],
    [
      "वि",
      "न</w>"
    ],
    [
      "हो",
      "ङन।</w>"
    ],
    [
      "रंग",
      "ें</w>"
    ],
    [
      "ं",
      "बर,</w>"
    ],
    [
      "अ",
      "स्त"
    ],
    [
      "बध",
      "ने</w>"
    ],
    [
      "लै",
      "क्रोस</w>"
    ],
    [
      "गुफा",
      "एं</w>"
    ],
    [
      "स्रो",
      "त</w>"
    ],
    [
      "रा",
      "जे"
    ],
    [
      "स",
      "मि"
    ],
    [
      "सं",
      "के"
    ],
    [
      "र",
      "ने</w>"
    ],
    [
      "ट",
      "ॉ"
    ],
    [
      "अ",
      "'"
    ],
    [
      "कं",
      "ध"
    ],
    [
      "झ",
      "ू"
    ],
    [
      "ग्रा",
      "एं</w>"
    ],
    [
      "ब",
      "स्स"
    ],
    [
      "प्रार्थ",
      "ना</w>"
    ],
    [
      "दस्ता",
      "वे"
    ],
    [
      "श",
      ",</w>"
    ],
    [
      "डि",
      "कल</w>"
    ],
    [
      "ऐ",
      "त"
    ],
    [
      "हॉ",
      "की</w>"
    ],
    [
      "समु",
      "ंद"
    ],
    [
      "ह",
      "द्द"
    ],
    [
      "गर्",
      "भ"
    ],
    [
      "स्या",
      "लू</w>"
    ],
    [
      "3",
      "5</w>"
    ],
    [
      "खेढ",
      "े।</w>"
    ],
    [
      "बध",
      "दी</w>"
    ],
    [
      "उ'",
      "नेंगी</w>"
    ],
    [
      "ह",
      "ल</w>"
    ],
    [
      "वा",
      "शि"
    ],
    [
      "ट",
      "ल्लें</w>"
    ],
    [
      "ग्",
      "लो"
    ],
    [
      "-",
      "0</w>"
    ],
    [
      "क्",
      "लो"
    ],
    [
      "नभा",
      "ई</w>"
    ],
    [
      "क",
      "न्ने</w>"
    ],
    [
      "खेढ",
      "ा</w>"
    ],
    [
      "स्",
      "कर</w>"
    ],
    [
      "बाप",
      "सी</w>"
    ],
    [
      "मिल",
      "ेआ।</w>"
    ],
    [
      "संरक्ष",
      "त</w>"
    ],
    [
      "च",
      "ंगी</w>"
    ],
    [
      "प्रभा",
      "व</w>"
    ],
    [
      "कि",
      "श्ती</w>"
    ],
    [
      "परि",
      "भा"
    ],
    [
      "गर्",
      "मी</w>"
    ],
    [
      "द्",
      "दा</w>"
    ],
    [
      "क्त",
      "ा</w>"
    ],
    [
      "जरू",
      "र"
    ],
    [
      "आह्‌",
      "लियां</w>"
    ],
    [
      "199",
      "4</w>"
    ],
    [
      "6",
      "एं</w>"
    ],
    [
      "अग्",
      "ग</w>"
    ],
    [
      "मु",
      "काब"
    ],
    [
      "मेजबा",
      "नी</w>"
    ],
    [
      "क्",
      "वी"
    ],
    [
      "त्र",
      "ियें</w>"
    ],
    [
      "मो",
      "बाइ"
    ],
    [
      "हथ",
      "्य"
    ],
    [
      "आख",
      "दा</w>"
    ],
    [
      "खो",
      "ह्‌‌‌"
    ],
    [
      "फ",
      "ू"
    ],
    [
      "ड़",
      "च"
    ],
    [
      "दस",
      "दे</w>"
    ],
    [
      "ढ",
      "ि"
    ],
    [
      "सांझ",
      "ा</w>"
    ],
    [
      "जे",
      "ल्लै</w>"
    ],
    [
      "स्",
      "पि"
    ],
    [
      "हो",
      "मा</w>"
    ],
    [
      "बक्ख",
      "री</w>"
    ],
    [
      "जु",
      "ए"
    ],
    [
      "बदल",
      "ियै</w>"
    ],
    [
      "ंड",
      "ी"
    ],
    [
      "आह्‌‌‌",
      "लियें</w>"
    ],
    [
      "तर",
      "नाक</w>"
    ],
    [
      "शा",
      "सकें</w>"
    ],
    [
      "जि",
      "न्ना</w>"
    ],
    [
      "सलाह्‌‌‌",
      "कार</w>"
    ],
    [
      "द",
      "रा"
    ],
    [
      "अ",
      "सरदार</w>"
    ],
    [
      "क",
      "ने</w>"
    ],
    [
      "क",
      "मे"
    ],
    [
      "गुणव",
      "त्ता</w>"
    ],
    [
      "खा",
      "द्य</w>"
    ],
    [
      "ज",
      "म्म"
    ],
    [
      "ले",
      "शन</w>"
    ],
    [
      "कु",
      "ं"
    ],
    [
      "ब",
      "्यू"
    ],
    [
      "इ",
      "'"
    ],
    [
      "टु",
      "क"
    ],
    [
      "गु",
      "फां</w>"
    ],
    [
      "मेघा",
      "लय</w>"
    ],
    [
      "उं’",
      "दे</w>"
    ],
    [
      "श्",
      "क</w>"
    ],
    [
      "लि",
      "पि"
    ],
    [
      "ए",
      "ंड</w>"
    ],
    [
      "सि",
      "ल्"
    ],
    [
      "सा",
      "ध"
    ],
    [
      "बा",
      "क्स</w>"
    ],
    [
      "अधि",
      "कार</w>"
    ],
    [
      "दिक्ख",
      "ो</w>"
    ],
    [
      "पैह्‌‌",
      "ले</w>"
    ],
    [
      "च",
      "क्र"
    ],
    [
      "ति",
      "ब्ब"
    ],
    [
      "न",
      "ती</w>"
    ],
    [
      "स्ट्",
      "रा</w>"
    ],
    [
      ".",
      ",</w>"
    ],
    [
      "साइ",
      "कल</w>"
    ],
    [
      "तरती",
      "ब</w>"
    ],
    [
      "चा",
      "लु"
    ],
    [
      "ते",
      "ल"
    ],
    [
      "त्य",
      "ारी</w>"
    ],
    [
      "बे",
      "-"
    ],
    [
      "क",
      "प्"
    ],
    [
      "बना",
      "व"
    ],
    [
      "डि",
      "वीजन</w>"
    ],
    [
      "दू",
      "इयें</w>"
    ],
    [
      "20",
      "मीं</w>"
    ],
    [
      "बर्",
      "ट</w>"
    ],
    [
      "नौ",
      "जो"
    ],
    [
      "श्",
      "व"
    ],
    [
      "किंग",
      "डम</w>"
    ],
    [
      "पे",
      "ज</w>"
    ],
    [
      "खु",
      "शी</w>"
    ],
    [
      "टी",
      "का"
    ],
    [
      "इजा",
      "जत</w>"
    ],
    [
      "ल",
      "ियन</w>"
    ],
    [
      "न",
      ")</w>"
    ],
    [
      "दे",
      "स</w>"
    ],
    [
      "ज्",
      "हार"
    ],
    [
      "कम्",
      "म-"
    ],
    [
      "ख",
      "तरनाक</w>"
    ],
    [
      "गल्ल-बा",
      "त</w>"
    ],
    [
      "इं",
      "जी"
    ],
    [
      "थ्",
      "होई</w>"
    ],
    [
      "देश",
      "ी</w>"
    ],
    [
      "आख",
      "ेआ,</w>"
    ],
    [
      "मग",
      "रा</w>"
    ],
    [
      "रा",
      "शी</w>"
    ],
    [
      "रो",
      "ज</w>"
    ],
    [
      "सा",
      "त"
    ],
    [
      "ब्हा",
      "ऊ</w>"
    ],
    [
      "न",
      "का"
    ],
    [
      "नि",
      "दान</w>"
    ],
    [
      "देश",
      "क</w>"
    ],
    [
      "ध",
      "ारा</w>"
    ],
    [
      "स्",
      "कै"
    ],
    [
      "स",
      "टी"
    ],
    [
      "टै",
      "क्"
    ],
    [
      "ु",
      "आं</w>"
    ],
    [
      "नशी",
      "ल</w>"
    ],
    [
      "डो",
      "र</w>"
    ],
    [
      "आ",
      "या।</w>"
    ],
    [
      "ट",
      "ैं"
    ],
    [
      "से",
      "ह्त</w>"
    ],
    [
      "ंग",
      "ै</w>"
    ],
    [
      "स",
      "िया</w>"
    ],
    [
      "न",
      "री</w>"
    ],
    [
      "विंडो",
      "ज</w>"
    ],
    [
      "आह्‌",
      "लियें</w>"
    ],
    [
      "सिने",
      "मा</w>"
    ],
    [
      "वर्",
      "गी"
    ],
    [
      "थ",
      "ियें</w>"
    ],
    [
      "3",
      "00</w>"
    ],
    [
      "दर",
      "बार</w>"
    ],
    [
      "सु",
      "रक्ष"
    ],
    [
      "ह्‌",
      "रें</w>"
    ],
    [
      "य",
      "िक</w>"
    ],
    [
      "मी",
      ",</w>"
    ],
    [
      "बध",
      "ा</w>"
    ],
    [
      "सोसिए",
      "शन</w>"
    ],
    [
      "स",
      "चि"
    ],
    [
      "प्प",
      "ल</w>"
    ],
    [
      "इ",
      "ल"
    ],
    [
      "बस",
      "नी"
    ],
    [
      "हो",
      "ग,</w>"
    ],
    [
      "रक्ख",
      "ो</w>"
    ],
    [
      "लिख",
      "ने</w>"
    ],
    [
      "सी",
      "री"
    ],
    [
      "बरा",
      "बरी</w>"
    ],
    [
      "मिल",
      "दे</w>"
    ],
    [
      "रे",
      "डियो</w>"
    ],
    [
      "मनोरं",
      "जन</w>"
    ],
    [
      "बि",
      "न</w>"
    ],
    [
      "मोबाइ",
      "ल</w>"
    ],
    [
      "ज्हा",
      "ज</w>"
    ],
    [
      "प",
      "ट्ट"
    ],
    [
      "बे",
      "ह्"
    ],
    [
      "त्त",
      "ै</w>"
    ],
    [
      "स",
      "फाई</w>"
    ],
    [
      "स्ट्",
      "री"
    ],
    [
      "ऐ",
      "ल्ल.</w>"
    ],
    [
      "छो",
      "ड़ी</w>"
    ],
    [
      "4",
      "5</w>"
    ],
    [
      "जी",
      "त</w>"
    ],
    [
      "सं",
      "पा"
    ],
    [
      "टे",
      "क्"
    ],
    [
      "ौ",
      "र</w>"
    ],
    [
      "त्",
      "सा"
    ],
    [
      "थ",
      "न</w>"
    ],
    [
      "साइ",
      "ड</w>"
    ],
    [
      "मना",
      "ंदे</w>"
    ],
    [
      "'",
      "'</w>"
    ],
    [
      "श",
      "क्क</w>"
    ],
    [
      "की",
      "मत</w>"
    ],
    [
      "न्",
      "द्र</w>"
    ],
    [
      "तरी",
      "फ</w>"
    ],
    [
      "मा",
      "ं,</w>"
    ],
    [
      "उत्त",
      "र"
    ],
    [
      "सु",
      "र्"
    ],
    [
      "198",
      "7</w>"
    ],
    [
      "गै",
      ",</w>"
    ],
    [
      "ख",
      "बर</w>"
    ],
    [
      "स्ट",
      "िक</w>"
    ],
    [
      "पै",
      "रें</w>"
    ],
    [
      "दिक्ख",
      "ियै</w>"
    ],
    [
      "बे",
      "ह्‌"
    ],
    [
      "जंग",
      "लें</w>"
    ],
    [
      "मुसल",
      "मानें</w>"
    ],
    [
      "रि",
      "पोर्ट</w>"
    ],
    [
      "ज",
      "ख्"
    ],
    [
      "ली",
      "-"
    ],
    [
      "तीर्थ",
      "</w>"
    ],
    [
      "डि",
      "ग्ग"
    ],
    [
      "ज",
      "-"
    ],
    [
      "ब",
      "स्स</w>"
    ],
    [
      "जो",
      "खम</w>"
    ],
    [
      "साइ",
      "टें</w>"
    ],
    [
      "रक्ख",
      "ो।</w>"
    ],
    [
      "सूच",
      "ना</w>"
    ],
    [
      "ब",
      "न्न-"
    ],
    [
      "बन्न-",
      "सब"
    ],
    [
      "पु",
      "त्र</w>"
    ],
    [
      "कोर्",
      "ट</w>"
    ],
    [
      "ऑस्ट्रेल",
      "ियाई</w>"
    ],
    [
      "सै",
      "निकें</w>"
    ],
    [
      "नैट्ट",
      "वर्क</w>"
    ],
    [
      "बैक्",
      "टी"
    ],
    [
      "ट",
      "स</w>"
    ],
    [
      "बच्च",
      "न</w>"
    ],
    [
      "सि",
      "ख</w>"
    ],
    [
      "टु",
      "री</w>"
    ],
    [
      "प्रो",
      "ग्रा"
    ],
    [
      "इंड",
      "ो"
    ],
    [
      "सो",
      "म"
    ],
    [
      "ला",
      "ए</w>"
    ],
    [
      "पी",
      "डिया</w>"
    ],
    [
      "अ",
      "वा"
    ],
    [
      "डा",
      "क्टर</w>"
    ],
    [
      "म्हे",
      "शा</w>"
    ],
    [
      "बप",
      "ारी</w>"
    ],
    [
      "ई",
      "स्टर</w>"
    ],
    [
      "जा",
      "पानी</w>"
    ],
    [
      "मा",
      "ने"
    ],
    [
      "कार्",
      "ट</w>"
    ],
    [
      "भी",
      "म</w>"
    ],
    [
      "बग",
      "दी</w>"
    ],
    [
      "बेल्ज",
      "ियम</w>"
    ],
    [
      "इस",
      "दी</w>"
    ],
    [
      "डब्ल्यू",
      ".</w>"
    ],
    [
      "ए",
      "म्"
    ],
    [
      "बखा",
      "र</w>"
    ],
    [
      "ना",
      "गा"
    ],
    [
      "भरो",
      "चे</w>"
    ],
    [
      "कै",
      "थो"
    ],
    [
      "लैं",
      "ड,</w>"
    ],
    [
      "कारो",
      "बारी</w>"
    ],
    [
      "ह",
      "द्द</w>"
    ],
    [
      "199",
      "1</w>"
    ],
    [
      "सल्",
      "तन"
    ],
    [
      "का",
      "ने</w>"
    ],
    [
      "ब",
      "ंदी</w>"
    ],
    [
      "ते",
      "ल</w>"
    ],
    [
      "चौथ",
      "े</w>"
    ],
    [
      "बंगा",
      "ली</w>"
    ],
    [
      "मत",
      "ै"
    ],
    [
      "रि",
      "श</w>"
    ],
    [
      "क",
      "टिबंध"
    ],
    [
      "स्थि",
      "र</w>"
    ],
    [
      "सुल्",
      "तान</w>"
    ],
    [
      "इ",
      "ला"
    ],
    [
      "टि",
      "प्प"
    ],
    [
      "खरी",
      "दी</w>"
    ],
    [
      "ओह्‌‌",
      "‌‌"
    ],
    [
      "ओह्‌‌‌‌",
      "दे</w>"
    ],
    [
      "स्पे",
      "न</w>"
    ],
    [
      "इ",
      "न"
    ],
    [
      "दिक्ख-",
      "भाल</w>"
    ],
    [
      "टर्",
      "नर</w>"
    ],
    [
      "बि",
      "हार</w>"
    ],
    [
      "पैं",
      "छ"
    ],
    [
      "'र",
      "दी</w>"
    ],
    [
      "च",
      "बक्ख"
    ],
    [
      "प्र",
      "मा"
    ],
    [
      "प्रीम",
      "ियर</w>"
    ],
    [
      "ह",
      "रिया"
    ],
    [
      "जिंʼ",
      "दी</w>"
    ],
    [
      "तरी",
      "क</w>"
    ],
    [
      "हो",
      "न।</w>"
    ],
    [
      "उप",
      "महाद्वीप</w>"
    ],
    [
      "लैत",
      "ी।</w>"
    ],
    [
      "द",
      "म</w>"
    ],
    [
      "परतो",
      "ई</w>"
    ],
    [
      "नि",
      "श</w>"
    ],
    [
      "्य",
      "ता</w>"
    ],
    [
      "ज्",
      "झ"
    ],
    [
      "जन",
      "ता</w>"
    ],
    [
      "सिं",
      "धु</w>"
    ],
    [
      "मान",
      "सून</w>"
    ],
    [
      "बध",
      "दे</w>"
    ],
    [
      "ग",
      "ल"
    ],
    [
      "जाह्",
      "ग।</w>"
    ],
    [
      "क्ख",
      "न</w>"
    ],
    [
      "माध्य",
      "म</w>"
    ],
    [
      "टै",
      "क्स"
    ],
    [
      "ब",
      "ो</w>"
    ],
    [
      "ट",
      "न,</w>"
    ],
    [
      ".ऐ",
      "ल्ल"
    ],
    [
      "रौं",
      "ह्दे</w>"
    ],
    [
      "गोल",
      "की"
    ],
    [
      "वि",
      "धान"
    ],
    [
      "प्र",
      "जातियां</w>"
    ],
    [
      "-",
      "पा"
    ],
    [
      "संस्थाप",
      "क</w>"
    ],
    [
      "स",
      "ट्ट"
    ],
    [
      "विद्य",
      "ार्थ"
    ],
    [
      "ू",
      "प</w>"
    ],
    [
      "भा",
      "में</w>"
    ],
    [
      "ल्",
      "म</w>"
    ],
    [
      "दे",
      "ओ।</w>"
    ],
    [
      "रि",
      "'"
    ],
    [
      "प्रसार",
      "त</w>"
    ],
    [
      "स्थ",
      "</w>"
    ],
    [
      "विश्",
      "वास</w>"
    ],
    [
      "ग",
      "ंढ"
    ],
    [
      "टूर्ना",
      "मेंट</w>"
    ],
    [
      "द",
      "फ्"
    ],
    [
      "दित्त",
      "े।</w>"
    ],
    [
      "अंदा",
      "जा</w>"
    ],
    [
      "चि",
      "त्तर</w>"
    ],
    [
      "ब",
      "ड"
    ],
    [
      "टे",
      "स्ट</w>"
    ],
    [
      "मौ",
      "सम"
    ],
    [
      "सु",
      "</w>"
    ],
    [
      "गो",
      "ली</w>"
    ],
    [
      "चा",
      "ल</w>"
    ],
    [
      "चै",
      "नल</w>"
    ],
    [
      "कल्प",
      "ना</w>"
    ],
    [
      "मिल",
      "ेआ</w>"
    ],
    [
      "लैं",
      "ड"
    ],
    [
      "वि",
      "ध"
    ],
    [
      "मा",
      "ता-"
    ],
    [
      "ही",
      "ं</w>"
    ],
    [
      "इ",
      "ड</w>"
    ],
    [
      "चि",
      "र</w>"
    ],
    [
      "मा",
      ",</w>"
    ],
    [
      "लग्ग",
      "ने</w>"
    ],
    [
      "सम्",
      "मे"
    ],
    [
      "सिद्धां",
      "त</w>"
    ],
    [
      "हा",
      "ली</w>"
    ],
    [
      "दिख",
      "दे</w>"
    ],
    [
      "नि",
      "का"
    ],
    [
      "गै",
      "स</w>"
    ],
    [
      "स्",
      "पी"
    ],
    [
      "लौ",
      "ह्‌"
    ],
    [
      "दर",
      "-"
    ],
    [
      "त्रि",
      "पुरा</w>"
    ],
    [
      "अभ",
      "यार"
    ],
    [
      "1",
      ",</w>"
    ],
    [
      "शो",
      "क</w>"
    ],
    [
      "ख",
      "्या"
    ],
    [
      "फार्",
      "म</w>"
    ],
    [
      "सं",
      "स्था"
    ],
    [
      "ना",
      "ई</w>"
    ],
    [
      "रो",
      "ड</w>"
    ],
    [
      "बगै",
      "रा</w>"
    ],
    [
      "सा",
      "धन</w>"
    ],
    [
      "का",
      "लेज</w>"
    ],
    [
      "मिल",
      "ियै</w>"
    ],
    [
      "तेल",
      "ंगा"
    ],
    [
      "म",
      "मूली</w>"
    ],
    [
      "अ",
      "जै"
    ],
    [
      "सेव",
      "ां</w>"
    ],
    [
      "लि",
      "म</w>"
    ],
    [
      "ब",
      "ची</w>"
    ],
    [
      "कड्ढ",
      "ी</w>"
    ],
    [
      "मि",
      "नी</w>"
    ],
    [
      "समा",
      "जिक</w>"
    ],
    [
      "सै",
      "न"
    ],
    [
      "रे",
      "ं"
    ],
    [
      "निय",
      "न</w>"
    ],
    [
      "मौ",
      "र्य</w>"
    ],
    [
      "स्मार",
      "क</w>"
    ],
    [
      "लेख",
      "न</w>"
    ],
    [
      "फ्लो",
      "रि"
    ],
    [
      "स",
      "द्द"
    ],
    [
      "दिक्ख",
      "ना</w>"
    ],
    [
      "मा",
      "या</w>"
    ],
    [
      "ह",
      "ल्"
    ],
    [
      "दौ",
      "ड़</w>"
    ],
    [
      "गे",
      "ओ।</w>"
    ],
    [
      "रौ",
      "ह्‌ने</w>"
    ],
    [
      "धार",
      "णा</w>"
    ],
    [
      "इस्ला",
      "म</w>"
    ],
    [
      "स्कू",
      "लै</w>"
    ],
    [
      "स्वि",
      "ट्"
    ],
    [
      "ब्",
      "रो"
    ],
    [
      "संभा",
      "जी</w>"
    ],
    [
      "क्र",
      "ै"
    ],
    [
      "बि",
      "द्य"
    ],
    [
      "2",
      ","
    ],
    [
      "वि",
      "जय"
    ],
    [
      "री",
      "-"
    ],
    [
      "जन",
      "संख्या</w>"
    ],
    [
      "अभयार",
      "ण"
    ],
    [
      "चबक्ख",
      "ै</w>"
    ],
    [
      "बर्",
      "फ</w>"
    ],
    [
      "सा",
      "फ्टवेयर</w>"
    ],
    [
      "लग्ग",
      "े</w>"
    ],
    [
      "को",
      "ल"
    ],
    [
      "इ",
      "न्ना</w>"
    ],
    [
      "कि",
      "ट्ठा</w>"
    ],
    [
      "सʼ",
      "जा</w>"
    ],
    [
      "त",
      "ार"
    ],
    [
      "हम",
      "लें</w>"
    ],
    [
      "द",
      "ृ"
    ],
    [
      "जो",
      "ड़</w>"
    ],
    [
      "अमर",
      "जैंसी</w>"
    ],
    [
      "नि",
      "देशक</w>"
    ],
    [
      "ला",
      "न</w>"
    ],
    [
      "बावजू",
      "द,</w>"
    ],
    [
      "हद्द",
      "ै</w>"
    ],
    [
      "नि",
      "स</w>"
    ],
    [
      "रू",
      "सी</w>"
    ],
    [
      "बे",
      "सिन</w>"
    ],
    [
      "स",
      "री</w>"
    ],
    [
      "माता-",
      "पिता</w>"
    ],
    [
      "न",
      "ज"
    ],
    [
      "लै",
      "ंग"
    ],
    [
      "सैह्‌‌",
      "मत</w>"
    ],
    [
      "प्",
      "स</w>"
    ],
    [
      "कर",
      "ोआ"
    ],
    [
      "ज़",
      "र</w>"
    ],
    [
      "ड़",
      "ेआ</w>"
    ],
    [
      "उ'",
      "न्नै</w>"
    ],
    [
      "दि",
      "क</w>"
    ],
    [
      "त्रै",
      "ऽ</w>"
    ],
    [
      "यहू",
      "दी</w>"
    ],
    [
      "टी",
      ".बी.</w>"
    ],
    [
      "गो",
      "आ"
    ],
    [
      "च",
      "ै</w>"
    ],
    [
      "ज",
      "ियें</w>"
    ],
    [
      "वि",
      "जय</w>"
    ],
    [
      "से",
      "वन</w>"
    ],
    [
      "चे",
      "ताव"
    ],
    [
      "रो",
      "आ"
    ],
    [
      "प",
      "तन</w>"
    ],
    [
      "ख",
      "लाई</w>"
    ],
    [
      "मे",
      "यर</w>"
    ],
    [
      "प्र",
      "चार</w>"
    ],
    [
      "मा",
      "हि"
    ],
    [
      "मिस्",
      "र</w>"
    ],
    [
      "गतिवि",
      "धि</w>"
    ],
    [
      "ैं",
      "ड"
    ],
    [
      "लग",
      "दे</w>"
    ],
    [
      "मू",
      "जब</w>"
    ],
    [
      "बा",
      "यो"
    ],
    [
      "टे",
      "न"
    ],
    [
      "ं",
      "टे"
    ],
    [
      "मार्",
      "शल</w>"
    ],
    [
      "बै",
      "क"
    ],
    [
      "क",
      "स</w>"
    ],
    [
      "ख",
      "ंघ"
    ],
    [
      "4",
      "00</w>"
    ],
    [
      "चु",
      "नाऽ</w>"
    ],
    [
      "जि",
      "’"
    ],
    [
      "फेफ",
      "ड़ें</w>"
    ],
    [
      "क",
      "ने"
    ],
    [
      "ब्राज",
      "ील</w>"
    ],
    [
      "खेढ",
      "ेआ।</w>"
    ],
    [
      "-",
      "1</w>"
    ],
    [
      "के",
      "ंदरी</w>"
    ],
    [
      "अधि",
      "नियम</w>"
    ],
    [
      "ध",
      "रती</w>"
    ],
    [
      "लभ",
      "दा</w>"
    ],
    [
      "कम",
      "े</w>"
    ],
    [
      "फैस",
      "ले</w>"
    ],
    [
      "जना",
      "नियें</w>"
    ],
    [
      "197",
      "1</w>"
    ],
    [
      "तन",
      "खा"
    ],
    [
      "हटा",
      "ई</w>"
    ],
    [
      "18",
      "6"
    ],
    [
      "क्",
      "टो"
    ],
    [
      "198",
      "4</w>"
    ],
    [
      "ब",
      "चे</w>"
    ],
    [
      "मे",
      "ले</w>"
    ],
    [
      "भेज",
      "ेआ</w>"
    ],
    [
      "तेलंगा",
      "ना</w>"
    ],
    [
      "चंद्र",
      "गुप्त</w>"
    ],
    [
      "चौ",
      "थी</w>"
    ],
    [
      "संगीत",
      "कार</w>"
    ],
    [
      "प्र",
      "चल"
    ],
    [
      "प्रस्ता",
      "व</w>"
    ],
    [
      "कृ",
      "ति</w>"
    ],
    [
      "म",
      "स</w>"
    ],
    [
      "द",
      "क्कन</w>"
    ],
    [
      "196",
      "9</w>"
    ],
    [
      "म्म",
      "त</w>"
    ],
    [
      "शक्ति",
      "शाली</w>"
    ],
    [
      "इक्क",
      "ै</w>"
    ],
    [
      "जम्म",
      "ू</w>"
    ],
    [
      "क",
      "ले</w>"
    ],
    [
      "ार",
      "श</w>"
    ],
    [
      "सक",
      "ै</w>"
    ],
    [
      "हो",
      "म</w>"
    ],
    [
      "जै",
      "दा</w>"
    ],
    [
      "टी",
      "मां</w>"
    ],
    [
      "अद्ध",
      "े</w>"
    ],
    [
      "बी",
      "12</w>"
    ],
    [
      "ट्ट",
      "ने</w>"
    ],
    [
      "उप",
      "करण</w>"
    ],
    [
      "अ",
      "सम</w>"
    ],
    [
      "ब",
      "ू</w>"
    ],
    [
      "इस्ला",
      "मी</w>"
    ],
    [
      "बि",
      "र"
    ],
    [
      "अमू",
      "मन</w>"
    ],
    [
      "परि",
      "वहन</w>"
    ],
    [
      "दबा",
      "ऽ</w>"
    ],
    [
      "ऽ",
      ",</w>"
    ],
    [
      "परत",
      "क्ख</w>"
    ],
    [
      "रो",
      "मां"
    ],
    [
      "द्",
      "दी</w>"
    ],
    [
      "ल",
      "च"
    ],
    [
      "उद्",
      "दीन</w>"
    ],
    [
      "प",
      "जा"
    ],
    [
      "सर्",
      "वे"
    ],
    [
      "दि",
      "ंदियां</w>"
    ],
    [
      "पदार्थ",
      "ें</w>"
    ],
    [
      "सै",
      "र-"
    ],
    [
      "है",
      "न</w>"
    ],
    [
      "शै",
      "लियें</w>"
    ],
    [
      "उ",
      "ब्"
    ],
    [
      "त",
      "पा"
    ],
    [
      "3",
      "0"
    ],
    [
      "च",
      "र"
    ],
    [
      "शैह्‌",
      "रा</w>"
    ],
    [
      "चढ़",
      "ाई</w>"
    ],
    [
      "जने",
      "हियें</w>"
    ],
    [
      "ल",
      "ियो"
    ],
    [
      "दो",
      "स्तें</w>"
    ],
    [
      "ब्र",
      "ह्"
    ],
    [
      "रा",
      "ई</w>"
    ],
    [
      "का",
      "ग"
    ],
    [
      "ग",
      "ियें</w>"
    ],
    [
      "र्‌हा",
      "न</w>"
    ],
    [
      "रे",
      "स</w>"
    ],
    [
      "बन",
      "दा</w>"
    ],
    [
      "आ",
      "ं,</w>"
    ],
    [
      "ब",
      "वे"
    ],
    [
      "ग्रा",
      "ईं</w>"
    ],
    [
      "लक्ष",
      "्"
    ],
    [
      "ष",
      "ा"
    ],
    [
      "मका",
      "म</w>"
    ],
    [
      "बॉ",
      "क्स</w>"
    ],
    [
      "अक्ख",
      "ीं</w>"
    ],
    [
      "अर्",
      "जें"
    ],
    [
      "अर्जें",
      "टी"
    ],
    [
      "सि",
      "र"
    ],
    [
      "क्षे",
      "त्रें</w>"
    ],
    [
      "बरा",
      "सत</w>"
    ],
    [
      "प",
      "स</w>"
    ],
    [
      "है",
      "दरा"
    ],
    [
      "अप",
      "</w>"
    ],
    [
      "सैर-",
      "सपा"
    ],
    [
      "ा",
      "ल"
    ],
    [
      "ज",
      "हा"
    ],
    [
      "क",
      "व"
    ],
    [
      "वा",
      "ल</w>"
    ],
    [
      "सो",
      "जश</w>"
    ],
    [
      "बार्",
      "शक</w>"
    ],
    [
      "ले",
      "न</w>"
    ],
    [
      "नि",
      "क्के</w>"
    ],
    [
      "फा",
      "उ"
    ],
    [
      "ध",
      "ू"
    ],
    [
      "चु",
      "ने</w>"
    ],
    [
      "मा",
      "सक</w>"
    ],
    [
      "नि",
      "कली</w>"
    ],
    [
      "तग",
      "मे</w>"
    ],
    [
      "लो",
      "ड़च"
    ],
    [
      "सि",
      "रै</w>"
    ],
    [
      "बि",
      "ल्"
    ],
    [
      "फौ",
      "ज</w>"
    ],
    [
      "लिख",
      "त</w>"
    ],
    [
      "ग्रे",
      "ट</w>"
    ],
    [
      "फि",
      "कर"
    ],
    [
      "मि",
      "ड"
    ],
    [
      ".ऐफ्फ",
      ".</w>"
    ],
    [
      "कम",
      "्य"
    ],
    [
      "सं",
      "विधान</w>"
    ],
    [
      "हट्ट",
      "ियें</w>"
    ],
    [
      "198",
      "3</w>"
    ],
    [
      "का",
      "ले</w>"
    ],
    [
      "मलया",
      "लम</w>"
    ],
    [
      "बी",
      "र</w>"
    ],
    [
      "कैथो",
      "लिक</w>"
    ],
    [
      "अधिकार",
      "क</w>"
    ],
    [
      "डू",
      "ं"
    ],
    [
      "श",
      "ो</w>"
    ],
    [
      "कौ",
      "शल</w>"
    ],
    [
      "व",
      "ज"
    ],
    [
      "कर",
      "ियै,</w>"
    ],
    [
      "च",
      "क्कर</w>"
    ],
    [
      "7",
      "5</w>"
    ],
    [
      "ला",
      "इयै</w>"
    ],
    [
      "उप्",
      "पर,</w>"
    ],
    [
      "मुस्",
      "लिम</w>"
    ],
    [
      "य",
      "ी"
    ],
    [
      "ब्",
      "बे</w>"
    ],
    [
      "फ",
      "ॉ"
    ],
    [
      "कु",
      "स</w>"
    ],
    [
      "अफ्री",
      "की</w>"
    ],
    [
      "मु",
      "है"
    ],
    [
      "ए",
      "थ"
    ],
    [
      "तला",
      "क</w>"
    ],
    [
      "लो",
      "ऽ</w>"
    ],
    [
      "वि",
      "शा"
    ],
    [
      "यूरो",
      "पी</w>"
    ],
    [
      "कै",
      "म"
    ],
    [
      "°",
      "</w>"
    ],
    [
      "ग्र",
      "ि"
    ],
    [
      "ऊ",
      "र्जा</w>"
    ],
    [
      "ऐ",
      "ल"
    ],
    [
      "बूह्‌‌",
      "टें</w>"
    ],
    [
      "ए",
      "न"
    ],
    [
      "तुल",
      "सी</w>"
    ],
    [
      "शा",
      "ह"
    ],
    [
      "वै",
      "श्"
    ],
    [
      "198",
      "2</w>"
    ],
    [
      "ना",
      "काम</w>"
    ],
    [
      "चो",
      "प"
    ],
    [
      "ज",
      "रि'"
    ],
    [
      "इ",
      "वे"
    ],
    [
      "मु",
      "ग"
    ],
    [
      "आ",
      "ग"
    ],
    [
      "फ",
      "़"
    ],
    [
      "सर्",
      "वो"
    ],
    [
      "क्रे",
      "डिट</w>"
    ],
    [
      "अजै",
      "ब"
    ],
    [
      "पा",
      "य"
    ],
    [
      "श",
      "र</w>"
    ],
    [
      "मु",
      "क्क"
    ],
    [
      "समुंद",
      "रै</w>"
    ],
    [
      "ऐ",
      "सी</w>"
    ],
    [
      "डेवि",
      "ड</w>"
    ],
    [
      "ग्",
      "वा"
    ],
    [
      "फ्लोरि",
      "डा</w>"
    ],
    [
      "सिक्क",
      "ें</w>"
    ],
    [
      "सम्मे",
      "लन</w>"
    ],
    [
      "वि",
      "का"
    ],
    [
      "न",
      "ृ"
    ],
    [
      "फिल्",
      "मां</w>"
    ],
    [
      "भै",
      "न</w>"
    ],
    [
      "त्त",
      "री</w>"
    ],
    [
      "प",
      "ब्"
    ],
    [
      "गुआंढ",
      "ी</w>"
    ],
    [
      "घ",
      "</w>"
    ],
    [
      "न",
      "ंब"
    ],
    [
      "परंपरा",
      "एं</w>"
    ],
    [
      "स्",
      "ते</w>"
    ],
    [
      "खा",
      "ल्ली</w>"
    ],
    [
      "अला",
      "उद्दीन</w>"
    ],
    [
      "18",
      "9"
    ],
    [
      "ार्",
      "ट"
    ],
    [
      "मे",
      "डी</w>"
    ],
    [
      "बु",
      "क</w>"
    ],
    [
      "इंडो",
      "ने"
    ],
    [
      "सांस्कृ",
      "तक</w>"
    ],
    [
      "ब",
      "संत</w>"
    ],
    [
      "विकि",
      "पीडिया</w>"
    ],
    [
      "ब",
      "स्ती</w>"
    ],
    [
      "स्प",
      "ता"
    ],
    [
      "स'",
      "त्तें</w>"
    ],
    [
      "इं",
      "'दे</w>"
    ],
    [
      "र",
      "स</w>"
    ],
    [
      "उस",
      "ले</w>"
    ],
    [
      "गण",
      "े"
    ],
    [
      "ड",
      "रेशन</w>"
    ],
    [
      "लो",
      "ड</w>"
    ],
    [
      "त्री",
      "य</w>"
    ],
    [
      "वा",
      "णी</w>"
    ],
    [
      "ज",
      "ख"
    ],
    [
      "कु",
      "श्ती</w>"
    ],
    [
      "जार्",
      "ज</w>"
    ],
    [
      "व",
      "रण</w>"
    ],
    [
      "नवा",
      "स</w>"
    ],
    [
      "ज़",
      "न</w>"
    ],
    [
      "ि",
      "ले</w>"
    ],
    [
      "ज",
      "री"
    ],
    [
      "ह",
      "स्पताल</w>"
    ],
    [
      "वि",
      "</w>"
    ],
    [
      "10",
      "एं</w>"
    ],
    [
      "ना",
      "मज"
    ],
    [
      "प्रो",
      "त्सा"
    ],
    [
      "र्‌हा",
      "या</w>"
    ],
    [
      "ंड",
      "ो</w>"
    ],
    [
      "का",
      "न"
    ],
    [
      "रच",
      "नाएं</w>"
    ],
    [
      "मणि",
      "पुरी</w>"
    ],
    [
      "द",
      "ै"
    ],
    [
      "जान",
      "दे</w>"
    ],
    [
      "प",
      "न"
    ],
    [
      "त",
      "ू"
    ],
    [
      "नी",
      "दर"
    ],
    [
      "\"",
      "।</w>"
    ],
    [
      "परोआ",
      "रें</w>"
    ],
    [
      "ल",
      "ड़"
    ],
    [
      "से",
      "ट</w>"
    ],
    [
      "लो",
      "न</w>"
    ],
    [
      "व्यं",
      "जन</w>"
    ],
    [
      "स",
      "ारा</w>"
    ],
    [
      "टाइ",
      "म</w>"
    ],
    [
      "भरो",
      "ची</w>"
    ],
    [
      "ग्रं",
      "थ</w>"
    ],
    [
      "मुल्",
      "खें</w>"
    ],
    [
      "ल",
      "ेआ"
    ],
    [
      "डिय",
      "ो"
    ],
    [
      "टीका",
      "करण</w>"
    ],
    [
      "डॉ",
      "लर</w>"
    ],
    [
      "कि",
      "क</w>"
    ],
    [
      "स्",
      "पै"
    ],
    [
      "बि",
      "कसत</w>"
    ],
    [
      "इ",
      "डा"
    ],
    [
      "समुदा",
      "य</w>"
    ],
    [
      "ब्",
      "रु"
    ],
    [
      "बरत",
      "ूनी</w>"
    ],
    [
      "जे",
      "ह्‌‌‌"
    ],
    [
      "समि",
      "ति</w>"
    ],
    [
      "मॉ",
      "डल</w>"
    ],
    [
      "पा",
      "ठ"
    ],
    [
      "बा",
      "सी</w>"
    ],
    [
      "सम्",
      "हाल"
    ],
    [
      "हि",
      "र"
    ],
    [
      "ब",
      "गी"
    ],
    [
      "उ",
      "’"
    ],
    [
      "ऐ",
      "क्"
    ],
    [
      "ज",
      "ज्"
    ],
    [
      "सा",
      "इं"
    ],
    [
      "लक्ष",
      "</w>"
    ],
    [
      "बमार",
      "ियें</w>"
    ],
    [
      "रु",
      "चि"
    ],
    [
      "रि",
      "हा"
    ],
    [
      "मु",
      "हम्मद</w>"
    ],
    [
      "दो",
      "शी</w>"
    ],
    [
      "व",
      "ॉ"
    ],
    [
      "कर्मच",
      "ारियें</w>"
    ],
    [
      "इ",
      "ल</w>"
    ],
    [
      "म",
      "सी"
    ],
    [
      "195",
      "6</w>"
    ],
    [
      "इंत",
      "जाम</w>"
    ],
    [
      "शु",
      "रू"
    ],
    [
      "ख",
      "ंदे</w>"
    ],
    [
      "रा",
      "स</w>"
    ],
    [
      "है",
      "।</w>"
    ],
    [
      "द्रिश्",
      "टी"
    ],
    [
      "गा",
      "या</w>"
    ],
    [
      "प्रै",
      "स्स</w>"
    ],
    [
      "प्रशिक्ष",
      "ण</w>"
    ],
    [
      "संचा",
      "ई</w>"
    ],
    [
      "ग",
      "र"
    ],
    [
      "क",
      "बड्डी</w>"
    ],
    [
      "माल",
      "की</w>"
    ],
    [
      "ज्",
      "हार</w>"
    ],
    [
      "रिय",
      "र</w>"
    ],
    [
      "ड़",
      "ै</w>"
    ],
    [
      "खु",
      "ʼ"
    ],
    [
      "आं",
      "क"
    ],
    [
      "फाइ",
      "ल</w>"
    ],
    [
      "पं",
      "ज"
    ],
    [
      "सोच",
      "ेआ</w>"
    ],
    [
      "से",
      "ह्‌त</w>"
    ],
    [
      "वाशि",
      "ंगटन</w>"
    ],
    [
      "र",
      "कार्ड</w>"
    ],
    [
      "श्रे",
      "ण"
    ],
    [
      "ब",
      "लें</w>"
    ],
    [
      "सि",
      "ड</w>"
    ],
    [
      "शिका",
      "गो</w>"
    ],
    [
      "डा",
      "उ"
    ]
  ],
  "vocab_size": 5000,
  "num_merges": 5000,
  "actual_merges": 5000,
  "special_tokens": [
    "<unk>",
    "<pad>",
    "<sos>",
    "<eos>"
  ]
}