{
  "merges": [
    [
      "्",
      "य"
    ],
    [
      "ा",
      "</w>"
    ],
    [
      "ा",
      "ं"
    ],
    [
      "ी",
      "</w>"
    ],
    [
      ".",
      "</w>"
    ],
    [
      "न",
      "</w>"
    ],
    [
      "े",
      "ं"
    ],
    [
      "ो",
      "</w>"
    ],
    [
      "क",
      "</w>"
    ],
    [
      "र",
      "</w>"
    ],
    [
      "्य",
      "ा</w>"
    ],
    [
      "त",
      "</w>"
    ],
    [
      "ा",
      "च"
    ],
    [
      "्",
      "र"
    ],
    [
      "र",
      "्"
    ],
    [
      "त",
      "ा"
    ],
    [
      "न",
      "ी</w>"
    ],
    [
      "ल",
      "्"
    ],
    [
      "ें",
      "</w>"
    ],
    [
      "े",
      "</w>"
    ],
    [
      ",",
      "</w>"
    ],
    [
      "ा",
      "र"
    ],
    [
      "ल्",
      "ल"
    ],
    [
      "स",
      "्"
    ],
    [
      "आ",
      "नी</w>"
    ],
    [
      "ज",
      "ा"
    ],
    [
      "्",
      "ह"
    ],
    [
      "ा",
      "य"
    ],
    [
      "ां",
      "त</w>"
    ],
    [
      "्य",
      "ा"
    ],
    [
      "ी",
      "ं"
    ],
    [
      "स",
      "ा"
    ],
    [
      "त",
      "ल"
    ],
    [
      "ि",
      "ल्ल"
    ],
    [
      "व",
      "ा"
    ],
    [
      "म",
      "ा"
    ],
    [
      "र",
      "ा"
    ],
    [
      "य",
      "</w>"
    ],
    [
      "क",
      "र"
    ],
    [
      "क",
      "ा"
    ],
    [
      "क",
      "्"
    ],
    [
      "प",
      "ा"
    ],
    [
      "ां",
      "च"
    ],
    [
      "क",
      "े"
    ],
    [
      "प",
      "्र"
    ],
    [
      "ण",
      "</w>"
    ],
    [
      "ल",
      "ो"
    ],
    [
      "स",
      "</w>"
    ],
    [
      "त",
      ".</w>"
    ],
    [
      "म",
      "े"
    ],
    [
      "व",
      "ि"
    ],
    [
      "न",
      "ा"
    ],
    [
      "प",
      "र"
    ],
    [
      "ू",
      "न</w>"
    ],
    [
      "म",
      "्ह"
    ],
    [
      "ल",
      "</w>"
    ],
    [
      "त",
      "ी"
    ],
    [
      "ड",
      "</w>"
    ],
    [
      "द",
      "ि"
    ],
    [
      "ां",
      "</w>"
    ],
    [
      "ल",
      "ा"
    ],
    [
      "ीं",
      "</w>"
    ],
    [
      "ं",
      "ग"
    ],
    [
      "ां",
      "तल"
    ],
    [
      "ख",
      "ा"
    ],
    [
      "ाच",
      "्या</w>"
    ],
    [
      "त",
      "्"
    ],
    [
      "श",
      "िल्ल"
    ],
    [
      "ि",
      "य"
    ],
    [
      "े",
      "र</w>"
    ],
    [
      "व",
      "े"
    ],
    [
      "ट",
      "</w>"
    ],
    [
      "व",
      "र्"
    ],
    [
      "ाच",
      "ो</w>"
    ],
    [
      "ी",
      ".</w>"
    ],
    [
      "ता",
      ".</w>"
    ],
    [
      "क",
      "ा</w>"
    ],
    [
      "आ",
      "शिल्ल"
    ],
    [
      "स",
      "ु"
    ],
    [
      "स",
      "ं"
    ],
    [
      "आ",
      "स"
    ],
    [
      "ू",
      "ं"
    ],
    [
      "च",
      "</w>"
    ],
    [
      "च",
      "्या</w>"
    ],
    [
      "न",
      "्"
    ],
    [
      "र",
      "े"
    ],
    [
      "म",
      "</w>"
    ],
    [
      "ए",
      "क</w>"
    ],
    [
      "ाच",
      "ी</w>"
    ],
    [
      "द",
      "े"
    ],
    [
      "व",
      "्ह"
    ],
    [
      "य",
      "ल"
    ],
    [
      "ी",
      "क</w>"
    ],
    [
      "ा",
      "र</w>"
    ],
    [
      "आ",
      "सा"
    ],
    [
      "ता",
      "त.</w>"
    ],
    [
      "ख",
      "े"
    ],
    [
      "2",
      "0"
    ],
    [
      "त",
      "्र"
    ],
    [
      "ह",
      "ा"
    ],
    [
      "न",
      "ि"
    ],
    [
      "ट",
      "ा"
    ],
    [
      "ल",
      "े"
    ],
    [
      "क्",
      "ष"
    ],
    [
      "्या",
      "न</w>"
    ],
    [
      "ें",
      ".</w>"
    ],
    [
      "स",
      "ा</w>"
    ],
    [
      "ां",
      "नी</w>"
    ],
    [
      "त",
      "ी</w>"
    ],
    [
      "त",
      "ि"
    ],
    [
      "व",
      "</w>"
    ],
    [
      "य",
      "े"
    ],
    [
      "खा",
      "ती"
    ],
    [
      "न",
      "ा</w>"
    ],
    [
      "त",
      "ु"
    ],
    [
      "ह",
      "्या</w>"
    ],
    [
      "लो",
      ".</w>"
    ],
    [
      "खाती",
      "र</w>"
    ],
    [
      "ी",
      "त</w>"
    ],
    [
      "क",
      "ार"
    ],
    [
      "श",
      "्"
    ],
    [
      "ां",
      "ग"
    ],
    [
      "प",
      "ु"
    ],
    [
      "व",
      "प"
    ],
    [
      "1",
      "9"
    ],
    [
      "म",
      "ु"
    ],
    [
      "त",
      "ो</w>"
    ],
    [
      "रा",
      "ज"
    ],
    [
      "्य",
      "ो</w>"
    ],
    [
      "क",
      "ड"
    ],
    [
      "जा",
      "ल"
    ],
    [
      "अ",
      "श"
    ],
    [
      "ू",
      "ण</w>"
    ],
    [
      "ळ",
      "</w>"
    ],
    [
      "ाच",
      "े</w>"
    ],
    [
      "ो",
      ".</w>"
    ],
    [
      "ल",
      "ि"
    ],
    [
      "र",
      "ि"
    ],
    [
      "ू",
      "</w>"
    ],
    [
      "ला",
      "ग"
    ],
    [
      "ग",
      "ळ"
    ],
    [
      "ं",
      "द"
    ],
    [
      "ा",
      "व"
    ],
    [
      "क",
      "ां"
    ],
    [
      "व",
      "ा</w>"
    ],
    [
      "त",
      "ा</w>"
    ],
    [
      "ह",
      "ो</w>"
    ],
    [
      "ा",
      "न</w>"
    ],
    [
      "मे",
      "ळ"
    ],
    [
      "पा",
      "क</w>"
    ],
    [
      "0",
      "</w>"
    ],
    [
      "स्",
      "ट"
    ],
    [
      "ाच",
      "ें</w>"
    ],
    [
      "क",
      "ि"
    ],
    [
      "स",
      "ि"
    ],
    [
      "क",
      "्र"
    ],
    [
      "ह",
      "ें</w>"
    ],
    [
      "के",
      "ल"
    ],
    [
      "्या",
      "र</w>"
    ],
    [
      "क",
      "ो"
    ],
    [
      "च",
      "ो</w>"
    ],
    [
      "स",
      "ो"
    ],
    [
      "े",
      "न</w>"
    ],
    [
      "ांतल",
      "्या</w>"
    ],
    [
      "द",
      "ु"
    ],
    [
      "भ",
      "ा"
    ],
    [
      "न",
      "े"
    ],
    [
      "श",
      "ि"
    ],
    [
      "ण",
      "ें</w>"
    ],
    [
      "व",
      "ं"
    ],
    [
      "म",
      "ि"
    ],
    [
      "व",
      "न</w>"
    ],
    [
      "्य",
      "ांत</w>"
    ],
    [
      "त",
      ",</w>"
    ],
    [
      "च",
      "ड</w>"
    ],
    [
      "आसा",
      ".</w>"
    ],
    [
      "ं",
      "ड"
    ],
    [
      "्य",
      "</w>"
    ],
    [
      "ग",
      "</w>"
    ],
    [
      "र",
      "ो"
    ],
    [
      "द",
      "ो"
    ],
    [
      "आ",
      "प"
    ],
    [
      "त",
      "े</w>"
    ],
    [
      "घ",
      "े"
    ],
    [
      "वर्",
      "सा</w>"
    ],
    [
      "ाय",
      "</w>"
    ],
    [
      "ां",
      "क</w>"
    ],
    [
      "ब",
      "ा"
    ],
    [
      "द",
      "</w>"
    ],
    [
      "त",
      "ें</w>"
    ],
    [
      "व",
      "र"
    ],
    [
      "स",
      "र"
    ],
    [
      "खे",
      "ळ"
    ],
    [
      "आ",
      "य"
    ],
    [
      "प",
      "</w>"
    ],
    [
      "प",
      "यल"
    ],
    [
      "क",
      "ु"
    ],
    [
      "च",
      "ी</w>"
    ],
    [
      "भ",
      "ार"
    ],
    [
      "ट",
      "्र"
    ],
    [
      "द",
      "ा"
    ],
    [
      "च",
      "े</w>"
    ],
    [
      "स्",
      "थ"
    ],
    [
      "ल",
      "ी</w>"
    ],
    [
      "ाच",
      "ेर</w>"
    ],
    [
      "ह",
      "ी</w>"
    ],
    [
      "श",
      "ा"
    ],
    [
      "त",
      "र"
    ],
    [
      "त",
      "े"
    ],
    [
      "श",
      "क"
    ],
    [
      "स",
      "गळ"
    ],
    [
      "अश",
      "ें</w>"
    ],
    [
      "ल",
      "्या</w>"
    ],
    [
      "ज",
      "</w>"
    ],
    [
      "ल",
      "ो</w>"
    ],
    [
      "ां",
      "व"
    ],
    [
      "त",
      "ूं"
    ],
    [
      "प",
      "ि"
    ],
    [
      "म",
      "ो"
    ],
    [
      "च",
      "ि"
    ],
    [
      "ल",
      "ी"
    ],
    [
      "ण",
      "ी</w>"
    ],
    [
      "के",
      "ल्ल"
    ],
    [
      "ी",
      "य</w>"
    ],
    [
      "ूं",
      "क</w>"
    ],
    [
      "ज",
      "ि"
    ],
    [
      "जा",
      "य"
    ],
    [
      "प",
      "ी</w>"
    ],
    [
      "स",
      "ार"
    ],
    [
      "मा",
      "न"
    ],
    [
      "सु",
      "र"
    ],
    [
      "द",
      "्"
    ],
    [
      "उ",
      "त्"
    ],
    [
      "दे",
      "श"
    ],
    [
      "प",
      "्"
    ],
    [
      "प",
      "ड"
    ],
    [
      "ांच",
      "्या</w>"
    ],
    [
      "श",
      "े"
    ],
    [
      "प",
      "ण"
    ],
    [
      "कड",
      "ेन</w>"
    ],
    [
      "लाग",
      "ून</w>"
    ],
    [
      "प",
      "ू"
    ],
    [
      "म्ह",
      "ूण</w>"
    ],
    [
      "रे",
      "न</w>"
    ],
    [
      "उ",
      "पर"
    ],
    [
      "म्ह",
      "ण"
    ],
    [
      "ा",
      "ल"
    ],
    [
      "च",
      "ें</w>"
    ],
    [
      "वर्",
      "स"
    ],
    [
      "ता",
      "का</w>"
    ],
    [
      "20",
      "1"
    ],
    [
      "ब",
      "्र"
    ],
    [
      "ांच",
      "ो</w>"
    ],
    [
      "क",
      "ी</w>"
    ],
    [
      "न",
      "ी"
    ],
    [
      "ह",
      "ि"
    ],
    [
      "ब",
      "र"
    ],
    [
      "त",
      "्या</w>"
    ],
    [
      "जा",
      "ल्ल"
    ],
    [
      "ता",
      "त</w>"
    ],
    [
      "1",
      "</w>"
    ],
    [
      "फ",
      "ु"
    ],
    [
      "ब",
      "</w>"
    ],
    [
      "वा",
      "पर"
    ],
    [
      "पु",
      "र"
    ],
    [
      "न",
      "्ह"
    ],
    [
      "ग",
      "ो"
    ],
    [
      "व",
      "ळ"
    ],
    [
      "कर",
      "ून</w>"
    ],
    [
      "त",
      "ां"
    ],
    [
      "न",
      ",</w>"
    ],
    [
      "द",
      "ार"
    ],
    [
      "ें",
      "त</w>"
    ],
    [
      "ा",
      "क</w>"
    ],
    [
      "म",
      "द"
    ],
    [
      "5",
      "</w>"
    ],
    [
      "क",
      "ॅ"
    ],
    [
      "ग",
      "ु"
    ],
    [
      "2",
      "</w>"
    ],
    [
      "दि",
      "स"
    ],
    [
      "ं",
      "प"
    ],
    [
      "का",
      "र</w>"
    ],
    [
      "र्",
      "थ"
    ],
    [
      "ले",
      ".</w>"
    ],
    [
      "ट",
      "ि"
    ],
    [
      "ट",
      "ी"
    ],
    [
      "ग",
      "्र"
    ],
    [
      "स",
      "र्"
    ],
    [
      "ांग",
      "ड"
    ],
    [
      "वं",
      "क</w>"
    ],
    [
      "त",
      "य"
    ],
    [
      "ांच",
      "ी</w>"
    ],
    [
      "कां",
      "य</w>"
    ],
    [
      "ए",
      "क"
    ],
    [
      "श",
      "</w>"
    ],
    [
      "ज",
      "े"
    ],
    [
      "उ",
      "प"
    ],
    [
      "ट",
      "्"
    ],
    [
      "उपर",
      "ांत</w>"
    ],
    [
      "ड",
      "ि"
    ],
    [
      "प",
      "ूण</w>"
    ],
    [
      "प",
      "ो"
    ],
    [
      "क",
      "ां</w>"
    ],
    [
      "दि",
      "सा</w>"
    ],
    [
      "ल",
      "े</w>"
    ],
    [
      "म",
      "ार"
    ],
    [
      "म",
      "्"
    ],
    [
      "मे",
      "रेन</w>"
    ],
    [
      "20",
      "0"
    ],
    [
      "ब",
      "ॉ"
    ],
    [
      "न",
      "्य"
    ],
    [
      "न",
      "ो"
    ],
    [
      "श",
      "ें"
    ],
    [
      "ता",
      "णें</w>"
    ],
    [
      "य",
      "ु"
    ],
    [
      "स",
      "े"
    ],
    [
      "8",
      "</w>"
    ],
    [
      "म",
      "ी"
    ],
    [
      "ह",
      "े</w>"
    ],
    [
      "म",
      "ॅ"
    ],
    [
      "त",
      "र</w>"
    ],
    [
      "फ",
      "ा"
    ],
    [
      "ग",
      "र"
    ],
    [
      "6",
      "</w>"
    ],
    [
      "लो",
      "क"
    ],
    [
      "4",
      "</w>"
    ],
    [
      "ग",
      "्"
    ],
    [
      "7",
      "</w>"
    ],
    [
      ")",
      "</w>"
    ],
    [
      "ल",
      "ें.</w>"
    ],
    [
      "व",
      "ांगड"
    ],
    [
      "श",
      "ार"
    ],
    [
      "का",
      "ळ"
    ],
    [
      "ी",
      "र</w>"
    ],
    [
      "तय",
      "ार</w>"
    ],
    [
      "ं",
      "य"
    ],
    [
      "ीं",
      "त</w>"
    ],
    [
      "3",
      "</w>"
    ],
    [
      "ट",
      "ी</w>"
    ],
    [
      "सगळ",
      "्यांत</w>"
    ],
    [
      "ण",
      "ा"
    ],
    [
      "क",
      "ॉ"
    ],
    [
      "स्",
      "त"
    ],
    [
      "ंग",
      "</w>"
    ],
    [
      "च",
      "ड"
    ],
    [
      "मु",
      "खे"
    ],
    [
      "भ",
      "ि"
    ],
    [
      "अ",
      "मे"
    ],
    [
      "प्र",
      "मा"
    ],
    [
      "आसा",
      "त.</w>"
    ],
    [
      "वा",
      "ठ"
    ],
    [
      "्",
      "ळ"
    ],
    [
      "वप",
      "ी</w>"
    ],
    [
      "े",
      "र"
    ],
    [
      "च",
      "ेर</w>"
    ],
    [
      "अमे",
      "रि"
    ],
    [
      "ह",
      "ेर</w>"
    ],
    [
      "आशिल्ल",
      "ो.</w>"
    ],
    [
      "कर",
      "प"
    ],
    [
      "ांतल",
      "्यान</w>"
    ],
    [
      "ो",
      "ड"
    ],
    [
      "ग",
      "ि"
    ],
    [
      "म",
      "र"
    ],
    [
      "ांच",
      "ेर</w>"
    ],
    [
      "भार",
      "त"
    ],
    [
      "िय",
      "ा</w>"
    ],
    [
      "मा",
      "र्"
    ],
    [
      "राज",
      "्य"
    ],
    [
      "म",
      "ी</w>"
    ],
    [
      "वा",
      "ड"
    ],
    [
      "न्",
      "ना</w>"
    ],
    [
      "ल",
      "ाय"
    ],
    [
      "आस",
      "ता.</w>"
    ],
    [
      "र्",
      "म"
    ],
    [
      "ी",
      "."
    ],
    [
      "ल",
      "्य"
    ],
    [
      "ल",
      "ा</w>"
    ],
    [
      "सा",
      "वन</w>"
    ],
    [
      "भ",
      "ु"
    ],
    [
      "ब",
      "ंद"
    ],
    [
      "ांच",
      "े</w>"
    ],
    [
      "म्ह",
      "ा"
    ],
    [
      "मा",
      "न</w>"
    ],
    [
      "ी",
      "न</w>"
    ],
    [
      "ी",
      ",</w>"
    ],
    [
      "ग",
      "ड"
    ],
    [
      "ब",
      "े"
    ],
    [
      "ट",
      "े"
    ],
    [
      "ग",
      "े"
    ],
    [
      "व",
      "्या</w>"
    ],
    [
      "प",
      "े"
    ],
    [
      "स्",
      "व"
    ],
    [
      "ध",
      "ा"
    ],
    [
      "ब",
      "र</w>"
    ],
    [
      "आ",
      "द"
    ],
    [
      "प",
      "ंग"
    ],
    [
      "पा",
      "व"
    ],
    [
      "म",
      "न"
    ],
    [
      "क",
      "ृ"
    ],
    [
      "वे",
      "गळ"
    ],
    [
      "चि",
      "त्र"
    ],
    [
      "जा",
      "ता.</w>"
    ],
    [
      "ं",
      "त्र"
    ],
    [
      "ो",
      "ं"
    ],
    [
      "स",
      "ंग"
    ],
    [
      "का",
      "ड"
    ],
    [
      "पर",
      "स</w>"
    ],
    [
      "ल",
      "ां"
    ],
    [
      "स",
      "ांग"
    ],
    [
      "फ",
      "ि"
    ],
    [
      "उ",
      "द"
    ],
    [
      "ार",
      "ी</w>"
    ],
    [
      "न",
      "िय"
    ],
    [
      "ल",
      "ॅ"
    ],
    [
      "प",
      "ळ"
    ],
    [
      "टा",
      "त.</w>"
    ],
    [
      "वाठ",
      "ार"
    ],
    [
      "पण",
      "ान</w>"
    ],
    [
      "ल",
      "ें</w>"
    ],
    [
      "ग",
      "ा"
    ],
    [
      "िल्ल",
      "्या</w>"
    ],
    [
      "पर",
      "ि"
    ],
    [
      "स",
      "ो</w>"
    ],
    [
      "ूं",
      "</w>"
    ],
    [
      "टा",
      ".</w>"
    ],
    [
      "लो",
      "क</w>"
    ],
    [
      "ए",
      "का</w>"
    ],
    [
      "द",
      "वर"
    ],
    [
      "ल",
      "ी.</w>"
    ],
    [
      "आशिल्ल",
      "्या</w>"
    ],
    [
      "ब",
      "ाय"
    ],
    [
      "कर",
      "पाक</w>"
    ],
    [
      "स",
      "ाय"
    ],
    [
      "दो",
      "न</w>"
    ],
    [
      "स",
      "म"
    ],
    [
      "ण",
      "्"
    ],
    [
      "े",
      ".</w>"
    ],
    [
      "ब",
      "्"
    ],
    [
      "द",
      "र्"
    ],
    [
      "तु",
      "ज"
    ],
    [
      "मुखे",
      "ल</w>"
    ],
    [
      "त",
      "क"
    ],
    [
      "ं",
      "य</w>"
    ],
    [
      "ब",
      "ि"
    ],
    [
      "रा",
      "व"
    ],
    [
      "म्ह",
      "ळ"
    ],
    [
      "तूं",
      "त</w>"
    ],
    [
      "क",
      "ें"
    ],
    [
      "र",
      "ु"
    ],
    [
      "फ",
      "्र"
    ],
    [
      "ां",
      "व</w>"
    ],
    [
      "फु",
      "ड"
    ],
    [
      "9",
      "</w>"
    ],
    [
      "ाच",
      "</w>"
    ],
    [
      "ना",
      ".</w>"
    ],
    [
      "वे",
      "व"
    ],
    [
      "ब",
      "ो"
    ],
    [
      "्य",
      "ु"
    ],
    [
      "0",
      "0</w>"
    ],
    [
      "ू",
      "य</w>"
    ],
    [
      "र",
      "ी</w>"
    ],
    [
      "रा",
      "श्"
    ],
    [
      "र",
      "ग"
    ],
    [
      "त",
      "ाच्या</w>"
    ],
    [
      "्या",
      "क</w>"
    ],
    [
      "ट",
      "ो"
    ],
    [
      "र",
      "ाय"
    ],
    [
      "ल",
      "य"
    ],
    [
      "ता",
      ",</w>"
    ],
    [
      "ख",
      "ू"
    ],
    [
      "का",
      "म</w>"
    ],
    [
      "द",
      "र</w>"
    ],
    [
      "ु",
      "क"
    ],
    [
      "ु",
      "ं"
    ],
    [
      "प्र",
      "ति"
    ],
    [
      "कां",
      "क</w>"
    ],
    [
      "ख",
      "</w>"
    ],
    [
      "त",
      "ीं"
    ],
    [
      "स्थ",
      "ा"
    ],
    [
      "ध",
      "ि"
    ],
    [
      "\"",
      "</w>"
    ],
    [
      "राश्",
      "ट्र"
    ],
    [
      "ती",
      "न</w>"
    ],
    [
      "द",
      "्र"
    ],
    [
      "म्हळ",
      "्यार</w>"
    ],
    [
      "ष",
      "्"
    ],
    [
      "जाल",
      "्यार</w>"
    ],
    [
      "सु",
      "वा"
    ],
    [
      "जा",
      "लो.</w>"
    ],
    [
      "व",
      "च"
    ],
    [
      "भा",
      "ग"
    ],
    [
      "मा",
      "र</w>"
    ],
    [
      "त",
      "ाचो</w>"
    ],
    [
      "च",
      "ार</w>"
    ],
    [
      "स्",
      "ता"
    ],
    [
      "त",
      "्य"
    ],
    [
      "भ",
      "ाय"
    ],
    [
      "ट",
      "र</w>"
    ],
    [
      "पा",
      "खातीर</w>"
    ],
    [
      "त",
      "ळ"
    ],
    [
      "ब",
      "द"
    ],
    [
      "तु",
      "म"
    ],
    [
      "त्",
      "व"
    ],
    [
      "वे",
      "ळ"
    ],
    [
      "ू",
      "क</w>"
    ],
    [
      "सुर",
      "ू</w>"
    ],
    [
      "प",
      "ॅ"
    ],
    [
      "ांच",
      "ें</w>"
    ],
    [
      "सा",
      "म"
    ],
    [
      "त",
      "ाची</w>"
    ],
    [
      "आ",
      "यल"
    ],
    [
      "र",
      "ी"
    ],
    [
      "फ",
      "</w>"
    ],
    [
      "तल",
      "्या</w>"
    ],
    [
      "आप",
      "ल्या</w>"
    ],
    [
      "ॉ",
      "र्"
    ],
    [
      "पर",
      "त</w>"
    ],
    [
      "आस",
      "ा</w>"
    ],
    [
      "कर",
      "तात.</w>"
    ],
    [
      "ध",
      "्य"
    ],
    [
      "फ",
      "ो"
    ],
    [
      "चड",
      "श"
    ],
    [
      "ांतल",
      "ो</w>"
    ],
    [
      "प",
      "य"
    ],
    [
      "मद",
      "ीं</w>"
    ],
    [
      "द",
      "ी"
    ],
    [
      "फ",
      "्"
    ],
    [
      "ती",
      "य</w>"
    ],
    [
      "द",
      "िल्ल"
    ],
    [
      "व्ह",
      "ड"
    ],
    [
      "न",
      "ॅ"
    ],
    [
      "न्",
      "न"
    ],
    [
      "वे",
      "ग"
    ],
    [
      "ये",
      "ता.</w>"
    ],
    [
      "ो",
      "व"
    ],
    [
      "त्",
      "र</w>"
    ],
    [
      "ल",
      "्यान</w>"
    ],
    [
      "घ",
      "ाल"
    ],
    [
      "ते",
      "न्ना</w>"
    ],
    [
      "क",
      ",</w>"
    ],
    [
      "ांतल",
      "ें</w>"
    ],
    [
      "मेळ",
      "्ळ"
    ],
    [
      "ें",
      ",</w>"
    ],
    [
      "ज",
      "्"
    ],
    [
      "19",
      "9"
    ],
    [
      "न",
      "ांत</w>"
    ],
    [
      "द",
      "ी</w>"
    ],
    [
      "ब",
      "ॅ"
    ],
    [
      "वि",
      "श"
    ],
    [
      "उ",
      "ण"
    ],
    [
      "नि",
      "र्"
    ],
    [
      "स",
      "क"
    ],
    [
      "ल",
      "्यार</w>"
    ],
    [
      "चित्र",
      "प"
    ],
    [
      "केल",
      "ें.</w>"
    ],
    [
      "पंग",
      "ड"
    ],
    [
      "ता",
      "त,</w>"
    ],
    [
      "न",
      "व"
    ],
    [
      "ड",
      "ी</w>"
    ],
    [
      ".",
      "ए"
    ],
    [
      "क",
      "ंप"
    ],
    [
      "क",
      "त</w>"
    ],
    [
      "ता",
      "य</w>"
    ],
    [
      "न",
      "ीक</w>"
    ],
    [
      "आ",
      "व"
    ],
    [
      "ट",
      "ा</w>"
    ],
    [
      "स",
      "ां"
    ],
    [
      "त",
      "ना</w>"
    ],
    [
      "सार",
      "क"
    ],
    [
      "त",
      "ो"
    ],
    [
      "श",
      "ी"
    ],
    [
      "केल",
      "ी.</w>"
    ],
    [
      "सु",
      "मार</w>"
    ],
    [
      "स्ट",
      "्र"
    ],
    [
      "अ",
      "र्थ"
    ],
    [
      "ड",
      "े"
    ],
    [
      "भार",
      "तीय</w>"
    ],
    [
      "त",
      "ाचे</w>"
    ],
    [
      "त",
      "शें"
    ],
    [
      "खू",
      "ब</w>"
    ],
    [
      "ज",
      "ोड"
    ],
    [
      "ना",
      "शिल्ल"
    ],
    [
      "ग",
      "ीत</w>"
    ],
    [
      "व",
      "्य"
    ],
    [
      "ह",
      "ांग"
    ],
    [
      "ण",
      "े"
    ],
    [
      "ल्",
      "हा"
    ],
    [
      "श",
      "ी</w>"
    ],
    [
      "आ",
      "ं"
    ],
    [
      "सं",
      "व"
    ],
    [
      "ल",
      "क्ष"
    ],
    [
      "फ",
      "कत</w>"
    ],
    [
      "्य",
      "ांक</w>"
    ],
    [
      "ता",
      "तूंत</w>"
    ],
    [
      "स्",
      "प"
    ],
    [
      "स",
      ".</w>"
    ],
    [
      "्य",
      "ां"
    ],
    [
      "दे",
      "ख"
    ],
    [
      "ना",
      "न</w>"
    ],
    [
      "कर",
      "पी</w>"
    ],
    [
      "न्",
      "स"
    ],
    [
      "िय",
      "न</w>"
    ],
    [
      "त",
      "ीं</w>"
    ],
    [
      "घ",
      "ड"
    ],
    [
      "व",
      "ां"
    ],
    [
      "राश्ट्र",
      "ीय</w>"
    ],
    [
      "श",
      "न</w>"
    ],
    [
      "वांगड",
      "ा</w>"
    ],
    [
      "स",
      "द"
    ],
    [
      "ट",
      "र"
    ],
    [
      "व्ह",
      "ि"
    ],
    [
      "ब",
      "ु"
    ],
    [
      "वेग",
      "वेगळ"
    ],
    [
      "वि",
      "क"
    ],
    [
      "िय",
      "ा"
    ],
    [
      "य",
      "ा"
    ],
    [
      "स",
      "ै"
    ],
    [
      "घ",
      "ा"
    ],
    [
      "ण",
      "ांत</w>"
    ],
    [
      "तल",
      "ो</w>"
    ],
    [
      "मा",
      "ग"
    ],
    [
      "थ",
      "ळ"
    ],
    [
      "भ",
      "र"
    ],
    [
      "ां",
      "त"
    ],
    [
      "कर",
      "ूंक</w>"
    ],
    [
      "त",
      "ां</w>"
    ],
    [
      "बॉ",
      "ल</w>"
    ],
    [
      "ब",
      "ां"
    ],
    [
      "ने",
      "म"
    ],
    [
      "तशें",
      "च</w>"
    ],
    [
      "स्",
      "ट</w>"
    ],
    [
      "न",
      "ु"
    ],
    [
      "तूं",
      "</w>"
    ],
    [
      "ब",
      "र्"
    ],
    [
      "ऱ",
      "्या</w>"
    ],
    [
      "फा",
      "ट"
    ],
    [
      "िल्ल",
      "ो</w>"
    ],
    [
      "क",
      "ो</w>"
    ],
    [
      "स्",
      "त्र"
    ],
    [
      "व",
      "ें"
    ],
    [
      "ह",
      "ार"
    ],
    [
      "श",
      "्र"
    ],
    [
      "स",
      "ॅ"
    ],
    [
      "हि",
      "ंद"
    ],
    [
      "दे",
      "व"
    ],
    [
      "द",
      "क्ष"
    ],
    [
      "संव",
      "सार"
    ],
    [
      "खेळ",
      "गड"
    ],
    [
      "थ",
      "ार"
    ],
    [
      "घ",
      "र"
    ],
    [
      "ह",
      "ो"
    ],
    [
      "ज",
      "ै"
    ],
    [
      "ट",
      "ो</w>"
    ],
    [
      "श्",
      "ट</w>"
    ],
    [
      "ीं",
      ".</w>"
    ],
    [
      "र्",
      "व"
    ],
    [
      "ज",
      "ी"
    ],
    [
      "ां",
      "त,</w>"
    ],
    [
      "तु",
      "का</w>"
    ],
    [
      "र",
      ",</w>"
    ],
    [
      "शक",
      "ता.</w>"
    ],
    [
      "्र",
      "ा"
    ],
    [
      "दा",
      "ख"
    ],
    [
      "प्र",
      "देश"
    ],
    [
      "च",
      "े"
    ],
    [
      "कर",
      "ता.</w>"
    ],
    [
      "द",
      "र"
    ],
    [
      "वि",
      "द"
    ],
    [
      "फ",
      "ाव"
    ],
    [
      "भा",
      "ग</w>"
    ],
    [
      "ो",
      ",</w>"
    ],
    [
      "पुर",
      "ाय</w>"
    ],
    [
      "व",
      "पाक</w>"
    ],
    [
      "भाय",
      "र</w>"
    ],
    [
      "व्ह",
      "ड</w>"
    ],
    [
      "ट",
      "ॅ"
    ],
    [
      "झ",
      "ु"
    ],
    [
      "पयल",
      "ीं</w>"
    ],
    [
      "खे",
      "ळ</w>"
    ],
    [
      "क्",
      "स"
    ],
    [
      "प्र",
      "ि"
    ],
    [
      "तां",
      "कां</w>"
    ],
    [
      "ंग",
      "्"
    ],
    [
      "ज",
      "ु"
    ],
    [
      "क",
      "ी"
    ],
    [
      "ल",
      "्या"
    ],
    [
      "भु",
      "रग"
    ],
    [
      "क",
      "ाय"
    ],
    [
      "ांतल",
      "े</w>"
    ],
    [
      "उ",
      "र"
    ],
    [
      "स्था",
      "प"
    ],
    [
      "जाल",
      "ी.</w>"
    ],
    [
      "शें",
      "कड"
    ],
    [
      "आस",
      "तात.</w>"
    ],
    [
      "ह",
      "ॉ"
    ],
    [
      "क",
      "र्"
    ],
    [
      "न",
      "ाय"
    ],
    [
      "्य",
      "ांनी</w>"
    ],
    [
      "ल",
      "ॉ"
    ],
    [
      "के",
      "लो.</w>"
    ],
    [
      "20",
      "</w>"
    ],
    [
      "ना",
      "म"
    ],
    [
      "जि",
      "ख"
    ],
    [
      "शि",
      "क्ष"
    ],
    [
      "घे",
      "तल"
    ],
    [
      "व",
      "ी"
    ],
    [
      "ें",
      "बर</w>"
    ],
    [
      "दु",
      "सर"
    ],
    [
      "अ",
      "धि"
    ],
    [
      "न",
      "ां</w>"
    ],
    [
      "आशिल्ल",
      "ी.</w>"
    ],
    [
      "ज",
      "ल्"
    ],
    [
      "क",
      "ळ"
    ],
    [
      "सो",
      "ड"
    ],
    [
      "अ",
      "ं"
    ],
    [
      "ब्र",
      "ि"
    ],
    [
      "प्र",
      "ा"
    ],
    [
      "य",
      "ो"
    ],
    [
      "वेळ",
      "ार</w>"
    ],
    [
      "लो",
      "कांक</w>"
    ],
    [
      "ां",
      ".</w>"
    ],
    [
      "ले",
      "गीत</w>"
    ],
    [
      "म",
      "ू"
    ],
    [
      "स",
      "ी"
    ],
    [
      "जाय",
      "त्या</w>"
    ],
    [
      "फ",
      "े"
    ],
    [
      "ड",
      "ी"
    ],
    [
      "व",
      "यल"
    ],
    [
      "ला",
      ".</w>"
    ],
    [
      "वप",
      "</w>"
    ],
    [
      "च",
      "ा"
    ],
    [
      "ांतल",
      "ी</w>"
    ],
    [
      "तल",
      "े</w>"
    ],
    [
      "च",
      "ार"
    ],
    [
      "ल्हा",
      "न</w>"
    ],
    [
      "ना",
      "क</w>"
    ],
    [
      "इ",
      "ं"
    ],
    [
      "व",
      "ाय"
    ],
    [
      "न",
      "ांव"
    ],
    [
      "श",
      "े</w>"
    ],
    [
      "प",
      "द"
    ],
    [
      "ज",
      "न"
    ],
    [
      "हा",
      "ड"
    ],
    [
      "्य",
      "ाच्या</w>"
    ],
    [
      "ऑ",
      "फ</w>"
    ],
    [
      "ंग",
      "ा"
    ],
    [
      "म्ह",
      "ज"
    ],
    [
      "19",
      "8"
    ],
    [
      "वा",
      "द"
    ],
    [
      "का",
      "र्"
    ],
    [
      "च",
      "ल"
    ],
    [
      "विद",
      "्या"
    ],
    [
      "रा",
      "क</w>"
    ],
    [
      "द्",
      "द"
    ],
    [
      "दर्",
      "श"
    ],
    [
      "प",
      "ी"
    ],
    [
      "थ",
      "ंय</w>"
    ],
    [
      "वें",
      "च"
    ],
    [
      "ह",
      "ॅ"
    ],
    [
      "च",
      "ी"
    ],
    [
      "सो",
      "द"
    ],
    [
      "स",
      "प्"
    ],
    [
      "व",
      "ॅ"
    ],
    [
      "ल",
      "ु"
    ],
    [
      "न",
      "ाच्या</w>"
    ],
    [
      "ता",
      "ले.</w>"
    ],
    [
      "जा",
      "वंक</w>"
    ],
    [
      "त्",
      "म"
    ],
    [
      "ल",
      "ंड"
    ],
    [
      "ल्",
      "प"
    ],
    [
      "आशिल्ल",
      "ो</w>"
    ],
    [
      "त",
      "ें"
    ],
    [
      "रा",
      "न</w>"
    ],
    [
      "म्ह",
      "त्व"
    ],
    [
      "ण",
      "ां</w>"
    ],
    [
      "ण",
      "ा</w>"
    ],
    [
      "सं",
      "ख"
    ],
    [
      "ड",
      "ा"
    ],
    [
      "अ",
      "र्"
    ],
    [
      "ना",
      "स"
    ],
    [
      "च",
      "ाल"
    ],
    [
      "घ",
      "ट"
    ],
    [
      "ज्",
      "ञ"
    ],
    [
      "ांच",
      "</w>"
    ],
    [
      "व",
      "ारी</w>"
    ],
    [
      "सं",
      "बंद"
    ],
    [
      "ड",
      "ो"
    ],
    [
      "विश",
      "ीं</w>"
    ],
    [
      "परि",
      "णा"
    ],
    [
      "1",
      "8"
    ],
    [
      "सा",
      ",</w>"
    ],
    [
      "ज",
      "िल्ल"
    ],
    [
      "राज",
      "्य</w>"
    ],
    [
      "ख",
      "ंय"
    ],
    [
      "वर्स",
      "ां</w>"
    ],
    [
      "सुर",
      "वा"
    ],
    [
      "ं",
      "ड</w>"
    ],
    [
      "म्ह",
      "य"
    ],
    [
      "य",
      "ें"
    ],
    [
      "19",
      "7"
    ],
    [
      "े",
      "च्या</w>"
    ],
    [
      "त",
      "्यो</w>"
    ],
    [
      "ार",
      ",</w>"
    ],
    [
      "तल",
      "्यान</w>"
    ],
    [
      "क्",
      "क"
    ],
    [
      "अ",
      "सो</w>"
    ],
    [
      "ड",
      "्"
    ],
    [
      "सा",
      "दार"
    ],
    [
      "ाच",
      "्यो</w>"
    ],
    [
      "क्र",
      "म"
    ],
    [
      "स्ट",
      "े"
    ],
    [
      "ध",
      "र"
    ],
    [
      "वप",
      "ाची</w>"
    ],
    [
      "म",
      "ाय"
    ],
    [
      "क",
      "र</w>"
    ],
    [
      "ाच",
      "ीं</w>"
    ],
    [
      "र",
      "ा</w>"
    ],
    [
      "क्ष",
      "</w>"
    ],
    [
      "दक्ष",
      "ि"
    ],
    [
      "स्",
      "त</w>"
    ],
    [
      "त",
      "रे"
    ],
    [
      "क्",
      "त</w>"
    ],
    [
      ",",
      "0"
    ],
    [
      "ह",
      "ु"
    ],
    [
      "स",
      "ी</w>"
    ],
    [
      "व",
      "ण"
    ],
    [
      "सो",
      "ंप"
    ],
    [
      "ज",
      "ो"
    ],
    [
      "स",
      "ी.</w>"
    ],
    [
      "र",
      "ॉ"
    ],
    [
      "ड",
      "ॅ"
    ],
    [
      "ध",
      "र्म"
    ],
    [
      "प",
      "ण</w>"
    ],
    [
      "जा",
      "ता</w>"
    ],
    [
      "व",
      "ार"
    ],
    [
      "पू",
      "र्"
    ],
    [
      "तल",
      "ें</w>"
    ],
    [
      "पि",
      "राय"
    ],
    [
      "ं",
      "ब"
    ],
    [
      "न",
      "ांव</w>"
    ],
    [
      "स",
      "ऱ्या</w>"
    ],
    [
      "लो",
      ",</w>"
    ],
    [
      "प",
      "ाची</w>"
    ],
    [
      "ध",
      "</w>"
    ],
    [
      "काळ",
      "ांत</w>"
    ],
    [
      "न",
      "गर"
    ],
    [
      "ध",
      "्"
    ],
    [
      "हांग",
      "ा</w>"
    ],
    [
      "व",
      "ै"
    ],
    [
      "आ",
      "र"
    ],
    [
      "श",
      "न"
    ],
    [
      "द",
      "रे"
    ],
    [
      "कार",
      "्या"
    ],
    [
      "फ",
      "ाय"
    ],
    [
      "र",
      "ॅ"
    ],
    [
      "ण",
      ",</w>"
    ],
    [
      "भ",
      "ाव"
    ],
    [
      "जा",
      "य</w>"
    ],
    [
      "ह",
      "े"
    ],
    [
      "व",
      "ट"
    ],
    [
      "सर",
      "कार"
    ],
    [
      "च",
      "ॅ"
    ],
    [
      "अ",
      "भि"
    ],
    [
      "म",
      "ा</w>"
    ],
    [
      "क",
      "ू"
    ],
    [
      "ती",
      "क</w>"
    ],
    [
      "दो",
      "न"
    ],
    [
      "ड",
      "्र"
    ],
    [
      "उत्",
      "तर</w>"
    ],
    [
      "ड",
      "ॉ"
    ],
    [
      "ों",
      "व"
    ],
    [
      "कड",
      "ल्यान</w>"
    ],
    [
      "सा",
      "न</w>"
    ],
    [
      "त",
      "ाचें</w>"
    ],
    [
      "य",
      "तात.</w>"
    ],
    [
      "झु",
      "ज"
    ],
    [
      "भ",
      "े"
    ],
    [
      "तर",
      "ी</w>"
    ],
    [
      "स्थ",
      "ि"
    ],
    [
      "ज",
      "ी</w>"
    ],
    [
      "क",
      "न</w>"
    ],
    [
      "य",
      "त्"
    ],
    [
      "पयल",
      "ो</w>"
    ],
    [
      "स",
      "ू"
    ],
    [
      "क्र",
      "ि"
    ],
    [
      "व",
      "े</w>"
    ],
    [
      "दु",
      "यें"
    ],
    [
      "क्",
      "स</w>"
    ],
    [
      "क्ष",
      "े"
    ],
    [
      "का",
      "म"
    ],
    [
      "व",
      "य"
    ],
    [
      "उत्",
      "स"
    ],
    [
      "तल",
      "ी</w>"
    ],
    [
      "उ",
      "ज"
    ],
    [
      "न्",
      "स</w>"
    ],
    [
      "सा",
      "क</w>"
    ],
    [
      "केल्ल",
      "्या</w>"
    ],
    [
      "व",
      "ी</w>"
    ],
    [
      "न",
      "ॉ"
    ],
    [
      "स्",
      "वा"
    ],
    [
      "दे",
      "ग"
    ],
    [
      "आ",
      "नीक</w>"
    ],
    [
      "अमेरि",
      "के"
    ],
    [
      "आ",
      "दार"
    ],
    [
      "न",
      ".</w>"
    ],
    [
      "वा",
      "न</w>"
    ],
    [
      "ंद",
      "</w>"
    ],
    [
      "न्ह",
      "ंय"
    ],
    [
      "क",
      "ांत</w>"
    ],
    [
      "ल",
      "ग्"
    ],
    [
      "ब",
      "ी</w>"
    ],
    [
      "ब",
      "ँ"
    ],
    [
      "फ",
      "ॅ"
    ],
    [
      "प",
      "ां"
    ],
    [
      "आ",
      "ड</w>"
    ],
    [
      "ल",
      "िय"
    ],
    [
      "प",
      "ं"
    ],
    [
      "शक",
      "तात.</w>"
    ],
    [
      "ो",
      "वन</w>"
    ],
    [
      "स",
      "मा"
    ],
    [
      "19",
      "6"
    ],
    [
      "खा",
      "शे"
    ],
    [
      "थळ",
      "ाव"
    ],
    [
      "का",
      ".</w>"
    ],
    [
      "न",
      "ां"
    ],
    [
      "?",
      "</w>"
    ],
    [
      "ृ",
      "त्"
    ],
    [
      "म",
      "ज"
    ],
    [
      "कर",
      "ण</w>"
    ],
    [
      "ग",
      "ी</w>"
    ],
    [
      "हिंद",
      "ू</w>"
    ],
    [
      "्य",
      "ाचो</w>"
    ],
    [
      "इ",
      "ंग्"
    ],
    [
      "पा",
      "द"
    ],
    [
      "च",
      "्"
    ],
    [
      "स",
      "ांत</w>"
    ],
    [
      "कार",
      "ण</w>"
    ],
    [
      "म्हा",
      "का</w>"
    ],
    [
      "ति",
      "हा"
    ],
    [
      "नि",
      "मा"
    ],
    [
      "न",
      "य</w>"
    ],
    [
      "बां",
      "द"
    ],
    [
      "प",
      "द्द"
    ],
    [
      "फु",
      "ट"
    ],
    [
      "म",
      "ै"
    ],
    [
      "जाल्ल",
      "्या</w>"
    ],
    [
      "ध",
      "ी</w>"
    ],
    [
      "इ",
      "तिहा"
    ],
    [
      "म",
      "ॉ"
    ],
    [
      "ई",
      "</w>"
    ],
    [
      "ट",
      "ीं"
    ],
    [
      "ः",
      "</w>"
    ],
    [
      "प्रमा",
      "णांत</w>"
    ],
    [
      "व",
      "ॉ"
    ],
    [
      "आस",
      "ूं</w>"
    ],
    [
      "ग",
      "ां"
    ],
    [
      "ड",
      "िय"
    ],
    [
      "प",
      "ाचो</w>"
    ],
    [
      "च",
      "ो"
    ],
    [
      "ं",
      "त"
    ],
    [
      "वेगवेगळ",
      "्या</w>"
    ],
    [
      "च",
      "ीं</w>"
    ],
    [
      "िल्ल",
      "े</w>"
    ],
    [
      "-",
      "</w>"
    ],
    [
      "जाल",
      "ें.</w>"
    ],
    [
      "ट",
      "ांत</w>"
    ],
    [
      "भ",
      "ोंव"
    ],
    [
      "भि",
      "तर</w>"
    ],
    [
      "ब",
      "ार"
    ],
    [
      "वप",
      "ाचो</w>"
    ],
    [
      "शा",
      "स्त्र"
    ],
    [
      "थ",
      "</w>"
    ],
    [
      "ट",
      "ाय"
    ],
    [
      "ख",
      "र्"
    ],
    [
      "आ",
      "र्"
    ],
    [
      "आ",
      "तां</w>"
    ],
    [
      "व",
      "ीं</w>"
    ],
    [
      ",0",
      "00</w>"
    ],
    [
      "म",
      "ांत</w>"
    ],
    [
      "श",
      "ु"
    ],
    [
      "दु",
      "सऱ्या</w>"
    ],
    [
      "ू",
      "च</w>"
    ],
    [
      "म्हण",
      "्"
    ],
    [
      "आ",
      "स्"
    ],
    [
      "श",
      "ो"
    ],
    [
      "ति",
      "का</w>"
    ],
    [
      "्या",
      ".</w>"
    ],
    [
      "टा",
      "त</w>"
    ],
    [
      "उ",
      "ं"
    ],
    [
      "श",
      "ीक</w>"
    ],
    [
      "स",
      "ून</w>"
    ],
    [
      "19",
      "</w>"
    ],
    [
      "कु",
      "ट"
    ],
    [
      "द",
      "ू"
    ],
    [
      "ष्",
      "ट्र"
    ],
    [
      "परिणा",
      "म</w>"
    ],
    [
      "हा",
      "का</w>"
    ],
    [
      "दोन",
      "ूय</w>"
    ],
    [
      "ना",
      ",</w>"
    ],
    [
      "त",
      "ींत</w>"
    ],
    [
      "र",
      "िय"
    ],
    [
      "गो",
      "ल</w>"
    ],
    [
      "ग",
      "ांव"
    ],
    [
      "ब",
      "ी"
    ],
    [
      "ति",
      "णें</w>"
    ],
    [
      "ना",
      "ट"
    ],
    [
      "म",
      "नी"
    ],
    [
      "आशिल्ल",
      "ें</w>"
    ],
    [
      "दो",
      "ंग"
    ],
    [
      "मेळ",
      "टा.</w>"
    ],
    [
      "वापर",
      "तात.</w>"
    ],
    [
      "स",
      "न</w>"
    ],
    [
      "स",
      ",</w>"
    ],
    [
      "आशिल्ल",
      "ें.</w>"
    ],
    [
      "ट",
      "न</w>"
    ],
    [
      "मु",
      "ळ"
    ],
    [
      "र",
      "च"
    ],
    [
      "बद",
      "ल"
    ],
    [
      "ह",
      "ाय"
    ],
    [
      "यत्",
      "न</w>"
    ],
    [
      "म्",
      "प"
    ],
    [
      "व",
      "ो</w>"
    ],
    [
      "न",
      "ाचो</w>"
    ],
    [
      "कें",
      "द्र"
    ],
    [
      "पा",
      "व</w>"
    ],
    [
      "आशिल्ल",
      "े</w>"
    ],
    [
      "स",
      "ी."
    ],
    [
      "म",
      "ंत्र"
    ],
    [
      "सुरवा",
      "त</w>"
    ],
    [
      "वेव",
      "साय"
    ],
    [
      "फ",
      "ार"
    ],
    [
      "श",
      "ें</w>"
    ],
    [
      "वर्स",
      "ाच्या</w>"
    ],
    [
      "वर्",
      "सा,</w>"
    ],
    [
      "र",
      "ंग"
    ],
    [
      "ल",
      "य</w>"
    ],
    [
      "इ",
      "ंड"
    ],
    [
      "ग",
      "ण"
    ],
    [
      "्य",
      "ो.</w>"
    ],
    [
      "!",
      "</w>"
    ],
    [
      "श",
      "िय"
    ],
    [
      "वांगड",
      "ी</w>"
    ],
    [
      "लां",
      ".</w>"
    ],
    [
      "ख",
      "ो"
    ],
    [
      "तुज",
      "्या</w>"
    ],
    [
      "जाय",
      "ते</w>"
    ],
    [
      "ल",
      "ांत</w>"
    ],
    [
      "अ",
      "भ"
    ],
    [
      "ठ",
      "</w>"
    ],
    [
      "सादार",
      "ण"
    ],
    [
      "च",
      "्यो</w>"
    ],
    [
      "ल",
      "र</w>"
    ],
    [
      "य",
      "ल्ल"
    ],
    [
      "ग्र",
      "े"
    ],
    [
      "आ",
      "ड"
    ],
    [
      "दा",
      "द"
    ],
    [
      "वळ",
      "ख"
    ],
    [
      "त",
      "ांच्या</w>"
    ],
    [
      "रा",
      "ख"
    ],
    [
      "शा",
      "ळ"
    ],
    [
      "ध",
      "ो"
    ],
    [
      "मर",
      "ण</w>"
    ],
    [
      "क्",
      "ल"
    ],
    [
      "बाय",
      "ल"
    ],
    [
      "दे",
      "वळ"
    ],
    [
      "र",
      "ू"
    ],
    [
      "ग",
      "ी"
    ],
    [
      "पय",
      "शे</w>"
    ],
    [
      "आशिल्ल",
      "ी</w>"
    ],
    [
      "पंग",
      "ड</w>"
    ],
    [
      "अ",
      "द"
    ],
    [
      "के",
      "न्न"
    ],
    [
      "नी",
      ",</w>"
    ],
    [
      "ीं",
      "च</w>"
    ],
    [
      "ें",
      "च</w>"
    ],
    [
      "पुर",
      "स्"
    ],
    [
      "ब्रि",
      "टी"
    ],
    [
      "19",
      "5"
    ],
    [
      "ांव",
      "ड"
    ],
    [
      "ज",
      "ो</w>"
    ],
    [
      "म",
      "ध"
    ],
    [
      "नि",
      "व"
    ],
    [
      "भ",
      "र</w>"
    ],
    [
      "कि",
      "तें</w>"
    ],
    [
      "कर",
      "प</w>"
    ],
    [
      "उत्",
      "पाद"
    ],
    [
      "तां",
      "णी</w>"
    ],
    [
      "न्ह",
      "य"
    ],
    [
      "्य",
      "ताय</w>"
    ],
    [
      "माग",
      "ीर</w>"
    ],
    [
      "ह",
      "ांव"
    ],
    [
      "पा",
      "र्"
    ],
    [
      "अश",
      "ी</w>"
    ],
    [
      "म",
      "हा"
    ],
    [
      "प्र",
      "कार"
    ],
    [
      "र",
      "ण"
    ],
    [
      "सं",
      "स्"
    ],
    [
      "तु",
      "मी</w>"
    ],
    [
      "ये",
      "व"
    ],
    [
      "कुट",
      "ुं"
    ],
    [
      "ता",
      "न</w>"
    ],
    [
      "ह",
      "ीं</w>"
    ],
    [
      "ऑ",
      "लि"
    ],
    [
      "देख",
      "ून</w>"
    ],
    [
      "वां",
      "टो</w>"
    ],
    [
      "म्ह",
      "ाय"
    ],
    [
      "1",
      "0</w>"
    ],
    [
      "उ",
      "द्"
    ],
    [
      "क",
      "ल्प"
    ],
    [
      "सगळ",
      "्या</w>"
    ],
    [
      "ह",
      "</w>"
    ],
    [
      "म",
      "ां"
    ],
    [
      "सि",
      "नेम"
    ],
    [
      "त",
      "ंत्र"
    ],
    [
      "पा",
      "तळ"
    ],
    [
      ";",
      "</w>"
    ],
    [
      "वर",
      "वीं</w>"
    ],
    [
      "व",
      "न"
    ],
    [
      "झ",
      "ा"
    ],
    [
      "वि",
      "भाग"
    ],
    [
      "मान",
      "्य</w>"
    ],
    [
      "पयल",
      "्या</w>"
    ],
    [
      "दर्श",
      "ीत</w>"
    ],
    [
      "प",
      "र</w>"
    ],
    [
      "आप",
      "ली</w>"
    ],
    [
      "का",
      "वं"
    ],
    [
      "अश",
      "े</w>"
    ],
    [
      "ऑ",
      "स्ट्र"
    ],
    [
      "ज",
      "ून</w>"
    ],
    [
      "आस",
      "ता</w>"
    ],
    [
      "र्",
      "ड"
    ],
    [
      "प",
      "ार"
    ],
    [
      "मी",
      "टर</w>"
    ],
    [
      "स",
      "ल"
    ],
    [
      "प्रमा",
      "णें</w>"
    ],
    [
      "क",
      "ाय</w>"
    ],
    [
      "थ",
      "ा"
    ],
    [
      "अ",
      "ॅ"
    ],
    [
      "चित्रप",
      "ट</w>"
    ],
    [
      "शार",
      ".</w>"
    ],
    [
      "उ",
      "ड"
    ],
    [
      "स्थाप",
      "न</w>"
    ],
    [
      "बंद",
      "</w>"
    ],
    [
      "ं",
      "त</w>"
    ],
    [
      "टा",
      "क</w>"
    ],
    [
      "व्ह",
      "र"
    ],
    [
      "लग्",
      "न</w>"
    ],
    [
      "ब",
      "ळ"
    ],
    [
      "मा",
      "ळ"
    ],
    [
      "खा",
      "ला</w>"
    ],
    [
      "न",
      "ांतल्या</w>"
    ],
    [
      "प",
      "र्"
    ],
    [
      "आशिल्ल",
      "े.</w>"
    ],
    [
      "पर",
      "्य"
    ],
    [
      "भारत",
      "ांतल्या</w>"
    ],
    [
      "20",
      "2"
    ],
    [
      "स",
      "त्"
    ],
    [
      "िल्ल",
      "ें</w>"
    ],
    [
      "प",
      "श्"
    ],
    [
      "्य",
      "ाची</w>"
    ],
    [
      "व",
      "ें</w>"
    ],
    [
      "ो",
      "ज"
    ],
    [
      "र्",
      "ड</w>"
    ],
    [
      "ए",
      ".</w>"
    ],
    [
      "व",
      "स्त"
    ],
    [
      "आसा",
      "त</w>"
    ],
    [
      "ीं",
      ",</w>"
    ],
    [
      "स",
      "ॉ"
    ],
    [
      "जा",
      "ने"
    ],
    [
      "ना",
      "त.</w>"
    ],
    [
      "जा",
      "वपी</w>"
    ],
    [
      "ी",
      "क"
    ],
    [
      "ग",
      "र्"
    ],
    [
      "ाच",
      "े"
    ],
    [
      "ण",
      "े</w>"
    ],
    [
      "प्रमा",
      "ण</w>"
    ],
    [
      "वय",
      "र</w>"
    ],
    [
      "ां",
      "य</w>"
    ],
    [
      "करप",
      "ाची</w>"
    ],
    [
      "निर्",
      "मा"
    ],
    [
      "भ",
      "ौ"
    ],
    [
      "मार्",
      "ग"
    ],
    [
      "त्म",
      "क</w>"
    ],
    [
      "पा",
      "लि"
    ],
    [
      "म्हण",
      "टात.</w>"
    ],
    [
      "मा",
      "ल"
    ],
    [
      "संग",
      "ीत</w>"
    ],
    [
      "धा",
      "ड"
    ],
    [
      "अर्थ",
      "ीक</w>"
    ],
    [
      "ग",
      "ाय"
    ],
    [
      "जा",
      "ण"
    ],
    [
      "म्हय",
      "न"
    ],
    [
      "वि",
      "क्र"
    ],
    [
      "स",
      "."
    ],
    [
      "आस्",
      "पाव</w>"
    ],
    [
      "ं",
      "पर"
    ],
    [
      "सादारण",
      "पणान</w>"
    ],
    [
      "ह",
      "ांव</w>"
    ],
    [
      "ये",
      "तात.</w>"
    ],
    [
      "ता",
      "ये"
    ],
    [
      "र",
      "ांत</w>"
    ],
    [
      "ख",
      "रे"
    ],
    [
      "ग्र",
      "ा"
    ],
    [
      "ग",
      "र</w>"
    ],
    [
      "ली",
      "न</w>"
    ],
    [
      "ल्ल",
      "े"
    ],
    [
      "तक",
      "च</w>"
    ],
    [
      "का",
      "न</w>"
    ],
    [
      "म",
      "ें"
    ],
    [
      "श",
      "ार</w>"
    ],
    [
      "आ",
      "म"
    ],
    [
      "संवसार",
      "ीक</w>"
    ],
    [
      "य",
      "ू"
    ],
    [
      "ण",
      "ूक</w>"
    ],
    [
      "ल्ल",
      "ो</w>"
    ],
    [
      "सं",
      "स्थ"
    ],
    [
      "म",
      "ंड"
    ],
    [
      "क्",
      "टो"
    ],
    [
      "प",
      "दा"
    ],
    [
      "यो",
      "ग"
    ],
    [
      "हा",
      "ल"
    ],
    [
      "क",
      "ल</w>"
    ],
    [
      "ह",
      "वा"
    ],
    [
      "ब",
      "स"
    ],
    [
      "क",
      "ला"
    ],
    [
      "ें",
      "य</w>"
    ],
    [
      "घे",
      "वन</w>"
    ],
    [
      "सुर",
      "वे"
    ],
    [
      "वे",
      "ळ</w>"
    ],
    [
      "लोक",
      "संख"
    ],
    [
      "प्र",
      "ो"
    ],
    [
      "ण्",
      "ट"
    ],
    [
      "दी",
      "स</w>"
    ],
    [
      "कर",
      "ण"
    ],
    [
      "प",
      "ॉ"
    ],
    [
      "रा",
      "ष्ट्र"
    ],
    [
      "सा",
      "द"
    ],
    [
      "जा",
      "व"
    ],
    [
      "नगर",
      "पालि"
    ],
    [
      "व",
      "ख"
    ],
    [
      "लाग",
      "ीं</w>"
    ],
    [
      "सं",
      "सर्"
    ],
    [
      "यु",
      "रो"
    ],
    [
      "सा",
      "र</w>"
    ],
    [
      "ध्य",
      "क्ष</w>"
    ],
    [
      "प",
      "े</w>"
    ],
    [
      "ं",
      "ये"
    ],
    [
      "्य",
      "ां</w>"
    ],
    [
      "ल",
      ",</w>"
    ],
    [
      "र",
      "ो</w>"
    ],
    [
      "्य",
      "ाचें</w>"
    ],
    [
      "भु",
      "मि"
    ],
    [
      "्य",
      "ू"
    ],
    [
      "उप",
      "चार</w>"
    ],
    [
      "कर",
      "तात</w>"
    ],
    [
      "व्य",
      "क्"
    ],
    [
      "पर",
      "ंपर"
    ],
    [
      "पू",
      "र</w>"
    ],
    [
      "19",
      "4"
    ],
    [
      "ट्",
      "ट</w>"
    ],
    [
      "फ",
      "ॉ"
    ],
    [
      "म्हाय",
      "ती</w>"
    ],
    [
      "आसा",
      ",</w>"
    ],
    [
      "कर",
      "ता</w>"
    ],
    [
      "े",
      "क</w>"
    ],
    [
      "मन",
      "श"
    ],
    [
      "ता",
      "क</w>"
    ],
    [
      "जा",
      "ग"
    ],
    [
      "धा",
      "न"
    ],
    [
      "य",
      "ल</w>"
    ],
    [
      "से",
      "वा</w>"
    ],
    [
      "कार",
      "ी</w>"
    ],
    [
      "आद",
      "ार</w>"
    ],
    [
      "प",
      "ांच</w>"
    ],
    [
      "ट्",
      "ट"
    ],
    [
      "े",
      "च</w>"
    ],
    [
      "गर",
      "ज</w>"
    ],
    [
      "ब्रिटी",
      "श</w>"
    ],
    [
      "तुम",
      "कां</w>"
    ],
    [
      "आप",
      "लो</w>"
    ],
    [
      "ांच",
      "्यो</w>"
    ],
    [
      "व",
      "ण</w>"
    ],
    [
      "ह",
      "ां"
    ],
    [
      "1",
      "0"
    ],
    [
      "ब",
      "रो"
    ],
    [
      "फुड",
      "ें</w>"
    ],
    [
      "कि",
      "तल"
    ],
    [
      "व",
      "्या"
    ],
    [
      "मान",
      "तात.</w>"
    ],
    [
      "ला",
      "न</w>"
    ],
    [
      "म्हण",
      "ून</w>"
    ],
    [
      "भारत",
      "ांत</w>"
    ],
    [
      "कर",
      "पाखातीर</w>"
    ],
    [
      "र्",
      "स</w>"
    ],
    [
      "ल",
      "ां</w>"
    ],
    [
      "ड",
      "ी.</w>"
    ],
    [
      "प्र",
      "वा"
    ],
    [
      "ध",
      "र्"
    ],
    [
      "घ",
      "ो"
    ],
    [
      "कॅ",
      "न"
    ],
    [
      "्रा",
      "ज"
    ],
    [
      "फि",
      "ल्"
    ],
    [
      "जा",
      "तात.</w>"
    ],
    [
      "उ",
      "क्"
    ],
    [
      "म",
      "ण"
    ],
    [
      "साम",
      "्राज"
    ],
    [
      "एक",
      "ठ"
    ],
    [
      "द",
      "ान</w>"
    ],
    [
      "ह",
      "्यो</w>"
    ],
    [
      "ब",
      "ं"
    ],
    [
      "ब्र",
      "ु"
    ],
    [
      "संस्",
      "कृ"
    ],
    [
      "चित्रप",
      "ट"
    ],
    [
      "खेळ",
      "्ळ"
    ],
    [
      "वि",
      "मान"
    ],
    [
      "य",
      "त</w>"
    ],
    [
      "वा",
      "र</w>"
    ],
    [
      "फुड",
      "ार"
    ],
    [
      "डि",
      "स"
    ],
    [
      "घ",
      "ु"
    ],
    [
      "ट्",
      "स</w>"
    ],
    [
      "त्",
      "व</w>"
    ],
    [
      "म्हण",
      "ल्यार</w>"
    ],
    [
      "वाठार",
      "ांत</w>"
    ],
    [
      "त्र",
      "ी</w>"
    ],
    [
      "िल्ल",
      "ी</w>"
    ],
    [
      "सै",
      "न"
    ],
    [
      "साम",
      "क"
    ],
    [
      "प",
      "सून</w>"
    ],
    [
      "प",
      "ा</w>"
    ],
    [
      "अ",
      "नु"
    ],
    [
      "प",
      "ाय"
    ],
    [
      "ऑस्ट्र",
      "े"
    ],
    [
      "खे",
      "पे</w>"
    ],
    [
      "ज",
      "य"
    ],
    [
      "थार",
      "ाय"
    ],
    [
      "इतिहा",
      "स"
    ],
    [
      "ू",
      "न,</w>"
    ],
    [
      "्य",
      "ाचे</w>"
    ],
    [
      "ण",
      "ी"
    ],
    [
      "आय",
      "."
    ],
    [
      "3",
      "0</w>"
    ],
    [
      "ट",
      "क"
    ],
    [
      "ज",
      "ा</w>"
    ],
    [
      "वि",
      "ध"
    ],
    [
      "ट",
      "क्क"
    ],
    [
      "1",
      "7"
    ],
    [
      "करप",
      "ाचो</w>"
    ],
    [
      "व",
      "र</w>"
    ],
    [
      "म",
      "े</w>"
    ],
    [
      "उ",
      "णी</w>"
    ],
    [
      "सं",
      "घ"
    ],
    [
      "ां",
      ",</w>"
    ],
    [
      "निय",
      "ंत्र"
    ],
    [
      "न्य",
      "ू"
    ],
    [
      "दक्षि",
      "ण</w>"
    ],
    [
      "पिराय",
      "ेच्या</w>"
    ],
    [
      "तर",
      "राश्ट्रीय</w>"
    ],
    [
      "शन",
      "ल</w>"
    ],
    [
      "खंय",
      "च"
    ],
    [
      "ये",
      "ता</w>"
    ],
    [
      "एकठ",
      "ांय</w>"
    ],
    [
      "दुसर",
      "ो</w>"
    ],
    [
      "201",
      "0</w>"
    ],
    [
      "क",
      "ेंत</w>"
    ],
    [
      "बर",
      "ी</w>"
    ],
    [
      "जाल",
      "ो</w>"
    ],
    [
      "आप",
      "ले</w>"
    ],
    [
      "झ",
      "ि"
    ],
    [
      "प",
      "ांवड"
    ],
    [
      "अमेरिके",
      "च्या</w>"
    ],
    [
      "वं",
      "श"
    ],
    [
      "आयल",
      "ें.</w>"
    ],
    [
      "जल्",
      "म</w>"
    ],
    [
      "ज",
      "ॅ"
    ],
    [
      "सारक",
      "्या</w>"
    ],
    [
      "ह",
      "र"
    ],
    [
      "सुवा",
      "त</w>"
    ],
    [
      "जाने",
      "वारी</w>"
    ],
    [
      "्या",
      "त.</w>"
    ],
    [
      "ो",
      "वंक</w>"
    ],
    [
      "आय",
      ".</w>"
    ],
    [
      "वळ",
      "ेर"
    ],
    [
      "मे",
      "रे"
    ],
    [
      "दि",
      "तात.</w>"
    ],
    [
      "म",
      ".</w>"
    ],
    [
      "श",
      "ेन</w>"
    ],
    [
      "ष्",
      "ण"
    ],
    [
      "जा",
      "वन</w>"
    ],
    [
      "नो",
      "व्ह"
    ],
    [
      "न्य",
      "ाय"
    ],
    [
      "म",
      "न</w>"
    ],
    [
      "द",
      "ार</w>"
    ],
    [
      "व्ह",
      "र्"
    ],
    [
      "वि",
      "श्"
    ],
    [
      "पो",
      "र्"
    ],
    [
      "पा",
      "स"
    ],
    [
      "के",
      "न्ना</w>"
    ],
    [
      "राज",
      "ा</w>"
    ],
    [
      "प",
      "ी.</w>"
    ],
    [
      "टा",
      "न</w>"
    ],
    [
      "ीं",
      "नी</w>"
    ],
    [
      "सांग",
      "लें.</w>"
    ],
    [
      "्य",
      "ांच्या</w>"
    ],
    [
      "जाल",
      "ी</w>"
    ],
    [
      "चडश",
      "े</w>"
    ],
    [
      "भा",
      "व</w>"
    ],
    [
      "कार",
      "्य"
    ],
    [
      "प्र",
      "शिक्ष"
    ],
    [
      "कंप",
      "नी"
    ],
    [
      "य",
      "ो</w>"
    ],
    [
      "कार्या",
      "वळ"
    ],
    [
      "प्रि",
      "य</w>"
    ],
    [
      "ांच",
      "े"
    ],
    [
      "का",
      "ळ</w>"
    ],
    [
      "ब्र",
      "ा"
    ],
    [
      "वाठार",
      "ांनी</w>"
    ],
    [
      "त्र",
      "ि"
    ],
    [
      "ह",
      "ाचो</w>"
    ],
    [
      "शि",
      "क"
    ],
    [
      "प्र",
      "दर्शीत</w>"
    ],
    [
      "समा",
      "ज"
    ],
    [
      "ज",
      "र्म"
    ],
    [
      "पा",
      "ळ"
    ],
    [
      "ब",
      "ो</w>"
    ],
    [
      "मा",
      "क</w>"
    ],
    [
      "ज",
      "ुं"
    ],
    [
      "उ",
      "ल्ले"
    ],
    [
      "पुरस्",
      "कार</w>"
    ],
    [
      "पयल",
      "ी</w>"
    ],
    [
      "20",
      "20</w>"
    ],
    [
      "1",
      "5"
    ],
    [
      "त",
      "ाचेर</w>"
    ],
    [
      "क",
      "रा"
    ],
    [
      "वट",
      "ेन</w>"
    ],
    [
      "वर्",
      "ण"
    ],
    [
      "संबंद",
      "ीत</w>"
    ],
    [
      "अभ",
      "्या"
    ],
    [
      "अ",
      "व"
    ],
    [
      "द",
      "ां</w>"
    ],
    [
      "संग",
      "ी"
    ],
    [
      "मध",
      "्य</w>"
    ],
    [
      "पळ",
      "य"
    ],
    [
      "टे",
      "ड</w>"
    ],
    [
      "वेवसाय",
      "ीक</w>"
    ],
    [
      "लोक",
      "प्रिय</w>"
    ],
    [
      "वेव",
      "स्थ"
    ],
    [
      "क्र",
      "ो"
    ],
    [
      "ल",
      ".</w>"
    ],
    [
      "व",
      "ट्ट</w>"
    ],
    [
      "न",
      "र्"
    ],
    [
      "फुट",
      "बॉल</w>"
    ],
    [
      "स",
      "र</w>"
    ],
    [
      "द",
      "ो</w>"
    ],
    [
      "उ",
      "णें</w>"
    ],
    [
      "क",
      ".</w>"
    ],
    [
      "ां",
      "खातीर</w>"
    ],
    [
      "कॉ",
      "र्"
    ],
    [
      "त",
      "रेन</w>"
    ],
    [
      "ब",
      "ार</w>"
    ],
    [
      "ी",
      "ण</w>"
    ],
    [
      "ब",
      "ी."
    ],
    [
      "नॅ",
      "शनल</w>"
    ],
    [
      "त",
      "्य</w>"
    ],
    [
      "य",
      "े</w>"
    ],
    [
      "िल्ल",
      "ो.</w>"
    ],
    [
      "ह",
      "ंगा"
    ],
    [
      "भ",
      "ो"
    ],
    [
      "शा",
      "क</w>"
    ],
    [
      "ख",
      "ण"
    ],
    [
      "दिस",
      "ता.</w>"
    ],
    [
      "पड",
      "टा.</w>"
    ],
    [
      "न",
      "र</w>"
    ],
    [
      "श्",
      "ट"
    ],
    [
      "म",
      ",</w>"
    ],
    [
      "्य",
      "ांची</w>"
    ],
    [
      "न्ह",
      "ंये"
    ],
    [
      "क",
      "स"
    ],
    [
      "क",
      "ब"
    ],
    [
      "देश",
      "</w>"
    ],
    [
      "स्ट",
      "ि"
    ],
    [
      "ता",
      "तूं"
    ],
    [
      "ऑ",
      "ग"
    ],
    [
      "ला",
      "क</w>"
    ],
    [
      "उण",
      "ो</w>"
    ],
    [
      "जाय",
      ".</w>"
    ],
    [
      "ज",
      "ार"
    ],
    [
      "देव",
      "ू"
    ],
    [
      "्य",
      "ाच</w>"
    ],
    [
      "सप्",
      "ट"
    ],
    [
      "वस्त",
      "ू</w>"
    ],
    [
      "च",
      "ाय"
    ],
    [
      "मे",
      "लो.</w>"
    ],
    [
      "तुम",
      "च्या</w>"
    ],
    [
      "सर्",
      "त</w>"
    ],
    [
      "एक",
      "े</w>"
    ],
    [
      "आ",
      "ल्"
    ],
    [
      "कि",
      "लो"
    ],
    [
      "क",
      "ल"
    ],
    [
      "ड",
      "ाय"
    ],
    [
      "क",
      "ाच्या</w>"
    ],
    [
      "मार्",
      "ग</w>"
    ],
    [
      "ऑ",
      "क्टो"
    ],
    [
      "ले",
      "ख"
    ],
    [
      "ज",
      "पा"
    ],
    [
      "लो",
      "कां"
    ],
    [
      "प्रति",
      "नि"
    ],
    [
      "उपर",
      "ांत,</w>"
    ],
    [
      "आशिल्ल",
      "्यान</w>"
    ],
    [
      "ज",
      "ू"
    ],
    [
      "ग",
      "ॅ"
    ],
    [
      "ख",
      "र"
    ],
    [
      "खर्",
      "च</w>"
    ],
    [
      "त",
      "ांत</w>"
    ],
    [
      "ह",
      "ाची</w>"
    ],
    [
      "हा",
      "णें</w>"
    ],
    [
      "त",
      "ांचे</w>"
    ],
    [
      "अर्थ",
      "</w>"
    ],
    [
      "आद",
      "ीं</w>"
    ],
    [
      "्र",
      "ो"
    ],
    [
      "बा",
      "ळ"
    ],
    [
      "ग",
      "ं"
    ],
    [
      "अमेरि",
      "कें"
    ],
    [
      "ड",
      "ा</w>"
    ],
    [
      "ती",
      "च्या</w>"
    ],
    [
      "केल्ल",
      "ी.</w>"
    ],
    [
      "क्षे",
      "त्र"
    ],
    [
      "ण",
      "ुक"
    ],
    [
      "्य",
      "ांतल्या</w>"
    ],
    [
      "के",
      "र"
    ],
    [
      "दि",
      "ता.</w>"
    ],
    [
      "खा",
      "स</w>"
    ],
    [
      "स",
      "ग"
    ],
    [
      "ल्",
      "ड</w>"
    ],
    [
      "च",
      "व"
    ],
    [
      "मु",
      "खा"
    ],
    [
      "जै",
      "न</w>"
    ],
    [
      "निर्मा",
      "ण</w>"
    ],
    [
      "बर",
      "ो</w>"
    ],
    [
      "ली",
      ",</w>"
    ],
    [
      "वाठ",
      "ार</w>"
    ],
    [
      "ँ",
      "ड"
    ],
    [
      "गो",
      "ल"
    ],
    [
      "वा",
      "क</w>"
    ],
    [
      "प",
      "ाचें</w>"
    ],
    [
      "प",
      "त्र"
    ],
    [
      "कंप",
      "नी</w>"
    ],
    [
      "पू",
      "त</w>"
    ],
    [
      "का",
      "क</w>"
    ],
    [
      "प्रमा",
      "ण"
    ],
    [
      "सक",
      "यल</w>"
    ],
    [
      "1",
      "2</w>"
    ],
    [
      "गि",
      "राय"
    ],
    [
      "ल",
      "ीं</w>"
    ],
    [
      "इं",
      "टर"
    ],
    [
      "दु",
      "का"
    ],
    [
      "ड",
      "ु"
    ],
    [
      "ांच",
      "ीं</w>"
    ],
    [
      "वप",
      "ा</w>"
    ],
    [
      "भ",
      "शेन</w>"
    ],
    [
      "शार",
      "ांत</w>"
    ],
    [
      "सा",
      "ध"
    ],
    [
      "ट",
      "ी.</w>"
    ],
    [
      "वेंच",
      "ून</w>"
    ],
    [
      "कुटुं",
      "ब"
    ],
    [
      "प्र",
      "कार</w>"
    ],
    [
      "रो",
      "ख"
    ],
    [
      "श",
      "ै"
    ],
    [
      "त",
      "ेर</w>"
    ],
    [
      "र",
      "ां"
    ],
    [
      "त",
      "ांचो</w>"
    ],
    [
      "म्हा",
      "का.</w>"
    ],
    [
      "तु",
      "वें</w>"
    ],
    [
      "म",
      "ळ"
    ],
    [
      "न्",
      "न</w>"
    ],
    [
      "ी",
      "च्या</w>"
    ],
    [
      "जा",
      "ह"
    ],
    [
      "ण",
      "ीं</w>"
    ],
    [
      "अद",
      "मा"
    ],
    [
      "ड",
      "ी."
    ],
    [
      "भा",
      "श"
    ],
    [
      ":",
      "</w>"
    ],
    [
      "1",
      "5</w>"
    ],
    [
      "जल्",
      "म"
    ],
    [
      "ं",
      "पि"
    ],
    [
      "शक",
      "ता</w>"
    ],
    [
      "वप",
      "ाचें</w>"
    ],
    [
      "च",
      "ौ"
    ],
    [
      "ग",
      "ांत</w>"
    ],
    [
      "तीं",
      "नी</w>"
    ],
    [
      "भ",
      "ू"
    ],
    [
      "क",
      "य</w>"
    ],
    [
      "िल्ल",
      "्यान</w>"
    ],
    [
      "20",
      "19</w>"
    ],
    [
      "े",
      "चो</w>"
    ],
    [
      "ल्",
      "स</w>"
    ],
    [
      "झ",
      "</w>"
    ],
    [
      "केल्ल",
      "ो</w>"
    ],
    [
      "जाह",
      "ीर</w>"
    ],
    [
      "दि",
      "वपी</w>"
    ],
    [
      "मार्",
      "च</w>"
    ],
    [
      "मंत्र",
      "ी</w>"
    ],
    [
      "आस",
      "तात</w>"
    ],
    [
      "थ",
      "ोड"
    ],
    [
      "भारत",
      "ाच्या</w>"
    ],
    [
      "ज",
      "न</w>"
    ],
    [
      "रे",
      "ल्"
    ],
    [
      "पू",
      "ण,</w>"
    ],
    [
      "स",
      "ाच्या</w>"
    ],
    [
      "फे",
      "ब्रु"
    ],
    [
      "संग",
      "ण"
    ],
    [
      "्य",
      "ांचो</w>"
    ],
    [
      "रा",
      "ण"
    ],
    [
      "ना",
      "त</w>"
    ],
    [
      "दर",
      "्या"
    ],
    [
      "ल",
      "्यो</w>"
    ],
    [
      "लक्ष",
      "</w>"
    ],
    [
      "द",
      "ाव"
    ],
    [
      "201",
      "1</w>"
    ],
    [
      "अ",
      "स्त"
    ],
    [
      "प",
      "क्ष"
    ],
    [
      "तु",
      "ळ"
    ],
    [
      "ी",
      "क,</w>"
    ],
    [
      "मू",
      "ळ</w>"
    ],
    [
      "त",
      "ांची</w>"
    ],
    [
      "वा",
      "न"
    ],
    [
      "ए",
      "का"
    ],
    [
      "पु",
      "र्व"
    ],
    [
      "क्",
      "सि"
    ],
    [
      "ब",
      "ी.</w>"
    ],
    [
      "खरे",
      "दी</w>"
    ],
    [
      "ले",
      ",</w>"
    ],
    [
      "1",
      "6"
    ],
    [
      "ल",
      "ुक"
    ],
    [
      "ट",
      "ॉ"
    ],
    [
      "म",
      "ध्य"
    ],
    [
      "च",
      ",</w>"
    ],
    [
      "ल्",
      "ह"
    ],
    [
      "सा",
      "ण</w>"
    ],
    [
      "स्व",
      "ी"
    ],
    [
      "सु",
      "दार"
    ],
    [
      "फ्र",
      "ि"
    ],
    [
      "भुमि",
      "का</w>"
    ],
    [
      "तल",
      "ो.</w>"
    ],
    [
      "सोद",
      "ून</w>"
    ],
    [
      "ता",
      "लो.</w>"
    ],
    [
      "घे",
      "त"
    ],
    [
      "उप",
      "े"
    ],
    [
      "वा",
      "द</w>"
    ],
    [
      "भौ",
      "शीक</w>"
    ],
    [
      "ख",
      "र</w>"
    ],
    [
      "ख",
      "ंड"
    ],
    [
      "201",
      "2</w>"
    ],
    [
      "म्हज",
      "्या</w>"
    ],
    [
      "आस",
      "ता,</w>"
    ],
    [
      "बाय",
      "ल</w>"
    ],
    [
      "चॅ",
      "म्प"
    ],
    [
      "न",
      "व्या</w>"
    ],
    [
      "दरे",
      "का</w>"
    ],
    [
      "उत्",
      "तरे"
    ],
    [
      "ल्",
      "ड"
    ],
    [
      "च्",
      "च</w>"
    ],
    [
      "अ",
      "प"
    ],
    [
      "न",
      "ाची</w>"
    ],
    [
      "्य",
      "ो"
    ],
    [
      "स",
      "रा"
    ],
    [
      "आप",
      "लें</w>"
    ],
    [
      "द्",
      "र</w>"
    ],
    [
      "सर",
      "ी</w>"
    ],
    [
      "ा",
      "ळ"
    ],
    [
      "स",
      "ह"
    ],
    [
      "ख",
      "ु"
    ],
    [
      "ध",
      "ु"
    ],
    [
      "येव",
      "ज"
    ],
    [
      "केल्ल",
      "ी</w>"
    ],
    [
      "वा",
      "पर</w>"
    ],
    [
      "े",
      ",</w>"
    ],
    [
      "स्",
      "वि"
    ],
    [
      "द",
      "ाय"
    ],
    [
      "ज",
      "र</w>"
    ],
    [
      "पूर्",
      "व</w>"
    ],
    [
      "प",
      "ांत</w>"
    ],
    [
      "भोंव",
      "त"
    ],
    [
      "अ",
      "ण"
    ],
    [
      "ग",
      "ल</w>"
    ],
    [
      "सु",
      "च"
    ],
    [
      "’",
      "</w>"
    ],
    [
      "काड",
      "ून</w>"
    ],
    [
      "राज",
      "्यांत</w>"
    ],
    [
      "सं",
      "घट"
    ],
    [
      "न्ह",
      "ंय</w>"
    ],
    [
      "ल",
      "ीं.</w>"
    ],
    [
      "वा",
      "ह"
    ],
    [
      "फ",
      "ू"
    ],
    [
      "भ",
      "लाय"
    ],
    [
      "व्ह",
      "</w>"
    ],
    [
      "थळाव",
      "्या</w>"
    ],
    [
      "स",
      "यत</w>"
    ],
    [
      "ह",
      "ांचो</w>"
    ],
    [
      "च",
      "लय"
    ],
    [
      "रा",
      "त"
    ],
    [
      "राज्य",
      "ांतल्या</w>"
    ],
    [
      "उत्स",
      "व</w>"
    ],
    [
      "ज",
      "ॉ"
    ],
    [
      "5",
      "0</w>"
    ],
    [
      "पं",
      "जा"
    ],
    [
      "मुखे",
      "ल"
    ],
    [
      "न्",
      "ना"
    ],
    [
      "अ",
      "ँ"
    ],
    [
      "नो",
      "ंद</w>"
    ],
    [
      "पड",
      "ट"
    ],
    [
      "द्",
      "ध</w>"
    ],
    [
      "मा",
      "त"
    ],
    [
      "झ",
      "ो"
    ],
    [
      "200",
      "8</w>"
    ],
    [
      "त",
      "ं"
    ],
    [
      "ट",
      "र्"
    ],
    [
      "फ",
      ".</w>"
    ],
    [
      "शा",
      "स"
    ],
    [
      "म",
      "ीक</w>"
    ],
    [
      "दि",
      "व"
    ],
    [
      "201",
      "7</w>"
    ],
    [
      "ऑलि",
      "ंपि"
    ],
    [
      "घे",
      "वंक</w>"
    ],
    [
      "स्ट",
      "ो"
    ],
    [
      "ल्य",
      "ू"
    ],
    [
      "सम",
      "स"
    ],
    [
      "र",
      "े</w>"
    ],
    [
      "सि",
      "ं"
    ],
    [
      "ं",
      "</w>"
    ],
    [
      "स",
      "ें"
    ],
    [
      "क",
      "ांनी</w>"
    ],
    [
      "स",
      "व"
    ],
    [
      "परि",
      "स्थि"
    ],
    [
      "व्ह",
      "े"
    ],
    [
      "द",
      "ा</w>"
    ],
    [
      "ना",
      "ड"
    ],
    [
      "ज्ञ",
      "ा"
    ],
    [
      "ण्",
      "ड"
    ],
    [
      "सं",
      "के"
    ],
    [
      "बद",
      "ल</w>"
    ],
    [
      "त",
      "रा"
    ],
    [
      "अश",
      "ेंय</w>"
    ],
    [
      "लाय",
      "न</w>"
    ],
    [
      "प्रदेश",
      "</w>"
    ],
    [
      "प",
      "ी."
    ],
    [
      "मां",
      "ड"
    ],
    [
      "सुवा",
      "तेर</w>"
    ],
    [
      "नास",
      "तना</w>"
    ],
    [
      "मज",
      "त</w>"
    ],
    [
      "पयल",
      "ेच</w>"
    ],
    [
      "का",
      "ँ"
    ],
    [
      "आं",
      "कड"
    ],
    [
      "ति",
      "च्या</w>"
    ],
    [
      "य",
      "ेंत</w>"
    ],
    [
      "नोव्ह",
      "ेंबर</w>"
    ],
    [
      "टक्क",
      "े</w>"
    ],
    [
      "उद",
      "क</w>"
    ],
    [
      "नाम",
      "ने"
    ],
    [
      "र",
      "ाच्या</w>"
    ],
    [
      "ब",
      "ड"
    ],
    [
      "स्",
      "वर"
    ],
    [
      "ए",
      "स.</w>"
    ],
    [
      "सॉ",
      "फ्"
    ],
    [
      "वि",
      "चार"
    ],
    [
      "संबंद",
      "</w>"
    ],
    [
      "फो",
      "र्"
    ],
    [
      "य",
      "ता.</w>"
    ],
    [
      "ळ",
      "ी</w>"
    ],
    [
      "उल्ले",
      "ख</w>"
    ],
    [
      "क",
      "े</w>"
    ],
    [
      "त",
      "ाचे"
    ],
    [
      "2",
      "5</w>"
    ],
    [
      "श",
      "ा</w>"
    ],
    [
      "ह",
      "ांचे</w>"
    ],
    [
      "चडश",
      "ा</w>"
    ],
    [
      "क",
      "थ"
    ],
    [
      "पु",
      "स्त"
    ],
    [
      "व",
      "ाच"
    ],
    [
      "केल",
      "ां.</w>"
    ],
    [
      "वि",
      "शा"
    ],
    [
      "हा",
      "तूंत</w>"
    ],
    [
      "दि",
      "ग्"
    ],
    [
      "उ",
      "तर"
    ],
    [
      "जाल्ल",
      "ो.</w>"
    ],
    [
      "केन्न",
      "ाय</w>"
    ],
    [
      "1",
      "4</w>"
    ],
    [
      "वयल",
      "्यान</w>"
    ],
    [
      "द",
      "सक"
    ],
    [
      "थ",
      "ि"
    ],
    [
      "दो",
      "ळ"
    ],
    [
      "मो",
      "ड"
    ],
    [
      "च",
      "ुक"
    ],
    [
      "टा",
      "त,</w>"
    ],
    [
      "सद",
      "ांच</w>"
    ],
    [
      "ड",
      "ब्"
    ],
    [
      "यु",
      "नाय"
    ],
    [
      "अभि",
      "ने"
    ],
    [
      "ण",
      "ाक</w>"
    ],
    [
      "नि",
      "श्"
    ],
    [
      "क्र",
      "िया</w>"
    ],
    [
      "दाद",
      "ल्य"
    ],
    [
      "ज",
      "ना"
    ],
    [
      "न",
      "ृ"
    ],
    [
      "वि",
      "रो"
    ],
    [
      "दि",
      "ली.</w>"
    ],
    [
      "राज",
      "धा"
    ],
    [
      "उ",
      "श्"
    ],
    [
      "क",
      "ाचो</w>"
    ],
    [
      "मुळ",
      "ाव"
    ],
    [
      "ग्र",
      "ं"
    ],
    [
      "मुखेल",
      "पणान</w>"
    ],
    [
      ".",
      "ऍ"
    ],
    [
      "देख",
      "ीक,</w>"
    ],
    [
      "पय",
      "स</w>"
    ],
    [
      "इ",
      "न्"
    ],
    [
      "्य",
      "ार,</w>"
    ],
    [
      "त",
      "न"
    ],
    [
      "अर्",
      "द"
    ],
    [
      "म",
      "्यु"
    ],
    [
      "ोव",
      "पाक</w>"
    ],
    [
      "जाल्ल",
      "े</w>"
    ],
    [
      "ज",
      "े</w>"
    ],
    [
      "ग",
      "ार</w>"
    ],
    [
      "लोकसंख",
      "्या</w>"
    ],
    [
      "मनी",
      "स</w>"
    ],
    [
      "ा",
      "खातीर</w>"
    ],
    [
      "ण",
      "ाव"
    ],
    [
      "उज",
      "वाड"
    ],
    [
      "अ",
      "ति"
    ],
    [
      "सप्ट",
      "ेंबर</w>"
    ],
    [
      "अमेरि",
      "कन</w>"
    ],
    [
      "द",
      "ें"
    ],
    [
      "जाल्ल",
      "ो</w>"
    ],
    [
      "सं",
      "पर्"
    ],
    [
      "कर",
      "ी</w>"
    ],
    [
      "मन",
      "यतात.</w>"
    ],
    [
      "दि",
      "लो.</w>"
    ],
    [
      "डिस",
      "ेंबर</w>"
    ],
    [
      "ग",
      "ट"
    ],
    [
      "भ",
      "ोव"
    ],
    [
      "र्थ",
      "</w>"
    ],
    [
      "सा",
      "मान्य</w>"
    ],
    [
      "सा",
      "व"
    ],
    [
      "ती",
      "चो</w>"
    ],
    [
      "ह",
      "ाचे</w>"
    ],
    [
      "फेब्रु",
      "वारी</w>"
    ],
    [
      "कर",
      ".</w>"
    ],
    [
      "दि",
      "वंक</w>"
    ],
    [
      "कि",
      "स्ता"
    ],
    [
      "च",
      "ांच"
    ],
    [
      "कृ",
      "त</w>"
    ],
    [
      "मु",
      "सल"
    ],
    [
      "%",
      "</w>"
    ],
    [
      "जन",
      "गण"
    ],
    [
      "ता",
      "र"
    ],
    [
      "मुखा",
      "र</w>"
    ],
    [
      "वा",
      "दी</w>"
    ],
    [
      "जाय",
      "त्यो</w>"
    ],
    [
      "च",
      "क्र"
    ],
    [
      "गा",
      "ड"
    ],
    [
      "वापर",
      "ून</w>"
    ],
    [
      "वर्ण",
      "न</w>"
    ],
    [
      "व्हड",
      "लो</w>"
    ],
    [
      "ल्या",
      "त.</w>"
    ],
    [
      "201",
      "6</w>"
    ],
    [
      "व",
      "ु"
    ],
    [
      "म",
      "रा"
    ],
    [
      "के",
      "ट</w>"
    ],
    [
      "ख",
      "्या"
    ],
    [
      "ाल",
      "य"
    ],
    [
      "म्हय",
      "न्य"
    ],
    [
      "त्र",
      "ा"
    ],
    [
      "यल",
      "ें.</w>"
    ],
    [
      "ह",
      "्"
    ],
    [
      "मर",
      "्या"
    ],
    [
      "201",
      "3</w>"
    ],
    [
      "भार",
      "त</w>"
    ],
    [
      "प्र",
      "े"
    ],
    [
      "व",
      "स"
    ],
    [
      "201",
      "8</w>"
    ],
    [
      "क",
      "र्म"
    ],
    [
      "चॅम्प",
      "िय"
    ],
    [
      "ऑक्टो",
      "बर</w>"
    ],
    [
      "स्",
      "तु"
    ],
    [
      "जु",
      "लय</w>"
    ],
    [
      "फार",
      "ीक</w>"
    ],
    [
      "च",
      "क"
    ],
    [
      "1",
      "1</w>"
    ],
    [
      "गु",
      "ंत"
    ],
    [
      "वां",
      "ट"
    ],
    [
      "ीं",
      "च्या</w>"
    ],
    [
      "अ",
      "र"
    ],
    [
      "करप",
      "ा</w>"
    ],
    [
      "ां",
      "क"
    ],
    [
      "खा",
      "त्री</w>"
    ],
    [
      "्य",
      "ांचेर</w>"
    ],
    [
      "थ",
      "े"
    ],
    [
      "बर",
      "ें</w>"
    ],
    [
      "संसर्",
      "ग</w>"
    ],
    [
      "स्",
      "क"
    ],
    [
      "श",
      "ॉ"
    ],
    [
      "हार",
      "ा"
    ],
    [
      "क्ष",
      "ा</w>"
    ],
    [
      "व्ह",
      "ांव"
    ],
    [
      "प",
      ",</w>"
    ],
    [
      "ए",
      "न"
    ],
    [
      "ध्",
      "द</w>"
    ],
    [
      "त",
      "ों"
    ],
    [
      "ऑग",
      "स्ट</w>"
    ],
    [
      "कु",
      "ड"
    ],
    [
      "ब",
      "ौ"
    ],
    [
      "जाल्ल",
      "्यान</w>"
    ],
    [
      "1",
      "8</w>"
    ],
    [
      "ना",
      "ग"
    ],
    [
      "वि",
      "चार</w>"
    ],
    [
      "वाय",
      "ट</w>"
    ],
    [
      "य",
      ",</w>"
    ],
    [
      "इ",
      "स्"
    ],
    [
      "देश",
      "ांनी</w>"
    ],
    [
      "स",
      "ाचो</w>"
    ],
    [
      "दक्षि",
      "णे"
    ],
    [
      "तल",
      "े.</w>"
    ],
    [
      "अ",
      "पे"
    ],
    [
      "काय",
      "द"
    ],
    [
      "वं",
      "</w>"
    ],
    [
      "डब्",
      "ल्यू"
    ],
    [
      "व",
      "स्ता"
    ],
    [
      "निमा",
      "ण"
    ],
    [
      "सा",
      "हि"
    ],
    [
      "देवू",
      "ळ</w>"
    ],
    [
      "केल्ल",
      "ो.</w>"
    ],
    [
      "गर",
      "जे"
    ],
    [
      "आसा",
      "त,</w>"
    ],
    [
      "म",
      "हारा"
    ],
    [
      "न",
      "ो</w>"
    ],
    [
      "पण",
      "ा"
    ],
    [
      "ां",
      "नी,</w>"
    ],
    [
      "स्ट",
      "ॉ"
    ],
    [
      "ट",
      ",</w>"
    ],
    [
      "ण",
      "ु"
    ],
    [
      "सगळ",
      "े</w>"
    ],
    [
      "त",
      "मि"
    ],
    [
      "वा",
      "ड</w>"
    ],
    [
      "पयल",
      "ें</w>"
    ],
    [
      "गुंत",
      "वण"
    ],
    [
      "जाय",
      "तीं</w>"
    ],
    [
      "201",
      "4</w>"
    ],
    [
      "प्",
      "ले"
    ],
    [
      "आर",
      ".</w>"
    ],
    [
      "जाल",
      "ें</w>"
    ],
    [
      "युनाय",
      "टेड</w>"
    ],
    [
      "म्हण्",
      "टात.</w>"
    ],
    [
      "1",
      "6</w>"
    ],
    [
      "अ",
      "ध्यक्ष</w>"
    ],
    [
      "कर",
      "ूं</w>"
    ],
    [
      "भा",
      "स</w>"
    ],
    [
      "गु",
      "र"
    ],
    [
      "्य",
      "ाय</w>"
    ],
    [
      "सोड",
      "ून</w>"
    ],
    [
      "अमेरि",
      "की</w>"
    ],
    [
      "ल",
      "ियन</w>"
    ],
    [
      "आव",
      "ृत्"
    ],
    [
      "उत्स",
      "व"
    ],
    [
      "दु",
      "र्"
    ],
    [
      "बं",
      "ध"
    ],
    [
      "केल",
      "ो</w>"
    ],
    [
      "ती",
      ",</w>"
    ],
    [
      "पा",
      "किस्ता"
    ],
    [
      "र",
      "क्ष"
    ],
    [
      "क्र",
      "ॉ"
    ],
    [
      "201",
      "5</w>"
    ],
    [
      "शक",
      "्यताय</w>"
    ],
    [
      "घड",
      "ये</w>"
    ],
    [
      "मंड",
      "ळ"
    ],
    [
      "स",
      "मु"
    ],
    [
      "च",
      ".</w>"
    ],
    [
      "ब",
      "ंग"
    ],
    [
      "य",
      "लो.</w>"
    ],
    [
      "लक्ष",
      "णां</w>"
    ],
    [
      "स्प",
      "श्ट</w>"
    ],
    [
      "अश",
      "ा</w>"
    ],
    [
      "ख",
      "ि"
    ],
    [
      "शे",
      "त"
    ],
    [
      "न्य",
      "ू</w>"
    ],
    [
      "त",
      "ळ</w>"
    ],
    [
      "मेळ",
      "ट"
    ],
    [
      "मेळ",
      "टात.</w>"
    ],
    [
      "न",
      "ाचेर</w>"
    ],
    [
      "व्ह",
      "ॅ"
    ],
    [
      "न",
      "िया</w>"
    ],
    [
      "आस",
      "ल्यार</w>"
    ],
    [
      "ी",
      "म</w>"
    ],
    [
      "सु",
      "क"
    ],
    [
      "आद",
      "ल्या</w>"
    ],
    [
      "केल्ल",
      "ें</w>"
    ],
    [
      "फ",
      "र"
    ],
    [
      "202",
      "1</w>"
    ],
    [
      "'",
      "</w>"
    ],
    [
      "लोक",
      "ांनी</w>"
    ],
    [
      "राजधा",
      "नी</w>"
    ],
    [
      "फा",
      "मा"
    ],
    [
      "1",
      "3</w>"
    ],
    [
      "मान",
      "्यताय</w>"
    ],
    [
      "वर्स",
      "ाचे</w>"
    ],
    [
      "जा",
      "का</w>"
    ],
    [
      "ल",
      "ाच्या</w>"
    ],
    [
      "ल्या",
      ".</w>"
    ],
    [
      "झ",
      "ी"
    ],
    [
      "1",
      "7</w>"
    ],
    [
      "ए",
      "प्रि"
    ],
    [
      "क",
      "पड"
    ],
    [
      "च",
      "ंद"
    ],
    [
      "आय",
      "ज</w>"
    ],
    [
      "राष्ट्र",
      "ीय</w>"
    ],
    [
      "खेळ",
      "ांत</w>"
    ],
    [
      "ी",
      "च</w>"
    ],
    [
      "व",
      "ो"
    ],
    [
      "को",
      "र"
    ],
    [
      "फाट",
      "ल्यान</w>"
    ],
    [
      "तुज",
      "े</w>"
    ],
    [
      "च",
      "लो"
    ],
    [
      "ांगड",
      "ा</w>"
    ],
    [
      "ल्य",
      "ो.</w>"
    ],
    [
      "ळ",
      "नाड"
    ],
    [
      "के",
      "ला.</w>"
    ],
    [
      "1",
      "2"
    ],
    [
      "वै",
      "ज"
    ],
    [
      "आव",
      "ड"
    ],
    [
      "केल",
      "ी</w>"
    ],
    [
      "ं",
      "ट</w>"
    ],
    [
      "बां",
      "दिल्ल"
    ],
    [
      "ग",
      "ीन</w>"
    ],
    [
      "घे",
      "वपाक</w>"
    ],
    [
      "मेरे",
      "न,</w>"
    ],
    [
      "ल्य",
      "ार,</w>"
    ],
    [
      "200",
      "7</w>"
    ],
    [
      "अमेरि",
      "केंत</w>"
    ],
    [
      "200",
      "9</w>"
    ],
    [
      "ए",
      "."
    ],
    [
      "लि",
      "ंग"
    ],
    [
      "ग",
      "ूण</w>"
    ],
    [
      "200",
      "0</w>"
    ],
    [
      "फाव",
      "ट</w>"
    ],
    [
      "विक",
      "स"
    ],
    [
      "शेंकड",
      "्यांत</w>"
    ],
    [
      "िल्ल",
      "ीं</w>"
    ],
    [
      "ट",
      "ल</w>"
    ],
    [
      "यु",
      "नि"
    ],
    [
      "भ",
      "ांग"
    ],
    [
      "पा",
      "त्र"
    ],
    [
      "झ",
      "े"
    ],
    [
      "न्ह",
      "य</w>"
    ],
    [
      "य",
      "ॉर्"
    ],
    [
      "पद्द",
      "त</w>"
    ],
    [
      "जा",
      "ले.</w>"
    ],
    [
      "ली",
      "ग</w>"
    ],
    [
      "नां",
      "वान</w>"
    ],
    [
      "रि",
      "तीन</w>"
    ],
    [
      "ड",
      "े</w>"
    ],
    [
      "ता",
      "प"
    ],
    [
      "ण",
      "ू"
    ],
    [
      "रो",
      "ग"
    ],
    [
      "जा",
      "ता,</w>"
    ],
    [
      "उ",
      "लो"
    ],
    [
      "न",
      "ीय</w>"
    ],
    [
      "स्ट",
      "ॅ"
    ],
    [
      "खा",
      "प"
    ],
    [
      "19",
      "3"
    ],
    [
      "क्र",
      "ॅ"
    ],
    [
      "इंग्",
      "ली"
    ],
    [
      "स्",
      "पि"
    ],
    [
      "सं",
      "यु"
    ],
    [
      "श्र",
      "ी"
    ],
    [
      "तो",
      "ंड"
    ],
    [
      "स्ट",
      "र</w>"
    ],
    [
      "उ",
      "लय"
    ],
    [
      "क",
      "ल्"
    ],
    [
      "खेळगड",
      "े</w>"
    ],
    [
      "टा",
      ",</w>"
    ],
    [
      "दिस",
      "ता</w>"
    ],
    [
      "ग",
      "ार"
    ],
    [
      "ट्र",
      "ॉ"
    ],
    [
      "नो",
      "ंद"
    ],
    [
      "ऑ",
      "न"
    ],
    [
      "त",
      "पास"
    ],
    [
      "म",
      "ाच्या</w>"
    ],
    [
      "फ",
      "."
    ],
    [
      "पा",
      "ल"
    ],
    [
      "्या",
      ",</w>"
    ],
    [
      "सु",
      "की</w>"
    ],
    [
      "श",
      "स्त्र"
    ],
    [
      "ी",
      "चो</w>"
    ],
    [
      "यल",
      "्या</w>"
    ],
    [
      "मद",
      "त</w>"
    ],
    [
      "आय",
      "ोज"
    ],
    [
      "भ",
      "ूं"
    ],
    [
      "ांतल",
      "ीं</w>"
    ],
    [
      "न",
      "े</w>"
    ],
    [
      "ता",
      "ळ"
    ],
    [
      "ऑस्ट्रे",
      "लिय"
    ],
    [
      "प्र",
      "जा"
    ],
    [
      "जे",
      "न्ना</w>"
    ],
    [
      "रेल्",
      "वे</w>"
    ],
    [
      "ल",
      "ें"
    ],
    [
      "पश्",
      "चि"
    ],
    [
      "इंग्",
      "लंड"
    ],
    [
      "पर",
      "त"
    ],
    [
      "ल",
      "ें,</w>"
    ],
    [
      "ू",
      "र</w>"
    ],
    [
      "फामा",
      "द</w>"
    ],
    [
      "पे",
      "श"
    ],
    [
      "केल्ल",
      "े</w>"
    ],
    [
      "सुरवे",
      "क</w>"
    ],
    [
      "सा",
      "दर</w>"
    ],
    [
      "ख",
      "बर</w>"
    ],
    [
      "जना",
      "वर"
    ],
    [
      "ला",
      ",</w>"
    ],
    [
      "दिल्ल",
      "ी</w>"
    ],
    [
      "चाल",
      "ू</w>"
    ],
    [
      "उद्",
      "देग"
    ],
    [
      "आ",
      "फ्रि"
    ],
    [
      "ध",
      "ा</w>"
    ],
    [
      "वयल",
      "्या</w>"
    ],
    [
      "न",
      "ांनी</w>"
    ],
    [
      "वैज",
      "की</w>"
    ],
    [
      "काँ",
      "ग्रे"
    ],
    [
      "2",
      "4</w>"
    ],
    [
      "उप",
      "चार"
    ],
    [
      "सरकार",
      "ान</w>"
    ],
    [
      "शो",
      "ध"
    ],
    [
      "लां",
      "ब</w>"
    ],
    [
      "म",
      "त"
    ],
    [
      "गु",
      "ज"
    ],
    [
      "आस",
      "ून</w>"
    ],
    [
      "क",
      "िल्लो</w>"
    ],
    [
      "प",
      "त्"
    ],
    [
      "विद्या",
      "र्थ"
    ],
    [
      "अमेरिकें",
      "तल्या</w>"
    ],
    [
      "तल",
      "ी.</w>"
    ],
    [
      "झ",
      "ू"
    ],
    [
      "ओ",
      "</w>"
    ],
    [
      "विद्या",
      "पी"
    ],
    [
      "का",
      "ऱ"
    ],
    [
      "क्",
      "त"
    ],
    [
      "केल",
      "ें</w>"
    ],
    [
      "मरा",
      "ठ"
    ],
    [
      "तक",
      "ीर</w>"
    ],
    [
      "आ",
      "श"
    ],
    [
      "दरे",
      "क</w>"
    ],
    [
      "दु",
      "खाप"
    ],
    [
      "म्",
      "स</w>"
    ],
    [
      "ट्र",
      "ॅ"
    ],
    [
      "र",
      "स्त"
    ],
    [
      ")",
      ",</w>"
    ],
    [
      "नॅ",
      "ट"
    ],
    [
      "मि",
      "ण्ट"
    ],
    [
      "वि",
      "स्ता"
    ],
    [
      "के",
      "ट"
    ],
    [
      "िय",
      "े"
    ],
    [
      "्य",
      "ाचेर</w>"
    ],
    [
      "केल्ल",
      "ें.</w>"
    ],
    [
      "खा",
      "सा</w>"
    ],
    [
      "सं",
      "शोध"
    ],
    [
      "खंयच",
      "्याय</w>"
    ],
    [
      "स्",
      "टा"
    ],
    [
      "साद",
      "री"
    ],
    [
      "ल्",
      "स"
    ],
    [
      "ह",
      "ेर"
    ],
    [
      "क",
      "ले"
    ],
    [
      "कार",
      "ा"
    ],
    [
      "ति",
      "सर"
    ],
    [
      "चॅम्पिय",
      "न"
    ],
    [
      "ट्",
      "स"
    ],
    [
      "खेळ्ळ",
      "ो.</w>"
    ],
    [
      "ल्ल",
      "्या</w>"
    ],
    [
      "न",
      "ाचे</w>"
    ],
    [
      "तुज",
      "ी</w>"
    ],
    [
      "न",
      "ाचें</w>"
    ],
    [
      "केर",
      "ळ"
    ],
    [
      "सा",
      "ह"
    ],
    [
      "घेतल",
      "ो.</w>"
    ],
    [
      "प",
      "ाचे</w>"
    ],
    [
      "प्र",
      "स्"
    ],
    [
      "मा",
      "त</w>"
    ],
    [
      "फ",
      "ेर"
    ],
    [
      "सा",
      "त</w>"
    ],
    [
      "ग्रं",
      "थ"
    ],
    [
      "वे",
      "द"
    ],
    [
      "ं",
      "क</w>"
    ],
    [
      "ां",
      "मदीं</w>"
    ],
    [
      "व्ह",
      "ाय"
    ],
    [
      "पा",
      "ल</w>"
    ],
    [
      "कर",
      "ता"
    ],
    [
      "ड",
      "ो</w>"
    ],
    [
      "वर्स",
      "ांचेर</w>"
    ],
    [
      "पर",
      "वान"
    ],
    [
      "ग",
      "जाल"
    ],
    [
      "शे",
      "व"
    ],
    [
      "पुर",
      "ाय"
    ],
    [
      "धर्म",
      "ीक</w>"
    ],
    [
      "आय",
      "लो.</w>"
    ],
    [
      "शि",
      "ं"
    ],
    [
      "किलो",
      "मीटर</w>"
    ],
    [
      "मेळ",
      "ो"
    ],
    [
      "सां",
      "बाळ"
    ],
    [
      "काय",
      "देश"
    ],
    [
      "वर्",
      "सुकी</w>"
    ],
    [
      "को",
      "ण"
    ],
    [
      "को",
      "ल"
    ],
    [
      "200",
      "6</w>"
    ],
    [
      "पश्",
      "ची"
    ],
    [
      "लुक",
      "साण</w>"
    ],
    [
      "िया",
      ",</w>"
    ],
    [
      "द",
      "व"
    ],
    [
      "पयल",
      "े</w>"
    ],
    [
      "झा",
      "ड"
    ],
    [
      "अ",
      "न"
    ],
    [
      "म्ह",
      "ु"
    ],
    [
      "दि",
      "लें.</w>"
    ],
    [
      "स्ट्र",
      "ो"
    ],
    [
      "प",
      "ाच्या</w>"
    ],
    [
      "अ",
      "जू"
    ],
    [
      "बंग",
      "ाल"
    ],
    [
      "उं",
      "चाय"
    ],
    [
      "निर्",
      "ण"
    ],
    [
      "पण",
      "ूक</w>"
    ],
    [
      "0",
      ",000</w>"
    ],
    [
      "वर्",
      "त"
    ],
    [
      "ल",
      "श्"
    ],
    [
      "न्याय",
      "ालय"
    ],
    [
      "थ",
      "ंय"
    ],
    [
      "सप्",
      "त"
    ],
    [
      "केल",
      "्या.</w>"
    ],
    [
      "गु",
      "ण"
    ],
    [
      "ध",
      "ब"
    ],
    [
      "कावं",
      "टीं"
    ],
    [
      "मार",
      "ून</w>"
    ],
    [
      "वेगवेगळ",
      "े</w>"
    ],
    [
      "क",
      "िल्ल"
    ],
    [
      "दि",
      "वपाक</w>"
    ],
    [
      "च",
      "्यान</w>"
    ],
    [
      "आं",
      "तरराश्ट्रीय</w>"
    ],
    [
      "प्र",
      "त्य"
    ],
    [
      "न",
      "द"
    ],
    [
      "शास्त्र",
      "ीय</w>"
    ],
    [
      "क",
      "ाची</w>"
    ],
    [
      "घे",
      "व"
    ],
    [
      "े",
      "चेर</w>"
    ],
    [
      "डॉ",
      "लर</w>"
    ],
    [
      "फाट",
      "ल्या</w>"
    ],
    [
      "न",
      "ल</w>"
    ],
    [
      "सु",
      "ट"
    ],
    [
      "धर",
      "ून</w>"
    ],
    [
      "कर्",
      "नाट"
    ],
    [
      "व",
      "ळ</w>"
    ],
    [
      "कॅ",
      "लि"
    ],
    [
      "उण",
      "्या</w>"
    ],
    [
      "लोक",
      "प्र"
    ],
    [
      "पड",
      "लो.</w>"
    ],
    [
      "भ",
      "</w>"
    ],
    [
      "दे",
      "व</w>"
    ],
    [
      "ना",
      "गर"
    ],
    [
      "भि",
      "तर"
    ],
    [
      "मद",
      "लो</w>"
    ],
    [
      "पु",
      "ली"
    ],
    [
      "दि",
      "वन</w>"
    ],
    [
      "4",
      "0</w>"
    ],
    [
      "सरा",
      "सरी</w>"
    ],
    [
      "हांव",
      ".</w>"
    ],
    [
      "कर",
      "तना</w>"
    ],
    [
      "धर्",
      "म</w>"
    ],
    [
      "स्व",
      "ी</w>"
    ],
    [
      "ज",
      "मनी"
    ],
    [
      "उ",
      "मे"
    ],
    [
      "ट",
      "ीं</w>"
    ],
    [
      "श्र",
      "े"
    ],
    [
      "पा",
      "स</w>"
    ],
    [
      "दि",
      "सा,</w>"
    ],
    [
      "जा",
      "वपाची</w>"
    ],
    [
      "रग",
      "त</w>"
    ],
    [
      "प्र",
      "वे"
    ],
    [
      "स",
      "ाय</w>"
    ],
    [
      "इतिहास",
      "ीक</w>"
    ],
    [
      "ध",
      "ी"
    ],
    [
      "ख",
      "्य"
    ],
    [
      "कॅन",
      "ड"
    ],
    [
      "गे",
      "लो.</w>"
    ],
    [
      "पाव",
      "स</w>"
    ],
    [
      "दुयें",
      "स</w>"
    ],
    [
      "स्",
      "कॉ"
    ],
    [
      "मण",
      "ि"
    ],
    [
      "संयु",
      "क्त</w>"
    ],
    [
      "चड",
      "सो</w>"
    ],
    [
      "व्हड",
      "ल्या</w>"
    ],
    [
      "व",
      "स्"
    ],
    [
      "अदमा",
      "स</w>"
    ],
    [
      "उ",
      "र्"
    ],
    [
      "श",
      "ीत</w>"
    ],
    [
      "मन",
      "शाक</w>"
    ],
    [
      "दें",
      "व"
    ],
    [
      "सादार",
      "ण</w>"
    ],
    [
      "अ",
      "म"
    ],
    [
      "ह",
      "ळ"
    ],
    [
      "अस्त",
      "ंत</w>"
    ],
    [
      "वप",
      "ाच्या</w>"
    ],
    [
      "के",
      "ले.</w>"
    ],
    [
      "वाद",
      "ळ"
    ],
    [
      "ख",
      "्"
    ],
    [
      "यल",
      "ी.</w>"
    ],
    [
      "ग",
      "त</w>"
    ],
    [
      "ऑन",
      "लायन</w>"
    ],
    [
      "आस",
      "तात,</w>"
    ],
    [
      "ग",
      "ा</w>"
    ],
    [
      "क्ल",
      "ब"
    ],
    [
      "स्वी",
      "ड"
    ],
    [
      "गं",
      "भ"
    ],
    [
      "सं",
      "रक्ष"
    ],
    [
      "ँ",
      "ड</w>"
    ],
    [
      "ऍ",
      "स.</w>"
    ],
    [
      "कंप",
      "न"
    ],
    [
      "मर",
      "ण"
    ],
    [
      "आ",
      "त्म"
    ],
    [
      "आव",
      "य"
    ],
    [
      "वर्स",
      "ांनी</w>"
    ],
    [
      "पळ",
      "ोवन</w>"
    ],
    [
      "च",
      "ेर"
    ],
    [
      "अजू",
      "नय</w>"
    ],
    [
      "उपे",
      "ग</w>"
    ],
    [
      "चव",
      "थ"
    ],
    [
      "एक",
      ".</w>"
    ],
    [
      "ध",
      "्या"
    ],
    [
      "मा",
      "ध्य"
    ],
    [
      "को",
      "टी</w>"
    ],
    [
      "ब",
      "ंगा"
    ],
    [
      "राव",
      "ताले.</w>"
    ],
    [
      "नद",
      "रेन</w>"
    ],
    [
      "ां",
      "परस</w>"
    ],
    [
      "नियंत्र",
      "ण</w>"
    ],
    [
      "म",
      "त</w>"
    ],
    [
      "1",
      ","
    ],
    [
      "पो",
      "रण"
    ],
    [
      "2",
      "2</w>"
    ],
    [
      "ार",
      "ा</w>"
    ],
    [
      "ार",
      "ीक</w>"
    ],
    [
      "क्ल",
      "ब</w>"
    ],
    [
      "भे",
      "ट</w>"
    ],
    [
      "निमा",
      "णें</w>"
    ],
    [
      "विकस",
      "ीत</w>"
    ],
    [
      "दक्ष",
      "ीण</w>"
    ],
    [
      "कायदेश",
      "ीर</w>"
    ],
    [
      "दो",
      "तो"
    ],
    [
      "क्",
      "ला"
    ],
    [
      "जै",
      "त</w>"
    ],
    [
      "मु",
      "ंब"
    ],
    [
      "भलाय",
      "की</w>"
    ],
    [
      "त",
      "मी"
    ],
    [
      "ब",
      "ल</w>"
    ],
    [
      "200",
      "1</w>"
    ],
    [
      "आ",
      "क्रम"
    ],
    [
      "बर",
      "े</w>"
    ],
    [
      "आस",
      "ूंक</w>"
    ],
    [
      "केल",
      "्यार</w>"
    ],
    [
      "ति",
      "चो</w>"
    ],
    [
      "फो",
      "न</w>"
    ],
    [
      "स्वा",
      "तंत्र"
    ],
    [
      "म",
      "ो</w>"
    ],
    [
      "ये",
      "णाव"
    ],
    [
      "खेळगड",
      "ो</w>"
    ],
    [
      "डिय",
      "ो</w>"
    ],
    [
      "ह",
      "ांचे"
    ],
    [
      "उपर",
      "ांत"
    ],
    [
      "सप्",
      "तक"
    ],
    [
      "प्र",
      "धान"
    ],
    [
      "प्र",
      "ांत"
    ],
    [
      "ट",
      "ल"
    ],
    [
      "वप",
      "ाचे</w>"
    ],
    [
      "सो",
      "द</w>"
    ],
    [
      "त",
      "ू"
    ],
    [
      "ीं",
      "चो</w>"
    ],
    [
      "ये",
      "रा"
    ],
    [
      "येरा",
      "दार"
    ],
    [
      "िल्ल",
      "ें.</w>"
    ],
    [
      "नि",
      "म"
    ],
    [
      "2",
      "3</w>"
    ],
    [
      "ब",
      "ा</w>"
    ],
    [
      "ं",
      "ट"
    ],
    [
      "1",
      "3"
    ],
    [
      "ड",
      "र</w>"
    ],
    [
      "प",
      ".</w>"
    ],
    [
      "स",
      "मि"
    ],
    [
      "करप",
      "ाचें</w>"
    ],
    [
      "ज",
      "ें</w>"
    ],
    [
      "प",
      "ती</w>"
    ],
    [
      "शि",
      "ंय"
    ],
    [
      "2",
      "1</w>"
    ],
    [
      "वा",
      "ज"
    ],
    [
      "त",
      "ांचें</w>"
    ],
    [
      "स",
      "भ"
    ],
    [
      "फ",
      "ी</w>"
    ],
    [
      "ह",
      "ै"
    ],
    [
      "जा",
      "प"
    ],
    [
      "लि",
      "क</w>"
    ],
    [
      "उ",
      "च्च</w>"
    ],
    [
      "हांव",
      "ें</w>"
    ],
    [
      "हां",
      "णी</w>"
    ],
    [
      "संके",
      "त"
    ],
    [
      "तल",
      "ें.</w>"
    ],
    [
      "कां",
      "य"
    ],
    [
      "1",
      "00</w>"
    ],
    [
      "न",
      "ार"
    ],
    [
      "तर",
      "णा"
    ],
    [
      "ला",
      "ख</w>"
    ],
    [
      "सा",
      "त"
    ],
    [
      "ब",
      "ू"
    ],
    [
      "ओ",
      "डि"
    ],
    [
      "अ",
      "स्"
    ],
    [
      "ज",
      "ग"
    ],
    [
      "खाती",
      "र,</w>"
    ],
    [
      "अ",
      "ला"
    ],
    [
      "संस्थ",
      "ा</w>"
    ],
    [
      "ा",
      ",</w>"
    ],
    [
      "ाव",
      "न</w>"
    ],
    [
      "कब",
      "ला"
    ],
    [
      "पश्ची",
      "म</w>"
    ],
    [
      "ये",
      "वपी</w>"
    ],
    [
      "फाव",
      "ो</w>"
    ],
    [
      "न",
      "ाच"
    ],
    [
      "कु",
      "ं"
    ],
    [
      "इंग्ली",
      "श</w>"
    ],
    [
      "्या",
      "न,</w>"
    ],
    [
      "फ",
      "ी"
    ],
    [
      "झ",
      "गड"
    ],
    [
      "वस्ता",
      "द"
    ],
    [
      "सा",
      "बार</w>"
    ],
    [
      "प्र",
      "भाव</w>"
    ],
    [
      "ज",
      "ॉर्"
    ],
    [
      "नाम",
      "ना</w>"
    ],
    [
      "हा",
      "व"
    ],
    [
      "सर्",
      "तींत</w>"
    ],
    [
      "अ",
      "सो"
    ],
    [
      "अं",
      "तर"
    ],
    [
      "के",
      "श"
    ],
    [
      "मद",
      "ल्या</w>"
    ],
    [
      "ण",
      "ू</w>"
    ],
    [
      "बा",
      "पू"
    ],
    [
      "ख",
      "ण</w>"
    ],
    [
      "िल्ल",
      "्यो</w>"
    ],
    [
      "फ्र",
      "ां"
    ],
    [
      "सि",
      "ंग"
    ],
    [
      "उ",
      "णा"
    ],
    [
      "वन",
      "स्प"
    ],
    [
      "योग",
      "्य</w>"
    ],
    [
      "जा",
      "र</w>"
    ],
    [
      "र",
      "ें"
    ],
    [
      "फाव",
      "टीं</w>"
    ],
    [
      "अधि",
      "कृत</w>"
    ],
    [
      "ल",
      "ाचो</w>"
    ],
    [
      "एप्रि",
      "ल</w>"
    ],
    [
      "ने",
      "म</w>"
    ],
    [
      "परत",
      "ून</w>"
    ],
    [
      "पद",
      "क</w>"
    ],
    [
      "त",
      "्या"
    ],
    [
      "लाग",
      "सार</w>"
    ],
    [
      "युरो",
      "प"
    ],
    [
      "तुज",
      "ो</w>"
    ],
    [
      "दोंग",
      "ु"
    ],
    [
      "बा",
      "पाय"
    ],
    [
      "र",
      "ल</w>"
    ],
    [
      "ल",
      "ू"
    ],
    [
      "सुवा",
      "ळ"
    ],
    [
      "मुसल",
      "मान</w>"
    ],
    [
      "मेळ",
      "टा</w>"
    ],
    [
      "्य",
      "ांचे</w>"
    ],
    [
      "जाल्ल",
      "ी</w>"
    ],
    [
      "ई",
      ".</w>"
    ],
    [
      "सा",
      "ळ"
    ],
    [
      "ट",
      "ीक</w>"
    ],
    [
      "झुज",
      "ांत</w>"
    ],
    [
      "त",
      "्याक</w>"
    ],
    [
      "मो",
      "ल</w>"
    ],
    [
      "प्र",
      "भाव"
    ],
    [
      "शिक्ष",
      "ण</w>"
    ],
    [
      "टी",
      "."
    ],
    [
      "य",
      "ंत्र"
    ],
    [
      "200",
      "5</w>"
    ],
    [
      "था",
      "पणूक</w>"
    ],
    [
      "आ",
      "मी</w>"
    ],
    [
      "स्प",
      "र्"
    ],
    [
      "ांतल",
      "्यो</w>"
    ],
    [
      "जा",
      "वं</w>"
    ],
    [
      "त्य",
      "ाच</w>"
    ],
    [
      "इ",
      "मार"
    ],
    [
      "ट",
      "ाच्या</w>"
    ],
    [
      "आस",
      "तना</w>"
    ],
    [
      "फाट",
      "ीं</w>"
    ],
    [
      "लि",
      "ंग</w>"
    ],
    [
      "श",
      "ल</w>"
    ],
    [
      "ग",
      "ू"
    ],
    [
      "स",
      "ौ"
    ],
    [
      "र",
      "ाचो</w>"
    ],
    [
      "दुसर",
      "े</w>"
    ],
    [
      "व",
      "ता.</w>"
    ],
    [
      "म्हत्व",
      "ाचो</w>"
    ],
    [
      "हॉ",
      "की</w>"
    ],
    [
      "संग",
      "्र"
    ],
    [
      "च",
      "ु"
    ],
    [
      "ए",
      "म"
    ],
    [
      "जा",
      "ण</w>"
    ],
    [
      "प्र",
      "ी"
    ],
    [
      "व्हड",
      "लें</w>"
    ],
    [
      "द",
      "िल्ल्या</w>"
    ],
    [
      "क",
      "्यु"
    ],
    [
      "शक",
      "तात</w>"
    ],
    [
      "म",
      "ं"
    ],
    [
      "व्ह",
      "ी.</w>"
    ],
    [
      "पार",
      "ंप"
    ],
    [
      "पां",
      "य"
    ],
    [
      "ण",
      "्यो</w>"
    ],
    [
      "ति",
      "ची</w>"
    ],
    [
      "ीं",
      "ग</w>"
    ],
    [
      "फुड",
      "ल्या</w>"
    ],
    [
      "आ",
      "र्व"
    ],
    [
      "सै",
      "न्य"
    ],
    [
      "एक",
      "ूच</w>"
    ],
    [
      "जा",
      "ला.</w>"
    ],
    [
      "ल्ल",
      "ा"
    ],
    [
      "दसक",
      "ांत</w>"
    ],
    [
      "े",
      "ची</w>"
    ],
    [
      "6",
      "0</w>"
    ],
    [
      "निर्",
      "मि"
    ],
    [
      "राज्य",
      "ांतलें</w>"
    ],
    [
      "क्र",
      "े"
    ],
    [
      "वी",
      "ज</w>"
    ],
    [
      "कल्प",
      "ना</w>"
    ],
    [
      "बौ",
      "ध्द</w>"
    ],
    [
      "क",
      "ला</w>"
    ],
    [
      "का",
      "व"
    ],
    [
      "अभ्या",
      "स</w>"
    ],
    [
      "तर",
      "ीत</w>"
    ],
    [
      "मी",
      "न</w>"
    ],
    [
      "202",
      "2</w>"
    ],
    [
      "अं",
      "तरराश्ट्रीय</w>"
    ],
    [
      "अण",
      "भ"
    ],
    [
      "िय",
      "ो"
    ],
    [
      "वेवस्थ",
      "ा</w>"
    ],
    [
      "घर",
      "ांत</w>"
    ],
    [
      "दो",
      "गां"
    ],
    [
      "ोव",
      "पाखातीर</w>"
    ],
    [
      "पुर्व",
      "िल्ल्या</w>"
    ],
    [
      "ीं",
      "तल्यान</w>"
    ],
    [
      "केन्न",
      "ाच</w>"
    ],
    [
      "ल",
      "्यांत</w>"
    ],
    [
      "उ",
      "गड"
    ],
    [
      "ओ",
      ".</w>"
    ],
    [
      "प्",
      "त</w>"
    ],
    [
      "ंड",
      "ो"
    ],
    [
      "कार",
      "ण"
    ],
    [
      "म",
      "ी.</w>"
    ],
    [
      "भाग",
      "ांत</w>"
    ],
    [
      "स",
      "ांनी</w>"
    ],
    [
      "दू",
      "र"
    ],
    [
      "कॅलि",
      "फोर्"
    ],
    [
      "ये",
      "स"
    ],
    [
      "वेव",
      "साय</w>"
    ],
    [
      "लश्",
      "करी</w>"
    ],
    [
      "गि",
      "माळ"
    ],
    [
      "पारंप",
      "ारीक</w>"
    ],
    [
      "ी",
      "ची</w>"
    ],
    [
      "प",
      "ट"
    ],
    [
      "सॉफ्",
      "ट"
    ],
    [
      "ड्",
      "ड"
    ],
    [
      "क",
      "ठ"
    ],
    [
      "ग",
      "ो</w>"
    ],
    [
      "नांव",
      "ाच्या</w>"
    ],
    [
      "णु",
      "के"
    ],
    [
      "ल्ल",
      "ो.</w>"
    ],
    [
      "घ",
      "र</w>"
    ],
    [
      "इस्",
      "ला"
    ],
    [
      "कांय",
      "च</w>"
    ],
    [
      "आशिल्ल",
      "ो,</w>"
    ],
    [
      "तमि",
      "ळनाड"
    ],
    [
      "गंभ",
      "ीर</w>"
    ],
    [
      "स्",
      "तां"
    ],
    [
      "टि",
      "क</w>"
    ],
    [
      "पु",
      "राव"
    ],
    [
      "च",
      "र्"
    ],
    [
      "उ",
      "तर</w>"
    ],
    [
      "दिस",
      "ांनी</w>"
    ],
    [
      "उत्पाद",
      "न</w>"
    ],
    [
      "म",
      "ंग"
    ],
    [
      "राख",
      "ण</w>"
    ],
    [
      "क",
      "शी</w>"
    ],
    [
      "प",
      "वि"
    ],
    [
      "2",
      "6</w>"
    ],
    [
      "समाज",
      "ीक</w>"
    ],
    [
      "कर",
      "तात,</w>"
    ],
    [
      "ज",
      "मा"
    ],
    [
      "पुराय",
      "पणान</w>"
    ],
    [
      "त",
      "ांक</w>"
    ],
    [
      "भाश",
      "ेंत</w>"
    ],
    [
      "रा",
      "म"
    ],
    [
      "बा",
      "द</w>"
    ],
    [
      "य",
      "ा</w>"
    ],
    [
      "जाल्ल",
      "ी.</w>"
    ],
    [
      "2",
      "7</w>"
    ],
    [
      "आ",
      "ंग"
    ],
    [
      "वख",
      "द"
    ],
    [
      "आय",
      "ो"
    ],
    [
      "स्ट",
      "ी"
    ],
    [
      "जाल",
      "्यार,</w>"
    ],
    [
      "शक",
      "्य</w>"
    ],
    [
      "राज",
      "की</w>"
    ],
    [
      "प्र",
      "सार"
    ],
    [
      "सै",
      "मीक</w>"
    ],
    [
      "भुरग",
      "ीं</w>"
    ],
    [
      "अधि",
      "काऱ"
    ],
    [
      "नि",
      "क</w>"
    ],
    [
      "द्",
      "द</w>"
    ],
    [
      "ग्र",
      "ॅ"
    ],
    [
      "क",
      "ं"
    ],
    [
      "पो",
      "र"
    ],
    [
      "प्रधान",
      "मंत्री</w>"
    ],
    [
      "का",
      ",</w>"
    ],
    [
      "ज",
      "्यु"
    ],
    [
      "मै",
      "दा"
    ],
    [
      "गा",
      "डी</w>"
    ],
    [
      "सि",
      "ए"
    ],
    [
      "खाती",
      "र"
    ],
    [
      "का",
      "लीन</w>"
    ],
    [
      "र",
      "स्"
    ],
    [
      "वर्",
      "ग"
    ],
    [
      "ण",
      "ून</w>"
    ],
    [
      "कृ",
      "ती</w>"
    ],
    [
      "विद्या",
      "लय"
    ],
    [
      "माय",
      "क्रो"
    ],
    [
      "स",
      "्रो"
    ],
    [
      "वे",
      "व्ह"
    ],
    [
      "आल्",
      "ब"
    ],
    [
      "दे",
      "गे"
    ],
    [
      "मेळ्ळ",
      "ो.</w>"
    ],
    [
      "येवज",
      "ण</w>"
    ],
    [
      "मो",
      "ह"
    ],
    [
      "कि",
      "तें"
    ],
    [
      "वर",
      "ी</w>"
    ],
    [
      "म",
      "िय"
    ],
    [
      "वापर",
      "तात</w>"
    ],
    [
      "शि",
      "व"
    ],
    [
      "कें",
      "द्र</w>"
    ],
    [
      "गुज",
      "रा"
    ],
    [
      "बापू",
      "य</w>"
    ],
    [
      "आंकड",
      "ो</w>"
    ],
    [
      "नाशिल्ल",
      "्या</w>"
    ],
    [
      "ो",
      "य</w>"
    ],
    [
      "ती",
      "ची</w>"
    ],
    [
      "वळेर",
      "ी</w>"
    ],
    [
      "जा",
      "न</w>"
    ],
    [
      "ण",
      "ि"
    ],
    [
      "ह",
      "ुं"
    ],
    [
      "वे",
      "क</w>"
    ],
    [
      "बे",
      "गीन</w>"
    ],
    [
      "सम",
      "्रा"
    ],
    [
      "ते",
      "क</w>"
    ],
    [
      "य",
      "क्"
    ],
    [
      "200",
      "4</w>"
    ],
    [
      "ट्र",
      "ि"
    ],
    [
      "इ",
      "लि"
    ],
    [
      "प्रवे",
      "श</w>"
    ],
    [
      "इ",
      "गर्"
    ],
    [
      "संपर्",
      "क</w>"
    ],
    [
      "प्",
      "प"
    ],
    [
      "र",
      "ंग</w>"
    ],
    [
      "कु",
      "श"
    ],
    [
      "लाग",
      "सार"
    ],
    [
      "व्हड",
      "ली</w>"
    ],
    [
      "्य",
      "ू</w>"
    ],
    [
      "स",
      "ीक</w>"
    ],
    [
      "खर्",
      "च"
    ],
    [
      "ती",
      "चेर</w>"
    ],
    [
      "ीं",
      "क</w>"
    ],
    [
      "थ",
      "ां"
    ],
    [
      "निव",
      "ृत्"
    ],
    [
      "बर",
      "यल्ल"
    ],
    [
      "स्",
      "पॅ"
    ],
    [
      "स्",
      "को"
    ],
    [
      "केल",
      "्या</w>"
    ],
    [
      "सि",
      "टी</w>"
    ],
    [
      "िल्ल",
      "ी.</w>"
    ],
    [
      "कॉ",
      "न्"
    ],
    [
      "ण्",
      "ड</w>"
    ],
    [
      "सं",
      "त</w>"
    ],
    [
      "ति",
      "ग"
    ],
    [
      "नव",
      "ी</w>"
    ],
    [
      "देग",
      "ेर</w>"
    ],
    [
      "्रा",
      "स</w>"
    ],
    [
      "त",
      "त्व"
    ],
    [
      "पु",
      "र्"
    ],
    [
      "पि",
      "ठ"
    ],
    [
      "पळ",
      "ोवंक</w>"
    ],
    [
      "पवि",
      "त्र</w>"
    ],
    [
      "स",
      "क्र"
    ],
    [
      "अ",
      "ट"
    ],
    [
      "्या",
      "त</w>"
    ],
    [
      "क",
      "ून</w>"
    ],
    [
      "सुर",
      "क्ष"
    ],
    [
      "ग",
      "ॉ"
    ],
    [
      "सामक",
      "ें</w>"
    ],
    [
      "टक",
      "च</w>"
    ],
    [
      "ह",
      "ल्लो</w>"
    ],
    [
      "जुं",
      "व्य"
    ],
    [
      "मेळ्ळ",
      "ी.</w>"
    ],
    [
      "समस",
      "्या</w>"
    ],
    [
      "वख",
      "दां</w>"
    ],
    [
      "ां",
      "कडेन</w>"
    ],
    [
      "आदार",
      "ून</w>"
    ],
    [
      "द्",
      "ध"
    ],
    [
      "ीं",
      "तल्या</w>"
    ],
    [
      "पू",
      "र"
    ],
    [
      "ति",
      "चे</w>"
    ],
    [
      "2",
      "9</w>"
    ],
    [
      "इलि",
      "नॉ"
    ],
    [
      "दोंगु",
      "ल्ल"
    ],
    [
      "मेळ",
      "पी</w>"
    ],
    [
      "ग",
      "ाव"
    ],
    [
      "नव",
      "े</w>"
    ],
    [
      "जा",
      "प</w>"
    ],
    [
      "प",
      "ेर"
    ],
    [
      "वळ",
      "ख</w>"
    ],
    [
      "प",
      "ब्"
    ],
    [
      "टा",
      "ळ"
    ],
    [
      "द",
      "े</w>"
    ],
    [
      "जाल",
      "्या.</w>"
    ],
    [
      "1",
      "4"
    ],
    [
      "फ",
      "ळ"
    ],
    [
      "फ्र",
      "ँ"
    ],
    [
      "एका",
      "मे"
    ],
    [
      "ब",
      "ाव"
    ],
    [
      "धो",
      "को</w>"
    ],
    [
      "2",
      "8</w>"
    ],
    [
      "पु",
      "न"
    ],
    [
      "आयोज",
      "ीत</w>"
    ],
    [
      "झू",
      "ज</w>"
    ],
    [
      "म",
      "त्"
    ],
    [
      "प",
      "ांच"
    ],
    [
      "य",
      "तात</w>"
    ],
    [
      "बद",
      "ला</w>"
    ],
    [
      "ढ",
      "</w>"
    ],
    [
      "ओ",
      "ड"
    ],
    [
      "विद्यापी",
      "ठ"
    ],
    [
      "प्रा",
      "ण"
    ],
    [
      "श",
      "ॅ"
    ],
    [
      "सद",
      "्या</w>"
    ],
    [
      "श",
      "ियन</w>"
    ],
    [
      "टि",
      "ंग</w>"
    ],
    [
      "शी",
      "ल</w>"
    ],
    [
      "पळ",
      "ो"
    ],
    [
      "नृ",
      "त्य</w>"
    ],
    [
      "थार",
      "ाव"
    ],
    [
      "ग",
      "ान</w>"
    ],
    [
      "ह",
      "ार</w>"
    ],
    [
      "कर",
      "पा"
    ],
    [
      "वै",
      "यक्"
    ],
    [
      "त्रा",
      "स</w>"
    ],
    [
      "हा",
      "तूं"
    ],
    [
      "पांवड",
      "्यार</w>"
    ],
    [
      "प्रतिनि",
      "धि"
    ],
    [
      "ीं",
      "ची</w>"
    ],
    [
      "र",
      "ीक</w>"
    ],
    [
      "कर",
      "चे</w>"
    ],
    [
      "ह",
      "ाच्या</w>"
    ],
    [
      "ग",
      "ट</w>"
    ],
    [
      "मो",
      "गल</w>"
    ],
    [
      "उत्",
      "कृ"
    ],
    [
      "198",
      "0</w>"
    ],
    [
      "श",
      "क्"
    ],
    [
      "द",
      "ीत</w>"
    ],
    [
      "ए",
      "ल"
    ],
    [
      "पंगड",
      "ान</w>"
    ],
    [
      "ज",
      ",</w>"
    ],
    [
      "प",
      "रा"
    ],
    [
      "वे",
      "ल्या</w>"
    ],
    [
      "आ",
      "ठ</w>"
    ],
    [
      "ब",
      "च"
    ],
    [
      "परिणा",
      "म"
    ],
    [
      "जाल",
      "े</w>"
    ],
    [
      "आप",
      "ूण</w>"
    ],
    [
      "जी",
      "व</w>"
    ],
    [
      "ल",
      "ं"
    ],
    [
      "पा",
      "त्र</w>"
    ],
    [
      "आ",
      "रो"
    ],
    [
      "ट",
      "े</w>"
    ],
    [
      "199",
      "0</w>"
    ],
    [
      "स्टे",
      "डिय"
    ],
    [
      "तुज",
      "ें</w>"
    ],
    [
      "फ",
      "ॉर्"
    ],
    [
      "का",
      "श्"
    ],
    [
      "ांग",
      "</w>"
    ],
    [
      "शिंय",
      "ाळ"
    ],
    [
      "े",
      "चे</w>"
    ],
    [
      "साम",
      "को</w>"
    ],
    [
      "जा",
      "ता"
    ],
    [
      "टी",
      "न</w>"
    ],
    [
      "सां",
      "ठ"
    ],
    [
      "ट्र",
      "े"
    ],
    [
      "न्हय",
      ".</w>"
    ],
    [
      "न",
      "-"
    ],
    [
      "घाल",
      "ून</w>"
    ],
    [
      "सि",
      "ने"
    ],
    [
      "प",
      "ट्ट"
    ],
    [
      "घेतल",
      "ी.</w>"
    ],
    [
      "वेव",
      "स्थाप"
    ],
    [
      "परवान",
      "गी</w>"
    ],
    [
      "शाळ",
      "ा</w>"
    ],
    [
      "कला",
      "कार</w>"
    ],
    [
      "ला",
      "ख"
    ],
    [
      "हिंद",
      "ी</w>"
    ],
    [
      "एक",
      "ाच</w>"
    ],
    [
      "ं",
      "स"
    ],
    [
      "स्थि",
      "ती</w>"
    ],
    [
      "क",
      "ट</w>"
    ],
    [
      "घ",
      "ोड"
    ],
    [
      "त",
      "पणान</w>"
    ],
    [
      "ज",
      "ी."
    ],
    [
      "उण",
      "े</w>"
    ],
    [
      "ख",
      "ड"
    ],
    [
      "खा",
      "ज"
    ],
    [
      "हा",
      "त</w>"
    ],
    [
      "संगी",
      "त"
    ],
    [
      "ड्",
      "स</w>"
    ],
    [
      "अ",
      "क्ष"
    ],
    [
      "प्रतिनिधि",
      "त्व</w>"
    ],
    [
      "ए",
      "न.</w>"
    ],
    [
      "पयल",
      "ींच</w>"
    ],
    [
      "्य",
      "ांतल्यान</w>"
    ],
    [
      "मी",
      "ल</w>"
    ],
    [
      "ज",
      "ी.</w>"
    ],
    [
      "ें",
      "बर"
    ],
    [
      "को",
      "ड</w>"
    ],
    [
      "ज",
      "ंय</w>"
    ],
    [
      "प",
      "ारी</w>"
    ],
    [
      "अ",
      "स"
    ],
    [
      "व्ह",
      "र</w>"
    ],
    [
      "टा",
      "ले.</w>"
    ],
    [
      "ग",
      "ांव</w>"
    ],
    [
      "प",
      "ाच"
    ],
    [
      "पूर्",
      "ण</w>"
    ],
    [
      "चित्रप",
      "टांत</w>"
    ],
    [
      "खाशे",
      "ल"
    ],
    [
      "पा",
      "न</w>"
    ],
    [
      "फ",
      "ां"
    ],
    [
      "वेंच",
      "णुक"
    ],
    [
      "र्",
      "स"
    ],
    [
      "यल",
      "ो</w>"
    ],
    [
      "म्हु",
      "णून</w>"
    ],
    [
      "अस्",
      "ति"
    ],
    [
      "न",
      "्या"
    ],
    [
      "थ",
      "ाय"
    ],
    [
      "स्",
      "को</w>"
    ],
    [
      "हॉ",
      "स्पि"
    ],
    [
      "चड",
      "ांत</w>"
    ],
    [
      "ए",
      "</w>"
    ],
    [
      "ब",
      "े</w>"
    ],
    [
      "स्",
      "नाय"
    ],
    [
      "नव",
      "ो</w>"
    ],
    [
      "कि",
      "ंग</w>"
    ],
    [
      "द",
      "ळ"
    ],
    [
      "वच",
      "पी</w>"
    ],
    [
      "ग",
      "ंग"
    ],
    [
      "ती",
      "चे</w>"
    ],
    [
      "आ",
      "कार"
    ],
    [
      "आस",
      "ता"
    ],
    [
      "वैयक्",
      "तीक</w>"
    ],
    [
      "ता",
      "ब"
    ],
    [
      "मे",
      "ज"
    ],
    [
      "ताप",
      "मान</w>"
    ],
    [
      "ये",
      "वंक</w>"
    ],
    [
      "व",
      "ृत्"
    ],
    [
      "के",
      "न</w>"
    ],
    [
      "ल",
      "ै"
    ],
    [
      "श",
      "ीं</w>"
    ],
    [
      "आशिल्ल",
      "ीं</w>"
    ],
    [
      "सरकार",
      "ी</w>"
    ],
    [
      "दक्षिणे",
      "क</w>"
    ],
    [
      "राश्ट्र",
      "ा"
    ],
    [
      "सा",
      "ल"
    ],
    [
      "बा",
      "र्"
    ],
    [
      "स्",
      "फो"
    ],
    [
      "सैन",
      "्य</w>"
    ],
    [
      "तों",
      "ड</w>"
    ],
    [
      "प्रशिक्ष",
      "ण</w>"
    ],
    [
      "उक्",
      "ता"
    ],
    [
      "बा",
      "जार"
    ],
    [
      "पा",
      "र</w>"
    ],
    [
      "घ",
      "ुं"
    ],
    [
      "मि",
      "ड"
    ],
    [
      "जाण",
      "ांक</w>"
    ],
    [
      "जॉ",
      "न</w>"
    ],
    [
      "प्रो",
      "ग्रा"
    ],
    [
      "क्षे",
      "त्र</w>"
    ],
    [
      "200",
      "3</w>"
    ],
    [
      "फ्",
      "लो"
    ],
    [
      "को",
      "र्"
    ],
    [
      "फ",
      "र्"
    ],
    [
      "सारक",
      "ें</w>"
    ],
    [
      "द",
      "ीक</w>"
    ],
    [
      "्य",
      "ांचें</w>"
    ],
    [
      "बर",
      "यल"
    ],
    [
      "द",
      "स"
    ],
    [
      "ड",
      ",</w>"
    ],
    [
      "क्र",
      "िय"
    ],
    [
      "क",
      "ूय</w>"
    ],
    [
      "व्यक्",
      "ती</w>"
    ],
    [
      "घर",
      "ा</w>"
    ],
    [
      "क",
      "टि"
    ],
    [
      "आ",
      "वा"
    ],
    [
      "उत्तरे",
      "क</w>"
    ],
    [
      "फाय",
      "दो</w>"
    ],
    [
      "जा",
      "क</w>"
    ],
    [
      "भुरग",
      "्यांक</w>"
    ],
    [
      "ल्ल",
      "े</w>"
    ],
    [
      "ज",
      "ळ"
    ],
    [
      "इंड",
      "ो"
    ],
    [
      "उश्",
      "ण</w>"
    ],
    [
      "लोकसंख",
      "्य"
    ],
    [
      "आ",
      "दि"
    ],
    [
      "स्",
      "त्र</w>"
    ],
    [
      "ह",
      "ाचेर</w>"
    ],
    [
      "वर्",
      "गी"
    ],
    [
      "ट्र",
      "ा"
    ],
    [
      "व्हि",
      "डियो</w>"
    ],
    [
      "चौ",
      "खण</w>"
    ],
    [
      "्यां",
      "खातीर</w>"
    ],
    [
      "टे",
      "न"
    ],
    [
      "दर्",
      "शन</w>"
    ],
    [
      "मै",
      "ल"
    ],
    [
      "म्हत्व",
      "ाचें</w>"
    ],
    [
      "जाल",
      "ां.</w>"
    ],
    [
      "ते",
      "न्न"
    ],
    [
      "ती",
      "चें</w>"
    ],
    [
      "त",
      "प"
    ],
    [
      "ब्र",
      "ह्"
    ],
    [
      "पदा",
      "र्थ"
    ],
    [
      "गुंतवण",
      "ूक</w>"
    ],
    [
      "म",
      "ज्"
    ],
    [
      "संगण",
      "क</w>"
    ],
    [
      "ब",
      "ऱ"
    ],
    [
      "ध",
      "ू"
    ],
    [
      "जा",
      "तकच</w>"
    ],
    [
      "म्हण",
      "टात</w>"
    ],
    [
      "िल्ल",
      "े.</w>"
    ],
    [
      "उमे",
      "द"
    ],
    [
      "बंद",
      "ी</w>"
    ],
    [
      "20",
      "0</w>"
    ],
    [
      "भ",
      "ी"
    ],
    [
      "व",
      "्"
    ],
    [
      "ब",
      "िय"
    ],
    [
      "खेळ",
      "ां</w>"
    ],
    [
      "यॉर्",
      "क</w>"
    ],
    [
      "नागर",
      "ी</w>"
    ],
    [
      "सा",
      "मील</w>"
    ],
    [
      "ऑलिंपि",
      "क</w>"
    ],
    [
      "ए",
      "स"
    ],
    [
      "वे",
      "पारी</w>"
    ],
    [
      "सर",
      "कार</w>"
    ],
    [
      "शास्त्र",
      "ज्ञ"
    ],
    [
      "चक्र",
      "ी"
    ],
    [
      "उण",
      "्यांत</w>"
    ],
    [
      "कि",
      "ंग"
    ],
    [
      "मॅ",
      "च"
    ],
    [
      "कॉ",
      "ले"
    ],
    [
      "न्य",
      "ु"
    ],
    [
      "चडश",
      "ें</w>"
    ],
    [
      "यू",
      ".</w>"
    ],
    [
      "मज",
      "ग"
    ],
    [
      "ां",
      "त.</w>"
    ],
    [
      "ब",
      "ळ</w>"
    ],
    [
      "जिल्ल",
      "्यांतल्या</w>"
    ],
    [
      "स्व",
      "ता</w>"
    ],
    [
      "श",
      "ू"
    ],
    [
      "मर्या",
      "दीत</w>"
    ],
    [
      "केंद्र",
      "ीत</w>"
    ],
    [
      "प",
      "क</w>"
    ],
    [
      "रि",
      "पब्"
    ],
    [
      "म्हत्व",
      "ाची</w>"
    ],
    [
      "स्थ",
      "लां"
    ],
    [
      "सग",
      "ल्यांत</w>"
    ],
    [
      "के",
      "चो</w>"
    ],
    [
      "व",
      "ता</w>"
    ],
    [
      "का",
      "प"
    ],
    [
      "चा",
      "र्"
    ],
    [
      "न्",
      "सि"
    ],
    [
      "कल्",
      "प</w>"
    ],
    [
      "य",
      "र</w>"
    ],
    [
      "संकेत",
      "थळ"
    ],
    [
      "ये",
      "ता,</w>"
    ],
    [
      "वाठार",
      ".</w>"
    ],
    [
      "म",
      "ाचो</w>"
    ],
    [
      "दर्श",
      "क</w>"
    ],
    [
      "तल",
      "्यो</w>"
    ],
    [
      "वा",
      "स्तु"
    ],
    [
      "पुर",
      "वण</w>"
    ],
    [
      "झ",
      "ा</w>"
    ],
    [
      "प्रमाण",
      "ें,</w>"
    ],
    [
      "ड",
      "ाव"
    ],
    [
      "क",
      "ण"
    ],
    [
      "अ",
      "ल्"
    ],
    [
      "वा",
      "ट</w>"
    ],
    [
      "वि",
      "ष्ण"
    ],
    [
      "्य",
      "ो,</w>"
    ],
    [
      "सिनेम",
      "ा</w>"
    ],
    [
      "न",
      "दर</w>"
    ],
    [
      "प",
      "ृ"
    ],
    [
      "ख",
      "ां"
    ],
    [
      "न",
      "ॉर्"
    ],
    [
      "का",
      "ल"
    ],
    [
      "काळ",
      "ज"
    ],
    [
      "तीं",
      "क</w>"
    ],
    [
      "ब्",
      "लॅ"
    ],
    [
      "न",
      "गर</w>"
    ],
    [
      "ज",
      "म"
    ],
    [
      "वर्त",
      "मान</w>"
    ],
    [
      "वि",
      "भाग</w>"
    ],
    [
      "ें",
      "तल्यान</w>"
    ],
    [
      "स्वा",
      "स</w>"
    ],
    [
      "बँ",
      "क</w>"
    ],
    [
      "सा",
      "मु"
    ],
    [
      "वा",
      "ट"
    ],
    [
      "अ",
      "र</w>"
    ],
    [
      "वच",
      "पाक</w>"
    ],
    [
      "फ",
      "ा</w>"
    ],
    [
      "व्हड",
      "ा</w>"
    ],
    [
      "खाज",
      "गी</w>"
    ],
    [
      "ल",
      "र"
    ],
    [
      "उणा",
      "व</w>"
    ],
    [
      "जाग",
      "्यार</w>"
    ],
    [
      "प्र",
      "का"
    ],
    [
      "कि",
      "र्"
    ],
    [
      "री",
      "ण</w>"
    ],
    [
      "ग्र",
      "ीक</w>"
    ],
    [
      "मेळ्ळ",
      "ें.</w>"
    ],
    [
      "असो",
      "सिए"
    ],
    [
      "शु",
      "ल्"
    ],
    [
      "बळ",
      "ि"
    ],
    [
      "गि",
      "री</w>"
    ],
    [
      "पद",
      "वी</w>"
    ],
    [
      "भ",
      "य"
    ],
    [
      "वा",
      "स"
    ],
    [
      "पा",
      "वं"
    ],
    [
      "कु",
      "मार"
    ],
    [
      "आर",
      "."
    ],
    [
      "हळ",
      "डु"
    ],
    [
      "आश",
      "िया"
    ],
    [
      "ती",
      "र्थ"
    ],
    [
      "हा",
      "ताळ"
    ],
    [
      "200",
      "2</w>"
    ],
    [
      "भोंवत",
      "णी</w>"
    ],
    [
      "सम",
      "ज"
    ],
    [
      "म्ह",
      "ू"
    ],
    [
      "राज",
      "वंश"
    ],
    [
      "सु",
      "ल"
    ],
    [
      "संसर्",
      "ग"
    ],
    [
      "आ",
      "शिय"
    ],
    [
      "तं",
      "त्र</w>"
    ],
    [
      "प्र",
      "ॉ"
    ],
    [
      "े",
      "चें</w>"
    ],
    [
      "सारक",
      "े</w>"
    ],
    [
      "पु",
      "नर्"
    ],
    [
      "सू",
      "र"
    ],
    [
      "सम",
      "र्थ"
    ],
    [
      "पां",
      "ड"
    ],
    [
      "197",
      "0</w>"
    ],
    [
      "क",
      "शें</w>"
    ],
    [
      "मॅ",
      "च</w>"
    ],
    [
      "ट",
      "ां</w>"
    ],
    [
      "निय",
      "न</w>"
    ],
    [
      "प्रस्",
      "न</w>"
    ],
    [
      "ज",
      "री</w>"
    ],
    [
      "ले",
      "श"
    ],
    [
      "े",
      "खातीर</w>"
    ],
    [
      "न",
      "ल"
    ],
    [
      "ाय",
      "न</w>"
    ],
    [
      "199",
      "8</w>"
    ],
    [
      "क",
      "प</w>"
    ],
    [
      "युनि",
      "व्हर्"
    ],
    [
      ".ए",
      ".</w>"
    ],
    [
      "से",
      "व"
    ],
    [
      "विमान",
      "तळ"
    ],
    [
      "कपड",
      "े</w>"
    ],
    [
      "न",
      "मु"
    ],
    [
      "काश्",
      "मी"
    ],
    [
      "प्रदेश",
      "ांत</w>"
    ],
    [
      "र्",
      "घ"
    ],
    [
      "कठ",
      "ीण</w>"
    ],
    [
      "इ",
      "."
    ],
    [
      "वर",
      "ां</w>"
    ],
    [
      "ए",
      "स."
    ],
    [
      "स",
      "ळ"
    ],
    [
      "जाय",
      "त</w>"
    ],
    [
      "प्र",
      "शास"
    ],
    [
      "ली",
      "ग"
    ],
    [
      "त",
      "ांचे"
    ],
    [
      "आशिल्ल",
      "्यो</w>"
    ],
    [
      "भूं",
      "य"
    ],
    [
      "°",
      "</w>"
    ],
    [
      "की",
      "र्"
    ],
    [
      "क्र",
      "ां"
    ],
    [
      "मर",
      "े</w>"
    ],
    [
      "दिस",
      "ून</w>"
    ],
    [
      "रा",
      "म</w>"
    ],
    [
      "त",
      "ना,</w>"
    ],
    [
      "भि",
      "रांत</w>"
    ],
    [
      "पुली",
      "स</w>"
    ],
    [
      "ज",
      "िल्लो</w>"
    ],
    [
      "अ",
      "खे"
    ],
    [
      "सर",
      "्रास</w>"
    ],
    [
      "केल्ल",
      "्यान</w>"
    ],
    [
      "दाख",
      "ो"
    ],
    [
      "च",
      "र"
    ],
    [
      "स्तां",
      "व</w>"
    ],
    [
      "जा",
      "वपाक</w>"
    ],
    [
      "टी",
      "च्या</w>"
    ],
    [
      "च",
      "ळ"
    ],
    [
      "नाशिल्ल",
      "्यान</w>"
    ],
    [
      "विक्र",
      "म</w>"
    ],
    [
      "8",
      "0</w>"
    ],
    [
      "गु",
      "न्य"
    ],
    [
      "पळ",
      "यल"
    ],
    [
      "करा",
      "त.</w>"
    ],
    [
      "दी",
      "र्घ"
    ],
    [
      "बाय",
      "ले"
    ],
    [
      "पंजा",
      "ब"
    ],
    [
      "घट",
      "क</w>"
    ],
    [
      "सांग",
      "ता.</w>"
    ],
    [
      "मि",
      "न"
    ],
    [
      "जा",
      "तात</w>"
    ],
    [
      "अधि",
      "कारी</w>"
    ],
    [
      "नगरपालि",
      "का.</w>"
    ],
    [
      "जाप",
      "साल"
    ],
    [
      "तां",
      "बड"
    ],
    [
      "ऑ",
      "र्ड"
    ],
    [
      "ती",
      ".</w>"
    ],
    [
      "ट",
      "ाचो</w>"
    ],
    [
      "हा",
      "त"
    ],
    [
      "ये",
      "च्या</w>"
    ],
    [
      "शि",
      "ल्प"
    ],
    [
      "कितल",
      "े"
    ],
    [
      "वाद",
      "ळ</w>"
    ],
    [
      "आद",
      "लो</w>"
    ],
    [
      "कृ",
      "ष्ण"
    ],
    [
      "यो",
      "ग</w>"
    ],
    [
      "स्",
      "ती</w>"
    ],
    [
      "कर",
      "ि"
    ],
    [
      "बर्",
      "ग</w>"
    ],
    [
      "दुसर",
      "ी</w>"
    ],
    [
      "छ",
      "ा"
    ],
    [
      "म",
      "नो"
    ],
    [
      "दाख",
      "य"
    ],
    [
      "ख",
      "ंय</w>"
    ],
    [
      "शे",
      "च</w>"
    ],
    [
      "द",
      "श"
    ],
    [
      "के",
      "क</w>"
    ],
    [
      "सिनेम",
      "ांत</w>"
    ],
    [
      "ग्र",
      "ी"
    ],
    [
      "क्रि",
      "केट</w>"
    ],
    [
      "के",
      ".</w>"
    ],
    [
      "ए",
      "म.</w>"
    ],
    [
      "ने",
      "मान</w>"
    ],
    [
      "थळाव",
      "े</w>"
    ],
    [
      "घ",
      "राण"
    ],
    [
      "बळि",
      "श्ट</w>"
    ],
    [
      "शेव",
      "टाक</w>"
    ],
    [
      "ज",
      "िय"
    ],
    [
      "कटि",
      "बंध"
    ],
    [
      "जिल्ल",
      "्य"
    ],
    [
      "ल्ल",
      "ी</w>"
    ],
    [
      "भाय",
      "र,</w>"
    ],
    [
      "उ",
      "डो"
    ],
    [
      "कितल",
      "्या"
    ],
    [
      "ण",
      ".</w>"
    ],
    [
      "स्",
      "पोर्"
    ],
    [
      "म्हयन",
      "्यांत</w>"
    ],
    [
      "दुखाप",
      "त</w>"
    ],
    [
      "वर्स",
      "ाचो</w>"
    ],
    [
      "ग",
      "जाली</w>"
    ],
    [
      "फू",
      "ट</w>"
    ],
    [
      "केल",
      "्यात.</w>"
    ],
    [
      "ी",
      "चें</w>"
    ],
    [
      "वप",
      ",</w>"
    ],
    [
      "ति",
      "सऱ्या</w>"
    ],
    [
      "नि",
      "दान</w>"
    ],
    [
      "व्ह",
      "ा"
    ],
    [
      "लाग",
      "ू</w>"
    ],
    [
      "चॅम्पियन",
      "शि"
    ],
    [
      "कॅ",
      "न्स"
    ],
    [
      "स्वीड",
      "नांतल्या</w>"
    ],
    [
      "तु",
      "जे"
    ],
    [
      "कार्",
      "ड"
    ],
    [
      "ंद",
      "ा"
    ],
    [
      "प",
      "त"
    ],
    [
      "ब्र",
      "ॅ"
    ],
    [
      "मेळ",
      "ूंक</w>"
    ],
    [
      "ध",
      "ार"
    ],
    [
      "जि",
      "णे"
    ],
    [
      "संख",
      "्या</w>"
    ],
    [
      "अति",
      "रि"
    ],
    [
      "ऍ",
      "क्"
    ],
    [
      "199",
      "9</w>"
    ],
    [
      "प",
      "र्व"
    ],
    [
      "ना",
      "खातीर</w>"
    ],
    [
      "ब",
      "ंड"
    ],
    [
      "वाड",
      "त</w>"
    ],
    [
      "फु",
      "ल"
    ],
    [
      "अस्ति",
      "त्व"
    ],
    [
      "ध",
      "ां"
    ],
    [
      "आ",
      "कर्"
    ],
    [
      "श्र",
      "ी</w>"
    ],
    [
      "ें",
      "तल्या</w>"
    ],
    [
      "उं",
      "चे"
    ],
    [
      "आशिया",
      "ई</w>"
    ],
    [
      "कितल्या",
      "श"
    ],
    [
      "तमी",
      "ळ</w>"
    ],
    [
      "सर्",
      "ती</w>"
    ],
    [
      "ब",
      "ांग"
    ],
    [
      "ण",
      "ेंत</w>"
    ],
    [
      "कि",
      "त्याक</w>"
    ],
    [
      "क",
      "ाचे</w>"
    ],
    [
      "ल्ह",
      "व</w>"
    ],
    [
      "ो",
      "च</w>"
    ],
    [
      "अतिरि",
      "क्त</w>"
    ],
    [
      "स",
      "काळ"
    ],
    [
      "थ",
      "ळ</w>"
    ],
    [
      "नांव",
      "ां</w>"
    ],
    [
      "राव",
      "तात.</w>"
    ],
    [
      "सि",
      "क्"
    ],
    [
      "उत्कृ",
      "श्ट</w>"
    ],
    [
      "मू",
      "र्"
    ],
    [
      "न",
      "ू"
    ],
    [
      "स",
      "ांतल्या</w>"
    ],
    [
      "र",
      "द्द</w>"
    ],
    [
      "दाद",
      "ले</w>"
    ],
    [
      "कर",
      "ता,</w>"
    ],
    [
      "एक",
      "मे"
    ],
    [
      "न",
      "स</w>"
    ],
    [
      "फा",
      "तर"
    ],
    [
      "र्",
      "पण</w>"
    ],
    [
      "लॅ",
      "क्"
    ],
    [
      "तें",
      "को</w>"
    ],
    [
      "गु",
      "ला"
    ],
    [
      "ल्हा",
      "न"
    ],
    [
      "दुसर",
      "ें</w>"
    ],
    [
      "जिल्ल",
      "्यांत</w>"
    ],
    [
      "ड्र",
      "ाय"
    ],
    [
      "देश",
      "ी</w>"
    ],
    [
      "स्",
      "पे"
    ],
    [
      "हा",
      "र्"
    ],
    [
      "्य",
      "ार"
    ],
    [
      "दर्या",
      "देगे"
    ],
    [
      "निमाण",
      "्या</w>"
    ],
    [
      "विद्या",
      "पिठ"
    ],
    [
      "आवा",
      "ज</w>"
    ],
    [
      "सि",
      "ंग</w>"
    ],
    [
      "जा",
      "वप</w>"
    ],
    [
      "19",
      "0"
    ],
    [
      "व",
      "गड"
    ],
    [
      "पय",
      "श"
    ],
    [
      "वर्",
      "ल्ड</w>"
    ],
    [
      "मज्",
      "जा"
    ],
    [
      "पर्य",
      "ाय</w>"
    ],
    [
      "प्र",
      "स्ता"
    ],
    [
      "दाव",
      "ो</w>"
    ],
    [
      "मुखे",
      "ली</w>"
    ],
    [
      "इ",
      "रा"
    ],
    [
      "ज",
      "ख"
    ],
    [
      "वे",
      "ल्यान</w>"
    ],
    [
      "आं",
      "तर"
    ],
    [
      "न",
      "य"
    ],
    [
      "कटिबंध",
      "ीय</w>"
    ],
    [
      "थ",
      "ॅ"
    ],
    [
      "प्र",
      "ां"
    ],
    [
      "संवसार",
      "भर</w>"
    ],
    [
      "में",
      "दव"
    ],
    [
      "ाव",
      "ळ</w>"
    ],
    [
      "तिसर",
      "ो</w>"
    ],
    [
      "फुडार",
      "पणा"
    ],
    [
      "सॉफ्ट",
      "वॅ"
    ],
    [
      "कंपनी",
      "न</w>"
    ],
    [
      "च",
      "र</w>"
    ],
    [
      "ना",
      "कडेन</w>"
    ],
    [
      "न",
      "ै"
    ],
    [
      "बा",
      "द"
    ],
    [
      "नि",
      "र्म"
    ],
    [
      "ण",
      "ाय"
    ],
    [
      "तो",
      "खण"
    ],
    [
      "रा",
      "ग"
    ],
    [
      "परि",
      "श"
    ],
    [
      "ी",
      "चे</w>"
    ],
    [
      "श्",
      "ठ"
    ],
    [
      "घे",
      "वपी</w>"
    ],
    [
      "ाय",
      "ि"
    ],
    [
      "सांग",
      "ा"
    ],
    [
      "वस्",
      "तूं"
    ],
    [
      "ल",
      "ाची</w>"
    ],
    [
      "ल",
      "्याक</w>"
    ],
    [
      "9",
      "0</w>"
    ],
    [
      "लोकप्र",
      "ीय</w>"
    ],
    [
      "ट्",
      "टी</w>"
    ],
    [
      "शार",
      "ी</w>"
    ],
    [
      "म",
      "ाच"
    ],
    [
      "न",
      "ांक</w>"
    ],
    [
      "माग",
      "णी</w>"
    ],
    [
      "मेरे",
      "न"
    ],
    [
      "रि",
      "ज"
    ],
    [
      "खेळ",
      "टात.</w>"
    ],
    [
      "वांगड",
      "ाच</w>"
    ],
    [
      "चित्र",
      "वा"
    ],
    [
      "सं",
      "स्था"
    ],
    [
      "श",
      "ब्"
    ],
    [
      "वळख",
      "तात.</w>"
    ],
    [
      "मो",
      "ला"
    ],
    [
      "तुम",
      "चे</w>"
    ],
    [
      "जाल्ल",
      "ें</w>"
    ],
    [
      "क",
      "सो</w>"
    ],
    [
      "म",
      "ल"
    ],
    [
      "कु",
      "ळ"
    ],
    [
      "दूर",
      "चित्रवा"
    ],
    [
      "करप",
      "ाचे</w>"
    ],
    [
      "ांव",
      "ांगडा</w>"
    ],
    [
      "फ्र",
      "ॅ"
    ],
    [
      "ए",
      "प्री"
    ],
    [
      "ताब",
      "्यांत</w>"
    ],
    [
      "सं",
      "दर्"
    ],
    [
      "काळ",
      "ा"
    ],
    [
      "ं",
      "क"
    ],
    [
      "पू",
      "र्व"
    ],
    [
      "स",
      "ाची</w>"
    ],
    [
      "वि",
      "कि"
    ],
    [
      "पॅ",
      "रि"
    ],
    [
      "पु",
      "लि"
    ],
    [
      "क्रि",
      "स्तांव</w>"
    ],
    [
      "5",
      "00</w>"
    ],
    [
      "कितल्याश",
      "ाच</w>"
    ],
    [
      "सा",
      "द</w>"
    ],
    [
      "महारा",
      "ष्ट्र"
    ],
    [
      "मुळ",
      "ांत</w>"
    ],
    [
      "क",
      "ाचें</w>"
    ],
    [
      "घाल",
      "तात.</w>"
    ],
    [
      "वापर",
      "ूंक</w>"
    ],
    [
      "कार्",
      "ड</w>"
    ],
    [
      "रु",
      "प"
    ],
    [
      "चंद",
      "्र"
    ],
    [
      "मार",
      "लो.</w>"
    ],
    [
      "पातळ",
      "्ळ"
    ],
    [
      "रे",
      "शन</w>"
    ],
    [
      "क्",
      "लि"
    ],
    [
      "पड",
      "टात.</w>"
    ],
    [
      "देश",
      "ांत</w>"
    ],
    [
      "क्रम",
      "ांक"
    ],
    [
      "प्र",
      "क्रिया</w>"
    ],
    [
      "बंद",
      "खण"
    ],
    [
      "आ",
      "नी"
    ],
    [
      "हि",
      "मा"
    ],
    [
      "हवा",
      "मान</w>"
    ],
    [
      "ये",
      "क</w>"
    ],
    [
      "ल",
      "ंड</w>"
    ],
    [
      "जनगण",
      "ने"
    ],
    [
      "अश",
      "ीं</w>"
    ],
    [
      "हा",
      "न</w>"
    ],
    [
      "ए",
      "च"
    ],
    [
      "नॅ",
      "ट</w>"
    ],
    [
      "प्र",
      "ाय"
    ],
    [
      "भाग",
      ".</w>"
    ],
    [
      "वं",
      "त</w>"
    ],
    [
      "र",
      "क्त"
    ],
    [
      "अ",
      "न्न</w>"
    ],
    [
      "विक्र",
      "े"
    ],
    [
      "खाशे",
      "ल्या</w>"
    ],
    [
      "दर्",
      "ज"
    ],
    [
      "ग्",
      "ने"
    ],
    [
      "शा",
      "ह</w>"
    ],
    [
      "त",
      "क</w>"
    ],
    [
      "दु",
      "रु"
    ],
    [
      "मी",
      "टर"
    ],
    [
      "निर्मि",
      "ती</w>"
    ],
    [
      "का",
      "द"
    ],
    [
      "चडश",
      "ीं</w>"
    ],
    [
      "पुरस्",
      "कार"
    ],
    [
      "ऍ",
      "फ.</w>"
    ],
    [
      "कि",
      "र"
    ],
    [
      "घ",
      "रा"
    ],
    [
      "कार",
      "क</w>"
    ],
    [
      "बच",
      "त</w>"
    ],
    [
      "ल",
      "म</w>"
    ],
    [
      "शि",
      "मे"
    ],
    [
      "तोखण",
      "ाय</w>"
    ],
    [
      "कड",
      "े"
    ],
    [
      "पुर",
      "ी</w>"
    ],
    [
      "इ",
      "श्ट</w>"
    ],
    [
      "ल",
      "-"
    ],
    [
      "व",
      "ू"
    ],
    [
      "निय",
      "ा"
    ],
    [
      "सु",
      "विध"
    ],
    [
      "वि",
      "मान</w>"
    ],
    [
      "चि",
      "नी</w>"
    ],
    [
      "इ",
      "त्"
    ],
    [
      "र",
      "क्क"
    ],
    [
      "सगळ",
      "्यो</w>"
    ],
    [
      "आव",
      "य</w>"
    ],
    [
      "जर्म",
      "न</w>"
    ],
    [
      "पॅ",
      "न"
    ],
    [
      "नव",
      "ें</w>"
    ],
    [
      "राज",
      "</w>"
    ],
    [
      "म",
      "ह"
    ],
    [
      "चक",
      "ीत</w>"
    ],
    [
      "ध",
      "ांवड"
    ],
    [
      "न्हय",
      "कार"
    ],
    [
      ".ए",
      "स.</w>"
    ],
    [
      "येणाव",
      "ळ</w>"
    ],
    [
      "ळ",
      ",</w>"
    ],
    [
      "बा",
      "क</w>"
    ],
    [
      "आ",
      "ख्य"
    ],
    [
      "पिराय",
      "ेर</w>"
    ],
    [
      "सं",
      "चाल"
    ],
    [
      "डब्ल्यू",
      ".</w>"
    ],
    [
      "चित्रपट",
      "ांनी</w>"
    ],
    [
      "येरादार",
      "ी</w>"
    ],
    [
      "जा",
      "लो,</w>"
    ],
    [
      "ख्या",
      "स्त</w>"
    ],
    [
      "नि",
      "मण"
    ],
    [
      "वि",
      "का"
    ],
    [
      "प्र",
      "ॅ"
    ],
    [
      "प्रतिनि",
      "धी</w>"
    ],
    [
      ".ए",
      "स."
    ],
    [
      "घे",
      "तात.</w>"
    ],
    [
      "श",
      "र"
    ],
    [
      "सक्र",
      "ीय</w>"
    ],
    [
      "च",
      "ारी</w>"
    ],
    [
      "थ",
      "ॉ"
    ],
    [
      "परंपर",
      "ीक</w>"
    ],
    [
      "तल",
      "ीं</w>"
    ],
    [
      "लोक",
      "ांची</w>"
    ],
    [
      "आ",
      "न"
    ],
    [
      "येस",
      "स्वी</w>"
    ],
    [
      "ता",
      "ले</w>"
    ],
    [
      "केल",
      "ी,</w>"
    ],
    [
      "्यां",
      "त.</w>"
    ],
    [
      "जि",
      "व"
    ],
    [
      ")",
      ".</w>"
    ],
    [
      "फर",
      "क</w>"
    ],
    [
      "ये",
      "तात</w>"
    ],
    [
      "ह",
      "ाचें</w>"
    ],
    [
      "3",
      "1</w>"
    ],
    [
      "त",
      "ंत"
    ],
    [
      "मार्",
      "शल</w>"
    ],
    [
      "र",
      "ांनी</w>"
    ],
    [
      "त",
      "ू</w>"
    ],
    [
      "प्रा",
      "र्थ"
    ],
    [
      "म्ह",
      "ट"
    ],
    [
      "ते",
      "ल"
    ],
    [
      "ग",
      "न</w>"
    ],
    [
      "राज्य",
      "ाची</w>"
    ],
    [
      "7",
      "0</w>"
    ],
    [
      "ों",
      "</w>"
    ],
    [
      "ट्र",
      "ो"
    ],
    [
      "वा",
      "सी</w>"
    ],
    [
      "ां",
      "कन</w>"
    ],
    [
      "रोख",
      "ड"
    ],
    [
      "जे",
      "वण"
    ],
    [
      "ी",
      "चेर</w>"
    ],
    [
      "स",
      "ल्ला"
    ],
    [
      "आख्य",
      "ायि"
    ],
    [
      "वेव",
      "स्थापन</w>"
    ],
    [
      "नि",
      "र"
    ],
    [
      "य",
      "ड</w>"
    ],
    [
      "इंड",
      "िया</w>"
    ],
    [
      "क्र",
      "म</w>"
    ],
    [
      "का",
      "ल</w>"
    ],
    [
      "ी",
      "र,</w>"
    ],
    [
      "बा",
      "ब"
    ],
    [
      "चांच",
      "णी</w>"
    ],
    [
      "पॅ",
      "रा"
    ],
    [
      "रे",
      "क</w>"
    ],
    [
      "ऑ",
      "र्"
    ],
    [
      "वे",
      "च्या</w>"
    ],
    [
      "पदा",
      "र्थ</w>"
    ],
    [
      "जा",
      "ण्ट"
    ],
    [
      "प्र",
      "ेर"
    ],
    [
      "फुड",
      "ारी</w>"
    ],
    [
      "कोर",
      "ांत"
    ],
    [
      "सर्",
      "तीं"
    ],
    [
      "ए",
      "क्"
    ],
    [
      "बा",
      "स्"
    ],
    [
      "क",
      "ीय</w>"
    ],
    [
      "न",
      "ांतल्यान</w>"
    ],
    [
      "उ",
      "बार"
    ],
    [
      "माल",
      "मत्"
    ],
    [
      "सारक",
      "ो</w>"
    ],
    [
      "यल",
      "्यान</w>"
    ],
    [
      "अस्तित्व",
      "ांत</w>"
    ],
    [
      "वा",
      "ळ"
    ],
    [
      "भा",
      "शे"
    ],
    [
      "उद",
      "्या"
    ],
    [
      "अभि",
      "नय</w>"
    ],
    [
      "वच",
      "ून</w>"
    ],
    [
      "अ",
      "हवा"
    ],
    [
      "वि",
      "ंग"
    ],
    [
      "लागसार",
      "च्या</w>"
    ],
    [
      "फुडार",
      "पण</w>"
    ],
    [
      "क",
      "ाचेर</w>"
    ],
    [
      "लाग",
      "ून,</w>"
    ],
    [
      "फ्र",
      "ी"
    ],
    [
      "आम",
      "च्या</w>"
    ],
    [
      "भ",
      "शे"
    ],
    [
      "आस",
      "ल्यार,</w>"
    ],
    [
      "तु",
      "र्"
    ],
    [
      "व",
      "्य</w>"
    ],
    [
      "ह",
      "ाचे"
    ],
    [
      "प्र",
      "शा"
    ],
    [
      "ग",
      "म</w>"
    ],
    [
      "आशिल्ल",
      "ीं.</w>"
    ],
    [
      "लै",
      "ंग"
    ],
    [
      "रा",
      "वपी</w>"
    ],
    [
      "शेंकड",
      "्याच्या</w>"
    ],
    [
      "पण",
      "ां</w>"
    ],
    [
      "झ",
      "र्"
    ],
    [
      "को",
      "णा"
    ],
    [
      "लो",
      "कां</w>"
    ],
    [
      "भारत",
      "ाचो</w>"
    ],
    [
      "वेगळ",
      "े</w>"
    ],
    [
      "दि",
      "ता</w>"
    ],
    [
      "न",
      "च</w>"
    ],
    [
      "सार",
      "की</w>"
    ],
    [
      "इ",
      "तलो</w>"
    ],
    [
      "वि",
      "धान"
    ],
    [
      "खेळ",
      "ांनी</w>"
    ],
    [
      "बा",
      "ड"
    ],
    [
      "दे",
      "ग</w>"
    ],
    [
      "शार",
      "ि"
    ],
    [
      "ऍ",
      "न.</w>"
    ],
    [
      "पर",
      "े"
    ],
    [
      "कार",
      "कीर्"
    ],
    [
      "थे",
      "ट</w>"
    ],
    [
      "ख",
      "ी</w>"
    ],
    [
      "के",
      "लो,</w>"
    ],
    [
      "आड",
      "ाय"
    ],
    [
      "ा",
      ".</w>"
    ],
    [
      "अधि",
      "कार</w>"
    ],
    [
      "कर",
      "ताले.</w>"
    ],
    [
      "जाव",
      "चे</w>"
    ],
    [
      "कार्या",
      "वळ</w>"
    ],
    [
      "जि",
      "वा"
    ],
    [
      "कॅ",
      "न्"
    ],
    [
      "ट्",
      "र</w>"
    ],
    [
      "ई",
      "."
    ],
    [
      "कु",
      "डी"
    ],
    [
      "भांग",
      "रा</w>"
    ],
    [
      "क",
      "ांच्या</w>"
    ],
    [
      "क्",
      "सा"
    ],
    [
      "क",
      "न्न"
    ],
    [
      "आप",
      "णाय"
    ],
    [
      "यल",
      "े.</w>"
    ],
    [
      "ी",
      "व</w>"
    ],
    [
      "क",
      "मी</w>"
    ],
    [
      "रु",
      "पां"
    ],
    [
      "ल्य",
      "ु"
    ],
    [
      "कारा",
      "त्मक</w>"
    ],
    [
      "स",
      "ाचेर</w>"
    ],
    [
      "कॅलिफोर्",
      "निय"
    ],
    [
      "्य",
      "क</w>"
    ],
    [
      "ाय",
      "ा"
    ],
    [
      "काम",
      "ां</w>"
    ],
    [
      "ब",
      "ै"
    ],
    [
      "च",
      "ा</w>"
    ],
    [
      "विशा",
      "णू</w>"
    ],
    [
      "जाल्ल",
      "ें.</w>"
    ],
    [
      "पड",
      "टा</w>"
    ],
    [
      "चे",
      "न्न"
    ],
    [
      "न",
      "ौ"
    ],
    [
      "जपा",
      "नी</w>"
    ],
    [
      "\"",
      ".</w>"
    ],
    [
      "खेळगड",
      "्यांक</w>"
    ],
    [
      "जि",
      "वन"
    ],
    [
      "स्ट्रो",
      "क</w>"
    ],
    [
      "रे",
      "टि"
    ],
    [
      "ई",
      "स्ट</w>"
    ],
    [
      "ज",
      "्या</w>"
    ],
    [
      "मद",
      "लें</w>"
    ],
    [
      "म",
      "द</w>"
    ],
    [
      "जा",
      "तूंत</w>"
    ],
    [
      "कितले",
      "शेच</w>"
    ],
    [
      "सं",
      "भाव"
    ],
    [
      "कितें",
      "य</w>"
    ],
    [
      "कला",
      "कार"
    ],
    [
      "गि",
      "तां</w>"
    ],
    [
      "ट",
      "्यू"
    ],
    [
      "सत्",
      "ता</w>"
    ],
    [
      "वा",
      "स</w>"
    ],
    [
      "199",
      "6</w>"
    ],
    [
      "थ",
      "ंड</w>"
    ],
    [
      "आस",
      "लो.</w>"
    ],
    [
      "जे",
      "वण</w>"
    ],
    [
      "र",
      "िया</w>"
    ],
    [
      "स्ट",
      "ु"
    ],
    [
      "जा",
      "वपाचो</w>"
    ],
    [
      "पदा",
      "र्पण</w>"
    ],
    [
      "च",
      "ीत</w>"
    ],
    [
      "मि",
      "र"
    ],
    [
      "इ",
      "श्ट"
    ],
    [
      "म्हज",
      "े</w>"
    ],
    [
      "शारि",
      "रीक</w>"
    ],
    [
      "वर्",
      "सा"
    ],
    [
      "र्",
      "न</w>"
    ],
    [
      "सि",
      "स</w>"
    ],
    [
      "समु",
      "दाय"
    ],
    [
      "स",
      "हाय"
    ],
    [
      "अ",
      "ब्"
    ],
    [
      "ब",
      "रा"
    ],
    [
      "स",
      "ल्लो</w>"
    ],
    [
      "राज्य",
      "ाच्या</w>"
    ],
    [
      "परिस्थि",
      "ती</w>"
    ],
    [
      "उप",
      "ाय</w>"
    ],
    [
      "रो",
      "ग</w>"
    ],
    [
      "पण",
      "ांत</w>"
    ],
    [
      "ह",
      "जार"
    ],
    [
      "स्व",
      "तंत्र</w>"
    ],
    [
      "कर",
      "ची</w>"
    ],
    [
      "निर्ण",
      "य</w>"
    ],
    [
      "व्ह",
      "ां"
    ],
    [
      "कॅ",
      "थ"
    ],
    [
      "र",
      ".</w>"
    ],
    [
      "तरणा",
      "ट"
    ],
    [
      "बर",
      "य"
    ],
    [
      ".ए",
      "."
    ],
    [
      "स्टे",
      "ट</w>"
    ],
    [
      "वेंचणुक",
      "ेंत</w>"
    ],
    [
      "न",
      "ं"
    ],
    [
      "भे",
      "ट"
    ],
    [
      "कर",
      "चो</w>"
    ],
    [
      "दोंग",
      "रा"
    ],
    [
      "गि",
      "रे"
    ],
    [
      "ब",
      "ल"
    ],
    [
      "वि",
      "ज्ञा"
    ],
    [
      "ज",
      "ल"
    ],
    [
      "राश्ट्रा",
      "ध्यक्ष</w>"
    ],
    [
      "त",
      "शें</w>"
    ],
    [
      "ू",
      ",</w>"
    ],
    [
      "आड",
      "ाव"
    ],
    [
      "ना",
      "का</w>"
    ],
    [
      "गो",
      "ड"
    ],
    [
      "स",
      "मान</w>"
    ],
    [
      "सार",
      "कि"
    ],
    [
      "विमान",
      "तळ</w>"
    ],
    [
      "दर्",
      "जो</w>"
    ],
    [
      "ाय",
      "ी</w>"
    ],
    [
      "कि",
      "."
    ],
    [
      "स्वातंत्र",
      "्य</w>"
    ],
    [
      "आर्व",
      "िल्ल्या</w>"
    ],
    [
      "मुंब",
      "य</w>"
    ],
    [
      "या",
      "द</w>"
    ],
    [
      "वेळ",
      "ार,</w>"
    ],
    [
      "वि",
      "नो"
    ],
    [
      "खू",
      "ब"
    ],
    [
      "कर्म",
      "चारी</w>"
    ],
    [
      "ऑ",
      "फि"
    ],
    [
      "ग्",
      "लो"
    ],
    [
      "झ",
      "ॅ"
    ],
    [
      "वि",
      "ंडो"
    ],
    [
      "कावंटीं",
      "तल्या</w>"
    ],
    [
      "भा",
      "ड"
    ],
    [
      "देवळ",
      "ां</w>"
    ],
    [
      "सर्",
      "वो"
    ],
    [
      "तर",
      "ीक"
    ],
    [
      "ा",
      "व</w>"
    ],
    [
      "ता",
      "त"
    ],
    [
      "राज",
      "स्था"
    ],
    [
      "थ",
      "्"
    ],
    [
      "लक्ष",
      "ण"
    ],
    [
      "आशिल्ल",
      "्यो.</w>"
    ],
    [
      "अश",
      "ो"
    ],
    [
      "स्व",
      "ताक</w>"
    ],
    [
      "विद्यार्थ",
      "ी</w>"
    ],
    [
      "फुट",
      "बॉ"
    ],
    [
      "196",
      "0</w>"
    ],
    [
      "फि",
      "लि"
    ],
    [
      "नु",
      "स्"
    ],
    [
      "जु",
      "ळ"
    ],
    [
      "घड",
      "ोवन</w>"
    ],
    [
      "खंय",
      "चे"
    ],
    [
      "य",
      "ार"
    ],
    [
      "च",
      "ें"
    ],
    [
      "केल",
      "ें,</w>"
    ],
    [
      "प्र",
      "कल्प</w>"
    ],
    [
      "स",
      "ल्"
    ],
    [
      "नेम",
      "णूक</w>"
    ],
    [
      "आवृत्",
      "ती</w>"
    ],
    [
      "ए",
      "फ.</w>"
    ],
    [
      "ए",
      "क्स"
    ],
    [
      "आ",
      "घा"
    ],
    [
      "ग",
      "ू</w>"
    ],
    [
      "कड",
      "ल्या</w>"
    ],
    [
      "क",
      "श"
    ],
    [
      "स्ट",
      "ार</w>"
    ],
    [
      "ण",
      "ाची</w>"
    ],
    [
      "ज्ञ",
      "ान</w>"
    ],
    [
      "सक",
      "यल्या</w>"
    ],
    [
      "सम्रा",
      "ट</w>"
    ],
    [
      "कू",
      "ड</w>"
    ],
    [
      "स",
      "ीन</w>"
    ],
    [
      "दिग्",
      "दर्शीत</w>"
    ],
    [
      "अ",
      "ड"
    ],
    [
      "त",
      "र्"
    ],
    [
      "लो",
      "च</w>"
    ],
    [
      "्र",
      "ि"
    ],
    [
      "उत्",
      "त"
    ],
    [
      "प",
      "क्ष</w>"
    ],
    [
      "अस्त",
      "ं"
    ],
    [
      "जिख",
      "लो.</w>"
    ],
    [
      "दि",
      "वपाची</w>"
    ],
    [
      "शक",
      "ता,</w>"
    ],
    [
      "तिग",
      "ून</w>"
    ],
    [
      "ध्",
      "द"
    ],
    [
      "घे",
      "वप</w>"
    ],
    [
      "ओ",
      "."
    ],
    [
      "थ",
      "ु"
    ],
    [
      "2",
      ","
    ],
    [
      "राज्य",
      "ांनी</w>"
    ],
    [
      "गर्",
      "भ"
    ],
    [
      "इ",
      "श्"
    ],
    [
      "हॉस्पि",
      "ट"
    ],
    [
      "उत्",
      "तर"
    ],
    [
      "नाशिल्ल",
      "ें</w>"
    ],
    [
      "सो",
      "य"
    ],
    [
      "निव",
      "ळ</w>"
    ],
    [
      "म",
      "ाची</w>"
    ],
    [
      "सुरवे",
      "च्या</w>"
    ],
    [
      "वर्गी",
      "करण</w>"
    ],
    [
      "बांग",
      "ला"
    ],
    [
      "म",
      "र्"
    ],
    [
      "वेंच",
      "णूक</w>"
    ],
    [
      "ऍ",
      "न"
    ],
    [
      "पळय",
      ".</w>"
    ],
    [
      "प",
      "द्"
    ],
    [
      "परंपर",
      "ा</w>"
    ],
    [
      "ब",
      "ें"
    ],
    [
      "वळेर",
      "ेंत</w>"
    ],
    [
      "कर",
      "णां</w>"
    ],
    [
      "के",
      "च्या</w>"
    ],
    [
      "म्हयन",
      "े</w>"
    ],
    [
      "उद",
      "ेंत</w>"
    ],
    [
      "वाह",
      "न</w>"
    ],
    [
      "म्हज",
      "ो</w>"
    ],
    [
      "मो",
      "ग"
    ],
    [
      "राज्य",
      "पाल</w>"
    ],
    [
      "आदार",
      "ीत</w>"
    ],
    [
      "चडश",
      "ी</w>"
    ],
    [
      "न्हंय",
      "ो</w>"
    ],
    [
      "लाग",
      "ीं"
    ],
    [
      "प्",
      "लि"
    ],
    [
      "खाशे",
      "ले</w>"
    ],
    [
      "वि",
      "शि"
    ],
    [
      "दि",
      "साळ"
    ],
    [
      "प",
      "ौ"
    ],
    [
      "लाग",
      "लो.</w>"
    ],
    [
      "आय",
      "िल्ल्या</w>"
    ],
    [
      "टॅ",
      "क्स"
    ],
    [
      "का",
      "त</w>"
    ],
    [
      "आ",
      "कार</w>"
    ],
    [
      "वाठार",
      "ांतल्या</w>"
    ],
    [
      "उपरांत",
      "च्या</w>"
    ],
    [
      "वा",
      "ऱ"
    ],
    [
      "अव",
      "स्थ"
    ],
    [
      "दु",
      "स"
    ],
    [
      "ड",
      "ांत</w>"
    ],
    [
      "ये",
      "वन</w>"
    ],
    [
      "श",
      "ां"
    ],
    [
      "सगळ",
      "ें</w>"
    ],
    [
      "साम",
      "की</w>"
    ],
    [
      "ट",
      "्यु"
    ],
    [
      "ली",
      "च्या</w>"
    ],
    [
      "ति",
      "चें</w>"
    ],
    [
      "पु",
      "रात"
    ],
    [
      "वेगळ",
      "ो</w>"
    ],
    [
      "मन",
      "रिज"
    ],
    [
      "लैंग",
      "ीक</w>"
    ],
    [
      "तक",
      "ली</w>"
    ],
    [
      "ह",
      "ी"
    ],
    [
      "घो",
      "श"
    ],
    [
      "प्रत्य",
      "क्ष</w>"
    ],
    [
      "स्",
      "कू"
    ],
    [
      "इ",
      "बाड"
    ],
    [
      "खर",
      "ें</w>"
    ],
    [
      "भोंवत",
      "ण"
    ],
    [
      "गु",
      "ं"
    ],
    [
      "ट",
      "न"
    ],
    [
      "यू",
      "."
    ],
    [
      "प्रशिक्ष",
      "क</w>"
    ],
    [
      "म्",
      "पि"
    ],
    [
      "199",
      "5</w>"
    ],
    [
      "दि",
      "तात</w>"
    ],
    [
      "देश",
      "ांतल्या</w>"
    ],
    [
      "अ",
      "फ"
    ],
    [
      "दवर",
      "पाक</w>"
    ],
    [
      "ीं",
      "चेर</w>"
    ],
    [
      "पं",
      "च"
    ],
    [
      "स्वर",
      "ू"
    ],
    [
      "इं",
      "जि"
    ],
    [
      "स",
      "ाचे</w>"
    ],
    [
      "प",
      "ें"
    ],
    [
      "बाय",
      "लो</w>"
    ],
    [
      "अप",
      "घा"
    ],
    [
      "दि",
      "वप</w>"
    ],
    [
      "आ",
      "ला"
    ],
    [
      "कार्या",
      "लय"
    ],
    [
      "स",
      "ाचें</w>"
    ],
    [
      "गो",
      "र"
    ],
    [
      "मैल",
      ")</w>"
    ],
    [
      "गां",
      "ध"
    ],
    [
      "इ",
      "तले</w>"
    ],
    [
      "नु",
      "स्त"
    ],
    [
      "ए",
      "ं"
    ],
    [
      "शार",
      "ांनी</w>"
    ],
    [
      "सुरक्ष",
      "ीत</w>"
    ],
    [
      "ता",
      "य"
    ],
    [
      "थाराय",
      "लें.</w>"
    ],
    [
      "बु",
      "द्"
    ],
    [
      "या",
      "त्र"
    ],
    [
      "कॅ",
      "रो"
    ],
    [
      "कर्म",
      "चा"
    ],
    [
      "फ्र",
      "ा"
    ],
    [
      "जर्म",
      "नी"
    ],
    [
      "सा",
      "मान"
    ],
    [
      "के",
      "च</w>"
    ],
    [
      "नि",
      "शे"
    ],
    [
      "ल्ल",
      "ें</w>"
    ],
    [
      "केर",
      "ळ</w>"
    ],
    [
      "संग्र",
      "हा"
    ],
    [
      "मो",
      "ट"
    ],
    [
      "मराठ",
      "ा</w>"
    ],
    [
      "म्हण",
      "टात,</w>"
    ],
    [
      "बि",
      "ंद"
    ],
    [
      "ल",
      "स</w>"
    ],
    [
      "ब्र",
      "े"
    ],
    [
      "फुडारपणा",
      "खाला</w>"
    ],
    [
      "ल्",
      "टी</w>"
    ],
    [
      "श्",
      "टी</w>"
    ],
    [
      "श",
      "िया</w>"
    ],
    [
      "वर्",
      "ड</w>"
    ],
    [
      "बा",
      "व</w>"
    ],
    [
      "पु",
      "जा</w>"
    ],
    [
      "ता",
      "णीं</w>"
    ],
    [
      "ख",
      "ट"
    ],
    [
      "आम",
      "कां</w>"
    ],
    [
      "कर्मचा",
      "ऱ"
    ],
    [
      "साय",
      "कल</w>"
    ],
    [
      "क",
      "ली</w>"
    ],
    [
      "वळख",
      "तात</w>"
    ],
    [
      "आ",
      "ग्ने"
    ],
    [
      "शे",
      "क</w>"
    ],
    [
      "ना",
      "थ</w>"
    ],
    [
      "व्ह",
      "ी."
    ],
    [
      "न",
      "ूय</w>"
    ],
    [
      "ग",
      "व्हर्"
    ],
    [
      "प",
      "ठ"
    ],
    [
      "ण",
      "ाच्या</w>"
    ],
    [
      "श",
      "ं"
    ],
    [
      "वच",
      "ूंक</w>"
    ],
    [
      "क",
      "सो"
    ],
    [
      "च्",
      "छ"
    ],
    [
      "य",
      "ं"
    ],
    [
      "प्र",
      "करण"
    ],
    [
      "क्",
      "ट"
    ],
    [
      "ऑस्ट्रे",
      "लियन</w>"
    ],
    [
      "जिख",
      "लें.</w>"
    ],
    [
      "ए",
      "ल.</w>"
    ],
    [
      "विशि",
      "श्ट</w>"
    ],
    [
      "का",
      "ग"
    ],
    [
      "रां",
      "द"
    ],
    [
      "शै",
      "ली</w>"
    ],
    [
      "कबला",
      "त</w>"
    ],
    [
      "निमाण",
      "ो</w>"
    ],
    [
      "शुल्",
      "क</w>"
    ],
    [
      "को",
      "रिय"
    ],
    [
      "काय",
      "दो</w>"
    ],
    [
      "दाख",
      "यता.</w>"
    ],
    [
      "र",
      "ाची</w>"
    ],
    [
      "ध्य",
      "क्ष"
    ],
    [
      "ड",
      "न</w>"
    ],
    [
      "प्रे",
      "क्ष"
    ],
    [
      "झु",
      "जा"
    ],
    [
      "त",
      "्यांत</w>"
    ],
    [
      "चळ",
      "वळ"
    ],
    [
      "आरो",
      "प</w>"
    ],
    [
      "वर्",
      "स</w>"
    ],
    [
      "बॉ",
      "क्स</w>"
    ],
    [
      "वा",
      "टा"
    ],
    [
      "सहाय",
      "्यक</w>"
    ],
    [
      "बंदखण",
      "ींत</w>"
    ],
    [
      "वि",
      "जय"
    ],
    [
      "उश्",
      "ण"
    ],
    [
      "ता",
      "बो</w>"
    ],
    [
      "सं",
      "द</w>"
    ],
    [
      "हाल",
      "चा"
    ],
    [
      "थां",
      "ब"
    ],
    [
      "तुम",
      "चो</w>"
    ],
    [
      "इतिहा",
      "स</w>"
    ],
    [
      "ज",
      "मीन</w>"
    ],
    [
      "ग",
      "ती</w>"
    ],
    [
      "जाल",
      "्या</w>"
    ],
    [
      "ता",
      "त्"
    ],
    [
      "श",
      "ांत</w>"
    ],
    [
      "शि",
      "का"
    ],
    [
      "प्",
      "लॅ"
    ],
    [
      "दिस",
      "ता"
    ],
    [
      "क",
      "ांतल्या</w>"
    ],
    [
      "पंगड",
      "ांत</w>"
    ],
    [
      "न्हय",
      "कार</w>"
    ],
    [
      "अ",
      "जून</w>"
    ],
    [
      "कर",
      "ून,</w>"
    ],
    [
      "विस्ता",
      "र</w>"
    ],
    [
      "से",
      "ना"
    ],
    [
      "भर",
      "पूर</w>"
    ],
    [
      "पड",
      "लें.</w>"
    ],
    [
      "व",
      "तात.</w>"
    ],
    [
      "जाल",
      "ा</w>"
    ],
    [
      "एम",
      "."
    ],
    [
      "पर",
      "्या"
    ],
    [
      "वा",
      "वु"
    ],
    [
      "आयल",
      "ो</w>"
    ],
    [
      "्यां",
      "मदीं</w>"
    ],
    [
      "व",
      "ड"
    ],
    [
      "मि",
      "क</w>"
    ],
    [
      "ज",
      "ला"
    ],
    [
      "ट",
      "ु"
    ],
    [
      "तळ",
      "ें</w>"
    ],
    [
      "सर्",
      "तींनी</w>"
    ],
    [
      "दवर",
      "ूंक</w>"
    ],
    [
      "मे",
      "क</w>"
    ],
    [
      "म",
      "र</w>"
    ],
    [
      "पर्य",
      "ट"
    ],
    [
      "भारत",
      "ांतलें</w>"
    ],
    [
      "सें",
      "ट</w>"
    ],
    [
      "निवृत्",
      "त</w>"
    ],
    [
      "संशोध",
      "न</w>"
    ],
    [
      "सि",
      "ंड"
    ],
    [
      "क्र",
      "मान</w>"
    ],
    [
      "क्रॉ",
      "स</w>"
    ],
    [
      "ग",
      "ौ"
    ],
    [
      "जा",
      "ळ"
    ],
    [
      "कार",
      "किर्"
    ],
    [
      "ल्ल",
      "्यान</w>"
    ],
    [
      "सि",
      "लि"
    ],
    [
      "सगळ",
      "ीं</w>"
    ],
    [
      "व्ह",
      "ी"
    ],
    [
      "बास्",
      "केट"
    ],
    [
      "ल",
      "ाचेर</w>"
    ],
    [
      "र",
      "ीत</w>"
    ],
    [
      "के",
      "न्ना"
    ],
    [
      "य",
      "ेर</w>"
    ],
    [
      "पर्य",
      "टन</w>"
    ],
    [
      "लोक",
      "ांचो</w>"
    ],
    [
      "सु",
      "मार"
    ],
    [
      "वि",
      "धी</w>"
    ],
    [
      "कार्यावळ",
      "ी</w>"
    ],
    [
      "ल्या",
      "त</w>"
    ],
    [
      "194",
      "7</w>"
    ],
    [
      "वावु",
      "र"
    ],
    [
      "मॅ",
      "क्सि"
    ],
    [
      "5",
      "0"
    ],
    [
      "ंब",
      "ून</w>"
    ],
    [
      "बायल",
      "ां</w>"
    ],
    [
      "व्हि",
      "ए"
    ],
    [
      "भा",
      "शें"
    ],
    [
      "स्",
      "क्"
    ],
    [
      "स्फो",
      "ट</w>"
    ],
    [
      "डि",
      "स्"
    ],
    [
      "ह",
      "र्"
    ],
    [
      "बायल",
      "ांक</w>"
    ],
    [
      "गु",
      "प्"
    ],
    [
      "पु",
      "रा"
    ],
    [
      "सैन",
      "्यान</w>"
    ],
    [
      "पळ",
      "ून</w>"
    ],
    [
      "व",
      "राक</w>"
    ],
    [
      "पयल",
      "ीं,</w>"
    ],
    [
      "प्रदेश",
      "ांतल्या</w>"
    ],
    [
      "डि",
      "ओ</w>"
    ],
    [
      "प्र",
      "सार</w>"
    ],
    [
      "माध्य",
      "म"
    ],
    [
      "ज",
      "ं"
    ],
    [
      "ते",
      "च</w>"
    ],
    [
      "प",
      "द</w>"
    ],
    [
      "वेग",
      "ान</w>"
    ],
    [
      "प्र",
      "कल्प"
    ],
    [
      "क्",
      "टर</w>"
    ],
    [
      "मायक्रो",
      "सॉफ्"
    ],
    [
      "क",
      "म्यु"
    ],
    [
      "विक्र",
      "ी</w>"
    ],
    [
      "कि",
      "तलो</w>"
    ],
    [
      "नांव",
      "ाचो</w>"
    ],
    [
      "ई",
      "शा"
    ],
    [
      "ल",
      "िया</w>"
    ],
    [
      "हिमा",
      "लय"
    ],
    [
      "राज",
      "वाड"
    ],
    [
      "ना",
      "र</w>"
    ],
    [
      "त्",
      "त"
    ],
    [
      "दाख",
      "यल"
    ],
    [
      "कु",
      "शीक</w>"
    ],
    [
      "विभाग",
      "ांत</w>"
    ],
    [
      "ख",
      "ल"
    ],
    [
      "देव",
      "ी</w>"
    ],
    [
      "प्र",
      "णा"
    ],
    [
      "ता",
      "र</w>"
    ],
    [
      "टि",
      "का</w>"
    ],
    [
      "श्र",
      "ि"
    ],
    [
      "1",
      "."
    ],
    [
      "साहि",
      "त्य"
    ],
    [
      "फार",
      "ीक"
    ],
    [
      "ग",
      ",</w>"
    ],
    [
      "धो",
      "क"
    ],
    [
      "आशिल्ल",
      "ी,</w>"
    ],
    [
      "इ",
      ".</w>"
    ],
    [
      "दु",
      "कर"
    ],
    [
      "सद",
      "्याच्या</w>"
    ],
    [
      "क्रमांक",
      "ाचेर</w>"
    ],
    [
      "पो",
      "लो</w>"
    ],
    [
      "व्य",
      "ाया"
    ],
    [
      "ब्र",
      "ॉ"
    ],
    [
      "व",
      "ाय</w>"
    ],
    [
      "सै",
      "नि"
    ],
    [
      "ंद",
      "्र"
    ],
    [
      "राव",
      "पाक</w>"
    ],
    [
      "पावं",
      "ड"
    ],
    [
      "पॉ",
      "लि"
    ],
    [
      "ंग",
      ",</w>"
    ],
    [
      "ण",
      "ाचो</w>"
    ],
    [
      "पर्या",
      "वर"
    ],
    [
      "3",
      "5</w>"
    ],
    [
      "कुश",
      "ळ"
    ],
    [
      "त",
      "ांचेर</w>"
    ],
    [
      "चि",
      "त्र</w>"
    ],
    [
      "में",
      "ट</w>"
    ],
    [
      "कथ",
      "ा</w>"
    ],
    [
      "अट",
      "क</w>"
    ],
    [
      "पंगड",
      "ाक</w>"
    ],
    [
      "ब्",
      "लॉ"
    ],
    [
      "र",
      "शिय"
    ],
    [
      "ऍ",
      "म.</w>"
    ],
    [
      "ये",
      "स</w>"
    ],
    [
      "च",
      "ूक</w>"
    ],
    [
      "ह",
      "क्"
    ],
    [
      "वि",
      "द्"
    ],
    [
      "ड",
      "ाक</w>"
    ],
    [
      "प्रार्थ",
      "ना</w>"
    ],
    [
      "वापर",
      "ताले.</w>"
    ],
    [
      "क्ष",
      "म"
    ],
    [
      "ांत",
      "य</w>"
    ],
    [
      "हा",
      "ज"
    ],
    [
      "ता",
      "णे</w>"
    ],
    [
      "संभाव",
      "्य</w>"
    ],
    [
      "मद",
      "ली</w>"
    ],
    [
      "कि",
      "मी</w>"
    ],
    [
      "नगरपालि",
      "का</w>"
    ],
    [
      "य",
      "न</w>"
    ],
    [
      "ाच",
      "ार"
    ],
    [
      "पु",
      "ळ"
    ],
    [
      "साव",
      "न,</w>"
    ],
    [
      "आय",
      "क"
    ],
    [
      "म",
      "ौ"
    ],
    [
      "पत्",
      "ती</w>"
    ],
    [
      "ख",
      "ो</w>"
    ],
    [
      "थ",
      "ा</w>"
    ],
    [
      "खर",
      "ेंच</w>"
    ],
    [
      "आस",
      "पाव"
    ],
    [
      "पंगड",
      "ाचो</w>"
    ],
    [
      "ट",
      "ींत</w>"
    ],
    [
      "मॅ",
      "क"
    ],
    [
      "कारकीर्",
      "द</w>"
    ],
    [
      "पि",
      "ंग</w>"
    ],
    [
      "श्",
      "वर</w>"
    ],
    [
      "विरो",
      "धी</w>"
    ],
    [
      "क",
      "ांची</w>"
    ],
    [
      "स",
      "ध"
    ],
    [
      "प",
      "त्र</w>"
    ],
    [
      "दु",
      "ख"
    ],
    [
      "इत्",
      "सा</w>"
    ],
    [
      "गे",
      "म</w>"
    ],
    [
      "डि",
      "झ"
    ],
    [
      "निव",
      "ड</w>"
    ],
    [
      "ऍ",
      "न्"
    ],
    [
      "क",
      "न्"
    ],
    [
      "रिपब्",
      "लि"
    ],
    [
      "नगरपालि",
      "कें"
    ],
    [
      "रोख",
      "डो"
    ],
    [
      "गिरे",
      "स्त</w>"
    ],
    [
      "सर्वो",
      "च्च</w>"
    ],
    [
      "का",
      "ण"
    ],
    [
      "शु",
      "क्र"
    ],
    [
      "हंगा",
      "मांत</w>"
    ],
    [
      "ख्",
      "ख"
    ],
    [
      "ाच",
      "्यान</w>"
    ],
    [
      "ग्रे",
      "ट</w>"
    ],
    [
      "ेर",
      ",</w>"
    ],
    [
      "न्ह",
      "ि"
    ],
    [
      "व",
      "साह"
    ],
    [
      "निय",
      "ोज"
    ],
    [
      "मंड",
      "ळ</w>"
    ],
    [
      "गिराय",
      "क</w>"
    ],
    [
      "कॅ",
      "ल्"
    ],
    [
      "चि",
      "ं"
    ],
    [
      "टी",
      "चो</w>"
    ],
    [
      "ली",
      "गांत</w>"
    ],
    [
      "रा",
      "व</w>"
    ],
    [
      "मा",
      "लि"
    ],
    [
      "ल",
      "."
    ],
    [
      "एप्री",
      "ल</w>"
    ],
    [
      "लॅ",
      "ण्ड"
    ],
    [
      "लक्ष",
      "ांत</w>"
    ],
    [
      "सुच",
      "ोव"
    ],
    [
      "व",
      "स्त</w>"
    ],
    [
      "काड",
      "पाक</w>"
    ],
    [
      "ब",
      "रे"
    ],
    [
      "उत्",
      "प"
    ],
    [
      "वा",
      "ता"
    ],
    [
      "आ",
      "ठ"
    ],
    [
      "खा",
      "न</w>"
    ],
    [
      "वेगवेगळ",
      "्यो</w>"
    ],
    [
      "पड",
      "ूं</w>"
    ],
    [
      "व",
      "णे"
    ],
    [
      "संवसार",
      "ांतल्या</w>"
    ],
    [
      "कर",
      "चें</w>"
    ],
    [
      "सं",
      "स"
    ],
    [
      "च",
      "्यु"
    ],
    [
      "ृ",
      "त"
    ],
    [
      "ण",
      "ीक</w>"
    ],
    [
      "ल",
      "ीक</w>"
    ],
    [
      "प्",
      "ला"
    ],
    [
      "वांट",
      "ून</w>"
    ],
    [
      "व",
      "ीक</w>"
    ],
    [
      "गांव",
      "गि"
    ],
    [
      "उद",
      "ें"
    ],
    [
      "सा",
      "व्या</w>"
    ],
    [
      "वगड",
      "ाय"
    ],
    [
      "इ",
      "टा"
    ],
    [
      "विश",
      "य"
    ],
    [
      "पोरण",
      "्या</w>"
    ],
    [
      "ले",
      "ख</w>"
    ],
    [
      "काँग्रे",
      "स</w>"
    ],
    [
      "अंतर",
      "ाचेर</w>"
    ],
    [
      "लि",
      "न</w>"
    ],
    [
      "घे",
      "तलो</w>"
    ],
    [
      "तुम",
      "ची</w>"
    ],
    [
      "फु",
      "कट</w>"
    ],
    [
      "जाल",
      "्यात.</w>"
    ],
    [
      "जि",
      "वि"
    ],
    [
      "सत्",
      "ते"
    ],
    [
      "ज",
      "र"
    ],
    [
      "मो",
      "हि"
    ],
    [
      "झ",
      "ां"
    ],
    [
      "डब्ल्यू",
      "."
    ],
    [
      "तातूं",
      "तले</w>"
    ],
    [
      "्य",
      "ांतलो</w>"
    ],
    [
      "जा",
      "त</w>"
    ],
    [
      "ए",
      "खा"
    ],
    [
      "स्रो",
      "त</w>"
    ],
    [
      "ाव",
      "ळ"
    ],
    [
      "आस",
      "पाक</w>"
    ],
    [
      "विरो",
      "ध"
    ],
    [
      "वर्",
      "ग</w>"
    ],
    [
      "199",
      "2</w>"
    ],
    [
      "खेळ",
      "पाक</w>"
    ],
    [
      "स्",
      "के"
    ],
    [
      "वापर",
      "ूं</w>"
    ],
    [
      "भोंव",
      "डे"
    ],
    [
      "म",
      "तान</w>"
    ],
    [
      "जख",
      "मी</w>"
    ],
    [
      "म्हट",
      "ल्यार</w>"
    ],
    [
      "जाल",
      "ां</w>"
    ],
    [
      "आ",
      "</w>"
    ],
    [
      "कर",
      "ीत</w>"
    ],
    [
      "कार",
      "ांक</w>"
    ],
    [
      "इ",
      "जि"
    ],
    [
      "सिंड",
      "्रो"
    ],
    [
      "शी",
      "ख</w>"
    ],
    [
      "ू",
      "क"
    ],
    [
      "ब",
      "्यु"
    ],
    [
      "भ",
      "ग"
    ],
    [
      "ऍ",
      "ड"
    ],
    [
      "लाग",
      "ले.</w>"
    ],
    [
      "फेर",
      "येंत</w>"
    ],
    [
      "ऑलिंपि",
      "कांत</w>"
    ],
    [
      "क्ष",
      "य"
    ],
    [
      "प",
      "न</w>"
    ],
    [
      "विक",
      "तें</w>"
    ],
    [
      "ज",
      "म्"
    ],
    [
      "राज्य",
      "ाचो</w>"
    ],
    [
      "ड",
      "ान</w>"
    ],
    [
      "शि",
      "ट"
    ],
    [
      "य",
      "श"
    ],
    [
      "फू",
      "ट"
    ],
    [
      "र",
      "स</w>"
    ],
    [
      "गांव",
      ".</w>"
    ],
    [
      "यल",
      "े</w>"
    ],
    [
      "व",
      "जन</w>"
    ],
    [
      "फ्",
      "लॅ"
    ],
    [
      "दूरचित्रवा",
      "णी</w>"
    ],
    [
      "एकमे",
      "व</w>"
    ],
    [
      "ज",
      "य</w>"
    ],
    [
      "उर",
      "फाट"
    ],
    [
      "199",
      "7</w>"
    ],
    [
      "ये",
      "चो</w>"
    ],
    [
      "से",
      "क"
    ],
    [
      "संस्कृ",
      "त</w>"
    ],
    [
      "मा",
      "व"
    ],
    [
      "अभिने",
      "तो</w>"
    ],
    [
      "ब्रह्",
      "म"
    ],
    [
      "मे",
      "घाल"
    ],
    [
      "जी",
      "व"
    ],
    [
      "इ",
      "तलें</w>"
    ],
    [
      "ल",
      "ू</w>"
    ],
    [
      "द",
      "ै"
    ],
    [
      "मान",
      "सीक</w>"
    ],
    [
      "म",
      "िया</w>"
    ],
    [
      "लॉ",
      "स</w>"
    ],
    [
      "व",
      "ॉर्"
    ],
    [
      "जाय",
      "रा"
    ],
    [
      "या",
      "त.</w>"
    ],
    [
      "सं",
      "स्थाप"
    ],
    [
      "बरो",
      "च</w>"
    ],
    [
      "कृ",
      "ष्"
    ],
    [
      "फ्र",
      "ी</w>"
    ],
    [
      "4",
      "5</w>"
    ],
    [
      "न",
      "ाच</w>"
    ],
    [
      "तन",
      "ाय</w>"
    ],
    [
      "स्",
      "मार"
    ],
    [
      "म",
      "ांतल्या</w>"
    ],
    [
      "थ",
      "ो"
    ],
    [
      "सप्तक",
      "ांत</w>"
    ],
    [
      "नार",
      "ाय"
    ],
    [
      "न",
      "ांचेर</w>"
    ],
    [
      "घेतल",
      "ें.</w>"
    ],
    [
      "उजवाड",
      "ाय"
    ],
    [
      "इंटर",
      "नॅट</w>"
    ],
    [
      "स्टे",
      "शन</w>"
    ],
    [
      "मा",
      "ळ</w>"
    ],
    [
      "विंग",
      "ड</w>"
    ],
    [
      "ह",
      "ों"
    ],
    [
      "क",
      "ै"
    ],
    [
      "जाय",
      "ते"
    ],
    [
      "ब",
      "राक</w>"
    ],
    [
      "फॉ",
      "र्म"
    ],
    [
      "नृ",
      "त्य"
    ],
    [
      "करप",
      "ाच्या</w>"
    ],
    [
      "रोखडो",
      "च</w>"
    ],
    [
      "सु",
      "टी</w>"
    ],
    [
      "म",
      "लय"
    ],
    [
      "स",
      "त"
    ],
    [
      "िय",
      "ो</w>"
    ],
    [
      "अ",
      "चकीत</w>"
    ],
    [
      "मर",
      "णा</w>"
    ],
    [
      "ले",
      "क्"
    ],
    [
      "इ",
      "तली</w>"
    ],
    [
      "खु",
      "ब"
    ],
    [
      "टी",
      ",</w>"
    ],
    [
      "स्थलां",
      "तरीत</w>"
    ],
    [
      "न",
      "र"
    ],
    [
      "वा",
      "ग"
    ],
    [
      "ल",
      "न</w>"
    ],
    [
      "श",
      "ांनी</w>"
    ],
    [
      "कि",
      "तले</w>"
    ],
    [
      "आप",
      "त्"
    ],
    [
      "संख",
      "्य"
    ],
    [
      "स्",
      "क्र"
    ],
    [
      "जापसाल",
      "दार"
    ],
    [
      "रक्क",
      "म</w>"
    ],
    [
      "डॉ",
      "लर"
    ],
    [
      "ा",
      "कडेन</w>"
    ],
    [
      "फ्र",
      "े"
    ],
    [
      "न्यू",
      "यॉर्क</w>"
    ],
    [
      "त",
      "कड"
    ],
    [
      "फॅ",
      "ड"
    ],
    [
      "ते",
      "लु"
    ],
    [
      "जोड",
      "प"
    ],
    [
      "दर",
      "बार"
    ],
    [
      "ह",
      "ांच्या</w>"
    ],
    [
      "न",
      "्य</w>"
    ],
    [
      "ध",
      "नु"
    ],
    [
      "ब्रा",
      "ह्"
    ],
    [
      "पे",
      "शी</w>"
    ],
    [
      "ू",
      "च्या</w>"
    ],
    [
      "उज",
      "ो</w>"
    ],
    [
      "शेंकड",
      "्यांनी</w>"
    ],
    [
      "गुर",
      "ू</w>"
    ],
    [
      "तात्",
      "पुर"
    ],
    [
      "स",
      "ां</w>"
    ],
    [
      "फिल्",
      "म</w>"
    ],
    [
      "ब",
      "न</w>"
    ],
    [
      "ल्",
      "फ"
    ],
    [
      "प्रति",
      "स्पर्"
    ],
    [
      "म्हयन",
      "्याक</w>"
    ],
    [
      "ए",
      "न्"
    ],
    [
      "झ",
      "ी</w>"
    ],
    [
      "ब",
      "गर</w>"
    ],
    [
      "प्रजा",
      "ती</w>"
    ],
    [
      "आ",
      "डा"
    ],
    [
      "प्रति",
      "साद</w>"
    ],
    [
      "त",
      "ाचीं</w>"
    ],
    [
      "युरोप",
      "ीय</w>"
    ],
    [
      "वापर",
      "प"
    ],
    [
      "फ",
      "ळ</w>"
    ],
    [
      "व्ह",
      "ॉ"
    ],
    [
      "199",
      "4</w>"
    ],
    [
      "गुन्य",
      "ांव"
    ],
    [
      "आ",
      "देश</w>"
    ],
    [
      "गे",
      "लो</w>"
    ],
    [
      "स्ट",
      "न</w>"
    ],
    [
      "चाल",
      "ूच</w>"
    ],
    [
      "त्",
      "स"
    ],
    [
      "दिस",
      "तात.</w>"
    ],
    [
      "अँ",
      "ड</w>"
    ],
    [
      "कुटुं",
      "ब</w>"
    ],
    [
      "प",
      "ां</w>"
    ],
    [
      "दवर",
      "तात.</w>"
    ],
    [
      "ता",
      "ब</w>"
    ],
    [
      "199",
      "3</w>"
    ],
    [
      "क्रम",
      "ांक</w>"
    ],
    [
      "बायल",
      "ांच्या</w>"
    ],
    [
      "स्ट",
      "र"
    ],
    [
      "फिल्",
      "म"
    ],
    [
      "रा",
      "ग</w>"
    ],
    [
      "ल्य",
      "ांत.</w>"
    ],
    [
      "रच",
      "णूक</w>"
    ],
    [
      "म्हण्",
      "टात</w>"
    ],
    [
      "लु",
      "ई"
    ],
    [
      "शाळ",
      "ेंत</w>"
    ],
    [
      "जनगण",
      "ने</w>"
    ],
    [
      "शा",
      "ही</w>"
    ],
    [
      "ट",
      "ना</w>"
    ],
    [
      "घे",
      "वपाची</w>"
    ],
    [
      "मुळाव",
      "्या</w>"
    ],
    [
      "ने",
      "पाळ"
    ],
    [
      "लेख",
      "क</w>"
    ],
    [
      "राज्य",
      "कर्"
    ],
    [
      "ऑर्ड",
      "र</w>"
    ],
    [
      "कोल",
      "ंब"
    ],
    [
      "ना",
      "त,</w>"
    ],
    [
      "ट",
      "ाय</w>"
    ],
    [
      "वयल",
      "े</w>"
    ],
    [
      "नि",
      "श</w>"
    ],
    [
      "प्रवा",
      "स</w>"
    ],
    [
      "ड",
      "ू</w>"
    ],
    [
      "हा",
      "तांत</w>"
    ],
    [
      "घड",
      "णुक"
    ],
    [
      "ल",
      "डा"
    ],
    [
      "ता",
      "लो</w>"
    ],
    [
      "राज",
      "घराण"
    ],
    [
      "ल",
      "ँड"
    ],
    [
      "है",
      "द"
    ],
    [
      "ति",
      "रु"
    ],
    [
      "ण",
      "व</w>"
    ],
    [
      "हॉस्पिट",
      "लांत</w>"
    ],
    [
      "म",
      "रे"
    ],
    [
      "नि",
      "वळ"
    ],
    [
      "लोक",
      "ांच्या</w>"
    ],
    [
      "ह",
      "रि"
    ],
    [
      "कळ",
      "्ळ"
    ],
    [
      "सुदार",
      "णा</w>"
    ],
    [
      "ओ",
      "ंप"
    ],
    [
      "धब",
      "ध"
    ],
    [
      "आयल",
      "ी.</w>"
    ],
    [
      "काळ",
      "ांत,</w>"
    ],
    [
      "ने",
      "ट"
    ],
    [
      "र",
      "साय"
    ],
    [
      "स",
      "ांक</w>"
    ],
    [
      "विश्",
      "वच"
    ],
    [
      "जल्म",
      "ल्लो.</w>"
    ],
    [
      "अद",
      "ीक</w>"
    ],
    [
      "डि",
      "ंग</w>"
    ],
    [
      "दोगां",
      "य"
    ],
    [
      "ज",
      "ीत</w>"
    ],
    [
      "आय",
      "ु"
    ],
    [
      "दोंग",
      "र"
    ],
    [
      "प",
      "ल्ल"
    ],
    [
      "दोतो",
      "र</w>"
    ],
    [
      "म्हत्व",
      "ाच्या</w>"
    ],
    [
      "ां",
      "श</w>"
    ],
    [
      "रग",
      "त"
    ],
    [
      "क",
      "च</w>"
    ],
    [
      "बंगा",
      "ल</w>"
    ],
    [
      "पाव",
      "लो.</w>"
    ],
    [
      "क्",
      "ती</w>"
    ],
    [
      "अखे",
      "रेक</w>"
    ],
    [
      "ळ",
      ".</w>"
    ],
    [
      "तपास",
      "णी</w>"
    ],
    [
      "व",
      "ण्"
    ],
    [
      "ज",
      "ें"
    ],
    [
      "क्ला",
      "हो"
    ],
    [
      "पंगड",
      "ाखातीर</w>"
    ],
    [
      "नांव",
      "ाची</w>"
    ],
    [
      "स",
      "ेन</w>"
    ],
    [
      "्या",
      "खातीर</w>"
    ],
    [
      "को",
      "ण</w>"
    ],
    [
      "त",
      "ज्ञ"
    ],
    [
      "सर",
      "ळ</w>"
    ],
    [
      "स्थाप",
      "ीत</w>"
    ],
    [
      "जा",
      "णा</w>"
    ],
    [
      "वे",
      "पार</w>"
    ],
    [
      "उपे",
      "गी</w>"
    ],
    [
      "सकाळ",
      "ीं</w>"
    ],
    [
      "गाय",
      "क</w>"
    ],
    [
      "सादरी",
      "करण</w>"
    ],
    [
      "पे",
      "ट"
    ],
    [
      "त",
      "य</w>"
    ],
    [
      "चित्र",
      "ां</w>"
    ],
    [
      "0",
      "-"
    ],
    [
      "सुवा",
      "तींनी</w>"
    ],
    [
      "क",
      "-"
    ],
    [
      "आयल",
      "ें</w>"
    ],
    [
      "इ",
      "ट"
    ],
    [
      "ड",
      "ाचो</w>"
    ],
    [
      "म्हज",
      "ी</w>"
    ],
    [
      "7",
      "5</w>"
    ],
    [
      "तुजे",
      "कडेन</w>"
    ],
    [
      "मे",
      "कळ"
    ],
    [
      "बु",
      "ड"
    ],
    [
      "सो",
      "ं"
    ],
    [
      "कि",
      "शो"
    ],
    [
      "क",
      "ट"
    ],
    [
      "वॉ",
      "शि"
    ],
    [
      "सो",
      "रो</w>"
    ],
    [
      "वेगळ",
      "ें</w>"
    ],
    [
      "कु",
      "ल"
    ],
    [
      "शि",
      "ला"
    ],
    [
      "ध",
      "ांव"
    ],
    [
      "वापर",
      "पाक</w>"
    ],
    [
      "सांग",
      "लां.</w>"
    ],
    [
      "195",
      "0</w>"
    ],
    [
      "अ",
      "न्न"
    ],
    [
      "शै",
      "ल"
    ],
    [
      "शेंकड",
      "्याचे</w>"
    ],
    [
      "ऱ",
      "्यो</w>"
    ],
    [
      "फुड",
      "ा"
    ],
    [
      "2",
      "."
    ],
    [
      ".",
      ".</w>"
    ],
    [
      "बदल",
      "ून</w>"
    ],
    [
      "द",
      "ाय</w>"
    ],
    [
      "ता",
      "न,</w>"
    ],
    [
      "मज्जा",
      "तंत"
    ],
    [
      "हॉ",
      "ल</w>"
    ],
    [
      "ड",
      "च</w>"
    ],
    [
      "द",
      "ृ"
    ],
    [
      "तुळ",
      "ा</w>"
    ],
    [
      "यल्ल",
      "्या</w>"
    ],
    [
      "धू",
      "व</w>"
    ],
    [
      "स्थ",
      "ान</w>"
    ],
    [
      "आनी",
      "कय</w>"
    ],
    [
      "कु",
      "र"
    ],
    [
      "घे",
      "ता.</w>"
    ],
    [
      "टि",
      "ंग"
    ],
    [
      "पूर्",
      "वेक</w>"
    ],
    [
      "ेर",
      "ी</w>"
    ],
    [
      "सप्त",
      "कां</w>"
    ],
    [
      "तय",
      "ारी</w>"
    ],
    [
      "नी",
      "न</w>"
    ],
    [
      "आवय",
      "-"
    ],
    [
      "ब",
      "ाय</w>"
    ],
    [
      "ला",
      "ल</w>"
    ],
    [
      "औ",
      "रंग"
    ],
    [
      "संरक्ष",
      "ण</w>"
    ],
    [
      "अ",
      "ल</w>"
    ],
    [
      "मॅ",
      "ची</w>"
    ],
    [
      "वि",
      "मो</w>"
    ],
    [
      "1",
      "-"
    ],
    [
      "मा",
      "त्"
    ],
    [
      "किर",
      "को"
    ],
    [
      "जाय",
      "ना.</w>"
    ],
    [
      "केल",
      "्यो.</w>"
    ],
    [
      "प",
      "ै"
    ],
    [
      "आशिल्ल",
      "ें,</w>"
    ],
    [
      "सध",
      "्या</w>"
    ],
    [
      "वर्स",
      "ांचो</w>"
    ],
    [
      "घ",
      "ल"
    ],
    [
      "18",
      "5"
    ],
    [
      "मु",
      "क्त</w>"
    ],
    [
      "त्",
      "ती"
    ],
    [
      "ंद",
      "र</w>"
    ],
    [
      "क",
      "म"
    ],
    [
      "हु",
      "स्को</w>"
    ],
    [
      "क्",
      "वा"
    ],
    [
      "स्ट",
      "ाय"
    ],
    [
      "वेगळ",
      "ी</w>"
    ],
    [
      "लंड",
      "न</w>"
    ],
    [
      "ंड",
      "े"
    ],
    [
      "दाख",
      "यतात.</w>"
    ],
    [
      "प",
      "ल</w>"
    ],
    [
      "विश",
      "य</w>"
    ],
    [
      "आ",
      "धु"
    ],
    [
      "उल्ले",
      "ख"
    ],
    [
      "मुसल",
      "मान"
    ],
    [
      "थ",
      "र"
    ],
    [
      "ज",
      "ीन</w>"
    ],
    [
      "सॉफ्टवॅ",
      "र</w>"
    ],
    [
      "बॉ",
      "क्सि"
    ],
    [
      "कस",
      "ली"
    ],
    [
      "पणा",
      "न,</w>"
    ],
    [
      "मु",
      "ह"
    ],
    [
      "च",
      "ें.</w>"
    ],
    [
      "ज",
      "र्"
    ],
    [
      "वे",
      "पार"
    ],
    [
      "खंयचे",
      "य</w>"
    ],
    [
      "गव्हर्",
      "नर</w>"
    ],
    [
      "पंजा",
      "ब</w>"
    ],
    [
      "शार",
      "ांतल्या</w>"
    ],
    [
      "इंड",
      "ियन</w>"
    ],
    [
      "फाव",
      "टी</w>"
    ],
    [
      "ति",
      "गो"
    ],
    [
      "कि",
      "तलें</w>"
    ],
    [
      "शिं",
      "पण"
    ],
    [
      "ष्",
      "ट्र</w>"
    ],
    [
      "श",
      "ाय"
    ],
    [
      "बो",
      "र्ड</w>"
    ],
    [
      "ना",
      "थ"
    ],
    [
      "चॅम्पियन",
      "शी"
    ],
    [
      "शा",
      "स्त्र</w>"
    ],
    [
      "नॅट",
      "वर्"
    ],
    [
      "न",
      "ांचो</w>"
    ],
    [
      "स्वि",
      "त्"
    ],
    [
      "इलिनॉ",
      "य</w>"
    ],
    [
      "घर",
      "गु"
    ],
    [
      "किरको",
      "ळ</w>"
    ],
    [
      "मेळ",
      "ूं</w>"
    ],
    [
      "अणभ",
      "व</w>"
    ],
    [
      "प्रति",
      "कार</w>"
    ],
    [
      "ह",
      "स्त"
    ],
    [
      "श",
      "्या</w>"
    ],
    [
      "ना",
      "व"
    ],
    [
      "विशा",
      "णू"
    ],
    [
      "वे",
      "क्ष"
    ],
    [
      "जिव",
      "ीत</w>"
    ],
    [
      "म्हा",
      "विद्यालय"
    ],
    [
      "2",
      "-"
    ],
    [
      "ए",
      "ड"
    ],
    [
      "म्",
      "ब"
    ],
    [
      "अड",
      "च"
    ],
    [
      "श",
      "ींच</w>"
    ],
    [
      "वाड",
      "ो"
    ],
    [
      "श्",
      "ठ</w>"
    ],
    [
      "शा",
      "ह"
    ],
    [
      "द",
      "ां"
    ],
    [
      "जे",
      "व"
    ],
    [
      "रू",
      "प</w>"
    ],
    [
      "तशें",
      "च,</w>"
    ],
    [
      "वि",
      "लीन</w>"
    ],
    [
      "व्हांव",
      "ता.</w>"
    ],
    [
      "पू",
      "ल</w>"
    ],
    [
      "इ",
      "लॅक्"
    ],
    [
      "बे",
      "ड"
    ],
    [
      "लो",
      "ं</w>"
    ],
    [
      "ड",
      "र्"
    ],
    [
      "घरगु",
      "ती</w>"
    ],
    [
      "भि",
      "रां"
    ],
    [
      "प",
      "ीत</w>"
    ],
    [
      "काळ",
      "ांतल्या</w>"
    ],
    [
      "अ",
      "ह"
    ],
    [
      "18",
      "6"
    ],
    [
      "सुक",
      "ण"
    ],
    [
      "उ",
      "ब"
    ],
    [
      "त",
      ")</w>"
    ],
    [
      "घर",
      "ां</w>"
    ],
    [
      "केंद्र",
      "ीय</w>"
    ],
    [
      "पृ",
      "थ्"
    ],
    [
      "चाल",
      "ुक"
    ],
    [
      "जाल",
      "ीं.</w>"
    ],
    [
      "ै",
      "र"
    ],
    [
      "मध्य",
      "यु"
    ],
    [
      "ज",
      "ां"
    ],
    [
      "ख",
      "ा</w>"
    ],
    [
      "ह",
      "ोंव"
    ],
    [
      "खेळ",
      "ाच्या</w>"
    ],
    [
      "मॉ",
      "डे"
    ],
    [
      "स",
      "भे"
    ],
    [
      "ज",
      "ू</w>"
    ],
    [
      "असोसिए",
      "शन</w>"
    ],
    [
      "श",
      "ो</w>"
    ],
    [
      "ऑलि",
      "ंप"
    ],
    [
      "ब्रा",
      "झी"
    ],
    [
      "कि.",
      "मी.</w>"
    ],
    [
      "वाता",
      "वर"
    ],
    [
      "चक्री",
      "वादळ"
    ],
    [
      "ए",
      "फ."
    ],
    [
      "हवा",
      "मान"
    ],
    [
      "सारक",
      "ीं</w>"
    ],
    [
      "घे",
      "वप"
    ],
    [
      "ूं",
      "त</w>"
    ],
    [
      "उद",
      "कांत</w>"
    ],
    [
      "रो",
      "मन</w>"
    ],
    [
      "आस",
      "लो</w>"
    ],
    [
      "भ",
      "ों"
    ],
    [
      "व्हड",
      "ले</w>"
    ],
    [
      "लोकां",
      "मदीं</w>"
    ],
    [
      "जो",
      "र</w>"
    ],
    [
      "प्रसार",
      "ीत</w>"
    ],
    [
      "वि",
      "र"
    ],
    [
      "घोश",
      "णा</w>"
    ],
    [
      "ब",
      "ऱ्या</w>"
    ],
    [
      "ब",
      "ट"
    ],
    [
      "केल",
      "े</w>"
    ],
    [
      "अमेरि",
      "का</w>"
    ],
    [
      "जिख",
      "ली.</w>"
    ],
    [
      "म",
      "ड"
    ],
    [
      "को",
      "ं"
    ],
    [
      "ल",
      "ाचे</w>"
    ],
    [
      "जायते",
      "दां</w>"
    ],
    [
      "सि",
      "स्ट"
    ],
    [
      "पु",
      "ल्"
    ],
    [
      "ओ",
      "क्लाहो"
    ],
    [
      "ए",
      "च.</w>"
    ],
    [
      "मलय",
      "ाळ"
    ],
    [
      "मा",
      "त,</w>"
    ],
    [
      "को",
      "सळ"
    ],
    [
      "ज",
      "तनाय</w>"
    ],
    [
      "तरीक",
      "य</w>"
    ],
    [
      "तर",
      "ण</w>"
    ],
    [
      "केल्ल",
      "े.</w>"
    ],
    [
      "3",
      ","
    ],
    [
      "जर्म",
      "न"
    ],
    [
      "को",
      "ंड"
    ],
    [
      "हुं",
      "वार"
    ],
    [
      "क",
      "ांचो</w>"
    ],
    [
      "नाशिल्ल",
      "ें.</w>"
    ],
    [
      "ए",
      "ज"
    ],
    [
      "दा",
      "क</w>"
    ],
    [
      "ड",
      "ाच्या</w>"
    ],
    [
      "उद",
      "रगत</w>"
    ],
    [
      "वेव्ह",
      "ार</w>"
    ],
    [
      "का",
      "गा"
    ],
    [
      "बंगा",
      "ली</w>"
    ],
    [
      "भो",
      "ग"
    ],
    [
      "कंप",
      "न्य"
    ],
    [
      "दु",
      "बाव</w>"
    ],
    [
      "मॅ",
      "न</w>"
    ],
    [
      "रु",
      "पय"
    ],
    [
      "झ",
      "ॉ"
    ],
    [
      "वेगळ",
      "्या</w>"
    ],
    [
      "ल्",
      "ट</w>"
    ],
    [
      "ना",
      "का.</w>"
    ],
    [
      "निव",
      "ड"
    ],
    [
      "विरो",
      "ध</w>"
    ],
    [
      "सो",
      "ब"
    ],
    [
      "नाशिल्ल",
      "ो</w>"
    ],
    [
      "आला",
      "शि"
    ],
    [
      "तें",
      "ग"
    ],
    [
      "हाज",
      "ीर</w>"
    ],
    [
      "वॉशि",
      "ंग्"
    ],
    [
      "मा",
      "खातीर</w>"
    ],
    [
      "गु",
      "ळ"
    ],
    [
      "आं",
      "ध्"
    ],
    [
      "आंध्",
      "र</w>"
    ],
    [
      "प्रकार",
      ".</w>"
    ],
    [
      "काड",
      "टात.</w>"
    ],
    [
      "वा",
      "स्त"
    ],
    [
      "संघ",
      "र्"
    ],
    [
      "झाड",
      "ां</w>"
    ],
    [
      "क्",
      "ट</w>"
    ],
    [
      "श",
      "क</w>"
    ],
    [
      "नाम",
      "ो</w>"
    ],
    [
      "फा",
      "र्"
    ],
    [
      "2",
      "5"
    ],
    [
      "आस",
      "पाव</w>"
    ],
    [
      "त्रि",
      "पुर"
    ],
    [
      "हां",
      "कां</w>"
    ],
    [
      "उत्त",
      "राख"
    ],
    [
      "कॉर्",
      "पो"
    ],
    [
      "जि",
      "ल्ह"
    ],
    [
      "ख",
      "ों"
    ],
    [
      "फ",
      "र</w>"
    ],
    [
      "प्र",
      "क्रिय"
    ],
    [
      "त",
      "ाच"
    ],
    [
      "198",
      "4</w>"
    ],
    [
      "रॉ",
      "क</w>"
    ],
    [
      "आल्ब",
      "म</w>"
    ],
    [
      "त्",
      "त</w>"
    ],
    [
      "भो",
      "वं"
    ],
    [
      "ी",
      "र"
    ],
    [
      "दिस",
      "पी</w>"
    ],
    [
      "उप",
      "खंड"
    ],
    [
      "हुं",
      "वार</w>"
    ],
    [
      "शार",
      "ाच्या</w>"
    ],
    [
      "ु",
      "</w>"
    ],
    [
      "तिगो",
      "वन</w>"
    ],
    [
      "शी",
      "ल"
    ],
    [
      "म्ह",
      "त्व</w>"
    ],
    [
      "यार",
      "ण"
    ],
    [
      "सि",
      "ल्"
    ],
    [
      "जाल",
      "ी,</w>"
    ],
    [
      "झ",
      "्"
    ],
    [
      "चि",
      "न्न"
    ],
    [
      "ब",
      "स</w>"
    ],
    [
      "दिल्ल",
      "े</w>"
    ],
    [
      "ड्र",
      "ॉ"
    ],
    [
      "स",
      "ँ"
    ],
    [
      "खा",
      "ड"
    ],
    [
      "हि",
      "ंस"
    ],
    [
      "सुर",
      "क्षा</w>"
    ],
    [
      "डि",
      "ओ"
    ],
    [
      "खा",
      "तें</w>"
    ],
    [
      "त्र",
      "ां</w>"
    ],
    [
      "उप",
      "करण"
    ],
    [
      "नाशिल्ल",
      "ो.</w>"
    ],
    [
      "मॅच",
      "ींत</w>"
    ],
    [
      "उ",
      "पास</w>"
    ],
    [
      "स्टे",
      "ट्स</w>"
    ],
    [
      "विंडो",
      "ज</w>"
    ],
    [
      "पळ",
      "ोवपाक</w>"
    ],
    [
      "खरे",
      "दी"
    ],
    [
      "केल्ल",
      "्यो</w>"
    ],
    [
      "साहि",
      "त्य</w>"
    ],
    [
      "देग",
      "ण"
    ],
    [
      "हा",
      "ता"
    ],
    [
      "निशे",
      "ध</w>"
    ],
    [
      "दु",
      "स्"
    ],
    [
      "के",
      "शी</w>"
    ],
    [
      "स",
      "पा"
    ],
    [
      "दिग्",
      "दर्शक</w>"
    ],
    [
      "सामक",
      "े</w>"
    ],
    [
      "अभ",
      "यारण"
    ],
    [
      "क",
      "्यू"
    ],
    [
      "गांव",
      "ांत</w>"
    ],
    [
      "अपे",
      "शी</w>"
    ],
    [
      "प्रस्ता",
      "व</w>"
    ],
    [
      "निश्",
      "चीत</w>"
    ],
    [
      "सल्ला",
      "गार</w>"
    ],
    [
      "वा",
      "गण"
    ],
    [
      "शार",
      "ां</w>"
    ],
    [
      "ां",
      "नीय</w>"
    ],
    [
      "दि",
      "लो</w>"
    ],
    [
      "व्ह",
      "ी</w>"
    ],
    [
      "रॉ",
      "य"
    ],
    [
      "श",
      "क्त</w>"
    ],
    [
      "199",
      "1</w>"
    ],
    [
      "व्ह",
      "ं"
    ],
    [
      "सॅ",
      "न</w>"
    ],
    [
      "क्",
      "लो"
    ],
    [
      "इलिनॉ",
      "य"
    ],
    [
      "अश",
      "्या</w>"
    ],
    [
      "अफ",
      "गा"
    ],
    [
      "गि",
      "न"
    ],
    [
      "मु",
      "ख्या"
    ],
    [
      "पि",
      "ंड"
    ],
    [
      "कर्नाट",
      "क</w>"
    ],
    [
      "र",
      "ाय</w>"
    ],
    [
      "ला",
      "व"
    ],
    [
      "प",
      "चार"
    ],
    [
      "संके",
      "त</w>"
    ],
    [
      "दाखो",
      "वपी</w>"
    ],
    [
      "हजार",
      "ांनी</w>"
    ],
    [
      "ख",
      "ंड</w>"
    ],
    [
      "आय",
      "ता"
    ],
    [
      "8",
      "5</w>"
    ],
    [
      "धो",
      "र"
    ],
    [
      "ी",
      "ज</w>"
    ],
    [
      "सारक",
      "्यो</w>"
    ],
    [
      "वापर",
      "पी</w>"
    ],
    [
      "वर्स",
      "ांच्या</w>"
    ],
    [
      "श्री",
      "लं"
    ],
    [
      "उद्",
      "देग</w>"
    ],
    [
      "को",
      "ळ"
    ],
    [
      "सिक्",
      "कि"
    ],
    [
      "सा",
      "र्व"
    ],
    [
      "4",
      "0"
    ],
    [
      "ना",
      "ण"
    ],
    [
      "जॉर्",
      "ज</w>"
    ],
    [
      "प्",
      "स</w>"
    ],
    [
      "कर",
      "तालो.</w>"
    ],
    [
      "प्रा",
      "णी</w>"
    ],
    [
      "िय",
      "ाच्या</w>"
    ],
    [
      "आयो",
      "वा</w>"
    ],
    [
      "सव",
      "ल"
    ],
    [
      "ी",
      "करण</w>"
    ],
    [
      "रा",
      "जा"
    ],
    [
      "आदार",
      "ान</w>"
    ],
    [
      "ता",
      "ल"
    ],
    [
      "घु",
      "री</w>"
    ],
    [
      "लि",
      "ं"
    ],
    [
      "सुमार",
      "ाक</w>"
    ],
    [
      "मजग",
      "तीं</w>"
    ],
    [
      "द्",
      "वी"
    ],
    [
      "सा",
      "गर"
    ],
    [
      "इंडो",
      "ने"
    ],
    [
      "ज",
      "ाचो</w>"
    ],
    [
      "उ",
      "गम</w>"
    ],
    [
      "ते",
      "भायर,</w>"
    ],
    [
      "बळ",
      "ी</w>"
    ],
    [
      "ऍ",
      "र"
    ],
    [
      "इजि",
      "प्"
    ],
    [
      "भ",
      "्र"
    ],
    [
      "दि",
      "लां.</w>"
    ],
    [
      "कार",
      "णां</w>"
    ],
    [
      "ू",
      "नय</w>"
    ],
    [
      "मि",
      "ंग</w>"
    ],
    [
      "एक",
      "दां</w>"
    ],
    [
      "ट",
      "ू"
    ],
    [
      "स्था",
      "न"
    ],
    [
      "र",
      "ां</w>"
    ],
    [
      "चल",
      "ता.</w>"
    ],
    [
      "मद",
      "ले</w>"
    ],
    [
      "स",
      "्र"
    ],
    [
      "मी",
      "."
    ],
    [
      "जाय",
      "ना</w>"
    ],
    [
      "राज्य",
      "ां</w>"
    ],
    [
      "न",
      "ग"
    ],
    [
      "मेळ",
      "ोवन</w>"
    ],
    [
      "मेळ",
      "िल्ल्या</w>"
    ],
    [
      "फ्",
      "ट</w>"
    ],
    [
      "ऑ",
      "टो"
    ],
    [
      "इंटर",
      "नॅशनल</w>"
    ],
    [
      "बर्",
      "ग"
    ],
    [
      "सां",
      "पड"
    ],
    [
      "ति",
      "बे"
    ],
    [
      "आस",
      "त</w>"
    ],
    [
      "य",
      "ॉ"
    ],
    [
      "सभ",
      "ा</w>"
    ],
    [
      "न्ह",
      "ी</w>"
    ],
    [
      "कर",
      ",</w>"
    ],
    [
      "जाल",
      "्यो.</w>"
    ],
    [
      "त",
      ";</w>"
    ],
    [
      "हैद",
      "रा"
    ],
    [
      "शॉ",
      "ट</w>"
    ],
    [
      "प",
      "ाचेर</w>"
    ],
    [
      "ाच",
      "ि"
    ],
    [
      "आ",
      "स्त</w>"
    ],
    [
      "ले",
      "गी"
    ],
    [
      "रे",
      "ट</w>"
    ],
    [
      "काड",
      "लो.</w>"
    ],
    [
      "से",
      "वे"
    ],
    [
      "बाय",
      "लां"
    ],
    [
      "3",
      "."
    ],
    [
      "म",
      "ाचें</w>"
    ],
    [
      "म",
      "ँ"
    ],
    [
      "न्स",
      "ी</w>"
    ],
    [
      "बे",
      "कायदेशीर</w>"
    ],
    [
      "वेळ",
      "ा"
    ],
    [
      "उल्लेख",
      "नीय</w>"
    ],
    [
      "निमा",
      "णे</w>"
    ],
    [
      "वै",
      "ष्ण"
    ],
    [
      "भूं",
      "य</w>"
    ],
    [
      "कें",
      "स</w>"
    ],
    [
      "त्",
      "साह"
    ],
    [
      "ऑ",
      "परे"
    ],
    [
      "वर्",
      "साक</w>"
    ],
    [
      "खेळ",
      "टा"
    ],
    [
      "संचाल",
      "क</w>"
    ],
    [
      "विश्वच",
      "ष"
    ],
    [
      "ब्रा",
      "झि"
    ],
    [
      "स्वित्",
      "झर्"
    ],
    [
      "कुड",
      "ींत</w>"
    ],
    [
      "श",
      "र्"
    ],
    [
      "ताये",
      "न</w>"
    ],
    [
      "सत्",
      "ता"
    ],
    [
      "र",
      "ांक</w>"
    ],
    [
      "ाव",
      "ांगडा</w>"
    ],
    [
      "ति",
      "तल"
    ],
    [
      "पत",
      "ंग</w>"
    ],
    [
      "मि",
      "टर</w>"
    ],
    [
      "भुरग",
      "्याक</w>"
    ],
    [
      "ये",
      "न</w>"
    ],
    [
      "देख",
      "रे"
    ],
    [
      "ल्ल",
      "ी.</w>"
    ],
    [
      "वयल",
      "ो</w>"
    ],
    [
      "सं",
      "वेद"
    ],
    [
      "मेळ",
      "ना.</w>"
    ],
    [
      "तें",
      "प</w>"
    ],
    [
      "लोकप्र",
      "िय"
    ],
    [
      "स",
      "म</w>"
    ],
    [
      "्या",
      "न"
    ],
    [
      "दिव",
      "पाखातीर</w>"
    ],
    [
      "स्व",
      "र</w>"
    ],
    [
      "श्",
      "व"
    ],
    [
      "नि",
      "धी</w>"
    ],
    [
      "श",
      "ीर</w>"
    ],
    [
      "इटा",
      "लियन</w>"
    ],
    [
      "श",
      "य"
    ],
    [
      "धबध",
      "बो</w>"
    ],
    [
      "नि",
      "ंबून</w>"
    ],
    [
      "ीं",
      "चें</w>"
    ],
    [
      "लक्ष",
      "्"
    ],
    [
      "श",
      "ण</w>"
    ],
    [
      "पु",
      "राण"
    ],
    [
      "ड",
      "िया</w>"
    ],
    [
      "ते",
      "ल</w>"
    ],
    [
      "मि",
      "झो"
    ],
    [
      "जा",
      "णा"
    ],
    [
      "मार्",
      "च"
    ],
    [
      "चवथ",
      "्या</w>"
    ],
    [
      "आय",
      "र्"
    ],
    [
      "सव",
      "ाय</w>"
    ],
    [
      "संस्थाप",
      "क</w>"
    ],
    [
      "हक्",
      "क</w>"
    ],
    [
      "सि",
      "द्ध</w>"
    ],
    [
      "दि",
      "ल्या.</w>"
    ],
    [
      "तळ",
      "ा</w>"
    ],
    [
      "ण",
      "ो</w>"
    ],
    [
      "पळ",
      "ोव"
    ],
    [
      "ल",
      "सी"
    ],
    [
      "स",
      "ांतल्यान</w>"
    ],
    [
      "उत्",
      "ते"
    ],
    [
      "दोंगरा",
      "ळ</w>"
    ],
    [
      "ी",
      "दार"
    ],
    [
      "ख",
      "बर"
    ],
    [
      "ल",
      "ाचें</w>"
    ],
    [
      "उतर",
      "ां</w>"
    ],
    [
      "सादरी",
      "करण"
    ],
    [
      "ग",
      "ृ"
    ],
    [
      "सु",
      "पर"
    ],
    [
      "वेगवेगळ",
      "ीं</w>"
    ],
    [
      "ति",
      "क</w>"
    ],
    [
      "स्",
      "कॅ"
    ],
    [
      "वि",
      "स्वास</w>"
    ],
    [
      "कावं",
      "टी</w>"
    ],
    [
      "ब",
      "ंड</w>"
    ],
    [
      "अर्द",
      "ांत</w>"
    ],
    [
      "य",
      "क्ष"
    ],
    [
      "औरंग",
      "जे"
    ],
    [
      "उद",
      "काचो</w>"
    ],
    [
      "मिण्ट",
      "ां</w>"
    ],
    [
      "इ",
      "न"
    ],
    [
      "स्वि",
      "ड"
    ],
    [
      "म्ह",
      "ै"
    ],
    [
      "तेलु",
      "गू</w>"
    ],
    [
      "उत्",
      "तरा"
    ],
    [
      "कंपनी",
      "च्या</w>"
    ],
    [
      "शे",
      "का"
    ],
    [
      "गो",
      "ंद"
    ],
    [
      "म",
      "ण</w>"
    ],
    [
      "न",
      "ांच्या</w>"
    ],
    [
      "शे",
      "श</w>"
    ],
    [
      "पार्",
      "क</w>"
    ],
    [
      "मंग",
      "ळ"
    ],
    [
      "संस",
      "दे"
    ],
    [
      "श्",
      "वर"
    ],
    [
      "सो",
      "ळ"
    ],
    [
      "क्",
      "र</w>"
    ],
    [
      "संघ",
      "</w>"
    ],
    [
      "श",
      "्य</w>"
    ],
    [
      "हाल",
      "ींच</w>"
    ],
    [
      "दवर",
      "लें.</w>"
    ],
    [
      "क",
      "वि"
    ],
    [
      "अ",
      "क"
    ],
    [
      "चो",
      "य</w>"
    ],
    [
      "म",
      "सा"
    ],
    [
      "नामने",
      "च्या</w>"
    ],
    [
      "वा",
      ",</w>"
    ],
    [
      "बु",
      "ध्"
    ],
    [
      "प्रभाव",
      "ी</w>"
    ],
    [
      "फाय",
      "द"
    ],
    [
      "198",
      "7</w>"
    ],
    [
      "राख",
      "ीव</w>"
    ],
    [
      "ंड",
      "ी"
    ],
    [
      "मेळ",
      "टा"
    ],
    [
      "प्रो",
      "त्साह"
    ],
    [
      "बॅ",
      "क</w>"
    ],
    [
      "ड",
      "ल</w>"
    ],
    [
      "सं",
      "पाद"
    ],
    [
      "ो",
      "त्"
    ],
    [
      "पुस्त",
      "क</w>"
    ],
    [
      "वर्स",
      "ां"
    ],
    [
      "कां",
      "क्र"
    ],
    [
      "रॅ",
      "ड</w>"
    ],
    [
      "आयल",
      "ां.</w>"
    ],
    [
      "नामने",
      "चो</w>"
    ],
    [
      "चल",
      "ीत</w>"
    ],
    [
      "बा",
      "जार</w>"
    ],
    [
      "तु",
      "गे"
    ],
    [
      "मनश",
      "ाच्या</w>"
    ],
    [
      "म्हण",
      "टा"
    ],
    [
      "कू",
      "च</w>"
    ],
    [
      "आड",
      "ख"
    ],
    [
      "श",
      ",</w>"
    ],
    [
      "वां",
      "टे"
    ],
    [
      "शक",
      "तात,</w>"
    ],
    [
      "दे",
      "खू"
    ],
    [
      "बर्",
      "फ"
    ],
    [
      "पांवड",
      "्या"
    ],
    [
      "दिस",
      "ूंक</w>"
    ],
    [
      "195",
      "6</w>"
    ],
    [
      "केल",
      "ा</w>"
    ],
    [
      "उजवाड",
      "ाक</w>"
    ],
    [
      "डे",
      "टा</w>"
    ],
    [
      "ने",
      "हर"
    ],
    [
      "पु",
      "ल"
    ],
    [
      "मु",
      "ज"
    ],
    [
      "घे",
      "वपाचो</w>"
    ],
    [
      "खेळ",
      "पी</w>"
    ],
    [
      "को",
      "ड"
    ],
    [
      "वि",
      "विध"
    ],
    [
      "ली",
      "चो</w>"
    ],
    [
      "म्ह",
      "जे"
    ],
    [
      "हंगा",
      "म</w>"
    ],
    [
      "देवळ",
      "ांत</w>"
    ],
    [
      "वस्ताद",
      "पण</w>"
    ],
    [
      "जु",
      "लय"
    ],
    [
      "युरो",
      "पी</w>"
    ],
    [
      "संस्था",
      ".</w>"
    ]
  ],
  "vocab_size": 5000,
  "num_merges": 5000,
  "actual_merges": 5000,
  "vocab": [
    "मलयाळ",
    "सां</w>",
    "गांत</w>",
    "घड",
    "ओ",
    "कारणां</w>",
    "फुडारी</w>",
    "धर्म",
    "इंग्लंड",
    "हाड",
    "पर्या",
    "हाच्या</w>",
    "आक्रम",
    "उदकाचो</w>",
    "सिंड",
    "बॅ",
    "शार",
    "एकमेव</w>",
    "लाची</w>",
    "हर्",
    "रांनी</w>",
    "मदल्या</w>",
    "द्र</w>",
    "व्य</w>",
    "णेंत</w>",
    "त,</w>",
    "सभा</w>",
    "कपड",
    "शाराच्या</w>",
    "राश्",
    "हिमा",
    "®",
    "ारी</w>",
    "एं",
    "कुडींत</w>",
    "बु",
    "ल्यांत</w>",
    "राज",
    "बो</w>",
    "वेक</w>",
    "मेळट",
    "सल्",
    "घेवपाचो</w>",
    "पुन",
    "ला.</w>",
    "नु",
    "शिक",
    "पूण</w>",
    "डब्ल्यू.",
    "बी</w>",
    "कारकीर्",
    "यक्",
    "थंय</w>",
    "कोसळ",
    "वाय</w>",
    "पाची</w>",
    "जें",
    "कूड</w>",
    "पुल्",
    "बऱ",
    "सर्त</w>",
    "विद्यार्थ",
    "ंट",
    "प्रे",
    "ायि",
    "कटिबंधीय</w>",
    "70</w>",
    "दुसरो</w>",
    "हार",
    "निश्",
    "तुळा</w>",
    "असो",
    "फ्र",
    "अखे",
    "जीव</w>",
    "च",
    "अश",
    "ल्फ",
    "ताब</w>",
    "ीक,</w>",
    "फूट",
    "सारकी</w>",
    "उपर",
    "कारकीर्द</w>",
    "+",
    "मार्च",
    "नल</w>",
    ").</w>",
    "देग</w>",
    "खंय",
    "मॅक्सि",
    "घेवप</w>",
    "(",
    "जॉर्",
    "कोंड",
    "ये",
    "प्रजाती</w>",
    "17",
    "लिया</w>",
    "ए.",
    "वगडाय",
    "सुरक्षा</w>",
    "ोवपाखातीर</w>",
    "3",
    "बळ",
    "नो</w>",
    "कीर्",
    "व्हर</w>",
    "दिसता</w>",
    "वापर",
    "दिग्",
    "ीच्या</w>",
    "जार</w>",
    "साध",
    "राजस्था",
    "ब्रॉ",
    "डाच्या</w>",
    "ीं.</w>",
    "आडा",
    "खबर</w>",
    "प्रतिनिधी</w>",
    "ली",
    "स्पश्ट</w>",
    "मज्जा",
    "μ",
    "उदेंत</w>",
    "प्रक्रिया</w>",
    "जाहीर</w>",
    "मुखेल",
    "बॉक्स</w>",
    "टॉ",
    "जिय",
    "शारां</w>",
    "मरा",
    "नीक</w>",
    "बुध्",
    "लिय",
    "आल्ब",
    "पणान,</w>",
    "वचूंक</w>",
    "त्रां</w>",
    "तशेंच</w>",
    "उत्त",
    "कोळ",
    "निमा",
    "ताचेर</w>",
    "–",
    "इजिप्",
    "लान</w>",
    "p",
    "स्टे",
    "गुरू</w>",
    "सत्ता</w>",
    "शिका",
    "ब्रिटीश</w>",
    "सादरीकरण",
    "केलो,</w>",
    "वेक्ष",
    "वस्ताद",
    "दिवपाक</w>",
    "ा.</w>",
    "लक्ष</w>",
    "अदीक</w>",
    "स्व",
    "टांत</w>",
    "ाव",
    "ट्ट",
    "कार्यावळ",
    "<unk>",
    "क्रॉ",
    "दा",
    "अशेंय</w>",
    "माग",
    "तमीळ</w>",
    "वें</w>",
    "डी.",
    "निर्णय</w>",
    "ऊ",
    "व्हि",
    "धांव",
    "यत्",
    "जाली</w>",
    "गाडी</w>",
    "हाव",
    "लें,</w>",
    "€",
    "आदार</w>",
    "ींत</w>",
    "शू",
    "त्त</w>",
    "माळ",
    "दर",
    "संसर्ग",
    "प्रिय</w>",
    "दादले</w>",
    "बळ</w>",
    "जाल्या.</w>",
    "भय",
    "इलिनॉय</w>",
    "जुलय</w>",
    "नांव",
    "आय.</w>",
    "एप्रील</w>",
    "मेक</w>",
    "अ",
    "~",
    "सक्रीय</w>",
    "खेळ्ळो.</w>",
    "कुल",
    "नास",
    "मंड",
    "डियो</w>",
    "औरंगजे",
    "संबंद</w>",
    "कारण</w>",
    "म्हजे",
    "स्वर</w>",
    "लिंग",
    "तींत</w>",
    "णां</w>",
    "म्हायती</w>",
    "जाता.</w>",
    "रचणूक</w>",
    "वादी</w>",
    "F",
    "म,</w>",
    "सगल्यांत</w>",
    "फुडारपण</w>",
    "गॅ",
    "पाचेर</w>",
    "विरो",
    "संघर्",
    "जावपी</w>",
    "एक",
    "विरोधी</w>",
    "जां",
    "वेळा",
    "्याक</w>",
    "1,",
    "राण",
    "म्हत्वाची</w>",
    "मेळटात.</w>",
    "പ",
    "फॉ",
    "ंडे",
    "उत्स",
    "हो",
    "शेश</w>",
    "जेवण",
    "तिसरो</w>",
    "न्हंये",
    "ऑलि",
    "आशिल्ल्या</w>",
    "लीं.</w>",
    "बॉक्सि",
    "विशिश्ट</w>",
    "वर्सां",
    "्यांमदीं</w>",
    "अहवा",
    "फिल्म</w>",
    "सदांच</w>",
    "येतात</w>",
    "आशिल्लें,</w>",
    "भारताचो</w>",
    "विकसीत</w>",
    "ಡ",
    "तालो</w>",
    "ल्टी</w>",
    "णव</w>",
    "तरीत</w>",
    "उद्देग",
    "भौ",
    "म्हण्टात</w>",
    "ूंक</w>",
    "ीत</w>",
    "ह</w>",
    "भाग</w>",
    "2006</w>",
    "जं",
    "स्को</w>",
    "̺",
    "इत्सा</w>",
    "जॉर्ज</w>",
    "ांतली</w>",
    "ऍड",
    "घेतलो.</w>",
    "हात",
    "एल",
    "िल्लो.</w>",
    "पयल",
    "जात</w>",
    "पाल",
    "कशी</w>",
    "इतलो</w>",
    "डो</w>",
    "कड",
    "भूंय</w>",
    "मायक्रोसॉफ्",
    "सत्ता",
    "पंजाब</w>",
    "ः",
    "लेगीत</w>",
    "1987</w>",
    "काप",
    "बाद</w>",
    "ींनी</w>",
    "दिवन</w>",
    "भ",
    "आयलो</w>",
    "जालां</w>",
    "कंप",
    "शि",
    "इत्",
    "म्हणटात,</w>",
    "ांमदीं</w>",
    "ींक</w>",
    "ल्य",
    "प्रेर",
    "ले,</w>",
    "िल्लें</w>",
    "म्हाका.</w>",
    "ऱ्यो</w>",
    "टो</w>",
    "धर्",
    "जातात</w>",
    "हाय",
    "्यांचें</w>",
    "दिसता.</w>",
    "क.</w>",
    "चेन्न",
    "सवाय</w>",
    "हाचो</w>",
    "बायल</w>",
    "दिता.</w>",
    "भे",
    "ंड",
    "ग</w>",
    "6</w>",
    "पद्द",
    "कर्",
    "शास",
    "ीम</w>",
    "क्टो",
    "लिक</w>",
    "्रि",
    "यड</w>",
    "मिक</w>",
    "आशिल्ल्यो.</w>",
    "म्हुणून</w>",
    "सारक्यो</w>",
    "सात</w>",
    "्या</w>",
    "अधि",
    "स्ट",
    "लोकांचो</w>",
    "पद</w>",
    "गार</w>",
    "नि",
    "अस्ति",
    "वाळ",
    "जें</w>",
    "वप,</w>",
    "दिली.</w>",
    "व्ही.</w>",
    "लाग",
    "निक</w>",
    "फॉर्म",
    "ब्राझि",
    "बरा",
    "तुमी</w>",
    "सरकारी</w>",
    "ल्लें</w>",
    "ेक</w>",
    "तोखण",
    "जल्मल्लो.</w>",
    "आनी</w>",
    "ताचे",
    "कितलें</w>",
    "केली,</w>",
    "ंत्र",
    "चिं",
    "त्याक</w>",
    "अखेरेक</w>",
    "तांणी</w>",
    "ट</w>",
    "नामने",
    "Ä",
    "गोंद",
    "क्रम",
    "इंटरनॅशनल</w>",
    "हालचा",
    "म्हयन्यांत</w>",
    "बद",
    "आर",
    "दर्शीत</w>",
    "णू",
    "1950</w>",
    "मोला",
    "ावन</w>",
    "खुब",
    "फ्लॅ",
    "डी.</w>",
    "त्रि",
    "स्टी",
    "उं",
    "देगण",
    "ग्रं",
    "ल्यान</w>",
    "्यांक</w>",
    "टो",
    "गर्",
    "सी</w>",
    "तय</w>",
    "दां</w>",
    "पडलो.</w>",
    "जाता,</w>",
    "क्रि",
    "आयर्",
    "धा</w>",
    "णें</w>",
    "ब्रि",
    "सें",
    "उत्तरेक</w>",
    "मॅक",
    "कर्मचा",
    "प्रतिनिधित्व</w>",
    "मुसलमान",
    "कुं",
    "वापरूंक</w>",
    "बरें</w>",
    "गेलो.</w>",
    "प्रशिक्षक</w>",
    "तुम",
    "वास्त",
    "फि",
    "कडल्या</w>",
    "तात्",
    "नो",
    "दावो</w>",
    "वपाचे</w>",
    "मोहि",
    "देव",
    "जू</w>",
    "8",
    "दिलो.</w>",
    "णि",
    "केट",
    "खूब",
    "ल्प",
    "पार",
    "उद्देग</w>",
    "तालो.</w>",
    "नाच",
    "संसर्",
    "त्र</w>",
    "दिग्दर्शीत</w>",
    "मॅच",
    "यॉर्",
    "थु",
    "ांचे",
    "शेच</w>",
    "ॊ",
    "फ.",
    "मज्",
    "बदला</w>",
    "न्हंय",
    "प्रार्थना</w>",
    "आवड",
    "उब",
    "1992</w>",
    "\"</w>",
    "चडसो</w>",
    "प्रका",
    "करतना</w>",
    "वेवस्था</w>",
    "काय</w>",
    "चर</w>",
    "दु",
    "ंबून</w>",
    "सात",
    "णाची</w>",
    "वाठारांतल्या</w>",
    "कि",
    "४",
    "तात.</w>",
    "सॅन</w>",
    "प्त</w>",
    "चक्रीवादळ",
    "स्क्",
    "टा,</w>",
    "चु",
    "लोकां</w>",
    "दोंगरा",
    "वातावर",
    "ही",
    "िल्ली</w>",
    "समु",
    "न्यू",
    "दिसाळ",
    ".ए",
    "लिन</w>",
    "िल्ले.</w>",
    "ेन</w>",
    "क्सि",
    "पुळ",
    "उर",
    "न्",
    "नांनी</w>",
    "अभिनेतो</w>",
    "यू",
    "म्हु",
    "लंडन</w>",
    "एफ.</w>",
    "लाक</w>",
    "धि",
    "शिय",
    "तिक</w>",
    "c",
    "गोल</w>",
    "मिंग</w>",
    "सिटी</w>",
    "सारक",
    "लं",
    "टीं</w>",
    "केंद्र",
    "भिरां",
    "हे</w>",
    "पर",
    "सां",
    "प्लॅ",
    "कू",
    "हल्लो</w>",
    "जखमी</w>",
    "ऑस्ट्र",
    "इतिहासीक</w>",
    "सऱ्या</w>",
    "मूळ</w>",
    "नमु",
    "बरे",
    "ेचेर</w>",
    "भाशेंत</w>",
    "टकच</w>",
    "बा",
    "बापाय",
    "राज्यकर्",
    "ी.",
    "येच्या</w>",
    "यल्यान</w>",
    "ल्याक</w>",
    "अस्तंत</w>",
    "वृत्",
    "1",
    "भ</w>",
    "वेवस्थाप",
    "हाणें</w>",
    "्यांचे</w>",
    "जर्म",
    "ताब",
    "अडच",
    "झर्",
    "सू",
    "खात्री</w>",
    "नात.</w>",
    "सुच",
    "यू.</w>",
    "स्थापन</w>",
    "खे",
    "न्य</w>",
    "नामो</w>",
    "तना,</w>",
    "े.</w>",
    "क्रां",
    "देव</w>",
    "फिल्म",
    "व्हे",
    "एच",
    "दाखोवपी</w>",
    "थांब",
    "दिल्ल",
    "लक्षांत</w>",
    "लागसार",
    "हिंद",
    "धा",
    "स्ट</w>",
    "टीक</w>",
    "िये",
    "आसा.</w>",
    "खो",
    "व्हाय",
    "बुड",
    "अब्",
    "येंत</w>",
    "जावन</w>",
    "त",
    "आंकड",
    "करून,</w>",
    "अल्",
    "धनु",
    "पय",
    "रिया</w>",
    "मण</w>",
    "फ्रॅ",
    "सुरवे",
    "ळ",
    "दो",
    "रितीन</w>",
[...]
