{
  "merges": [
    [
      "ે",
      "</w>"
    ],
    [
      "ી",
      "</w>"
    ],
    [
      "ા",
      "</w>"
    ],
    [
      "મ",
      "ા"
    ],
    [
      "ં",
      "</w>"
    ],
    [
      ".",
      "</w>"
    ],
    [
      "્",
      "ય"
    ],
    [
      "ન",
      "ે</w>"
    ],
    [
      "્",
      "ર"
    ],
    [
      "ો",
      "</w>"
    ],
    [
      "મા",
      "ં</w>"
    ],
    [
      "ા",
      "ર"
    ],
    [
      "છ",
      "ે"
    ],
    [
      "ન",
      "ા</w>"
    ],
    [
      ",",
      "</w>"
    ],
    [
      "ન",
      "ી</w>"
    ],
    [
      "વ",
      "ા"
    ],
    [
      "ક",
      "ર"
    ],
    [
      "છે",
      ".</w>"
    ],
    [
      "સ",
      "્"
    ],
    [
      "હ",
      "ત"
    ],
    [
      "ર",
      "્"
    ],
    [
      "ક",
      "</w>"
    ],
    [
      "ુ",
      "ં</w>"
    ],
    [
      "ન",
      "</w>"
    ],
    [
      "અ",
      "ને</w>"
    ],
    [
      "ત",
      "ે"
    ],
    [
      "ર",
      "</w>"
    ],
    [
      "ત",
      "</w>"
    ],
    [
      "પ",
      "્ર"
    ],
    [
      "સ",
      "ા"
    ],
    [
      "ર",
      "ા"
    ],
    [
      "વ",
      "િ"
    ],
    [
      "ન",
      "્"
    ],
    [
      "ક",
      "્"
    ],
    [
      "ય",
      "</w>"
    ],
    [
      "આ",
      "વ"
    ],
    [
      "થ",
      "ી</w>"
    ],
    [
      "ન",
      "ા"
    ],
    [
      "મ",
      "</w>"
    ],
    [
      "લ",
      "ા"
    ],
    [
      "ન",
      "ો</w>"
    ],
    [
      "ણ",
      "</w>"
    ],
    [
      "િ",
      "ય"
    ],
    [
      "ત",
      "ે</w>"
    ],
    [
      "ક",
      "ે</w>"
    ],
    [
      "વ",
      "ા</w>"
    ],
    [
      "સ",
      "</w>"
    ],
    [
      "વા",
      "માં</w>"
    ],
    [
      "ક",
      "ા"
    ],
    [
      "ે",
      "લ"
    ],
    [
      "ર",
      "ી"
    ],
    [
      "ઓ",
      "</w>"
    ],
    [
      "ં",
      "ગ"
    ],
    [
      "ક",
      "ો"
    ],
    [
      "પ",
      "ા"
    ],
    [
      "ન",
      "ું</w>"
    ],
    [
      "ત",
      "ા"
    ],
    [
      "ક",
      "ાર"
    ],
    [
      "મા",
      "ટ"
    ],
    [
      "એ",
      "</w>"
    ],
    [
      "લ",
      "</w>"
    ],
    [
      "ક",
      "ે"
    ],
    [
      "લ",
      "્"
    ],
    [
      "આ",
      "</w>"
    ],
    [
      "ી",
      ".</w>"
    ],
    [
      "્ય",
      "</w>"
    ],
    [
      "ત",
      "્ર"
    ],
    [
      "વ",
      "ાર"
    ],
    [
      "માટ",
      "ે</w>"
    ],
    [
      "ત",
      "િ"
    ],
    [
      "હ",
      "ો"
    ],
    [
      "ુ",
      "</w>"
    ],
    [
      "તે",
      "મ"
    ],
    [
      "હ",
      "ે"
    ],
    [
      "છ",
      "ે</w>"
    ],
    [
      "એ",
      "ક</w>"
    ],
    [
      "ુ",
      "ં"
    ],
    [
      "ન",
      "િ"
    ],
    [
      "ર",
      "ો"
    ],
    [
      "મ",
      "ે"
    ],
    [
      "ત",
      "્"
    ],
    [
      "જ",
      "ે"
    ],
    [
      "દ",
      "્"
    ],
    [
      "સ",
      "ં"
    ],
    [
      "્ય",
      "ા"
    ],
    [
      "ટ",
      "</w>"
    ],
    [
      "જ",
      "ા"
    ],
    [
      "ો",
      ".</w>"
    ],
    [
      "ત",
      "ા</w>"
    ],
    [
      "ે",
      "શ"
    ],
    [
      "છે",
      ",</w>"
    ],
    [
      "ઈ",
      "</w>"
    ],
    [
      "લ",
      "ો"
    ],
    [
      "ભ",
      "ા"
    ],
    [
      "જ",
      "</w>"
    ],
    [
      "થ",
      "ા"
    ],
    [
      "હત",
      "ા"
    ],
    [
      "ગ",
      "</w>"
    ],
    [
      "પ",
      "ર"
    ],
    [
      "મા",
      "ં"
    ],
    [
      "લ",
      "ે"
    ],
    [
      "ક્",
      "ષ"
    ],
    [
      "મ",
      "ો"
    ],
    [
      "ડ",
      "</w>"
    ],
    [
      "સ",
      "િ"
    ],
    [
      "સ્",
      "ટ"
    ],
    [
      "ર",
      "ી</w>"
    ],
    [
      "ું",
      ".</w>"
    ],
    [
      "હત",
      "ી.</w>"
    ],
    [
      "પ",
      "ર</w>"
    ],
    [
      "વ",
      "ર્"
    ],
    [
      "િ",
      "ત</w>"
    ],
    [
      "મ",
      "ુ"
    ],
    [
      "2",
      "0"
    ],
    [
      "્ય",
      "ું</w>"
    ],
    [
      "ાર",
      "</w>"
    ],
    [
      "િય",
      "ા"
    ],
    [
      "બ",
      "ા"
    ],
    [
      "્ય",
      "ા</w>"
    ],
    [
      "સ",
      "ુ"
    ],
    [
      "ય",
      "ો"
    ],
    [
      "્ય",
      "ો</w>"
    ],
    [
      "ણ",
      "ે</w>"
    ],
    [
      "સા",
      "થ"
    ],
    [
      "પ",
      "ણ</w>"
    ],
    [
      "જ",
      "ે</w>"
    ],
    [
      "્ય",
      "ાર"
    ],
    [
      "દ",
      "ા"
    ],
    [
      "કર",
      "વામાં</w>"
    ],
    [
      "મ",
      "િ"
    ],
    [
      "સ્",
      "ત"
    ],
    [
      "સ",
      "મ"
    ],
    [
      "જ",
      "ો"
    ],
    [
      "લ",
      "િ"
    ],
    [
      "સાથ",
      "ે</w>"
    ],
    [
      "લ",
      "ી"
    ],
    [
      "ખ",
      "ા"
    ],
    [
      "ર",
      "ૂ"
    ],
    [
      "હતા",
      ".</w>"
    ],
    [
      "િ",
      "લ્"
    ],
    [
      "1",
      "9"
    ],
    [
      "વ",
      "ી</w>"
    ],
    [
      "હ",
      "ા"
    ],
    [
      "ષ",
      "્"
    ],
    [
      "શ",
      "ા"
    ],
    [
      "દ",
      "</w>"
    ],
    [
      "વ",
      "ધ"
    ],
    [
      "પ",
      "ુ"
    ],
    [
      "પ",
      "ૂ"
    ],
    [
      "હત",
      "ો.</w>"
    ],
    [
      "ય",
      "ુ"
    ],
    [
      "ક",
      "ો</w>"
    ],
    [
      "મ",
      "્"
    ],
    [
      "ક",
      "્ર"
    ],
    [
      "સ",
      "ે"
    ],
    [
      "હત",
      "ું.</w>"
    ],
    [
      "ર",
      "ે"
    ],
    [
      "ધ",
      "</w>"
    ],
    [
      "પ",
      "ો"
    ],
    [
      "કર",
      "ી</w>"
    ],
    [
      "દ્",
      "વાર"
    ],
    [
      "ર",
      "મ"
    ],
    [
      "વ",
      "ે"
    ],
    [
      "અ",
      "ન"
    ],
    [
      "આ",
      "પ"
    ],
    [
      "મ",
      "ે</w>"
    ],
    [
      "દ્વાર",
      "ા</w>"
    ],
    [
      "આવ",
      "ે</w>"
    ],
    [
      "ટ",
      "ા"
    ],
    [
      "જ",
      "ી"
    ],
    [
      "્યાર",
      "ે</w>"
    ],
    [
      "ડ",
      "ા"
    ],
    [
      "ી",
      "ય</w>"
    ],
    [
      "વ",
      "</w>"
    ],
    [
      "ં",
      "ત"
    ],
    [
      "ળ",
      "</w>"
    ],
    [
      "હ",
      "િ"
    ],
    [
      "રા",
      "જ"
    ],
    [
      "ત",
      "ી</w>"
    ],
    [
      "શ",
      "્"
    ],
    [
      "ત",
      "ો</w>"
    ],
    [
      "ન",
      "ે"
    ],
    [
      "ગ",
      "ા"
    ],
    [
      "ઉ",
      "પ"
    ],
    [
      "ચ",
      "ા"
    ],
    [
      "ભ",
      "ાર"
    ],
    [
      "ર",
      "િ"
    ],
    [
      "ત",
      "રી"
    ],
    [
      "કર",
      "ે</w>"
    ],
    [
      "ત",
      "મા"
    ],
    [
      "ટ",
      "ી"
    ],
    [
      "ન",
      "ો"
    ],
    [
      "ટ",
      "ે"
    ],
    [
      "મા",
      "ન"
    ],
    [
      "ટ",
      "્ર"
    ],
    [
      "વ",
      "ે</w>"
    ],
    [
      "ટ",
      "િ"
    ],
    [
      "થ",
      "ય"
    ],
    [
      "ી",
      ",</w>"
    ],
    [
      "સુ",
      "ધ"
    ],
    [
      "તે",
      "ઓ</w>"
    ],
    [
      "દ",
      "ી"
    ],
    [
      "દ",
      "ેશ"
    ],
    [
      "ન્",
      "ડ"
    ],
    [
      "થ",
      "વા</w>"
    ],
    [
      "ક",
      "િ"
    ],
    [
      "ગ",
      "્ર"
    ],
    [
      "્ય",
      "ુ"
    ],
    [
      "અ",
      "થવા</w>"
    ],
    [
      "ણ",
      "ી</w>"
    ],
    [
      "બ",
      "ો"
    ],
    [
      "ર",
      "હ"
    ],
    [
      "ન",
      "ી"
    ],
    [
      "ણ",
      "ા"
    ],
    [
      "ણ",
      "ી"
    ],
    [
      "દ",
      "િ"
    ],
    [
      "રી",
      "તે</w>"
    ],
    [
      "તરી",
      "કે</w>"
    ],
    [
      "પ",
      "્"
    ],
    [
      "બ",
      "ે"
    ],
    [
      "પ",
      "છ"
    ],
    [
      "બ",
      "ી"
    ],
    [
      "ભાર",
      "ત"
    ],
    [
      "શ",
      "કે</w>"
    ],
    [
      "થા",
      "ય</w>"
    ],
    [
      "પૂ",
      "ર્"
    ],
    [
      "ત્ર",
      "</w>"
    ],
    [
      "સ્",
      "થા"
    ],
    [
      "ી",
      "ને</w>"
    ],
    [
      "0",
      "</w>"
    ],
    [
      "ં",
      "ધ"
    ],
    [
      "િ",
      "ક</w>"
    ],
    [
      "આવ",
      "ી</w>"
    ],
    [
      "વધ",
      "ુ</w>"
    ],
    [
      "જ",
      "ો</w>"
    ],
    [
      "ય",
      "ા"
    ],
    [
      "ફ",
      "િલ્"
    ],
    [
      "પ",
      "ે"
    ],
    [
      "વર્",
      "ષ"
    ],
    [
      "હો",
      "ય</w>"
    ],
    [
      "શ",
      "ે"
    ],
    [
      "ગ",
      "ો"
    ],
    [
      "ંગ",
      "</w>"
    ],
    [
      "ચ",
      "</w>"
    ],
    [
      "તિ",
      "</w>"
    ],
    [
      "સ્",
      "થ"
    ],
    [
      "માં",
      ",</w>"
    ],
    [
      "સ",
      "ી"
    ],
    [
      "વ",
      "્ય"
    ],
    [
      "ચ",
      "ે"
    ],
    [
      "ડ",
      "ી</w>"
    ],
    [
      "તેમ",
      "ના</w>"
    ],
    [
      "સ",
      "ર"
    ],
    [
      "કે",
      "ટ"
    ],
    [
      "માં",
      "થી</w>"
    ],
    [
      "્ર",
      "ે"
    ],
    [
      "બ",
      "</w>"
    ],
    [
      "મ",
      "ળ"
    ],
    [
      "જ",
      "ૂ"
    ],
    [
      "ડ",
      "િ"
    ],
    [
      "ઉપ",
      "યો"
    ],
    [
      "ં",
      "દ"
    ],
    [
      "સ",
      "ૌ"
    ],
    [
      "ાર",
      "્"
    ],
    [
      "ત",
      "ર"
    ],
    [
      "વા",
      "ની</w>"
    ],
    [
      "ટ",
      "્"
    ],
    [
      "ફ",
      "ે"
    ],
    [
      "સુધ",
      "ી</w>"
    ],
    [
      "વ",
      "ી"
    ],
    [
      "વાર",
      "</w>"
    ],
    [
      "પ",
      "</w>"
    ],
    [
      "શ",
      "િ"
    ],
    [
      "્યા",
      "ં</w>"
    ],
    [
      "ર",
      "ા</w>"
    ],
    [
      "તે",
      "ના</w>"
    ],
    [
      "ળ",
      "ા"
    ],
    [
      "મ",
      "ી"
    ],
    [
      "ઉ",
      "ત્"
    ],
    [
      "ચ",
      "િ"
    ],
    [
      "મ",
      "ી</w>"
    ],
    [
      "ગ",
      "ુ"
    ],
    [
      "જ",
      "્યારે</w>"
    ],
    [
      "સ",
      "ો"
    ],
    [
      "તે",
      "ને</w>"
    ],
    [
      "ક",
      "ુ"
    ],
    [
      "ભા",
      "ગ"
    ],
    [
      "બ",
      "ના"
    ],
    [
      "ેલ",
      "ા</w>"
    ],
    [
      ".",
      "એ"
    ],
    [
      "20",
      "1"
    ],
    [
      "ર",
      "ે</w>"
    ],
    [
      "મ",
      "ને</w>"
    ],
    [
      "સ",
      "મા"
    ],
    [
      "શ",
      "રૂ"
    ],
    [
      "શ",
      "</w>"
    ],
    [
      "્ર",
      "ા"
    ],
    [
      "સૌ",
      "થી</w>"
    ],
    [
      "ત",
      "મે</w>"
    ],
    [
      "ટ",
      "ો"
    ],
    [
      "ફ",
      "</w>"
    ],
    [
      "મ",
      "ૂ"
    ],
    [
      "લ",
      "ી</w>"
    ],
    [
      "લ",
      "ા</w>"
    ],
    [
      "ો",
      ",</w>"
    ],
    [
      "દ",
      "ે"
    ],
    [
      "ઉપયો",
      "ગ</w>"
    ],
    [
      "પર",
      "િ"
    ],
    [
      "કર",
      "વા</w>"
    ],
    [
      "ક",
      "ા</w>"
    ],
    [
      "ડ",
      "ી"
    ],
    [
      "િય",
      "ા</w>"
    ],
    [
      "અન",
      "્ય</w>"
    ],
    [
      "ટ",
      "ી</w>"
    ],
    [
      "મુ",
      "ખ"
    ],
    [
      "પછ",
      "ી</w>"
    ],
    [
      "તે",
      "ની</w>"
    ],
    [
      "સા",
      "માન"
    ],
    [
      "તેમ",
      "ણે</w>"
    ],
    [
      "દ",
      "ી</w>"
    ],
    [
      "ચ",
      "્"
    ],
    [
      "સામાન",
      "્ય</w>"
    ],
    [
      "પ",
      "િ"
    ],
    [
      "હ",
      "ી"
    ],
    [
      "થ",
      "ઈ</w>"
    ],
    [
      "પ્ર",
      "થ"
    ],
    [
      "ક",
      "ી</w>"
    ],
    [
      "મ",
      "ં"
    ],
    [
      "વ",
      "વામાં</w>"
    ],
    [
      "ેલ",
      "</w>"
    ],
    [
      "પ્ર",
      "ા"
    ],
    [
      "શ",
      "ો"
    ],
    [
      "સ",
      "ાર"
    ],
    [
      "વા",
      "નું</w>"
    ],
    [
      "રો",
      "જ</w>"
    ],
    [
      "સ",
      "ે</w>"
    ],
    [
      "બ",
      "્"
    ],
    [
      "તેમ",
      "ની</w>"
    ],
    [
      "આવ",
      "્યું</w>"
    ],
    [
      "ન",
      "માં</w>"
    ],
    [
      "ફ",
      "ા"
    ],
    [
      "પ્રથ",
      "મ</w>"
    ],
    [
      "ત",
      "્યારે</w>"
    ],
    [
      "ધ",
      "ા"
    ],
    [
      "ડ",
      "ે"
    ],
    [
      "પ",
      "ી"
    ],
    [
      "ેલ",
      "ી</w>"
    ],
    [
      "ભ",
      "ૂ"
    ],
    [
      "ફ",
      "ો"
    ],
    [
      "દ",
      "ર્"
    ],
    [
      "ો",
      "માં</w>"
    ],
    [
      "લો",
      "કો</w>"
    ],
    [
      "લ",
      "ગ"
    ],
    [
      ")",
      "</w>"
    ],
    [
      "20",
      "0"
    ],
    [
      "શ",
      "હે"
    ],
    [
      "ં",
      "ચ"
    ],
    [
      "કાર",
      "</w>"
    ],
    [
      "વિ",
      "સ્ત"
    ],
    [
      "દ",
      "્ર"
    ],
    [
      "ન",
      "થ"
    ],
    [
      "પર",
      "ંત"
    ],
    [
      "ણ",
      "ા</w>"
    ],
    [
      "ન્",
      "ટ"
    ],
    [
      "પરંત",
      "ુ</w>"
    ],
    [
      "ષ્",
      "ટ્ર"
    ],
    [
      "બ",
      "્ર"
    ],
    [
      "ધ",
      "િ"
    ],
    [
      "બ",
      "િ"
    ],
    [
      "અન",
      "ુ"
    ],
    [
      "ં",
      "પ"
    ],
    [
      "ચ",
      "ો"
    ],
    [
      "રા",
      "ખ"
    ],
    [
      "મા",
      "ર્"
    ],
    [
      "ક",
      "ૃ"
    ],
    [
      "ગ",
      "ય"
    ],
    [
      "વ",
      "ું</w>"
    ],
    [
      "દ",
      "રમ"
    ],
    [
      "દરમ",
      "િયા"
    ],
    [
      "બ",
      "ે</w>"
    ],
    [
      "જ",
      "ુ"
    ],
    [
      "સ",
      "માં</w>"
    ],
    [
      "લ",
      "ે</w>"
    ],
    [
      "પ",
      "ડ"
    ],
    [
      "ન",
      "િય"
    ],
    [
      "જ",
      "ા</w>"
    ],
    [
      "સ",
      "ંગ"
    ],
    [
      "બ",
      "ં"
    ],
    [
      "સા",
      "મ"
    ],
    [
      "લ",
      "ો</w>"
    ],
    [
      "તેમ",
      "ને</w>"
    ],
    [
      "વ",
      "ેશ"
    ],
    [
      "અ",
      "ભ"
    ],
    [
      "થ",
      "</w>"
    ],
    [
      "પ",
      "ર્"
    ],
    [
      "ત",
      "્ય"
    ],
    [
      "વા",
      "નો</w>"
    ],
    [
      "ગ",
      "ી"
    ],
    [
      "તા",
      "ં</w>"
    ],
    [
      "રા",
      "ષ્ટ્ર"
    ],
    [
      "સમ",
      "ય"
    ],
    [
      "દ",
      "ુ"
    ],
    [
      "ધ",
      "રા"
    ],
    [
      "વ",
      "સ્ત"
    ],
    [
      "નિ",
      "ર્"
    ],
    [
      "ં",
      ".</w>"
    ],
    [
      "દિ",
      "વ"
    ],
    [
      "રાજ",
      "્ય"
    ],
    [
      "ઓ",
      "ને</w>"
    ],
    [
      "વ",
      "ો</w>"
    ],
    [
      "ં",
      "ડ"
    ],
    [
      "જ",
      "ી</w>"
    ],
    [
      "એ",
      "ક"
    ],
    [
      "સ્",
      "વ"
    ],
    [
      "ન",
      "ના</w>"
    ],
    [
      "મો",
      "ટ"
    ],
    [
      "શે",
      ".</w>"
    ],
    [
      "ેલ",
      "ું</w>"
    ],
    [
      "વ",
      "ો"
    ],
    [
      "ર",
      "માં</w>"
    ],
    [
      "કે",
      ",</w>"
    ],
    [
      "ના",
      "ં</w>"
    ],
    [
      "ર",
      "ુ"
    ],
    [
      "ન",
      "ની</w>"
    ],
    [
      "મ્",
      "બ"
    ],
    [
      "આવ",
      "્યો</w>"
    ],
    [
      "બ",
      "દ"
    ],
    [
      "કેટ",
      "લા"
    ],
    [
      "સ",
      "ૂ"
    ],
    [
      "5",
      "</w>"
    ],
    [
      "ટ",
      "ર</w>"
    ],
    [
      "ગ",
      "ે"
    ],
    [
      "ક",
      "ી"
    ],
    [
      "પ્ર",
      "તિ"
    ],
    [
      ":",
      "</w>"
    ],
    [
      "પો",
      "તા"
    ],
    [
      "નથ",
      "ી.</w>"
    ],
    [
      "હ",
      "ું</w>"
    ],
    [
      "વેશ",
      "</w>"
    ],
    [
      "સ્ટ",
      "ે"
    ],
    [
      "હત",
      "ી</w>"
    ],
    [
      "મુખ",
      "્ય</w>"
    ],
    [
      "ર",
      "ો</w>"
    ],
    [
      "ો",
      "ડ"
    ],
    [
      "ન",
      ",</w>"
    ],
    [
      "પ્ર",
      "દેશ"
    ],
    [
      "ખ",
      "ે"
    ],
    [
      "વિ",
      "શ્"
    ],
    [
      "સ",
      "ના</w>"
    ],
    [
      "કાર",
      "ણ</w>"
    ],
    [
      "ર",
      "ના</w>"
    ],
    [
      "દરમિયા",
      "ન</w>"
    ],
    [
      "દ્",
      "ધ</w>"
    ],
    [
      "િય",
      "ન</w>"
    ],
    [
      "નિ",
      "ક</w>"
    ],
    [
      "વ",
      "સા"
    ],
    [
      "લો",
      "કો"
    ],
    [
      "1",
      "</w>"
    ],
    [
      "ઓ",
      "માં</w>"
    ],
    [
      "વ્ય",
      "ક્"
    ],
    [
      "કર",
      "્યો</w>"
    ],
    [
      "ઝ",
      "</w>"
    ],
    [
      "કર",
      "્યું</w>"
    ],
    [
      "કો",
      "ઈ</w>"
    ],
    [
      "2",
      "</w>"
    ],
    [
      "ઘ",
      "ણા</w>"
    ],
    [
      "ઓ",
      "છ"
    ],
    [
      "ડ",
      "ો"
    ],
    [
      "કર",
      "ીને</w>"
    ],
    [
      "ફિલ્",
      "મ</w>"
    ],
    [
      "ું",
      ",</w>"
    ],
    [
      "શ",
      "ે</w>"
    ],
    [
      "બ",
      "ન"
    ],
    [
      "મે",
      "ળ"
    ],
    [
      "ર",
      "ની</w>"
    ],
    [
      "મ્",
      "પ"
    ],
    [
      "પૂર્",
      "ણ</w>"
    ],
    [
      "ળ",
      "ી</w>"
    ],
    [
      "જે",
      "માં</w>"
    ],
    [
      "કેટલા",
      "ક</w>"
    ],
    [
      "હત",
      "ું</w>"
    ],
    [
      "શરૂ",
      "</w>"
    ],
    [
      "ાર",
      "ા"
    ],
    [
      "હ",
      "</w>"
    ],
    [
      "ન",
      "ગ"
    ],
    [
      "કર",
      "્"
    ],
    [
      "કાર",
      "ણે</w>"
    ],
    [
      "મ",
      "માં</w>"
    ],
    [
      "ફ",
      "્"
    ],
    [
      "અ",
      "ં"
    ],
    [
      "આવ",
      "્યા</w>"
    ],
    [
      "ત",
      "ી"
    ],
    [
      "મ",
      "ા</w>"
    ],
    [
      "કા",
      "મ</w>"
    ],
    [
      "પ્ર",
      "િ"
    ],
    [
      "મ",
      "હિ"
    ],
    [
      "ફ",
      "િ"
    ],
    [
      "પ",
      "હે"
    ],
    [
      "ભા",
      "ગ</w>"
    ],
    [
      "સ્થા",
      "પ"
    ],
    [
      "સમા",
      "વેશ</w>"
    ],
    [
      "શ",
      "ી"
    ],
    [
      "તે",
      "ણે</w>"
    ],
    [
      "બ",
      "હ"
    ],
    [
      "ભારત",
      "ીય</w>"
    ],
    [
      "બ",
      "ંધ"
    ],
    [
      "તમા",
      "રા</w>"
    ],
    [
      "ચ",
      "ી"
    ],
    [
      "ચ",
      "ૂ"
    ],
    [
      "ત",
      "ું</w>"
    ],
    [
      "આ",
      "ધ"
    ],
    [
      "ગ્ર",
      "ા"
    ],
    [
      "ન્",
      "ડ</w>"
    ],
    [
      "દ",
      "ર"
    ],
    [
      "થય",
      "ું</w>"
    ],
    [
      "રાષ્ટ્ર",
      "ીય</w>"
    ],
    [
      "ં",
      "બ"
    ],
    [
      "મ",
      "દ"
    ],
    [
      "મ",
      "ો</w>"
    ],
    [
      "કે",
      "ન્"
    ],
    [
      "ત",
      "ો"
    ],
    [
      "લા",
      "ગ"
    ],
    [
      "4",
      "</w>"
    ],
    [
      "મ",
      "ૃ"
    ],
    [
      "ક્ષ",
      "િ"
    ],
    [
      "શરૂ",
      "આ"
    ],
    [
      "શ",
      "્રે"
    ],
    [
      "ખ",
      "ૂ"
    ],
    [
      "થય",
      "ો</w>"
    ],
    [
      "ી",
      "ઓ</w>"
    ],
    [
      "ખ",
      "</w>"
    ],
    [
      "ચા",
      "લ"
    ],
    [
      "હત",
      "ો</w>"
    ],
    [
      "ચ",
      "ાર"
    ],
    [
      "જ",
      "્"
    ],
    [
      "જ",
      "િ"
    ],
    [
      "મા",
      "ત્ર</w>"
    ],
    [
      "સ",
      "ી</w>"
    ],
    [
      "0",
      "0</w>"
    ],
    [
      "ઓ",
      "ની</w>"
    ],
    [
      "સ",
      "ર્"
    ],
    [
      "પ્ર",
      "ો"
    ],
    [
      "ન્",
      "ટ</w>"
    ],
    [
      "ર",
      ",</w>"
    ],
    [
      "ર",
      "હે"
    ],
    [
      "જ",
      "રૂ"
    ],
    [
      "હત",
      "ી,</w>"
    ],
    [
      "અ",
      "ર્"
    ],
    [
      "સ્",
      "તા"
    ],
    [
      "3",
      "</w>"
    ],
    [
      "દ",
      "ક્ષિ"
    ],
    [
      "મે",
      "રિ"
    ],
    [
      "ઠ",
      "</w>"
    ],
    [
      "્ય",
      "ો"
    ],
    [
      "સ્",
      "ત્ર"
    ],
    [
      "6",
      "</w>"
    ],
    [
      "ઓ",
      "ળ"
    ],
    [
      "ચ",
      "ે</w>"
    ],
    [
      "શ",
      "ન</w>"
    ],
    [
      "સ",
      "ર</w>"
    ],
    [
      "ત્ર",
      "ણ</w>"
    ],
    [
      "જા",
      "ય</w>"
    ],
    [
      "ત",
      "ુ"
    ],
    [
      "ં",
      "ભ"
    ],
    [
      "શ",
      "ક"
    ],
    [
      "વ",
      "વા</w>"
    ],
    [
      "ખ",
      "ો"
    ],
    [
      "8",
      "</w>"
    ],
    [
      "અ",
      "મેરિ"
    ],
    [
      "19",
      "9"
    ],
    [
      "ખૂ",
      "બ</w>"
    ],
    [
      "સ્ટ",
      "્ર"
    ],
    [
      "હતા",
      "ં.</w>"
    ],
    [
      "આવ",
      "ેલું</w>"
    ],
    [
      "આ",
      "ઈ"
    ],
    [
      "માટ",
      "ે"
    ],
    [
      "ન",
      "થી</w>"
    ],
    [
      "ભ",
      "ગ</w>"
    ],
    [
      "લગ",
      "ભગ</w>"
    ],
    [
      "યો",
      "જ"
    ],
    [
      "ટે",
      "ડ</w>"
    ],
    [
      "વ",
      "ચ્"
    ],
    [
      "વ",
      "્યા"
    ],
    [
      "મો",
      "ટા"
    ],
    [
      "ગ",
      "્"
    ],
    [
      "ાર",
      "ી</w>"
    ],
    [
      "ક",
      "હ"
    ],
    [
      "સ",
      "ન</w>"
    ],
    [
      "ક",
      "ંપ"
    ],
    [
      "વિસ્ત",
      "ાર"
    ],
    [
      "જ",
      "ન્"
    ],
    [
      "શ",
      "્ર"
    ],
    [
      "સ્",
      "ટ</w>"
    ],
    [
      "સ",
      "ની</w>"
    ],
    [
      "7",
      "</w>"
    ],
    [
      "ળ",
      "ા</w>"
    ],
    [
      "ન",
      "ને</w>"
    ],
    [
      "મ",
      "ની</w>"
    ],
    [
      "ં",
      "ક"
    ],
    [
      "મોટા",
      "ભાગ"
    ],
    [
      "અ",
      "લ"
    ],
    [
      "બં",
      "ધ</w>"
    ],
    [
      "તમા",
      "રી</w>"
    ],
    [
      "દા",
      "ય"
    ],
    [
      "ન્",
      "સ</w>"
    ],
    [
      "શ",
      "કા"
    ],
    [
      "લ",
      "માં</w>"
    ],
    [
      "વિ",
      "વિ"
    ],
    [
      "મ",
      "ના</w>"
    ],
    [
      "દ",
      "ૂ"
    ],
    [
      "સંગ",
      "ી"
    ],
    [
      "ેલ",
      "્"
    ],
    [
      "સમ",
      "ય</w>"
    ],
    [
      "હત",
      "ા</w>"
    ],
    [
      "લા",
      "ં</w>"
    ],
    [
      "ંગ",
      "્"
    ],
    [
      "ત",
      "માં</w>"
    ],
    [
      "ડ",
      "ા</w>"
    ],
    [
      "ણ",
      "ો</w>"
    ],
    [
      "મ",
      "હત"
    ],
    [
      "ચ",
      "ાર</w>"
    ],
    [
      "ના",
      "મ</w>"
    ],
    [
      "મ",
      "ધ"
    ],
    [
      "ન",
      "ુ"
    ],
    [
      "ઝ",
      "ા"
    ],
    [
      "ર",
      "જૂ"
    ],
    [
      "કર",
      "્ય"
    ],
    [
      "ધરા",
      "વ"
    ],
    [
      "િલ્",
      "લા"
    ],
    [
      "કાર",
      "્ય"
    ],
    [
      "કો",
      "ર્"
    ],
    [
      "પ",
      "શ્"
    ],
    [
      "વ",
      "ર"
    ],
    [
      "અભ",
      "િ"
    ],
    [
      "જી",
      "વ"
    ],
    [
      "શો",
      "ધ"
    ],
    [
      "લે",
      "ન્ડ"
    ],
    [
      "જા",
      "હે"
    ],
    [
      "લો",
      "ક"
    ],
    [
      "આપ",
      "વામાં</w>"
    ],
    [
      "'",
      "</w>"
    ],
    [
      "તે",
      "નો</w>"
    ],
    [
      "પશ્",
      "ચિ"
    ],
    [
      "સ્થ",
      "િ"
    ],
    [
      "ક",
      "હે"
    ],
    [
      "વર્ષ",
      "</w>"
    ],
    [
      "જો",
      "વા</w>"
    ],
    [
      "સ",
      "ભ"
    ],
    [
      "ત",
      "ર</w>"
    ],
    [
      "ઘ",
      "ણી</w>"
    ],
    [
      "દ",
      "ર</w>"
    ],
    [
      "પા",
      "છ"
    ],
    [
      "પ",
      "હો"
    ],
    [
      "વ",
      "ૃ"
    ],
    [
      "પ",
      "હ"
    ],
    [
      "ઓ",
      "એ</w>"
    ],
    [
      "ખ",
      "્યા"
    ],
    [
      "દ્",
      "ધ"
    ],
    [
      "આ",
      "ર્"
    ],
    [
      "પ્ર",
      "ે"
    ],
    [
      "ાર",
      "ો</w>"
    ],
    [
      "ત",
      "્યાં</w>"
    ],
    [
      "કર",
      "ા"
    ],
    [
      "\"",
      "</w>"
    ],
    [
      "મહત",
      "્"
    ],
    [
      "હત",
      "ો,</w>"
    ],
    [
      "હ",
      "ુ"
    ],
    [
      "ં",
      ",</w>"
    ],
    [
      "ડ",
      "ે</w>"
    ],
    [
      "યુ",
      "ના"
    ],
    [
      "મા",
      "ર"
    ],
    [
      "ઘ",
      "ા"
    ],
    [
      "દ",
      "રે"
    ],
    [
      "પા",
      "સે</w>"
    ],
    [
      "તમા",
      "મ</w>"
    ],
    [
      "ર",
      "ક્ષ"
    ],
    [
      "બા",
      "ળ"
    ],
    [
      "ક",
      "લા"
    ],
    [
      "ંત",
      "ર"
    ],
    [
      "ત",
      "મને</w>"
    ],
    [
      "ક્",
      "ત</w>"
    ],
    [
      "કર",
      "્યા</w>"
    ],
    [
      "લી",
      "ધ"
    ],
    [
      "નો",
      "ંધ"
    ],
    [
      "વિવિ",
      "ધ</w>"
    ],
    [
      "ફ",
      "ૂ"
    ],
    [
      "અ",
      "ંગ"
    ],
    [
      "રજૂ",
      "</w>"
    ],
    [
      "ન",
      "હી"
    ],
    [
      "બ",
      "ર્"
    ],
    [
      "લ",
      "ુ"
    ],
    [
      "વ",
      "ખ"
    ],
    [
      "સ",
      "હ"
    ],
    [
      "જ",
      "્યાં</w>"
    ],
    [
      "સ",
      "ને</w>"
    ],
    [
      "ન",
      "જી"
    ],
    [
      "રહ",
      "્યા</w>"
    ],
    [
      "ક્",
      "સ</w>"
    ],
    [
      "ત્",
      "મ"
    ],
    [
      "ય",
      "ા</w>"
    ],
    [
      "મં",
      "દિ"
    ],
    [
      "ત્",
      "વ"
    ],
    [
      "ભા",
      "ષ"
    ],
    [
      "બ્ર",
      "િ"
    ],
    [
      "અલ",
      "ગ</w>"
    ],
    [
      "સ",
      "ા</w>"
    ],
    [
      "ઓ",
      "ફ</w>"
    ],
    [
      "ંગ",
      "ા"
    ],
    [
      ".એ",
      "સ"
    ],
    [
      "મા",
      "ણ"
    ],
    [
      "કાર",
      "્"
    ],
    [
      "ખ",
      "રી"
    ],
    [
      "બા",
      "દ</w>"
    ],
    [
      "જો",
      "ઈ"
    ],
    [
      "ક",
      "ન</w>"
    ],
    [
      "ન",
      "દી"
    ],
    [
      "મા",
      "રી</w>"
    ],
    [
      "દરે",
      "ક</w>"
    ],
    [
      "બ",
      "ી</w>"
    ],
    [
      "ખે",
      "લા"
    ],
    [
      "ગ",
      "ણ"
    ],
    [
      "સ્",
      "પર્"
    ],
    [
      "કેન્",
      "દ્ર"
    ],
    [
      "વિશ્",
      "વ"
    ],
    [
      "ડ",
      "િય"
    ],
    [
      "બ",
      "ની</w>"
    ],
    [
      "દ",
      "ો"
    ],
    [
      "સા",
      "મે</w>"
    ],
    [
      "1",
      "8"
    ],
    [
      "આપ",
      "ે</w>"
    ],
    [
      "ભારત",
      "ના</w>"
    ],
    [
      "એ",
      "ન્"
    ],
    [
      "શકા",
      "ય</w>"
    ],
    [
      "હ",
      "ર"
    ],
    [
      "ગ",
      "ત</w>"
    ],
    [
      "તે",
      "માં</w>"
    ],
    [
      "શહે",
      "ર</w>"
    ],
    [
      "પૂર્",
      "વ"
    ],
    [
      "બના",
      "વ"
    ],
    [
      "વ્યક્",
      "તિ"
    ],
    [
      "પા",
      "દ"
    ],
    [
      "જ",
      "ન"
    ],
    [
      "કર",
      "વાની</w>"
    ],
    [
      "તર",
      "ફ</w>"
    ],
    [
      "19",
      "8"
    ],
    [
      "હત",
      "ું,</w>"
    ],
    [
      "વર્ષ",
      "ની</w>"
    ],
    [
      "કર",
      "તાં</w>"
    ],
    [
      "ઇ",
      "</w>"
    ],
    [
      "ન",
      "્યુ"
    ],
    [
      "ભૂ",
      "મિ"
    ],
    [
      "જો",
      "ડા"
    ],
    [
      "૨",
      "૦"
    ],
    [
      "સર",
      "કાર"
    ],
    [
      "સુધ",
      "ી"
    ],
    [
      "ેલ",
      "િ"
    ],
    [
      "વા",
      "ના</w>"
    ],
    [
      "મોટ",
      "ા</w>"
    ],
    [
      "ફ",
      "ર"
    ],
    [
      "પછ",
      "ી,</w>"
    ],
    [
      "પ",
      "સં"
    ],
    [
      "મદ",
      "દ</w>"
    ],
    [
      "ેલ",
      "ો</w>"
    ],
    [
      "કા",
      "ય"
    ],
    [
      "ક્ર",
      "િ"
    ],
    [
      "બ",
      "ુ"
    ],
    [
      "પ્ર",
      "યા"
    ],
    [
      "વા",
      "ય"
    ],
    [
      "વ",
      "ૈ"
    ],
    [
      "તે",
      "નું</w>"
    ],
    [
      "મિ",
      "ક</w>"
    ],
    [
      "ટ્",
      "સ</w>"
    ],
    [
      "સ",
      "દી"
    ],
    [
      "પ્",
      "ત</w>"
    ],
    [
      "ફો",
      "ર્"
    ],
    [
      "હ",
      "ી</w>"
    ],
    [
      "બહ",
      "ાર</w>"
    ],
    [
      "ના",
      "ના</w>"
    ],
    [
      "ાર",
      "ે</w>"
    ],
    [
      "ે",
      ",</w>"
    ],
    [
      "જ",
      "િલ્લા"
    ],
    [
      "ઃ",
      "</w>"
    ],
    [
      "ં",
      "ત</w>"
    ],
    [
      "હતા",
      ",</w>"
    ],
    [
      "9",
      "</w>"
    ],
    [
      "ન",
      "લ</w>"
    ],
    [
      "ઓ",
      "ના</w>"
    ],
    [
      "ત્",
      "તા"
    ],
    [
      "કેટ",
      "લી"
    ],
    [
      "લા",
      "ઈ"
    ],
    [
      "આ",
      "ર"
    ],
    [
      "રમ",
      "ત"
    ],
    [
      "મળ",
      "ે</w>"
    ],
    [
      "સ્ટ",
      "ો"
    ],
    [
      "ન",
      "્ય"
    ],
    [
      "જ",
      "ણા"
    ],
    [
      ",",
      "0"
    ],
    [
      "જે",
      "વા</w>"
    ],
    [
      "ં",
      "ચા"
    ],
    [
      "ક",
      "ીય</w>"
    ],
    [
      "છ",
      "ો"
    ],
    [
      "મૃ",
      "ત્ય"
    ],
    [
      "બી",
      "જા</w>"
    ],
    [
      "દ",
      "ા</w>"
    ],
    [
      "ર",
      "ચ"
    ],
    [
      "મૃત્ય",
      "ુ</w>"
    ],
    [
      "રૂ",
      "પ"
    ],
    [
      "કા",
      "ઉ"
    ],
    [
      "સ્",
      "વી"
    ],
    [
      "ક્ર",
      "ો"
    ],
    [
      "વાર",
      "્"
    ],
    [
      "ધ",
      "ા</w>"
    ],
    [
      "જે",
      "મ</w>"
    ],
    [
      "વ",
      "ણી</w>"
    ],
    [
      "દક્ષિ",
      "ણ</w>"
    ],
    [
      "વચ્",
      "ચે</w>"
    ],
    [
      "ક",
      "ૂ"
    ],
    [
      "સ",
      "પા"
    ],
    [
      "કા",
      "માં</w>"
    ],
    [
      "મા",
      "ન</w>"
    ],
    [
      "પ્ર",
      "કાર"
    ],
    [
      "ત્મ",
      "ક</w>"
    ],
    [
      "ેશ",
      "ન</w>"
    ],
    [
      "ક",
      "ના</w>"
    ],
    [
      "ધ",
      "ર્"
    ],
    [
      "દા",
      "ન</w>"
    ],
    [
      "ત્",
      "વ</w>"
    ],
    [
      "લ",
      "ક્ષ"
    ],
    [
      "આ",
      "ગ"
    ],
    [
      "વિ",
      "ક"
    ],
    [
      "ક્",
      "સ"
    ],
    [
      "19",
      "7"
    ],
    [
      "પ્ર",
      "વા"
    ],
    [
      "સ્",
      "પ"
    ],
    [
      "ખા",
      "સ</w>"
    ],
    [
      "ો",
      "ને</w>"
    ],
    [
      "જ",
      "વા"
    ],
    [
      "યો",
      "ગ"
    ],
    [
      "ો",
      "ની</w>"
    ],
    [
      "જા",
      "ણી"
    ],
    [
      "સ",
      "ો</w>"
    ],
    [
      "શ",
      "કો</w>"
    ],
    [
      "વિ",
      "શે</w>"
    ],
    [
      "બના",
      "વવામાં</w>"
    ],
    [
      "ં",
      "ક</w>"
    ],
    [
      "વ",
      "ય"
    ],
    [
      "બો",
      "લ</w>"
    ],
    [
      "િયા",
      "માં</w>"
    ],
    [
      "ક",
      "લ"
    ],
    [
      "ળ",
      "ો</w>"
    ],
    [
      "હો",
      "ઈ</w>"
    ],
    [
      "તિ",
      "ઓ</w>"
    ],
    [
      "સ",
      "ાર</w>"
    ],
    [
      "કર",
      "</w>"
    ],
    [
      "પ",
      "ાર્"
    ],
    [
      "અ",
      "ધિ"
    ],
    [
      "જરૂ",
      "ર</w>"
    ],
    [
      "ન",
      "નો</w>"
    ],
    [
      "સ",
      "ફ"
    ],
    [
      "ત્ર",
      "ી"
    ],
    [
      "ધરા",
      "વે</w>"
    ],
    [
      "દર્",
      "શા"
    ],
    [
      "રમ",
      "ત</w>"
    ],
    [
      "કર",
      "તા</w>"
    ],
    [
      "લા",
      "ઇ"
    ],
    [
      "લ",
      "ખ"
    ],
    [
      "વસ્ત",
      "ુ"
    ],
    [
      "ભારત",
      "માં</w>"
    ],
    [
      "રો",
      "ગ"
    ],
    [
      "િયા",
      "ના</w>"
    ],
    [
      "ગય",
      "ા</w>"
    ],
    [
      "ં",
      "ત્ર"
    ],
    [
      "આ",
      "ંતર"
    ],
    [
      "રાજ",
      "્ય</w>"
    ],
    [
      "ઉત્",
      "તર</w>"
    ],
    [
      "ક",
      "લ</w>"
    ],
    [
      "જન્",
      "મ</w>"
    ],
    [
      "પુ",
      "ર"
    ],
    [
      "ડ",
      "્"
    ],
    [
      "ઉત્",
      "પાદ"
    ],
    [
      "મ",
      "હા"
    ],
    [
      "બ",
      "ર</w>"
    ],
    [
      "ના",
      "થી</w>"
    ],
    [
      "ઉ",
      "દ"
    ],
    [
      "્ર",
      "ો"
    ],
    [
      "ક",
      "માં</w>"
    ],
    [
      "વ",
      "હ"
    ],
    [
      "જે",
      "ને</w>"
    ],
    [
      "મ્બ",
      "ર</w>"
    ],
    [
      "મળ",
      "ી</w>"
    ],
    [
      "તિ",
      "હા"
    ],
    [
      "ં",
      "મ"
    ],
    [
      "જ્",
      "ઞ"
    ],
    [
      "થ",
      "ો"
    ],
    [
      "ત",
      "રી</w>"
    ],
    [
      "ગ",
      "માં</w>"
    ],
    [
      "વ",
      "ં"
    ],
    [
      "સ",
      ",</w>"
    ],
    [
      "થય",
      "ા</w>"
    ],
    [
      "પ્રિ",
      "ય</w>"
    ],
    [
      "લા",
      "ંબ"
    ],
    [
      "ષ્",
      "ઠ</w>"
    ],
    [
      "પો",
      "ર્"
    ],
    [
      "લગ",
      "્"
    ],
    [
      "ખા",
      "તે</w>"
    ],
    [
      "પૂર્",
      "વ</w>"
    ],
    [
      "્ર",
      "િ"
    ],
    [
      "શ",
      "ુ"
    ],
    [
      "પહે",
      "લાં</w>"
    ],
    [
      "વસ્ત",
      "ી</w>"
    ],
    [
      "ર",
      "ંગ"
    ],
    [
      "રહ",
      "ી</w>"
    ],
    [
      "હે",
      "ઠ"
    ],
    [
      "ાર",
      "ી"
    ],
    [
      "ઘ",
      "ટ"
    ],
    [
      "ત",
      "્યાર"
    ],
    [
      "સ્થા",
      "નિક</w>"
    ],
    [
      "લ",
      "ના</w>"
    ],
    [
      "બ",
      "્રા"
    ],
    [
      "ક",
      "ની</w>"
    ],
    [
      "ઉ",
      "જ"
    ],
    [
      "ડ",
      "ો</w>"
    ],
    [
      "એ",
      ".</w>"
    ],
    [
      "આપ",
      "ી</w>"
    ],
    [
      "ણ",
      "માં</w>"
    ],
    [
      "એ",
      "સ"
    ],
    [
      "શરૂઆ",
      "ત</w>"
    ],
    [
      "ટ",
      "ુ"
    ],
    [
      "અ",
      "વસા"
    ],
    [
      "ઓ",
      "નો</w>"
    ],
    [
      "વિસ્ત",
      "ાર</w>"
    ],
    [
      "દ",
      "ો</w>"
    ],
    [
      "દૂ",
      "ર</w>"
    ],
    [
      "ઝ",
      "ડ"
    ],
    [
      "અવસા",
      "ન</w>"
    ],
    [
      "ધ",
      "ો"
    ],
    [
      "વ",
      "્યું</w>"
    ],
    [
      "ખ",
      "ર્"
    ],
    [
      "ઠ",
      "ા"
    ],
    [
      "કંપ",
      "ની"
    ],
    [
      "ષ્",
      "ટ</w>"
    ],
    [
      "જે",
      "વી</w>"
    ],
    [
      "ક્ષ",
      "ે"
    ],
    [
      "હો",
      "ય"
    ],
    [
      "જ",
      "ન</w>"
    ],
    [
      "દિવ",
      "સ</w>"
    ],
    [
      "મ",
      "ન</w>"
    ],
    [
      "પ્ર",
      "દર્"
    ],
    [
      "મો",
      "ટી</w>"
    ],
    [
      "ં",
      "ટ"
    ],
    [
      "સ્ટે",
      "ટ્"
    ],
    [
      "ષ",
      "</w>"
    ],
    [
      "સામ",
      "્રા"
    ],
    [
      "ર્",
      "સ</w>"
    ],
    [
      "ભા",
      "વ"
    ],
    [
      "મા",
      "રા</w>"
    ],
    [
      "સ",
      "ૈ"
    ],
    [
      "સામ્રા",
      "જ"
    ],
    [
      "પ",
      "ી</w>"
    ],
    [
      "પહો",
      "ંચ"
    ],
    [
      "ન",
      "ેશ"
    ],
    [
      "વ",
      "ર</w>"
    ],
    [
      "શ",
      "બ્"
    ],
    [
      "પશ્ચિ",
      "મ</w>"
    ],
    [
      "છ",
      "ો.</w>"
    ],
    [
      "સં",
      "સ્"
    ],
    [
      "ક્",
      "ક"
    ],
    [
      "જી",
      "ત"
    ],
    [
      "19",
      "6"
    ],
    [
      "એ",
      "ટ"
    ],
    [
      "જ્ઞ",
      "ા"
    ],
    [
      "યુ",
      "નિ"
    ],
    [
      "ધ",
      "્યા"
    ],
    [
      "વા",
      "થી</w>"
    ],
    [
      "ઝ",
      "િ"
    ],
    [
      "હ",
      "વે</w>"
    ],
    [
      "સ",
      "પ્"
    ],
    [
      "ં",
      "ચ</w>"
    ],
    [
      "મ",
      "ણ"
    ],
    [
      "સ્",
      "કો"
    ],
    [
      "ર",
      "ને</w>"
    ],
    [
      "ઓ",
      ",</w>"
    ],
    [
      "સં",
      "બંધ"
    ],
    [
      "પુ",
      "ન"
    ],
    [
      "સિ",
      "ં"
    ],
    [
      "સ",
      "ત્તા"
    ],
    [
      "ક",
      "બ"
    ],
    [
      "મ",
      ",</w>"
    ],
    [
      "પર",
      "ંપ"
    ],
    [
      "પરંપ",
      "રા"
    ],
    [
      "ેલ",
      "ે"
    ],
    [
      "લ",
      "ર</w>"
    ],
    [
      "પોતા",
      "ની</w>"
    ],
    [
      "પા",
      "ત્ર</w>"
    ],
    [
      "કર",
      "ો</w>"
    ],
    [
      "કર",
      "ણ</w>"
    ],
    [
      "ી",
      "ના</w>"
    ],
    [
      "અભ",
      "્યા"
    ],
    [
      "સ",
      "મુ"
    ],
    [
      "પ્રયા",
      "સ</w>"
    ],
    [
      "ટ",
      "ૂ"
    ],
    [
      "ઓ",
      "ક્"
    ],
    [
      "કો",
      "ઈ"
    ],
    [
      "ટ્ર",
      "ે"
    ],
    [
      "લોક",
      "પ્રિય</w>"
    ],
    [
      "ખ",
      "ુ"
    ],
    [
      "્યા",
      ".</w>"
    ],
    [
      "પ",
      "ક્ષ"
    ],
    [
      "જાહે",
      "ર</w>"
    ],
    [
      "તા",
      "ઓ</w>"
    ],
    [
      "ચ",
      "ંદ"
    ],
    [
      "સિ",
      "ક</w>"
    ],
    [
      "પ",
      "રા"
    ],
    [
      "ડ",
      "ુ"
    ],
    [
      ",0",
      "00</w>"
    ],
    [
      "શ",
      "ૈ"
    ],
    [
      "પ",
      "ક"
    ],
    [
      "કાઉ",
      "ન્"
    ],
    [
      "ાર",
      "ા</w>"
    ],
    [
      "૧",
      "૯"
    ],
    [
      "હ",
      "જ"
    ],
    [
      "ત",
      "્ય</w>"
    ],
    [
      "ય",
      "ો</w>"
    ],
    [
      "ર",
      "સ</w>"
    ],
    [
      "ન",
      "દી</w>"
    ],
    [
      "ત્ર",
      "િ"
    ],
    [
      "ન",
      "હો"
    ],
    [
      "ખેલા",
      "ડી"
    ],
    [
      "માન",
      "વામાં</w>"
    ],
    [
      "યુના",
      "ઇ"
    ],
    [
      "પ",
      "ત્"
    ],
    [
      "ટ",
      "માં</w>"
    ],
    [
      "બં",
      "ને</w>"
    ],
    [
      "ના",
      "ણા"
    ],
    [
      "એ",
      "શ"
    ],
    [
      "છ",
      "ો</w>"
    ],
    [
      "યુનાઇ",
      "ટેડ</w>"
    ],
    [
      "ય",
      "ેલા</w>"
    ],
    [
      "૦",
      "</w>"
    ],
    [
      "કેટલી",
      "ક</w>"
    ],
    [
      "ટ",
      "ન</w>"
    ],
    [
      "હિ",
      "ન્"
    ],
    [
      "ન્ટ",
      "ર"
    ],
    [
      "ત",
      "હે"
    ],
    [
      "ઓળ",
      "ખ"
    ],
    [
      "દી",
      "ધ"
    ],
    [
      "પા",
      "ડ"
    ],
    [
      "ના",
      "ની</w>"
    ],
    [
      "ચૂ",
      "ક"
    ],
    [
      "અ",
      "વ"
    ],
    [
      "ર્",
      "ડ</w>"
    ],
    [
      "ઝ",
      "ો"
    ],
    [
      "લ",
      "ની</w>"
    ],
    [
      "ટ",
      "ા</w>"
    ],
    [
      "મ",
      "હ"
    ],
    [
      "પરિ",
      "ણા"
    ],
    [
      "હુ",
      "મ"
    ],
    [
      "દ",
      "િલ્"
    ],
    [
      "લે",
      "ખ"
    ],
    [
      "શ",
      "ા</w>"
    ],
    [
      "ક્ર",
      "ે"
    ],
    [
      "રહ",
      "ે</w>"
    ],
    [
      "ભાષ",
      "ા"
    ],
    [
      "હિ",
      "ંદ"
    ],
    [
      "સંગી",
      "ત</w>"
    ],
    [
      "વય",
      "ે</w>"
    ],
    [
      "ઓળ",
      "ખા"
    ],
    [
      "0",
      "ના</w>"
    ],
    [
      "વા",
      "ન</w>"
    ],
    [
      "મોટાભાગ",
      "ના</w>"
    ],
    [
      "ધરાવ",
      "તા</w>"
    ],
    [
      "ષ્",
      "ણ"
    ],
    [
      "જ",
      "બ"
    ],
    [
      "ઘ",
      "ણી"
    ],
    [
      "મૂ",
      "ક"
    ],
    [
      "’",
      "</w>"
    ],
    [
      "પસં",
      "દ</w>"
    ],
    [
      "પોતા",
      "ના</w>"
    ],
    [
      "કર",
      "વાનું</w>"
    ],
    [
      "હો",
      "વાનું</w>"
    ],
    [
      "એ",
      "ન"
    ],
    [
      "ઉ",
      "દા"
    ],
    [
      "નિ",
      "ષ્"
    ],
    [
      "પડ",
      "ે</w>"
    ],
    [
      "મિ",
      "લ"
    ],
    [
      "ઘણી",
      "વાર</w>"
    ],
    [
      "ધ",
      "ી"
    ],
    [
      "કર",
      "ો.</w>"
    ],
    [
      "ાર",
      "િત</w>"
    ],
    [
      "ચ્",
      "છ"
    ],
    [
      "જ",
      "ગ"
    ],
    [
      "ય",
      "ક</w>"
    ],
    [
      "બ",
      "ળ"
    ],
    [
      "સમ",
      "ર્"
    ],
    [
      "ફ",
      "્રે"
    ],
    [
      "શ્રે",
      "ષ્ઠ</w>"
    ],
    [
      "આ",
      "સપા"
    ],
    [
      "ત્ર",
      "ી</w>"
    ],
    [
      "ન",
      "ૃ"
    ],
    [
      "મ",
      "ર"
    ],
    [
      "આવ",
      "ેલી</w>"
    ],
    [
      "બા",
      "દ"
    ],
    [
      "ઘ",
      "ટા"
    ],
    [
      "ફૂ",
      "ટ"
    ],
    [
      "ભ",
      "</w>"
    ],
    [
      "અધિ",
      "કાર"
    ],
    [
      "વ",
      "્યા</w>"
    ],
    [
      "કહે",
      "વામાં</w>"
    ],
    [
      "ટિ",
      "શ</w>"
    ],
    [
      "ગય",
      "ો</w>"
    ],
    [
      "નિર્",
      "મા"
    ],
    [
      "યુનિ",
      "વર્"
    ],
    [
      "ભ",
      "ે"
    ],
    [
      ";",
      "</w>"
    ],
    [
      "રહ",
      "્યો</w>"
    ],
    [
      "ત",
      "ના</w>"
    ],
    [
      "સૂ",
      "ચ"
    ],
    [
      "શ",
      "ું</w>"
    ],
    [
      "લોકો",
      "ને</w>"
    ],
    [
      "ચો",
      "ક્ક"
    ],
    [
      "થ",
      "ા</w>"
    ],
    [
      "હેઠ",
      "ળ</w>"
    ],
    [
      "ો",
      "ના</w>"
    ],
    [
      "દેશ",
      "</w>"
    ],
    [
      "વ્યક્",
      "તિ</w>"
    ],
    [
      "સમય",
      "ગા"
    ],
    [
      "હ",
      "્"
    ],
    [
      "આ",
      "ં"
    ],
    [
      "ન",
      "વા</w>"
    ],
    [
      "આવ",
      "ેલા</w>"
    ],
    [
      "સી",
      "."
    ],
    [
      "જ",
      "ૈ"
    ],
    [
      "ી",
      "ની</w>"
    ],
    [
      "ફે",
      "ર"
    ],
    [
      "સે",
      "વા</w>"
    ],
    [
      "આગ",
      "ળ</w>"
    ],
    [
      "ફ",
      "રી"
    ],
    [
      "જ",
      "ર્"
    ],
    [
      "ત",
      "ૈ"
    ],
    [
      "લગ્",
      "ન</w>"
    ],
    [
      "અનુ",
      "ભ"
    ],
    [
      "ગ",
      "િ"
    ],
    [
      "ત",
      "ની</w>"
    ],
    [
      "મા",
      "ંગ"
    ],
    [
      "ળ",
      "ના</w>"
    ],
    [
      "વા",
      "દ"
    ],
    [
      "થ",
      "્"
    ],
    [
      "થ",
      "ોડ"
    ],
    [
      "લ",
      ",</w>"
    ],
    [
      "ક્",
      "લ"
    ],
    [
      "સામ",
      "ેલ</w>"
    ],
    [
      "ન",
      "નું</w>"
    ],
    [
      "કુ",
      "લ</w>"
    ],
    [
      "નજી",
      "ક</w>"
    ],
    [
      "ંદ",
      "ર</w>"
    ],
    [
      "પ",
      "ૈ"
    ],
    [
      "વિ",
      "ચાર"
    ],
    [
      "ટ્ર",
      "ો"
    ],
    [
      "ન્ય",
      "ૂ"
    ],
    [
      "ઉદા",
      "હર"
    ],
    [
      "પા",
      "લિ"
    ],
    [
      "પ",
      "રી"
    ],
    [
      "ર્",
      "ડ"
    ],
    [
      "સમય",
      "ે</w>"
    ],
    [
      "વિ",
      "ત</w>"
    ],
    [
      "યુનિવર્",
      "સિ"
    ],
    [
      "વા",
      "ય</w>"
    ],
    [
      "કર",
      "વાનો</w>"
    ],
    [
      "ત્ર",
      "ા"
    ],
    [
      "બ્રિ",
      "ટિશ</w>"
    ],
    [
      "શિ",
      "ક્ષ"
    ],
    [
      "સ્થાપ",
      "ના</w>"
    ],
    [
      "ન્",
      "સ"
    ],
    [
      "દે",
      "ખા"
    ],
    [
      "આ",
      "ઇ"
    ],
    [
      "19",
      "5"
    ],
    [
      "અર્",
      "થ</w>"
    ],
    [
      "મા",
      "ઈ"
    ],
    [
      "પ",
      "ં"
    ],
    [
      "પ્ર",
      "કા"
    ],
    [
      "્ય",
      "ું.</w>"
    ],
    [
      "પો",
      "લી"
    ],
    [
      "રિ",
      "ક</w>"
    ],
    [
      "લ",
      "્યુ"
    ],
    [
      "ન",
      "ાર</w>"
    ],
    [
      "આ",
      "યોજ"
    ],
    [
      "મ",
      "્યુ"
    ],
    [
      "સં",
      "ખ્યા"
    ],
    [
      "સ્",
      "ત</w>"
    ],
    [
      "કૃ",
      "તિ"
    ],
    [
      "પ",
      "ગ"
    ],
    [
      "ટ્ર",
      "ા"
    ],
    [
      "20",
      "</w>"
    ],
    [
      "1",
      "7"
    ],
    [
      "મી",
      "ટર</w>"
    ],
    [
      "ન",
      "ર</w>"
    ],
    [
      "ભ",
      "ો"
    ],
    [
      "લિ",
      "ક</w>"
    ],
    [
      "મ",
      "નું</w>"
    ],
    [
      "ઝ",
      "ન</w>"
    ],
    [
      "્ય",
      "ો.</w>"
    ],
    [
      "જા",
      "ન્યુ"
    ],
    [
      "જાન્યુ",
      "આ"
    ],
    [
      "બ",
      "ંગા"
    ],
    [
      "યુ",
      "રો"
    ],
    [
      "ગો",
      "લ</w>"
    ],
    [
      "બ્ર",
      "ુ"
    ],
    [
      "ન",
      "ક્"
    ],
    [
      "ઓ",
      "લિ"
    ],
    [
      "કા",
      "ના</w>"
    ],
    [
      "ગ્ર",
      "</w>"
    ],
    [
      "અંગ",
      "્રે"
    ],
    [
      "એ",
      "ર"
    ],
    [
      "ઓ",
      "નું</w>"
    ],
    [
      "ઉત્",
      "તર"
    ],
    [
      "ટિ",
      "ંગ</w>"
    ],
    [
      "ભ",
      "ર"
    ],
    [
      "તમા",
      "રે</w>"
    ],
    [
      "ચે",
      "મ્પ"
    ],
    [
      "પૂ",
      "ર"
    ],
    [
      "આંતર",
      "રાષ્ટ્રીય</w>"
    ],
    [
      "ટી",
      "મ</w>"
    ],
    [
      "સા",
      "ય"
    ],
    [
      "મધ",
      "્ય"
    ],
    [
      "અ",
      "ંત"
    ],
    [
      "પુ",
      "રુ"
    ],
    [
      "ને",
      "ટ"
    ],
    [
      "ગ્ર",
      "ે"
    ],
    [
      "કર્ય",
      "ું.</w>"
    ],
    [
      "પુ",
      "રા"
    ],
    [
      "રા",
      "ત</w>"
    ],
    [
      "જ",
      "મી"
    ],
    [
      "વખ",
      "ત</w>"
    ],
    [
      "આ",
      "ખ"
    ],
    [
      "સા",
      "ધ"
    ],
    [
      "અ",
      "પ"
    ],
    [
      "1",
      "0"
    ],
    [
      "પરિ",
      "વાર"
    ],
    [
      "લ્",
      "ડ</w>"
    ],
    [
      "ચોક્ક",
      "સ</w>"
    ],
    [
      "ણી",
      "માં</w>"
    ],
    [
      "ધ",
      "્ય"
    ],
    [
      "ગા",
      "ઉ"
    ],
    [
      "છે",
      "લ્"
    ],
    [
      "ક",
      "ને</w>"
    ],
    [
      "નગ",
      "ર"
    ],
    [
      "મિ",
      "નિ"
    ],
    [
      "કહ",
      "્યું</w>"
    ],
    [
      "ચંદ",
      "્ર"
    ],
    [
      "ક",
      ",</w>"
    ],
    [
      "સાથ",
      "ે"
    ],
    [
      "પ",
      "ણે</w>"
    ],
    [
      "વિ",
      "દ"
    ],
    [
      "થ",
      "ી,</w>"
    ],
    [
      "વં",
      "શ"
    ],
    [
      "રચ",
      "ના</w>"
    ],
    [
      "રાજ",
      "ા</w>"
    ],
    [
      "વૃ",
      "ત્"
    ],
    [
      "યુ",
      "દ્ધ"
    ],
    [
      "ભાર",
      "ત</w>"
    ],
    [
      "સમ",
      "સ"
    ],
    [
      "ઓછ",
      "ી</w>"
    ],
    [
      "મ",
      "રા"
    ],
    [
      "વર્",
      "ણ"
    ],
    [
      "વિ",
      "કા"
    ],
    [
      "સ્થ",
      "િત</w>"
    ],
    [
      "સ્થા",
      "ન</w>"
    ],
    [
      "જો",
      "ખ"
    ],
    [
      "સ્પર્",
      "ધા"
    ],
    [
      "તૈ",
      "ય"
    ],
    [
      "શા",
      "સ્ત્ર"
    ],
    [
      "કો",
      "ને</w>"
    ],
    [
      "અ",
      "ગાઉ"
    ],
    [
      "ઉ",
      "ચ્"
    ],
    [
      "સા",
      "ઇ"
    ],
    [
      "કંપ",
      "ની</w>"
    ],
    [
      "શ",
      "ં"
    ],
    [
      "અમેરિ",
      "કન</w>"
    ],
    [
      "ટ",
      "કા"
    ],
    [
      "રાજ્ય",
      "માં</w>"
    ],
    [
      "19",
      "4"
    ],
    [
      "પ્",
      "લે"
    ],
    [
      "ગ",
      "ી</w>"
    ],
    [
      "7",
      "માં</w>"
    ],
    [
      "પહ",
      "ેલા</w>"
    ],
    [
      "સમ",
      "ગ્ર</w>"
    ],
    [
      "વસા",
      "ય"
    ],
    [
      "તે",
      "મ</w>"
    ],
    [
      "ફ",
      "રી</w>"
    ],
    [
      "20",
      "2"
    ],
    [
      "એ",
      "મ"
    ],
    [
      "ઝ",
      "ે"
    ],
    [
      "ભૂમિ",
      "કા</w>"
    ],
    [
      "પા",
      "ંચ</w>"
    ],
    [
      "1",
      "0</w>"
    ],
    [
      "બ",
      "ર"
    ],
    [
      "મ",
      "નો</w>"
    ],
    [
      "જ",
      "ર</w>"
    ],
    [
      "મં",
      "જૂ"
    ],
    [
      "સ્",
      "વા"
    ],
    [
      "મહત્",
      "વ"
    ],
    [
      "ય",
      "ેલી</w>"
    ],
    [
      "ટી",
      "માં</w>"
    ],
    [
      "બી",
      "જી</w>"
    ],
    [
      "મૂ",
      "ળ</w>"
    ],
    [
      "2",
      "માં</w>"
    ],
    [
      "મધ",
      "્ય</w>"
    ],
    [
      "ચી",
      "ન</w>"
    ],
    [
      "ટ",
      "કા</w>"
    ],
    [
      "તેમ",
      "નું</w>"
    ],
    [
      "ષ્",
      "ટિ"
    ],
    [
      "ન",
      "વે"
    ],
    [
      "સ્ટ્ર",
      "ેલ"
    ],
    [
      "ર",
      "િય"
    ],
    [
      "નક્",
      "કી</w>"
    ],
    [
      "બના",
      "વે</w>"
    ],
    [
      "ક",
      "ળા"
    ],
    [
      "1",
      "માં</w>"
    ],
    [
      "કાર્ય",
      "ક્ર"
    ],
    [
      "ણ",
      "ની</w>"
    ],
    [
      "સાર",
      "વાર</w>"
    ],
    [
      "આધ",
      "ારિત</w>"
    ],
    [
      "પ",
      "ડી</w>"
    ],
    [
      "ક",
      "ં"
    ],
    [
      "શા",
      "સ"
    ],
    [
      "જોઈ",
      "એ.</w>"
    ],
    [
      "શા",
      "ળા"
    ],
    [
      "સ",
      "લા"
    ],
    [
      "સ",
      "નો</w>"
    ],
    [
      "કા",
      "ં"
    ],
    [
      "ન",
      "-"
    ],
    [
      "લે",
      "ખ</w>"
    ],
    [
      "તે",
      "થી</w>"
    ],
    [
      "અભિ",
      "ને"
    ],
    [
      "કાર",
      "ી</w>"
    ],
    [
      "મુ",
      "લા"
    ],
    [
      "આ",
      "ન"
    ],
    [
      "હ",
      "વા"
    ],
    [
      "મા",
      "હિ"
    ],
    [
      "સ",
      "ી.</w>"
    ],
    [
      "ન્ડ",
      "ો"
    ],
    [
      "વિ",
      "ષ"
    ],
    [
      "એ",
      "વી</w>"
    ],
    [
      "પ",
      "દ"
    ],
    [
      "દે",
      "વ"
    ],
    [
      "ત",
      "પા"
    ],
    [
      "પર",
      "થી</w>"
    ],
    [
      "પ્રદેશ",
      "</w>"
    ],
    [
      "નગર",
      "પાલિ"
    ],
    [
      "સં",
      "ચાલ"
    ],
    [
      "!",
      "</w>"
    ],
    [
      "લ",
      "ય"
    ],
    [
      "ઉ",
      "લ્"
    ],
    [
      "લ",
      "િય"
    ],
    [
      "પા",
      "મ"
    ],
    [
      "એ",
      "વા</w>"
    ],
    [
      "ના",
      "ગ"
    ],
    [
      "સામ્રાજ",
      "્ય"
    ],
    [
      "શા",
      "સન</w>"
    ],
    [
      "રી",
      ",</w>"
    ],
    [
      "એ",
      "વું</w>"
    ],
    [
      "ગ્ર",
      "ી"
    ],
    [
      "1",
      "6"
    ],
    [
      "સા",
      "ં"
    ],
    [
      "કા",
      "ઢ"
    ],
    [
      "વિશ્",
      "વ</w>"
    ],
    [
      "ચ",
      "લા"
    ],
    [
      "ફરી",
      "થી</w>"
    ],
    [
      "મેળ",
      "વ"
    ],
    [
      "મુલા",
      "કા"
    ],
    [
      "”",
      "</w>"
    ],
    [
      "ત્ર",
      "ો</w>"
    ],
    [
      ".એસ",
      "."
    ],
    [
      "ત",
      "ન</w>"
    ],
    [
      "ત",
      "ૃ"
    ],
    [
      "વિ",
      "રો"
    ],
    [
      "કર",
      "ી"
    ],
    [
      "નોંધ",
      "પાત્ર</w>"
    ],
    [
      "ચ",
      "ર્"
    ],
    [
      "જ",
      ",</w>"
    ],
    [
      "મુખ",
      "્ય"
    ],
    [
      "વા",
      "હ"
    ],
    [
      "લે",
      "ન્ડ</w>"
    ],
    [
      "કર",
      "તી</w>"
    ],
    [
      "રાજ્ય",
      "ના</w>"
    ],
    [
      "તે",
      ",</w>"
    ],
    [
      "ઇ",
      "ન્"
    ],
    [
      "ળ",
      "ની</w>"
    ],
    [
      "મ્પ",
      "્યુ"
    ],
    [
      "કૃ",
      "ત</w>"
    ],
    [
      "લ",
      "ં"
    ],
    [
      "પ",
      "સાર</w>"
    ],
    [
      "1",
      "5"
    ],
    [
      "ચૂ",
      "ંટ"
    ],
    [
      "વે",
      "પ"
    ],
    [
      "વર્ષ",
      "ે</w>"
    ],
    [
      "ના",
      "માં</w>"
    ],
    [
      "ટિ",
      "ક</w>"
    ],
    [
      "ધિ",
      "</w>"
    ],
    [
      "જૂ",
      "થ"
    ],
    [
      "યુ",
      "દ્ધ</w>"
    ],
    [
      "વિ",
      "ક</w>"
    ],
    [
      "તરી",
      "કે,</w>"
    ],
    [
      "ે",
      "ક</w>"
    ],
    [
      "ો",
      "એ</w>"
    ],
    [
      "િયા",
      "ની</w>"
    ],
    [
      "પ્ર",
      "માણ"
    ],
    [
      "સાર",
      "ી</w>"
    ],
    [
      "જે",
      "ઓ</w>"
    ],
    [
      "સ્થ",
      "ા</w>"
    ],
    [
      "શ",
      "ક્"
    ],
    [
      "ડિ",
      "સે"
    ],
    [
      "કો",
      "લે"
    ],
    [
      "ઊ",
      "ંચ"
    ],
    [
      "ન",
      "વી</w>"
    ],
    [
      "તા",
      "ં,</w>"
    ],
    [
      "નેશ",
      "નલ</w>"
    ],
    [
      "કહ",
      "ે</w>"
    ],
    [
      "ગ્રા",
      "હ"
    ],
    [
      "ખરી",
      "દ"
    ],
    [
      "મંજૂ",
      "રી</w>"
    ],
    [
      "સા",
      "હ"
    ],
    [
      "રૂ",
      "પ</w>"
    ],
    [
      "લ",
      "ઈ</w>"
    ],
    [
      "સા",
      "ન</w>"
    ],
    [
      "ભ",
      "જ"
    ],
    [
      "એ",
      "પ્રિ"
    ],
    [
      "કે",
      "ર"
    ],
    [
      "વા",
      "ત</w>"
    ],
    [
      "ં",
      "દ</w>"
    ],
    [
      "સં",
      "ભા"
    ],
    [
      "ફ",
      "્રા"
    ],
    [
      "સ્",
      "સા"
    ],
    [
      "સપ્",
      "ટે"
    ],
    [
      "સ્થિ",
      "તિ"
    ],
    [
      "સ્ટ",
      "િ"
    ],
    [
      "પ",
      "તિ</w>"
    ],
    [
      "સાર",
      ",</w>"
    ],
    [
      "રો",
      "કા"
    ],
    [
      "ઓ",
      "ગ"
    ],
    [
      "અ",
      "સર</w>"
    ],
    [
      "તે",
      "ણી"
    ],
    [
      "ટ",
      "ો</w>"
    ],
    [
      "ઓળખ",
      "વામાં</w>"
    ],
    [
      "સભ",
      "્ય</w>"
    ],
    [
      "6",
      "માં</w>"
    ],
    [
      "ઈ",
      "ને</w>"
    ],
    [
      "લ્",
      "પ"
    ],
    [
      "સ",
      "ત"
    ],
    [
      "સં",
      "પૂર્ણ</w>"
    ],
    [
      "બા",
      "ંધ"
    ],
    [
      "પરંપરા",
      "ગત</w>"
    ],
    [
      "ઉદાહર",
      "ણ</w>"
    ],
    [
      "વ્ય",
      "વ"
    ],
    [
      "ઉ",
      "મે"
    ],
    [
      "?",
      "</w>"
    ],
    [
      "યુના",
      "ઈ"
    ],
    [
      "તા",
      "ને</w>"
    ],
    [
      "ઉ",
      "દ્"
    ],
    [
      "હિંદ",
      "ુ</w>"
    ],
    [
      "ઓ",
      "સ્ટ્રેલ"
    ],
    [
      "ઈ",
      ".</w>"
    ],
    [
      "મે",
      "ં</w>"
    ],
    [
      "ચેમ્પ",
      "િય"
    ],
    [
      "સ્",
      "લિ"
    ],
    [
      "કર",
      "ી.</w>"
    ],
    [
      "પ્ર",
      "ાર"
    ],
    [
      "ચ",
      "ા</w>"
    ],
    [
      "નિર્",
      "દેશ"
    ],
    [
      "પ્રાર",
      "ંભ"
    ],
    [
      "ક",
      "્યાર"
    ],
    [
      "મ",
      "ત</w>"
    ],
    [
      "ત",
      "ને</w>"
    ],
    [
      "પુર",
      "સ્"
    ],
    [
      "સ્થાપ",
      "િત</w>"
    ],
    [
      "મુ",
      "ઘ"
    ],
    [
      "જ",
      "ંગ"
    ],
    [
      "હ",
      "રા"
    ],
    [
      "અભ્યા",
      "સ</w>"
    ],
    [
      "દુ",
      "કા"
    ],
    [
      "લાંબ",
      "ા</w>"
    ],
    [
      "ડિય",
      "ો</w>"
    ],
    [
      "યુનાઈ",
      "ટેડ</w>"
    ],
    [
      "સ",
      "હા"
    ],
    [
      "નિર્મા",
      "ણ</w>"
    ],
    [
      "ક",
      "મા"
    ],
    [
      "મ્",
      "સ</w>"
    ],
    [
      "પા",
      "ણી"
    ],
    [
      "મ",
      "થ"
    ],
    [
      "ત",
      ",</w>"
    ],
    [
      "શ્",
      "ચ"
    ],
    [
      "અનુ",
      "સાર,</w>"
    ],
    [
      "બા",
      "જુ"
    ],
    [
      "સહ",
      "િત</w>"
    ],
    [
      "દરમિયા",
      "ન,</w>"
    ],
    [
      "શરૂઆ",
      "તમાં</w>"
    ],
    [
      "જા",
      "પા"
    ],
    [
      "હોય",
      ",</w>"
    ],
    [
      "કોઈ",
      "પણ</w>"
    ],
    [
      "ના",
      "ખ"
    ],
    [
      "સફ",
      "ળ</w>"
    ],
    [
      "ગ",
      "ો</w>"
    ],
    [
      "હજ",
      "ુ</w>"
    ],
    [
      "તેમ",
      "નો</w>"
    ],
    [
      "8",
      "માં</w>"
    ],
    [
      "ટ",
      "ની</w>"
    ],
    [
      "ડ",
      "િયા</w>"
    ],
    [
      "લાગ",
      "ે</w>"
    ],
    [
      "ક્ષ",
      "</w>"
    ],
    [
      "જૈ",
      "ન</w>"
    ],
    [
      "ત્યાર",
      "બાદ</w>"
    ],
    [
      "નુ",
      "ક"
    ],
    [
      "છ",
      "ું.</w>"
    ],
    [
      "ઝડ",
      "પ"
    ],
    [
      "સ્ટ",
      "ા"
    ],
    [
      "૨૦",
      "૧"
    ],
    [
      "નહી",
      "ં.</w>"
    ],
    [
      "ન",
      "ારા"
    ],
    [
      "મ",
      "ણ</w>"
    ],
    [
      "5",
      "માં</w>"
    ],
    [
      "વ",
      "્"
    ],
    [
      "વિ",
      "જ"
    ],
    [
      "4",
      "માં</w>"
    ],
    [
      "રાખ",
      "વામાં</w>"
    ],
    [
      "કે",
      "ને"
    ],
    [
      "ફે",
      "લા"
    ],
    [
      "વચ્",
      "ચે"
    ],
    [
      "મૃ",
      "ત"
    ],
    [
      "કાર",
      "ો</w>"
    ],
    [
      "હો",
      "વા</w>"
    ],
    [
      "મંદિ",
      "ર</w>"
    ],
    [
      "ફ",
      "ી</w>"
    ],
    [
      "ઓછ",
      "ા</w>"
    ],
    [
      "વાર",
      "ે</w>"
    ],
    [
      "ગ",
      "ર્"
    ],
    [
      "ધ",
      "ર"
    ],
    [
      "પુરુ",
      "ષ"
    ],
    [
      "મહિ",
      "લા"
    ],
    [
      "નહી",
      "ં</w>"
    ],
    [
      "વસ્તુ",
      "ઓ</w>"
    ],
    [
      "આપ",
      "્યો</w>"
    ],
    [
      "ર",
      "નો</w>"
    ],
    [
      "બા",
      "બ"
    ],
    [
      "ધ",
      "ી</w>"
    ],
    [
      "વ",
      "હે"
    ],
    [
      "વિ",
      "શે"
    ],
    [
      "કે",
      ".</w>"
    ],
    [
      "ક",
      "ન્"
    ],
    [
      "ક",
      "િલ્"
    ],
    [
      "ટ",
      "ના</w>"
    ],
    [
      "ભા",
      "ગો"
    ],
    [
      "0",
      "માં</w>"
    ],
    [
      "ઠ",
      "વા"
    ],
    [
      "વે",
      "ચા"
    ],
    [
      "પ્રતિ",
      "નિ"
    ],
    [
      "આ",
      "લ્"
    ],
    [
      "જે",
      "મ"
    ],
    [
      "ઓક્",
      "ટો"
    ],
    [
      "ગ",
      "ઈ</w>"
    ],
    [
      "રા",
      "શ</w>"
    ],
    [
      "મો",
      "માં</w>"
    ],
    [
      "પ્રારંભ",
      "િક</w>"
    ],
    [
      "ત",
      "ંત્ર"
    ],
    [
      "કિ",
      "ંમ"
    ],
    [
      "3",
      "માં</w>"
    ],
    [
      "લે",
      "ક્"
    ],
    [
      "પ્રા",
      "ચીન</w>"
    ],
    [
      "એ",
      "લ"
    ],
    [
      "ના",
      "ઓ</w>"
    ],
    [
      "લ",
      "ું</w>"
    ],
    [
      "શ્",
      "ક"
    ],
    [
      "શ્ર",
      "ી"
    ],
    [
      "દા",
      "ખ"
    ],
    [
      "વ",
      "પરા"
    ],
    [
      "ળ",
      "માં</w>"
    ],
    [
      "વ",
      "ન</w>"
    ],
    [
      "દિવ",
      "સે</w>"
    ],
    [
      "કર",
      "ો"
    ],
    [
      "પ્રદેશ",
      "માં</w>"
    ],
    [
      "જે",
      "નો</w>"
    ],
    [
      "ર",
      "િયા"
    ],
    [
      "વા",
      "સ</w>"
    ],
    [
      "સં",
      "ઘ"
    ],
    [
      "ધ્યા",
      "ન</w>"
    ],
    [
      "મા",
      "ઇ"
    ],
    [
      "અ",
      "ઠવા"
    ],
    [
      "મુ",
      "સ્લિ"
    ],
    [
      "ખ",
      "ર</w>"
    ],
    [
      "પર્",
      "વ"
    ],
    [
      "સ્",
      "ના"
    ],
    [
      "બ",
      "ને</w>"
    ],
    [
      "ણ",
      "ો"
    ],
    [
      "ે",
      "ય</w>"
    ],
    [
      "યોગ",
      "્ય</w>"
    ],
    [
      "રહ",
      "્યું</w>"
    ],
    [
      "મ",
      "િત</w>"
    ],
    [
      "પ્રા",
      "ણી"
    ],
    [
      "પુ",
      "ત્ર</w>"
    ],
    [
      "મુ",
      "શ્ક"
    ],
    [
      "રા",
      "જા"
    ],
    [
      "અ",
      "હે"
    ],
    [
      "અ",
      "ર"
    ],
    [
      "નગ",
      "ર</w>"
    ],
    [
      "બી",
      "."
    ],
    [
      "લ્",
      "સ</w>"
    ],
    [
      "મે",
      "ન્ટ</w>"
    ],
    [
      "ફે",
      "બ્રુ"
    ],
    [
      "ફેબ્રુ",
      "આ"
    ],
    [
      "વર",
      "સા"
    ],
    [
      "નથ",
      "ી,</w>"
    ],
    [
      "ું",
      "બ"
    ],
    [
      "થ",
      "તો</w>"
    ],
    [
      "યુરો",
      "પ"
    ],
    [
      "એ",
      "ફ"
    ],
    [
      "પ્ર",
      "જા"
    ],
    [
      "ક્ર",
      "િયા</w>"
    ],
    [
      "બ",
      "ચા"
    ],
    [
      "વે",
      "ચ"
    ],
    [
      "ણ",
      "ને</w>"
    ],
    [
      "ફા",
      "ઇ"
    ],
    [
      "ઠ",
      "ા</w>"
    ],
    [
      "અ",
      "લ્"
    ],
    [
      "ચેમ્પિય",
      "ન"
    ],
    [
      "ચાલ",
      "ુ</w>"
    ],
    [
      "જા",
      "ણ"
    ],
    [
      "કર્ય",
      "ો.</w>"
    ],
    [
      "બ",
      "ચ"
    ],
    [
      "દ",
      "ાર"
    ],
    [
      "વખ",
      "તે</w>"
    ],
    [
      "છ",
      "ો,</w>"
    ],
    [
      "ઈ",
      "ન્"
    ],
    [
      "9",
      "માં</w>"
    ],
    [
      "પ્રકા",
      "શ"
    ],
    [
      "મુખ્ય",
      "ત્"
    ],
    [
      "પં",
      "જા"
    ],
    [
      "છ",
      "ોડ"
    ],
    [
      "થય",
      "ા"
    ],
    [
      "કુ",
      "મા"
    ],
    [
      "રાજ",
      "ધા"
    ],
    [
      "પરી",
      "ક્ષ"
    ],
    [
      "ક",
      "્યુ"
    ],
    [
      "ક્ષે",
      "ત્ર"
    ],
    [
      "જે",
      "થી</w>"
    ],
    [
      "માર્",
      "ગ</w>"
    ],
    [
      "ન",
      "વ"
    ],
    [
      "પૈ",
      "સા</w>"
    ],
    [
      "સિ",
      "સ્ટ"
    ],
    [
      "તૈય",
      "ાર</w>"
    ],
    [
      "અ",
      "ંદર</w>"
    ],
    [
      "સ",
      "રે"
    ],
    [
      "મ્બ",
      "ર,</w>"
    ],
    [
      "રો",
      "માં</w>"
    ],
    [
      "ડ",
      "વામાં</w>"
    ],
    [
      "મુખ્યત્",
      "વે</w>"
    ],
    [
      "ખ",
      "ી"
    ],
    [
      "ટા",
      "ઈ"
    ],
    [
      "હા",
      "થ"
    ],
    [
      "પ",
      "ૃ"
    ],
    [
      "જરૂ",
      "રી</w>"
    ],
    [
      "સ્થ",
      "ળ"
    ],
    [
      "ગ",
      "ઢ"
    ],
    [
      "ટ",
      "લ</w>"
    ],
    [
      "કે",
      "ટ</w>"
    ],
    [
      "ન",
      "્યા"
    ],
    [
      "આસપા",
      "સ</w>"
    ],
    [
      "સ્",
      "પે"
    ],
    [
      "ખ",
      "્"
    ],
    [
      "મહત્વ",
      "પૂર્ણ</w>"
    ],
    [
      "સો",
      "ફ્"
    ],
    [
      "સુધી",
      "માં</w>"
    ],
    [
      "છ",
      "</w>"
    ],
    [
      "સ્થ",
      "ળ</w>"
    ],
    [
      "આયોજ",
      "ન</w>"
    ],
    [
      "કિ",
      "સ્તા"
    ],
    [
      "સા",
      "ઈ"
    ],
    [
      "બ",
      "ાર"
    ],
    [
      "વધ",
      "ારે</w>"
    ],
    [
      "ી",
      "ર</w>"
    ],
    [
      "ખ",
      "રા"
    ],
    [
      "પુ",
      "ર</w>"
    ],
    [
      "ભૂ",
      "ત"
    ],
    [
      "સમા",
      "ન</w>"
    ],
    [
      "ટ",
      "ેલિ"
    ],
    [
      "એ",
      "ક્"
    ],
    [
      "ઉપ",
      "રા"
    ],
    [
      "ર",
      "થી</w>"
    ],
    [
      "આવ",
      "તી</w>"
    ],
    [
      "ક્ર",
      "ા"
    ],
    [
      "માં",
      "ના</w>"
    ],
    [
      "પા",
      "સે"
    ],
    [
      "ખરી",
      "દી</w>"
    ],
    [
      "ર",
      "લ</w>"
    ],
    [
      "પૂર્",
      "ણ"
    ],
    [
      "મૂ",
      "લ"
    ],
    [
      "્ય",
      "તા</w>"
    ],
    [
      "ચ",
      "ુ"
    ],
    [
      "પુ",
      "સ્ત"
    ],
    [
      "સમસ",
      "્યા"
    ],
    [
      "ય",
      "ર</w>"
    ],
    [
      "ચેમ્પિયન",
      "શિ"
    ],
    [
      "પ્રદર્",
      "શન</w>"
    ],
    [
      "રે",
      "કોર્"
    ],
    [
      "ન",
      "ારા</w>"
    ],
    [
      "જે",
      "ના</w>"
    ],
    [
      "મ",
      "નો"
    ],
    [
      "વિસ્તાર",
      "માં</w>"
    ],
    [
      "ગ",
      "યા"
    ],
    [
      "ટ",
      "ે</w>"
    ],
    [
      "સિ",
      "ક્"
    ],
    [
      "શ",
      "રી"
    ],
    [
      "છ",
      "ા"
    ],
    [
      "આવ",
      "ેલો</w>"
    ],
    [
      "શૈ",
      "લી"
    ],
    [
      "સુ",
      "રક્ષ"
    ],
    [
      "થોડ",
      "ા</w>"
    ],
    [
      "મહત્",
      "ત્વ"
    ],
    [
      "લ",
      "ૂ"
    ],
    [
      "ણ",
      "ના</w>"
    ],
    [
      "પ્ર",
      "ભા"
    ],
    [
      "ડ",
      "્ર"
    ],
    [
      "ત",
      "ળા"
    ],
    [
      "ના",
      "ટ"
    ],
    [
      "20",
      "19"
    ],
    [
      "ખ",
      "રે"
    ],
    [
      "ટ",
      "ર્"
    ],
    [
      "ત",
      "ં"
    ],
    [
      "પહે",
      "લા"
    ],
    [
      "અભિ",
      "ન"
    ],
    [
      "માટે",
      ",</w>"
    ],
    [
      "કા",
      "ની</w>"
    ],
    [
      "ં",
      "ડ</w>"
    ],
    [
      "બદ",
      "લે</w>"
    ],
    [
      "વ",
      "્યો</w>"
    ],
    [
      "ગ",
      "ર</w>"
    ],
    [
      "લ",
      "ડા"
    ],
    [
      "બ",
      "ૌ"
    ],
    [
      "સંગ",
      "્ર"
    ],
    [
      "સ્થિ",
      "તિ</w>"
    ],
    [
      "ફ",
      "્રિ"
    ],
    [
      "જા",
      "ળ"
    ],
    [
      "જિલ્લા",
      "માં</w>"
    ],
    [
      "માહિ",
      "તી</w>"
    ],
    [
      "ગણ",
      "તરી</w>"
    ],
    [
      "વા",
      "ને</w>"
    ],
    [
      "સ્",
      "પિ"
    ],
    [
      "ગ",
      "ંભ"
    ],
    [
      "પાસે",
      "થી</w>"
    ],
    [
      "ઉદ",
      "્યો"
    ],
    [
      "જાણી",
      "તા</w>"
    ],
    [
      "મહ",
      "ારા"
    ],
    [
      "અહે",
      "વા"
    ],
    [
      "વા",
      "ઓ</w>"
    ],
    [
      "ફૂટ",
      "બોલ</w>"
    ],
    [
      "જેમ",
      "ણે</w>"
    ],
    [
      "ભાગ",
      "માં</w>"
    ],
    [
      "ભૂ",
      "ત</w>"
    ],
    [
      "સંબંધ",
      "િત</w>"
    ],
    [
      "ર",
      "નું</w>"
    ],
    [
      "પ્રા",
      "ંત"
    ],
    [
      "વિ",
      "ધા"
    ],
    [
      "ની",
      "ચે</w>"
    ],
    [
      ".એસ",
      ".</w>"
    ],
    [
      "ફ",
      "ી"
    ],
    [
      "તે",
      "ઓએ</w>"
    ],
    [
      "વધ",
      "ારા"
    ],
    [
      "મેળ",
      "વી</w>"
    ],
    [
      "મા",
      "ને</w>"
    ],
    [
      "લ",
      "બ્"
    ],
    [
      "ખર્",
      "ચ</w>"
    ],
    [
      "સ્ટ્ર",
      "ો"
    ],
    [
      "સં",
      "સ્થા"
    ],
    [
      "ઉચ્",
      "ચ</w>"
    ],
    [
      "રો",
      "ક"
    ],
    [
      "મુલાકા",
      "ત</w>"
    ],
    [
      "લ",
      "ને</w>"
    ],
    [
      "કરો",
      "ડ</w>"
    ],
    [
      "આધ",
      "ુ"
    ],
    [
      "વિ",
      "શા"
    ],
    [
      "સં",
      "પર્"
    ],
    [
      "આપ",
      "વા</w>"
    ],
    [
      "સં",
      "કળા"
    ],
    [
      "બદ",
      "લા"
    ],
    [
      "મોટ",
      "ો</w>"
    ],
    [
      "સં",
      "ભ"
    ],
    [
      "ઝ",
      "ી"
    ],
    [
      "ફ્રે",
      "ન્"
    ],
    [
      "દુ",
      "ર્"
    ],
    [
      "મર",
      "્યા"
    ],
    [
      "કે",
      "વી</w>"
    ],
    [
      "વ્યા",
      "પ"
    ],
    [
      "ળ",
      "તા"
    ],
    [
      "ની",
      "ક"
    ],
    [
      "જે",
      "ટ"
    ],
    [
      "ખ",
      "ા</w>"
    ],
    [
      "રહે",
      "તા</w>"
    ],
    [
      "છ",
      "તાં,</w>"
    ],
    [
      "ઉલ્",
      "લેખ</w>"
    ],
    [
      "ં",
      "તિ"
    ],
    [
      "ઉપ",
      "લબ્"
    ],
    [
      "ત",
      "મ</w>"
    ],
    [
      "ફેર",
      "ફ"
    ],
    [
      "વસાય",
      "િક</w>"
    ],
    [
      "ખરા",
      "બ</w>"
    ],
    [
      "દ",
      "ાર</w>"
    ],
    [
      "શ",
      "ો</w>"
    ],
    [
      "વિ",
      "ના</w>"
    ],
    [
      "દર",
      "િયા"
    ],
    [
      "ક",
      "પ"
    ],
    [
      "1",
      "2"
    ],
    [
      "કિ",
      "લો"
    ],
    [
      "મહિ",
      "લા</w>"
    ],
    [
      "શહે",
      "રમાં</w>"
    ],
    [
      "બના",
      "વી</w>"
    ],
    [
      "લીધ",
      "ો</w>"
    ],
    [
      "જો",
      "કે,</w>"
    ],
    [
      "3",
      "0</w>"
    ],
    [
      ".એ",
      "લ"
    ],
    [
      "ડ",
      "ૉ"
    ],
    [
      "ક",
      "મ્પ્યુ"
    ],
    [
      "દ",
      "ૃ"
    ],
    [
      "ટે",
      "ક્"
    ],
    [
      "પા",
      "કિસ્તા"
    ],
    [
      "ઊ",
      "ભ"
    ],
    [
      "રાજધા",
      "ની</w>"
    ],
    [
      "નાણા",
      "કીય</w>"
    ],
    [
      "ય",
      "ન</w>"
    ],
    [
      "સ્વી",
      "ડ"
    ],
    [
      "0",
      "થી</w>"
    ],
    [
      "ા",
      "માં</w>"
    ],
    [
      "ધ",
      "ાર્"
    ],
    [
      "આવ",
      "તા</w>"
    ],
    [
      "મ",
      "જબ"
    ],
    [
      "મજબ",
      "ૂ"
    ],
    [
      "બ",
      "લ</w>"
    ],
    [
      "કો",
      "ંગ"
    ],
    [
      "ક્ષ",
      "ા</w>"
    ],
    [
      "પિ",
      "તા</w>"
    ],
    [
      "ભ",
      "ગ"
    ],
    [
      "સ્ટ",
      "ર</w>"
    ],
    [
      "અ",
      "હી"
    ],
    [
      "ર",
      "મા"
    ],
    [
      "ત",
      "ક</w>"
    ],
    [
      "ચ",
      "ાર્"
    ],
    [
      "ડ",
      "્રા"
    ],
    [
      "નુક",
      "સાન</w>"
    ],
    [
      "ધાર્",
      "મિક</w>"
    ],
    [
      "સર",
      "કાર</w>"
    ],
    [
      "સ",
      "નું</w>"
    ],
    [
      "આઈ",
      "."
    ],
    [
      "માં",
      "ની</w>"
    ],
    [
      "આ",
      "શ"
    ],
    [
      "નૃ",
      "ત્ય</w>"
    ],
    [
      "ગા",
      "મી</w>"
    ],
    [
      "મુઘ",
      "લ</w>"
    ],
    [
      "પ્રદર્",
      "શ"
    ],
    [
      "મો",
      "કલ"
    ],
    [
      "આ",
      "ક્ર"
    ],
    [
      "ફો",
      "ન</w>"
    ],
    [
      "નિષ્",
      "ફ"
    ],
    [
      "સામ",
      "નો</w>"
    ],
    [
      "દ",
      "ે</w>"
    ],
    [
      "એ",
      "વો"
    ],
    [
      "આધુ",
      "નિક</w>"
    ],
    [
      "જાહે",
      "રાત</w>"
    ],
    [
      "લ",
      "ન</w>"
    ],
    [
      "કાર",
      "ા"
    ],
    [
      "થ",
      "ે"
    ],
    [
      "બાળ",
      "કો</w>"
    ],
    [
      "જે",
      "ક્"
    ],
    [
      "ને",
      "ટ</w>"
    ],
    [
      "સત્તા",
      "વાર</w>"
    ],
    [
      "ત",
      "ક"
    ],
    [
      "હ",
      "ં"
    ],
    [
      "ત",
      "બ"
    ],
    [
      "શ્રે",
      "ણી</w>"
    ],
    [
      "પ્રતિનિ",
      "ધિ"
    ],
    [
      "સમર્",
      "થ"
    ],
    [
      "હ",
      "ાર"
    ],
    [
      "મ",
      "લ"
    ],
    [
      "કિ",
      "સ્સા"
    ],
    [
      "લે",
      "વામાં</w>"
    ],
    [
      "બના",
      "વવા</w>"
    ],
    [
      "ઉપલબ્",
      "ધ</w>"
    ],
    [
      "ગુ",
      "મા"
    ],
    [
      "તહે",
      "વાર"
    ],
    [
      "ખ",
      "ંડ"
    ],
    [
      "જે",
      "ણે</w>"
    ],
    [
      "દર્શા",
      "વે</w>"
    ],
    [
      "ષ",
      "િ"
    ],
    [
      "ભાર",
      "ે</w>"
    ],
    [
      "પા",
      "ણી</w>"
    ],
    [
      "ય",
      "ે"
    ],
    [
      "સત",
      "ત</w>"
    ],
    [
      "ર",
      "મ</w>"
    ],
    [
      "કો",
      "લ"
    ],
    [
      "ક",
      "દા"
    ],
    [
      "અં",
      "ત</w>"
    ],
    [
      "વ",
      "ન"
    ],
    [
      "આ",
      "જે</w>"
    ],
    [
      "ર",
      "ેલ"
    ],
    [
      "લ",
      "ડ"
    ],
    [
      "ડ્",
      "સ</w>"
    ],
    [
      "ક્",
      "સિ"
    ],
    [
      "૫",
      "</w>"
    ],
    [
      "ળ",
      "ી"
    ],
    [
      "ટી",
      "."
    ],
    [
      "19",
      "3"
    ],
    [
      "જીવ",
      "ન</w>"
    ],
    [
      "આવ",
      "્યાં</w>"
    ],
    [
      "ટા",
      "ઇ"
    ],
    [
      "વર્",
      "તમા"
    ],
    [
      "ળા",
      "માં</w>"
    ],
    [
      "ઝડપ",
      "થી</w>"
    ],
    [
      "પર",
      "ત</w>"
    ],
    [
      "ગય",
      "ું</w>"
    ],
    [
      "વા",
      "સ્ત"
    ],
    [
      "કો",
      "ની</w>"
    ],
    [
      "મૂ",
      "ળ"
    ],
    [
      "રાજ",
      "કીય</w>"
    ],
    [
      "અર્",
      "થ"
    ],
    [
      "ગંભ",
      "ીર</w>"
    ],
    [
      "જાન્યુઆ",
      "રી</w>"
    ],
    [
      "મા",
      "લિ"
    ],
    [
      "જન",
      "ક</w>"
    ],
    [
      "શે",
      ",</w>"
    ],
    [
      "શ",
      "ૂ"
    ],
    [
      "કદા",
      "ચ</w>"
    ],
    [
      "તં",
      "ત્ર</w>"
    ],
    [
      "આશ",
      "રે</w>"
    ],
    [
      "ક",
      "નો</w>"
    ],
    [
      "જ",
      "િક</w>"
    ],
    [
      "મોટ",
      "ું</w>"
    ],
    [
      "વા",
      "દ</w>"
    ],
    [
      "પી",
      "."
    ],
    [
      "વ",
      "ળ"
    ],
    [
      "કિ",
      "ર્"
    ],
    [
      "-",
      "</w>"
    ],
    [
      "ડી",
      "."
    ],
    [
      "પસં",
      "દ"
    ],
    [
      "તેમ",
      "જ</w>"
    ],
    [
      "તે",
      "નાથી</w>"
    ],
    [
      "છ",
      "ી"
    ],
    [
      "તા",
      ",</w>"
    ],
    [
      "દિલ્",
      "હી"
    ],
    [
      "એ",
      "ડ"
    ],
    [
      "ભ",
      "ી"
    ],
    [
      "રી",
      "તે,</w>"
    ],
    [
      "કર",
      "વો</w>"
    ],
    [
      "ટા",
      "પુ"
    ],
    [
      "જી",
      "તી</w>"
    ],
    [
      "ગા",
      "ય"
    ],
    [
      "વ",
      "હી"
    ],
    [
      ".એ",
      "ફ"
    ],
    [
      "માટે",
      "ની</w>"
    ],
    [
      "તે",
      "વી</w>"
    ],
    [
      "ઉ",
      "ંમ"
    ],
    [
      "ગ",
      "ણા"
    ],
    [
      "1",
      "2</w>"
    ],
    [
      "સંગી",
      "ત"
    ],
    [
      "ર",
      "્ય"
    ],
    [
      "ખેલાડી",
      "ઓ</w>"
    ],
    [
      "વર્તમા",
      "ન</w>"
    ],
    [
      "મો",
      "ડ"
    ],
    [
      "લા",
      "લ</w>"
    ],
    [
      "મે",
      "ચ</w>"
    ],
    [
      "સૈ",
      "નિ"
    ],
    [
      "પ્રા",
      "પ્ત</w>"
    ],
    [
      "સ્ટેટ્",
      "સમાં</w>"
    ],
    [
      "સા",
      "મા"
    ],
    [
      "ભારત",
      "ની</w>"
    ],
    [
      "વા",
      "ળા</w>"
    ],
    [
      "જો",
      "કે</w>"
    ],
    [
      "રો",
      "ગ</w>"
    ],
    [
      "ત",
      "રા"
    ],
    [
      "ઉજ",
      "વણી</w>"
    ],
    [
      "કિ",
      "મી</w>"
    ],
    [
      "ગી",
      "તો</w>"
    ],
    [
      "મિલ",
      "ના"
    ],
    [
      "સં",
      "શોધ"
    ],
    [
      "બ",
      "દ્ધ</w>"
    ],
    [
      "1",
      "5</w>"
    ],
    [
      "કહે",
      "વાય</w>"
    ],
    [
      "ડા",
      "ના</w>"
    ],
    [
      "વહી",
      "વ"
    ],
    [
      "શી",
      "ખ"
    ],
    [
      "યો",
      "જા"
    ],
    [
      "પ્ર",
      "ણા"
    ],
    [
      "ફ",
      "્ર"
    ],
    [
      "બ",
      "જ"
    ],
    [
      "વિશા",
      "ળ</w>"
    ],
    [
      "ર",
      "ણ</w>"
    ],
    [
      "વિક",
      "સા"
    ],
    [
      "આપ",
      "્યું</w>"
    ],
    [
      "વિદ",
      "્યાર"
    ],
    [
      "તહે",
      "વાર</w>"
    ],
    [
      "વે",
      "બ"
    ],
    [
      "ડ",
      "િયા"
    ],
    [
      "ક્ષ",
      "મ"
    ],
    [
      "મ",
      "ગ"
    ],
    [
      "એ",
      "ક્સ"
    ],
    [
      "અ",
      "મુ"
    ],
    [
      "ઇ",
      "ન્ડ"
    ],
    [
      "તા",
      "ની</w>"
    ],
    [
      "રો",
      "જ,</w>"
    ],
    [
      "વિસ્તાર",
      "ોમાં</w>"
    ],
    [
      "ટ",
      "ને</w>"
    ],
    [
      "સા",
      "હિ"
    ],
    [
      "માર્",
      "ગ"
    ],
    [
      "બ",
      "્રે"
    ],
    [
      "ઉત્પાદ",
      "ન</w>"
    ],
    [
      "ઉપયો",
      "ગમાં</w>"
    ],
    [
      "નિર્",
      "ણ"
    ],
    [
      "પ્ર",
      "ધા"
    ],
    [
      "અં",
      "તિ"
    ],
    [
      "મે",
      "ન</w>"
    ],
    [
      "બ",
      "ાર</w>"
    ],
    [
      "સર",
      "ળ</w>"
    ],
    [
      ".એ",
      "."
    ],
    [
      "ને",
      "તૃ"
    ],
    [
      "છ",
      "તાં</w>"
    ],
    [
      "વધ",
      "ુ"
    ],
    [
      "ત",
      "ાર"
    ],
    [
      "લ",
      "ંડ"
    ],
    [
      "ના",
      "મની</w>"
    ],
    [
      "વધ",
      "ારો</w>"
    ],
    [
      "ઘ",
      "ો"
    ],
    [
      "શ",
      "િયા"
    ],
    [
      "સ્",
      "તિ"
    ],
    [
      "સં",
      "ખ"
    ],
    [
      "હુમ",
      "લો</w>"
    ],
    [
      "વિકા",
      "સ</w>"
    ],
    [
      "વે",
      "દ"
    ],
    [
      "ખેલા",
      "ડી</w>"
    ],
    [
      "બે",
      "ઠ"
    ],
    [
      "વિ",
      "ઝન</w>"
    ],
    [
      "રમ",
      "તો</w>"
    ],
    [
      "દેશ",
      "ોમાં</w>"
    ],
    [
      "તર",
      "ફ"
    ],
    [
      "20",
      "20"
    ],
    [
      "સ્વ",
      "રૂપ"
    ],
    [
      "સ",
      "ન્"
    ],
    [
      "યો",
      "ર્"
    ],
    [
      "0",
      "ની</w>"
    ],
    [
      "છ",
      "ૂ"
    ],
    [
      "નગ",
      "ી</w>"
    ],
    [
      "એક",
      "માત્ર</w>"
    ],
    [
      "આ",
      "ફ્રિ"
    ],
    [
      "વ",
      "ુ"
    ],
    [
      "ના",
      "મના</w>"
    ],
    [
      "કર",
      "શે.</w>"
    ],
    [
      "ગુ",
      "જ"
    ],
    [
      "ઘ",
      "ે"
    ],
    [
      "ણા",
      "ં</w>"
    ],
    [
      "અંતિ",
      "મ</w>"
    ],
    [
      "ક",
      "થા"
    ],
    [
      "યુ",
      "ક્ત</w>"
    ],
    [
      "અં",
      "દા"
    ],
    [
      "ઓ",
      "થી</w>"
    ],
    [
      "સ્પ",
      "ષ્ટ</w>"
    ],
    [
      "સે",
      "ન્"
    ],
    [
      "પૂ",
      "રી</w>"
    ],
    [
      "ખર્",
      "ચ"
    ],
    [
      "વિદ્યાર",
      "્"
    ],
    [
      "સ્ટ",
      "ી"
    ],
    [
      "હ",
      "ાર</w>"
    ],
    [
      "નિય",
      "ંત્ર"
    ],
    [
      "બહ",
      "ુ"
    ],
    [
      "ઓલિ",
      "મ્પ"
    ],
    [
      "ંગ્",
      "લેન્ડ"
    ],
    [
      "કાય",
      "દા"
    ],
    [
      "ત",
      "ીય</w>"
    ],
    [
      "મળ",
      "્યો</w>"
    ],
    [
      "છો",
      "ડી</w>"
    ],
    [
      "મ",
      "હે"
    ],
    [
      "અમુ",
      "ક</w>"
    ],
    [
      "હ",
      "ૈ"
    ],
    [
      "કો",
      "એ</w>"
    ],
    [
      "મા",
      "ળ"
    ],
    [
      "છે",
      ";</w>"
    ],
    [
      "ક્ર",
      "િયા"
    ],
    [
      "છ",
      "ું</w>"
    ],
    [
      "દો",
      "રી</w>"
    ],
    [
      "ઉ",
      "ન્ડ"
    ],
    [
      "ણ",
      "િક</w>"
    ],
    [
      "લ",
      "ગા"
    ],
    [
      "વા",
      "ં</w>"
    ],
    [
      "ખ",
      "િ"
    ],
    [
      "ભાષ",
      "ા</w>"
    ],
    [
      "ક્યાર",
      "ેય</w>"
    ],
    [
      "ત્",
      "તા</w>"
    ],
    [
      "રા",
      "મ"
    ],
    [
      "તિહા",
      "સિક</w>"
    ],
    [
      "ય",
      "ેલ</w>"
    ],
    [
      "અ",
      "પે"
    ],
    [
      "બ",
      "ન્"
    ],
    [
      "વ",
      "ીને</w>"
    ],
    [
      "રાખ",
      "ે</w>"
    ],
    [
      "શ",
      "કે.</w>"
    ],
    [
      "જમી",
      "ન</w>"
    ],
    [
      "વ્યક્તિ",
      "ગત</w>"
    ],
    [
      "પર",
      "ના</w>"
    ],
    [
      "તપા",
      "સ</w>"
    ],
    [
      "જે",
      "ની</w>"
    ],
    [
      "ખો",
      "રા"
    ],
    [
      "ક",
      "િત</w>"
    ],
    [
      "આર્",
      "થ"
    ],
    [
      "ધરાવ",
      "તી</w>"
    ],
    [
      "સુધી",
      "માં,</w>"
    ],
    [
      "ં",
      "કી</w>"
    ],
    [
      "5",
      "0</w>"
    ],
    [
      "જગ",
      "્યા"
    ],
    [
      "ઇ",
      "ન્ટર"
    ],
    [
      "ખ્યા",
      "ત</w>"
    ],
    [
      "કર્",
      "ષ"
    ],
    [
      "ચ",
      "ક્ર"
    ],
    [
      "શક્",
      "તિ"
    ],
    [
      "કિલ્",
      "લો</w>"
    ],
    [
      "પ",
      "દ્ધ"
    ],
    [
      "દક્ષિ",
      "ણ"
    ],
    [
      "લાઇ",
      "ન</w>"
    ],
    [
      "સ્વ",
      "રૂપ</w>"
    ],
    [
      "દ",
      "બા"
    ],
    [
      "2",
      "ના</w>"
    ],
    [
      "થ",
      "ી"
    ],
    [
      "ફ્",
      "લો"
    ],
    [
      "નહો",
      "ત"
    ],
    [
      "જ",
      "ના</w>"
    ],
    [
      "મે",
      "ન્ટ"
    ],
    [
      "ના",
      "મ"
    ],
    [
      "ય",
      "લ</w>"
    ],
    [
      "અ",
      "મ"
    ],
    [
      "તા",
      "ના</w>"
    ],
    [
      "ગ્ર",
      "ી</w>"
    ],
    [
      "સ્",
      "લા"
    ],
    [
      "સરે",
      "રાશ</w>"
    ],
    [
      "મજબૂ",
      "ત</w>"
    ],
    [
      "ો",
      "નો</w>"
    ],
    [
      "દ્ર",
      "</w>"
    ],
    [
      "વર્",
      "લ્ડ</w>"
    ],
    [
      "સદી",
      "ના</w>"
    ],
    [
      "મુ",
      "સા"
    ],
    [
      "લી",
      "ને</w>"
    ],
    [
      "સ",
      ".</w>"
    ],
    [
      "બન",
      "્યા</w>"
    ],
    [
      "હા",
      "ઈ"
    ],
    [
      "પોલી",
      "સ</w>"
    ],
    [
      "ખરે",
      "ખર</w>"
    ],
    [
      "મૃત",
      "્યુ"
    ],
    [
      "મે",
      "ચ"
    ],
    [
      "ઐ",
      "તિહાસિક</w>"
    ],
    [
      "ડ",
      "ી.</w>"
    ],
    [
      "વા",
      "દી</w>"
    ],
    [
      "તબ",
      "ક્"
    ],
    [
      "ક",
      "ું"
    ],
    [
      "સે",
      "ના"
    ],
    [
      "રાજ્ય",
      "ની</w>"
    ],
    [
      "ગા",
      "ંધ"
    ],
    [
      "ખા",
      "તરી</w>"
    ],
    [
      "મોટાભાગ",
      "ની</w>"
    ],
    [
      "ઉજ",
      "વવામાં</w>"
    ],
    [
      "અનુ",
      "સાર</w>"
    ],
    [
      "લ્",
      "ડ"
    ],
    [
      ".એ",
      "ન"
    ],
    [
      "કોંગ",
      "્રે"
    ],
    [
      "જ",
      "હા"
    ],
    [
      "અભિન",
      "ય</w>"
    ],
    [
      "ળ",
      "તા</w>"
    ],
    [
      "બૌ",
      "દ્ધ</w>"
    ],
    [
      "2",
      "5</w>"
    ],
    [
      "નો",
      "ર્"
    ],
    [
      "1",
      "ના</w>"
    ],
    [
      "ન",
      "ૌ"
    ],
    [
      "કેન્દ્ર",
      "િત</w>"
    ],
    [
      "શ",
      "ી</w>"
    ],
    [
      "સ",
      "રહ"
    ],
    [
      "બાદ",
      "માં</w>"
    ],
    [
      "ન",
      "બ"
    ],
    [
      "દિ",
      "વા"
    ],
    [
      "નોંધ",
      "ા"
    ],
    [
      "ન",
      "િયા</w>"
    ],
    [
      "પહો",
      "ંચા"
    ],
    [
      "દ્",
      "ધા"
    ],
    [
      "ત્",
      "સાહ"
    ],
    [
      "પાછ",
      "ળ"
    ],
    [
      "માર્",
      "ચ</w>"
    ],
    [
      ".એ",
      ".</w>"
    ],
    [
      "ઓછ",
      "ામાં</w>"
    ],
    [
      "ફ્રા",
      "ન્"
    ],
    [
      "ર",
      "ક"
    ],
    [
      "ઈ",
      "ન્ડ"
    ],
    [
      "તા",
      "જે"
    ],
    [
      "તાજે",
      "તર"
    ],
    [
      "જણા",
      "વ્યું</w>"
    ],
    [
      "ન",
      "ૂ"
    ],
    [
      "કાર",
      "કિર્"
    ],
    [
      "તા",
      "પ"
    ],
    [
      "અહી",
      "ં</w>"
    ],
    [
      "હં",
      "મે"
    ],
    [
      "મ",
      "ની"
    ],
    [
      "ડા",
      "ની</w>"
    ],
    [
      "શ્રે",
      "ણી"
    ],
    [
      "ય",
      "ું</w>"
    ],
    [
      "હ",
      "શે.</w>"
    ],
    [
      "કર",
      "વી</w>"
    ],
    [
      "જોખ",
      "મ</w>"
    ],
    [
      "ડા",
      "ં</w>"
    ],
    [
      "સામા",
      "જિક</w>"
    ],
    [
      "આ",
      "રો"
    ],
    [
      "રમ",
      "ી</w>"
    ],
    [
      "મે",
      "દા"
    ],
    [
      "કિ",
      "ંગ</w>"
    ],
    [
      "પ્રકાર",
      "ના</w>"
    ],
    [
      "સમા",
      "પ્ત</w>"
    ],
    [
      "થ્",
      "થ"
    ],
    [
      "૧",
      "</w>"
    ],
    [
      "જવા",
      "બદ"
    ],
    [
      "ઓ",
      "ડિ"
    ],
    [
      "ગુ",
      "ફા"
    ],
    [
      "બી",
      "જા"
    ],
    [
      "કેન્દ્ર",
      "</w>"
    ],
    [
      "પુન",
      "ઃ"
    ],
    [
      "સં",
      "પૂર્ણ"
    ],
    [
      "ષ્",
      "ઠ"
    ],
    [
      "અન",
      "ેક</w>"
    ],
    [
      "લા",
      "ક"
    ],
    [
      "જી",
      "ત</w>"
    ],
    [
      "ત",
      "મિલના"
    ],
    [
      "મી",
      "ટ"
    ],
    [
      "ન્ડ",
      "્રો"
    ],
    [
      "માટે",
      "ના</w>"
    ],
    [
      "જ",
      "ની</w>"
    ],
    [
      "મં",
      "ડ"
    ],
    [
      "1",
      "4</w>"
    ],
    [
      "શોધ",
      "ી</w>"
    ],
    [
      "ઓ",
      ".</w>"
    ],
    [
      "ક",
      "ેલિ"
    ],
    [
      "ેલ",
      "ી"
    ],
    [
      "જ",
      "્યો"
    ],
    [
      "1",
      "3"
    ],
    [
      "સા",
      "ત</w>"
    ],
    [
      "આ",
      "ઉ"
    ],
    [
      "વરસા",
      "દ</w>"
    ],
    [
      "પ્રો",
      "ત્સાહ"
    ],
    [
      "થ",
      "ઇ</w>"
    ],
    [
      "મૂક",
      "વામાં</w>"
    ],
    [
      "હા",
      "થ</w>"
    ],
    [
      "ર",
      "ં"
    ],
    [
      "ઈ",
      "ન</w>"
    ],
    [
      "મથ",
      "ક</w>"
    ],
    [
      "લ",
      "ય</w>"
    ],
    [
      "રક્ષ",
      "ણ</w>"
    ],
    [
      "ને",
      ",</w>"
    ],
    [
      "અ",
      "સર"
    ],
    [
      "ઘ",
      "ર</w>"
    ],
    [
      "પ",
      "ટ"
    ],
    [
      "લિ",
      "ંગ</w>"
    ],
    [
      "યોજ",
      "ના</w>"
    ],
    [
      "ઘ",
      "રે</w>"
    ],
    [
      "મ",
      "ૈ"
    ],
    [
      "લ",
      "ખા"
    ],
    [
      "કા",
      "મ"
    ],
    [
      "હો",
      "સ્પિ"
    ],
    [
      ".એ",
      "મ"
    ],
    [
      "નેટ",
      "વર્"
    ],
    [
      "ઓ",
      "ન"
    ],
    [
      "મણ",
      "િ"
    ],
    [
      "ચે",
      "પ</w>"
    ],
    [
      "તા",
      "લી"
    ],
    [
      "સા",
      "ંભ"
    ],
    [
      "વ",
      "માં</w>"
    ],
    [
      "એ",
      "મ</w>"
    ],
    [
      "તા",
      "માં</w>"
    ],
    [
      "4",
      "ના</w>"
    ],
    [
      "લ",
      "નો</w>"
    ],
    [
      "દિલ્",
      "હી</w>"
    ],
    [
      "પ્ર",
      "મુખ"
    ],
    [
      "અ",
      "ત્ય"
    ],
    [
      "મ",
      "ૌ"
    ],
    [
      "ગી",
      "ત</w>"
    ],
    [
      "ત",
      "મિ"
    ],
    [
      "કર્",
      "મ"
    ],
    [
      "ણા",
      "ટ"
    ],
    [
      "પ્ર",
      "ખ્યાત</w>"
    ],
    [
      "ઓલિમ્પ",
      "િક</w>"
    ],
    [
      "ઘટા",
      "ડો</w>"
    ],
    [
      "લોકો",
      "એ</w>"
    ],
    [
      "પ્રો",
      "ગ્રા"
    ],
    [
      "પ્ર",
      "વૃત્"
    ],
    [
      "આધ",
      "ારે</w>"
    ],
    [
      "ન",
      "ર્"
    ],
    [
      "સર",
      "ખા"
    ],
    [
      "વ્યા",
      "વસાયિક</w>"
    ],
    [
      "દ",
      "િત</w>"
    ],
    [
      "વ્યાપ",
      "ક</w>"
    ],
    [
      "મહત્ત્વ",
      "પૂર્ણ</w>"
    ],
    [
      "શ",
      "્ય"
    ],
    [
      "હ",
      "ાર્"
    ],
    [
      "રી",
      "માં</w>"
    ],
    [
      "સમ",
      "ી"
    ],
    [
      "સી",
      "ઓ</w>"
    ],
    [
      "ઓ",
      "માંથી</w>"
    ],
    [
      "ક",
      "િલ્લા"
    ],
    [
      "જીત",
      "્યો</w>"
    ],
    [
      "ે",
      ".</w>"
    ],
    [
      "હુમ",
      "લા"
    ],
    [
      "પાછ",
      "ા</w>"
    ],
    [
      "સંખ્યા",
      "બંધ</w>"
    ],
    [
      "અ",
      "સ્તિ"
    ],
    [
      "ગ્ર",
      "સ્ત</w>"
    ],
    [
      "સ્પર્",
      "ધા</w>"
    ],
    [
      "કૃ",
      "તિ</w>"
    ],
    [
      "સ્ટેટ્",
      "સના</w>"
    ],
    [
      "અ",
      "ટકા"
    ],
    [
      "અંગ",
      "ે</w>"
    ],
    [
      "સંચાલ",
      "ન</w>"
    ],
    [
      "સમય",
      "માં</w>"
    ],
    [
      "ગ",
      "ના</w>"
    ],
    [
      "ક્",
      "ટર</w>"
    ],
    [
      "શબ્",
      "દ</w>"
    ],
    [
      "અ",
      "લા"
    ],
    [
      "રા",
      "મ</w>"
    ],
    [
      "આન",
      "ંદ</w>"
    ],
    [
      "આ",
      "કર્ષ"
    ],
    [
      "રોકા",
      "ણ</w>"
    ],
    [
      "ય",
      "ેલું</w>"
    ],
    [
      "કો",
      "ષ"
    ],
    [
      "હા",
      "જ"
    ],
    [
      "લ",
      "શ્"
    ],
    [
      "પુરસ્",
      "કાર</w>"
    ],
    [
      "મહારા",
      "ષ્ટ્ર"
    ],
    [
      "એ",
      "ચ"
    ],
    [
      "ફિલ્",
      "મોમાં</w>"
    ],
    [
      "ત્રી",
      "જા</w>"
    ],
    [
      "ષ",
      "િક</w>"
    ],
    [
      "ત",
      "બી"
    ],
    [
      "ડ",
      "ર"
    ],
    [
      "જૂ",
      "થ</w>"
    ],
    [
      "ડ",
      "ૂ"
    ],
    [
      "સ્વી",
      "કાર"
    ],
    [
      "ઈ",
      "માં</w>"
    ],
    [
      "લ",
      "મ</w>"
    ],
    [
      "કો",
      "માં</w>"
    ],
    [
      "કા",
      "ઓ</w>"
    ],
    [
      "લા",
      "ઈ</w>"
    ],
    [
      "ક",
      "નું</w>"
    ],
    [
      "આ",
      "યો"
    ],
    [
      "ગા",
      "મ</w>"
    ],
    [
      "ડિસે",
      "મ્બર</w>"
    ],
    [
      "ર્",
      "ષ"
    ],
    [
      "શા",
      "હી</w>"
    ],
    [
      "ઈ",
      "તિહા"
    ],
    [
      "લે",
      "વા"
    ],
    [
      "કિ",
      "ંગ"
    ],
    [
      "૪",
      "</w>"
    ],
    [
      "ચૂક",
      "વણી</w>"
    ],
    [
      "ક્લ",
      "બ</w>"
    ],
    [
      "કેટલી",
      "ક"
    ],
    [
      "સ્ટ",
      "ેશન</w>"
    ],
    [
      "ઉ",
      "ના"
    ],
    [
      "ગ",
      "ૃ"
    ],
    [
      "મં",
      "ત્રી</w>"
    ],
    [
      "ટ",
      ",</w>"
    ],
    [
      "સ્ત",
      "ી</w>"
    ],
    [
      "એવો",
      "ર્ડ</w>"
    ],
    [
      "રૂપ",
      "ે</w>"
    ],
    [
      "કર",
      "વું</w>"
    ],
    [
      "હા",
      "ઉ"
    ],
    [
      "૨૦",
      "૦"
    ],
    [
      "સ્",
      "કે"
    ],
    [
      "પ્રકાર",
      "ની</w>"
    ],
    [
      "કમા",
      "ણી</w>"
    ],
    [
      "પોર્",
      "ટ</w>"
    ],
    [
      "પ",
      "ત્ર"
    ],
    [
      "લે",
      "વા</w>"
    ],
    [
      "વ",
      "તી</w>"
    ],
    [
      "ડ",
      "માં</w>"
    ],
    [
      "ભાગો",
      "માં</w>"
    ],
    [
      "ઇ",
      "ન</w>"
    ],
    [
      "સંપૂર્ણ",
      "પણે</w>"
    ],
    [
      "કા",
      "નો</w>"
    ],
    [
      "સરખા",
      "મ"
    ],
    [
      "મ્",
      "પિ"
    ],
    [
      ".એ",
      "ચ"
    ],
    [
      "સદી",
      "માં</w>"
    ],
    [
      "અ",
      "વા"
    ],
    [
      "ડ",
      "ીને</w>"
    ],
    [
      "દેશ",
      "ી</w>"
    ],
    [
      "ત",
      "ુ</w>"
    ],
    [
      "ભાગ",
      "ે</w>"
    ],
    [
      "વિ",
      "ભા"
    ],
    [
      "કારા",
      "ત્મક</w>"
    ],
    [
      "ણ",
      ",</w>"
    ],
    [
      "ટ",
      "નો</w>"
    ],
    [
      "થય",
      "ું.</w>"
    ],
    [
      "ક્રિ",
      "ય</w>"
    ],
    [
      "લાઈ",
      "ન</w>"
    ],
    [
      "પ્ર",
      "દાન</w>"
    ],
    [
      "રો",
      "ને</w>"
    ],
    [
      "થ",
      "િય"
    ],
    [
      "મા",
      "તા"
    ],
    [
      "હિન્",
      "દી</w>"
    ],
    [
      "કર્",
      "ણાટ"
    ],
    [
      "વાર્",
      "ષિક</w>"
    ],
    [
      "શક",
      "્ય</w>"
    ],
    [
      "નગરપાલિ",
      "કા</w>"
    ],
    [
      "ગે",
      "ર"
    ],
    [
      "જ",
      "માં</w>"
    ],
    [
      "્ર",
      "</w>"
    ],
    [
      "પા",
      "લ</w>"
    ],
    [
      "શિ",
      "લા"
    ],
    [
      "નવે",
      "મ્બર</w>"
    ],
    [
      "રે",
      "ન્"
    ],
    [
      "ફિલ્",
      "મમાં</w>"
    ],
    [
      "દા",
      "વો</w>"
    ],
    [
      "ક્ર",
      "ી"
    ],
    [
      "ષ્ટિ",
      "</w>"
    ],
    [
      "%",
      "</w>"
    ],
    [
      "ડ",
      "ની</w>"
    ],
    [
      "પ્રતિનિધિ",
      "ત્વ</w>"
    ],
    [
      "ક",
      "તા</w>"
    ],
    [
      "કેલિ",
      "ફોર્"
    ],
    [
      "૨",
      "</w>"
    ],
    [
      "કિલો",
      "મીટર</w>"
    ],
    [
      "જ",
      "ય"
    ],
    [
      "ટો",
      "ક"
    ],
    [
      "જ",
      "ું</w>"
    ],
    [
      "ન્",
      "ના"
    ],
    [
      "મુસ્લિ",
      "મ</w>"
    ],
    [
      "ત",
      "્યા"
    ],
    [
      "ઓ",
      "ફિ"
    ],
    [
      "યુનિવર્સિ",
      "ટી</w>"
    ],
    [
      "સભ",
      "્યો</w>"
    ],
    [
      "પ્રકાશ",
      "િત</w>"
    ],
    [
      "જો",
      "ઈ</w>"
    ],
    [
      "ચે",
      "પ"
    ],
    [
      "ર",
      "્ય</w>"
    ],
    [
      "કા",
      "ળ</w>"
    ],
    [
      "સિં",
      "હ"
    ],
    [
      "કો",
      "ના</w>"
    ],
    [
      "ટેલિ",
      "વિઝન</w>"
    ],
    [
      "ન",
      "ક"
    ],
    [
      "સિ",
      "સ</w>"
    ],
    [
      "એન્",
      "ટિ"
    ],
    [
      "સ્",
      "સો</w>"
    ],
    [
      "મૂ",
      "ર્"
    ],
    [
      "8",
      "ના</w>"
    ],
    [
      "ડા",
      "માં</w>"
    ],
    [
      "માં",
      "નું</w>"
    ],
    [
      "ાર્",
      "થ"
    ],
    [
      ")",
      ",</w>"
    ],
    [
      "આખ",
      "રે</w>"
    ],
    [
      "ગ્ર",
      "ં"
    ],
    [
      "ઇ",
      "તિહા"
    ],
    [
      "ક્",
      "ટ"
    ],
    [
      "ના",
      "નો</w>"
    ],
    [
      "પ્રભા",
      "વિત</w>"
    ],
    [
      "1",
      "4"
    ],
    [
      "સ",
      "ભા"
    ],
    [
      "રાષ્ટ્ર",
      "પતિ</w>"
    ],
    [
      "ધ",
      "ાર"
    ],
    [
      "ધર્",
      "મ</w>"
    ],
    [
      "દાય",
      "કામાં</w>"
    ],
    [
      "ઈ",
      "ન્ટર"
    ],
    [
      "ડ",
      "બ"
    ],
    [
      "શા",
      "ળી</w>"
    ],
    [
      "સંખ",
      "્યા</w>"
    ],
    [
      "લા",
      "ય"
    ],
    [
      "સા",
      "ત"
    ],
    [
      "આ",
      "ય"
    ],
    [
      "મ",
      "ુંબ"
    ],
    [
      "એપ્રિ",
      "લ</w>"
    ],
    [
      "હોય",
      ".</w>"
    ],
    [
      "ડ",
      "ર</w>"
    ],
    [
      "ક",
      "લ્પ"
    ],
    [
      "ક્ષ",
      "ા"
    ],
    [
      "કર્મ",
      "ચાર"
    ],
    [
      "જે",
      "માંથી</w>"
    ],
    [
      "બ્",
      "લે"
    ],
    [
      "બ",
      "ધા</w>"
    ],
    [
      "રી",
      "ને</w>"
    ],
    [
      "પરિ",
      "વાર</w>"
    ],
    [
      "ચ",
      "ના</w>"
    ],
    [
      "હા",
      "લમાં</w>"
    ],
    [
      "પૂર્વ",
      "ીય</w>"
    ],
    [
      "ઓ",
      "ર્ડ"
    ],
    [
      "નિય",
      "ં"
    ],
    [
      "નિયં",
      "ત્રણ</w>"
    ],
    [
      "દ",
      "ુ</w>"
    ],
    [
      "ના",
      "ય"
    ],
    [
      "કાર",
      "ણ"
    ],
    [
      "ન",
      "િયા"
    ],
    [
      "પા",
      "ય"
    ],
    [
      "ગ",
      "ા</w>"
    ],
    [
      "ચ",
      "ી</w>"
    ],
    [
      "આં",
      "ખ"
    ],
    [
      "ર",
      "શ"
    ],
    [
      "પ્ર",
      "વેશ</w>"
    ],
    [
      "મુ",
      "ક્ત</w>"
    ],
    [
      "મળ",
      "્યું</w>"
    ],
    [
      "મેળ",
      "વવા</w>"
    ],
    [
      "પ્ર",
      "ી"
    ],
    [
      "લી",
      "ગ</w>"
    ],
    [
      "સૌ",
      "પ્રથમ</w>"
    ],
    [
      "ન્યૂ",
      "</w>"
    ],
    [
      "ભૂત",
      "પૂર્વ</w>"
    ],
    [
      "અ",
      "સરકાર"
    ],
    [
      "ૂ",
      "</w>"
    ],
    [
      "પ્ર",
      "શં"
    ],
    [
      "ર",
      "ુ</w>"
    ],
    [
      "નિષ્ફ",
      "ળ</w>"
    ],
    [
      "જ",
      "વા</w>"
    ],
    [
      "મે",
      ",</w>"
    ],
    [
      "1",
      "1</w>"
    ],
    [
      "આર",
      "."
    ],
    [
      "ં",
      "સ"
    ],
    [
      "નીક",
      "ળ"
    ],
    [
      "પ્રે",
      "ર"
    ],
    [
      "ઝડ",
      "પી</w>"
    ],
    [
      "પ",
      "ુ</w>"
    ],
    [
      "ર",
      "િયા</w>"
    ],
    [
      "સપ્ટે",
      "મ્બર</w>"
    ],
    [
      "પ્રો",
      "જેક્"
    ],
    [
      "ત્",
      "સ"
    ],
    [
      "7",
      "ના</w>"
    ],
    [
      "આ",
      "ગામી</w>"
    ],
    [
      "વ",
      "ી.</w>"
    ],
    [
      "અ",
      "ડ"
    ],
    [
      "મ્",
      "મ"
    ],
    [
      "ર",
      "ણ"
    ],
    [
      "ન",
      "ાર"
    ],
    [
      "વર્",
      "ત"
    ],
    [
      "ગ",
      "વર્"
    ],
    [
      "ન્",
      "ટિ"
    ],
    [
      "ફ",
      "ા</w>"
    ],
    [
      "૦",
      "૦</w>"
    ],
    [
      "હિ",
      "મા"
    ],
    [
      "વિ",
      "ન"
    ],
    [
      "ચિ",
      "હ્"
    ],
    [
      "મુશ્ક",
      "ેલ</w>"
    ],
    [
      "રો",
      "ની</w>"
    ],
    [
      "એસ",
      ".</w>"
    ],
    [
      "ુ",
      "ઓ</w>"
    ],
    [
      "ં",
      "ડી</w>"
    ],
    [
      "વિ",
      "ચાર</w>"
    ],
    [
      "19",
      "2"
    ],
    [
      "ધી",
      "મે</w>"
    ],
    [
      "ખ",
      "બર</w>"
    ],
    [
      "ન",
      "ંબ"
    ],
    [
      "પડ",
      "શે.</w>"
    ],
    [
      "ં",
      "ટા"
    ],
    [
      "ગ",
      "ની</w>"
    ],
    [
      "પૂર્વ",
      "ક</w>"
    ],
    [
      "પશ્ચિ",
      "મી</w>"
    ],
    [
      "પ્રા",
      "થ"
    ],
    [
      "બા",
      "ઈ"
    ],
    [
      "0",
      ",000</w>"
    ],
    [
      "ન્ડ",
      "ર</w>"
    ],
    [
      "તુ",
      "ર્"
    ],
    [
      "મે",
      "ક"
    ],
    [
      "પ",
      "ેશ"
    ],
    [
      "બદ",
      "લ</w>"
    ],
    [
      "સિ",
      "ત</w>"
    ],
    [
      "વ",
      ",</w>"
    ],
    [
      "ઈ",
      "સ"
    ],
    [
      "લક્ષ",
      "ણો</w>"
    ],
    [
      "વિ",
      "ક્ર"
    ],
    [
      "પ્ર",
      "ત્ય"
    ],
    [
      "શી",
      "લ</w>"
    ],
    [
      "ડ",
      "વા</w>"
    ],
    [
      "સ",
      "ું"
    ],
    [
      "પાછ",
      "ળ</w>"
    ],
    [
      "લોકો",
      "માં</w>"
    ],
    [
      "ચો",
      "રસ</w>"
    ],
    [
      "ર",
      "ું</w>"
    ],
    [
      "આર્થ",
      "િક</w>"
    ],
    [
      "દેશ",
      "માં</w>"
    ],
    [
      "સંગ",
      "ઠ"
    ],
    [
      "કી",
      "ના</w>"
    ],
    [
      "પુ",
      "ત્ર"
    ],
    [
      "જન્",
      "મ"
    ],
    [
      "વસ્ત",
      "ુ</w>"
    ],
    [
      "તબી",
      "બી</w>"
    ],
    [
      "ક્",
      "લે"
    ],
    [
      "પરિણા",
      "મે</w>"
    ],
    [
      "વર્ષ",
      "ના</w>"
    ],
    [
      "ગ",
      "ૌ"
    ],
    [
      "પછ",
      "ી"
    ],
    [
      "મિ",
      "શ્ર"
    ],
    [
      "વ્ય",
      "વસા"
    ],
    [
      "સમયગા",
      "ળા</w>"
    ],
    [
      "સોફ્",
      "ટ"
    ],
    [
      "પ",
      "ી.</w>"
    ],
    [
      "જ",
      "િલ્"
    ],
    [
      "ડો",
      "લ"
    ],
    [
      "ક",
      "થા</w>"
    ],
    [
      "1",
      "6</w>"
    ],
    [
      "પૂર્વ",
      "માં</w>"
    ],
    [
      "લા",
      "ખ</w>"
    ],
    [
      "ચિ",
      "ં"
    ],
    [
      "કેટલીક",
      "વાર</w>"
    ],
    [
      "ન",
      "્ય</w>"
    ],
    [
      "સ્",
      "કૂ"
    ],
    [
      "ડિ",
      "ઝા"
    ],
    [
      "૩",
      "</w>"
    ],
    [
      "માન",
      "વ</w>"
    ],
    [
      "અમેરિ",
      "કાના</w>"
    ],
    [
      "અગાઉ",
      "</w>"
    ],
    [
      "જૂ",
      "ન</w>"
    ],
    [
      "ત",
      "ારી"
    ],
    [
      "લોકો",
      "ની</w>"
    ],
    [
      "ઈ",
      "."
    ],
    [
      "1",
      "8</w>"
    ],
    [
      "સ",
      "િય"
    ],
    [
      "ગ",
      "મ"
    ],
    [
      "ચ",
      "લ"
    ],
    [
      "પૂ",
      "જા</w>"
    ],
    [
      "ંત",
      ",</w>"
    ],
    [
      "સંભ",
      "વિત</w>"
    ],
    [
      "સાથ",
      "ે,</w>"
    ],
    [
      "શ્ર",
      "ી</w>"
    ],
    [
      "1",
      "7</w>"
    ],
    [
      "ગ",
      "ૂ"
    ],
    [
      "ર્",
      "ના"
    ],
    [
      "પ",
      "ટ્"
    ],
    [
      "મળ",
      "્યા</w>"
    ],
    [
      "લી",
      "ન</w>"
    ],
    [
      "વહે",
      "ંચ"
    ],
    [
      "ભ",
      "રમાં</w>"
    ],
    [
      "ખ",
      "ડ"
    ],
    [
      "અપે",
      "ક્ષા</w>"
    ],
    [
      "વિશે",
      "ષ</w>"
    ],
    [
      "વર્ણ",
      "ન</w>"
    ],
    [
      "સ્",
      "વિ"
    ],
    [
      "ભ",
      "ૌ"
    ],
    [
      "પ",
      "બ્"
    ],
    [
      "તરફ",
      "થી</w>"
    ],
    [
      "નદી",
      "ના</w>"
    ],
    [
      "પ્ર",
      "સાર"
    ],
    [
      "પ",
      "વિ"
    ],
    [
      "સૂ",
      "ચિ"
    ],
    [
      "અ",
      "ધ્ય"
    ],
    [
      "લશ્",
      "કરી</w>"
    ],
    [
      "6",
      "ના</w>"
    ],
    [
      "શબ્",
      "દ"
    ],
    [
      "ંડ",
      "ા</w>"
    ],
    [
      "થ",
      "વાની</w>"
    ],
    [
      "ક્ષ",
      "મ</w>"
    ],
    [
      "ટી",
      "ના</w>"
    ],
    [
      "વે",
      "ર</w>"
    ],
    [
      "મહિ",
      "ના</w>"
    ],
    [
      "નો",
      "ને</w>"
    ],
    [
      "નિ",
      "ત</w>"
    ],
    [
      "ગય",
      "ો.</w>"
    ],
    [
      "હ",
      "ૃ"
    ],
    [
      "ખ",
      "્રિ"
    ],
    [
      "કુ",
      "દર"
    ],
    [
      "૭",
      "</w>"
    ],
    [
      "સ",
      "ેલ્"
    ],
    [
      "વ",
      "ડા</w>"
    ],
    [
      "શ",
      "સ્ત્ર"
    ],
    [
      "વ",
      "ડા"
    ],
    [
      "ય",
      "ની</w>"
    ],
    [
      "વાસ્ત",
      "વિક</w>"
    ],
    [
      "ટે",
      "કો</w>"
    ],
    [
      "રી",
      "ના</w>"
    ],
    [
      "સ",
      "થી</w>"
    ],
    [
      "ભગ",
      "વાન</w>"
    ],
    [
      "શો",
      "ધ</w>"
    ],
    [
      "પ",
      "ાર"
    ],
    [
      "છેલ્",
      "લા</w>"
    ],
    [
      "ઓળખા",
      "ય</w>"
    ],
    [
      "કુદર",
      "તી</w>"
    ],
    [
      "અ",
      "ગ્ર"
    ],
    [
      "જિલ્લા",
      "ના</w>"
    ],
    [
      "દાખ",
      "લ</w>"
    ],
    [
      "ક",
      "ૌ"
    ],
    [
      "મર્યા",
      "દિત</w>"
    ],
    [
      "પહે",
      "ર"
    ],
    [
      "સ",
      "્રો"
    ],
    [
      "સમ",
      "ૂ"
    ],
    [
      "હૃ",
      "દ"
    ],
    [
      "ય",
      "ી</w>"
    ],
    [
      "હો",
      "કી</w>"
    ],
    [
      "કબ",
      "જો</w>"
    ],
    [
      "ભ",
      "ુ"
    ],
    [
      "દર્શા",
      "વવામાં</w>"
    ],
    [
      "પવિ",
      "ત્ર</w>"
    ],
    [
      "આવ",
      "ેલ</w>"
    ],
    [
      "ઓક્ટો",
      "બર</w>"
    ],
    [
      "બં",
      "ને"
    ],
    [
      "આવ",
      "રી</w>"
    ],
    [
      "પહોંચ",
      "ી</w>"
    ],
    [
      "પામ",
      "્યા</w>"
    ],
    [
      "એટ",
      "લે</w>"
    ],
    [
      "1",
      "3</w>"
    ],
    [
      "ઓ",
      "ર્"
    ],
    [
      "જ",
      "િત</w>"
    ],
    [
      "બિ",
      "ન-"
    ],
    [
      "ઝ",
      "ર્"
    ],
    [
      "ંચા",
      "ઈ</w>"
    ],
    [
      "ભા",
      "વ</w>"
    ],
    [
      "દે",
      "વામાં</w>"
    ],
    [
      "ઢ",
      "ા"
    ],
    [
      "ઓછ",
      "ું</w>"
    ],
    [
      "જોઈ",
      "એ</w>"
    ],
    [
      "મે",
      "ને"
    ],
    [
      "સ્વ",
      "તંત્ર"
    ],
    [
      "નિ",
      "શ્ચ"
    ],
    [
      "સહા",
      "યક</w>"
    ],
    [
      "હોસ્પિ",
      "ટ"
    ],
    [
      "જ્",
      "હો"
    ],
    [
      "શ્",
      "મી"
    ],
    [
      "ફ",
      "ક્ત</w>"
    ],
    [
      "પ્રમાણ",
      "માં</w>"
    ],
    [
      "બ",
      "હે"
    ],
    [
      "વ",
      "ણી"
    ],
    [
      "હત",
      "્યા</w>"
    ],
    [
      "ઈ",
      "રા"
    ],
    [
      "અનુભ",
      "વ</w>"
    ],
    [
      "શાસ્ત્ર",
      "ીય</w>"
    ],
    [
      "ડિ",
      "સ્"
    ],
    [
      "યો",
      "ગ</w>"
    ],
    [
      "બદ",
      "લ"
    ],
    [
      "િય",
      "ર</w>"
    ],
    [
      "ળા",
      "ના</w>"
    ],
    [
      "વર્",
      "ગી"
    ],
    [
      "ચૂ",
      "ંટા"
    ],
    [
      "સિં",
      "હ</w>"
    ],
    [
      "નેતૃ",
      "ત્વ</w>"
    ],
    [
      "અવ",
      "રો"
    ],
    [
      "જર્",
      "મની"
    ],
    [
      "નાણા",
      "ં</w>"
    ],
    [
      "બ",
      "તા"
    ],
    [
      "ટુ",
      "ક"
    ],
    [
      "એ",
      "ન્ડ</w>"
    ],
    [
      "વા",
      "ળી</w>"
    ],
    [
      "ષ્",
      "ટ"
    ],
    [
      "સમુ",
      "દાય"
    ],
    [
      "વૈ",
      "જ્ઞા"
    ],
    [
      "1",
      "00</w>"
    ],
    [
      "કો",
      "ન્"
    ],
    [
      "તી",
      "વ"
    ],
    [
      "ભ",
      "ંડ"
    ],
    [
      "જ",
      "મા"
    ],
    [
      "બ",
      "ૂ"
    ],
    [
      "સંપર્",
      "ક</w>"
    ],
    [
      "ફા",
      "ઈ"
    ],
    [
      "દી",
      "ની</w>"
    ],
    [
      "વ",
      "લ"
    ],
    [
      "સાર",
      "ા</w>"
    ],
    [
      "વહ",
      "ન</w>"
    ],
    [
      "ફેબ્રુઆ",
      "રી</w>"
    ],
    [
      "બાંધ",
      "વામાં</w>"
    ],
    [
      "૬",
      "</w>"
    ],
    [
      "ચૂંટ",
      "ણી</w>"
    ],
    [
      "સાંભ",
      "ળ"
    ],
    [
      "સં",
      "સ્થા</w>"
    ],
    [
      "ંગ",
      ",</w>"
    ],
    [
      "મ",
      "ેલ"
    ],
    [
      "જ્યો",
      "ર્"
    ],
    [
      "પુરુષ",
      "ો</w>"
    ],
    [
      "પ્",
      "લા"
    ],
    [
      "સ",
      "દી</w>"
    ],
    [
      "બે",
      "ક્"
    ],
    [
      "ઓછ",
      "ો</w>"
    ],
    [
      "વધ",
      "ાર"
    ],
    [
      "આ",
      "રોગ"
    ],
    [
      "એ",
      "."
    ],
    [
      "ચ",
      "ર</w>"
    ],
    [
      "ગુ",
      "ણ"
    ],
    [
      "જણા",
      "વ્યા</w>"
    ],
    [
      "તે",
      "વા</w>"
    ],
    [
      "કાર",
      "ક</w>"
    ],
    [
      "સ્ત",
      "ર</w>"
    ],
    [
      "ઉદ",
      "્યા"
    ],
    [
      "વિજ",
      "ય</w>"
    ],
    [
      "પછ",
      "ીના</w>"
    ],
    [
      "આ",
      "શ્ર"
    ],
    [
      "પ્રશં",
      "સા</w>"
    ],
    [
      "જે",
      "નાથી</w>"
    ],
    [
      "પ્રદેશ",
      "ના</w>"
    ],
    [
      "કા",
      "દ"
    ],
    [
      "હા",
      "ઇ"
    ],
    [
      "3",
      "ના</w>"
    ],
    [
      "ં",
      "ધ</w>"
    ],
    [
      "બો",
      "લ"
    ],
    [
      "ઓગ",
      "સ્ટ</w>"
    ],
    [
      "ષ",
      "ણ</w>"
    ],
    [
      "કા",
      "શ્મી"
    ],
    [
      "ો",
      "નું</w>"
    ],
    [
      "નજી",
      "કના</w>"
    ],
    [
      "વા",
      "ન"
    ],
    [
      "5",
      "ના</w>"
    ],
    [
      "રા",
      "ય"
    ],
    [
      "ઇ",
      "ંગ્લેન્ડ"
    ],
    [
      "લીધ",
      "ી</w>"
    ],
    [
      "ઠ",
      "ી</w>"
    ],
    [
      "હિન્",
      "દુ</w>"
    ],
    [
      "ખુ",
      "લ્"
    ],
    [
      "2",
      "4</w>"
    ],
    [
      "પાછળ",
      "થી</w>"
    ],
    [
      "સમ",
      "ૃ"
    ],
    [
      "અ",
      "મે</w>"
    ],
    [
      "કમ્પ્યુ",
      "ટર</w>"
    ],
    [
      "ઉપરા",
      "ંત,</w>"
    ],
    [
      "ડ",
      "ના</w>"
    ],
    [
      "પ્રમુખ",
      "</w>"
    ],
    [
      "બી",
      "જો</w>"
    ],
    [
      "નિશ્ચ",
      "િત</w>"
    ],
    [
      "સૂચ",
      "વે</w>"
    ],
    [
      "પ",
      "લ્"
    ],
    [
      "તમિ",
      "લ</w>"
    ],
    [
      "જુ",
      "લાઈ"
    ],
    [
      "લિ",
      "ન</w>"
    ],
    [
      "અંગ્રે",
      "જી</w>"
    ],
    [
      "વા",
      "સ"
    ],
    [
      "વા",
      "ઈ"
    ],
    [
      "આ",
      "ત્"
    ],
    [
      "૮",
      "</w>"
    ],
    [
      "ટ",
      "્યુ"
    ],
    [
      "કાઉન્",
      "ટીમાં</w>"
    ],
    [
      "પ્રધા",
      "ન</w>"
    ],
    [
      "વર્",
      "તન</w>"
    ],
    [
      "સાર",
      "ું</w>"
    ],
    [
      "ડ",
      ",</w>"
    ],
    [
      "ચેમ્પિયનશિ",
      "પ</w>"
    ],
    [
      "નિ",
      "દાન</w>"
    ],
    [
      "પસંદ",
      "ગી</w>"
    ],
    [
      "તો",
      "ને</w>"
    ],
    [
      "ફ",
      "ર</w>"
    ],
    [
      "આવ",
      "તું</w>"
    ],
    [
      "પાડ",
      "વામાં</w>"
    ],
    [
      "દર્",
      "શ"
    ],
    [
      "તુ",
      "લ"
    ],
    [
      "ંગ",
      "ા</w>"
    ],
    [
      "પ્",
      "પ"
    ],
    [
      "હ",
      "ો</w>"
    ],
    [
      "સંખ્યા",
      "માં</w>"
    ],
    [
      "લ",
      "ઈને</w>"
    ],
    [
      "ણ",
      "ું</w>"
    ],
    [
      "મિ",
      "ન</w>"
    ],
    [
      "ટિ",
      "વ</w>"
    ],
    [
      "નદી",
      "ઓ</w>"
    ],
    [
      "કો",
      "ડ</w>"
    ],
    [
      "રેકોર્",
      "ડ</w>"
    ],
    [
      "પ",
      "દ</w>"
    ],
    [
      "સરકાર",
      "ે</w>"
    ],
    [
      "આન",
      "ંદ"
    ],
    [
      "નિ",
      "વૃત્"
    ],
    [
      "કર",
      "ોડ"
    ],
    [
      "ત",
      "ૂ"
    ],
    [
      "રાખ",
      "વા</w>"
    ],
    [
      "1",
      ","
    ],
    [
      "્ય",
      "ૂ"
    ],
    [
      "કેન્",
      "સર"
    ],
    [
      "તમા",
      "રું</w>"
    ],
    [
      "તાલી",
      "મ</w>"
    ],
    [
      "બો",
      "લા"
    ],
    [
      "પા",
      "ંડ"
    ],
    [
      "ધ",
      "્"
    ],
    [
      "દ",
      "સ</w>"
    ],
    [
      "દ્",
      "ધિ</w>"
    ],
    [
      "અ",
      "લ</w>"
    ],
    [
      "કે",
      "સ</w>"
    ],
    [
      "ડા",
      "ઉ"
    ],
    [
      "સ્વીડ",
      "નમાં</w>"
    ],
    [
      "ઢ",
      "</w>"
    ],
    [
      "જાણી",
      "તું</w>"
    ],
    [
      "નિય",
      "ુ"
    ],
    [
      "વ",
      "વાની</w>"
    ],
    [
      "ી",
      "ઓને</w>"
    ],
    [
      "પા",
      "ડે</w>"
    ],
    [
      "ના",
      "નું</w>"
    ],
    [
      "ઉ",
      "પર</w>"
    ],
    [
      "રહ",
      "્યાં</w>"
    ],
    [
      "ન્",
      "ટે"
    ],
    [
      "નૃ",
      "ત્ય"
    ],
    [
      "સાથે",
      "ના</w>"
    ],
    [
      "મ",
      "તી</w>"
    ],
    [
      "એ",
      "સો"
    ],
    [
      "ફ્રેન્",
      "ચ</w>"
    ],
    [
      "હ",
      "ળ"
    ],
    [
      "દેશ",
      "ના</w>"
    ],
    [
      "મે",
      "ડ"
    ],
    [
      "ના",
      ",</w>"
    ],
    [
      "ઘ",
      "ણાં</w>"
    ],
    [
      "ત્વ",
      "માં</w>"
    ],
    [
      "અસરકાર",
      "ક</w>"
    ],
    [
      "પત્",
      "ની</w>"
    ],
    [
      "ત",
      "ો,</w>"
    ],
    [
      "વ",
      "ગા"
    ],
    [
      "પ",
      "લ</w>"
    ],
    [
      "દ",
      "સ્તા"
    ],
    [
      "દસ્તા",
      "વે"
    ],
    [
      "બો",
      "ર્ડ</w>"
    ],
    [
      "પ",
      "થ્થ"
    ],
    [
      "વપરા",
      "શ"
    ],
    [
      "બે",
      "ંક</w>"
    ],
    [
      "્યા",
      ",</w>"
    ],
    [
      "ભજ",
      "વી</w>"
    ],
    [
      "શા",
      "હ</w>"
    ],
    [
      "માર્",
      "ચ"
    ],
    [
      "ં",
      "તિ</w>"
    ],
    [
      "વાર્",
      "તા</w>"
    ],
    [
      "નિય",
      "મિત</w>"
    ],
    [
      "ેશ",
      "</w>"
    ],
    [
      "સમ",
      "જા"
    ],
    [
      "ક",
      "વિ"
    ],
    [
      "વિ",
      "ભાગ"
    ],
    [
      "નુ",
      "ષ"
    ],
    [
      "ટ્ર",
      "િ"
    ],
    [
      "લિ",
      "વ"
    ],
    [
      "અ",
      "ફ"
    ],
    [
      "નો",
      "માં</w>"
    ],
    [
      "ક",
      "ટિ"
    ],
    [
      "ના",
      "માં"
    ],
    [
      "ક",
      "ૉ"
    ],
    [
      "ના",
      "ત્મક</w>"
    ],
    [
      "ગો",
      "લ"
    ],
    [
      "યુ",
      "."
    ],
    [
      "આ",
      "ઠ</w>"
    ],
    [
      "સં",
      "યુક્ત</w>"
    ],
    [
      "વેચા",
      "ણ</w>"
    ],
    [
      "મોટાભાગ",
      "ે</w>"
    ],
    [
      "ર",
      "વિ"
    ],
    [
      "થ",
      "તી</w>"
    ],
    [
      "પ",
      "ત"
    ],
    [
      "પિ",
      "ંગ</w>"
    ],
    [
      "લિ",
      "નો"
    ],
    [
      "ઓ",
      "માં,</w>"
    ],
    [
      "સમ",
      "્રા"
    ],
    [
      "પ્ર",
      "વેશ"
    ],
    [
      "વિ",
      "જે"
    ],
    [
      "સ્ટે",
      "ટ્સ</w>"
    ],
    [
      "જા",
      "તિ"
    ],
    [
      "વા",
      "ઇ"
    ],
    [
      "ક્ર",
      "મે</w>"
    ],
    [
      "વહ",
      "ે</w>"
    ],
    [
      "આ",
      "શ્ચ"
    ],
    [
      "સં",
      "દર્"
    ],
    [
      "વા",
      "ંચ"
    ],
    [
      "દ્",
      "દા"
    ],
    [
      "સ",
      "ેલ"
    ],
    [
      "ખા",
      "નગી</w>"
    ],
    [
      "બિ",
      "ન"
    ],
    [
      "હ",
      "સ્ત"
    ],
    [
      "સમુ",
      "દા"
    ],
    [
      "મુ",
      "જ"
    ],
    [
      "રેલ",
      "વે</w>"
    ],
    [
      "વધ",
      "ી</w>"
    ],
    [
      "શિક્ષ",
      "ણ</w>"
    ],
    [
      "્ય",
      "ો,</w>"
    ],
    [
      "મા",
      "તા</w>"
    ],
    [
      "વ્ય",
      "વહ"
    ],
    [
      "થ",
      "િ"
    ],
    [
      "મ",
      "ત"
    ],
    [
      "મ",
      "ર્"
    ],
    [
      "યા",
      "દ</w>"
    ],
    [
      "મુ",
      "જબ"
    ],
    [
      "શહે",
      "રની</w>"
    ],
    [
      "ની",
      "ચે"
    ],
    [
      "ફિ",
      "લિ"
    ],
    [
      "ઝ",
      "ા</w>"
    ],
    [
      "લેન્ડ",
      "માં</w>"
    ],
    [
      "સ્થા",
      "ને</w>"
    ],
    [
      "પૂ",
      "ર</w>"
    ],
    [
      "રમ",
      "તમાં</w>"
    ],
    [
      "પો",
      "લિ"
    ],
    [
      "એશ",
      "િયન</w>"
    ],
    [
      "ર્",
      "ન</w>"
    ],
    [
      "ટ",
      "ી.</w>"
    ],
    [
      "મૂળ",
      "ભૂત</w>"
    ],
    [
      "ગ",
      "લ</w>"
    ],
    [
      "મા",
      "ધ્ય"
    ],
    [
      "વાર",
      "ં"
    ],
    [
      "પ",
      "તિ"
    ],
    [
      "સામ્રાજ",
      "્ય</w>"
    ],
    [
      "જાળ",
      "વી</w>"
    ],
    [
      "કિ",
      "ન"
    ],
    [
      "કૃ",
      "ષિ"
    ],
    [
      "પ",
      "િત</w>"
    ],
    [
      "પ્ર",
      "કાર</w>"
    ],
    [
      "કાર્",
      "ડ</w>"
    ],
    [
      "મ્યુ",
      "નિ"
    ],
    [
      "વિ",
      "ટા"
    ],
    [
      "જ",
      "ેલ"
    ],
    [
      "દે",
      "વ</w>"
    ],
    [
      "ક",
      "પ</w>"
    ],
    [
      "વિરો",
      "ધ</w>"
    ],
    [
      "નિર્ણ",
      "ય</w>"
    ],
    [
      "ઘ",
      "ુ"
    ],
    [
      "બી",
      "જું</w>"
    ],
    [
      "ક",
      "થ"
    ],
    [
      "હતા",
      "ં,</w>"
    ],
    [
      "જરૂ",
      "રિયા"
    ],
    [
      "નિય",
      "ન</w>"
    ],
    [
      "સાર",
      "વાર"
    ],
    [
      "થય",
      "ેલા</w>"
    ],
    [
      "પ્ર",
      "તી"
    ],
    [
      "ંત",
      "ર</w>"
    ],
    [
      "આવ",
      "શે.</w>"
    ],
    [
      "સ્ટ",
      "ાર</w>"
    ],
    [
      "નિયંત્ર",
      "િત</w>"
    ],
    [
      "સ્ત",
      "રે</w>"
    ],
    [
      "ંગ",
      "માં</w>"
    ],
    [
      "ં",
      "ની</w>"
    ],
    [
      "સરકાર",
      "ી</w>"
    ],
    [
      "બ",
      "ી.</w>"
    ],
    [
      "જ",
      "ળ"
    ],
    [
      "ો",
      "થી</w>"
    ],
    [
      "પ્રાથ",
      "મિક</w>"
    ],
    [
      "દા",
      "લ"
    ],
    [
      "બન્",
      "ને</w>"
    ],
    [
      "મ",
      "ન"
    ],
    [
      "4",
      "0</w>"
    ],
    [
      "ધ",
      "ૂ"
    ],
    [
      "ફિલ્",
      "મનું</w>"
    ],
    [
      "યા",
      "દી</w>"
    ],
    [
      "ઓલિ",
      "મ્પિ"
    ],
    [
      "સ્ત",
      "ુ"
    ],
    [
      "અંત",
      "માં</w>"
    ],
    [
      "રિ",
      "પબ્"
    ],
    [
      "આવ",
      "ું</w>"
    ],
    [
      "નિય",
      "મો</w>"
    ],
    [
      "કા",
      "ળ"
    ],
    [
      "ભા",
      "ઈ</w>"
    ],
    [
      "લા",
      "હો"
    ],
    [
      "સિ",
      "ને"
    ],
    [
      "19",
      "</w>"
    ],
    [
      "ફિલ્",
      "મો</w>"
    ],
    [
      "લાંબ",
      "ી</w>"
    ],
    [
      "હિ",
      "સ્સો</w>"
    ],
    [
      "મુજ",
      "બ</w>"
    ],
    [
      "સ",
      "ક્રિય</w>"
    ],
    [
      "ટો",
      "ચ</w>"
    ],
    [
      "સ્",
      "ક"
    ],
    [
      "સ્વ",
      "તંત્ર</w>"
    ],
    [
      "2",
      "2</w>"
    ],
    [
      "હતા",
      "ં</w>"
    ],
    [
      "ગુ",
      "લા"
    ],
    [
      "ત્ર",
      "ા</w>"
    ],
    [
      "મો",
      "હ"
    ],
    [
      "વિ",
      "જ્ઞા"
    ],
    [
      "જુ",
      "દા</w>"
    ],
    [
      "મુજબ",
      ",</w>"
    ],
    [
      "ની",
      "ઝ</w>"
    ],
    [
      "વેપ",
      "ાર</w>"
    ],
    [
      "નિયુ",
      "ક્ત</w>"
    ],
    [
      "મિ",
      "શ"
    ],
    [
      "કી",
      "ની</w>"
    ],
    [
      "ર",
      "િયન</w>"
    ],
    [
      "સંસ્",
      "કૃતિ"
    ],
    [
      "વિ",
      "ષ્ણ"
    ],
    [
      "મદ",
      "દ"
    ],
    [
      "કાય",
      "દે"
    ],
    [
      "દે",
      "વી</w>"
    ],
    [
      "ગે",
      "મ</w>"
    ],
    [
      "બચ",
      "ત</w>"
    ],
    [
      "દે",
      "રા"
    ],
    [
      "પોતા",
      "નું</w>"
    ],
    [
      "સ",
      "દ"
    ],
    [
      "સ",
      "વાર"
    ],
    [
      "સમર્થ",
      "ન</w>"
    ],
    [
      "સ્થ",
      "ળા"
    ],
    [
      "રહ",
      "ેલા</w>"
    ],
    [
      "ઝ",
      "ુ"
    ],
    [
      "પા",
      "ંચ"
    ],
    [
      "ઓગ",
      "સ્ટ"
    ],
    [
      "મે",
      "ન્"
    ],
    [
      "તા",
      "ઓને</w>"
    ],
    [
      "હ",
      "ારી</w>"
    ],
    [
      "ન્ટ",
      "ર</w>"
    ],
    [
      "ઓક્ટો",
      "બ"
    ],
    [
      "ન",
      "ારી</w>"
    ],
    [
      "દ્",
      "વિ"
    ],
    [
      "રા",
      "ત્ર"
    ],
    [
      "ન",
      "િયામાં</w>"
    ],
    [
      "વ્યક્",
      "ત</w>"
    ],
    [
      "વ્યવ",
      "સ્થા</w>"
    ],
    [
      "વર્ષ",
      "ો</w>"
    ],
    [
      "કૃતિ",
      "ક</w>"
    ],
    [
      "ફા",
      "ય"
    ],
    [
      "ાર",
      "ણ"
    ],
    [
      "ધર",
      "પક"
    ],
    [
      "ર",
      "ન</w>"
    ],
    [
      "ચ",
      "ન</w>"
    ],
    [
      "ના",
      "શ</w>"
    ],
    [
      "ય",
      ".</w>"
    ],
    [
      "આધ",
      "ાર</w>"
    ],
    [
      "યુરોપ",
      "િયન</w>"
    ],
    [
      "જા",
      "ણ</w>"
    ],
    [
      "પ્રણા",
      "લી"
    ],
    [
      "સુ",
      "વિધા"
    ],
    [
      "તમિલના",
      "ડુ"
    ],
    [
      "ં",
      "થી</w>"
    ],
    [
      "2020",
      "ના</w>"
    ],
    [
      "એ",
      "સ</w>"
    ],
    [
      "વા",
      "વા"
    ],
    [
      "શા",
      "માં</w>"
    ],
    [
      "મહા",
      "ન</w>"
    ],
    [
      "અ",
      "ક"
    ],
    [
      "સં",
      "કે"
    ],
    [
      "સુ",
      "લ"
    ],
    [
      "કિંમ",
      "ત</w>"
    ],
    [
      "અ",
      "ના"
    ],
    [
      "કુમા",
      "ર</w>"
    ],
    [
      "કાર",
      "્ય</w>"
    ],
    [
      "ગુ",
      "રુ"
    ],
    [
      "થયા",
      "ં</w>"
    ],
    [
      "વ્યક્તિ",
      "ને</w>"
    ],
    [
      "અ",
      "પા"
    ],
    [
      "આલ્",
      "બ"
    ],
    [
      "પુ",
      "ષ્ટિ</w>"
    ],
    [
      "બેક્",
      "ટે"
    ],
    [
      "તક",
      "ની"
    ],
    [
      "એ",
      ",</w>"
    ],
    [
      "વિ",
      "ગ"
    ],
    [
      "આ",
      "મ</w>"
    ],
    [
      "પ્રોત્સાહ",
      "ન</w>"
    ],
    [
      "જ",
      "ુ</w>"
    ],
    [
      "બ",
      "ંદ"
    ],
    [
      "મહિલા",
      "ઓ</w>"
    ],
    [
      "પૂ",
      "છ"
    ],
    [
      "શ",
      "િય"
    ],
    [
      "દિ",
      "ક</w>"
    ],
    [
      "સ્",
      "ક્રી"
    ],
    [
      "અગ્ર",
      "ણી</w>"
    ],
    [
      "ખ",
      "ી</w>"
    ],
    [
      "શિ",
      "વ"
    ],
    [
      "જીવ",
      "ન"
    ],
    [
      "િયા",
      ",</w>"
    ],
    [
      "મા",
      "ઉ"
    ],
    [
      "લેન્ડ",
      "ના</w>"
    ],
    [
      "ડા",
      "ય"
    ],
    [
      "પર",
      "ા</w>"
    ],
    [
      "પૃ",
      "થ્"
    ],
    [
      "ંગ",
      "ે"
    ],
    [
      "તા",
      "નો</w>"
    ],
    [
      "બ્ર",
      "હ્"
    ],
    [
      "ગઢ",
      "</w>"
    ],
    [
      "કે",
      "મ</w>"
    ],
    [
      "યોર્",
      "ક</w>"
    ],
    [
      "જે",
      "વું</w>"
    ],
    [
      "ભ",
      "્ર"
    ],
    [
      "સ્ટ",
      "ુ"
    ],
    [
      "ટ",
      "ર"
    ],
    [
      "પોતા",
      "ને</w>"
    ],
    [
      "ખોરા",
      "ક</w>"
    ],
    [
      "કર",
      "નાર</w>"
    ],
    [
      "વારં",
      "વાર</w>"
    ],
    [
      "મો",
      "ક"
    ],
    [
      "ટૂ",
      "ં"
    ],
    [
      "એક",
      "વાર</w>"
    ],
    [
      "એસો",
      "સિ"
    ],
    [
      "જૂ",
      "ના</w>"
    ],
    [
      "અ",
      "દાલ"
    ],
    [
      "અભિને",
      "તા</w>"
    ],
    [
      "વ",
      "તા</w>"
    ],
    [
      "નો",
      "ની</w>"
    ],
    [
      "સમૃ",
      "દ્ધ</w>"
    ],
    [
      "કર્",
      "તા</w>"
    ],
    [
      "વિ",
      "ભાગ</w>"
    ],
    [
      "ખો",
      "લ"
    ],
    [
      "લં",
      "બા"
    ],
    [
      "ગુ",
      "પ્ત</w>"
    ],
    [
      "મરા",
      "ઠા</w>"
    ],
    [
      "કેટલા",
      "ંક</w>"
    ],
    [
      "જે",
      "નું</w>"
    ],
    [
      "થો",
      "ડી</w>"
    ],
    [
      "અ",
      "ખ"
    ],
    [
      "લો",
      "ન</w>"
    ],
    [
      "બર્",
      "ગ</w>"
    ],
    [
      "ગુજ",
      "રા"
    ],
    [
      "ઠ",
      "્"
    ],
    [
      "મા",
      "ર</w>"
    ],
    [
      "પ",
      "ૌ"
    ],
    [
      "બ",
      "ાર્"
    ],
    [
      "વિ",
      "તર"
    ],
    [
      "રક",
      "મ</w>"
    ],
    [
      "સાર",
      "ો</w>"
    ],
    [
      "માન",
      "્યતા</w>"
    ],
    [
      "પૂર્",
      "વે</w>"
    ],
    [
      "પે",
      "રા"
    ],
    [
      "ગ",
      "રમ</w>"
    ],
    [
      "ફે",
      "ડર"
    ],
    [
      "બ",
      "ેલ્"
    ],
    [
      "બ્રા",
      "ઝિ"
    ],
    [
      "દ",
      "ળ"
    ],
    [
      "આ",
      "નાથી</w>"
    ],
    [
      "ભા",
      "ઈ"
    ],
    [
      "થય",
      "ો.</w>"
    ],
    [
      "આવ",
      "ક</w>"
    ],
    [
      "ભો",
      "જન</w>"
    ],
    [
      "નિ",
      "રા"
    ],
    [
      "િય",
      "ો"
    ],
    [
      "અહેવા",
      "લ</w>"
    ],
    [
      "જગ",
      "્યા</w>"
    ],
    [
      "હ",
      "માં</w>"
    ],
    [
      "દર્",
      "દી"
    ],
    [
      "ળા",
      "ની</w>"
    ],
    [
      "આઈ",
      ".</w>"
    ],
    [
      "ડો",
      "લર</w>"
    ],
    [
      "મા",
      "ની</w>"
    ],
    [
      "સા",
      "બ"
    ],
    [
      "તર",
      "ત</w>"
    ],
    [
      ".એલ",
      "."
    ],
    [
      "વ",
      "્ય</w>"
    ],
    [
      "2",
      "1</w>"
    ],
    [
      "અમેરિ",
      "કામાં</w>"
    ],
    [
      "ર",
      "સ્તા"
    ],
    [
      "ક્",
      "લિ"
    ],
    [
      "એન્",
      "જિ"
    ],
    [
      "ગ",
      "ે</w>"
    ],
    [
      "પડ",
      "્યો</w>"
    ],
    [
      "વિન",
      "ંત"
    ],
    [
      "વિ",
      "રુ"
    ],
    [
      "સ",
      "ાર્"
    ],
    [
      "સ",
      "મિ"
    ],
    [
      "સાથે",
      "ની</w>"
    ],
    [
      "દેખા",
      "ય</w>"
    ],
    [
      "ટી",
      ",</w>"
    ],
    [
      "વ",
      "ત</w>"
    ],
    [
      "તે",
      "ટ"
    ],
    [
      "એ",
      "નિ"
    ],
    [
      "ર",
      "સી"
    ],
    [
      "વિ",
      "ન્ડો"
    ],
    [
      "નાગ",
      "રિક</w>"
    ],
    [
      "ડબ",
      "લ્યુ"
    ],
    [
      "પ્રા",
      "દેશ"
    ],
    [
      "ય",
      ",</w>"
    ],
    [
      "2",
      "3</w>"
    ],
    [
      "અં",
      "તે</w>"
    ],
    [
      "દી",
      "માં</w>"
    ],
    [
      "સમર્",
      "પિત</w>"
    ],
    [
      "મા",
      "રો</w>"
    ],
    [
      "સા",
      "ઉ"
    ],
    [
      "પ્ર",
      "મા"
    ],
    [
      "પર",
      "ે"
    ],
    [
      "પ્ર",
      "ક્રિયા</w>"
    ],
    [
      "સદી",
      "ની</w>"
    ],
    [
      "સિ",
      "ન્ડ્રો"
    ],
    [
      "શહે",
      "રી</w>"
    ],
    [
      "બો",
      "મ્"
    ],
    [
      "ળતા",
      "થી</w>"
    ],
    [
      "કો",
      ",</w>"
    ],
    [
      "ક",
      "થી</w>"
    ],
    [
      "ની",
      "ચ"
    ],
    [
      "સ્પ",
      "દ</w>"
    ],
    [
      "સ",
      "ફે"
    ],
    [
      "કં",
      "ઈ"
    ],
    [
      "વિ",
      "કિ"
    ],
    [
      "હાજ",
      "રી</w>"
    ],
    [
      "બાદ",
      ",</w>"
    ],
    [
      "આ",
      "નો</w>"
    ],
    [
      "અ",
      "શો"
    ],
    [
      "સાહિ",
      "ત્ય"
    ],
    [
      "સ",
      "ત્તા</w>"
    ],
    [
      "ગા",
      "ં"
    ],
    [
      "હ",
      "રિ"
    ],
    [
      "માર",
      "્યા</w>"
    ],
    [
      "આરોગ",
      "્ય</w>"
    ],
    [
      "વ્ય",
      "ૂ"
    ],
    [
      "સે",
      "વાઓ</w>"
    ],
    [
      "ઉ",
      "ડા"
    ],
    [
      "ગુણ",
      "વ"
    ],
    [
      "ત",
      "ત્"
    ],
    [
      "સમુ",
      "દ્ર"
    ],
    [
      "વિશ્વ",
      "ભરમાં</w>"
    ],
    [
      "ષ્ણ",
      "કટિ"
    ],
    [
      "રે",
      "ટિ"
    ],
    [
      "તાપ",
      "માન</w>"
    ],
    [
      "બ",
      "જે"
    ],
    [
      "અધ્ય",
      "ક્ષ</w>"
    ],
    [
      "ભ",
      "રા"
    ],
    [
      "ટ્",
      "સ"
    ],
    [
      "બહ",
      "ાર"
    ],
    [
      "પ્રાદેશ",
      "િક</w>"
    ],
    [
      "ચિ",
      "ત્ર"
    ],
    [
      "ણ",
      "ોમાં</w>"
    ],
    [
      "મ",
      "થી</w>"
    ],
    [
      "તિ",
      "ક</w>"
    ],
    [
      "જ્હો",
      "ન</w>"
    ],
    [
      "ન્",
      "ન</w>"
    ],
    [
      "માર્",
      "શ"
    ],
    [
      "સભ",
      "્યો"
    ],
    [
      "આવ",
      "ૃ"
    ],
    [
      "19",
      "0"
    ],
    [
      "ઉપરા",
      "ંત</w>"
    ],
    [
      "લે",
      ",</w>"
    ],
    [
      "કાયદે",
      "સર</w>"
    ],
    [
      "છે",
      "ઃ</w>"
    ],
    [
      "ખુ",
      "શ</w>"
    ],
    [
      "જા",
      "ઓ</w>"
    ],
    [
      "પ્ર",
      "સ્તુ"
    ],
    [
      "ષ્ણકટિ",
      "બંધ"
    ],
    [
      "તમા",
      "રો</w>"
    ],
    [
      "બ્ર",
      "ો"
    ],
    [
      "બે",
      "ન્ડ</w>"
    ],
    [
      "ધરપક",
      "ડ</w>"
    ],
    [
      "છેલ્",
      "લી</w>"
    ],
    [
      "ણ",
      "નો</w>"
    ],
    [
      "બન",
      "્યું</w>"
    ],
    [
      "સ",
      "ન"
    ],
    [
      "દેશ",
      "ો</w>"
    ],
    [
      "શક",
      "તા</w>"
    ],
    [
      "સાં",
      "સ્"
    ],
    [
      "જુ",
      "લાઈ</w>"
    ],
    [
      "બાજુ",
      "એ</w>"
    ],
    [
      "એસ",
      "."
    ],
    [
      "માઈ",
      "ક્રો"
    ],
    [
      "સ્",
      "પોર્"
    ],
    [
      "ચેમ્પિયનશિ",
      "પ"
    ],
    [
      "રાખ",
      "ી</w>"
    ],
    [
      "યુદ્ધ",
      "માં</w>"
    ],
    [
      "કર",
      "વાના</w>"
    ],
    [
      "ચ",
      "્યુ"
    ],
    [
      "પૂર",
      "ું</w>"
    ],
    [
      "ર",
      "ત</w>"
    ],
    [
      "રા",
      "જ</w>"
    ],
    [
      "ણ",
      "િ"
    ],
    [
      "ગયા",
      ".</w>"
    ],
    [
      "બ",
      "ા</w>"
    ],
    [
      "ફ",
      "ર્"
    ],
    [
      "સ",
      "ક્ષમ</w>"
    ],
    [
      "ઓર્ડ",
      "ર</w>"
    ],
    [
      "ક્ષમ",
      "તા</w>"
    ],
    [
      "શ",
      "ારી"
    ],
    [
      "ના",
      "ઈ"
    ],
    [
      "કે",
      "શ"
    ],
    [
      "ઉ",
      "</w>"
    ],
    [
      "આવૃ",
      "ત્"
    ],
    [
      "ડ",
      "ુ</w>"
    ],
    [
      "ઇ",
      "ન"
    ],
    [
      "ભાગ",
      "ી"
    ],
    [
      "ગો",
      "ઠ"
    ],
    [
      "રહે",
      "વા"
    ],
    [
      "બે",
      "ન્ડ"
    ],
    [
      "સુરક્ષ",
      "િત</w>"
    ],
    [
      "મ",
      "ંગ"
    ],
    [
      "સ્ટે",
      "ડિય"
    ],
    [
      "નો",
      "ના</w>"
    ],
    [
      "સાંસ્",
      "કૃતિક</w>"
    ],
    [
      "સ્કો",
      "ર</w>"
    ],
    [
      "સંશોધ",
      "ન</w>"
    ],
    [
      "રાત્ર",
      "ે</w>"
    ],
    [
      "ઇ",
      "લ</w>"
    ],
    [
      "ન્",
      "સિ"
    ],
    [
      "સિસ્ટ",
      "મ</w>"
    ],
    [
      "નેટવર્",
      "ક</w>"
    ],
    [
      "વિટા",
      "મિન</w>"
    ],
    [
      "સ્થ",
      "</w>"
    ],
    [
      "જન",
      "રલ</w>"
    ],
    [
      "રી",
      "ની</w>"
    ],
    [
      "સ્",
      "ત્ર</w>"
    ],
    [
      "યુ",
      "વાન</w>"
    ],
    [
      "હ",
      "ના</w>"
    ],
    [
      "તી",
      "ર્"
    ],
    [
      "ઉમે",
      "ર"
    ],
    [
      "ટુ",
      "ર્ના"
    ],
    [
      "ડ",
      "ને</w>"
    ],
    [
      "હંમે",
      "શા</w>"
    ],
    [
      "વિધા",
      "ન"
    ],
    [
      "લ",
      "ેશ"
    ],
    [
      "વ",
      "ત"
    ],
    [
      "ક્",
      "ત"
    ],
    [
      "ૂ",
      "ક</w>"
    ],
    [
      "સુધ",
      "ારો</w>"
    ],
    [
      "પા",
      "લન</w>"
    ],
    [
      "તો",
      "ની</w>"
    ],
    [
      "પછી",
      "થી</w>"
    ],
    [
      "લા",
      "ક્ષ"
    ],
    [
      "ઓ",
      "."
    ],
    [
      "વસા",
      "હત"
    ],
    [
      "ષ્ણકટિબંધ",
      "ીય</w>"
    ],
    [
      "કર",
      "ીઓ</w>"
    ],
    [
      "કલા",
      "ક</w>"
    ],
    [
      "સંભા",
      "ળ"
    ],
    [
      "આ",
      "દેશ</w>"
    ],
    [
      "સા",
      "મે"
    ],
    [
      "સિ",
      "દ્ધા"
    ],
    [
      "પ્ર",
      "સિ"
    ],
    [
      "મનો",
      "રં"
    ],
    [
      "વ",
      "ના</w>"
    ],
    [
      "ં",
      "ઘ"
    ],
    [
      "'",
      "માં</w>"
    ],
    [
      "ર",
      "ંગ</w>"
    ],
    [
      "મિનિ",
      "ટ</w>"
    ],
    [
      "હે",
      "રા"
    ],
    [
      "પ",
      "ચાર"
    ],
    [
      "શક્",
      "તિ</w>"
    ],
    [
      "શક",
      "્યતા</w>"
    ],
    [
      "રાજ",
      "વંશ"
    ],
    [
      "બા",
      "ંગ્"
    ],
    [
      "પોતા",
      "નો</w>"
    ],
    [
      "ક",
      "ેલ"
    ],
    [
      "મિ",
      "ત્ર"
    ],
    [
      "વર્",
      "ણ</w>"
    ],
    [
      "વે",
      "ન્"
    ],
    [
      "લો",
      "ક</w>"
    ],
    [
      "લીધ",
      "ા</w>"
    ],
    [
      "વા",
      ",</w>"
    ],
    [
      "ક",
      "ટોક"
    ],
    [
      "ક્રિ",
      "કેટ</w>"
    ],
    [
      "ણી",
      "ઓ</w>"
    ],
    [
      "સે",
      "ના</w>"
    ],
    [
      "ડા",
      "ને</w>"
    ],
    [
      "ખા",
      "ન</w>"
    ],
    [
      "લ",
      "નું</w>"
    ],
    [
      "સલા",
      "હ"
    ],
    [
      "ટા",
      "પુ</w>"
    ],
    [
      "ખ",
      "ો</w>"
    ],
    [
      "શારી",
      "રિક</w>"
    ],
    [
      "પુન",
      "ર્"
    ],
    [
      "ો",
      "માંથી</w>"
    ],
    [
      "એ",
      "મ્"
    ],
    [
      "સે",
      "ક"
    ],
    [
      "આ",
      "ંક"
    ],
    [
      "ટૂ",
      "ંક</w>"
    ],
    [
      "કો",
      "ણ</w>"
    ],
    [
      "ંગ",
      "ના</w>"
    ],
    [
      "વૃ",
      "ક્ષ"
    ],
    [
      "બ",
      "માં</w>"
    ],
    [
      "પ્ર",
      "ગ"
    ],
    [
      "સમા",
      "ર"
    ],
    [
      "જાન્યુઆ",
      "રી,</w>"
    ],
    [
      "કૃ",
      "તિઓ</w>"
    ],
    [
      "પર",
      "ની</w>"
    ],
    [
      "પે",
      "ઢ"
    ],
    [
      "ત",
      "ફા"
    ],
    [
      "મ",
      "ર</w>"
    ],
    [
      "ચર્",
      "ચા</w>"
    ],
    [
      "આવ",
      "તો</w>"
    ],
    [
      "વિ",
      "દેશી</w>"
    ],
    [
      "બાંગ્",
      "લા"
    ],
    [
      "નિર્દેશ",
      "િત</w>"
    ],
    [
      "જ",
      "લ"
    ],
    [
      "ન",
      "ર"
    ],
    [
      "પડ",
      "ો"
    ],
    [
      "દ",
      "ંત"
    ],
    [
      "ગે",
      "મ્"
    ],
    [
      "નો",
      "એ</w>"
    ],
    [
      "જૂ",
      "ની</w>"
    ],
    [
      "તળા",
      "વ</w>"
    ],
    [
      "પે",
      "રિ"
    ],
    [
      "201",
      "0ની</w>"
    ],
    [
      "ંતર",
      "િત</w>"
    ],
    [
      "ફ",
      "ુ"
    ],
    [
      "દરિયા",
      "કાં"
    ],
    [
      "મળ",
      "ીને</w>"
    ],
    [
      "વ",
      "વાનો</w>"
    ],
    [
      "અનુ",
      "સર"
    ],
    [
      "ચો",
      "મા"
    ],
    [
      "ચંદ્ર",
      "ક</w>"
    ],
    [
      "ર",
      "ચા"
    ],
    [
      "ગુ",
      "સ્"
    ],
    [
      "ય",
      "ેલો</w>"
    ],
    [
      "સુ",
      "વર્ણ</w>"
    ],
    [
      "એ",
      "કે"
    ],
    [
      "ટ્",
      "ટ"
    ],
    [
      "ફેરફ",
      "ાર</w>"
    ],
    [
      "વિશ્વ",
      "ના</w>"
    ],
    [
      "અ",
      "લગ"
    ],
    [
      "ધો",
      "રી"
    ],
    [
      "ડુ",
      "ક્"
    ],
    [
      "ન",
      "િયાના</w>"
    ],
    [
      "મ",
      "નુષ"
    ],
    [
      "કિ",
      "શો"
    ],
    [
      "ટિ",
      "સ</w>"
    ],
    [
      "દીધ",
      "ી</w>"
    ],
    [
      "ઓફિ",
      "સ</w>"
    ],
    [
      "બ",
      "રા"
    ],
    [
      "માટે",
      "નું</w>"
    ],
    [
      "ક્",
      "ટો"
    ],
    [
      "ડિ",
      "ંગ</w>"
    ],
    [
      "પુ",
      "ખ્"
    ],
    [
      "નગરપાલિ",
      "કાનો</w>"
    ],
    [
      "વિન્ડો",
      "ઝ</w>"
    ],
    [
      "પહ",
      "ેલી</w>"
    ],
    [
      "દિ",
      "ગ્"
    ],
    [
      "ન",
      "વા"
    ],
    [
      "પરિ",
      "સ્થિતિ"
    ],
    [
      "ફ",
      "ટ"
    ],
    [
      "પુરા",
      "વા</w>"
    ],
    [
      "દ્",
      "ધિ"
    ],
    [
      "દિવ",
      "સની</w>"
    ],
    [
      "મ",
      "ક</w>"
    ],
    [
      "લાગ",
      "ુ</w>"
    ],
    [
      "શ",
      "ો.</w>"
    ],
    [
      "સાઇ",
      "ટ</w>"
    ],
    [
      "તીવ",
      "્ર</w>"
    ],
    [
      "જાણ",
      "વા</w>"
    ],
    [
      "વિરુ",
      "દ્ધ</w>"
    ],
    [
      "ખે",
      "ંચ"
    ],
    [
      "વિ",
      "વેચ"
    ],
    [
      "ડી",
      "ઓ</w>"
    ],
    [
      "સુરક્ષ",
      "ા</w>"
    ],
    [
      "વિ",
      "શિ"
    ],
    [
      "વ્યવસા",
      "ય</w>"
    ],
    [
      "પ",
      "ત્ર</w>"
    ],
    [
      "ાર",
      "માં</w>"
    ],
    [
      "સફે",
      "દ</w>"
    ],
    [
      "વ",
      "વાનું</w>"
    ],
    [
      "યુ",
      ".</w>"
    ],
    [
      "ડે",
      "વિ"
    ],
    [
      "ડિ",
      "ગ્રી</w>"
    ],
    [
      "આશ્ચ",
      "ર્ય"
    ],
    [
      "બા",
      "યો"
    ],
    [
      "પચાર",
      "િક</w>"
    ],
    [
      "વ",
      "ગે"
    ],
    [
      "વ",
      "ની</w>"
    ],
    [
      "ટ",
      "કી</w>"
    ],
    [
      "્ય",
      "ું,</w>"
    ],
    [
      "ઘટ",
      "ના"
    ],
    [
      "પહેલા",
      "ં,</w>"
    ],
    [
      "લ",
      "િયન</w>"
    ],
    [
      "અ",
      "નિ"
    ],
    [
      "રા",
      "હ</w>"
    ],
    [
      "ગુસ્",
      "સે</w>"
    ],
    [
      "કૃષિ",
      "</w>"
    ],
    [
      "કંપની",
      "ઓ</w>"
    ],
    [
      "વ",
      "ેલ"
    ],
    [
      "ત્વ",
      "ચા"
    ],
    [
      "દિલ્હી",
      "માં</w>"
    ],
    [
      "વચ્ચે",
      "ના</w>"
    ],
    [
      "અપ",
      "ના"
    ],
    [
      "સિ",
      "ંધ"
    ],
    [
      "આ",
      "ંત"
    ],
    [
      "તે",
      "વું</w>"
    ],
    [
      "જર્",
      "મન</w>"
    ],
    [
      "માર્ચ",
      ",</w>"
    ],
    [
      "વિજે",
      "તા</w>"
    ],
    [
      "ળ",
      ",</w>"
    ],
    [
      "6",
      "0</w>"
    ],
    [
      "સે",
      "ટ</w>"
    ],
    [
      "ઈ",
      ",</w>"
    ],
    [
      "વધુ",
      "માં,</w>"
    ],
    [
      "ના",
      "થ"
    ],
    [
      "પશ્ચિ",
      "મમાં</w>"
    ],
    [
      "ટી",
      "મો</w>"
    ],
    [
      "હાઉ",
      "સ</w>"
    ],
    [
      "ગ",
      "રી"
    ],
    [
      "હ",
      "ર્"
    ],
    [
      "જ",
      "ટિ"
    ],
    [
      "2",
      "6</w>"
    ],
    [
      "કુ",
      "શ"
    ],
    [
      "વે",
      "સ્ટ</w>"
    ],
    [
      "સ",
      "રો"
    ],
    [
      "ઉ",
      "ષ્ણકટિબંધીય</w>"
    ],
    [
      "મણિ",
      "પુ"
    ],
    [
      "પો",
      "ઈ"
    ],
    [
      "દીધ",
      "ું</w>"
    ],
    [
      "ત",
      "નો</w>"
    ],
    [
      "વિ",
      "પરી"
    ],
    [
      "શ્",
      "વ"
    ],
    [
      "વ",
      "ને</w>"
    ],
    [
      "રે",
      ",</w>"
    ],
    [
      "વર્ષ",
      "માં</w>"
    ],
    [
      "ફિલ્",
      "મને</w>"
    ],
    [
      "પરિ",
      "ષ"
    ],
    [
      "મા",
      "રે</w>"
    ],
    [
      "ંગ",
      "ની</w>"
    ],
    [
      "ઠ",
      "ો</w>"
    ],
    [
      "લોકો",
      "ના</w>"
    ],
    [
      "સં",
      "પત્"
    ],
    [
      "જવાબદ",
      "ાર</w>"
    ],
    [
      "કા",
      "લીન</w>"
    ],
    [
      "વિ",
      "દ્"
    ],
    [
      "ન",
      "ક</w>"
    ],
    [
      "ન્ડ",
      "િ"
    ],
    [
      "સ્ટે",
      "ટ</w>"
    ],
    [
      "શૈ",
      "લી</w>"
    ],
    [
      "ઈસ",
      "વી"
    ],
    [
      "પરીક્ષ",
      "ણ</w>"
    ],
    [
      "હો",
      "ટ"
    ],
    [
      "ી",
      "એ</w>"
    ],
    [
      "ભ",
      "વિષ"
    ],
    [
      "વિવિ",
      "ધ"
    ],
    [
      "અવા",
      "જ</w>"
    ],
    [
      "ઉત્",
      "તરી"
    ],
    [
      "ગય",
      "ું.</w>"
    ],
    [
      "મા",
      "થા"
    ],
    [
      "ધ",
      "ું</w>"
    ],
    [
      "જુ",
      "દી</w>"
    ],
    [
      "સં",
      "વેદ"
    ],
    [
      ",",
      "૦"
    ],
    [
      "તા",
      "ન</w>"
    ],
    [
      "સર",
      "ળતાથી</w>"
    ],
    [
      "હો",
      "વાથી</w>"
    ],
    [
      "ંદ",
      "ા</w>"
    ],
    [
      "બિ",
      "ંદ"
    ],
    [
      "સ્વતંત્ર",
      "તા</w>"
    ],
    [
      "સ્ટ્ર",
      "ી"
    ],
    [
      "કૃ",
      "ષ્ણ"
    ],
    [
      "લ",
      "-"
    ],
    [
      "સં",
      "યોજ"
    ],
    [
      "એન",
      "."
    ],
    [
      "ર",
      "સ"
    ],
    [
      "ન",
      "ી,</w>"
    ],
    [
      "તા",
      "એ</w>"
    ],
    [
      "જ",
      "મ"
    ],
    [
      "ટ",
      "ન"
    ],
    [
      "સ્",
      "માર"
    ],
    [
      "ષ",
      "ા"
    ],
    [
      "સુધ",
      "ી,</w>"
    ],
    [
      "વ",
      "ેલ્"
    ],
    [
      "મી",
      "ડિયા</w>"
    ],
    [
      "મા",
      "છ"
    ],
    [
      "પ્ર",
      "િય"
    ],
    [
      "ન",
      "હે"
    ],
    [
      "ત્રી",
      "જી</w>"
    ],
    [
      "શે",
      "ર</w>"
    ],
    [
      "સમ્રા",
      "ટ</w>"
    ],
    [
      "ટી",
      "મના</w>"
    ],
    [
      "ભ",
      "લા"
    ],
    [
      "સિ",
      "વાય</w>"
    ],
    [
      "ગ",
      "ન</w>"
    ],
    [
      "કા",
      "પ"
    ],
    [
      "ઉત્તરી",
      "ય</w>"
    ],
    [
      "જણા",
      "વે</w>"
    ],
    [
      "સુધ",
      "ાર"
    ],
    [
      "પે",
      "દા</w>"
    ],
    [
      "મે",
      "ક્સિ"
    ],
    [
      "ક્",
      "તિ</w>"
    ],
    [
      ".એફ",
      "."
    ],
    [
      "માર્શ",
      "લ</w>"
    ],
    [
      "તા",
      "લુ"
    ],
    [
      "લ",
      ")</w>"
    ],
    [
      "લખ",
      "વામાં</w>"
    ],
    [
      "પ્રજા",
      "તિઓ</w>"
    ],
    [
      "ક્ષ",
      "ર</w>"
    ],
    [
      "ના",
      "થ</w>"
    ],
    [
      "મ",
      "લ્"
    ],
    [
      "શ",
      "ર્"
    ],
    [
      "જ",
      "ઈ</w>"
    ],
    [
      "સં",
      "રક્ષ"
    ],
    [
      "જ",
      "વામાં</w>"
    ],
    [
      "ફિલ્",
      "મો"
    ],
    [
      "કિન",
      "ારે</w>"
    ],
    [
      "લો",
      "જી"
    ],
    [
      "ક્યાર",
      "ેક</w>"
    ],
    [
      "આ",
      "દિ"
    ],
    [
      "ખ",
      "સે"
    ],
    [
      "ળ",
      "ું</w>"
    ],
    [
      "વધારા",
      "ના</w>"
    ],
    [
      "ચા",
      "લે</w>"
    ],
    [
      "રિપબ્",
      "લિ"
    ],
    [
      "બ",
      "ેલ"
    ],
    [
      "સ",
      "વારે</w>"
    ],
    [
      "ભંડ",
      "ો"
    ],
    [
      "દ",
      "ની</w>"
    ],
    [
      "રહે",
      "વા</w>"
    ],
    [
      "સામ્રાજ્ય",
      "ના</w>"
    ],
    [
      "પ્રેર",
      "િત</w>"
    ],
    [
      "પર",
      "્યા"
    ],
    [
      "લી",
      "ના</w>"
    ],
    [
      "ગ",
      "ાર્"
    ],
    [
      "ઈ",
      "ન"
    ],
    [
      "ગર્",
      "ભ"
    ],
    [
      "સંસ્થા",
      "ઓ</w>"
    ],
    [
      "રાજ",
      "સ્થા"
    ],
    [
      "નિ",
      "શા"
    ],
    [
      "ગવર્",
      "નર</w>"
    ],
    [
      "ધો",
      "ધ</w>"
    ],
    [
      "વાહ",
      "ન</w>"
    ],
    [
      "સોફ્ટ",
      "વેર</w>"
    ],
    [
      "'",
      "'"
    ],
    [
      "ભ",
      "ાર</w>"
    ],
    [
      "પ્ર",
      "ભાવ"
    ],
    [
      "વ",
      "લ</w>"
    ],
    [
      "જગ્યા",
      "એ</w>"
    ],
    [
      "તા",
      "થી</w>"
    ],
    [
      "સંચાલ",
      "િત</w>"
    ],
    [
      "સ",
      "લ્"
    ],
    [
      "પૃ",
      "ષ્ઠ"
    ],
    [
      "ઓ",
      "માંની</w>"
    ],
    [
      "ર",
      "ેશ"
    ],
    [
      "ટ",
      "ર્સ</w>"
    ],
    [
      "ઊંચ",
      "ા</w>"
    ],
    [
      "ે",
      "લાં</w>"
    ],
    [
      "દી",
      "ઠ</w>"
    ],
    [
      "એ",
      "પ્"
    ],
    [
      "હા",
      "જર</w>"
    ],
    [
      "ઘટ",
      "ના</w>"
    ],
    [
      "ચ",
      "ૌ"
    ],
    [
      "201",
      "4ના</w>"
    ],
    [
      "1",
      "ની</w>"
    ],
    [
      "ગ",
      "મ</w>"
    ],
    [
      "આપ",
      "ણે</w>"
    ],
    [
      "સા",
      "સ</w>"
    ],
    [
      "સ",
      "જા</w>"
    ],
    [
      "મા",
      "માં</w>"
    ],
    [
      "સ્ત્ર",
      "ીઓ</w>"
    ],
    [
      "2",
      "8</w>"
    ],
    [
      "ક્",
      "સમાં</w>"
    ],
    [
      "તેણી",
      "એ</w>"
    ],
    [
      "ગણ",
      "વામાં</w>"
    ],
    [
      "વિ",
      "ધિ"
    ],
    [
      "કાઉન્",
      "સિ"
    ],
    [
      "પુર",
      "વ"
    ],
    [
      "ં",
      "જ"
    ],
    [
      "અ",
      "ણ"
    ],
    [
      "્ય",
      "ે</w>"
    ],
    [
      "ડ",
      "નો</w>"
    ],
    [
      "પર",
      ",</w>"
    ],
    [
      "સૈનિ",
      "કો</w>"
    ],
    [
      "જીવ",
      "ંત</w>"
    ],
    [
      "હોસ્પિટ",
      "લમાં</w>"
    ],
    [
      "મોટ",
      "ે</w>"
    ],
    [
      "સ્થ",
      "ળો</w>"
    ],
    [
      "ફિલ્",
      "ડ</w>"
    ],
    [
      "આ",
      "ટ"
    ],
    [
      "વર્",
      "ડ</w>"
    ],
    [
      "આઇ",
      "."
    ],
    [
      "કોલે",
      "જ</w>"
    ],
    [
      "પ્ર",
      "શ્"
    ],
    [
      "દ",
      "વાઓ</w>"
    ],
    [
      "છ",
      "ું,</w>"
    ],
    [
      "ગ્રાહ",
      "ક</w>"
    ],
    [
      "વી",
      "."
    ],
    [
      "થ",
      "તા</w>"
    ],
    [
      "પ",
      "દ્"
    ],
    [
      "આંત",
      "રિક</w>"
    ],
    [
      "દબા",
      "ણ</w>"
    ],
    [
      "મા",
      "ના</w>"
    ],
    [
      "ન",
      "લમાં</w>"
    ],
    [
      "તે",
      "ણી</w>"
    ],
    [
      "બે",
      "ડ"
    ],
    [
      "સમસ્યા",
      "ઓ</w>"
    ],
    [
      "ટે",
      "ક"
    ],
    [
      "બો",
      "ર્"
    ],
    [
      "શક",
      "તો</w>"
    ],
    [
      "કર",
      "વાથી</w>"
    ],
    [
      "2",
      "9</w>"
    ],
    [
      "વ",
      "ૉ"
    ],
    [
      "ખ્રિ",
      "સ્તી</w>"
    ],
    [
      "રા",
      "ઈ"
    ],
    [
      "તા",
      ".</w>"
    ],
    [
      "ધ",
      "ો</w>"
    ],
    [
      "ચે",
      "ત"
    ],
    [
      "લા",
      "ભ</w>"
    ],
    [
      "અભ",
      "િયા"
    ],
    [
      "ી",
      "ઓની</w>"
    ],
    [
      "ત",
      "ોમાં</w>"
    ],
    [
      "ધ્યા",
      "નમાં</w>"
    ],
    [
      "2",
      "7</w>"
    ],
    [
      "આવ",
      "ા</w>"
    ],
    [
      "5",
      "0"
    ],
    [
      "20",
      "0</w>"
    ],
    [
      "એ",
      "લિ"
    ],
    [
      "પદ",
      "ાર્"
    ],
    [
      "વર્ગી",
      "કૃત</w>"
    ],
    [
      "ડ",
      "્રો"
    ],
    [
      "લો",
      "હી"
    ],
    [
      "મહિ",
      "ને</w>"
    ],
    [
      "પુખ્",
      "ત</w>"
    ],
    [
      "કે",
      "રો"
    ],
    [
      "રા",
      "ત્રિ"
    ],
    [
      "સલા",
      "હ</w>"
    ],
    [
      "ધર્",
      "મ"
    ],
    [
      "ગ",
      "ર"
    ],
    [
      "જે",
      "મને</w>"
    ],
    [
      "સી",
      "ઝ"
    ],
    [
      "તે",
      "લુ"
    ],
    [
      "ટ",
      "ક</w>"
    ],
    [
      "પ્રસિ",
      "દ્ધ</w>"
    ],
    [
      "ફિલ્",
      "મ"
    ],
    [
      "મિ",
      "ત્ર</w>"
    ],
    [
      "પા",
      "ત્ર"
    ],
    [
      "આર",
      ".</w>"
    ],
    [
      "વા",
      "ળા"
    ],
    [
      "તો",
      "ફા"
    ],
    [
      "પરિ",
      "વહન</w>"
    ],
    [
      "નંબ",
      "ર</w>"
    ],
    [
      "પ્ર",
      "ાર્થ"
    ],
    [
      "ઉપ",
      "કર"
    ],
    [
      ".એલ",
      ".</w>"
    ],
    [
      "ડે",
      "મો"
    ],
    [
      "હ",
      "સ્તા"
    ],
    [
      "ટા",
      "ઉ"
    ],
    [
      "ટા",
      "ળ"
    ],
    [
      "શાસ",
      "ક</w>"
    ],
    [
      "ગા",
      "મ"
    ],
    [
      "ધ્",
      "વ"
    ],
    [
      "આ",
      "ંગ"
    ],
    [
      "ગ",
      "ાર"
    ],
    [
      "વિક",
      "લ્"
    ],
    [
      "ચ",
      "ળ"
    ],
    [
      "બ",
      "ધી</w>"
    ],
    [
      "પ્રતિ",
      "બંધ</w>"
    ],
    [
      "ગ",
      "ઈ.</w>"
    ],
    [
      "વા",
      "ઈ</w>"
    ],
    [
      "ફ્ર",
      "ી"
    ],
    [
      "વિશિ",
      "ષ્ટ</w>"
    ],
    [
      "ક્રો",
      "સ</w>"
    ],
    [
      "ચા",
      "ઇ"
    ],
    [
      "સુ",
      "પર"
    ],
    [
      "શૂ",
      "ટિંગ</w>"
    ],
    [
      "એમ",
      "."
    ],
    [
      "ટિ",
      "ન</w>"
    ],
    [
      "યુ",
      ".એસ.</w>"
    ],
    [
      "વાય",
      "ર"
    ],
    [
      "વે",
      "સ્ટ"
    ],
    [
      "પા",
      "ડી</w>"
    ],
    [
      "સે",
      "ન</w>"
    ],
    [
      "રજૂ",
      "આ"
    ],
    [
      "ંક",
      "ન</w>"
    ],
    [
      "ક્",
      "વો"
    ],
    [
      "ભાગ",
      "ી</w>"
    ],
    [
      "સે",
      "ન્ટ</w>"
    ],
    [
      "ચ",
      "ની</w>"
    ],
    [
      "સ",
      "બ"
    ],
    [
      "અફ",
      "ઘા"
    ],
    [
      "અધિકાર",
      "ીઓ</w>"
    ],
    [
      "મુસા",
      "ફરી</w>"
    ],
    [
      "ગ",
      "ુ</w>"
    ],
    [
      "ન",
      "રી</w>"
    ],
    [
      "રમ",
      "્યા</w>"
    ],
    [
      "ટી",
      "ની</w>"
    ],
    [
      "દુર્",
      "લ"
    ],
    [
      "ત્યાર",
      "થી</w>"
    ],
    [
      "સ્ના",
      "યુ"
    ],
    [
      "જૂથ",
      "ો</w>"
    ],
    [
      "સાધ",
      "નો</w>"
    ],
    [
      "વા",
      "થી,</w>"
    ],
    [
      "તે",
      "માંથી</w>"
    ],
    [
      "નદી",
      "ની</w>"
    ],
    [
      "મ્યુ",
      "ઝ"
    ],
    [
      "બ",
      "સ</w>"
    ],
    [
      "વે",
      "ર"
    ],
    [
      "મિ",
      "ઝો"
    ],
    [
      "એ",
      "સિ"
    ],
    [
      "વધ",
      "ે</w>"
    ],
    [
      "જી",
      "."
    ],
    [
      "ઈ",
      "ડ</w>"
    ],
    [
      "પર",
      "ં"
    ],
    [
      "જા",
      "તીય</w>"
    ],
    [
      "સં",
      "સદ"
    ],
    [
      "વિશ્",
      "વાસ</w>"
    ],
    [
      "દ",
      "માં</w>"
    ],
    [
      "તેમ",
      "નાં</w>"
    ],
    [
      "હ",
      "ૂ"
    ],
    [
      "ગ્રી",
      "ક</w>"
    ],
    [
      "ણ",
      "થી</w>"
    ],
    [
      "ક્ષે",
      "ત્ર</w>"
    ],
    [
      "અ",
      "ંદ"
    ],
    [
      "ડ",
      "્રે"
    ],
    [
      "બ",
      "ો</w>"
    ],
    [
      "સ",
      "હિ"
    ],
    [
      "ભારત",
      "નું</w>"
    ],
    [
      "પુન",
      "રા"
    ],
    [
      "જુલાઈ",
      ",</w>"
    ],
    [
      "અભિને",
      "ત્રી</w>"
    ],
    [
      "થ",
      "શે.</w>"
    ],
    [
      "1",
      "."
    ],
    [
      "ફેબ્રુઆ",
      "રી,</w>"
    ],
    [
      "3",
      "1</w>"
    ],
    [
      "સિ",
      "ંગ"
    ],
    [
      "પ",
      "ન</w>"
    ],
    [
      "કંઈ",
      "ક</w>"
    ],
    [
      "વપરાશ",
      "કર્"
    ],
    [
      "ક્",
      "વિ"
    ],
    [
      "ગ્",
      "લો"
    ],
    [
      "પરં",
      "પરા</w>"
    ],
    [
      "મા",
      "ય"
    ],
    [
      "નો",
      "ંધ</w>"
    ],
    [
      "કર",
      "નારા</w>"
    ],
    [
      "ખિ",
      "તા"
    ],
    [
      ".",
      "\"</w>"
    ],
    [
      "છે",
      "?</w>"
    ],
    [
      "શે",
      "ર"
    ],
    [
      "9",
      "ના</w>"
    ],
    [
      "હ",
      "્યુ"
    ],
    [
      "વ",
      "ડે</w>"
    ],
    [
      "ડા",
      "ઓ</w>"
    ],
    [
      "ર",
      "દ</w>"
    ],
    [
      "શરૂઆ",
      "ત"
    ],
    [
      "કર",
      "્યાં</w>"
    ],
    [
      "દ",
      "ોડ"
    ],
    [
      "વિ",
      "યે"
    ],
    [
      "સરહ",
      "દ</w>"
    ],
    [
      "દ",
      "્રા"
    ],
    [
      "સમૂ",
      "હ</w>"
    ],
    [
      "ને",
      "પા"
    ],
    [
      "પુ",
      "ત્રી</w>"
    ],
    [
      "રૂ",
      "પા"
    ],
    [
      "અ",
      "લી</w>"
    ],
    [
      "ઉ",
      "ઠા"
    ],
    [
      "ભાવ",
      "ના</w>"
    ],
    [
      "ભારત",
      "ી"
    ],
    [
      "કર",
      "્યા.</w>"
    ],
    [
      "શા",
      "હ"
    ],
    [
      "આ",
      "લ"
    ],
    [
      "સમય",
      "થી</w>"
    ],
    [
      "કારણ",
      "ે,</w>"
    ],
    [
      "િય",
      "ો</w>"
    ],
    [
      "ચા",
      "લી</w>"
    ],
    [
      "સો",
      "માં</w>"
    ],
    [
      "વ",
      "સં"
    ],
    [
      "બાળ",
      "ક</w>"
    ],
    [
      "સા",
      "થી</w>"
    ],
    [
      "બા",
      "કી</w>"
    ],
    [
      "સમયગા",
      "ળામાં</w>"
    ],
    [
      "ભૂમિ",
      "કામાં</w>"
    ],
    [
      "જી",
      "વ</w>"
    ],
    [
      "સર્",
      "જ"
    ],
    [
      "હો",
      "વાનો</w>"
    ],
    [
      "કપ",
      "ડાં</w>"
    ],
    [
      "વૃ",
      "દ્ધિ</w>"
    ],
    [
      "સ્ટ",
      "ેશ"
    ],
    [
      "લેક્",
      "ટ્રો"
    ],
    [
      "કોર્",
      "પો"
    ],
    [
      "સ",
      ":</w>"
    ],
    [
      "202",
      "1ના</w>"
    ],
    [
      "ો",
      "માં,</w>"
    ],
    [
      "ભાગ",
      "ો</w>"
    ],
    [
      "યુનિવર્સિ",
      "ટીમાં</w>"
    ],
    [
      "રાજ",
      "કાર"
    ],
    [
      "બો",
      "ક્સ</w>"
    ],
    [
      "આક્ર",
      "મણ</w>"
    ],
    [
      "નો",
      ",</w>"
    ],
    [
      "રે",
      "ખા"
    ],
    [
      "ઇ",
      "ચ્છ"
    ],
    [
      "પહ",
      "ેલે"
    ],
    [
      "પહેલે",
      "થી</w>"
    ],
    [
      "એ",
      "ન્ડ"
    ],
    [
      "પ્રે",
      "મ</w>"
    ],
    [
      "મૂલ",
      "્ય"
    ],
    [
      "સમુદા",
      "ય</w>"
    ],
    [
      "સમસ",
      "્યા</w>"
    ],
    [
      "વન",
      "સ્પ"
    ],
    [
      "આવ",
      "શ્ય"
    ],
    [
      "સ્ટ",
      "્રે"
    ],
    [
      "મિ",
      "ંગ</w>"
    ],
    [
      "માટે",
      "નો</w>"
    ],
    [
      "મ",
      "લ</w>"
    ],
    [
      "અત્ય",
      "ંત</w>"
    ],
    [
      "ધ",
      "ન</w>"
    ],
    [
      "નવે",
      "મ્બર,</w>"
    ],
    [
      "સંભા",
      "ળ</w>"
    ],
    [
      "બદ",
      "લી</w>"
    ],
    [
      "પ",
      "ો</w>"
    ],
    [
      "ફૂ",
      "ટ</w>"
    ],
    [
      "આ",
      "બો"
    ],
    [
      "કર",
      "ાર</w>"
    ],
    [
      "રમ",
      "તો"
    ],
    [
      ".એમ",
      "."
    ],
    [
      "કો",
      "તર"
    ],
    [
      "રમા",
      "ય</w>"
    ],
    [
      "સ્ટ્રો",
      "ક</w>"
    ],
    [
      "\"",
      ".</w>"
    ],
    [
      "વિનંત",
      "ી</w>"
    ],
    [
      "ચૂંટ",
      "ણીમાં</w>"
    ],
    [
      "વ",
      "ગર</w>"
    ],
    [
      "અસ્તિ",
      "ત્વમાં</w>"
    ],
    [
      "ટૂં",
      "કા</w>"
    ],
    [
      "સર્",
      "વો"
    ],
    [
      "કાર્યક્ર",
      "મ</w>"
    ],
    [
      "ચ",
      "ર"
    ],
    [
      "ત",
      "થા</w>"
    ],
    [
      "ઑ",
      "ફ</w>"
    ],
    [
      "સપ્ટે",
      "મ્બર,</w>"
    ],
    [
      "મે",
      "દાન</w>"
    ],
    [
      "ય",
      "ં"
    ],
    [
      "ન",
      "લ્"
    ],
    [
      "દ",
      "ૈ"
    ],
    [
      "મા",
      "સિક</w>"
    ],
    [
      "જે",
      "વાં</w>"
    ],
    [
      "ડેમો",
      "ક્રે"
    ],
    [
      "રિ",
      "ંગ</w>"
    ],
    [
      "જ",
      "ય</w>"
    ],
    [
      "ન",
      "માંથી</w>"
    ],
    [
      "સ્થિ",
      "ર</w>"
    ],
    [
      "વૈ",
      "શ્"
    ],
    [
      "અ",
      "તિ"
    ],
    [
      "પુસ્ત",
      "ક</w>"
    ],
    [
      "ફે",
      "ર</w>"
    ],
    [
      "ગ્રં",
      "થ"
    ],
    [
      "સા",
      "ની</w>"
    ],
    [
      "ટી",
      "મે</w>"
    ],
    [
      "અંદા",
      "જ</w>"
    ],
    [
      "ફિલ્",
      "મની</w>"
    ],
    [
      "માળ",
      "ખા"
    ],
    [
      "લે",
      "ટ</w>"
    ],
    [
      "પા",
      "ક</w>"
    ],
    [
      "વર્ષ",
      "થી</w>"
    ],
    [
      "જુ",
      "એ</w>"
    ],
    [
      "બ",
      "હા"
    ],
    [
      "ફર",
      "જ</w>"
    ],
    [
      "બ્રા",
      "હ્"
    ],
    [
      "તા",
      "નું</w>"
    ],
    [
      "રાખ",
      "્યું</w>"
    ],
    [
      "સપ્",
      "તા"
    ],
    [
      "ને",
      "તા</w>"
    ],
    [
      "રા",
      "ઇ"
    ],
    [
      "પંજા",
      "બ</w>"
    ],
    [
      "આ",
      "શા</w>"
    ],
    [
      "પ્રવૃત્",
      "તિ"
    ],
    [
      "દ",
      "વા"
    ],
    [
      "ચી",
      "ની</w>"
    ],
    [
      "ઝ",
      "ી</w>"
    ],
    [
      "આ",
      "ંધ"
    ],
    [
      "શહે",
      "રના</w>"
    ],
    [
      "સ",
      "ખ"
    ],
    [
      "કેર",
      "ળ</w>"
    ],
    [
      "નિ",
      "રાશ</w>"
    ],
    [
      "ડ્રા",
      "ઈ"
    ],
    [
      "સ્",
      "કેટ"
    ],
    [
      "'",
      "'</w>"
    ],
    [
      "દ",
      "ત્"
    ],
    [
      "મા",
      "લ"
    ],
    [
      "શા",
      "ળા</w>"
    ],
    [
      "ભાગ",
      "ના</w>"
    ],
    [
      "પો",
      "તે</w>"
    ],
    [
      "વિક્ર",
      "મ</w>"
    ],
    [
      "ત",
      "ોડ"
    ],
    [
      "અગાઉ",
      "ના</w>"
    ],
    [
      "ક",
      "લ્"
    ],
    [
      "દીધ",
      "ો</w>"
    ],
    [
      "પ્રત્ય",
      "ે</w>"
    ],
    [
      "શિલા",
      "લેખ"
    ],
    [
      "પરિવાર",
      "ના</w>"
    ],
    [
      "ઉ",
      "ર્"
    ],
    [
      "ી",
      "માં</w>"
    ],
    [
      "સ્થિતિ",
      "માં</w>"
    ],
    [
      "ળ",
      "ુ</w>"
    ],
    [
      "ઝ",
      "ર</w>"
    ],
    [
      "સ્થળા",
      "ંતર</w>"
    ],
    [
      "પાણી",
      "ની</w>"
    ],
    [
      "ના",
      "ને</w>"
    ],
    [
      "યા",
      "ત્રા"
    ],
    [
      "રી",
      "ત</w>"
    ],
    [
      "ચિ",
      "ત્ર</w>"
    ],
    [
      "એફ",
      "."
    ],
    [
      "ઉ",
      "ન્ડ</w>"
    ],
    [
      "હ",
      "વા</w>"
    ],
    [
      "વાય",
      "રસ</w>"
    ],
    [
      "ચો",
      "લા</w>"
    ],
    [
      "ઔ",
      "પચારિક</w>"
    ],
    [
      "રા",
      "વ</w>"
    ],
    [
      "બચા",
      "વ</w>"
    ],
    [
      "આપ",
      "્યા</w>"
    ],
    [
      "્ર",
      "ુ"
    ],
    [
      "સંગ્ર",
      "હ</w>"
    ],
    [
      "ઠ",
      "ે"
    ],
    [
      "રાજ્ય",
      "ોમાં</w>"
    ],
    [
      "સી",
      "ના</w>"
    ],
    [
      "ક્",
      "લા"
    ],
    [
      "ઊ",
      "ર્"
    ],
    [
      "શાળા",
      "ઓ</w>"
    ],
    [
      "વિકસા",
      "વવામાં</w>"
    ],
    [
      "શિ",
      "કા"
    ],
    [
      "ઓન",
      "લાઈન</w>"
    ],
    [
      "વ",
      "સ"
    ],
    [
      "એચ",
      "."
    ],
    [
      "પોર્",
      "ટુ"
    ],
    [
      "વિજ",
      "ય"
    ],
    [
      "શક્તિ",
      "શાળી</w>"
    ],
    [
      "ન",
      "વી"
    ],
    [
      "લેખ",
      "ક</w>"
    ],
    [
      "ં",
      "દી"
    ],
    [
      "ઘે",
      "રા"
    ],
    [
      "એ",
      "શન</w>"
    ],
    [
      "એ",
      "વો</w>"
    ],
    [
      "સ્ટ",
      "્રા"
    ],
    [
      "ં",
      "શ</w>"
    ],
    [
      "વી",
      "ડિયો</w>"
    ],
    [
      "રમત",
      "ના</w>"
    ],
    [
      "અન",
      "્ય"
    ],
    [
      "વિદ્યાર્",
      "થ"
    ],
    [
      "અ",
      "બ"
    ],
    [
      "જ",
      "તાં</w>"
    ],
    [
      "આ",
      "ઘા"
    ],
    [
      "અ",
      "મારા</w>"
    ],
    [
      "૯",
      "</w>"
    ],
    [
      "મી",
      "ણ</w>"
    ],
    [
      "ઉ",
      "છે"
    ],
    [
      "અત્ય",
      "ાર</w>"
    ],
    [
      "હર",
      "િયા"
    ],
    [
      "ધો",
      "ર"
    ],
    [
      "છ",
      "ુ"
    ],
    [
      "ક્ષ",
      "ણ</w>"
    ],
    [
      "ગણ",
      "તરી"
    ],
    [
      "ઘ",
      "</w>"
    ],
    [
      "મો",
      "ને</w>"
    ],
    [
      "જાણી",
      "તી</w>"
    ],
    [
      "પ્રાણી",
      "ઓ</w>"
    ],
    [
      "લી",
      ",</w>"
    ],
    [
      "પ્રતિ",
      "ક્રિયા</w>"
    ],
    [
      "ઈ",
      "ટા"
    ],
    [
      "અભ",
      "ય"
    ],
    [
      "ઘ",
      "ન</w>"
    ],
    [
      "ભલા",
      "મણ</w>"
    ],
    [
      "ઈન્ટર",
      "નેટ</w>"
    ],
    [
      "8",
      "0</w>"
    ],
    [
      "બ",
      "્યુ"
    ],
    [
      "વાન",
      "ગી"
    ],
    [
      "યુ",
      ".એસ."
    ],
    [
      "ચૂંટા",
      "યા</w>"
    ],
    [
      "વ",
      "કી"
    ],
    [
      "થય",
      "ેલી</w>"
    ],
    [
      "દાય",
      "ક</w>"
    ],
    [
      "જોડા",
      "ણ</w>"
    ],
    [
      "દ્",
      "દી"
    ],
    [
      "ક",
      "ચ"
    ],
    [
      "લા",
      ",</w>"
    ],
    [
      "ઉત્તર",
      "માં</w>"
    ],
    [
      "ચે",
      "ન્ના"
    ],
    [
      "ડિસે",
      "મ્બર,</w>"
    ],
    [
      "સં",
      "મત</w>"
    ],
    [
      "નિર્",
      "ધ"
    ],
    [
      "જો",
      "ડ"
    ],
    [
      "સા",
      "દ</w>"
    ],
    [
      "5",
      "00</w>"
    ],
    [
      "લડા",
      "ઈ</w>"
    ],
    [
      "દો",
      "ર"
    ],
    [
      "શોધ",
      "વા</w>"
    ],
    [
      "દુ",
      "ઃ"
    ],
    [
      "માન",
      "સિક</w>"
    ],
    [
      "વ્ય",
      "વસાય"
    ],
    [
      "પી",
      "ડા"
    ],
    [
      "વધારા",
      "ની</w>"
    ],
    [
      "વી",
      "ર</w>"
    ],
    [
      "ઉદ્",
      "ભ"
    ],
    [
      "ૅ",
      "ન્ડ"
    ],
    [
      "કલા",
      "કાર"
    ],
    [
      "સામ",
      "ગ્રી</w>"
    ],
    [
      "ટે",
      "સ્ટ</w>"
    ],
    [
      "વૈશ્",
      "વિક</w>"
    ],
    [
      "ઓળખા",
      "તા</w>"
    ],
    [
      "મધ્ય",
      "માં</w>"
    ],
    [
      "્ય",
      "ુ</w>"
    ],
    [
      "પ",
      "ાર</w>"
    ],
    [
      "જ",
      "શે.</w>"
    ],
    [
      "ન",
      "કારી</w>"
    ],
    [
      "હ",
      "િત</w>"
    ],
    [
      "અ",
      "થ"
    ],
    [
      "ઉત્",
      "સ"
    ],
    [
      "છ",
      "ઠ્"
    ],
    [
      "ધરાવ",
      "તું</w>"
    ],
    [
      "ફ",
      "સા"
    ],
    [
      "સ્વા",
      "સ્થ"
    ],
    [
      "કેન્",
      "સર</w>"
    ],
    [
      "ઈ",
      "માર"
    ],
    [
      "ટાપુ",
      "ઓ</w>"
    ],
    [
      "માં",
      "નો</w>"
    ],
    [
      "ટ",
      "નું</w>"
    ],
    [
      "પ્ર",
      "સંગ"
    ],
    [
      "ઝ",
      "ની</w>"
    ],
    [
      "દાય",
      "કા"
    ],
    [
      "શ્રે",
      "ણીમાં</w>"
    ],
    [
      "પરિ",
      "ણ"
    ],
    [
      "જ",
      "ને</w>"
    ],
    [
      "અર્",
      "ધ"
    ],
    [
      "વં",
      "શ</w>"
    ],
    [
      "ંગ્",
      "સ</w>"
    ],
    [
      "મ",
      "ફ"
    ],
    [
      "કાર",
      "ણો"
    ],
    [
      "શહે",
      "રો</w>"
    ],
    [
      "ફેડર",
      "ેશન</w>"
    ],
    [
      "અ",
      "ગ્"
    ],
    [
      "દૃ",
      "શ"
    ],
    [
      "કે",
      "શન</w>"
    ],
    [
      "ક્રે",
      "ડિ"
    ],
    [
      "બેલ્",
      "જ"
    ],
    [
      "પ્રો",
      "ટી"
    ],
    [
      "ગ્રા",
      "મીણ</w>"
    ],
    [
      "અંગ્રે",
      "જો"
    ],
    [
      "કર્ય",
      "ો,</w>"
    ],
    [
      "ઉચ્",
      "ચ"
    ],
    [
      "ટી",
      "કા</w>"
    ],
    [
      "બંગા",
      "ળ</w>"
    ],
    [
      "માન",
      "માં</w>"
    ],
    [
      "વિ",
      "સ્"
    ],
    [
      "ત",
      "ન"
    ],
    [
      "કામ",
      "ગી"
    ],
    [
      "આ",
      "ત્મ"
    ],
    [
      "ની",
      "ને</w>"
    ],
    [
      "દાય",
      "કાના</w>"
    ],
    [
      "અઠવા",
      "ડિયા</w>"
    ],
    [
      "તારી",
      "ખ</w>"
    ],
    [
      "આરો",
      "પ</w>"
    ],
    [
      ",0",
      "0"
    ],
    [
      "હિમા",
      "લય"
    ],
    [
      "મ",
      "િયા</w>"
    ],
    [
      "કા",
      ",</w>"
    ],
    [
      ")",
      "ની</w>"
    ],
    [
      "ગ",
      "ંગા</w>"
    ],
    [
      "2019",
      "ના</w>"
    ],
    [
      "ટ્રે",
      "ક</w>"
    ],
    [
      "વેબ",
      "સાઈ"
    ],
    [
      "સોફ્",
      "ટ</w>"
    ],
    [
      "ઓક્",
      "લાહો"
    ],
    [
      "કબ",
      "જે</w>"
    ],
    [
      "ઉમે",
      "દ"
    ],
    [
      "સ",
      "ચિ"
    ],
    [
      "રમત",
      "ની</w>"
    ],
    [
      "હો",
      "વાથી,</w>"
    ],
    [
      "લ",
      "ઘુ"
    ],
    [
      "નહો",
      "તી</w>"
    ],
    [
      "આ",
      "ને</w>"
    ],
    [
      "રા",
      "ની</w>"
    ],
    [
      "દક્ષિ",
      "ણમાં</w>"
    ],
    [
      "ઘ",
      "ણું</w>"
    ],
    [
      "2",
      ","
    ],
    [
      "મેળ",
      "વે</w>"
    ],
    [
      "ફિલ્",
      "મના</w>"
    ],
    [
      "રો",
      ",</w>"
    ],
    [
      "ફર",
      "િયા"
    ],
    [
      "ક",
      "લા</w>"
    ],
    [
      "દુર્લ",
      "ભ</w>"
    ],
    [
      "ત",
      "ટ"
    ],
    [
      "અભય",
      "ારણ"
    ],
    [
      "કો",
      "મ્પ્યુ"
    ],
    [
      "અ",
      "ક્ષ"
    ],
    [
      "નિ",
      "મણ"
    ],
    [
      "ક",
      "્યાં</w>"
    ],
    [
      "ટી",
      "વી</w>"
    ],
    [
      "ડે",
      "ટા"
    ],
    [
      "રી",
      "ઓ</w>"
    ],
    [
      "લો",
      "સ</w>"
    ],
    [
      "ં",
      "ડા"
    ],
    [
      "કર",
      "તો</w>"
    ],
    [
      "હજ",
      "ારો</w>"
    ],
    [
      "1",
      "થી</w>"
    ],
    [
      "શબ્",
      "દો</w>"
    ],
    [
      "સિ",
      "લિ"
    ],
    [
      "પ્રોજેક્",
      "ટ</w>"
    ],
    [
      "ગ",
      "મે</w>"
    ],
    [
      "થ",
      "ુ"
    ],
    [
      "ગ",
      "ને</w>"
    ],
    [
      "પો",
      "લો</w>"
    ],
    [
      "કૃ",
      "ષ્"
    ],
    [
      "સિક્",
      "કિ"
    ],
    [
      "સ્",
      "મા"
    ],
    [
      "સિ",
      "ટી</w>"
    ],
    [
      "લી",
      "ગમાં</w>"
    ],
    [
      ".એચ",
      "."
    ],
    [
      "હા",
      "ય"
    ],
    [
      "એક",
      "બીજા"
    ],
    [
      "આ",
      "ગે"
    ],
    [
      "ગુમા",
      "વી</w>"
    ],
    [
      "યો",
      ",</w>"
    ],
    [
      "દૃ",
      "ષ્ટિ"
    ],
    [
      "પર્યા",
      "વર"
    ],
    [
      "ઇન્ડ",
      "િયા</w>"
    ],
    [
      "ઇ",
      "સ્લા"
    ],
    [
      "સ",
      "મ</w>"
    ],
    [
      "હે",
      "તુ</w>"
    ],
    [
      "'",
      ",</w>"
    ],
    [
      "મિ",
      "ત્રો</w>"
    ],
    [
      "કાર્યક્ર",
      "મો</w>"
    ],
    [
      "વિક",
      "સિત</w>"
    ],
    [
      "2019",
      "</w>"
    ],
    [
      ",૦",
      "૦૦</w>"
    ],
    [
      "નારા",
      "ય"
    ],
    [
      "ઔ",
      "રંગ"
    ],
    [
      "ઔરંગ",
      "ઝે"
    ],
    [
      "ભ",
      "િ"
    ],
    [
      "મં",
      "ત્ર"
    ],
    [
      "લા",
      "ના</w>"
    ],
    [
      "પ્ર",
      "સ્તા"
    ],
    [
      "મોકલ",
      "વામાં</w>"
    ],
    [
      "નિર્દેશ",
      "ક</w>"
    ],
    [
      "નાગ",
      "રિ"
    ],
    [
      "ી",
      "ઓએ</w>"
    ],
    [
      "હૈ",
      "દ"
    ],
    [
      "વિશ્વ",
      "માં</w>"
    ],
    [
      "સ્થા",
      "યી</w>"
    ],
    [
      "ઉંમ",
      "રે</w>"
    ],
    [
      "વિષ્ણ",
      "ુ"
    ],
    [
      "આઉ",
      "ટ</w>"
    ],
    [
      "વિ",
      "લિય"
    ],
    [
      "ખા",
      "દ"
    ],
    [
      "ડ",
      "બ્"
    ],
    [
      "સર્વો",
      "ચ્"
    ],
    [
      "ર",
      "જવા"
    ],
    [
      "હે",
      "તુ"
    ],
    [
      "ઓસ્ટ્રેલ",
      "િયન</w>"
    ],
    [
      "ચિં",
      "તા</w>"
    ],
    [
      "પ્ર",
      "તિ</w>"
    ],
    [
      "ફ",
      "િક</w>"
    ],
    [
      "વ્યા",
      "જ</w>"
    ],
    [
      "‘",
      "‘"
    ],
    [
      "કોંગ્રે",
      "સ</w>"
    ],
    [
      "કર",
      "ી,</w>"
    ],
    [
      "સો",
      "ંપ"
    ],
    [
      "જ",
      "તા</w>"
    ],
    [
      "ગુ",
      "પ્"
    ],
    [
      "શિ",
      "વા"
    ],
    [
      "પક્ષ",
      "</w>"
    ],
    [
      "મંદિ",
      "રો</w>"
    ],
    [
      "ક્રિ",
      "પ્"
    ],
    [
      "ન",
      "સ</w>"
    ],
    [
      "ભવિષ",
      "્ય"
    ],
    [
      "જોઈ",
      "ને</w>"
    ],
    [
      "ક",
      "-"
    ],
    [
      "જવા",
      "બ</w>"
    ],
    [
      "ફ",
      "ાર"
    ],
    [
      "ક્",
      "શન</w>"
    ],
    [
      "ચા",
      "મ"
    ],
    [
      "19",
      "મી</w>"
    ],
    [
      "નિ",
      "</w>"
    ],
    [
      "ક્રા",
      "ંતિ"
    ],
    [
      "ઝ",
      "ના</w>"
    ],
    [
      "ના",
      "ગા"
    ],
    [
      "ગુણવ",
      "ત્તા"
    ],
    [
      "ડ",
      "્યુ"
    ],
    [
      "વય",
      "ના</w>"
    ],
    [
      "પરિણા",
      "મ</w>"
    ],
    [
      "રો",
      "ડ</w>"
    ],
    [
      "ક્ષેત્ર",
      "માં</w>"
    ],
    [
      "ઘ",
      "ર"
    ],
    [
      "નામાં",
      "કિત</w>"
    ],
    [
      "હો",
      "વાની</w>"
    ],
    [
      "દી",
      "ઓ</w>"
    ],
    [
      "સફ",
      "ળતા"
    ],
    [
      "ક",
      "ટ"
    ],
    [
      "હિન્",
      "દુ"
    ],
    [
      "પ્રવા",
      "સ</w>"
    ],
    [
      "સાબ",
      "િત</w>"
    ],
    [
      "ફા",
      "ટી</w>"
    ],
    [
      "અમેરિ",
      "કા</w>"
    ],
    [
      "ક",
      "ડ"
    ],
    [
      "18",
      "5"
    ],
    [
      "ઉ",
      "ં</w>"
    ],
    [
      "તિ",
      "રુ"
    ],
    [
      "પદ્ધ",
      "તિ"
    ],
    [
      "સર્",
      "વિ"
    ],
    [
      "વહીવ",
      "ટી</w>"
    ],
    [
      "આસપા",
      "સના</w>"
    ],
    [
      "આ",
      "દિવા"
    ],
    [
      "દ્",
      "વી"
    ],
    [
      "હે",
      "ન્ડ"
    ],
    [
      "સ્ત",
      "ો</w>"
    ],
    [
      "ર",
      "ક્ત"
    ],
    [
      "સખ",
      "ત</w>"
    ],
    [
      "રો",
      "ક</w>"
    ],
    [
      "જિલ્",
      "લા</w>"
    ],
    [
      "હવા",
      "ઈ"
    ],
    [
      "ની",
      "ની</w>"
    ],
    [
      "દર",
      "વા"
    ],
    [
      "દર",
      "બાર"
    ],
    [
      "સહા",
      "ય</w>"
    ],
    [
      "મ",
      "-"
    ],
    [
      "શ",
      "ર"
    ],
    [
      "કર",
      "વે"
    ],
    [
      "પ",
      "ંચ"
    ],
    [
      "મ્બ",
      "રના</w>"
    ],
    [
      "કો",
      "નો</w>"
    ],
    [
      "ં",
      "ના</w>"
    ],
    [
      "સુધી",
      "ની</w>"
    ],
    [
      "ણ",
      "નું</w>"
    ],
    [
      "જૂ",
      "ન,</w>"
    ],
    [
      "ઝ",
      "ર"
    ],
    [
      "છે",
      "!</w>"
    ],
    [
      "પ્રજા",
      "તિ"
    ],
    [
      "ગયા",
      "ં</w>"
    ],
    [
      ")",
      ".</w>"
    ],
    [
      "રે",
      "સ્ટો"
    ],
    [
      "હસ્તા",
      "ક્ષર</w>"
    ],
    [
      "નહોત",
      "ી.</w>"
    ],
    [
      "ખે",
      "ડૂ"
    ],
    [
      "પર્વ",
      "તમા"
    ],
    [
      "વા",
      "ત"
    ],
    [
      "ખા",
      "લી</w>"
    ],
    [
      "હ",
      "કી"
    ],
    [
      "201",
      "0</w>"
    ],
    [
      "મલ",
      "યા"
    ],
    [
      "લંડ",
      "ન</w>"
    ],
    [
      "માન",
      "તા</w>"
    ],
    [
      "બુ",
      "ક</w>"
    ],
    [
      "વા",
      "લ</w>"
    ],
    [
      "પ્રે",
      "ક્ષ"
    ],
    [
      "હિ",
      "લ"
    ],
    [
      "બે",
      "ન્"
    ],
    [
      "મૂ",
      "કી</w>"
    ],
    [
      "નો",
      "કરી</w>"
    ],
    [
      "પ",
      "ા</w>"
    ],
    [
      "છે",
      "ડા</w>"
    ],
    [
      "ત",
      "ળ"
    ],
    [
      "ુ",
      "પ</w>"
    ],
    [
      "રે",
      "ડિયો</w>"
    ],
    [
      "ક્",
      "લો"
    ],
    [
      "રમત",
      "ોમાં</w>"
    ],
    [
      "પુ",
      "રા</w>"
    ],
    [
      "મ",
      "શી"
    ],
    [
      "માર",
      "ું</w>"
    ],
    [
      "આવશ્ય",
      "ક</w>"
    ],
    [
      "ડ",
      "િયન</w>"
    ],
    [
      "બ",
      "ળ</w>"
    ],
    [
      "અસર",
      "ગ્રસ્ત</w>"
    ],
    [
      "ન્",
      "ન"
    ],
    [
      "બા",
      "કીના</w>"
    ],
    [
      "જો",
      "વામાં</w>"
    ],
    [
      "ઓક્ટોબ",
      "ર,</w>"
    ],
    [
      "બદ",
      "લીને</w>"
    ],
    [
      "ઘ",
      "ણો</w>"
    ],
    [
      "સામે",
      "ની</w>"
    ],
    [
      "કાઉન્",
      "ટી</w>"
    ],
    [
      "નિ",
      "કા"
    ],
    [
      "કા",
      "ન"
    ],
    [
      "નહી",
      "ં,</w>"
    ],
    [
      "ઈ",
      "ચ્છ"
    ],
    [
      "સર્વોચ્",
      "ચ</w>"
    ],
    [
      "રાજ",
      "્યો</w>"
    ],
    [
      "િય",
      "મ</w>"
    ],
    [
      "યુનિવર્સિ",
      "ટી"
    ],
    [
      "મ",
      "િયા"
    ],
    [
      "લ",
      "થી</w>"
    ],
    [
      "મા",
      "ત્રા"
    ],
    [
      "ચિ",
      "કિ"
    ],
    [
      "કો",
      "મ"
    ],
    [
      "સિ",
      "ંગ</w>"
    ],
    [
      "ફ્લો",
      "રિ"
    ],
    [
      "રે",
      "ડ</w>"
    ],
    [
      "દેરા",
      "સર</w>"
    ],
    [
      "સૈ",
      "ન્ય</w>"
    ],
    [
      "ં",
      "ખ"
    ],
    [
      "વા",
      "ગ"
    ],
    [
      "નથ",
      "ી"
    ],
    [
      "સમા",
      "ચાર</w>"
    ],
    [
      "ફેરફ",
      "ારો</w>"
    ],
    [
      "કૂ",
      "ળ</w>"
    ],
    [
      "શા",
      "ંતિ</w>"
    ],
    [
      "પાછ",
      "ો</w>"
    ],
    [
      "કાર્ય",
      "રત</w>"
    ],
    [
      "્",
      "સ</w>"
    ],
    [
      "સમી",
      "ક્ષા"
    ],
    [
      "નિરા",
      "શા"
    ],
    [
      "કિંગ",
      "ડ"
    ],
    [
      "તેણી",
      "ને</w>"
    ],
    [
      "ન્યા",
      "યા"
    ],
    [
      "ન",
      "વો</w>"
    ],
    [
      "ભે",
      "ટ</w>"
    ],
    [
      "સંવેદ",
      "ન"
    ],
    [
      "નિર્ધ",
      "ારિત</w>"
    ],
    [
      "ઝ",
      "મ</w>"
    ],
    [
      "ગ",
      ",</w>"
    ],
    [
      "હો",
      "ર્"
    ],
    [
      "યો",
      "જાય</w>"
    ],
    [
      "નિ",
      "શ</w>"
    ],
    [
      "પ્રી",
      "મ"
    ],
    [
      "કિ",
      "ટ</w>"
    ],
    [
      "શા",
      "ખા"
    ],
    [
      "ક્રેડિ",
      "ટ</w>"
    ],
    [
      "ફ",
      "ળ"
    ],
    [
      "ની",
      "ના</w>"
    ],
    [
      "નો",
      "નો</w>"
    ],
    [
      "ઈ",
      "જા"
    ],
    [
      "રો",
      "ના</w>"
    ],
    [
      "હકી",
      "ક"
    ],
    [
      "ફોર્",
      "મ</w>"
    ],
    [
      "માંગ",
      "તા</w>"
    ],
    [
      "ઓગસ્ટ",
      ",</w>"
    ],
    [
      "ટી",
      "મમાં</w>"
    ],
    [
      "201",
      "1</w>"
    ],
    [
      "બે",
      "ંક"
    ],
    [
      "ઇ",
      "જિ"
    ],
    [
      "કલા",
      "કારો</w>"
    ],
    [
      "આલ્બ",
      "મ</w>"
    ],
    [
      "ઊ",
      "ંચાઈ</w>"
    ],
    [
      "ર",
      "સો"
    ],
    [
      "૧૯",
      "૯"
    ],
    [
      "સંકળા",
      "યેલા</w>"
    ],
    [
      "લક્ષ",
      "્"
    ],
    [
      "ાર",
      "ણ</w>"
    ],
    [
      "દ",
      "લી"
    ],
    [
      "ગા",
      "યક</w>"
    ],
    [
      "200",
      "0</w>"
    ],
    [
      "પુરુ",
      "ષ</w>"
    ],
    [
      "બેઠ",
      "ક</w>"
    ],
    [
      "આ",
      "ઝા"
    ],
    [
      "વ",
      "જન</w>"
    ],
    [
      "સુ",
      "નિશ્ચિત</w>"
    ],
    [
      "સ્થાપ",
      "ક</w>"
    ],
    [
      "સું",
      "દર</w>"
    ],
    [
      "દર",
      "જ્"
    ],
    [
      "જા",
      "તને</w>"
    ],
    [
      "ંગ્",
      "લો"
    ],
    [
      "થોડ",
      "ો</w>"
    ],
    [
      "સં",
      "બંધ</w>"
    ],
    [
      "બન",
      "ેલી</w>"
    ],
    [
      "ચંદ્ર",
      "</w>"
    ],
    [
      "પાર્",
      "ક</w>"
    ],
    [
      "ટ",
      "ક"
    ],
    [
      "એક",
      "બીજા</w>"
    ],
    [
      "હા",
      "ડ"
    ],
    [
      "ઊંચ",
      "ી</w>"
    ],
    [
      "9",
      "0</w>"
    ],
    [
      "201",
      "2</w>"
    ],
    [
      "સ્ટો",
      "ર</w>"
    ],
    [
      "બે",
      "ં"
    ],
    [
      "રાજ",
      "પૂ"
    ],
    [
      "ઉદ્",
      "દી"
    ],
    [
      "વેપ",
      "ાર"
    ],
    [
      "મ",
      "સ્"
    ],
    [
      "દ",
      "ારી</w>"
    ],
    [
      "જટિ",
      "લ</w>"
    ],
    [
      "જો",
      "ડી</w>"
    ],
    [
      "ની",
      "માં</w>"
    ],
    [
      "જોડા",
      "યા</w>"
    ],
    [
      "પા",
      "લ"
    ],
    [
      "રો",
      "મન</w>"
    ],
    [
      "રમ",
      "ે</w>"
    ],
    [
      "સં",
      "રક્ષણ</w>"
    ],
    [
      "ડી",
      "ના</w>"
    ],
    [
      "તેલુ",
      "ગુ</w>"
    ],
    [
      "પ્રકા",
      "શ</w>"
    ],
    [
      "ચ",
      "િત</w>"
    ],
    [
      "શી",
      "ખ</w>"
    ],
    [
      "ઈ",
      "સ્લા"
    ],
    [
      "ગ્રાહ",
      "કો</w>"
    ],
    [
      "2",
      "."
    ],
    [
      "લો",
      ",</w>"
    ],
    [
      "શ",
      "માં</w>"
    ],
    [
      "સે",
      "વા"
    ],
    [
      "વિસ્તાર",
      "ો</w>"
    ],
    [
      "વિદ્યાર્થ",
      "ીઓ</w>"
    ],
    [
      "જાપા",
      "ન</w>"
    ],
    [
      "પ્રાર્થ",
      "ના</w>"
    ],
    [
      "હ",
      "િલ્"
    ],
    [
      "મે",
      "ઘા"
    ],
    [
      "ફ્",
      "લે"
    ],
    [
      "ન્ય",
      "ુ</w>"
    ],
    [
      "લંબા",
      "ઈ</w>"
    ],
    [
      "કંપની",
      "ના</w>"
    ],
    [
      "ુ",
      "ક"
    ],
    [
      "કર",
      "ેલા</w>"
    ],
    [
      "બન",
      "્યા.</w>"
    ],
    [
      "નામ",
      "ું</w>"
    ],
    [
      "ધ",
      "્રુ"
    ],
    [
      "બે",
      "ક</w>"
    ],
    [
      "ખે",
      "તી</w>"
    ],
    [
      "સાર્",
      "વ"
    ],
    [
      "એટ",
      "લા</w>"
    ],
    [
      "ન",
      "ૈ"
    ],
    [
      "તા",
      "લ</w>"
    ],
    [
      "ભાર",
      "તે</w>"
    ],
    [
      "તૂ",
      "ટી</w>"
    ],
    [
      "ઘ",
      "ૂ"
    ],
    [
      "વર્ષ",
      "ોમાં</w>"
    ],
    [
      "વા",
      "તા"
    ],
    [
      "ષ",
      "િત</w>"
    ],
    [
      "વિતર",
      "ણ</w>"
    ],
    [
      "અઠવા",
      "ડ"
    ],
    [
      "બા",
      "હ"
    ],
    [
      "વી",
      "જ"
    ],
    [
      "ઇ",
      "ડ</w>"
    ],
    [
      "સેલ્",
      "સિય"
    ],
    [
      "ઉત્",
      "ત"
    ],
    [
      "એ",
      "પિ"
    ],
    [
      "કેટ",
      "લી</w>"
    ],
    [
      "મી",
      "ઠા"
    ],
    [
      "ગા",
      "મમાં</w>"
    ],
    [
      "સા",
      "ક્ષ"
    ],
    [
      "વચ્ચે",
      "ની</w>"
    ],
    [
      "દર",
      "રોજ</w>"
    ],
    [
      "વ",
      "ણ"
    ],
    [
      "ખિતા",
      "બ</w>"
    ],
    [
      "નિ",
      "ંગ</w>"
    ],
    [
      "વિસ્",
      "ફો"
    ],
    [
      "ગુ",
      "રુ</w>"
    ],
    [
      "જીત",
      "્યા</w>"
    ],
    [
      "ગ",
      "તિ"
    ],
    [
      "લાગ",
      "ી</w>"
    ],
    [
      "ય",
      "ને</w>"
    ],
    [
      "આઉ",
      "ટ"
    ],
    [
      "ભાષા",
      "માં</w>"
    ],
    [
      "દ",
      "્યો"
    ],
    [
      "ચુ",
      "ક"
    ],
    [
      "ઠ",
      "ે</w>"
    ],
    [
      "વિશ્વ",
      "ની</w>"
    ],
    [
      "ભૂમિ",
      "</w>"
    ],
    [
      "પ્ર",
      "ક્રિયા"
    ],
    [
      "લે",
      "વાની</w>"
    ],
    [
      "ડી",
      "ની</w>"
    ],
    [
      "ચે",
      "સ</w>"
    ],
    [
      "અક",
      "સ્મા"
    ],
    [
      "ય",
      "ાર્"
    ],
    [
      "ઈસવી",
      "સન</w>"
    ],
    [
      "ને",
      "સ</w>"
    ],
    [
      "ડ",
      "ર્"
    ],
    [
      "આશ્ચર્ય",
      "ચ"
    ],
    [
      "ગુ",
      "ફા</w>"
    ],
    [
      "૧",
      "૮"
    ],
    [
      "વિરો",
      "ધ"
    ],
    [
      "18",
      "6"
    ],
    [
      "કન્",
      "ન"
    ],
    [
      "3",
      "0"
    ],
    [
      "અધિકાર",
      "ી</w>"
    ],
    [
      "વિ",
      "ઝ"
    ],
    [
      "ઉત્પાદ",
      "નો</w>"
    ],
    [
      "ઉપયો",
      "ગી</w>"
    ],
    [
      "બ",
      "ારી</w>"
    ],
    [
      "નિય",
      "મ</w>"
    ],
    [
      "થ",
      "ઈ.</w>"
    ],
    [
      "ફટ",
      "કાર"
    ],
    [
      "રો",
      "એ</w>"
    ],
    [
      "વાર",
      ",</w>"
    ],
    [
      "ચી",
      "જ"
    ],
    [
      "ઓન",
      "લાઇન</w>"
    ],
    [
      "સો",
      "મ"
    ],
    [
      "શ",
      "ય</w>"
    ],
    [
      "મૂલ",
      "્યા"
    ],
    [
      "સુવિધા",
      "ઓ</w>"
    ],
    [
      "ન",
      "વ</w>"
    ],
    [
      "પ",
      "ંચા"
    ],
    [
      "ઈ",
      "જા</w>"
    ],
    [
      "વો",
      "શિ"
    ],
    [
      "આશ્ચર્યચ",
      "કિત</w>"
    ],
    [
      "પા",
      "ઈ"
    ],
    [
      "પ",
      "ન્ન</w>"
    ],
    [
      ".એન",
      "."
    ],
    [
      "વર્",
      "જિ"
    ],
    [
      "મૂ",
      "કે</w>"
    ],
    [
      "મ",
      "ના"
    ],
    [
      "ભાષા",
      "ઓ</w>"
    ],
    [
      "ડ",
      "ચ</w>"
    ],
    [
      "ણા",
      "ત્મક</w>"
    ],
    [
      "ંગ",
      "ી</w>"
    ],
    [
      "વિ",
      "વા"
    ],
    [
      "સ્પર્ધા",
      "માં</w>"
    ],
    [
      "અ",
      "ગ"
    ],
    [
      "ડે",
      "ન્"
    ],
    [
      "થિય",
      "ે"
    ],
    [
      "છૂ",
      "ટા"
    ],
    [
      "વિ",
      "ભાગમાં</w>"
    ],
    [
      "સા",
      "ંક"
    ],
    [
      "ર",
      "જા</w>"
    ],
    [
      "લો",
      "માં</w>"
    ],
    [
      "ક",
      "ેલે"
    ],
    [
      "ડિ",
      "જિ"
    ],
    [
      "ટ્રા",
      "ન્સ"
    ],
    [
      "સ્પોર્",
      "ટ્સ</w>"
    ],
    [
      "પાકિસ્તા",
      "ન</w>"
    ],
    [
      "ચાલ",
      "ુક"
    ],
    [
      "ગુજ",
      "રાત</w>"
    ],
    [
      "4",
      "ની</w>"
    ],
    [
      "વિપરી",
      "ત,</w>"
    ],
    [
      "પ્રદેશ",
      "ો</w>"
    ],
    [
      "મા",
      "નિત</w>"
    ],
    [
      "પરિણા",
      "મો</w>"
    ],
    [
      "ટૂ",
      "ંકી</w>"
    ],
    [
      "મેચ",
      "માં</w>"
    ],
    [
      "20",
      "20</w>"
    ],
    [
      "દ",
      "ના</w>"
    ],
    [
      "7",
      "થી</w>"
    ],
    [
      "ઢ",
      "ો"
    ],
    [
      "કર",
      "નારી</w>"
    ],
    [
      "પાર",
      "િ"
    ],
    [
      "એ",
      "લ્"
    ],
    [
      "જે",
      "મ,</w>"
    ],
    [
      "ભ",
      "રી</w>"
    ],
    [
      "વૈજ્ઞા",
      "નિ"
    ],
    [
      "વૈજ્ઞા",
      "નિક</w>"
    ],
    [
      "મે",
      "ન"
    ],
    [
      "સ્પર્ધા",
      "ઓ</w>"
    ],
    [
      "ન",
      "કારાત્મક</w>"
    ],
    [
      "રહે",
      "શે.</w>"
    ],
    [
      "ખેલાડી",
      "ઓને</w>"
    ],
    [
      "એર",
      "પોર્ટ</w>"
    ],
    [
      "ઘ",
      "રમાં</w>"
    ],
    [
      "ન્ડ",
      "ો</w>"
    ],
    [
      "વિભા",
      "જિત</w>"
    ],
    [
      "સંસ્",
      "કૃતિ</w>"
    ],
    [
      "પે",
      "ટા"
    ],
    [
      "ટ્ર",
      "ી"
    ],
    [
      "દુ",
      "ખા"
    ],
    [
      "પહે",
      "રે</w>"
    ],
    [
      "બાળ",
      "કોને</w>"
    ],
    [
      "વિધાન",
      "સભા"
    ],
    [
      "અલા",
      "ઉદ્દી"
    ],
    [
      "તાજેતર",
      "માં</w>"
    ],
    [
      "બ",
      "ના</w>"
    ],
    [
      "સફ",
      "ળતા</w>"
    ],
    [
      "ઊભ",
      "ા</w>"
    ],
    [
      "એસોસિ",
      "એશન</w>"
    ],
    [
      "ી",
      "નો</w>"
    ],
    [
      "ઇ",
      ".</w>"
    ],
    [
      "ં",
      "ટ</w>"
    ],
    [
      "કારકિર્",
      "દીની</w>"
    ],
    [
      "કર",
      "શે</w>"
    ],
    [
      "ઓ",
      "ર"
    ],
    [
      "ડ",
      "ું</w>"
    ],
    [
      "અવરો",
      "ધ"
    ],
    [
      "અ",
      "ચા"
    ],
    [
      "દાય",
      "કાની</w>"
    ],
    [
      "તી",
      "ની</w>"
    ],
    [
      "ત",
      "ણા"
    ],
    [
      "માર્",
      "ગો</w>"
    ],
    [
      "રે",
      "સ</w>"
    ],
    [
      "બે",
      "ઝ"
    ],
    [
      "્યા",
      "ં.</w>"
    ],
    [
      "તે",
      "જ"
    ],
    [
      "ઇ",
      "ટા"
    ],
    [
      "ઓળખા",
      "તી</w>"
    ],
    [
      "સ્",
      "પી"
    ],
    [
      "ઓ",
      "પરે"
    ],
    [
      "જર્મની",
      "ના</w>"
    ],
    [
      "લોક",
      "પ્રિય"
    ],
    [
      "કા",
      "ં</w>"
    ],
    [
      "ટે",
      "સ્ટ"
    ],
    [
      "વિસ્ત",
      "રણ</w>"
    ],
    [
      "સમય",
      "ે,</w>"
    ],
    [
      "વડા",
      "પ્રધાન</w>"
    ],
    [
      "પૃથ્",
      "વી"
    ],
    [
      "રજૂઆ",
      "ત</w>"
    ],
    [
      "નબ",
      "ળી</w>"
    ],
    [
      "ઝ",
      "ે</w>"
    ],
    [
      "હિ",
      "ક</w>"
    ],
    [
      "કો",
      "ચ</w>"
    ],
    [
      "હિ",
      "ં"
    ],
    [
      "બન",
      "વા</w>"
    ],
    [
      "રી",
      "એ</w>"
    ],
    [
      "એપ્રિ",
      "લ,</w>"
    ],
    [
      "બિ",
      "લ</w>"
    ],
    [
      "હવા",
      "ઈ</w>"
    ],
    [
      "વોશિ",
      "ંગ્"
    ],
    [
      "પ્રવા",
      "હ</w>"
    ],
    [
      "તીર્",
      "થ"
    ],
    [
      "વેબ",
      "સાઇટ</w>"
    ],
    [
      "આર્",
      "જે"
    ],
    [
      "પ્રા",
      "ંત</w>"
    ],
    [
      "અ",
      "કબ"
    ],
    [
      "ગ્રે",
      "ટ</w>"
    ],
    [
      "4",
      "0"
    ],
    [
      "જી",
      "એ</w>"
    ],
    [
      "વ",
      "સ્"
    ],
    [
      "પ્રતી",
      "ક</w>"
    ],
    [
      "ગ",
      "ંગા"
    ],
    [
      "સ્વ",
      "ચ્છ"
    ],
    [
      "માન",
      "વ"
    ],
    [
      "ણી",
      "એ</w>"
    ],
    [
      "યોગ",
      "દાન</w>"
    ],
    [
      "હૈદ",
      "રા"
    ],
    [
      "કો",
      "મે"
    ],
    [
      "ંગ",
      "ને</w>"
    ],
    [
      "3",
      "5</w>"
    ],
    [
      "યુદ્ધ",
      "ના</w>"
    ],
    [
      "નિષ્",
      "ણા"
    ],
    [
      "5",
      "થી</w>"
    ],
    [
      "એકે",
      "ડે"
    ],
    [
      "મિ",
      "ડ"
    ],
    [
      "બ",
      "ધું</w>"
    ],
    [
      "શ",
      "િલ્"
    ],
    [
      "એ",
      "રો"
    ],
    [
      "ંભ",
      "</w>"
    ],
    [
      "ફ્",
      "ટ</w>"
    ],
    [
      "વ્ય",
      "ો.</w>"
    ],
    [
      "બહુ",
      "વિ"
    ],
    [
      "કે",
      "."
    ],
    [
      "પ",
      "ગ</w>"
    ],
    [
      "ન",
      "વું</w>"
    ],
    [
      "થા",
      "ઈ"
    ],
    [
      "ઇ",
      "ન્ડો"
    ],
    [
      "ી",
      "ઓમાં</w>"
    ],
    [
      "કિસ્સા",
      "ઓમાં</w>"
    ],
    [
      "કર",
      "ો,</w>"
    ],
    [
      "ડે",
      "ટા</w>"
    ],
    [
      "ગુફા",
      "ઓ</w>"
    ],
    [
      "ડ",
      "ેલ્"
    ],
    [
      "ર",
      "-"
    ],
    [
      "તી",
      "ના</w>"
    ],
    [
      "પ્રદેશ",
      "ોમાં</w>"
    ],
    [
      "ંબ",
      "િત</w>"
    ],
    [
      "મુ",
      "દ્દા"
    ],
    [
      "મ",
      "ય</w>"
    ],
    [
      "રિય",
      "લ</w>"
    ],
    [
      "ચિહ્",
      "નિત</w>"
    ],
    [
      "શા",
      "ંત</w>"
    ],
    [
      "લી",
      "ની</w>"
    ],
    [
      "તિ",
      "ની</w>"
    ],
    [
      "દર્શ",
      "ક</w>"
    ],
    [
      "7",
      "0</w>"
    ],
    [
      "કો",
      ".</w>"
    ],
    [
      "વિસ્ત",
      "ૃ"
    ],
    [
      "બહ",
      "ુ</w>"
    ],
    [
      "વર્",
      "તિ"
    ],
    [
      "લ",
      "ુ</w>"
    ],
    [
      "તે",
      "લ"
    ],
    [
      "અ",
      "પ</w>"
    ],
    [
      "જ",
      "વાની</w>"
    ],
    [
      "ધોરી",
      "માર્ગ</w>"
    ],
    [
      "નિય",
      "મો"
    ],
    [
      "પ્રણા",
      "લી</w>"
    ],
    [
      "એ",
      "જન્"
    ],
    [
      "સપા",
      "ટી"
    ],
    [
      "પોઈ",
      "ન્ટ</w>"
    ],
    [
      "સંદર્",
      "ભ"
    ],
    [
      "પા",
      "સ</w>"
    ],
    [
      "વાત",
      "ચી"
    ],
    [
      "ગો",
      "માં</w>"
    ],
    [
      "સ્રો",
      "ત</w>"
    ],
    [
      "ઊભ",
      "ી</w>"
    ],
    [
      "સંગ્ર",
      "હા"
    ],
    [
      "પ્",
      "સ</w>"
    ],
    [
      "સ",
      "્ય</w>"
    ],
    [
      "શા",
      "સિત</w>"
    ],
    [
      "ભાષા",
      "ની</w>"
    ],
    [
      "સા",
      "ચ"
    ],
    [
      "ઘા",
      "ટ</w>"
    ],
    [
      "ઓ",
      "ટો"
    ],
    [
      "બદલા",
      "ય</w>"
    ],
    [
      "ટ",
      "રી</w>"
    ],
    [
      "લ્",
      "લા"
    ],
    [
      "વર્તિ",
      "ત</w>"
    ],
    [
      "આખ",
      "ા</w>"
    ],
    [
      "અ",
      "ંધ"
    ],
    [
      "પદ્ધ",
      "તિ</w>"
    ],
    [
      "ડિઝા",
      "ઇન</w>"
    ],
    [
      "પા",
      "વર</w>"
    ],
    [
      "બજે",
      "ટ</w>"
    ],
    [
      "સ્",
      "કો</w>"
    ],
    [
      "દ્ર",
      "વ્ય"
    ],
    [
      "આયો",
      "વામાં</w>"
    ],
    [
      "જ્યોર્",
      "જ"
    ],
    [
      "કાર",
      "ની</w>"
    ],
    [
      "અ",
      "પી"
    ],
    [
      "સંઘ",
      "ર્ષ"
    ],
    [
      "ફા",
      "ં"
    ],
    [
      "પુ",
      "લ"
    ],
    [
      "લો",
      "ને</w>"
    ],
    [
      "દ",
      "ારો</w>"
    ],
    [
      "હ",
      "મ"
    ],
    [
      "શા",
      "ંતિ"
    ],
    [
      "ય",
      "ના</w>"
    ],
    [
      "હ",
      "ા</w>"
    ],
    [
      "ની",
      "એ</w>"
    ],
    [
      "ચો",
      "થા</w>"
    ],
    [
      "પા",
      "મે</w>"
    ],
    [
      "નિ",
      "સ્તા"
    ],
    [
      "દુ",
      "શ્"
    ],
    [
      "અર",
      "જી</w>"
    ],
    [
      "કારકિર્",
      "દી</w>"
    ],
    [
      "ભો",
      "જ"
    ],
    [
      "માર્ગ",
      "દર્"
    ],
    [
      "જા",
      "તિ</w>"
    ],
    [
      "પાણી",
      "ના</w>"
    ],
    [
      "વર્ષ",
      "ીય</w>"
    ],
    [
      "ક્",
      "વી"
    ],
    [
      "201",
      "3ના</w>"
    ],
    [
      "વિદ્યાર્",
      "થી"
    ],
    [
      "આય",
      "ર્"
    ],
    [
      "દિવ",
      "સો</w>"
    ],
    [
      "સિન્ડ્રો",
      "મ</w>"
    ],
    [
      "હિંદ",
      "ુઓ</w>"
    ],
    [
      "ઉત્",
      "પન્ન</w>"
    ],
    [
      "હંમે",
      "શા"
    ],
    [
      "હત",
      "ો"
    ],
    [
      "નિર્દેશ",
      "ન</w>"
    ],
    [
      "જી",
      "ના</w>"
    ],
    [
      "હો",
      "લ</w>"
    ],
    [
      "નિમણ",
      "ૂક</w>"
    ],
    [
      "ડી",
      "માં</w>"
    ],
    [
      "અહેવા",
      "લો</w>"
    ],
    [
      "અ",
      "મારી</w>"
    ],
    [
      "પ્રભા",
      "વ</w>"
    ],
    [
      "દાય",
      "કા</w>"
    ],
    [
      "પ",
      "ના</w>"
    ],
    [
      "લાંબ",
      "ો</w>"
    ],
    [
      "સ્થળ",
      "ોએ</w>"
    ],
    [
      "શહે",
      "રોમાં</w>"
    ],
    [
      "રમત",
      "ને</w>"
    ],
    [
      "કરા",
      "યેલા</w>"
    ],
    [
      "ઓળ",
      "ખ</w>"
    ],
    [
      "દ",
      "ંપ"
    ],
    [
      "બજ",
      "ાર</w>"
    ],
    [
      "સ",
      "્રા"
    ],
    [
      "વિદ",
      "્યુ"
    ],
    [
      "ક્",
      "ટ</w>"
    ],
    [
      "કાય",
      "દા</w>"
    ],
    [
      "ર",
      ")</w>"
    ],
    [
      "પ્લે",
      "ટ"
    ],
    [
      "કો",
      "ર"
    ],
    [
      "જા",
      "ત</w>"
    ],
    [
      "ગોલ",
      "કી"
    ],
    [
      "પ્રવા",
      "સન</w>"
    ],
    [
      "પ્રોગ્રા",
      "મ</w>"
    ],
    [
      "પ્રસાર",
      "િત</w>"
    ],
    [
      "પે",
      "નલ્"
    ],
    [
      "હો",
      "વ,</w>"
    ],
    [
      "ખરીદ",
      "વા</w>"
    ],
    [
      "મરા",
      "ઠા"
    ],
    [
      "પલ્",
      "લ"
    ],
    [
      "શ્રે",
      "ય</w>"
    ],
    [
      "દરિયાકાં",
      "ઠા"
    ],
    [
      "કર",
      "ેલી</w>"
    ],
    [
      "સ્ત્ર",
      "ી</w>"
    ],
    [
      "ઘા",
      "યલ</w>"
    ],
    [
      "ડિ",
      "ફે"
    ],
    [
      "ક્ર",
      "મ</w>"
    ],
    [
      "ચેમ્પ",
      "િયન</w>"
    ],
    [
      "સંકે",
      "ત</w>"
    ],
    [
      "જણા",
      "ય</w>"
    ],
    [
      "વિકલ્",
      "પ</w>"
    ],
    [
      "ણ",
      "ીય</w>"
    ],
    [
      "વ્યવ",
      "સ્થાપ"
    ],
    [
      "ગેર",
      "કાયદેસર</w>"
    ],
    [
      "લંડ",
      "નમાં</w>"
    ],
    [
      "રૂ",
      "પો"
    ],
    [
      "હો",
      "મ</w>"
    ],
    [
      "જોખ",
      "મી</w>"
    ],
    [
      "આવ",
      "્યો.</w>"
    ],
    [
      "સં",
      "પાદ"
    ],
    [
      "વા",
      "નગી</w>"
    ],
    [
      "સભ",
      "્ય"
    ],
    [
      "બહુવિ",
      "ધ</w>"
    ],
    [
      "વ",
      "ો,</w>"
    ],
    [
      "મિલ",
      "ક"
    ],
    [
      "પર",
      "ગણા"
    ],
    [
      "કી",
      "નું</w>"
    ],
    [
      "પ",
      "વ"
    ],
    [
      "તફા",
      "વત</w>"
    ],
    [
      "ચો",
      "ખા"
    ],
    [
      "ડિજિ",
      "ટલ</w>"
    ],
    [
      "બે",
      "ક"
    ],
    [
      "વૈ",
      "દિક</w>"
    ],
    [
      "ક",
      "સર"
    ],
    [
      "દ",
      "ક</w>"
    ],
    [
      "એપ્",
      "લિ"
    ],
    [
      "ઝ",
      "ોડ"
    ],
    [
      "મુસ્લિ",
      "મો</w>"
    ],
    [
      "ધ",
      "ુ"
    ],
    [
      "201",
      "3માં</w>"
    ],
    [
      "રા",
      "જી"
    ],
    [
      "લખ",
      "્યું</w>"
    ],
    [
      "કો",
      "લો"
    ],
    [
      "રા",
      "ના</w>"
    ],
    [
      "હ",
      "ની</w>"
    ],
    [
      "વાતા",
      "વર"
    ],
    [
      "રી",
      "નો</w>"
    ],
    [
      "સરખામ",
      "ણીમાં</w>"
    ],
    [
      "નદી",
      "માં</w>"
    ],
    [
      "આપ",
      "તા</w>"
    ],
    [
      "અથ",
      "ડા"
    ],
    [
      "મે",
      "સે"
    ],
    [
      "મફ",
      "ત</w>"
    ],
    [
      "યા",
      "દીમાં</w>"
    ],
    [
      "નિય",
      "ર</w>"
    ],
    [
      "મે",
      "યર</w>"
    ],
    [
      "આ",
      "માં</w>"
    ],
    [
      "રિપબ્લિ",
      "કન</w>"
    ],
    [
      "બ્રા",
      "ઉ"
    ],
    [
      "થ",
      "તાં</w>"
    ],
    [
      "સર્",
      "ચ</w>"
    ],
    [
      "મ્યુનિ",
      "સિ"
    ],
    [
      "મેને",
      "જર</w>"
    ],
    [
      "ફો",
      "ટો"
    ],
    [
      "બ",
      "િલ્"
    ],
    [
      "ઈ",
      "લિનો"
    ],
    [
      "પાર્",
      "ટ"
    ],
    [
      "ભંડો",
      "ળ</w>"
    ],
    [
      "બનાવ",
      "વાની</w>"
    ],
    [
      "ઉછે",
      "ર</w>"
    ],
    [
      "ણા",
      "માં</w>"
    ],
    [
      "હો",
      "ત"
    ],
    [
      "દાય",
      "િક</w>"
    ],
    [
      "યુરોપ",
      "માં</w>"
    ],
    [
      "બંગા",
      "ળી</w>"
    ],
    [
      "સર્",
      "વ"
    ],
    [
      "સર્",
      "જન</w>"
    ],
    [
      "પછ",
      "ીની</w>"
    ],
    [
      "જા",
      "તે</w>"
    ],
    [
      "18",
      "9"
    ],
    [
      "સી",
      "ધા</w>"
    ],
    [
      "ઔ",
      "દ્યો"
    ],
    [
      "સો",
      "ની</w>"
    ],
    [
      "ઘ",
      "રની</w>"
    ],
    [
      "મ",
      "સા"
    ],
    [
      "201",
      "8</w>"
    ],
    [
      "ખ્યા",
      "લ</w>"
    ],
    [
      "હો",
      ",</w>"
    ],
    [
      "કલા",
      "કાર</w>"
    ],
    [
      "સ્વ",
      "રૂપો"
    ],
    [
      "વ",
      "ો.</w>"
    ],
    [
      "વ્યા",
      "ખ્યા"
    ],
    [
      "ફિલ્",
      "મે</w>"
    ],
    [
      "સી",
      "ઝન</w>"
    ],
    [
      "લા",
      "ન્"
    ],
    [
      "જ",
      "ી.</w>"
    ],
    [
      "મે",
      "ડિ"
    ],
    [
      "જ્યોર્",
      "જ</w>"
    ],
    [
      "ંગ",
      "નો</w>"
    ],
    [
      "અ",
      "ભાવ</w>"
    ],
    [
      "ટ",
      "ન,</w>"
    ],
    [
      "બો",
      "ક્સિ"
    ],
    [
      "રશ",
      "િયન</w>"
    ],
    [
      "’",
      "’</w>"
    ],
    [
      "લિવ",
      "ૂ"
    ],
    [
      "ર્",
      "ષ</w>"
    ],
    [
      "લી",
      "એ</w>"
    ],
    [
      "ઉપ",
      "ખંડ"
    ],
    [
      "ક્",
      "વાર્"
    ],
    [
      "ટિ",
      "પ્પ"
    ],
    [
      "પારિ",
      "વાર"
    ],
    [
      "કર્ય",
      "ું,</w>"
    ],
    [
      "પસંદ",
      "ગી"
    ],
    [
      "ગો",
      "ળી"
    ],
    [
      "લખ",
      "ી</w>"
    ]
  ],
  "vocab_size": 5000,
  "num_merges": 5000,
  "actual_merges": 5000,
  "vocab": [
    "અંદાજ</w>",
    "લાંબા</w>",
    "દેશ",
    "ટી,</w>",
    "જોઈ</w>",
    "પરિણામો</w>",
    "ચેમ્પિયન</w>",
    "પેશ",
    "પુરવ",
    "તેમજ</w>",
    "2014ના</w>",
    "પ્રોત્સાહન</w>",
    "લોસ</w>",
    "વર્ષે</w>",
    "સફળતા",
    "જુલાઈ,</w>",
    "ધ્વ",
    "ક્ટર</w>",
    "ભુ",
    "નિદાન</w>",
    "દ્વી",
    "વ્",
    "શ્વ",
    "કેન્સર",
    "વૃત્",
    "અંગ્રેજો",
    "ફાટી</w>",
    "સર્વિ",
    "કેસ</w>",
    "ફોટો",
    "મે",
    "લગ્ન</w>",
    "પા</w>",
    "ખરીદી</w>",
    "મર",
    "નલ્",
    "તમિલના",
    "મુસ્લિમ</w>",
    "બહા",
    "દળ",
    "સ્થાન</w>",
    "મરા",
    "સુરક્ષિત</w>",
    "દ્રા",
    "વચ્ચે",
    "લીની</w>",
    "નિર્ણય</w>",
    "યુ.",
    "માં,</w>",
    "ચ",
    "કથા",
    "પાણી",
    "ચોખા",
    "કાર</w>",
    "તબક્",
    "કુલ</w>",
    "વેન્",
    "્ય",
    "કોલો",
    "ગોઠ",
    "હાડ",
    "ટી.</w>",
    "મહત",
    "બી",
    "સ્કેટ",
    "ગ્રા",
    "લને</w>",
    "લબ્",
    "બેક",
    "બન્યા</w>",
    "બે</w>",
    "મુખ્ય",
    "વાઈ",
    "એન્ડ</w>",
    "કર્યાં</w>",
    "ડ",
    "બંને",
    "70</w>",
    "વના</w>",
    "જનરલ</w>",
    "જરૂર</w>",
    "સૌથી</w>",
    "વ્ય",
    "ટીવી</w>",
    "દરમ",
    "લોકોમાં</w>",
    "દમાં</w>",
    "બળ</w>",
    "ડવામાં</w>",
    "ભાર</w>",
    "વિકસા",
    "નવી",
    "અધ્ય",
    "ક્લ",
    "તું</w>",
    "હતો</w>",
    "વિસ્તાર</w>",
    "+",
    "પ્રોજેક્ટ</w>",
    "જૈન</w>",
    "શક્યતા</w>",
    "ર્સ</w>",
    ").</w>",
    "ધર્",
    "ટૂંકી</w>",
    "બનાવી</w>",
    "જળ",
    "કોઈ",
    "(",
    "હિન્દુ</w>",
    "17",
    "ોમાં</w>",
    "બાદ</w>",
    "પહેરે</w>",
    "ધા",
    "અંધ",
    "શાસિત</w>",
    "માર્ગદર્",
    "છા",
    "હિન્દી</w>",
    "રાજકાર",
    "વાના</w>",
    "બન્યા.</w>",
    "ગ્રેટ</w>",
    "હના</w>",
    "ું.</w>",
    "સાથેના</w>",
    "ીમાં</w>",
    "વિસ્તારોમાં</w>",
    "3",
    "મહત્",
    "આઉ",
    "વ્યા",
    "ટો</w>",
    "તેવા</w>",
    "પ્રા",
    "ચેમ્પિયન",
    "બૌ",
    "૧</w>",
    "શકે</w>",
    "સામે</w>",
    "પ્રત્ય",
    "૭",
    "સરખામણીમાં</w>",
    "રનો</w>",
    "શિયા",
    "બરા",
    "ઓ</w>",
    "ચાર",
    "મંદિ",
    "ંપ",
    "છ",
    "પદ",
    "તા",
    "કોએ</w>",
    "વાહન</w>",
    "ગુજ",
    "વિક",
    "શૈલી",
    "વણી",
    "સફે",
    "એક",
    "સી.</w>",
    "પ્રજાતિ",
    "માર્યા</w>",
    "ટે",
    "શૈ",
    "પ્રદેશો</w>",
    "પાંડ",
    "તુ</w>",
    "વિકિ",
    "નિયામાં</w>",
    "પેદા</w>",
    "ધ્ય",
    "ણે</w>",
    "–",
    "p",
    "જવા",
    "અપ",
    "ઊભી</w>",
    "ફૂટ",
    "ન્સિ",
    "નકારી</w>",
    "સંરક્ષણ</w>",
    "ભરમાં</w>",
    "ંડી</w>",
    "ૅ",
    "િયન</w>",
    "જૂ",
    "ફ્ર",
    "મહિના</w>",
    "થિ",
    "ટીમમાં</w>",
    "તકની",
    "ક્લબ</w>",
    "રોમાં</w>",
    "વિશે</w>",
    "ડૂ",
    "કરનારા</w>",
    "મ્યુનિસિ",
    "વાંચ",
    "મુંબ",
    "ચોક્કસ</w>",
    "માછ",
    "<unk>",
    "સમયે,</w>",
    "પડ્યો</w>",
    "પદ્",
    "વસા",
    "ભૂમિ</w>",
    "સીના</w>",
    "ઉદાહરણ</w>",
    "વિશે",
    "પ્ત</w>",
    "જય",
    "ઝર",
    "પહેર",
    "€",
    "પાડે</w>",
    "ગાયક</w>",
    "દુ</w>",
    "સૈનિકો</w>",
    "~",
    "સુ",
    "સ્પર્ધામાં</w>",
    "સું",
    "સેવાઓ</w>",
    "સંસ્",
    "માળ",
    "વૉ",
    "પ્રધા",
    "ગમે</w>",
    "કિલો",
    "લાઇ",
    "બાબ",
    "8માં</w>",
    "વિતર",
    "મં",
    "ડેલ્",
    "ઇન્ડ",
    "ઠે</w>",
    "નો",
    "F",
    "ઉદ્યો",
    "નામાંકિત</w>",
    "કર્ય",
    "મોટાભાગે</w>",
    "પ્રાદેશિક</w>",
    "આગે",
    "અગાઉ</w>",
    "ષ</w>",
    "સંશોધ",
    "કબજે</w>",
    "તણા",
    "ભી",
    "વલ</w>",
    "બ્રહ્",
    "1,",
    "ં</w>",
    "રોજ,</w>",
    "સારો</w>",
    "મધ્ય",
    "એડ",
    "જોખમી</w>",
    "મિલના",
    "જાઓ</w>",
    "બુક</w>",
    "મહત્વપૂર્ણ</w>",
    "ચૂક",
    "સ્પે",
    "ખાદ",
    "રૂપો",
    "છોડી</w>",
    "ટ્રાન્સ",
    "પ્રાદેશ",
    "઼",
    "ેશન</w>",
    "મન",
    "આધ",
    "પ્રે",
    "મહારાષ્ટ્ર",
    "સજા</w>",
    "પાકિસ્તાન</w>",
    "સેલ્",
    "રીમાં</w>",
    "મુલાકાત</w>",
    "માન",
    "બેલ્જ",
    "રીઓ</w>",
    "વપરાશકર્",
    "સો</w>",
    "પૂર્ણ</w>",
    "મિયા</w>",
    "ણ,</w>",
    "ઘટના",
    "તાલુ",
    "ಡ",
    "પરિણ",
    "રચના</w>",
    "સ્ટ્ર",
    "પોતાનો</w>",
    "પહ",
    "વિત</w>",
    "થવાની</w>",
    "ઉચ્ચ</w>",
    "મલ્",
    "હવે</w>",
    "પુલ",
    "જો",
    "પરિષ",
    "હૃ",
    "માનવ",
    "અંત</w>",
    "જૂથ",
    "ક્ક",
    "નેટ</w>",
    "લોકપ્રિય",
    "નૃત્ય",
    "એ</w>",
    "ની",
    "નાં</w>",
    "સામ્રાજ્ય</w>",
    "ઢો",
    "સ્ટી",
    "સમ",
    "વિશિષ્ટ</w>",
    "વૈજ્ઞાનિક</w>",
    "ક્ષણ</w>",
    "નિરાશ</w>",
    "નજીકના</w>",
    "ટૂ",
    "ભાવના</w>",
    "પ્રાંત</w>",
    "મેળવ",
    "સ્નાયુ",
    "લગા",
    "તાપ",
    "અનુ",
    "યુનિ",
    "લીના</w>",
    "અગ",
    "ંડ</w>",
    "એક</w>",
    "મળ",
    "કરવે",
    "અગ્",
    "ારણ",
    "તના</w>",
    "સુનિશ્ચિત</w>",
    "વ્યવસ્થા</w>",
    "ઓછો</w>",
    "આલ્",
    "ંધ",
    "દક્ષિ",
    "લીએ</w>",
    "6</w>",
    "અથડા",
    "તેલુગુ</w>",
    "તેમનું</w>",
    "સામાન્ય</w>",
    "તહેવાર",
    "ન્ડિ",
    "વધે</w>",
    "સમાવેશ</w>",
    "ધિ</w>",
    "સુધી",
    "સ્થાયી</w>",
    "સોમ",
    "બો</w>",
    "માંગતા</w>",
    "વર્",
    "કૃતિઓ</w>",
    "મારી</w>",
    "તૃ",
    "હિમા",
    "વિધાનસભા",
    "રકમ</w>",
    "સખત</w>",
    "ગયા.</w>",
    "ડાં</w>",
    "્યૂ",
    "સની</w>",
    "બ્ર",
    "ખરે",
    "વાની</w>",
    "વિસ્તાર",
    "જુલાઈ</w>",
    "સ્વતંત્રતા</w>",
    "ન-",
    "કેટલીક",
    "કોર્",
    "શાંતિ",
    "ફ્રી",
    "ગ્રીક</w>",
    "આવે</w>",
    "દીધો</w>",
    "કર્યો.</w>",
    "નક્કી</w>",
    "સફળ</w>",
    "હાજ",
    "ંદા</w>",
    "ઓળખવામાં</w>",
    "સરહ",
    "વિજ",
    "ખર</w>",
    "બૌદ્ધ</w>",
    "ર)</w>",
    "રેડ</w>",
    "જ્",
    "વર્તિત</w>",
    "સ્થાનિક</w>",
    "તેણી</w>",
    "શાળા</w>",
    "કરી.</w>",
    "ગન</w>",
    "ટો",
    "ચંદ્ર",
    ")ની</w>",
    "દિ",
    "પત્ર</w>",
    "માર્ગ</w>",
    "કનું</w>",
    "સંપત્",
    "સે</w>",
    "કિનારે</w>",
    "જના</w>",
    "વાસ",
    "વાનગી</w>",
    "તન</w>",
    "સ્તિ",
    "તે,</w>",
    "ત્રા</w>",
    "તિહા",
    "તેઓએ</w>",
    "હાથ",
    "વિસ્",
    "માત્ર</w>",
    "મેયર</w>",
    "ઝની</w>",
    "દર્શાવવામાં</w>",
    "ટરી</w>",
    "8",
    "ષિ",
    "નિયમો</w>",
    "પહેલાં,</w>",
    "તમારે</w>",
    "હિત</w>",
    "વિવેચ",
    "ડી.</w>",
    "મ્",
    "દેશો</w>",
    "સંપૂર્ણપણે</w>",
    "પાત્ર</w>",
    "ત્યારથી</w>",
    "ડિ",
    "સ્થ</w>",
    "મેચ</w>",
    "પુરાવા</w>",
    "વધારા",
    "પેઢ",
    "મોટ",
    "ફ્રા",
    "થયો</w>",
    "ક્યુ",
    "માટેનું</w>",
    "র",
    "પ્પ",
    "બેક</w>",
    "\"</w>",
    "અભ",
    "તળાવ</w>",
    "3ના</w>",
    "સાર",
    "ધર્મ</w>",
    "કર્યા.</w>",
    "પર,</w>",
    "પ્રયા",
    "તાપમાન</w>",
    "વધ",
    "પાદ",
    "સાબિત</w>",
    "પૂર્વીય</w>",
    "સામ્રાજ્યના</w>",
    "િયર</w>",
    "૯</w>",
    "પ્લેટ",
    "નિરા",
    "ઈન્",
    "લાભ</w>",
    "મળે</w>",
    "માનવ</w>",
    "તમા",
    "કલ",
    "ક્",
    "ણનું</w>",
    "કન્",
    "દારો</w>",
    "ખ",
    "ઉત્તરમાં</w>",
    "દાર",
    "કેન્",
    "ી.</w>",
    "સંસ્કૃતિ",
    "નુષ",
    "પ્લે",
    ".એન",
    "વગે",
    "ચેમ્પિયનશિપ</w>",
    "ચલ",
    "િયા,</w>",
    "એલ્",
    "જાણ</w>",
    "ટક",
    "ારી",
    "શર",
    "કા,</w>",
    "પ્રમા",
    "ષ્ણકટિ",
    "વાત</w>",
    "થિયે",
    "c",
    "ંતરિત</w>",
    "રજવા",
    "ઝમ</w>",
    "મિત</w>",
    "ફ્",
    "ે",
    "192",
    "ંમ",
    "ભાવ</w>",
    "માઉ",
    "કાર્યક્રમ</w>",
    "મદદ</w>",
    "ટેકો</w>",
    "નર",
    "કર્મ",
    "લીધો</w>",
    "નસ</w>",
    "ણનો</w>",
    "પાત્ર",
    "સંપૂર્ણ",
    "યુનાઇટેડ</w>",
    "લો,</w>",
    "સામ્રા",
    "ષ",
    "ક્ત",
    "અંગ",
    "1",
    "નદીના</w>",
    "તમને</w>",
    "ઝ",
    "સંકળા",
    "ન્ટ",
    "આશ્ચર્ય",
    "વિષ્ણ",
    "ખેલાડી</w>",
    "નદીની</w>",
    "સુધીમાં,</w>",
    "ઓ.",
    "ક્ષા",
    "ચાલે</w>",
    "મ્પ",
    "ષિત</w>",
    "સભા",
    "કોંગ્રેસ</w>",
    "ફિલ્મ</w>",
    "પુનરા",
    "ાર્",
    "દેરા",
    "પ્ર",
    "ઠે",
    "અનુસાર,</w>",
    "મારો</w>",
    "સપ્ટે",
    "મહત્ત્વ",
    "ક્લા",
    "બ્રો",
    "ટન</w>",
    "ડિજિ",
    "માંની</w>",
    "કરવા</w>",
    "ઓમાં</w>",
    "કલા</w>",
    "મતી</w>",
    "માટેનો</w>",
    "દાય",
    "ચાલ",
    "ટ્યુ",
    "શીખ",
    "પુરુ",
    "જેનું</w>",
    "સંદર્ભ",
    "ંના</w>",
    "એવો</w>",
    "દક્ષિણ</w>",
    "જમા",
    "મોટાભાગના</w>",
    "જને</w>",
    "ખિ",
    "ઉચ્",
    "હતા,</w>",
    "આવેલ</w>",
    "ષ્ટ</w>",
    "કરવાના</w>",
    "7ના</w>",
    "ચીજ",
    "રના</w>",
    "સ્પર્ધા",
    "ઓર્ડર</w>",
    "અલ</w>",
    "197",
    "0માં</w>",
    "નામું</w>",
    "તમિ",
    "્યુ",
    "વધારાના</w>",
    "હિમાલય",
    "વન",
    "198",
    "ડનો</w>",
    "સ્વ",
    "સર્ચ</w>",
    "માટેના</w>",
    "તા.</w>",
    "બેંક",
    "0,000</w>",
    "તહેવાર</w>",
    "નુ",
    "રમાય</w>",
    "વિવિધ</w>",
    "પ્રોટી",
    "બંધ</w>",
    "જિલ્લામાં</w>",
    "ંટ",
[...]
