{
  "merges": [
    [
      "े",
      "</w>"
    ],
    [
      "ा",
      "</w>"
    ],
    [
      "ी",
      "</w>"
    ],
    [
      "ं",
      "</w>"
    ],
    [
      "र",
      "</w>"
    ],
    [
      "।",
      "</w>"
    ],
    [
      "क",
      "े</w>"
    ],
    [
      "ह",
      "ै"
    ],
    [
      "म",
      "े"
    ],
    [
      "्",
      "र"
    ],
    [
      "मे",
      "ं</w>"
    ],
    [
      "क",
      "</w>"
    ],
    [
      "न",
      "</w>"
    ],
    [
      "र",
      "्"
    ],
    [
      "ो",
      "</w>"
    ],
    [
      "न",
      "े</w>"
    ],
    [
      ",",
      "</w>"
    ],
    [
      "त",
      "</w>"
    ],
    [
      "ि",
      "य"
    ],
    [
      "स",
      "े</w>"
    ],
    [
      "ो",
      "ं</w>"
    ],
    [
      "स",
      "्"
    ],
    [
      "्",
      "य"
    ],
    [
      "क",
      "ी</w>"
    ],
    [
      "औ",
      "र</w>"
    ],
    [
      "ा",
      "र"
    ],
    [
      "ल",
      "</w>"
    ],
    [
      "क",
      "ा</w>"
    ],
    [
      "है",
      "।</w>"
    ],
    [
      "त",
      "ा</w>"
    ],
    [
      "प",
      "्र"
    ],
    [
      "क",
      "ो</w>"
    ],
    [
      "क",
      "्"
    ],
    [
      "म",
      "</w>"
    ],
    [
      "क",
      "ि"
    ],
    [
      "स",
      "</w>"
    ],
    [
      "व",
      "ि"
    ],
    [
      "र",
      "ा"
    ],
    [
      "ए",
      "</w>"
    ],
    [
      "ल",
      "ि"
    ],
    [
      "व",
      "ा"
    ],
    [
      "क",
      "ा"
    ],
    [
      "क",
      "र"
    ],
    [
      "म",
      "ा"
    ],
    [
      "ए",
      "क</w>"
    ],
    [
      "ज",
      "ा"
    ],
    [
      "ह",
      "</w>"
    ],
    [
      "स",
      "ा"
    ],
    [
      "ा",
      "।</w>"
    ],
    [
      "त",
      "्"
    ],
    [
      "य",
      "</w>"
    ],
    [
      "िय",
      "ा</w>"
    ],
    [
      "है",
      "ं"
    ],
    [
      "न",
      "ा</w>"
    ],
    [
      "य",
      "ा</w>"
    ],
    [
      "ग",
      "</w>"
    ],
    [
      "ह",
      "ो"
    ],
    [
      "ई",
      "</w>"
    ],
    [
      "स",
      "ं"
    ],
    [
      "ल",
      "ा"
    ],
    [
      "त",
      "ि"
    ],
    [
      "न",
      "ा"
    ],
    [
      "न",
      "ि"
    ],
    [
      "त",
      "े</w>"
    ],
    [
      "प",
      "</w>"
    ],
    [
      "प",
      "र</w>"
    ],
    [
      "ब",
      "ा"
    ],
    [
      "ि",
      "त</w>"
    ],
    [
      "ड",
      "़"
    ],
    [
      "द",
      "</w>"
    ],
    [
      "लि",
      "ए</w>"
    ],
    [
      "ण",
      "</w>"
    ],
    [
      "हैं",
      "।</w>"
    ],
    [
      "ह",
      "ा"
    ],
    [
      "्य",
      "</w>"
    ],
    [
      "न",
      "्"
    ],
    [
      "क्",
      "ष"
    ],
    [
      "है",
      "</w>"
    ],
    [
      "प",
      "ा"
    ],
    [
      "द",
      "्"
    ],
    [
      "ल",
      "्"
    ],
    [
      "ट",
      "</w>"
    ],
    [
      "कि",
      "</w>"
    ],
    [
      "म",
      "ि"
    ],
    [
      "ल",
      "े</w>"
    ],
    [
      "त",
      "ा"
    ],
    [
      "र",
      "ू"
    ],
    [
      "त",
      "ी</w>"
    ],
    [
      "ह",
      "ु"
    ],
    [
      "द",
      "े"
    ],
    [
      "ल",
      "े"
    ],
    [
      "न",
      "ी</w>"
    ],
    [
      "र",
      "ि"
    ],
    [
      "भ",
      "ी</w>"
    ],
    [
      "ज",
      "ि"
    ],
    [
      "क",
      "र</w>"
    ],
    [
      "व",
      "</w>"
    ],
    [
      "म",
      "ु"
    ],
    [
      "अ",
      "प"
    ],
    [
      "ल",
      "ी</w>"
    ],
    [
      "य",
      "ह</w>"
    ],
    [
      "द",
      "ि"
    ],
    [
      "क",
      "िया</w>"
    ],
    [
      "स्",
      "थ"
    ],
    [
      "ब",
      "</w>"
    ],
    [
      "श",
      "ा"
    ],
    [
      "2",
      "0"
    ],
    [
      "ध",
      "ि"
    ],
    [
      "ं",
      "ग"
    ],
    [
      "ह",
      "ी"
    ],
    [
      "थ",
      "ा।</w>"
    ],
    [
      "स",
      "म"
    ],
    [
      "श",
      "</w>"
    ],
    [
      "ं",
      "ड"
    ],
    [
      "रा",
      "ज"
    ],
    [
      "भ",
      "ा"
    ],
    [
      "स",
      "ि"
    ],
    [
      "ी",
      "य</w>"
    ],
    [
      "रू",
      "प</w>"
    ],
    [
      "ष",
      "्"
    ],
    [
      "ल",
      "ा</w>"
    ],
    [
      "द",
      "ा"
    ],
    [
      "ल",
      "ो"
    ],
    [
      "थ",
      "</w>"
    ],
    [
      "स",
      "क"
    ],
    [
      "जा",
      "ता</w>"
    ],
    [
      "ह",
      "ि"
    ],
    [
      "च",
      "ा"
    ],
    [
      "कर",
      "ने</w>"
    ],
    [
      "ति",
      "</w>"
    ],
    [
      "ग",
      "या</w>"
    ],
    [
      "र",
      "ह"
    ],
    [
      "प",
      "ू"
    ],
    [
      "क",
      "ु"
    ],
    [
      "त",
      "्र"
    ],
    [
      "उ",
      "न्"
    ],
    [
      "अ",
      "न"
    ],
    [
      ".",
      "</w>"
    ],
    [
      "र",
      "ी</w>"
    ],
    [
      "1",
      "9"
    ],
    [
      "क",
      "ो"
    ],
    [
      "्य",
      "ा"
    ],
    [
      "प",
      "ु"
    ],
    [
      "िय",
      "ों</w>"
    ],
    [
      "इ",
      "स"
    ],
    [
      "है",
      ",</w>"
    ],
    [
      "ह",
      "ो</w>"
    ],
    [
      "य",
      "ो"
    ],
    [
      "व",
      "र्"
    ],
    [
      "च",
      "</w>"
    ],
    [
      "ही",
      "ं</w>"
    ],
    [
      "0",
      "</w>"
    ],
    [
      "ी",
      "।</w>"
    ],
    [
      "े",
      "ं</w>"
    ],
    [
      "ज",
      "ो</w>"
    ],
    [
      "क",
      "े"
    ],
    [
      "क",
      "ार"
    ],
    [
      "उ",
      "न"
    ],
    [
      "न",
      "हीं</w>"
    ],
    [
      "श",
      "्"
    ],
    [
      "उ",
      "प"
    ],
    [
      "े",
      "।</w>"
    ],
    [
      "प",
      "ह"
    ],
    [
      "क",
      "्र"
    ],
    [
      "द",
      "ी</w>"
    ],
    [
      "इ",
      "स</w>"
    ],
    [
      "त्",
      "र</w>"
    ],
    [
      "िय",
      "ा"
    ],
    [
      "भ",
      "ार"
    ],
    [
      "ग",
      "ा"
    ],
    [
      "स",
      "ी</w>"
    ],
    [
      "द्",
      "व"
    ],
    [
      "अ",
      "धि"
    ],
    [
      "स",
      "े"
    ],
    [
      "श",
      "ि"
    ],
    [
      "य",
      "ा"
    ],
    [
      "स्",
      "ट"
    ],
    [
      "त",
      "क</w>"
    ],
    [
      "फ",
      "ि"
    ],
    [
      "सा",
      "थ</w>"
    ],
    [
      "र",
      "ो"
    ],
    [
      "ध",
      "</w>"
    ],
    [
      "ओ",
      "ं</w>"
    ],
    [
      "ँ",
      "</w>"
    ],
    [
      "त",
      "र"
    ],
    [
      "ार",
      "ा</w>"
    ],
    [
      "का",
      "र</w>"
    ],
    [
      "ं",
      ",</w>"
    ],
    [
      "्र",
      "ा"
    ],
    [
      "म",
      "ै"
    ],
    [
      "न",
      "े"
    ],
    [
      "व",
      "े</w>"
    ],
    [
      "प",
      "्"
    ],
    [
      "ज",
      "</w>"
    ],
    [
      "है",
      "ं</w>"
    ],
    [
      "ज",
      "़"
    ],
    [
      "अप",
      "ने</w>"
    ],
    [
      "ं",
      "ने</w>"
    ],
    [
      "ड",
      "</w>"
    ],
    [
      "िय",
      "ा।</w>"
    ],
    [
      "ख",
      "े"
    ],
    [
      "व",
      "े"
    ],
    [
      "ह",
      "ी</w>"
    ],
    [
      "स",
      "ी"
    ],
    [
      "ु",
      "</w>"
    ],
    [
      "ज",
      "ी"
    ],
    [
      "न",
      "ों</w>"
    ],
    [
      "हो",
      "ंने</w>"
    ],
    [
      "बा",
      "द</w>"
    ],
    [
      "द्व",
      "ारा</w>"
    ],
    [
      "म",
      "्"
    ],
    [
      "स",
      "ु"
    ],
    [
      "ं",
      "द"
    ],
    [
      "ल",
      "ग"
    ],
    [
      "ब",
      "ी"
    ],
    [
      "र",
      "े"
    ],
    [
      "स्",
      "त"
    ],
    [
      "स",
      "ा</w>"
    ],
    [
      "ब",
      "्"
    ],
    [
      "स्थ",
      "ा"
    ],
    [
      "ट",
      "्र"
    ],
    [
      "श",
      "ु"
    ],
    [
      "ल",
      "ी"
    ],
    [
      "च",
      "ि"
    ],
    [
      "पू",
      "र्"
    ],
    [
      "ं",
      "ग</w>"
    ],
    [
      "उन्",
      "होंने</w>"
    ],
    [
      "उ",
      "त्"
    ],
    [
      "ट",
      "ि"
    ],
    [
      "थ",
      "े।</w>"
    ],
    [
      "जि",
      "स"
    ],
    [
      "त",
      "ो</w>"
    ],
    [
      ".",
      "ए"
    ],
    [
      "ष",
      "</w>"
    ],
    [
      "ट",
      "ी"
    ],
    [
      "र",
      "ा</w>"
    ],
    [
      "ब",
      "े"
    ],
    [
      "ख",
      "ा"
    ],
    [
      "छ",
      "</w>"
    ],
    [
      "व",
      "ी"
    ],
    [
      "ख",
      "</w>"
    ],
    [
      "म",
      "ी"
    ],
    [
      "स",
      "ब"
    ],
    [
      "र",
      "ी"
    ],
    [
      "ं",
      "प"
    ],
    [
      "ह",
      "र</w>"
    ],
    [
      "ि",
      "क</w>"
    ],
    [
      "राज",
      "्य</w>"
    ],
    [
      "अन",
      "ु"
    ],
    [
      "अ",
      "ं"
    ],
    [
      "कु",
      "छ</w>"
    ],
    [
      "ह",
      "ें</w>"
    ],
    [
      "च",
      "्"
    ],
    [
      "र",
      "े</w>"
    ],
    [
      "आ",
      "प"
    ],
    [
      "य",
      "ु"
    ],
    [
      "ज",
      "ा</w>"
    ],
    [
      "क्ष",
      "े"
    ],
    [
      "नि",
      "र्"
    ],
    [
      "र",
      "ु"
    ],
    [
      "क",
      "ई</w>"
    ],
    [
      "प्र",
      "ा"
    ],
    [
      "त",
      "ी"
    ],
    [
      "मि",
      "ल</w>"
    ],
    [
      "20",
      "1"
    ],
    [
      "ज",
      "ै"
    ],
    [
      "ध",
      "ा"
    ],
    [
      "मे",
      "ं,</w>"
    ],
    [
      "व",
      "्य"
    ],
    [
      "ार",
      "ी</w>"
    ],
    [
      "य",
      "ा।</w>"
    ],
    [
      "ू",
      "</w>"
    ],
    [
      "ग",
      "ु"
    ],
    [
      "प",
      "े"
    ],
    [
      "्र",
      "े"
    ],
    [
      "प",
      "रि"
    ],
    [
      "ं",
      "।</w>"
    ],
    [
      "ढ",
      "़"
    ],
    [
      "कर",
      "ते</w>"
    ],
    [
      "हैं",
      ",</w>"
    ],
    [
      "व",
      "ह</w>"
    ],
    [
      "सब",
      "से</w>"
    ],
    [
      "यो",
      "ग</w>"
    ],
    [
      "वा",
      "ले</w>"
    ],
    [
      "भार",
      "त</w>"
    ],
    [
      "ब",
      "ि"
    ],
    [
      "थ",
      "ी।</w>"
    ],
    [
      "ट",
      "ी</w>"
    ],
    [
      "1",
      "</w>"
    ],
    [
      "5",
      "</w>"
    ],
    [
      "ब",
      "ना"
    ],
    [
      "त",
      "्य"
    ],
    [
      "ज",
      "ब</w>"
    ],
    [
      "द",
      "ू"
    ],
    [
      "क",
      "ों</w>"
    ],
    [
      "अधि",
      "क</w>"
    ],
    [
      "ब",
      "ं"
    ],
    [
      "प्र",
      "ति"
    ],
    [
      "2",
      "</w>"
    ],
    [
      ")",
      "</w>"
    ],
    [
      "द",
      "र्"
    ],
    [
      "का",
      "र्"
    ],
    [
      "उ",
      "स"
    ],
    [
      "फि",
      "ल्"
    ],
    [
      "ड़",
      "ी</w>"
    ],
    [
      "ख",
      "ि"
    ],
    [
      "न",
      "ी"
    ],
    [
      "ंड",
      "</w>"
    ],
    [
      "क्",
      "त</w>"
    ],
    [
      "आ",
      "प</w>"
    ],
    [
      "ग",
      "ों</w>"
    ],
    [
      "द",
      "िया</w>"
    ],
    [
      "ल",
      "ों</w>"
    ],
    [
      "मा",
      "न</w>"
    ],
    [
      "ट",
      "्"
    ],
    [
      "ट",
      "े"
    ],
    [
      "प",
      "ी"
    ],
    [
      "क",
      "ृ"
    ],
    [
      "आ",
      "</w>"
    ],
    [
      "थ",
      "ा</w>"
    ],
    [
      "सक",
      "ता</w>"
    ],
    [
      "ग",
      "ो"
    ],
    [
      "ए",
      "।</w>"
    ],
    [
      "त",
      "ीय</w>"
    ],
    [
      "क",
      "िया।</w>"
    ],
    [
      "द",
      "ु"
    ],
    [
      "उन्",
      "हें</w>"
    ],
    [
      "ले",
      "कि"
    ],
    [
      "स",
      "ू"
    ],
    [
      "क",
      "्य"
    ],
    [
      "द",
      "ौ"
    ],
    [
      "पह",
      "ले</w>"
    ],
    [
      "क",
      "ै"
    ],
    [
      "श",
      "े"
    ],
    [
      "मा",
      "न"
    ],
    [
      "लेकि",
      "न</w>"
    ],
    [
      "व",
      "ा</w>"
    ],
    [
      "म",
      "ी</w>"
    ],
    [
      "क",
      "ह"
    ],
    [
      "अन",
      "्य</w>"
    ],
    [
      "उन",
      "के</w>"
    ],
    [
      "द्",
      "ध</w>"
    ],
    [
      "ब",
      "हु"
    ],
    [
      "4",
      "</w>"
    ],
    [
      "शा",
      "मिल</w>"
    ],
    [
      "भ",
      "ि"
    ],
    [
      "ग",
      "ी"
    ],
    [
      "उप",
      "योग</w>"
    ],
    [
      "सम",
      "य</w>"
    ],
    [
      "अप",
      "नी</w>"
    ],
    [
      "ग",
      "या।</w>"
    ],
    [
      "म",
      "ं"
    ],
    [
      "हो",
      "ता</w>"
    ],
    [
      "ं",
      "ब"
    ],
    [
      "प",
      "ि"
    ],
    [
      "त",
      "ु"
    ],
    [
      "ग",
      "्र"
    ],
    [
      "8",
      "</w>"
    ],
    [
      "6",
      "</w>"
    ],
    [
      "20",
      "0"
    ],
    [
      "3",
      "</w>"
    ],
    [
      "7",
      "</w>"
    ],
    [
      "थ",
      "ा"
    ],
    [
      "ल",
      "ै"
    ],
    [
      "म",
      "ो"
    ],
    [
      "श",
      "न</w>"
    ],
    [
      "ट",
      "र</w>"
    ],
    [
      "त",
      "र</w>"
    ],
    [
      "ष्",
      "ट्र"
    ],
    [
      "म",
      "ा</w>"
    ],
    [
      "ट",
      "ा"
    ],
    [
      "ड",
      "ि"
    ],
    [
      "ग",
      "ई</w>"
    ],
    [
      "हो",
      "ने</w>"
    ],
    [
      "बहु",
      "त</w>"
    ],
    [
      "म",
      "ह"
    ],
    [
      "द",
      "ो"
    ],
    [
      "फ",
      "</w>"
    ],
    [
      "लो",
      "गों</w>"
    ],
    [
      "न",
      "िय"
    ],
    [
      "क्षे",
      "त्र</w>"
    ],
    [
      "्य",
      "ू"
    ],
    [
      "र",
      "ों</w>"
    ],
    [
      "क",
      "म</w>"
    ],
    [
      "सक",
      "ते</w>"
    ],
    [
      "ड़",
      "</w>"
    ],
    [
      "कर",
      "ता</w>"
    ],
    [
      "प्",
      "त</w>"
    ],
    [
      "ार",
      "े</w>"
    ],
    [
      "ग",
      "ि"
    ],
    [
      "म",
      "ू"
    ],
    [
      "स्",
      "व"
    ],
    [
      "य",
      "ू"
    ],
    [
      "प",
      "ै"
    ],
    [
      "क",
      "ॉ"
    ],
    [
      "ब",
      "ै"
    ],
    [
      "फ",
      "़"
    ],
    [
      "फिल्",
      "म</w>"
    ],
    [
      "इ",
      "न</w>"
    ],
    [
      "इ",
      "से</w>"
    ],
    [
      "प",
      "ो"
    ],
    [
      "च",
      "ी"
    ],
    [
      "भ",
      "ू"
    ],
    [
      "पा",
      "स</w>"
    ],
    [
      "ग",
      "ए</w>"
    ],
    [
      "ज",
      "न"
    ],
    [
      "ौ",
      "र</w>"
    ],
    [
      "हो",
      "ती</w>"
    ],
    [
      "हु",
      "ए</w>"
    ],
    [
      "छ",
      "ो"
    ],
    [
      "अ",
      "मे"
    ],
    [
      "जा",
      "ने</w>"
    ],
    [
      "खे",
      "ल</w>"
    ],
    [
      "र",
      "ख"
    ],
    [
      "क",
      "र्"
    ],
    [
      "अमे",
      "रि"
    ],
    [
      "ना",
      "म</w>"
    ],
    [
      "चा",
      "र</w>"
    ],
    [
      "रू",
      "</w>"
    ],
    [
      "हु",
      "आ</w>"
    ],
    [
      "न",
      ",</w>"
    ],
    [
      "\"",
      "</w>"
    ],
    [
      "कार",
      "ण</w>"
    ],
    [
      ":",
      "</w>"
    ],
    [
      "दे",
      "श"
    ],
    [
      "च",
      "ु"
    ],
    [
      "श",
      "हर</w>"
    ],
    [
      "ज",
      "्"
    ],
    [
      "द",
      "ो</w>"
    ],
    [
      "0",
      "0</w>"
    ],
    [
      "प",
      "र्"
    ],
    [
      "ज",
      "न</w>"
    ],
    [
      "दौ",
      "रा"
    ],
    [
      "द",
      "ा</w>"
    ],
    [
      "स",
      "ो"
    ],
    [
      "जा",
      "ती</w>"
    ],
    [
      "क",
      "ी"
    ],
    [
      "ज",
      "ी</w>"
    ],
    [
      "वि",
      "श्"
    ],
    [
      "खि",
      "ला"
    ],
    [
      "ध",
      "्य"
    ],
    [
      "स",
      "र</w>"
    ],
    [
      "प",
      "र"
    ],
    [
      "ब",
      "ॉ"
    ],
    [
      "दे",
      "श</w>"
    ],
    [
      "रा",
      "ष्ट्र"
    ],
    [
      "नि",
      "क</w>"
    ],
    [
      "त",
      "ौर</w>"
    ],
    [
      "कह",
      "ा</w>"
    ],
    [
      "वा",
      "ली</w>"
    ],
    [
      "ड",
      "े"
    ],
    [
      "ब",
      "ो"
    ],
    [
      "दे",
      "ख"
    ],
    [
      "कि",
      "सी</w>"
    ],
    [
      "मु",
      "ख"
    ],
    [
      "शु",
      "रू</w>"
    ],
    [
      "मा",
      "र्"
    ],
    [
      "ज",
      "े"
    ],
    [
      "भार",
      "तीय</w>"
    ],
    [
      "ल",
      "य</w>"
    ],
    [
      "ं",
      "कि</w>"
    ],
    [
      "बा",
      "र</w>"
    ],
    [
      "उन",
      "की</w>"
    ],
    [
      "ज",
      "ो"
    ],
    [
      "इस",
      "के</w>"
    ],
    [
      "आ",
      "म</w>"
    ],
    [
      "श",
      "्र"
    ],
    [
      "हा",
      "ँ</w>"
    ],
    [
      "ज",
      "ु"
    ],
    [
      "9",
      "</w>"
    ],
    [
      "भ",
      "ी"
    ],
    [
      "ं",
      "ट"
    ],
    [
      "र्",
      "थ"
    ],
    [
      "ड़",
      "ा</w>"
    ],
    [
      "कर",
      "ना</w>"
    ],
    [
      "सा",
      "म"
    ],
    [
      "व",
      "ी</w>"
    ],
    [
      "क",
      "ंप"
    ],
    [
      "मु",
      "झ"
    ],
    [
      "भ",
      "ग</w>"
    ],
    [
      "अ",
      "व"
    ],
    [
      "रह",
      "ा</w>"
    ],
    [
      "ण",
      "ा"
    ],
    [
      "लग",
      "भग</w>"
    ],
    [
      "जै",
      "से</w>"
    ],
    [
      "ब",
      "्र"
    ],
    [
      "दू",
      "स"
    ],
    [
      "ड़",
      "े</w>"
    ],
    [
      "फ",
      "ा"
    ],
    [
      "हो",
      "ते</w>"
    ],
    [
      "ं",
      "श</w>"
    ],
    [
      "त",
      "े"
    ],
    [
      "का",
      "म</w>"
    ],
    [
      "र",
      "क्ष"
    ],
    [
      "को",
      "ई</w>"
    ],
    [
      "लो",
      "ग</w>"
    ],
    [
      "वा",
      "र</w>"
    ],
    [
      "दा",
      "न</w>"
    ],
    [
      "थ",
      "ी"
    ],
    [
      "स",
      "र"
    ],
    [
      "हा",
      "ला"
    ],
    [
      "ख",
      "ु"
    ],
    [
      "बं",
      "ध"
    ],
    [
      "मि",
      "ल"
    ],
    [
      "रह",
      "े</w>"
    ],
    [
      "मुझ",
      "े</w>"
    ],
    [
      "ब",
      "ु"
    ],
    [
      "तर",
      "ह</w>"
    ],
    [
      "ई",
      "।</w>"
    ],
    [
      "बी",
      "च</w>"
    ],
    [
      "स्",
      "ता"
    ],
    [
      "दौरा",
      "न</w>"
    ],
    [
      "स्थ",
      "ित</w>"
    ],
    [
      "हि",
      "स्"
    ],
    [
      "च्",
      "छ"
    ],
    [
      "स",
      "न</w>"
    ],
    [
      "क्ष",
      "ि"
    ],
    [
      "धि",
      "</w>"
    ],
    [
      "ड",
      "ा"
    ],
    [
      "म",
      "ौ"
    ],
    [
      "दि",
      "</w>"
    ],
    [
      "र",
      "ण</w>"
    ],
    [
      "न",
      "ो"
    ],
    [
      "अ",
      "ग"
    ],
    [
      "फ",
      "्"
    ],
    [
      "प्र",
      "भा"
    ],
    [
      "अ",
      "ल"
    ],
    [
      "यु",
      "क्त</w>"
    ],
    [
      "मै",
      "ं</w>"
    ],
    [
      "क",
      "ी।</w>"
    ],
    [
      "म",
      "ों</w>"
    ],
    [
      "ध",
      "ार"
    ],
    [
      "ग",
      "े"
    ],
    [
      "स",
      "र्"
    ],
    [
      "आ",
      "ई"
    ],
    [
      "िय",
      "ो"
    ],
    [
      "पूर्",
      "ण</w>"
    ],
    [
      "ब",
      "ढ़"
    ],
    [
      "ज",
      "ू"
    ],
    [
      "जिस",
      "में</w>"
    ],
    [
      "वि",
      "शे"
    ],
    [
      "च",
      "े"
    ],
    [
      "वर्",
      "ष</w>"
    ],
    [
      "था",
      ",</w>"
    ],
    [
      "व",
      "ल</w>"
    ],
    [
      "गी",
      "त</w>"
    ],
    [
      "स्थ",
      "ि"
    ],
    [
      "व्य",
      "क्"
    ],
    [
      "ए",
      ",</w>"
    ],
    [
      "म",
      "क</w>"
    ],
    [
      "हा",
      "र</w>"
    ],
    [
      "वि",
      "द"
    ],
    [
      "द",
      "ी"
    ],
    [
      "आप",
      "को</w>"
    ],
    [
      "व",
      "श"
    ],
    [
      "उ",
      "स</w>"
    ],
    [
      "द",
      "िया।</w>"
    ],
    [
      "जा",
      "ते</w>"
    ],
    [
      "द",
      "क्षि"
    ],
    [
      "घ",
      "ा"
    ],
    [
      "अ",
      "भि"
    ],
    [
      "क्य",
      "ो"
    ],
    [
      "त्",
      "व"
    ],
    [
      "व",
      "्या"
    ],
    [
      "जा",
      "ना</w>"
    ],
    [
      "ब",
      "र</w>"
    ],
    [
      "हु",
      "ई</w>"
    ],
    [
      "म",
      "हा"
    ],
    [
      "ए",
      "ँ</w>"
    ],
    [
      "फि",
      "र</w>"
    ],
    [
      "उ",
      "से</w>"
    ],
    [
      "ं",
      "त्र"
    ],
    [
      "क्यो",
      "ंकि</w>"
    ],
    [
      "व",
      "न</w>"
    ],
    [
      "स्था",
      "प"
    ],
    [
      "य",
      "दि</w>"
    ],
    [
      "श",
      "ी"
    ],
    [
      "लै",
      "ंड</w>"
    ],
    [
      "कार्",
      "य"
    ],
    [
      "ब",
      "र्"
    ],
    [
      "स",
      "भी</w>"
    ],
    [
      "ज्",
      "ञ"
    ],
    [
      "ग",
      "्रा"
    ],
    [
      "दि",
      "न</w>"
    ],
    [
      "ह",
      "म"
    ],
    [
      "कर",
      "ण</w>"
    ],
    [
      "ठ",
      "</w>"
    ],
    [
      "त",
      "ों</w>"
    ],
    [
      "अ",
      "क्"
    ],
    [
      "व",
      "र</w>"
    ],
    [
      "फ",
      "े"
    ],
    [
      "19",
      "9"
    ],
    [
      "न",
      "िया</w>"
    ],
    [
      "न्",
      "न</w>"
    ],
    [
      "ं",
      "ट</w>"
    ],
    [
      "व",
      "ै"
    ],
    [
      "ल",
      "िया</w>"
    ],
    [
      "राष्ट्र",
      "ीय</w>"
    ],
    [
      "ड",
      "ी"
    ],
    [
      "जि",
      "से</w>"
    ],
    [
      "मु",
      "ख</w>"
    ],
    [
      "भू",
      "मि"
    ],
    [
      "स",
      "ै"
    ],
    [
      "प",
      "श्"
    ],
    [
      "श",
      "ो"
    ],
    [
      "मुख",
      "्य</w>"
    ],
    [
      "कि",
      "ए</w>"
    ],
    [
      "िया",
      "ँ</w>"
    ],
    [
      "सं",
      "युक्त</w>"
    ],
    [
      "यो",
      "ज"
    ],
    [
      "कर",
      "े"
    ],
    [
      "ज़",
      "</w>"
    ],
    [
      "त्",
      "व</w>"
    ],
    [
      "ट",
      "ा</w>"
    ],
    [
      "ल",
      "गा"
    ],
    [
      "द",
      ",</w>"
    ],
    [
      "अमेरि",
      "का</w>"
    ],
    [
      "य",
      "े</w>"
    ],
    [
      "त्र",
      "ों</w>"
    ],
    [
      "रु",
      "आ"
    ],
    [
      "शु",
      "रुआ"
    ],
    [
      "ः",
      "</w>"
    ],
    [
      "कार",
      "ी</w>"
    ],
    [
      "भा",
      "ग</w>"
    ],
    [
      "मं",
      "दि"
    ],
    [
      "इस",
      "का</w>"
    ],
    [
      "न",
      "दी</w>"
    ],
    [
      "त",
      "ब</w>"
    ],
    [
      "स्था",
      "न</w>"
    ],
    [
      "ब",
      "ारे</w>"
    ],
    [
      "द्",
      "र</w>"
    ],
    [
      "दो",
      "नों</w>"
    ],
    [
      "स",
      "मा"
    ],
    [
      "फ",
      "ो"
    ],
    [
      "ॉ",
      "र्"
    ],
    [
      "क",
      "ता</w>"
    ],
    [
      "ार",
      "ों</w>"
    ],
    [
      "प्र",
      "मुख</w>"
    ],
    [
      "पश्",
      "चि"
    ],
    [
      "ग",
      "ा।</w>"
    ],
    [
      "म",
      "हि"
    ],
    [
      "न",
      "ु"
    ],
    [
      "थ",
      "ी</w>"
    ],
    [
      "के",
      "वल</w>"
    ],
    [
      "ष्",
      "ट</w>"
    ],
    [
      "च",
      "े</w>"
    ],
    [
      "र",
      ",</w>"
    ],
    [
      "ं",
      "स</w>"
    ],
    [
      "म",
      "ित</w>"
    ],
    [
      "िया",
      ",</w>"
    ],
    [
      "ं",
      "त</w>"
    ],
    [
      "सक",
      "ती</w>"
    ],
    [
      "अ",
      "र्"
    ],
    [
      "त",
      "ियों</w>"
    ],
    [
      "म",
      "ृ"
    ],
    [
      "प्रा",
      "प्त</w>"
    ],
    [
      "अल",
      "ग</w>"
    ],
    [
      "निर्",
      "मा"
    ],
    [
      "ऐ",
      "सा</w>"
    ],
    [
      "सा",
      "ल</w>"
    ],
    [
      "ब",
      "द"
    ],
    [
      "न",
      "ग"
    ],
    [
      "कर",
      "ती</w>"
    ],
    [
      "ल",
      "ु"
    ],
    [
      "क्ष",
      "ण</w>"
    ],
    [
      "ल",
      "न</w>"
    ],
    [
      "य",
      "र</w>"
    ],
    [
      "ज",
      "ब"
    ],
    [
      "वि",
      "त</w>"
    ],
    [
      "ट",
      "े</w>"
    ],
    [
      "प्र",
      "दर्"
    ],
    [
      "ब",
      "न</w>"
    ],
    [
      "च",
      "ित</w>"
    ],
    [
      "ता",
      "ओं</w>"
    ],
    [
      "ं",
      "द</w>"
    ],
    [
      "टी",
      "म</w>"
    ],
    [
      "उस",
      "के</w>"
    ],
    [
      "पह",
      "ली</w>"
    ],
    [
      "च",
      "ा</w>"
    ],
    [
      "य",
      "ों</w>"
    ],
    [
      "ए",
      "क"
    ],
    [
      "उन",
      "का</w>"
    ],
    [
      "भा",
      "ष"
    ],
    [
      "इ",
      "न"
    ],
    [
      "ख",
      "री"
    ],
    [
      "उ",
      "न</w>"
    ],
    [
      "ध",
      "न</w>"
    ],
    [
      "विशे",
      "ष</w>"
    ],
    [
      "स",
      "ह"
    ],
    [
      "व्य",
      "व"
    ],
    [
      "क्",
      "स</w>"
    ],
    [
      "पूर्",
      "व</w>"
    ],
    [
      "े",
      ",</w>"
    ],
    [
      "ार",
      "ा"
    ],
    [
      "ती",
      "न</w>"
    ],
    [
      "थ",
      "े</w>"
    ],
    [
      "स",
      "द"
    ],
    [
      "प",
      "हु"
    ],
    [
      "शुरुआ",
      "त</w>"
    ],
    [
      "अधि",
      "का"
    ],
    [
      "्य",
      "ा</w>"
    ],
    [
      "प",
      "त्"
    ],
    [
      "स्",
      "वी"
    ],
    [
      "र्",
      "ड</w>"
    ],
    [
      "प",
      "ं"
    ],
    [
      "ज्ञ",
      "ा"
    ],
    [
      "म",
      "द"
    ],
    [
      "ह",
      "े"
    ],
    [
      "वा",
      "ला</w>"
    ],
    [
      "अ",
      "च्छ"
    ],
    [
      "ण",
      "ों</w>"
    ],
    [
      "अधिका",
      "ंश</w>"
    ],
    [
      "जि",
      "न"
    ],
    [
      "फ",
      "ै"
    ],
    [
      "वश",
      "्य"
    ],
    [
      ".ए",
      "स"
    ],
    [
      ".",
      "सी"
    ],
    [
      "सं",
      "गीत</w>"
    ],
    [
      "अप",
      "ना</w>"
    ],
    [
      "जा",
      "न"
    ],
    [
      "क",
      "ू"
    ],
    [
      "लो",
      "क"
    ],
    [
      "दा",
      "र</w>"
    ],
    [
      "ड",
      "ॉ"
    ],
    [
      "ग",
      "्"
    ],
    [
      "हि",
      "ंद"
    ],
    [
      "प",
      "ता</w>"
    ],
    [
      "आ",
      "वश्य"
    ],
    [
      "क्ष",
      "</w>"
    ],
    [
      "स्",
      "वा"
    ],
    [
      "सि",
      "ं"
    ],
    [
      "सा",
      "इ"
    ],
    [
      "ह",
      "ू"
    ],
    [
      "हाला",
      "ँ"
    ],
    [
      "क",
      ",</w>"
    ],
    [
      "रि",
      "क</w>"
    ],
    [
      ",",
      "0"
    ],
    [
      "वी",
      "ं</w>"
    ],
    [
      "ग",
      "ए।</w>"
    ],
    [
      "ज",
      "न्"
    ],
    [
      "20",
      "</w>"
    ],
    [
      "वर्",
      "ष"
    ],
    [
      "1",
      "8"
    ],
    [
      "घ",
      "र</w>"
    ],
    [
      "लि",
      "ख"
    ],
    [
      "स्ट",
      "े"
    ],
    [
      "ट",
      "ो"
    ],
    [
      "ख",
      "ो"
    ],
    [
      "वर्",
      "त"
    ],
    [
      "्र",
      "ो"
    ],
    [
      "ति",
      "क</w>"
    ],
    [
      "स्",
      "ट</w>"
    ],
    [
      "ंग",
      "ा"
    ],
    [
      "बा",
      "द,</w>"
    ],
    [
      "म",
      "न</w>"
    ],
    [
      "िय",
      "</w>"
    ],
    [
      "का",
      "ल</w>"
    ],
    [
      "ट",
      "ू"
    ],
    [
      "आप",
      "के</w>"
    ],
    [
      "बॉ",
      "ल</w>"
    ],
    [
      "सं",
      "स्"
    ],
    [
      "च",
      "ल"
    ],
    [
      "चा",
      "हि"
    ],
    [
      "भ",
      "</w>"
    ],
    [
      "ंब",
      "र</w>"
    ],
    [
      "मह",
      "त्व"
    ],
    [
      "कंप",
      "नी</w>"
    ],
    [
      "र",
      "स्"
    ],
    [
      "ल",
      "र</w>"
    ],
    [
      "ण",
      "ी</w>"
    ],
    [
      "च",
      "ो"
    ],
    [
      "आ",
      "य"
    ],
    [
      "19",
      "8"
    ],
    [
      "महत्व",
      "पूर्ण</w>"
    ],
    [
      "अ",
      "ब</w>"
    ],
    [
      "य",
      "क</w>"
    ],
    [
      "सम",
      "ू"
    ],
    [
      "प",
      "ार"
    ],
    [
      "स्",
      "त</w>"
    ],
    [
      "ब",
      "च्"
    ],
    [
      "ध",
      "र्"
    ],
    [
      "व्यक्",
      "ति</w>"
    ],
    [
      "प्र",
      "कार</w>"
    ],
    [
      "भि",
      "न्न</w>"
    ],
    [
      "म",
      "ार"
    ],
    [
      "विद",
      "्या"
    ],
    [
      "व",
      "री</w>"
    ],
    [
      "यु",
      "द्ध</w>"
    ],
    [
      "ज",
      "ारी</w>"
    ],
    [
      "सं",
      "ख"
    ],
    [
      "ब्र",
      "ि"
    ],
    [
      "व",
      "ृ"
    ],
    [
      "मंदि",
      "र</w>"
    ],
    [
      "ट",
      "न</w>"
    ],
    [
      "ल",
      ",</w>"
    ],
    [
      "पा",
      "र्"
    ],
    [
      "च",
      "ी</w>"
    ],
    [
      "ब",
      "ता"
    ],
    [
      "उत्",
      "त"
    ],
    [
      "प",
      "ड़"
    ],
    [
      "ल",
      "ड़"
    ],
    [
      "बा",
      "त</w>"
    ],
    [
      "जि",
      "न्"
    ],
    [
      "प्र",
      "ो"
    ],
    [
      "कि",
      ",</w>"
    ],
    [
      "विश्",
      "व</w>"
    ],
    [
      "निर्मा",
      "ण</w>"
    ],
    [
      "फ",
      "ु"
    ],
    [
      "रह",
      "ी</w>"
    ],
    [
      "च",
      "ै"
    ],
    [
      "ड",
      "्"
    ],
    [
      "म",
      "ध"
    ],
    [
      "न",
      "ीय</w>"
    ],
    [
      "स्",
      "प"
    ],
    [
      "ल",
      "ना</w>"
    ],
    [
      "प्र",
      "त्य"
    ],
    [
      "श",
      "ता"
    ],
    [
      "स्त",
      "ु"
    ],
    [
      "शता",
      "ब्"
    ],
    [
      "मृ",
      "त्य"
    ],
    [
      "स",
      "ार"
    ],
    [
      "द",
      "श"
    ],
    [
      "यो",
      "ग"
    ],
    [
      "19",
      "7"
    ],
    [
      "ओ",
      "र</w>"
    ],
    [
      "ग",
      "ई।</w>"
    ],
    [
      "सद",
      "स्"
    ],
    [
      "न",
      "ौ"
    ],
    [
      "म",
      "ना"
    ],
    [
      "धा",
      "र</w>"
    ],
    [
      "ज",
      "हाँ</w>"
    ],
    [
      "उ",
      "द"
    ],
    [
      "वि",
      "क"
    ],
    [
      "ंग",
      "्रे"
    ],
    [
      "मद",
      "द</w>"
    ],
    [
      "दक्षि",
      "ण</w>"
    ],
    [
      "स्थि",
      "ति</w>"
    ],
    [
      "त्र",
      "ी</w>"
    ],
    [
      "ल",
      "ंब"
    ],
    [
      "ता",
      "न</w>"
    ],
    [
      "मृत्य",
      "ु</w>"
    ],
    [
      ",0",
      "00</w>"
    ],
    [
      "े",
      "क</w>"
    ],
    [
      "मी",
      "टर</w>"
    ],
    [
      "प्र",
      "े"
    ],
    [
      "मा",
      "ना</w>"
    ],
    [
      "अक्",
      "सर</w>"
    ],
    [
      "य",
      "न</w>"
    ],
    [
      "श",
      "ा</w>"
    ],
    [
      "इ",
      "ं"
    ],
    [
      "ंद",
      "्र"
    ],
    [
      "स",
      "मु"
    ],
    [
      "शताब्",
      "दी</w>"
    ],
    [
      "स",
      "हा"
    ],
    [
      "ति",
      "हा"
    ],
    [
      "धार",
      "ित</w>"
    ],
    [
      "दे",
      "ने</w>"
    ],
    [
      "दि",
      "खा"
    ],
    [
      "मि",
      "क</w>"
    ],
    [
      "ल",
      "ने</w>"
    ],
    [
      "ह",
      "न</w>"
    ],
    [
      "घ",
      "ो"
    ],
    [
      "्य",
      "ों</w>"
    ],
    [
      "को",
      "शि"
    ],
    [
      "उत्",
      "पा"
    ],
    [
      "ग",
      "ठ"
    ],
    [
      "ग",
      "ा</w>"
    ],
    [
      "-",
      "</w>"
    ],
    [
      "भ",
      "ु"
    ],
    [
      "क्र",
      "म</w>"
    ],
    [
      "ड",
      "िय"
    ],
    [
      "्या",
      "न</w>"
    ],
    [
      "भ",
      "र</w>"
    ],
    [
      "ब",
      "न"
    ],
    [
      "ं",
      "क"
    ],
    [
      "अं",
      "तर"
    ],
    [
      "वि",
      "ष"
    ],
    [
      "त्",
      "मक</w>"
    ],
    [
      "पा",
      "नी</w>"
    ],
    [
      "वि",
      "भिन्न</w>"
    ],
    [
      "संख",
      "्या</w>"
    ],
    [
      "मा",
      "म"
    ],
    [
      "स",
      "ित</w>"
    ],
    [
      "लि",
      "ए,</w>"
    ],
    [
      "त",
      "्य</w>"
    ],
    [
      "स",
      "फ"
    ],
    [
      "ग",
      "त</w>"
    ],
    [
      "सम",
      "्"
    ],
    [
      "ँ",
      "च</w>"
    ],
    [
      "'",
      "</w>"
    ],
    [
      "क",
      "भी</w>"
    ],
    [
      "आ",
      "र"
    ],
    [
      "ण",
      "ा</w>"
    ],
    [
      "मा",
      "र</w>"
    ],
    [
      "दूस",
      "रे</w>"
    ],
    [
      "श",
      "ै"
    ],
    [
      "ं",
      "द्र</w>"
    ],
    [
      "लोक",
      "प्र"
    ],
    [
      "ढ़",
      "</w>"
    ],
    [
      "अ",
      "ला"
    ],
    [
      "पु",
      "रा"
    ],
    [
      "कृ",
      "त</w>"
    ],
    [
      "द",
      "्र"
    ],
    [
      "से",
      "ना</w>"
    ],
    [
      "हु",
      "आ"
    ],
    [
      "भ",
      "े"
    ],
    [
      "सं",
      "भा"
    ],
    [
      "ब",
      "ी</w>"
    ],
    [
      "सं",
      "घ"
    ],
    [
      "गो",
      "ल</w>"
    ],
    [
      "ि",
      "ल्"
    ],
    [
      "पु",
      "र</w>"
    ],
    [
      "द्व",
      "ी"
    ],
    [
      "सर",
      "कार</w>"
    ],
    [
      "उ",
      "म्"
    ],
    [
      "प्र",
      "त"
    ],
    [
      "पु",
      "रस्"
    ],
    [
      "त",
      "ै"
    ],
    [
      "आ",
      "ग"
    ],
    [
      "ग",
      "र्"
    ],
    [
      "स",
      "ों</w>"
    ],
    [
      "इस",
      "की</w>"
    ],
    [
      "अ",
      "ध्य"
    ],
    [
      "ंग",
      "्"
    ],
    [
      "जन्",
      "म</w>"
    ],
    [
      "उत्",
      "तर</w>"
    ],
    [
      "क्र",
      "म"
    ],
    [
      "त्र",
      "ा</w>"
    ],
    [
      "वे",
      "श</w>"
    ],
    [
      "क्षे",
      "त्रों</w>"
    ],
    [
      "ग",
      "ै"
    ],
    [
      "कर",
      "के</w>"
    ],
    [
      "ग",
      "ण"
    ],
    [
      "व",
      "ज"
    ],
    [
      "क्य",
      "ा</w>"
    ],
    [
      "जा",
      "ए"
    ],
    [
      "ठ",
      "ा"
    ],
    [
      "ब",
      "ड़े</w>"
    ],
    [
      "पह",
      "ला</w>"
    ],
    [
      "ड",
      "ी</w>"
    ],
    [
      "चा",
      "ह"
    ],
    [
      "फ",
      "ी</w>"
    ],
    [
      "हिंद",
      "ू</w>"
    ],
    [
      "जिस",
      "से</w>"
    ],
    [
      "दु",
      "निया</w>"
    ],
    [
      "िय",
      "न</w>"
    ],
    [
      "शि",
      "क्ष"
    ],
    [
      "बना",
      "या</w>"
    ],
    [
      "इस",
      "में</w>"
    ],
    [
      "घ",
      "ट"
    ],
    [
      "ल्",
      "ली</w>"
    ],
    [
      "ं",
      "क</w>"
    ],
    [
      "समू",
      "ह</w>"
    ],
    [
      "च",
      "ों</w>"
    ],
    [
      "द",
      "ृ"
    ],
    [
      "ए",
      "ं</w>"
    ],
    [
      "थ",
      "े,</w>"
    ],
    [
      "19",
      "6"
    ],
    [
      "न",
      "ू"
    ],
    [
      "मा",
      "ल</w>"
    ],
    [
      "द",
      "े</w>"
    ],
    [
      "िया",
      "ई</w>"
    ],
    [
      "ले",
      "ख"
    ],
    [
      "प्रत्य",
      "ेक</w>"
    ],
    [
      "ह",
      "ॉ"
    ],
    [
      "च",
      "ना</w>"
    ],
    [
      "कु",
      "ल</w>"
    ],
    [
      "ट",
      "बॉल</w>"
    ],
    [
      "प्र",
      "ति</w>"
    ],
    [
      "विद्या",
      "लय</w>"
    ],
    [
      "खिला",
      "ड़ी</w>"
    ],
    [
      "म",
      "ही"
    ],
    [
      "सा",
      "र</w>"
    ],
    [
      "ब",
      "ड़ी</w>"
    ],
    [
      "आवश्य",
      "कता</w>"
    ],
    [
      "बना",
      "ने</w>"
    ],
    [
      "तु",
      "लना</w>"
    ],
    [
      "परि",
      "णा"
    ],
    [
      "्रा",
      "ज"
    ],
    [
      "मध",
      "्य</w>"
    ],
    [
      "ब",
      "ना</w>"
    ],
    [
      "ध",
      "ी"
    ],
    [
      "प्र",
      "दान</w>"
    ],
    [
      "प्रदर्",
      "शन</w>"
    ],
    [
      "द",
      "ों</w>"
    ],
    [
      "देश",
      "ों</w>"
    ],
    [
      "इ",
      "ला"
    ],
    [
      "उ",
      "ल्"
    ],
    [
      "सं",
      "बंध"
    ],
    [
      "इ",
      "स्त"
    ],
    [
      "प",
      "री"
    ],
    [
      "च",
      "ौ"
    ],
    [
      "हिस्",
      "सा</w>"
    ],
    [
      "थी",
      "ं।</w>"
    ],
    [
      "मा",
      "ध्य"
    ],
    [
      "ची",
      "न</w>"
    ],
    [
      "सा",
      "थ"
    ],
    [
      "साम",
      "्राज"
    ],
    [
      "सा",
      "मान"
    ],
    [
      "ल",
      "ॉ"
    ],
    [
      "ड",
      "ो"
    ],
    [
      "खरी",
      "द"
    ],
    [
      "तर",
      "ी"
    ],
    [
      "परि",
      "वार</w>"
    ],
    [
      "क",
      "ला"
    ],
    [
      "न",
      "र्"
    ],
    [
      "वा",
      "स</w>"
    ],
    [
      "र",
      "ॉ"
    ],
    [
      "पू",
      "री</w>"
    ],
    [
      "जब",
      "कि</w>"
    ],
    [
      "लोकप्र",
      "िय</w>"
    ],
    [
      "उ",
      "दा"
    ],
    [
      "जी",
      "वन</w>"
    ],
    [
      "ज",
      "ग"
    ],
    [
      "ा",
      "ई</w>"
    ],
    [
      "ले",
      "ख</w>"
    ],
    [
      "ग",
      "ल</w>"
    ],
    [
      "स",
      ",</w>"
    ],
    [
      "त",
      "ना</w>"
    ],
    [
      "भ",
      "ो"
    ],
    [
      "ष्",
      "ठ</w>"
    ],
    [
      "दश",
      "क</w>"
    ],
    [
      "नि",
      "क"
    ],
    [
      "विश्",
      "व"
    ],
    [
      "ल",
      "क्ष"
    ],
    [
      "योज",
      "ित</w>"
    ],
    [
      "्य",
      "ो"
    ],
    [
      "न",
      "व"
    ],
    [
      "श",
      "ी</w>"
    ],
    [
      "प्रत",
      "ियो"
    ],
    [
      "दे",
      "ता</w>"
    ],
    [
      "त्र",
      "ि"
    ],
    [
      "ब",
      "्रा"
    ],
    [
      "मै",
      "च</w>"
    ],
    [
      "आय",
      "ु</w>"
    ],
    [
      "ल",
      "ब</w>"
    ],
    [
      "लि",
      "का</w>"
    ],
    [
      "मू",
      "ल</w>"
    ],
    [
      "शा",
      "सन</w>"
    ],
    [
      "जिस",
      "का</w>"
    ],
    [
      "ध",
      "ी</w>"
    ],
    [
      "अ",
      "भ"
    ],
    [
      "इस",
      "लिए</w>"
    ],
    [
      "न",
      "्यू"
    ],
    [
      "जी",
      "त"
    ],
    [
      "ब",
      "ड़ा</w>"
    ],
    [
      "कि",
      "त्"
    ],
    [
      "चि",
      "कित्"
    ],
    [
      "ं",
      "त्र</w>"
    ],
    [
      "ना",
      "ट"
    ],
    [
      "उ",
      "च्"
    ],
    [
      "स्थाप",
      "ित</w>"
    ],
    [
      "क",
      "हा"
    ],
    [
      "क",
      "रा"
    ],
    [
      "श",
      "ब्"
    ],
    [
      "लि",
      "क</w>"
    ],
    [
      "अं",
      "त</w>"
    ],
    [
      "अमेरि",
      "की</w>"
    ],
    [
      "स्त",
      "र</w>"
    ],
    [
      "च",
      "ार"
    ],
    [
      "!",
      "</w>"
    ],
    [
      "महि",
      "ला"
    ],
    [
      "ह",
      "रण</w>"
    ],
    [
      "मे",
      "रे</w>"
    ],
    [
      "ं",
      "च</w>"
    ],
    [
      "त",
      ",</w>"
    ],
    [
      "कार",
      "ों</w>"
    ],
    [
      "प",
      "ति</w>"
    ],
    [
      "बा",
      "हर</w>"
    ],
    [
      "गा",
      "ँ"
    ],
    [
      "राज",
      "ा</w>"
    ],
    [
      "रक्ष",
      "ा</w>"
    ],
    [
      "ब",
      "ार"
    ],
    [
      "ता",
      "र</w>"
    ],
    [
      "फ",
      "्र"
    ],
    [
      "ल",
      "ता</w>"
    ],
    [
      "र",
      "ल</w>"
    ],
    [
      "भूमि",
      "का</w>"
    ],
    [
      "ए",
      "न"
    ],
    [
      "ग",
      "ं"
    ],
    [
      "खिला",
      "फ</w>"
    ],
    [
      "सि",
      "क</w>"
    ],
    [
      "बं",
      "ध</w>"
    ],
    [
      "रा",
      "त</w>"
    ],
    [
      "पुरस्",
      "कार</w>"
    ],
    [
      "का",
      "उ"
    ],
    [
      "1",
      "0</w>"
    ],
    [
      "द",
      "क</w>"
    ],
    [
      "साम्राज",
      "्य</w>"
    ],
    [
      "ड",
      "ा</w>"
    ],
    [
      "ल",
      "ू"
    ],
    [
      "ध",
      "ा</w>"
    ],
    [
      "उ",
      "द्"
    ],
    [
      "ं",
      "ख"
    ],
    [
      "इस्त",
      "े"
    ],
    [
      "ड",
      "र</w>"
    ],
    [
      "अं",
      "त"
    ],
    [
      "दि",
      "ल्ली</w>"
    ],
    [
      "र",
      "-"
    ],
    [
      "इस्ते",
      "माल</w>"
    ],
    [
      "म",
      ",</w>"
    ],
    [
      "अ",
      "ति"
    ],
    [
      "इ",
      "ंड"
    ],
    [
      "फ",
      "ी"
    ],
    [
      "हा",
      "ं</w>"
    ],
    [
      "ज",
      "र्"
    ],
    [
      "य",
      "ता</w>"
    ],
    [
      "ली",
      "न</w>"
    ],
    [
      "वि",
      "वा"
    ],
    [
      "ंग",
      "े।</w>"
    ],
    [
      "क्र",
      "ि"
    ],
    [
      "हालाँ",
      "कि,</w>"
    ],
    [
      "्या",
      "दा</w>"
    ],
    [
      "छ",
      "ा"
    ],
    [
      "क",
      "िया,</w>"
    ],
    [
      "प्रभा",
      "वित</w>"
    ],
    [
      "भाष",
      "ा</w>"
    ],
    [
      "ष्",
      "टि"
    ],
    [
      "19",
      "5"
    ],
    [
      "व",
      "ों</w>"
    ],
    [
      "अ",
      "ंग्रे"
    ],
    [
      "प्रतियो",
      "गि"
    ],
    [
      "19",
      "</w>"
    ],
    [
      "र्",
      "ट</w>"
    ],
    [
      "ं",
      "स"
    ],
    [
      "त",
      "ो"
    ],
    [
      "सा",
      "न</w>"
    ],
    [
      "वा",
      "ई</w>"
    ],
    [
      "द",
      "न</w>"
    ],
    [
      ".",
      "आई"
    ],
    [
      "प्र",
      "णा"
    ],
    [
      "न",
      "ए</w>"
    ],
    [
      "पु",
      "रु"
    ],
    [
      "र्",
      "य</w>"
    ],
    [
      "पश्चि",
      "मी</w>"
    ],
    [
      "निय",
      "ंत्र"
    ],
    [
      "हुआ",
      "।</w>"
    ],
    [
      "न",
      "्या"
    ],
    [
      "पश्चि",
      "म</w>"
    ],
    [
      "ड़",
      "ियों</w>"
    ],
    [
      "धर्",
      "म</w>"
    ],
    [
      "चाहि",
      "ए।</w>"
    ],
    [
      "ऐ",
      "से</w>"
    ],
    [
      "आग",
      "े</w>"
    ],
    [
      "ई",
      ",</w>"
    ],
    [
      "अ",
      "लग"
    ],
    [
      "ए",
      "स"
    ],
    [
      "ल",
      "ू</w>"
    ],
    [
      "ह",
      "रा"
    ],
    [
      "क",
      "ला</w>"
    ],
    [
      "सामान",
      "्य</w>"
    ],
    [
      "न",
      "ृ"
    ],
    [
      "त",
      "ृ"
    ],
    [
      "लि",
      "स</w>"
    ],
    [
      "टि",
      "श</w>"
    ],
    [
      "आ",
      "योजित</w>"
    ],
    [
      "माध्य",
      "म</w>"
    ],
    [
      "स्थ",
      "ा</w>"
    ],
    [
      "द",
      "र</w>"
    ],
    [
      "नि",
      "श्"
    ],
    [
      "र्",
      "च</w>"
    ],
    [
      "फ़",
      "िल्"
    ],
    [
      "1",
      "7"
    ],
    [
      "ल",
      "िया।</w>"
    ],
    [
      "सम",
      "झ"
    ],
    [
      "वि",
      "का"
    ],
    [
      "ब",
      "ंगा"
    ],
    [
      "श",
      "ह"
    ],
    [
      "द्वी",
      "प</w>"
    ],
    [
      ".सी",
      ".</w>"
    ],
    [
      "रह",
      "ते</w>"
    ],
    [
      "ए",
      "श"
    ],
    [
      "बं",
      "द</w>"
    ],
    [
      "नि",
      "धन</w>"
    ],
    [
      "इस",
      "से</w>"
    ],
    [
      "वि",
      "क</w>"
    ],
    [
      "कर",
      "ो"
    ],
    [
      "अलग",
      "-"
    ],
    [
      "क्",
      "स"
    ],
    [
      ".",
      "बी"
    ],
    [
      "उदा",
      "हरण</w>"
    ],
    [
      "ष",
      "ण</w>"
    ],
    [
      "ध",
      "्यान</w>"
    ],
    [
      "व",
      "ें</w>"
    ],
    [
      "घो",
      "ष"
    ],
    [
      "ती",
      "स"
    ],
    [
      "ण",
      "ु</w>"
    ],
    [
      "या",
      ",</w>"
    ],
    [
      "वा",
      "न</w>"
    ],
    [
      "प",
      "हा"
    ],
    [
      "दे",
      "ते</w>"
    ],
    [
      "प्र",
      "या"
    ],
    [
      "व",
      "ो"
    ],
    [
      "प्र",
      "देश</w>"
    ],
    [
      "ह",
      "्"
    ],
    [
      "ऑ",
      "स्ट"
    ],
    [
      "श्र",
      "ृ"
    ],
    [
      "वर्त",
      "मान</w>"
    ],
    [
      "य",
      "ी</w>"
    ],
    [
      "स्था",
      "नीय</w>"
    ],
    [
      "पू",
      "रे</w>"
    ],
    [
      "ण",
      "ि"
    ],
    [
      "भु",
      "ग"
    ],
    [
      "ले",
      "कर</w>"
    ],
    [
      "सार",
      ",</w>"
    ],
    [
      "फ",
      "्रा"
    ],
    [
      "ब्रि",
      "टिश</w>"
    ],
    [
      "थी",
      ",</w>"
    ],
    [
      "थ",
      "ो"
    ],
    [
      "पि",
      "ता</w>"
    ],
    [
      "सि",
      "त"
    ],
    [
      "जी",
      "त</w>"
    ],
    [
      "क्र",
      "े"
    ],
    [
      "क",
      "म"
    ],
    [
      "मि",
      "न"
    ],
    [
      "अलग-",
      "अलग</w>"
    ],
    [
      "बि",
      "ना</w>"
    ],
    [
      "सि",
      "द्ध</w>"
    ],
    [
      "शा",
      "स"
    ],
    [
      "आ",
      "ध"
    ],
    [
      "जि",
      "ले</w>"
    ],
    [
      "ति",
      "म</w>"
    ],
    [
      "वर्ष",
      "ों</w>"
    ],
    [
      "ला",
      "इ"
    ],
    [
      "करे",
      "ं।</w>"
    ],
    [
      "ड",
      "न</w>"
    ],
    [
      "ल",
      "ंप"
    ],
    [
      "1",
      "0"
    ],
    [
      "ग",
      "ी।</w>"
    ],
    [
      "के",
      "ंद्र</w>"
    ],
    [
      "आ",
      "स"
    ],
    [
      "खे",
      "लों</w>"
    ],
    [
      "स्ता",
      "न</w>"
    ],
    [
      "सम",
      "र्थ"
    ],
    [
      ";",
      "</w>"
    ],
    [
      "स",
      "ौ"
    ],
    [
      "म",
      "ॉ"
    ],
    [
      "छो",
      "टे</w>"
    ],
    [
      "अनु",
      "सार,</w>"
    ],
    [
      "ला",
      "इन</w>"
    ],
    [
      "न",
      "ई</w>"
    ],
    [
      "सदस्",
      "य</w>"
    ],
    [
      "त",
      "ंत्र"
    ],
    [
      "ले",
      "ने</w>"
    ],
    [
      "आ",
      "यो"
    ],
    [
      "रा",
      "ब</w>"
    ],
    [
      "कार्य",
      "क्रम</w>"
    ],
    [
      "ठ",
      "ा</w>"
    ],
    [
      "अं",
      "तिम</w>"
    ],
    [
      "ग",
      "ी</w>"
    ],
    [
      "19",
      "4"
    ],
    [
      "श",
      "ित</w>"
    ],
    [
      "ह",
      "ों</w>"
    ],
    [
      "उत्त",
      "री</w>"
    ],
    [
      "अभि",
      "ने"
    ],
    [
      "निश्",
      "चित</w>"
    ],
    [
      "र्",
      "स</w>"
    ],
    [
      "य",
      "र"
    ],
    [
      "पू",
      "रा</w>"
    ],
    [
      "स",
      "प्"
    ],
    [
      "क्र",
      "ो"
    ],
    [
      "दु",
      "का"
    ],
    [
      "म",
      "ारी</w>"
    ],
    [
      "्रा",
      "ष्ट्र"
    ],
    [
      "प्रति",
      "श"
    ],
    [
      "महि",
      "ला</w>"
    ],
    [
      "्राष्ट्र",
      "ीय</w>"
    ],
    [
      "भुग",
      "तान</w>"
    ],
    [
      "ट",
      "ों</w>"
    ],
    [
      "ऑ",
      "फ</w>"
    ],
    [
      "विक",
      "सित</w>"
    ],
    [
      "श",
      "्रे"
    ],
    [
      "अंतर",
      "्राष्ट्रीय</w>"
    ],
    [
      "उस",
      "ने</w>"
    ],
    [
      "क्र",
      "िया</w>"
    ],
    [
      "त",
      "म</w>"
    ],
    [
      "यू",
      "रो"
    ],
    [
      "ल",
      "ब्"
    ],
    [
      "के",
      "ट</w>"
    ],
    [
      "ार",
      "ो"
    ],
    [
      "ओ",
      "लंप"
    ],
    [
      "र",
      "ंग"
    ],
    [
      "ज",
      "ित</w>"
    ],
    [
      "उस",
      "की</w>"
    ],
    [
      "अ",
      "भी</w>"
    ],
    [
      "पूर्",
      "वी</w>"
    ],
    [
      "जिन्",
      "हें</w>"
    ],
    [
      ".",
      "डी"
    ],
    [
      "वा",
      "प"
    ],
    [
      "पा",
      "लिका</w>"
    ],
    [
      "प्र",
      "सिद्ध</w>"
    ],
    [
      "िय",
      "र</w>"
    ],
    [
      "काउ",
      "ं"
    ],
    [
      ".",
      "पी"
    ],
    [
      "अनु",
      "सार</w>"
    ],
    [
      "ग",
      "ल"
    ],
    [
      "से",
      "वा</w>"
    ],
    [
      "ंद",
      "र</w>"
    ],
    [
      "प्रतिश",
      "त</w>"
    ],
    [
      "रख",
      "ा</w>"
    ],
    [
      "ली",
      "ग</w>"
    ],
    [
      "उप",
      "लब्"
    ],
    [
      "या",
      "र</w>"
    ],
    [
      "स्थाप",
      "ना</w>"
    ],
    [
      "नग",
      "र</w>"
    ],
    [
      "3",
      "0</w>"
    ],
    [
      "र",
      "िया</w>"
    ],
    [
      "दू",
      "र</w>"
    ],
    [
      "मही",
      "ने</w>"
    ],
    [
      "ज़",
      "</w>"
    ],
    [
      "के",
      "ंद्र"
    ],
    [
      "1",
      "5"
    ],
    [
      "डिय",
      "ो</w>"
    ],
    [
      "जिस",
      "के</w>"
    ],
    [
      "मू",
      "ल"
    ],
    [
      "प",
      "क</w>"
    ],
    [
      "रह",
      "ने</w>"
    ],
    [
      "से",
      ",</w>"
    ],
    [
      "क्रम",
      "ण</w>"
    ],
    [
      "मा",
      "इ"
    ],
    [
      "स",
      "ॉ"
    ],
    [
      "न",
      "ल</w>"
    ],
    [
      "ब",
      "ह"
    ],
    [
      "प्र",
      "ार"
    ],
    [
      "प्र",
      "का"
    ],
    [
      "द",
      "ियों</w>"
    ],
    [
      "ज",
      "ों</w>"
    ],
    [
      "डॉ",
      "लर</w>"
    ],
    [
      ".",
      "टी"
    ],
    [
      "का",
      "लीन</w>"
    ],
    [
      "ि",
      "</w>"
    ],
    [
      "2",
      "1</w>"
    ],
    [
      "ल्",
      "प"
    ],
    [
      "न",
      "र</w>"
    ],
    [
      "ना",
      "ओं</w>"
    ],
    [
      "त्य",
      "ो"
    ],
    [
      "मे",
      "री</w>"
    ],
    [
      "इ",
      "तिहा"
    ],
    [
      "?",
      "</w>"
    ],
    [
      "रो",
      "ध</w>"
    ],
    [
      "ड़",
      "</w>"
    ],
    [
      "कार्",
      "य</w>"
    ],
    [
      "मे",
      "रा</w>"
    ],
    [
      "द",
      "र"
    ],
    [
      "उच्",
      "च</w>"
    ],
    [
      "ड़",
      "ों</w>"
    ],
    [
      "सम",
      "स्"
    ],
    [
      "सा",
      "र्"
    ],
    [
      "ट्",
      "स</w>"
    ],
    [
      "दु",
      "र्"
    ],
    [
      "जिन",
      "में</w>"
    ],
    [
      "ं",
      "भ"
    ],
    [
      "वा",
      "र्"
    ],
    [
      ".ए",
      ".</w>"
    ],
    [
      "जै",
      "न</w>"
    ],
    [
      "गठ",
      "न</w>"
    ],
    [
      "टा",
      "इ"
    ],
    [
      "प",
      "ृ"
    ],
    [
      "अ",
      "प्र"
    ],
    [
      "ला",
      "ई</w>"
    ],
    [
      "ल्",
      "स</w>"
    ],
    [
      "स",
      "म</w>"
    ],
    [
      "धा",
      "न</w>"
    ],
    [
      "क",
      "ल</w>"
    ],
    [
      "ओलंप",
      "िक</w>"
    ],
    [
      "ल्",
      "ड</w>"
    ],
    [
      "ठ",
      "ी"
    ],
    [
      "पु",
      "लिस</w>"
    ],
    [
      "पा",
      "र</w>"
    ],
    [
      "विका",
      "स</w>"
    ],
    [
      "नग",
      "र"
    ],
    [
      "आ",
      "धारित</w>"
    ],
    [
      "म",
      "त</w>"
    ],
    [
      "कृ",
      "ति</w>"
    ],
    [
      "जू",
      "द</w>"
    ],
    [
      "फु",
      "टबॉल</w>"
    ],
    [
      "य",
      ",</w>"
    ],
    [
      "गु",
      "ज"
    ],
    [
      "ना",
      "व</w>"
    ],
    [
      "लि",
      "त</w>"
    ],
    [
      "वा",
      "स्त"
    ],
    [
      "ख",
      "ा</w>"
    ],
    [
      "अग",
      "र</w>"
    ],
    [
      "पि",
      "छ"
    ],
    [
      "म",
      "रा"
    ],
    [
      "स",
      "मान</w>"
    ],
    [
      "वा",
      "द</w>"
    ],
    [
      "सि",
      "ल</w>"
    ],
    [
      "रख",
      "ने</w>"
    ],
    [
      "सिं",
      "ह</w>"
    ],
    [
      "कोशि",
      "श</w>"
    ],
    [
      "श्रृ",
      "ंख"
    ],
    [
      "कर",
      "ें</w>"
    ],
    [
      "महिला",
      "ओं</w>"
    ],
    [
      "ी",
      "ल</w>"
    ],
    [
      "क्",
      "ति</w>"
    ],
    [
      "ऑस्ट",
      "्रे"
    ],
    [
      "अव",
      "धि</w>"
    ],
    [
      "मार्",
      "ग</w>"
    ],
    [
      "दे",
      "व"
    ],
    [
      "तै",
      "यार</w>"
    ],
    [
      "जग",
      "ह</w>"
    ],
    [
      "समा",
      "प्त</w>"
    ],
    [
      "सह",
      "ित</w>"
    ],
    [
      "वर्",
      "ण"
    ],
    [
      "द्",
      "वि"
    ],
    [
      "क",
      "मी</w>"
    ],
    [
      "र",
      "म</w>"
    ],
    [
      "क",
      "भी"
    ],
    [
      "रि",
      "कॉ"
    ],
    [
      "1",
      "2</w>"
    ],
    [
      "स्ट",
      "ा"
    ],
    [
      "चाह",
      "ते</w>"
    ],
    [
      "प्रणा",
      "ली</w>"
    ],
    [
      "बे",
      "ह"
    ],
    [
      "प",
      "न</w>"
    ],
    [
      "1",
      "6"
    ],
    [
      "ँ",
      "।</w>"
    ],
    [
      "स्",
      "कू"
    ],
    [
      "त",
      "न</w>"
    ],
    [
      "ऐ",
      "सी</w>"
    ],
    [
      ".ए",
      "फ"
    ],
    [
      "फ़िल्",
      "म</w>"
    ],
    [
      "न",
      "-"
    ],
    [
      "मै",
      "ंने</w>"
    ],
    [
      "वर्",
      "ग</w>"
    ],
    [
      "पा",
      "ल</w>"
    ],
    [
      "बा",
      "दी</w>"
    ],
    [
      "सप्",
      "ता"
    ],
    [
      "देख",
      "ा</w>"
    ],
    [
      "ब",
      "ल</w>"
    ],
    [
      "प्र",
      "ती"
    ],
    [
      "अच्छ",
      "ा</w>"
    ],
    [
      "र्",
      "ष</w>"
    ],
    [
      "द",
      "ल</w>"
    ],
    [
      "आ",
      "धार</w>"
    ],
    [
      "र",
      "ह</w>"
    ],
    [
      "सफ",
      "ल</w>"
    ],
    [
      "मिन",
      "ट</w>"
    ],
    [
      "ग्र",
      "ी</w>"
    ],
    [
      "मार्",
      "च</w>"
    ],
    [
      "कि",
      "लो"
    ],
    [
      "ज",
      "ल"
    ],
    [
      "खु",
      "द</w>"
    ],
    [
      "ना",
      "इ"
    ],
    [
      "स्थ",
      "ल</w>"
    ],
    [
      "%",
      "</w>"
    ],
    [
      "न",
      "्य"
    ],
    [
      "आ",
      "ने</w>"
    ],
    [
      "जन",
      "वरी</w>"
    ],
    [
      "या",
      "त्रा</w>"
    ],
    [
      "ी",
      ",</w>"
    ],
    [
      "नि",
      "भा"
    ],
    [
      "की",
      ",</w>"
    ],
    [
      "दि",
      "सं"
    ],
    [
      "ग्रा",
      "ह"
    ],
    [
      "भ",
      "व</w>"
    ],
    [
      "अ",
      "र"
    ],
    [
      "टि",
      "ंग</w>"
    ],
    [
      "नृ",
      "त्य</w>"
    ],
    [
      "फ",
      "र"
    ],
    [
      "क्र",
      "ा"
    ],
    [
      ".ए",
      "ल"
    ],
    [
      "आ",
      "बादी</w>"
    ],
    [
      "श",
      "ं"
    ],
    [
      "ब",
      "च"
    ],
    [
      "वि",
      "भा"
    ],
    [
      "का",
      "नू"
    ],
    [
      "201",
      "4</w>"
    ],
    [
      "गाँ",
      "व</w>"
    ],
    [
      "ंट",
      "र"
    ],
    [
      "म",
      "त"
    ],
    [
      "भूमि",
      "</w>"
    ],
    [
      "उप",
      "चार</w>"
    ],
    [
      "जै",
      "सी</w>"
    ],
    [
      "अप्र",
      "ै"
    ],
    [
      "पी",
      "छ"
    ],
    [
      "ह",
      "ित</w>"
    ],
    [
      "ल",
      "ौ"
    ],
    [
      "कभी",
      "-"
    ],
    [
      "मं",
      "त्री</w>"
    ],
    [
      "आ",
      "ज</w>"
    ],
    [
      "सू",
      "ची</w>"
    ],
    [
      "नि",
      "का"
    ],
    [
      "हिस्",
      "से</w>"
    ],
    [
      "राज",
      "नी"
    ],
    [
      "प्रभा",
      "व</w>"
    ],
    [
      "वा",
      ",</w>"
    ],
    [
      "र",
      "ण"
    ],
    [
      "शब्",
      "द</w>"
    ],
    [
      "आ",
      "र्"
    ],
    [
      "का",
      "फी</w>"
    ],
    [
      "ए",
      "म"
    ],
    [
      "मे",
      "ंट</w>"
    ],
    [
      "वि",
      "त्"
    ],
    [
      "ल",
      "्यू"
    ],
    [
      "ह",
      "वाई</w>"
    ],
    [
      "पर",
      ",</w>"
    ],
    [
      "य",
      "हाँ</w>"
    ],
    [
      "ठी",
      "क</w>"
    ],
    [
      "वि",
      "ज्ञा"
    ],
    [
      "वि",
      "शि"
    ],
    [
      "जान",
      "कारी</w>"
    ],
    [
      "दूस",
      "री</w>"
    ],
    [
      "पार",
      "ंप"
    ],
    [
      "ग",
      "र</w>"
    ],
    [
      "शा",
      "दी</w>"
    ],
    [
      "राज",
      "धा"
    ],
    [
      "ब",
      "जा"
    ],
    [
      "िया",
      "ं</w>"
    ],
    [
      "बना",
      "ए</w>"
    ],
    [
      "उम्",
      "मी"
    ],
    [
      "ज़",
      "ा"
    ],
    [
      "जि",
      "स</w>"
    ],
    [
      "201",
      "0</w>"
    ],
    [
      "त",
      "ंत्र</w>"
    ],
    [
      "पारंप",
      "रिक</w>"
    ],
    [
      "कंप",
      "्यू"
    ],
    [
      "विश्व",
      "विद्यालय</w>"
    ],
    [
      "स",
      "त</w>"
    ],
    [
      "सी",
      "मा</w>"
    ],
    [
      "निर्",
      "देश"
    ],
    [
      "बंगा",
      "ल</w>"
    ],
    [
      "स्व",
      "रूप</w>"
    ],
    [
      "हि",
      "ं"
    ],
    [
      "2",
      "2</w>"
    ],
    [
      "व",
      "ॉ"
    ],
    [
      "परिणा",
      "म"
    ],
    [
      "प",
      "सं"
    ],
    [
      "लग",
      "ा</w>"
    ],
    [
      "उपलब्",
      "ध</w>"
    ],
    [
      "वा",
      "ओं</w>"
    ],
    [
      "क",
      "न</w>"
    ],
    [
      "िय",
      "न"
    ],
    [
      "शि",
      "प</w>"
    ],
    [
      "न",
      "ियों</w>"
    ],
    [
      "गे",
      "ंद</w>"
    ],
    [
      "गं",
      "भी"
    ],
    [
      "प्रा",
      "चीन</w>"
    ],
    [
      "म",
      "नो"
    ],
    [
      "पहु",
      "ँ"
    ],
    [
      "नि",
      "त</w>"
    ],
    [
      "ष्टि",
      "</w>"
    ],
    [
      "ं",
      "च"
    ],
    [
      "संबंध",
      "ित</w>"
    ],
    [
      "स",
      "व</w>"
    ],
    [
      "क्ष",
      "ा</w>"
    ],
    [
      "त",
      "ू"
    ],
    [
      "ज",
      "ल्"
    ],
    [
      "ल",
      "ो</w>"
    ],
    [
      "घ",
      "ंट"
    ],
    [
      "वि",
      "ध"
    ],
    [
      "हो",
      "गा।</w>"
    ],
    [
      "हा",
      "सिल</w>"
    ],
    [
      "प्रया",
      "स</w>"
    ],
    [
      "वृ",
      "त्"
    ],
    [
      "ट्",
      "टी</w>"
    ],
    [
      "फिल्",
      "मों</w>"
    ],
    [
      "त",
      "नी</w>"
    ],
    [
      "बढ़",
      "ा"
    ],
    [
      "क्",
      "लब</w>"
    ],
    [
      "वाप",
      "स</w>"
    ],
    [
      "काउं",
      "टी</w>"
    ],
    [
      "बच्",
      "चों</w>"
    ],
    [
      "व",
      "ार"
    ],
    [
      "शा",
      "स्"
    ],
    [
      "अति",
      "रि"
    ],
    [
      "स",
      "ड़"
    ],
    [
      "व",
      "्"
    ],
    [
      "अक्",
      "टू"
    ],
    [
      "सहा",
      "यता</w>"
    ],
    [
      "प्रति",
      "नि"
    ],
    [
      "किलो",
      "मीटर</w>"
    ],
    [
      "ट्",
      "ट"
    ],
    [
      "वि",
      "ज"
    ],
    [
      "गण",
      "ना</w>"
    ],
    [
      "पं",
      "जा"
    ],
    [
      "संघ",
      "</w>"
    ],
    [
      "आप",
      "की</w>"
    ],
    [
      "समु",
      "दा"
    ],
    [
      "पर",
      "ंप"
    ],
    [
      "अर्",
      "थ</w>"
    ],
    [
      "ड",
      "े</w>"
    ],
    [
      "साम",
      "ने</w>"
    ],
    [
      "त्यो",
      "हार</w>"
    ],
    [
      "दि",
      "नों</w>"
    ],
    [
      "नाट",
      "क</w>"
    ],
    [
      "ना",
      ",</w>"
    ],
    [
      ".",
      "आर"
    ],
    [
      "त",
      "ः</w>"
    ],
    [
      "समर्थ",
      "न</w>"
    ],
    [
      "201",
      "3</w>"
    ],
    [
      "च",
      "ला</w>"
    ],
    [
      "20",
      "20</w>"
    ],
    [
      "हालाँ",
      "कि</w>"
    ],
    [
      "प",
      "रे"
    ],
    [
      "विशि",
      "ष्ट</w>"
    ],
    [
      "ग",
      "ति"
    ],
    [
      "ब",
      "ा</w>"
    ],
    [
      "ख",
      "र्च</w>"
    ],
    [
      "न",
      "य</w>"
    ],
    [
      "भ",
      "ा</w>"
    ],
    [
      "श्रृंख",
      "ला</w>"
    ],
    [
      "शै",
      "ली</w>"
    ],
    [
      "कृ",
      "तिक</w>"
    ],
    [
      "नगर",
      "पालिका</w>"
    ],
    [
      "ल",
      "ियों</w>"
    ],
    [
      "ता",
      ",</w>"
    ],
    [
      "के",
      "रल</w>"
    ],
    [
      "गि",
      "र"
    ],
    [
      "दिसं",
      "बर</w>"
    ],
    [
      "व",
      "ंश</w>"
    ],
    [
      "स्ट",
      "र</w>"
    ],
    [
      "दिखा",
      "ई</w>"
    ],
    [
      "प",
      "ा</w>"
    ],
    [
      "नी",
      "चे</w>"
    ],
    [
      "ग",
      "्रे"
    ],
    [
      "प",
      "ों</w>"
    ],
    [
      "विशे",
      "ष"
    ],
    [
      "म",
      "ंड"
    ],
    [
      "गा",
      "ं"
    ],
    [
      "1",
      "5</w>"
    ],
    [
      "चिकित्",
      "सा</w>"
    ],
    [
      "अप्रै",
      "ल</w>"
    ],
    [
      "धि",
      "कार"
    ],
    [
      "व्यव",
      "सा"
    ],
    [
      "प",
      "ट"
    ],
    [
      "कभी-",
      "कभी</w>"
    ],
    [
      "आ",
      "ं"
    ],
    [
      "राजधा",
      "नी</w>"
    ],
    [
      "ड़",
      "ी</w>"
    ],
    [
      "रक्ष",
      "ित</w>"
    ],
    [
      "व",
      "हाँ</w>"
    ],
    [
      "रह",
      "े।</w>"
    ],
    [
      "5",
      "0</w>"
    ],
    [
      "ना",
      "मक</w>"
    ],
    [
      "ल",
      "ं"
    ],
    [
      ".एस",
      ".</w>"
    ],
    [
      "ड़",
      "ने</w>"
    ],
    [
      "च",
      "ले</w>"
    ],
    [
      "ले",
      ",</w>"
    ],
    [
      "नव",
      "ंबर</w>"
    ],
    [
      "च",
      "ला"
    ],
    [
      "मह",
      "ारा"
    ],
    [
      "प्रतियोगि",
      "ता</w>"
    ],
    [
      "क",
      "मा"
    ],
    [
      "जू",
      "न</w>"
    ],
    [
      "राज",
      "्यों</w>"
    ],
    [
      "न्",
      "स</w>"
    ],
    [
      "सार्",
      "वज"
    ],
    [
      "ब",
      "ौ"
    ],
    [
      "र",
      "ंग</w>"
    ],
    [
      "क",
      "ना"
    ],
    [
      "न",
      "ॉ"
    ],
    [
      "ंड",
      "ी</w>"
    ],
    [
      "ल",
      "म</w>"
    ],
    [
      "ल",
      "ते</w>"
    ],
    [
      "फ",
      "ा</w>"
    ],
    [
      "घ",
      "ु"
    ],
    [
      "इतिहा",
      "स</w>"
    ],
    [
      "वि",
      "चार</w>"
    ],
    [
      "प",
      "ॉ"
    ],
    [
      "य",
      "िक</w>"
    ],
    [
      "अभि",
      "नय</w>"
    ],
    [
      "ता",
      "ल</w>"
    ],
    [
      "का",
      "ओं</w>"
    ],
    [
      "ग",
      "या,</w>"
    ],
    [
      "द्",
      "धि</w>"
    ],
    [
      "बच्",
      "चे</w>"
    ],
    [
      "अ",
      "ल्"
    ],
    [
      "हु",
      "ई।</w>"
    ],
    [
      "पु",
      "नर्"
    ],
    [
      "सार्वज",
      "निक</w>"
    ],
    [
      "राज",
      "</w>"
    ],
    [
      "स",
      "ला"
    ],
    [
      "अ",
      "म"
    ],
    [
      "201",
      "1</w>"
    ],
    [
      "योज",
      "ना</w>"
    ],
    [
      "र",
      "ं"
    ],
    [
      "साथ",
      "-"
    ],
    [
      "ष",
      "ों</w>"
    ],
    [
      "201",
      "2</w>"
    ],
    [
      "चै",
      "ंप"
    ],
    [
      "लग",
      "ता</w>"
    ],
    [
      "रि",
      "ली"
    ],
    [
      "पै",
      "से</w>"
    ],
    [
      "सहा",
      "यक</w>"
    ],
    [
      "व्यक्",
      "ति"
    ],
    [
      "बै",
      "ंक</w>"
    ],
    [
      "ंभ",
      "िक</w>"
    ],
    [
      "हा",
      "ल</w>"
    ],
    [
      "ने",
      "ट</w>"
    ],
    [
      "प",
      "क"
    ],
    [
      "प्र",
      "बंध"
    ],
    [
      "ड",
      "िया</w>"
    ],
    [
      "इ",
      "ंग्"
    ],
    [
      "कु",
      "मार</w>"
    ],
    [
      "ण",
      ",</w>"
    ],
    [
      "व",
      "ना</w>"
    ],
    [
      "ियन",
      "शिप</w>"
    ],
    [
      "नि",
      "वेश</w>"
    ],
    [
      "प",
      "दा"
    ],
    [
      "व्या",
      "पक</w>"
    ],
    [
      "हिस्",
      "सों</w>"
    ],
    [
      "व",
      "ु"
    ],
    [
      "अतिरि",
      "क्त</w>"
    ],
    [
      "त",
      "क"
    ],
    [
      "माम",
      "लों</w>"
    ],
    [
      "ना",
      "ग"
    ],
    [
      "खिला",
      "ड़ियों</w>"
    ],
    [
      "स्ट",
      "्र"
    ],
    [
      "ता",
      "कि</w>"
    ],
    [
      "म",
      "स्"
    ],
    [
      "क",
      "ौ"
    ],
    [
      "उस",
      "से</w>"
    ],
    [
      ".ए",
      "म"
    ],
    [
      "ग्र",
      "ी"
    ],
    [
      "प",
      "त्र</w>"
    ],
    [
      "ए",
      "ं"
    ],
    [
      "च",
      "ू"
    ],
    [
      "ग",
      "म</w>"
    ],
    [
      "अच्छ",
      "ी</w>"
    ],
    [
      "ष्",
      "ण"
    ],
    [
      "त्र",
      "ीय</w>"
    ],
    [
      "ऊ",
      "ँ"
    ],
    [
      "त",
      "क,</w>"
    ],
    [
      "परिणाम",
      "स्वरूप</w>"
    ],
    [
      "ार",
      "ी"
    ],
    [
      "भार",
      "ी</w>"
    ],
    [
      "ब",
      "द्ध</w>"
    ],
    [
      "मना",
      "या</w>"
    ],
    [
      ".",
      ")</w>"
    ],
    [
      "क्",
      "त"
    ],
    [
      "र्",
      "थ</w>"
    ],
    [
      "सर्",
      "वश"
    ],
    [
      "ं",
      "ज</w>"
    ],
    [
      "बता",
      "या</w>"
    ],
    [
      "तृ",
      "त्व</w>"
    ],
    [
      "कंप्यू",
      "टर</w>"
    ],
    [
      "स्ट",
      "ो"
    ],
    [
      "र",
      "ै"
    ],
    [
      "पा",
      "ँच</w>"
    ],
    [
      "साथ-",
      "साथ</w>"
    ],
    [
      "201",
      "7</w>"
    ],
    [
      "म्",
      "स</w>"
    ],
    [
      "गंभी",
      "र</w>"
    ],
    [
      "घोष",
      "णा</w>"
    ],
    [
      "ह",
      "र"
    ],
    [
      "ह",
      "त</w>"
    ],
    [
      "सित",
      "ंबर</w>"
    ],
    [
      "ल",
      "क्षण</w>"
    ],
    [
      "क",
      "ब्"
    ],
    [
      "म्",
      "प"
    ],
    [
      "सर्वश",
      "्रे"
    ],
    [
      "जिन्",
      "होंने</w>"
    ],
    [
      "दर्",
      "शा"
    ],
    [
      "ऊ",
      "पर</w>"
    ],
    [
      "पिछ",
      "ले</w>"
    ],
    [
      "ली",
      ",</w>"
    ],
    [
      "ना",
      "ड"
    ],
    [
      "इ",
      "ंटर"
    ],
    [
      "ब",
      "चा"
    ],
    [
      "पार्",
      "टी</w>"
    ],
    [
      "सर्वश्रे",
      "ष्ठ</w>"
    ],
    [
      "प्रार",
      "ंभिक</w>"
    ],
    [
      "ब",
      "स</w>"
    ],
    [
      "दि",
      "व"
    ],
    [
      "सप्ता",
      "ह</w>"
    ],
    [
      "सु",
      "रक्षा</w>"
    ],
    [
      "पीछ",
      "े</w>"
    ],
    [
      "ठ",
      "ि"
    ],
    [
      "अला",
      "वा,</w>"
    ],
    [
      "रिकॉ",
      "र्ड</w>"
    ],
    [
      "ट्",
      "र</w>"
    ],
    [
      "द्वि",
      "तीय</w>"
    ],
    [
      "2",
      "5</w>"
    ],
    [
      "अक्टू",
      "बर</w>"
    ],
    [
      "ने",
      "तृत्व</w>"
    ],
    [
      "20",
      "19</w>"
    ],
    [
      "ख",
      "राब</w>"
    ],
    [
      "बी",
      "मारी</w>"
    ],
    [
      "हो",
      "ना</w>"
    ],
    [
      "सं",
      "ग्र"
    ],
    [
      "निर्",
      "धारित</w>"
    ],
    [
      "स्वी",
      "डन</w>"
    ],
    [
      "धिकार",
      "िक</w>"
    ],
    [
      "ग",
      "ढ़</w>"
    ],
    [
      "सम",
      "ारो"
    ],
    [
      "ज",
      "े</w>"
    ],
    [
      "आ",
      "त्"
    ],
    [
      "स्वी",
      "कार</w>"
    ],
    [
      "म",
      "जब"
    ],
    [
      "मजब",
      "ू"
    ],
    [
      "ए",
      "ल"
    ],
    [
      "अ",
      "ड्"
    ],
    [
      "सं",
      "पर्"
    ],
    [
      "ट्र",
      "े"
    ],
    [
      "आ",
      "धिकारिक</w>"
    ],
    [
      "खा",
      "न</w>"
    ],
    [
      "ँ",
      ",</w>"
    ],
    [
      "गे",
      "म</w>"
    ],
    [
      "प्र",
      "वेश</w>"
    ],
    [
      "ला",
      "ल</w>"
    ],
    [
      "दि",
      "ए</w>"
    ],
    [
      "ह",
      "म</w>"
    ],
    [
      "मु",
      "गल</w>"
    ],
    [
      "ष्",
      "ट्र</w>"
    ],
    [
      "ल",
      "-"
    ],
    [
      "ला",
      "ख</w>"
    ],
    [
      "201",
      "8</w>"
    ],
    [
      "ड",
      "्र"
    ],
    [
      "ग",
      "ति</w>"
    ],
    [
      "स्वा",
      "स्थ"
    ],
    [
      "पह",
      "चा"
    ],
    [
      "म",
      "ई</w>"
    ],
    [
      ".",
      "वी"
    ],
    [
      "वा",
      "दी</w>"
    ],
    [
      "पा",
      "कि"
    ],
    [
      "हाला",
      "ंकि</w>"
    ],
    [
      "सा",
      "ं"
    ],
    [
      "लि",
      "ंग</w>"
    ],
    [
      "श",
      "री"
    ],
    [
      "क्ष",
      "ा"
    ],
    [
      "ब",
      "रा"
    ],
    [
      "न",
      "्य</w>"
    ],
    [
      "ब",
      "र"
    ],
    [
      "हू",
      "ँ</w>"
    ],
    [
      "संस्",
      "करण</w>"
    ],
    [
      "कर्",
      "ता</w>"
    ],
    [
      "आध",
      "ु"
    ],
    [
      "मू",
      "र्"
    ],
    [
      "ज",
      "र</w>"
    ],
    [
      "प्र",
      "स्तु"
    ],
    [
      "व",
      "ं"
    ],
    [
      "थ",
      "म</w>"
    ],
    [
      "ज",
      "ल</w>"
    ],
    [
      "व",
      "रण</w>"
    ],
    [
      "स",
      "ल"
    ],
    [
      "पा",
      "न</w>"
    ],
    [
      "कि",
      "ल</w>"
    ],
    [
      "उत्त",
      "रा"
    ],
    [
      "200",
      "8</w>"
    ],
    [
      "उम्",
      "र</w>"
    ],
    [
      "ब",
      "ल्"
    ],
    [
      "मै",
      "दान</w>"
    ],
    [
      "फ्र",
      "ी"
    ],
    [
      "इ",
      "ल</w>"
    ],
    [
      ".",
      "ओ"
    ],
    [
      "पत्",
      "ति</w>"
    ],
    [
      "दौरा",
      "न,</w>"
    ],
    [
      "सं",
      "चा"
    ],
    [
      "ट",
      "ै"
    ],
    [
      "दूस",
      "रा</w>"
    ],
    [
      "निय",
      "म</w>"
    ],
    [
      "श्र",
      "ी"
    ],
    [
      "ंड",
      "र</w>"
    ],
    [
      "भ",
      "ग"
    ],
    [
      "संपर्",
      "क</w>"
    ],
    [
      "सं",
      "बंध</w>"
    ],
    [
      "चु",
      "नाव</w>"
    ],
    [
      "सं",
      "के"
    ],
    [
      "श",
      "ू"
    ],
    [
      "ट",
      "ल</w>"
    ],
    [
      "फो",
      "न</w>"
    ],
    [
      "ल",
      "ग</w>"
    ],
    [
      "परी",
      "क्षण</w>"
    ],
    [
      "माम",
      "ले</w>"
    ],
    [
      "ग",
      "ई"
    ],
    [
      "ज",
      "ॉ"
    ],
    [
      "त",
      "ियाँ</w>"
    ],
    [
      "मौ",
      "जूद</w>"
    ],
    [
      "ंग",
      "ा</w>"
    ],
    [
      "अ",
      "ंदर</w>"
    ],
    [
      "त्",
      "ता</w>"
    ],
    [
      "ज",
      "हां</w>"
    ],
    [
      "त",
      "मिल</w>"
    ],
    [
      "अध्य",
      "यन</w>"
    ],
    [
      "उस",
      "का</w>"
    ],
    [
      "ल",
      "िय"
    ],
    [
      "सि",
      "क्"
    ],
    [
      "र्",
      "प"
    ],
    [
      "कार",
      "ियों</w>"
    ],
    [
      "भ",
      "र"
    ],
    [
      "चल",
      "ता</w>"
    ],
    [
      "लंब",
      "े</w>"
    ],
    [
      "पे",
      "श"
    ],
    [
      "झ",
      "ील</w>"
    ],
    [
      "इंग्",
      "लैंड</w>"
    ],
    [
      "खे",
      "ला</w>"
    ],
    [
      "छो",
      "टी</w>"
    ],
    [
      "ड",
      "ब्"
    ],
    [
      "ब",
      "े</w>"
    ],
    [
      "वा",
      "य"
    ],
    [
      "नियंत्र",
      "ण</w>"
    ],
    [
      "न",
      "ै"
    ],
    [
      "ध",
      "्"
    ],
    [
      "उल्",
      "लेख</w>"
    ],
    [
      "छ",
      "ह</w>"
    ],
    [
      "व",
      "र"
    ],
    [
      "1",
      "4</w>"
    ],
    [
      "करो",
      "ड़</w>"
    ],
    [
      "ए",
      "फ"
    ],
    [
      "व",
      "स्तु"
    ],
    [
      "ने",
      "श"
    ],
    [
      "तरी",
      "के</w>"
    ],
    [
      "क",
      "ं"
    ],
    [
      "पर्",
      "य"
    ],
    [
      "राष्ट्र",
      "पति</w>"
    ],
    [
      "झ",
      "ा"
    ],
    [
      "प",
      "दक</w>"
    ],
    [
      "परि",
      "वर्त"
    ],
    [
      "स",
      "त्र</w>"
    ],
    [
      "प्रा",
      "ंत</w>"
    ],
    [
      "ज़",
      "ि"
    ],
    [
      "भो",
      "जन</w>"
    ],
    [
      "201",
      "6</w>"
    ],
    [
      "हो",
      "।</w>"
    ],
    [
      "पूर्",
      "व"
    ],
    [
      "क",
      "प</w>"
    ],
    [
      "आधु",
      "निक</w>"
    ],
    [
      "दे",
      "ती</w>"
    ],
    [
      "क",
      "द"
    ],
    [
      "ज",
      "ली</w>"
    ],
    [
      ".",
      "मी"
    ],
    [
      "अग",
      "स्त</w>"
    ],
    [
      "स",
      "त"
    ],
    [
      "न",
      "ही"
    ],
    [
      "आस",
      "पास</w>"
    ],
    [
      "सा",
      "मा"
    ],
    [
      "मा",
      "त्र</w>"
    ],
    [
      "वि",
      "धा"
    ],
    [
      ".",
      "ई"
    ],
    [
      "आ",
      "न"
    ],
    [
      "फर",
      "वरी</w>"
    ],
    [
      "द",
      "ी।</w>"
    ],
    [
      "इन",
      "में</w>"
    ],
    [
      "स्",
      "पर्"
    ],
    [
      "प्र",
      "थम</w>"
    ],
    [
      ".ए",
      "न"
    ],
    [
      "इस",
      "ी</w>"
    ],
    [
      "नु",
      "क"
    ],
    [
      "श",
      "ल</w>"
    ],
    [
      "प",
      "ौ"
    ],
    [
      "रो",
      "क"
    ],
    [
      "चा",
      "ई</w>"
    ],
    [
      "भी",
      "तर</w>"
    ],
    [
      "रह",
      "ता</w>"
    ],
    [
      "स्प",
      "ष्ट</w>"
    ],
    [
      "टे",
      "ली"
    ],
    [
      "उद",
      "्यो"
    ],
    [
      "क्ष",
      "म"
    ],
    [
      "कै",
      "ं"
    ],
    [
      "स्वास्थ",
      "्य</w>"
    ],
    [
      "जि",
      "क</w>"
    ],
    [
      "स",
      "्रो"
    ],
    [
      "1",
      "1</w>"
    ],
    [
      "शरी",
      "र</w>"
    ],
    [
      "स्कू",
      "ल</w>"
    ],
    [
      "र",
      "िय"
    ],
    [
      "प",
      "ी</w>"
    ],
    [
      "त",
      "ट</w>"
    ],
    [
      "सा",
      "त</w>"
    ],
    [
      "जु",
      "लाई</w>"
    ],
    [
      "प्रे",
      "र"
    ],
    [
      "भ",
      "व"
    ],
    [
      "कर्",
      "म"
    ],
    [
      "पू",
      "जा</w>"
    ],
    [
      "दे",
      "व</w>"
    ],
    [
      "1",
      "6</w>"
    ],
    [
      "कहा",
      "नी</w>"
    ],
    [
      "टे",
      "ड</w>"
    ],
    [
      "राजनी",
      "तिक</w>"
    ],
    [
      "उद्",
      "देश"
    ],
    [
      "0",
      ",000</w>"
    ],
    [
      "सा",
      "हि"
    ],
    [
      "पसं",
      "द</w>"
    ],
    [
      "नाड",
      "ु</w>"
    ],
    [
      "खरीद",
      "ारी</w>"
    ],
    [
      "सम",
      "ी"
    ],
    [
      "य",
      "द</w>"
    ],
    [
      "मी",
      "र</w>"
    ],
    [
      "आ",
      "कर्"
    ],
    [
      "वा",
      "ह"
    ],
    [
      "सॉ",
      "फ्"
    ],
    [
      "कै",
      "से</w>"
    ],
    [
      "प",
      "ीय</w>"
    ],
    [
      "ड़",
      "ा"
    ],
    [
      "ख",
      "ो</w>"
    ],
    [
      "ल्",
      "प</w>"
    ],
    [
      "छो",
      "ड़</w>"
    ],
    [
      "ब",
      "ू"
    ],
    [
      "व्यव",
      "स्था</w>"
    ],
    [
      "बद",
      "ल</w>"
    ],
    [
      "प्",
      "ले"
    ],
    [
      "विद",
      "्रो"
    ],
    [
      "साम",
      "ना</w>"
    ],
    [
      "नि",
      "वा"
    ],
    [
      "नुक",
      "सान</w>"
    ],
    [
      "े",
      "ं।</w>"
    ],
    [
      "पर्",
      "या"
    ],
    [
      "ं",
      "तर"
    ],
    [
      "म",
      "नी</w>"
    ],
    [
      "वित्",
      "तीय</w>"
    ],
    [
      "उ",
      "सी</w>"
    ],
    [
      "म",
      "ध्य"
    ],
    [
      "वृ",
      "द्धि</w>"
    ],
    [
      "उत्",
      "तर"
    ],
    [
      "ट",
      "ने</w>"
    ],
    [
      "सं",
      "क्रमण</w>"
    ],
    [
      "ष",
      "ि</w>"
    ],
    [
      "च",
      "ल</w>"
    ],
    [
      "थ",
      "े"
    ],
    [
      "र",
      "चना</w>"
    ],
    [
      "धा",
      "र्"
    ],
    [
      "म",
      "ति</w>"
    ],
    [
      "नि",
      "ष्"
    ],
    [
      "हिं",
      "दी</w>"
    ],
    [
      "द",
      "ारी</w>"
    ],
    [
      "घट",
      "ना</w>"
    ],
    [
      "अग",
      "ले</w>"
    ],
    [
      "दे",
      "ख</w>"
    ],
    [
      "इ",
      "न्"
    ],
    [
      "रा",
      "नी</w>"
    ],
    [
      "घंट",
      "े</w>"
    ],
    [
      "इ",
      "स्"
    ],
    [
      "त",
      "मिल"
    ],
    [
      "ंग",
      "े</w>"
    ],
    [
      "म",
      "र</w>"
    ],
    [
      "बे",
      "टे</w>"
    ],
    [
      "प",
      "ढ़"
    ],
    [
      "ंद",
      "न</w>"
    ],
    [
      "श",
      "ॉ"
    ],
    [
      "लि",
      "न</w>"
    ],
    [
      "ष",
      "ित</w>"
    ],
    [
      "ंक",
      "न</w>"
    ],
    [
      "इस",
      "ने</w>"
    ],
    [
      "बौ",
      "द्ध</w>"
    ],
    [
      "धि",
      "क</w>"
    ],
    [
      "फै",
      "स"
    ],
    [
      "रा",
      "म</w>"
    ],
    [
      "म्",
      "म"
    ],
    [
      "र",
      "ु</w>"
    ],
    [
      "1",
      "8</w>"
    ],
    [
      "फ",
      "ू"
    ],
    [
      "उ",
      "पा"
    ],
    [
      "ख",
      "तर"
    ],
    [
      "निय",
      "ु"
    ],
    [
      "समुदा",
      "य</w>"
    ],
    [
      "ए",
      "ल्"
    ],
    [
      "दक्षि",
      "णी</w>"
    ],
    [
      "सं",
      "दर्"
    ],
    [
      "उत्",
      "सव</w>"
    ],
    [
      "रो",
      "ग</w>"
    ],
    [
      "स",
      "भा</w>"
    ],
    [
      "पै",
      "सा</w>"
    ],
    [
      "धार्",
      "मिक</w>"
    ],
    [
      "शा",
      "ह</w>"
    ],
    [
      "्य",
      "ता</w>"
    ],
    [
      "रा",
      "शि"
    ],
    [
      "त्य",
      "ा</w>"
    ],
    [
      "हॉ",
      "की</w>"
    ],
    [
      "पा",
      "ए</w>"
    ],
    [
      "क",
      "ल"
    ],
    [
      "ऑ",
      "न"
    ],
    [
      "ध",
      "े</w>"
    ],
    [
      "व्यवसा",
      "य</w>"
    ],
    [
      "न",
      "ो</w>"
    ],
    [
      "लड़",
      "ाई</w>"
    ],
    [
      "से",
      "वा"
    ],
    [
      "201",
      "5</w>"
    ],
    [
      "जिस",
      "ने</w>"
    ],
    [
      "प",
      "ड़"
    ],
    [
      "टि",
      "क</w>"
    ],
    [
      "स्टे",
      "शन</w>"
    ],
    [
      "्या",
      "दा"
    ],
    [
      "च",
      "र्"
    ],
    [
      "तिहा",
      "सिक</w>"
    ],
    [
      "सु",
      "निश्चित</w>"
    ],
    [
      "शिक्ष",
      "ा</w>"
    ],
    [
      "आ",
      "र्थ"
    ],
    [
      "बेह",
      "तर</w>"
    ],
    [
      "उ",
      "ठा"
    ],
    [
      "क",
      "ट</w>"
    ],
    [
      "पंजा",
      "ब</w>"
    ],
    [
      "ि",
      "का</w>"
    ],
    [
      "साइ",
      "ट</w>"
    ],
    [
      "मा",
      "नित</w>"
    ],
    [
      "वज",
      "ह</w>"
    ],
    [
      "जा",
      "र</w>"
    ],
    [
      "ची",
      "नी</w>"
    ],
    [
      "ह",
      "मे"
    ],
    [
      "ला",
      ",</w>"
    ],
    [
      "हा",
      "थ</w>"
    ],
    [
      "परि",
      "व"
    ],
    [
      "डब्",
      "ल्यू"
    ],
    [
      "अनु",
      "मति</w>"
    ],
    [
      "ग",
      "न</w>"
    ],
    [
      "पे",
      "शे"
    ],
    [
      "पुरु",
      "षों</w>"
    ],
    [
      "आप",
      "का</w>"
    ],
    [
      "1",
      "3</w>"
    ],
    [
      "र",
      "न</w>"
    ],
    [
      "फ",
      "ल</w>"
    ],
    [
      "ह",
      "ा</w>"
    ],
    [
      "ष्",
      "ठ"
    ],
    [
      "आ",
      "ता</w>"
    ],
    [
      "वे",
      "ब"
    ],
    [
      "अध्य",
      "क्ष</w>"
    ],
    [
      "।",
      "\"</w>"
    ],
    [
      "एक",
      "मात्र</w>"
    ],
    [
      "ह",
      "रे</w>"
    ],
    [
      "्यादा",
      "तर</w>"
    ],
    [
      "पा",
      "या</w>"
    ],
    [
      "नि",
      "कों</w>"
    ],
    [
      "कि",
      "ंग</w>"
    ],
    [
      "ख",
      "ंड</w>"
    ],
    [
      "भा",
      "ई</w>"
    ],
    [
      "ऑन",
      "लाइन</w>"
    ],
    [
      "दुका",
      "न</w>"
    ],
    [
      ")",
      ",</w>"
    ],
    [
      "या",
      "लय</w>"
    ],
    [
      "हमे",
      "शा</w>"
    ],
    [
      "बै",
      "ठ"
    ],
    [
      "1",
      "7</w>"
    ],
    [
      "शा",
      "यद</w>"
    ],
    [
      "पर्",
      "व"
    ],
    [
      "ले",
      "क्"
    ],
    [
      "प",
      "द</w>"
    ],
    [
      "ट",
      ",</w>"
    ],
    [
      "रु",
      "प"
    ],
    [
      "त",
      "ने</w>"
    ],
    [
      "उत्पा",
      "दन</w>"
    ],
    [
      "न्",
      "न"
    ],
    [
      "द्",
      "धा"
    ],
    [
      "द्",
      "ध"
    ],
    [
      "बा",
      "व"
    ],
    [
      "रे",
      "ल"
    ],
    [
      "दृ",
      "श"
    ],
    [
      "देख",
      "ने</w>"
    ],
    [
      "ड",
      "ल</w>"
    ],
    [
      "कि",
      "ले</w>"
    ],
    [
      "राशि",
      "</w>"
    ],
    [
      "ट्",
      "टा"
    ],
    [
      "उम्मी",
      "द</w>"
    ],
    [
      "अं",
      "क</w>"
    ],
    [
      "शि",
      "ला"
    ],
    [
      "भाष",
      "ा"
    ],
    [
      "उन",
      "में</w>"
    ],
    [
      "कार्",
      "ड</w>"
    ],
    [
      "रा",
      "म"
    ],
    [
      "ऐ",
      "तिहासिक</w>"
    ],
    [
      "ग्र",
      "ं"
    ],
    [
      "प",
      "क्ष"
    ],
    [
      "व",
      "न"
    ],
    [
      "र",
      "क्त</w>"
    ],
    [
      "जन",
      "गणना</w>"
    ],
    [
      "ले",
      "ते</w>"
    ],
    [
      "चि",
      "त्र</w>"
    ],
    [
      "200",
      "7</w>"
    ],
    [
      "स्",
      "पे"
    ],
    [
      "पो",
      "र्ट</w>"
    ],
    [
      "ऑ",
      "र्"
    ],
    [
      "सामा",
      "जिक</w>"
    ],
    [
      "ं",
      "कि,</w>"
    ],
    [
      "ता",
      "प"
    ],
    [
      "शी",
      "र्ष</w>"
    ],
    [
      "जो",
      "खि"
    ],
    [
      "मौ",
      "सम</w>"
    ],
    [
      "19",
      "3"
    ],
    [
      "मु",
      "सल"
    ],
    [
      "ी",
      "न</w>"
    ],
    [
      "1",
      "2"
    ],
    [
      "क्षम",
      "ता</w>"
    ],
    [
      "जाए",
      "गा।</w>"
    ],
    [
      "गै",
      "र-"
    ],
    [
      "पुरु",
      "ष</w>"
    ],
    [
      "विभा",
      "जित</w>"
    ],
    [
      "उप",
      "योग"
    ],
    [
      "चि",
      "त्र"
    ],
    [
      "200",
      "0</w>"
    ],
    [
      "कि",
      ".मी"
    ],
    [
      "री",
      ",</w>"
    ],
    [
      "खो",
      "ज</w>"
    ],
    [
      "अधि",
      "कारियों</w>"
    ],
    [
      "घा",
      "त</w>"
    ],
    [
      "त",
      "ु</w>"
    ],
    [
      "छ",
      "ू"
    ],
    [
      "हाला",
      "ंकि,</w>"
    ],
    [
      "समस्",
      "या"
    ],
    [
      "दि",
      "क</w>"
    ],
    [
      "म",
      "णि"
    ],
    [
      "200",
      "9</w>"
    ],
    [
      "हम",
      "ला</w>"
    ],
    [
      "भा",
      "ग"
    ],
    [
      "ब",
      "ंद"
    ],
    [
      "च",
      "रण</w>"
    ],
    [
      "घ",
      "रे"
    ],
    [
      "ष्",
      "क</w>"
    ],
    [
      "4",
      "0</w>"
    ],
    [
      "को",
      "ड</w>"
    ],
    [
      "ज",
      "हा"
    ],
    [
      "र",
      "ता</w>"
    ],
    [
      "लगा",
      "तार</w>"
    ],
    [
      "20",
      "21</w>"
    ],
    [
      "वार्",
      "ष"
    ],
    [
      "मान",
      "व</w>"
    ],
    [
      "आ",
      "खि"
    ],
    [
      "ड",
      "ु"
    ],
    [
      "आ",
      "ँ"
    ],
    [
      "बढ़",
      "</w>"
    ],
    [
      "समारो",
      "ह</w>"
    ],
    [
      "पा",
      "ंड"
    ],
    [
      "प",
      "त"
    ],
    [
      "कॉ",
      "ले"
    ],
    [
      "ियो",
      "ज"
    ],
    [
      "ज़",
      "ि"
    ],
    [
      "घरे",
      "लू</w>"
    ],
    [
      "सु",
      "धार</w>"
    ],
    [
      "पो",
      "र्"
    ],
    [
      "ल",
      "त</w>"
    ],
    [
      "दी",
      "न</w>"
    ],
    [
      "ल",
      "ंदन</w>"
    ],
    [
      "ल",
      "क</w>"
    ],
    [
      "तक",
      "नी"
    ],
    [
      "सं",
      "गी"
    ],
    [
      "आ",
      "रो"
    ],
    [
      "अ",
      "स्प"
    ],
    [
      "ब",
      "ने</w>"
    ],
    [
      "देश",
      "ी</w>"
    ],
    [
      "1",
      "3"
    ],
    [
      "कैं",
      "सर</w>"
    ],
    [
      "प्र",
      "जा"
    ],
    [
      "आ",
      "लो"
    ],
    [
      "ंड",
      "ो"
    ],
    [
      "का",
      "ं"
    ],
    [
      "खा",
      "ने</w>"
    ],
    [
      "ने",
      "ट"
    ],
    [
      "श",
      "ु</w>"
    ],
    [
      "का",
      "ंग्रे"
    ],
    [
      "र",
      "ो</w>"
    ],
    [
      "स्व",
      "तंत्र"
    ],
    [
      "संभा",
      "वना</w>"
    ],
    [
      "पेशे",
      "वर</w>"
    ],
    [
      "दर्",
      "ज</w>"
    ],
    [
      "2",
      "4</w>"
    ],
    [
      "शह",
      "रों</w>"
    ],
    [
      "ल्",
      "क</w>"
    ],
    [
      "पा",
      "त</w>"
    ],
    [
      "द",
      "्य</w>"
    ],
    [
      "पी",
      "ड़"
    ],
    [
      "छ",
      "ु"
    ],
    [
      "व्या",
      "पार</w>"
    ],
    [
      "ध",
      "ित</w>"
    ],
    [
      "विष",
      "ा"
    ],
    [
      "स्व",
      "य"
    ],
    [
      "व्यक्ति",
      "गत</w>"
    ],
    [
      "जा",
      "पान</w>"
    ],
    [
      "निर्",
      "मित</w>"
    ],
    [
      "त",
      "हत</w>"
    ],
    [
      "ऑस्ट्रे",
      "लिया</w>"
    ],
    [
      "से",
      "ं"
    ],
    [
      "डि",
      "ग्री</w>"
    ],
    [
      "ब",
      "ढ़"
    ],
    [
      "चाहि",
      "ए</w>"
    ],
    [
      "कृ",
      "ष्"
    ],
    [
      "ं",
      "ति</w>"
    ],
    [
      "च",
      "ारों</w>"
    ],
    [
      "त",
      "ला"
    ],
    [
      "हू",
      "ँ।</w>"
    ],
    [
      "बजा",
      "य</w>"
    ],
    [
      "स्था",
      "नों</w>"
    ],
    [
      "भा",
      "व"
    ],
    [
      "फ्रा",
      "ं"
    ],
    [
      "एश",
      "िया</w>"
    ],
    [
      "प्रदर्",
      "शित</w>"
    ],
    [
      "आ",
      "इ"
    ],
    [
      "जीत",
      "ा।</w>"
    ],
    [
      "म",
      "र"
    ],
    [
      "पाकि",
      "स्तान</w>"
    ],
    [
      "पत्",
      "नी</w>"
    ],
    [
      "वास्त",
      "व</w>"
    ],
    [
      "जोखि",
      "म</w>"
    ],
    [
      "सै",
      "न्य</w>"
    ],
    [
      "ट",
      "र्"
    ],
    [
      "राज",
      "वंश</w>"
    ],
    [
      "बि",
      "जली</w>"
    ],
    [
      "वी",
      "डियो</w>"
    ],
    [
      "ज",
      "वा"
    ],
    [
      "कृ",
      "षि</w>"
    ],
    [
      "औ",
      "सत</w>"
    ],
    [
      "नि",
      "</w>"
    ],
    [
      "हा",
      "इ"
    ],
    [
      "ग्रा",
      "म</w>"
    ],
    [
      "थ",
      "ों</w>"
    ],
    [
      "ला",
      "भ</w>"
    ],
    [
      "कर",
      "ी</w>"
    ],
    [
      "र",
      "त</w>"
    ],
    [
      "दे",
      "वी</w>"
    ],
    [
      "य",
      "ॉर्"
    ],
    [
      "ठ",
      "ी</w>"
    ],
    [
      "र",
      "च"
    ],
    [
      "ह",
      "री</w>"
    ],
    [
      "फो",
      "र्"
    ],
    [
      "स्",
      "के"
    ],
    [
      "चि",
      "ं"
    ],
    [
      "ब",
      "म</w>"
    ],
    [
      "भग",
      "वान</w>"
    ],
    [
      ".ए",
      "च"
    ],
    [
      "नियु",
      "क्त</w>"
    ],
    [
      "सू",
      "स</w>"
    ],
    [
      "थ",
      "ि"
    ],
    [
      "लगा",
      "ने</w>"
    ],
    [
      "त्र",
      "ा"
    ],
    [
      "ट",
      "ु"
    ],
    [
      "कि",
      "ला</w>"
    ],
    [
      "ंड",
      "ा</w>"
    ],
    [
      "प",
      "न्न</w>"
    ],
    [
      "ज",
      "ंग"
    ],
    [
      "क्",
      "सि"
    ],
    [
      "तू",
      "फा"
    ],
    [
      "पर",
      "ियोज"
    ],
    [
      "निय",
      "मित</w>"
    ],
    [
      "जिस",
      "की</w>"
    ],
    [
      "मा",
      "ने</w>"
    ],
    [
      "प्",
      "प"
    ],
    [
      "ए",
      "क्स"
    ],
    [
      "दर्",
      "श"
    ],
    [
      "ए",
      "च"
    ],
    [
      "जै",
      "सा</w>"
    ],
    [
      "म्",
      "मे"
    ],
    [
      "200",
      "6</w>"
    ],
    [
      "प",
      "क्ष</w>"
    ],
    [
      "अभिने",
      "ता</w>"
    ],
    [
      "ह",
      "रा</w>"
    ],
    [
      "समु",
      "द्र</w>"
    ],
    [
      "तमिल",
      "नाडु</w>"
    ],
    [
      "प्रति",
      "स्पर्"
    ],
    [
      "मूल",
      "्य</w>"
    ],
    [
      "वे",
      "यर</w>"
    ],
    [
      "सम",
      "र्प"
    ],
    [
      "आ",
      "वा"
    ],
    [
      "वे",
      "श"
    ],
    [
      "अधि",
      "कार</w>"
    ],
    [
      "मु",
      "ंब"
    ],
    [
      "शा",
      "ही</w>"
    ],
    [
      "वि",
      "ष्"
    ],
    [
      "श्रे",
      "णी</w>"
    ],
    [
      "ऋ",
      "ण</w>"
    ],
    [
      "ब",
      "ज"
    ],
    [
      "1",
      "00</w>"
    ],
    [
      "क",
      "थ"
    ],
    [
      "रेल",
      "वे</w>"
    ],
    [
      "आन",
      "ंद</w>"
    ],
    [
      "म",
      "ंग"
    ],
    [
      "द",
      "िया,</w>"
    ],
    [
      "राज",
      "्य"
    ],
    [
      "पा",
      "लन</w>"
    ],
    [
      "बना",
      "ई</w>"
    ],
    [
      "प्र",
      "वा"
    ],
    [
      "च",
      "न</w>"
    ],
    [
      "च",
      ",</w>"
    ],
    [
      "आ",
      "कार</w>"
    ],
    [
      "न",
      "ें</w>"
    ],
    [
      "छो",
      "टा</w>"
    ],
    [
      "उत्पा",
      "द</w>"
    ],
    [
      "तु",
      "र"
    ],
    [
      "कांग्रे",
      "स</w>"
    ],
    [
      "स्वतंत्र",
      "ता</w>"
    ],
    [
      "यूरो",
      "पीय</w>"
    ],
    [
      "आयो",
      "जन</w>"
    ],
    [
      "क",
      "ड़ी</w>"
    ],
    [
      "उद्यो",
      "ग</w>"
    ],
    [
      "श",
      "र्"
    ],
    [
      "अधि",
      "क"
    ],
    [
      "ण",
      "-"
    ],
    [
      "तर",
      "फ</w>"
    ],
    [
      ".एल",
      ".</w>"
    ],
    [
      "पु",
      "त्र</w>"
    ],
    [
      "आर्थ",
      "िक</w>"
    ],
    [
      "दि",
      "ल</w>"
    ],
    [
      "कि",
      "ए।</w>"
    ],
    [
      "टेली",
      "वि"
    ],
    [
      "हु",
      "ए।</w>"
    ],
    [
      "द",
      "स</w>"
    ],
    [
      "्रा",
      "इ"
    ],
    [
      "सड़",
      "क</w>"
    ],
    [
      "स",
      "ियों</w>"
    ],
    [
      "प्रस्तु",
      "त</w>"
    ],
    [
      "वि",
      "रोध</w>"
    ],
    [
      "रा",
      "व"
    ],
    [
      "पै",
      "दा</w>"
    ],
    [
      "मत",
      "लब</w>"
    ],
    [
      "शि",
      "क</w>"
    ],
    [
      "ला",
      "ग"
    ],
    [
      "को",
      ",</w>"
    ],
    [
      "ज",
      "्यादा</w>"
    ],
    [
      "मै",
      "न</w>"
    ],
    [
      "ं",
      "भ</w>"
    ],
    [
      "2",
      "3</w>"
    ],
    [
      "आवश्य",
      "क</w>"
    ],
    [
      ".आई",
      ".</w>"
    ],
    [
      "म",
      "ल"
    ],
    [
      "ना",
      "थ</w>"
    ],
    [
      "र्",
      "क</w>"
    ],
    [
      "ले",
      "।</w>"
    ],
    [
      "मह",
      "सूस</w>"
    ],
    [
      "क्रि",
      "केट</w>"
    ],
    [
      "प्र",
      "क्रिया</w>"
    ],
    [
      "लगा",
      "या</w>"
    ],
    [
      "नी",
      ",</w>"
    ],
    [
      "ह",
      "ल्"
    ],
    [
      "कना",
      "डा</w>"
    ],
    [
      "उद्देश",
      "्य</w>"
    ],
    [
      "परिवर्त",
      "न</w>"
    ],
    [
      "य",
      "ल</w>"
    ],
    [
      "साथ",
      ",</w>"
    ],
    [
      "सक",
      "्र"
    ],
    [
      "जर्",
      "मनी</w>"
    ],
    [
      "आ",
      "ई</w>"
    ],
    [
      "जि",
      "न</w>"
    ],
    [
      "कर्",
      "नाटक</w>"
    ],
    [
      "बा",
      "ं"
    ],
    [
      "लिख",
      "ा</w>"
    ],
    [
      "खे",
      "ले</w>"
    ],
    [
      "भ",
      "ौ"
    ],
    [
      "दू",
      "री</w>"
    ],
    [
      "बो",
      "र्ड</w>"
    ],
    [
      "पहचा",
      "न</w>"
    ],
    [
      "त्व",
      "चा</w>"
    ],
    [
      "ट्र",
      "ॉ"
    ],
    [
      "हो",
      "कर</w>"
    ],
    [
      "सं",
      "गठन</w>"
    ],
    [
      "ब",
      "नी</w>"
    ],
    [
      "आ",
      "म"
    ],
    [
      "ता",
      "-"
    ],
    [
      "ज",
      "य"
    ],
    [
      "ख",
      "ों</w>"
    ],
    [
      "प्रतिनि",
      "धि"
    ],
    [
      "श्र",
      "ी</w>"
    ],
    [
      "इ",
      "तना</w>"
    ],
    [
      "मा",
      "त्रा</w>"
    ],
    [
      "कि.मी",
      ".</w>"
    ],
    [
      "फ़",
      "्"
    ],
    [
      "तुर",
      "ंत</w>"
    ],
    [
      "ं",
      "ज"
    ],
    [
      "ध",
      "ो"
    ],
    [
      "मि",
      "न</w>"
    ],
    [
      "ट्र",
      "ै"
    ],
    [
      "गुज",
      "रात</w>"
    ],
    [
      "स्व",
      "ी</w>"
    ],
    [
      "श",
      "तर"
    ],
    [
      "अनु",
      "भव</w>"
    ],
    [
      "कमा",
      "ई</w>"
    ],
    [
      "हो",
      "गी।</w>"
    ],
    [
      "कॉ",
      "र्"
    ],
    [
      "एश",
      "ियाई</w>"
    ],
    [
      "शि",
      "क्षण</w>"
    ],
    [
      "महारा",
      "ष्ट्र</w>"
    ],
    [
      "गा",
      "य"
    ],
    [
      "ने",
      ",</w>"
    ],
    [
      "यॉर्",
      "क</w>"
    ],
    [
      "अ",
      "फ्री"
    ],
    [
      "कानू",
      "न</w>"
    ],
    [
      "कि",
      "त</w>"
    ],
    [
      "ग्राह",
      "क</w>"
    ],
    [
      "ताप",
      "मान</w>"
    ],
    [
      "र",
      "ही"
    ],
    [
      "संके",
      "त</w>"
    ],
    [
      "ं",
      "सी</w>"
    ],
    [
      "6",
      "0</w>"
    ],
    [
      "च",
      "ने</w>"
    ],
    [
      "1",
      ","
    ],
    [
      "फैस",
      "ला</w>"
    ],
    [
      "ह",
      "ार"
    ],
    [
      "सी",
      "मित</w>"
    ],
    [
      "क",
      "हीं</w>"
    ],
    [
      "निर्",
      "भर</w>"
    ],
    [
      "1",
      "4"
    ],
    [
      "शु",
      "ल्क</w>"
    ],
    [
      "मस्",
      "ति"
    ],
    [
      "निर्",
      "ण"
    ],
    [
      "नियंत्र",
      "ित</w>"
    ],
    [
      "गो",
      "ल"
    ],
    [
      "ल",
      "ा।</w>"
    ],
    [
      "ु",
      "ओं</w>"
    ],
    [
      "वस्तु",
      "ओं</w>"
    ],
    [
      "इंड",
      "िया</w>"
    ],
    [
      "रह",
      "ा।</w>"
    ],
    [
      "स्",
      "वर्"
    ],
    [
      "पह",
      "ले,</w>"
    ],
    [
      "विज्ञा",
      "न</w>"
    ],
    [
      "क",
      "श्"
    ],
    [
      "कि",
      "न"
    ],
    [
      "ले",
      "ं</w>"
    ],
    [
      "गु",
      "प्त</w>"
    ],
    [
      "ल",
      "कर</w>"
    ],
    [
      "केंद्र",
      "ित</w>"
    ],
    [
      "र",
      "िया"
    ],
    [
      "श",
      "क्ति</w>"
    ],
    [
      "पुरा",
      "ने</w>"
    ],
    [
      "तु",
      "म्"
    ],
    [
      "फ़",
      "</w>"
    ],
    [
      "सा",
      "मान</w>"
    ],
    [
      "न",
      "िया"
    ],
    [
      "विवा",
      "ह</w>"
    ],
    [
      "ख",
      "्"
    ],
    [
      "न",
      "या</w>"
    ],
    [
      "अंग्रे",
      "जी</w>"
    ],
    [
      "मि",
      "ला"
    ],
    [
      "क्य",
      "ों</w>"
    ],
    [
      "अभ",
      "िया"
    ],
    [
      "अला",
      "वा</w>"
    ],
    [
      "अ",
      "र्थ"
    ],
    [
      "क",
      "ल्प"
    ],
    [
      "ज",
      "ला"
    ],
    [
      "फ",
      "्रे"
    ],
    [
      "एस",
      ".</w>"
    ],
    [
      "ई",
      "सा</w>"
    ],
    [
      "उप",
      "करण</w>"
    ],
    [
      "र्",
      "ना"
    ],
    [
      "वि",
      "भाग</w>"
    ],
    [
      "्य",
      "ु"
    ],
    [
      "स",
      "ही</w>"
    ],
    [
      "सम",
      "्रा"
    ],
    [
      "टे",
      "न</w>"
    ],
    [
      "हु",
      "ए,</w>"
    ],
    [
      "संगी",
      "त"
    ],
    [
      "ग",
      "ो</w>"
    ],
    [
      "बच",
      "त</w>"
    ],
    [
      "आ",
      "य</w>"
    ],
    [
      "प्रा",
      "कृतिक</w>"
    ],
    [
      "खु",
      "शी</w>"
    ],
    [
      "इस्",
      "ला"
    ],
    [
      "शतर",
      "ंज</w>"
    ],
    [
      "सं",
      "रक्ष"
    ],
    [
      "क",
      "प"
    ],
    [
      "प्रतिनिधि",
      "त्व</w>"
    ],
    [
      "प्रा",
      "थ"
    ],
    [
      "खा",
      "ते</w>"
    ],
    [
      "स्रो",
      "त</w>"
    ],
    [
      "लिख",
      "ित</w>"
    ],
    [
      "शी",
      "ल</w>"
    ],
    [
      "आ",
      "या</w>"
    ],
    [
      "विज",
      "य</w>"
    ],
    [
      "परंप",
      "रा</w>"
    ],
    [
      "मंदि",
      "रों</w>"
    ],
    [
      "सम्",
      "मान</w>"
    ],
    [
      "प्र",
      "स्ता"
    ],
    [
      "घा",
      "टी</w>"
    ],
    [
      "ट",
      "ो</w>"
    ],
    [
      "निय",
      "मों</w>"
    ],
    [
      "आयो",
      "वा</w>"
    ],
    [
      "मि",
      "ली</w>"
    ],
    [
      "स्",
      "ना"
    ],
    [
      "ह्",
      "म"
    ],
    [
      "ए",
      "यर"
    ],
    [
      "अस्प",
      "ताल</w>"
    ],
    [
      "पत्",
      "थ"
    ],
    [
      "उद",
      "्यान</w>"
    ],
    [
      "तूफा",
      "न</w>"
    ],
    [
      ".पी",
      ".</w>"
    ],
    [
      "प्र",
      "योग</w>"
    ],
    [
      "ज",
      "ॉर्"
    ],
    [
      "ओ",
      "डि"
    ],
    [
      "च",
      "ढ़"
    ],
    [
      "मौ",
      "त</w>"
    ],
    [
      "गई",
      "ं।</w>"
    ],
    [
      "पहा",
      "ड़ी</w>"
    ],
    [
      "व",
      "स्त"
    ],
    [
      "लै",
      "ंड"
    ],
    [
      "आ",
      "ते</w>"
    ],
    [
      "वि",
      "कि"
    ],
    [
      "सा",
      "ई</w>"
    ],
    [
      "रह",
      "ती</w>"
    ],
    [
      "ता",
      "ब</w>"
    ],
    [
      "प्रका",
      "शित</w>"
    ],
    [
      "पू",
      "छ"
    ],
    [
      "चैंप",
      "ियनशिप</w>"
    ],
    [
      "मी",
      "डिया</w>"
    ],
    [
      "ंग",
      ",</w>"
    ],
    [
      "सक",
      "े।</w>"
    ],
    [
      "सदस्",
      "यों</w>"
    ],
    [
      "लंब",
      "ी</w>"
    ],
    [
      "मुंब",
      "ई</w>"
    ],
    [
      "रोक",
      "ने</w>"
    ],
    [
      "प्र",
      "मा"
    ],
    [
      "वार्ष",
      "िक</w>"
    ],
    [
      "यूरो",
      "प</w>"
    ],
    [
      "ट",
      "र"
    ],
    [
      "से",
      "न</w>"
    ],
    [
      "ए",
      "ड"
    ],
    [
      "स्वय",
      "ं</w>"
    ],
    [
      "ई",
      "स्वी</w>"
    ],
    [
      "क्",
      "शन</w>"
    ],
    [
      "सा",
      "स</w>"
    ],
    [
      "द",
      "बा"
    ],
    [
      "न्यू",
      "यॉर्क</w>"
    ],
    [
      "वस्त",
      "ु</w>"
    ],
    [
      "समस्",
      "या</w>"
    ],
    [
      "रा",
      "व</w>"
    ],
    [
      "प",
      "वि"
    ],
    [
      "प",
      "्या"
    ],
    [
      "मंड",
      "ल</w>"
    ],
    [
      "दिव",
      "स</w>"
    ],
    [
      "स्",
      "क</w>"
    ],
    [
      "न",
      "त</w>"
    ],
    [
      "ल",
      "ी।</w>"
    ],
    [
      "परि",
      "ष"
    ],
    [
      "200",
      "1</w>"
    ],
    [
      "गु",
      "फा"
    ],
    [
      "शा",
      "ली</w>"
    ],
    [
      "प्र",
      "शिक्ष"
    ],
    [
      "क्य",
      "ू"
    ],
    [
      "समा",
      "चार</w>"
    ],
    [
      "ना",
      "त्मक</w>"
    ],
    [
      "गु",
      "स्"
    ],
    [
      "यु",
      "ग</w>"
    ],
    [
      "िय",
      "म</w>"
    ],
    [
      "न्य",
      "ू</w>"
    ],
    [
      "द",
      "मी</w>"
    ],
    [
      "संभा",
      "वित</w>"
    ],
    [
      "स्था",
      "यी</w>"
    ],
    [
      "ड़",
      "े</w>"
    ],
    [
      "पा",
      "ई</w>"
    ],
    [
      "ज्ञा",
      "त</w>"
    ],
    [
      "कर",
      "ी"
    ],
    [
      "बन",
      "ने</w>"
    ],
    [
      "प्रेर",
      "ित</w>"
    ],
    [
      "या",
      "द</w>"
    ],
    [
      "शो",
      "थ</w>"
    ],
    [
      "बा",
      "ई</w>"
    ],
    [
      "रा",
      "न</w>"
    ],
    [
      "वि",
      "स्ता"
    ],
    [
      "म",
      "ारे</w>"
    ],
    [
      "वि",
      "धि</w>"
    ],
    [
      "200",
      "5</w>"
    ],
    [
      "पहु",
      "ँच</w>"
    ],
    [
      "अधि",
      "कारी</w>"
    ],
    [
      "न",
      "क"
    ],
    [
      "ब",
      "ों</w>"
    ],
    [
      "न",
      "दियों</w>"
    ],
    [
      "नि",
      "जी</w>"
    ],
    [
      "हम",
      "ारे</w>"
    ],
    [
      "क्",
      "टर</w>"
    ],
    [
      "वर्ण",
      "न</w>"
    ],
    [
      "जी",
      "वित</w>"
    ],
    [
      "मु",
      "श्"
    ],
    [
      "बा",
      "ल</w>"
    ],
    [
      "सि",
      "ने"
    ],
    [
      "ड्",
      "स</w>"
    ],
    [
      "क",
      "ठि"
    ],
    [
      "न",
      "क</w>"
    ],
    [
      "शि",
      "का"
    ],
    [
      "विक",
      "ल्प</w>"
    ],
    [
      "सी",
      ".</w>"
    ],
    [
      "वै",
      "ज्ञा"
    ],
    [
      "ध",
      "ू"
    ],
    [
      "विस्ता",
      "र</w>"
    ],
    [
      "पु",
      "न"
    ],
    [
      "पह",
      "न"
    ],
    [
      ".वी",
      ".</w>"
    ],
    [
      "ते",
      "जी</w>"
    ],
    [
      "प्र",
      "शं"
    ],
    [
      "वि",
      "शा"
    ],
    [
      "प्र",
      "धा"
    ],
    [
      "टेलीवि",
      "जन</w>"
    ],
    [
      "विद्रो",
      "ह</w>"
    ],
    [
      "ह",
      "त्या</w>"
    ],
    [
      "ट",
      "ॉ"
    ],
    [
      "सा",
      "त"
    ],
    [
      "लाग",
      "ू</w>"
    ],
    [
      "त",
      "ें</w>"
    ],
    [
      "ज़",
      "्यादा</w>"
    ],
    [
      "परिणा",
      "म</w>"
    ],
    [
      "मिल",
      "ता</w>"
    ],
    [
      "मि",
      "श्र"
    ],
    [
      "मिल",
      "ने</w>"
    ],
    [
      "उन",
      "से</w>"
    ],
    [
      "श्",
      "व"
    ],
    [
      "स्",
      "य</w>"
    ],
    [
      "य",
      "ौ"
    ],
    [
      "यु",
      "वा</w>"
    ],
    [
      "र",
      "क्त"
    ],
    [
      "ब",
      "ह</w>"
    ],
    [
      "वि",
      "तर"
    ],
    [
      "कै",
      "लि"
    ],
    [
      "स",
      "ल</w>"
    ],
    [
      "द",
      "्य"
    ],
    [
      "जा",
      "न</w>"
    ],
    [
      "वाय",
      "ु</w>"
    ],
    [
      "सम्रा",
      "ट</w>"
    ],
    [
      "श",
      "क्"
    ],
    [
      "ल्",
      "ल"
    ],
    [
      "2",
      "6</w>"
    ],
    [
      "फ",
      "ॉ"
    ],
    [
      "सै",
      "निकों</w>"
    ],
    [
      "व्या",
      "व"
    ],
    [
      "प्र",
      "शिक्षण</w>"
    ],
    [
      "खे",
      "लने</w>"
    ],
    [
      "व",
      "रों</w>"
    ],
    [
      "ग",
      "ौ"
    ],
    [
      "ि",
      "श</w>"
    ],
    [
      "जा",
      "ँच</w>"
    ],
    [
      "क्ष",
      "म</w>"
    ],
    [
      "बि",
      "क्र"
    ],
    [
      "ल",
      ")</w>"
    ],
    [
      "शास",
      "क</w>"
    ],
    [
      "आ",
      "देश</w>"
    ],
    [
      "प्रती",
      "क</w>"
    ],
    [
      "तु",
      "म</w>"
    ],
    [
      "ब",
      "्रे"
    ],
    [
      "न",
      "ॉर्"
    ],
    [
      "ला",
      "व</w>"
    ],
    [
      "हि",
      "मा"
    ],
    [
      "प्र",
      "ि"
    ],
    [
      "दक्षि",
      "ण-"
    ],
    [
      "गा",
      ",</w>"
    ],
    [
      "स्ट",
      "ॉ"
    ],
    [
      "बज",
      "ट</w>"
    ],
    [
      "पवि",
      "त्र</w>"
    ],
    [
      "आ",
      "ठ</w>"
    ],
    [
      "ऑस्ट्रे",
      "ल"
    ],
    [
      "ा",
      "त्मक</w>"
    ],
    [
      "अभ",
      "्या"
    ],
    [
      "वेब",
      "साइट</w>"
    ],
    [
      "कब्",
      "जा</w>"
    ],
    [
      "शो",
      "क</w>"
    ],
    [
      "प्रति",
      "क्रिया</w>"
    ],
    [
      "ग",
      "ू"
    ],
    [
      "व्यव",
      "हार</w>"
    ],
    [
      "छ",
      "ि"
    ],
    [
      "वृत्",
      "ति</w>"
    ],
    [
      "2",
      "7</w>"
    ],
    [
      "हा",
      "र्"
    ],
    [
      "वा",
      "स्तु"
    ],
    [
      "नेट",
      "वर्"
    ],
    [
      "ृ",
      "ह"
    ],
    [
      "चो",
      "ट</w>"
    ],
    [
      "च",
      "ट्टा"
    ],
    [
      "इला",
      "का</w>"
    ],
    [
      "शास",
      "न"
    ],
    [
      "वु",
      "ड</w>"
    ],
    [
      "रा",
      "जा"
    ],
    [
      "मा",
      "ँ</w>"
    ],
    [
      "मिल",
      "ती</w>"
    ],
    [
      "स",
      "िय"
    ],
    [
      "पड़",
      "ता</w>"
    ],
    [
      "संस्",
      "कृति</w>"
    ],
    [
      "बै",
      "ंड</w>"
    ],
    [
      "वा",
      "लों</w>"
    ],
    [
      ".डी",
      ".</w>"
    ],
    [
      "म",
      "छ"
    ],
    [
      "अ",
      "ली</w>"
    ],
    [
      "की",
      "मत</w>"
    ],
    [
      "2",
      "8</w>"
    ],
    [
      "तीस",
      "रे</w>"
    ],
    [
      "कर",
      ",</w>"
    ],
    [
      "प्रभा",
      "वी</w>"
    ],
    [
      "रा",
      "इ"
    ],
    [
      "अर",
      "ब</w>"
    ],
    [
      "श्",
      "वर</w>"
    ],
    [
      "200",
      "4</w>"
    ],
    [
      "र्",
      "ग</w>"
    ],
    [
      "आ",
      "ती</w>"
    ],
    [
      "औ",
      "प"
    ],
    [
      "इ",
      "तनी</w>"
    ],
    [
      "बे",
      "टी</w>"
    ],
    [
      "स्था",
      "ना"
    ],
    [
      "मरा",
      "ठा</w>"
    ],
    [
      "एक",
      "-"
    ],
    [
      "स",
      "हम"
    ],
    [
      "शास्",
      "त्रीय</w>"
    ],
    [
      "विद्या",
      "ल"
    ],
    [
      "निर्ण",
      "य</w>"
    ],
    [
      "नेश",
      "नल</w>"
    ],
    [
      "कॉले",
      "ज</w>"
    ],
    [
      "देख",
      "भा"
    ],
    [
      "स्",
      "को"
    ],
    [
      "ष",
      "क</w>"
    ],
    [
      "र",
      "वि"
    ],
    [
      "प्रबंध",
      "न</w>"
    ],
    [
      "ल्",
      "ड"
    ],
    [
      "पु",
      "ष्टि</w>"
    ],
    [
      "स्वर्",
      "ण</w>"
    ],
    [
      "अच्छ",
      "े</w>"
    ],
    [
      "प्रधा",
      "न"
    ],
    [
      "ह",
      "थ"
    ],
    [
      "स",
      "मि"
    ],
    [
      "मि",
      "ला</w>"
    ],
    [
      "क",
      "था</w>"
    ],
    [
      "स्",
      "वि"
    ],
    [
      "ख",
      "ंड"
    ],
    [
      "सं",
      "भव</w>"
    ],
    [
      "दा",
      "वा</w>"
    ],
    [
      "आम",
      "तौर</w>"
    ],
    [
      "वर्ष",
      "ा</w>"
    ],
    [
      "माइ",
      "क्रो"
    ],
    [
      "बर्",
      "ग</w>"
    ],
    [
      "स्व",
      "तंत्र</w>"
    ],
    [
      "उत्",
      "पन्न</w>"
    ],
    [
      "डिय",
      "म</w>"
    ],
    [
      "सक्र",
      "िय</w>"
    ],
    [
      "प्र",
      "सार"
    ],
    [
      "अ",
      "ंड"
    ],
    [
      "यू",
      "ना"
    ],
    [
      "सम्",
      "मानित</w>"
    ],
    [
      "पृ",
      "थ"
    ],
    [
      "न",
      "ारा"
    ],
    [
      "उत्तर",
      "-"
    ],
    [
      "च",
      "र</w>"
    ],
    [
      "मान",
      "ना</w>"
    ],
    [
      "ख",
      "़"
    ],
    [
      "सर",
      "कारी</w>"
    ],
    [
      "ज़",
      "ी</w>"
    ],
    [
      "त",
      "ा।</w>"
    ],
    [
      "ज",
      "्यादातर</w>"
    ],
    [
      "रो",
      "ग"
    ],
    [
      "आप",
      "ने</w>"
    ],
    [
      "ब",
      "्या"
    ],
    [
      "स्थ",
      "</w>"
    ],
    [
      "चु",
      "ना</w>"
    ],
    [
      "सु",
      "न"
    ],
    [
      "म",
      "े</w>"
    ],
    [
      "सू",
      "ची"
    ],
    [
      "कि",
      "तना</w>"
    ],
    [
      "वि",
      "टा"
    ],
    [
      "निर्देश",
      "क</w>"
    ],
    [
      "परे",
      "शा"
    ],
    [
      "मु",
      "स्"
    ],
    [
      "2",
      "9</w>"
    ],
    [
      "गु",
      "ण"
    ],
    [
      "प",
      ",</w>"
    ],
    [
      "र",
      "लैंड</w>"
    ],
    [
      "ट",
      "्यू"
    ],
    [
      "मि",
      "ट्टी</w>"
    ],
    [
      ".बी",
      ".</w>"
    ],
    [
      "मु",
      "द्"
    ],
    [
      "अ",
      "त्य"
    ],
    [
      "आ",
      "उ"
    ],
    [
      "श",
      "ारी"
    ],
    [
      "घ",
      "रों</w>"
    ],
    [
      "सि",
      "न</w>"
    ],
    [
      "स्ट",
      "ि"
    ],
    [
      "अ",
      "ना"
    ],
    [
      "भ",
      "्र"
    ],
    [
      "निर्देश",
      "ित</w>"
    ],
    [
      "इन",
      "ल</w>"
    ],
    [
      ".",
      "के"
    ],
    [
      "शासन",
      "काल</w>"
    ],
    [
      "लक्ष",
      "्य</w>"
    ],
    [
      "जॉ",
      "न</w>"
    ],
    [
      "सक",
      "ों</w>"
    ],
    [
      "अ",
      "क"
    ],
    [
      "ड़",
      "ा</w>"
    ],
    [
      "सु",
      "रक्षित</w>"
    ],
    [
      "बो",
      "ली</w>"
    ],
    [
      "का",
      ",</w>"
    ],
    [
      "जन",
      "संख्या</w>"
    ],
    [
      "विश्",
      "वास</w>"
    ],
    [
      "कह",
      "ना</w>"
    ],
    [
      "20",
      "0</w>"
    ],
    [
      "छो",
      "ड़"
    ],
    [
      "नही",
      "ं।</w>"
    ],
    [
      "199",
      "0</w>"
    ],
    [
      "ंद",
      "ा</w>"
    ],
    [
      "मा",
      "नों</w>"
    ],
    [
      "म",
      "-"
    ],
    [
      "भ",
      "विष"
    ],
    [
      "शे",
      "ष</w>"
    ],
    [
      "ध",
      "ों</w>"
    ],
    [
      "करो",
      "ड़</w>"
    ],
    [
      "​",
      "​"
    ],
    [
      "स",
      "क्षम</w>"
    ],
    [
      "अनु",
      "मान</w>"
    ],
    [
      "ष्",
      "ठा"
    ],
    [
      "ति",
      "त</w>"
    ],
    [
      "दृश",
      "्य</w>"
    ],
    [
      "अंत",
      "र्"
    ],
    [
      "देखभा",
      "ल</w>"
    ],
    [
      "जीत",
      "ने</w>"
    ],
    [
      "फ",
      "ार"
    ],
    [
      "शा",
      "सित</w>"
    ],
    [
      "जल्",
      "द</w>"
    ],
    [
      "गा",
      "ने</w>"
    ],
    [
      "वास्त",
      "विक</w>"
    ],
    [
      "त",
      "्या"
    ],
    [
      "कृष्",
      "ण</w>"
    ],
    [
      "वि",
      "जे"
    ],
    [
      "जन",
      "क</w>"
    ],
    [
      "रो",
      "धी</w>"
    ],
    [
      "इला",
      "ज</w>"
    ],
    [
      "परिव",
      "हन</w>"
    ],
    [
      "ट",
      "वेयर</w>"
    ],
    [
      "धार",
      "ण</w>"
    ],
    [
      "198",
      "0</w>"
    ],
    [
      "दे",
      "ना</w>"
    ],
    [
      "ह",
      "े</w>"
    ],
    [
      "ख",
      "ी</w>"
    ],
    [
      "आ",
      "सान</w>"
    ],
    [
      "मस्ति",
      "ष्क</w>"
    ],
    [
      "बिक्र",
      "ी</w>"
    ],
    [
      "ट",
      "्रा"
    ],
    [
      "आ",
      "घात</w>"
    ],
    [
      "फ्",
      "लो"
    ],
    [
      "झ",
      "ा</w>"
    ],
    [
      "पर्या",
      "प्त</w>"
    ],
    [
      "ंग",
      "े"
    ],
    [
      "ंद",
      "ो"
    ],
    [
      "ज",
      "ने</w>"
    ],
    [
      "नि",
      "म्"
    ],
    [
      "ज",
      ",</w>"
    ],
    [
      "जो",
      "र</w>"
    ],
    [
      "आ",
      "ए</w>"
    ],
    [
      "पु",
      "री</w>"
    ],
    [
      "साम",
      "ग्री</w>"
    ],
    [
      "सी",
      "सी</w>"
    ],
    [
      "संबंध",
      "ी</w>"
    ],
    [
      "त",
      "ल"
    ],
    [
      "शारी",
      "रिक</w>"
    ],
    [
      "फ्रा",
      "ंस</w>"
    ],
    [
      "जन",
      "जा"
    ],
    [
      "न",
      "द"
    ],
    [
      "ल",
      "ती</w>"
    ],
    [
      "प्र",
      "ी"
    ],
    [
      "त",
      "ल</w>"
    ],
    [
      "ष्",
      "म"
    ],
    [
      "सा",
      "गर</w>"
    ],
    [
      "शुरुआ",
      "ती</w>"
    ],
    [
      "दौ",
      "रा</w>"
    ],
    [
      "योग",
      "्य</w>"
    ],
    [
      "परंप",
      "रा"
    ],
    [
      "कर",
      "णों</w>"
    ],
    [
      "त",
      "कालीन</w>"
    ],
    [
      "स्",
      "कॉ"
    ],
    [
      "घोष",
      "ित</w>"
    ],
    [
      "ग्रा",
      "मी"
    ],
    [
      "महा",
      "न</w>"
    ],
    [
      "ह",
      "ण</w>"
    ],
    [
      "क",
      "वि"
    ],
    [
      "क्षे",
      "त्र"
    ],
    [
      "सि",
      "र</w>"
    ],
    [
      "नाइ",
      "टेड</w>"
    ],
    [
      "टी",
      "मों</w>"
    ],
    [
      "वर्",
      "गी"
    ],
    [
      "मॉ",
      "डल</w>"
    ],
    [
      "अ",
      "दा"
    ],
    [
      "मुश्",
      "किल</w>"
    ],
    [
      "रुप",
      "ये</w>"
    ],
    [
      "बा",
      "ढ़</w>"
    ],
    [
      "दिखा",
      "या</w>"
    ],
    [
      "दौ",
      "ड़</w>"
    ],
    [
      "द",
      "वाओं</w>"
    ],
    [
      "फा",
      "इ"
    ],
    [
      "क्",
      "ला"
    ],
    [
      "शह",
      "री</w>"
    ],
    [
      "सु",
      "ल्"
    ],
    [
      "कह",
      "ते</w>"
    ],
    [
      "च",
      "ारी</w>"
    ],
    [
      "अप",
      "रा"
    ],
    [
      "म",
      "र्"
    ],
    [
      "गति",
      "विध"
    ],
    [
      "तरी",
      "का</w>"
    ],
    [
      "से",
      "ल्"
    ],
    [
      "सि",
      "स्ट"
    ],
    [
      "व",
      "स्"
    ],
    [
      "8",
      "0</w>"
    ],
    [
      "थ",
      "ि</w>"
    ],
    [
      "बॉ",
      "क्स</w>"
    ],
    [
      "ह",
      "ृ"
    ],
    [
      "पे",
      "श</w>"
    ],
    [
      "सं",
      "भव"
    ],
    [
      "जि",
      "म्मे"
    ],
    [
      "इ",
      "मार"
    ],
    [
      "प्रतिस्पर्",
      "धा</w>"
    ],
    [
      "वा",
      "यर"
    ],
    [
      "डी",
      ".</w>"
    ],
    [
      "विटा",
      "मिन</w>"
    ],
    [
      "मा",
      "ं"
    ],
    [
      "स्थाना",
      "ंतर"
    ],
    [
      "ज़",
      "ा"
    ],
    [
      "सं",
      "पत्ति</w>"
    ],
    [
      "अम",
      "री"
    ],
    [
      "कर",
      "ियर</w>"
    ],
    [
      "टे",
      "स्ट</w>"
    ],
    [
      "खा",
      "द्य</w>"
    ],
    [
      "पूर्",
      "ति</w>"
    ],
    [
      "खरीद",
      "ने</w>"
    ],
    [
      "हा",
      "सन</w>"
    ],
    [
      "सू",
      "चना</w>"
    ],
    [
      "प्रधान",
      "मंत्री</w>"
    ],
    [
      "टू",
      "र्ना"
    ],
    [
      "ह",
      "द</w>"
    ],
    [
      "कि",
      "रा"
    ],
    [
      "बल्",
      "कि</w>"
    ],
    [
      "कार",
      ",</w>"
    ],
    [
      "नि",
      "रा"
    ],
    [
      "पार",
      "ि"
    ],
    [
      "शि",
      "व</w>"
    ],
    [
      "फ",
      "र्"
    ],
    [
      "ती",
      "र्थ"
    ],
    [
      "समर्प",
      "ित</w>"
    ],
    [
      "उल्",
      "लेख"
    ],
    [
      "मा",
      "ता-"
    ],
    [
      "पा",
      "ने</w>"
    ],
    [
      "यू",
      "नाइटेड</w>"
    ],
    [
      "कैलि",
      "फोर्"
    ],
    [
      "य",
      "ार"
    ],
    [
      "मे",
      "ल</w>"
    ],
    [
      "वि",
      "परी"
    ],
    [
      "तु",
      "र्"
    ],
    [
      "कला",
      "कार</w>"
    ],
    [
      "ज़",
      "ा</w>"
    ],
    [
      "फा",
      "इनल</w>"
    ],
    [
      "सि",
      "र्"
    ],
    [
      "ग",
      "ंगा</w>"
    ],
    [
      "है",
      ";</w>"
    ],
    [
      "ला",
      "ने</w>"
    ],
    [
      "जल्",
      "दी</w>"
    ],
    [
      "उ",
      "ड़ा"
    ],
    [
      "परिष",
      "द</w>"
    ],
    [
      "क्र",
      "मित</w>"
    ],
    [
      "वि",
      "क्रे"
    ],
    [
      "ंग",
      "ी</w>"
    ],
    [
      "आ",
      "ंदो"
    ],
    [
      "च",
      "क्र"
    ],
    [
      "ना",
      "ई</w>"
    ],
    [
      "साहि",
      "त्य</w>"
    ],
    [
      "सं",
      "गठ"
    ],
    [
      "20",
      "22</w>"
    ],
    [
      "ज",
      "रू"
    ],
    [
      "मे",
      "ं"
    ],
    [
      "द",
      "्यो"
    ],
    [
      "इंटर",
      "नेट</w>"
    ],
    [
      "तंत्र",
      "िका</w>"
    ],
    [
      "श",
      "य</w>"
    ],
    [
      "डे",
      "टा</w>"
    ],
    [
      "समू",
      "हों</w>"
    ],
    [
      "जु",
      "ड़े</w>"
    ],
    [
      "क",
      "-"
    ],
    [
      "पा",
      "ंच</w>"
    ],
    [
      "का",
      "म"
    ],
    [
      "नी",
      "ति</w>"
    ],
    [
      "जिन",
      "के</w>"
    ],
    [
      "ग",
      "वर्"
    ],
    [
      "सु",
      "बह</w>"
    ],
    [
      "जो",
      "ड़"
    ],
    [
      "संदर्",
      "भ"
    ],
    [
      ".टी",
      ".</w>"
    ],
    [
      "ए",
      "ंड"
    ],
    [
      "आ",
      "दि</w>"
    ],
    [
      "र्",
      "जा</w>"
    ],
    [
      "प",
      "ड़ा</w>"
    ],
    [
      "प्या",
      "र</w>"
    ],
    [
      "क",
      "ियों</w>"
    ],
    [
      "म",
      "ियों</w>"
    ],
    [
      "कार",
      "क</w>"
    ],
    [
      "राज",
      "स्थान</w>"
    ],
    [
      "नि",
      "दान</w>"
    ],
    [
      "स्टो",
      "र</w>"
    ],
    [
      "का",
      "लिक</w>"
    ],
    [
      "परियोज",
      "ना</w>"
    ],
    [
      "आ",
      "क्रमण</w>"
    ],
    [
      "ध",
      "ियों</w>"
    ],
    [
      "ऊ",
      "ं"
    ],
    [
      "रख",
      "ते</w>"
    ],
    [
      "रख",
      "ा।</w>"
    ],
    [
      "चि",
      "</w>"
    ],
    [
      "बा",
      "जी</w>"
    ],
    [
      "ष",
      "ा"
    ],
    [
      "जवा",
      "ब</w>"
    ],
    [
      "ह",
      "म्म"
    ],
    [
      "सला",
      "ह</w>"
    ],
    [
      "व्याव",
      "सा"
    ],
    [
      "निर्",
      "दे"
    ],
    [
      "आरो",
      "प</w>"
    ],
    [
      "द्",
      "दा"
    ],
    [
      "रे",
      "खा</w>"
    ],
    [
      "अभ्या",
      "स</w>"
    ],
    [
      "चो",
      "ल</w>"
    ],
    [
      "ब्या",
      "ज</w>"
    ],
    [
      "वि",
      "स्त"
    ],
    [
      "197",
      "0</w>"
    ],
    [
      "अक",
      "बर</w>"
    ],
    [
      "हो",
      "गा</w>"
    ],
    [
      "द्व",
      "ं"
    ],
    [
      "सां",
      "स्"
    ],
    [
      "दो",
      "स्त</w>"
    ],
    [
      "क",
      "ट"
    ],
    [
      "रो",
      "क</w>"
    ],
    [
      "टे",
      "क्"
    ],
    [
      "पीड़",
      "ित</w>"
    ],
    [
      "गल",
      "त</w>"
    ],
    [
      "ह",
      "स्ता"
    ],
    [
      "ध",
      "ु"
    ],
    [
      "त",
      "य</w>"
    ],
    [
      "ओ",
      "</w>"
    ],
    [
      "बा",
      "जार</w>"
    ],
    [
      "आकर्",
      "षित</w>"
    ],
    [
      "म",
      "न"
    ],
    [
      "स्थि",
      "तियों</w>"
    ],
    [
      "पत्थ",
      "र</w>"
    ],
    [
      "म",
      "नु"
    ],
    [
      "खे",
      "ं।</w>"
    ],
    [
      "अ",
      "शोक</w>"
    ],
    [
      "चै",
      "म्प"
    ],
    [
      "स",
      "ीय</w>"
    ],
    [
      "ब",
      "ारी</w>"
    ],
    [
      "जिन",
      "का</w>"
    ],
    [
      "सा",
      "थी</w>"
    ],
    [
      "मा",
      "ँ"
    ],
    [
      "कर्",
      "ताओं</w>"
    ],
    [
      "क",
      "था"
    ],
    [
      "लिख",
      "े</w>"
    ],
    [
      "कश्",
      "मीर</w>"
    ],
    [
      "न",
      "ष्ट</w>"
    ],
    [
      "ना",
      "क</w>"
    ],
    [
      "सि",
      "टी</w>"
    ],
    [
      "200",
      "3</w>"
    ],
    [
      "मनो",
      "रं"
    ],
    [
      "बह",
      "ती</w>"
    ],
    [
      "ए",
      ".</w>"
    ],
    [
      "वि",
      "ंडो"
    ],
    [
      "दृ",
      "ष्टि"
    ],
    [
      "वि",
      "वरण</w>"
    ],
    [
      "नाग",
      "रिक</w>"
    ],
    [
      "विशा",
      "ल</w>"
    ],
    [
      "माता-",
      "पिता</w>"
    ],
    [
      "सी",
      "धे</w>"
    ],
    [
      "बंध",
      "न</w>"
    ],
    [
      "5",
      "00</w>"
    ],
    [
      "सै",
      "न</w>"
    ],
    [
      "कैलिफोर्",
      "निया</w>"
    ],
    [
      "तु",
      "ल"
    ],
    [
      "किन",
      "ारे</w>"
    ],
    [
      ".",
      "जी"
    ],
    [
      "निर्",
      "वा"
    ],
    [
      "पा",
      "ल"
    ],
    [
      "भाषा",
      "ओं</w>"
    ],
    [
      "एल्",
      "बम</w>"
    ],
    [
      "कप",
      "ड़े</w>"
    ],
    [
      "शी",
      "र्"
    ],
    [
      "अं",
      "तर</w>"
    ],
    [
      "सांस्",
      "कृतिक</w>"
    ],
    [
      "ध्",
      "व"
    ],
    [
      "दि",
      "ख"
    ],
    [
      "व",
      "य"
    ],
    [
      "प्राथ",
      "मिक</w>"
    ],
    [
      "ग",
      ",</w>"
    ],
    [
      "जी",
      "वा"
    ],
    [
      "स्",
      "को</w>"
    ],
    [
      "अभिया",
      "न</w>"
    ],
    [
      "त्र",
      "ियों</w>"
    ],
    [
      "पृथ",
      "्"
    ],
    [
      "ऑ",
      "फि"
    ],
    [
      "ंड",
      "े"
    ],
    [
      "द",
      "ै"
    ],
    [
      "च",
      "म"
    ],
    [
      "क्र",
      "मों</w>"
    ],
    [
      "चार",
      "िक</w>"
    ],
    [
      "से",
      "ंट</w>"
    ],
    [
      "सर्",
      "वो"
    ],
    [
      "हम्म",
      "द</w>"
    ],
    [
      "शिला",
      "लेख</w>"
    ],
    [
      "चा",
      "र्"
    ],
    [
      "मान",
      "्यता</w>"
    ],
    [
      "मजबू",
      "त</w>"
    ],
    [
      "ऊ",
      "</w>"
    ],
    [
      "पहु",
      "ं"
    ],
    [
      "छू",
      "ट</w>"
    ],
    [
      "इन्",
      "हें</w>"
    ],
    [
      "बा",
      "इ"
    ],
    [
      "क्",
      "ट</w>"
    ],
    [
      "लक्ष",
      "णों</w>"
    ],
    [
      "ला",
      "गत</w>"
    ],
    [
      "ण",
      "्"
    ],
    [
      "यो",
      "जन</w>"
    ],
    [
      "नौ",
      "करी</w>"
    ],
    [
      "अप",
      "े"
    ],
    [
      "ण",
      "िक</w>"
    ],
    [
      "खु",
      "श</w>"
    ],
    [
      "शो",
      "ध</w>"
    ],
    [
      "मुसल",
      "मान</w>"
    ],
    [
      "श",
      "ल"
    ],
    [
      "ढ",
      "ा"
    ],
    [
      "रा",
      "स्"
    ],
    [
      "सा",
      "उ"
    ],
    [
      "क",
      "टि"
    ],
    [
      "थ",
      "ै"
    ],
    [
      "बै",
      "ंडी</w>"
    ],
    [
      "सफ",
      "लता</w>"
    ],
    [
      "सि",
      "द्धा"
    ],
    [
      "उल्लेख",
      "नीय</w>"
    ],
    [
      "अव",
      "सर</w>"
    ],
    [
      "ते",
      "ज</w>"
    ],
    [
      "आ",
      "दि"
    ],
    [
      "मह",
      "ल</w>"
    ],
    [
      "विष्",
      "णु</w>"
    ],
    [
      "योग",
      "दान</w>"
    ],
    [
      "स्टे",
      "डियम</w>"
    ],
    [
      "खरी",
      "द</w>"
    ],
    [
      "च",
      "ली</w>"
    ],
    [
      "देख",
      "कर</w>"
    ],
    [
      "पू",
      "र</w>"
    ],
    [
      "जा",
      "ंच</w>"
    ],
    [
      "मी",
      "ल</w>"
    ],
    [
      "रिली",
      "ज़</w>"
    ],
    [
      "का",
      "श</w>"
    ],
    [
      "बे",
      "ल्"
    ],
    [
      "प्रदर्",
      "श"
    ],
    [
      "न",
      "म</w>"
    ],
    [
      "च",
      "ंद्र"
    ],
    [
      "ई",
      "साई</w>"
    ],
    [
      "सं",
      "क्रमित</w>"
    ],
    [
      "ज़",
      "े"
    ],
    [
      "ग्रामी",
      "ण</w>"
    ],
    [
      "200",
      "2</w>"
    ],
    [
      "अत्य",
      "धिक</w>"
    ],
    [
      "संग्र",
      "ह</w>"
    ],
    [
      "सम",
      "ृ"
    ],
    [
      "ब्रि",
      "टेन</w>"
    ],
    [
      "मु",
      "क्त</w>"
    ],
    [
      "स",
      "्रा"
    ],
    [
      "त्",
      "त</w>"
    ],
    [
      "क्ष",
      "र</w>"
    ],
    [
      "बा",
      "ंग्"
    ],
    [
      "प्रका",
      "श</w>"
    ],
    [
      "199",
      "9</w>"
    ],
    [
      "चु",
      "का</w>"
    ],
    [
      "एक",
      "ल</w>"
    ],
    [
      "व्यावसा",
      "यिक</w>"
    ],
    [
      "सु",
      "विधा"
    ],
    [
      "बार",
      "िश</w>"
    ],
    [
      "नेटवर्",
      "क</w>"
    ],
    [
      "तीस",
      "री</w>"
    ],
    [
      "अभिने",
      "त्री</w>"
    ],
    [
      "द",
      "ित</w>"
    ],
    [
      "टी",
      ",</w>"
    ],
    [
      "वा",
      "हन</w>"
    ],
    [
      "अड्",
      "डे</w>"
    ],
    [
      "अंत",
      "तः</w>"
    ],
    [
      "ता",
      "एँ</w>"
    ],
    [
      "मजबू",
      "र</w>"
    ],
    [
      "समस्या",
      "ओं</w>"
    ],
    [
      "बन",
      "े।</w>"
    ],
    [
      "निर्मा",
      "ता</w>"
    ],
    [
      "श",
      "ौ"
    ],
    [
      "पुरा",
      "नी</w>"
    ],
    [
      "रि",
      "स</w>"
    ],
    [
      "कि",
      "म</w>"
    ],
    [
      "गु",
      "फा</w>"
    ],
    [
      "घ",
      "ि"
    ],
    [
      "पो",
      "लो</w>"
    ],
    [
      "च",
      "यन</w>"
    ],
    [
      "अ",
      "म्"
    ],
    [
      "व",
      "्य</w>"
    ],
    [
      "ो",
      "र</w>"
    ],
    [
      "क्षे",
      "त्रीय</w>"
    ],
    [
      "वर्",
      "ती</w>"
    ],
    [
      "ज",
      "टि"
    ],
    [
      "ो",
      "ं,</w>"
    ],
    [
      "9",
      "0</w>"
    ],
    [
      "जि",
      "ला</w>"
    ],
    [
      "प्रा",
      "र्थ"
    ],
    [
      "उत्पा",
      "दों</w>"
    ],
    [
      "मं",
      "च</w>"
    ],
    [
      "मी",
      "न</w>"
    ],
    [
      "जे",
      "ल</w>"
    ],
    [
      "यौ",
      "न</w>"
    ],
    [
      "गां",
      "धी</w>"
    ],
    [
      "7",
      "0</w>"
    ],
    [
      "ऑस्ट्रेल",
      "ियाई</w>"
    ],
    [
      ".",
      "5</w>"
    ],
    [
      "फ्रां",
      "सीसी</w>"
    ],
    [
      "रा",
      "ग</w>"
    ],
    [
      "ने",
      "ता</w>"
    ],
    [
      "इ",
      "यों</w>"
    ],
    [
      "ंड",
      "ा"
    ],
    [
      "प",
      "ड़</w>"
    ],
    [
      "सं",
      "त</w>"
    ],
    [
      "ंग",
      "ों</w>"
    ],
    [
      "अ",
      "फ"
    ],
    [
      "य",
      "त</w>"
    ],
    [
      "निर्दे",
      "शन</w>"
    ],
    [
      "जर्",
      "मन</w>"
    ],
    [
      "फ़",
      "ा"
    ],
    [
      "स्",
      "मार"
    ],
    [
      "इ",
      "लि"
    ],
    [
      "संघ",
      "र्ष</w>"
    ],
    [
      "गिर",
      "फ्"
    ],
    [
      "प्र",
      "शासन</w>"
    ],
    [
      "पूर्व",
      "क</w>"
    ],
    [
      "म",
      "ल</w>"
    ],
    [
      "बर्",
      "फ</w>"
    ],
    [
      "ियो",
      "ं,</w>"
    ],
    [
      "वा",
      "ल</w>"
    ],
    [
      "ह",
      "में</w>"
    ],
    [
      "ड",
      ",</w>"
    ],
    [
      "सूची",
      "बद्ध</w>"
    ],
    [
      "पृ",
      "ष्ठ"
    ],
    [
      "कंप",
      "नियों</w>"
    ],
    [
      "केंद्र",
      "ीय</w>"
    ],
    [
      "समु",
      "द्र"
    ],
    [
      "श",
      "राब</w>"
    ],
    [
      "रिली",
      "ज</w>"
    ],
    [
      "ऑफि",
      "स</w>"
    ],
    [
      "स",
      "रा"
    ],
    [
      "समि",
      "ति</w>"
    ],
    [
      "मह",
      "त्व</w>"
    ],
    [
      "स्",
      "ती</w>"
    ],
    [
      "फ़",
      "</w>"
    ],
    [
      "ते",
      "लु"
    ],
    [
      "वि",
      "देशी</w>"
    ],
    [
      "ड",
      "्राइ"
    ],
    [
      "बद",
      "लाव</w>"
    ],
    [
      "सो",
      "च"
    ],
    [
      "त",
      "स्वी"
    ],
    [
      "विजे",
      "ता</w>"
    ],
    [
      "दे",
      "ं</w>"
    ],
    [
      "ज",
      "मा</w>"
    ],
    [
      "कि",
      "शो"
    ],
    [
      "गु",
      "रु"
    ],
    [
      "मान",
      "सू"
    ],
    [
      "क",
      "ीय</w>"
    ],
    [
      "सुल्",
      "तान</w>"
    ],
    [
      "व्य",
      "क्त</w>"
    ],
    [
      "मुस्",
      "लि"
    ],
    [
      "कर",
      "ा</w>"
    ],
    [
      "आंदो",
      "लन</w>"
    ],
    [
      "मार",
      "ने</w>"
    ],
    [
      "व",
      "नी</w>"
    ],
    [
      "विष",
      "य</w>"
    ],
    [
      "सक",
      "ें।</w>"
    ],
    [
      "दर्",
      "द</w>"
    ],
    [
      "लो",
      "क</w>"
    ],
    [
      "पार्",
      "क</w>"
    ],
    [
      "संदर्भ",
      "ित</w>"
    ],
    [
      "च",
      "र्च</w>"
    ],
    [
      "कार्य",
      "काल</w>"
    ],
    [
      "चैम्प",
      "ियनशिप</w>"
    ],
    [
      "सी",
      "मा"
    ],
    [
      "टूर्ना",
      "मेंट</w>"
    ],
    [
      "कानू",
      "नी</w>"
    ],
    [
      "त्",
      "तर</w>"
    ],
    [
      "बांग्",
      "ला"
    ],
    [
      "प्रति",
      "द्वं"
    ],
    [
      "ट्र",
      "ो"
    ],
    [
      "कर",
      "नी</w>"
    ],
    [
      "गा",
      "न</w>"
    ],
    [
      "चल",
      "ते</w>"
    ],
    [
      "मु",
      "द्र"
    ],
    [
      "मै",
      "क"
    ],
    [
      "फ़",
      "िल्"
    ],
    [
      "दी",
      ",</w>"
    ],
    [
      "ली",
      "वुड</w>"
    ],
    [
      "ड्",
      "डी</w>"
    ],
    [
      "19",
      "0"
    ],
    [
      "खि",
      "ताब</w>"
    ],
    [
      "ब",
      "हा"
    ],
    [
      "ह",
      "टा"
    ],
    [
      "लेख",
      "क</w>"
    ],
    [
      "करे",
      "ंगे।</w>"
    ],
    [
      "ले",
      "ता</w>"
    ],
    [
      "नि",
      "ग"
    ],
    [
      ".एफ",
      ".</w>"
    ],
    [
      "ग",
      "ु</w>"
    ],
    [
      "ग्री",
      "ष्म"
    ],
    [
      "समझ",
      "</w>"
    ],
    [
      "आ",
      "श्"
    ],
    [
      "स्ट",
      "ी"
    ],
    [
      "प",
      "द्"
    ],
    [
      "स",
      "ब</w>"
    ],
    [
      "प्रस्ता",
      "व</w>"
    ],
    [
      "कर्म",
      "चारी</w>"
    ],
    [
      "वि",
      "स</w>"
    ],
    [
      "कार्य",
      "क्रमों</w>"
    ],
    [
      "ऑर्",
      "डर</w>"
    ],
    [
      "राज",
      "मार्ग</w>"
    ],
    [
      "ज़",
      "र</w>"
    ],
    [
      "ज़ि",
      "ले</w>"
    ],
    [
      "गा",
      "यक</w>"
    ],
    [
      "आ",
      "पूर्ति</w>"
    ],
    [
      "बढ़ा",
      "वा</w>"
    ],
    [
      "न",
      "दार</w>"
    ],
    [
      "स",
      "ल्"
    ],
    [
      "र",
      "गा"
    ],
    [
      "करे",
      "गा।</w>"
    ],
    [
      "बा",
      "की</w>"
    ],
    [
      "त",
      "ट"
    ],
    [
      "सि",
      "स</w>"
    ],
    [
      "ह",
      "स्त"
    ],
    [
      "दर्श",
      "कों</w>"
    ],
    [
      "आ",
      "सा"
    ],
    [
      "सं",
      "स्थान</w>"
    ],
    [
      "ल",
      "द्दा"
    ],
    [
      "दृ",
      "ष्टि</w>"
    ],
    [
      "ज़",
      "्यादा</w>"
    ],
    [
      "कार्",
      "यालय</w>"
    ],
    [
      "अंग्रे",
      "जों</w>"
    ],
    [
      "स",
      "द</w>"
    ],
    [
      "मिल",
      "ा।</w>"
    ],
    [
      "अ",
      "ग्र"
    ],
    [
      "हि",
      "क</w>"
    ],
    [
      "ज",
      "य</w>"
    ],
    [
      "ला",
      "या</w>"
    ],
    [
      "अदा",
      "लत</w>"
    ],
    [
      "टि",
      "न</w>"
    ],
    [
      "द",
      "स्ता"
    ],
    [
      "मि",
      "ले"
    ],
    [
      "हो",
      ",</w>"
    ],
    [
      "ह",
      "वा</w>"
    ],
    [
      "टी",
      "न</w>"
    ],
    [
      "मनु",
      "ष"
    ],
    [
      "से",
      "ना"
    ],
    [
      "शक्",
      "ति"
    ],
    [
      "पड़",
      "ो"
    ],
    [
      "पड़",
      "ा।</w>"
    ],
    [
      "कि",
      "स</w>"
    ],
    [
      "संरक्ष",
      "ण</w>"
    ],
    [
      "गु",
      "रु</w>"
    ],
    [
      "199",
      "8</w>"
    ],
    [
      "क्र",
      "ॉ"
    ],
    [
      "य",
      "हां</w>"
    ],
    [
      "कद",
      "म</w>"
    ],
    [
      "श",
      "िया</w>"
    ],
    [
      "समा",
      "ज</w>"
    ],
    [
      "गतिविध",
      "ियों</w>"
    ],
    [
      "सेवा",
      "नि"
    ],
    [
      "पर्य",
      "ट"
    ],
    [
      "त्",
      "सा"
    ],
    [
      "घ",
      "े"
    ],
    [
      "मिल",
      "ी।</w>"
    ],
    [
      "भविष",
      "्य</w>"
    ],
    [
      "हुआ",
      ",</w>"
    ],
    [
      "संभव",
      "तः</w>"
    ],
    [
      "ए",
      "ंड</w>"
    ],
    [
      "वे",
      "द"
    ],
    [
      "न",
      "र"
    ],
    [
      "जी",
      "व</w>"
    ],
    [
      "खा",
      "ना</w>"
    ],
    [
      "न",
      "ा।</w>"
    ],
    [
      "स्वा",
      "मि"
    ],
    [
      "वायर",
      "स</w>"
    ],
    [
      "रह",
      "े"
    ],
    [
      "न",
      "वा"
    ],
    [
      "ओडि",
      "शा</w>"
    ],
    [
      "ए",
      "क्"
    ],
    [
      "समी",
      "क्षा</w>"
    ],
    [
      "पहा",
      "ड़ियों</w>"
    ],
    [
      "ारा",
      "त्मक</w>"
    ],
    [
      "3",
      "1</w>"
    ],
    [
      "आ",
      "ग</w>"
    ],
    [
      "मुख",
      "्या"
    ],
    [
      "ड",
      "म</w>"
    ],
    [
      "ल्",
      "टी</w>"
    ],
    [
      "चा",
      "वल</w>"
    ],
    [
      "अ",
      "का"
    ],
    [
      "पु",
      "स्"
    ],
    [
      "पहु",
      "ंच"
    ],
    [
      "कार्य",
      "ों</w>"
    ],
    [
      "ख",
      "र्"
    ],
    [
      "इ",
      "का"
    ],
    [
      "अनु",
      "रोध</w>"
    ],
    [
      "बा",
      "नी</w>"
    ],
    [
      "व",
      "िय"
    ],
    [
      "ष्",
      "ट"
    ],
    [
      "स्वामि",
      "त्व</w>"
    ],
    [
      "ष्ण",
      "कटि"
    ],
    [
      "गर्",
      "म</w>"
    ],
    [
      "सिय",
      "स</w>"
    ],
    [
      "व",
      "्र"
    ],
    [
      "को",
      "ण</w>"
    ],
    [
      "पु",
      "र्"
    ],
    [
      "न",
      "न</w>"
    ],
    [
      "बि",
      "ता"
    ],
    [
      "आलो",
      "च"
    ],
    [
      "प्रशं",
      "सा</w>"
    ],
    [
      "ड",
      "ो</w>"
    ],
    [
      "मुस्लि",
      "म</w>"
    ],
    [
      "र",
      "ख</w>"
    ],
    [
      "उप",
      "हार</w>"
    ],
    [
      "खे",
      "लते</w>"
    ],
    [
      "सं",
      "रक्षित</w>"
    ],
    [
      "डि",
      "ंग</w>"
    ],
    [
      "विषा",
      "णु</w>"
    ],
    [
      "इ",
      "क"
    ],
    [
      "इ",
      "रा"
    ],
    [
      "राजा",
      "ओं</w>"
    ],
    [
      "का",
      "ब"
    ],
    [
      "अ",
      "धी"
    ],
    [
      "द",
      "म</w>"
    ],
    [
      "आसा",
      "नी</w>"
    ],
    [
      "य",
      "े"
    ],
    [
      "संचा",
      "लित</w>"
    ],
    [
      "दो",
      "स्त"
    ],
    [
      "ष्णकटि",
      "बंध"
    ],
    [
      "ृ",
      "त</w>"
    ],
    [
      "समझ",
      "ौ"
    ],
    [
      "इन",
      "कार</w>"
    ],
    [
      "वि",
      "फल</w>"
    ],
    [
      "वि",
      "द्"
    ],
    [
      "2",
      ","
    ],
    [
      "हरा",
      "या</w>"
    ],
    [
      "वैज्ञा",
      "निक</w>"
    ],
    [
      "प्रतिनि",
      "धि</w>"
    ],
    [
      "चे",
      "न्"
    ],
    [
      "वर्ष",
      "ीय</w>"
    ],
    [
      "पै",
      "माने</w>"
    ],
    [
      "जान",
      "वरों</w>"
    ],
    [
      "ग्र",
      "स्त</w>"
    ],
    [
      "रि",
      "पोर्ट</w>"
    ],
    [
      "ष्णकटिबंध",
      "ीय</w>"
    ],
    [
      "मी",
      "ल)</w>"
    ],
    [
      "न",
      "तम</w>"
    ],
    [
      "जा",
      "ए।</w>"
    ],
    [
      "अप",
      "ना"
    ],
    [
      "संचा",
      "लन</w>"
    ],
    [
      "जा",
      "नी</w>"
    ],
    [
      "वास्तु",
      "कला</w>"
    ],
    [
      "जु",
      "ड़ा</w>"
    ],
    [
      "प",
      "री</w>"
    ],
    [
      "रक्ष",
      "क</w>"
    ],
    [
      "अनु",
      "ष्ठा"
    ],
    [
      "मछ",
      "ली</w>"
    ],
    [
      "थी",
      "ं</w>"
    ],
    [
      "बि",
      "ंद"
    ],
    [
      "त",
      "ार"
    ],
    [
      "य",
      "ण</w>"
    ],
    [
      "न्",
      "ना</w>"
    ],
    [
      "स्थानांतर",
      "ित</w>"
    ],
    [
      "ब",
      "री</w>"
    ],
    [
      "द",
      "ं"
    ],
    [
      "ग",
      "ई,</w>"
    ],
    [
      "फै",
      "ला</w>"
    ],
    [
      "शॉ",
      "ट</w>"
    ],
    [
      "त",
      "-"
    ],
    [
      "छा",
      "त्र</w>"
    ],
    [
      "क्",
      "ल"
    ],
    [
      "0",
      "-"
    ],
    [
      "ऑ",
      "परे"
    ],
    [
      "पर्य",
      "टन</w>"
    ],
    [
      "सि",
      "ए"
    ],
    [
      "जा",
      "पानी</w>"
    ],
    [
      "हो",
      "ली</w>"
    ],
    [
      "ग्रीष्म",
      "कालीन</w>"
    ],
    [
      "सा",
      "झा</w>"
    ],
    [
      "प्र",
      "दा"
    ],
    [
      "मा",
      "ंग</w>"
    ],
    [
      "मान",
      "ते</w>"
    ],
    [
      "ग",
      "ए,</w>"
    ],
    [
      "िय",
      "ो</w>"
    ],
    [
      "र",
      "दार</w>"
    ],
    [
      "स",
      "ारे</w>"
    ],
    [
      "थ",
      "ु"
    ],
    [
      "चेन्",
      "नई</w>"
    ],
    [
      "दि",
      "ए।</w>"
    ],
    [
      "बाव",
      "जूद</w>"
    ],
    [
      "तला",
      "श</w>"
    ],
    [
      "मही",
      "नों</w>"
    ],
    [
      "प",
      "रा"
    ],
    [
      "पि",
      "</w>"
    ],
    [
      "पी",
      ".</w>"
    ],
    [
      "सॉफ्",
      "ट</w>"
    ],
    [
      "सू",
      "र्य</w>"
    ],
    [
      "बचा",
      "व</w>"
    ],
    [
      "ह",
      "टा</w>"
    ],
    [
      "ढ",
      "ू"
    ],
    [
      "व",
      "ती</w>"
    ],
    [
      "सिर्",
      "फ</w>"
    ],
    [
      "मानसू",
      "न</w>"
    ],
    [
      "त",
      "रह"
    ],
    [
      "देव",
      "ता</w>"
    ],
    [
      "स",
      "दी</w>"
    ],
    [
      "रे",
      "ल</w>"
    ],
    [
      "कोशि",
      "काओं</w>"
    ],
    [
      "शा",
      "ंति</w>"
    ],
    [
      "द",
      "य</w>"
    ],
    [
      "उत्",
      "पत्ति</w>"
    ],
    [
      "हम",
      "ले</w>"
    ],
    [
      "सु",
      "झा"
    ],
    [
      "जन्",
      "म"
    ],
    [
      "जी",
      "ता</w>"
    ],
    [
      "घा",
      "यल</w>"
    ],
    [
      "या",
      "त</w>"
    ],
    [
      "अभ",
      "यार"
    ],
    [
      "गा",
      "ड़ी</w>"
    ],
    [
      "साइ",
      "किल</w>"
    ],
    [
      "ने",
      "ह"
    ],
    [
      "वि",
      "धान</w>"
    ],
    [
      "सा",
      "क्ष"
    ],
    [
      "न",
      "ार"
    ],
    [
      "म",
      "्यू"
    ],
    [
      "सक",
      "ारात्मक</w>"
    ],
    [
      "स",
      "क</w>"
    ],
    [
      "इ",
      "तने</w>"
    ],
    [
      "है",
      "?</w>"
    ],
    [
      "ले",
      "ंडर</w>"
    ],
    [
      "मुख्या",
      "लय</w>"
    ],
    [
      "अभयार",
      "ण"
    ],
    [
      "प्",
      "ला"
    ],
    [
      "सिस्ट",
      "म</w>"
    ],
    [
      "दर",
      "बार</w>"
    ],
    [
      "चर्",
      "चा</w>"
    ],
    [
      "ना",
      "यक</w>"
    ],
    [
      "क",
      "ब"
    ],
    [
      "गु",
      "ला"
    ],
    [
      "आ",
      "पा"
    ],
    [
      "जन",
      "ता</w>"
    ],
    [
      "ज़",
      "न</w>"
    ],
    [
      "पदा",
      "र्थ"
    ],
    [
      "वाह",
      "क</w>"
    ],
    [
      "सला",
      "ह"
    ],
    [
      "शू",
      "टिंग</w>"
    ],
    [
      "एक-",
      "दूसरे</w>"
    ],
    [
      "कला",
      "कारों</w>"
    ],
    [
      "जि",
      "लों</w>"
    ],
    [
      "द",
      "रा"
    ],
    [
      "स्",
      "क्र"
    ],
    [
      "शि",
      "वा"
    ],
    [
      "महा",
      "द्वीप</w>"
    ],
    [
      "कि",
      "ं"
    ],
    [
      "निक",
      "ल</w>"
    ],
    [
      "वा",
      "ं</w>"
    ],
    [
      "ले",
      "ं।</w>"
    ],
    [
      "बना",
      "ते</w>"
    ],
    [
      "न",
      "ंबर</w>"
    ],
    [
      "र्",
      "न</w>"
    ],
    [
      "स",
      "फे"
    ],
    [
      "रे",
      "टि"
    ],
    [
      "न",
      ":</w>"
    ],
    [
      "चल",
      "ने</w>"
    ],
    [
      "ग्राह",
      "कों</w>"
    ],
    [
      "194",
      "7</w>"
    ],
    [
      "विशेष",
      "ज्ञ"
    ],
    [
      "सं",
      "ग"
    ],
    [
      "समृ",
      "द्ध</w>"
    ],
    [
      "िय",
      "ता</w>"
    ],
    [
      "आ",
      "ए।</w>"
    ],
    [
      "ज़",
      "ी</w>"
    ],
    [
      "ऊ",
      "परी</w>"
    ],
    [
      "यू",
      "नि"
    ],
    [
      "सॉफ्",
      "टवेयर</w>"
    ],
    [
      "द",
      "रा</w>"
    ],
    [
      "ंग",
      "टन</w>"
    ],
    [
      "ट्रै",
      "क</w>"
    ],
    [
      "बी",
      "मा</w>"
    ],
    [
      "कहा",
      ",</w>"
    ],
    [
      "म",
      "ले"
    ],
    [
      "रे",
      "-"
    ],
    [
      "ब",
      "हन</w>"
    ],
    [
      "ध",
      "्या"
    ],
    [
      "मध",
      "ु"
    ],
    [
      "स्ट",
      "न</w>"
    ],
    [
      "मै",
      "चों</w>"
    ],
    [
      "सै",
      "निक</w>"
    ],
    [
      "196",
      "0</w>"
    ],
    [
      "व्यक्",
      "तियों</w>"
    ],
    [
      "तुम्",
      "ह"
    ],
    [
      "ख",
      "्या"
    ],
    [
      "ग",
      "री"
    ],
    [
      "बढ़ा",
      "ने</w>"
    ],
    [
      "ख",
      "ू"
    ],
    [
      "मा",
      "ंकन</w>"
    ],
    [
      "अफ्री",
      "का</w>"
    ],
    [
      "दौ",
      "र</w>"
    ],
    [
      "दि",
      "शा</w>"
    ],
    [
      "बि",
      "ल</w>"
    ],
    [
      "ता",
      "ल"
    ],
    [
      "इ",
      "लेक्"
    ],
    [
      ".",
      ",</w>"
    ],
    [
      "त",
      "ारी"
    ],
    [
      "मे",
      "ह"
    ],
    [
      "उ",
      "चित</w>"
    ],
    [
      "ल",
      "ता"
    ],
    [
      "बंद",
      "रगा"
    ],
    [
      "ंग",
      "ु"
    ],
    [
      "ल",
      "कड़ी</w>"
    ],
    [
      "चु",
      "के</w>"
    ],
    [
      "कौ",
      "शल</w>"
    ],
    [
      "प्रतियोगि",
      "ताओं</w>"
    ],
    [
      "य",
      "-"
    ],
    [
      "खे",
      "ले।</w>"
    ],
    [
      "मै",
      "दा"
    ],
    [
      "फ",
      "ॉर्"
    ],
    [
      "रि",
      "ंग</w>"
    ],
    [
      "ना",
      "एँ</w>"
    ],
    [
      "ट",
      "ें</w>"
    ],
    [
      "यू",
      ".</w>"
    ],
    [
      "है",
      "!</w>"
    ],
    [
      "प्रा",
      "ं"
    ],
    [
      "करी",
      "ब</w>"
    ],
    [
      "कार",
      "ण,</w>"
    ],
    [
      "वि",
      "कार</w>"
    ],
    [
      "ंड",
      "ी"
    ],
    [
      "कार",
      "णों</w>"
    ],
    [
      "रख",
      "ना</w>"
    ],
    [
      "वि",
      "स्"
    ],
    [
      "म",
      "िया</w>"
    ],
    [
      "ते",
      "ल</w>"
    ],
    [
      "ड",
      "ै"
    ],
    [
      "द",
      "वा</w>"
    ],
    [
      "धर्",
      "म"
    ],
    [
      "स",
      "चि"
    ],
    [
      "ह",
      "ट</w>"
    ],
    [
      "\"",
      "।</w>"
    ],
    [
      "ओ",
      "ं,</w>"
    ],
    [
      "बी",
      "च,</w>"
    ],
    [
      "सा",
      "ब"
    ],
    [
      "स्ता",
      "नी</w>"
    ],
    [
      "प्रमा",
      "ण</w>"
    ],
    [
      "मल",
      "या"
    ],
    [
      "कर्म",
      "चार"
    ],
    [
      "स्ट",
      "ू"
    ],
    [
      "न",
      "शी"
    ],
    [
      "यूना",
      "नी</w>"
    ],
    [
      "प्रार्थ",
      "ना</w>"
    ],
    [
      ")",
      "।</w>"
    ],
    [
      "मणि",
      "पुर</w>"
    ],
    [
      "प्रवा",
      "ह</w>"
    ],
    [
      "ख",
      "े</w>"
    ],
    [
      "स",
      "व"
    ],
    [
      "बांग्ला",
      "देश</w>"
    ],
    [
      "ना",
      "मित</w>"
    ],
    [
      "क",
      "पूर</w>"
    ],
    [
      "अ",
      "के"
    ],
    [
      "मान",
      "क</w>"
    ],
    [
      "तरह",
      ",</w>"
    ],
    [
      "बु",
      "निया"
    ],
    [
      "िय",
      "ल</w>"
    ],
    [
      "से",
      "ट</w>"
    ],
    [
      "माइक्रो",
      "सॉफ्ट</w>"
    ],
    [
      "थी",
      "ं,</w>"
    ],
    [
      "या",
      "न</w>"
    ],
    [
      "सिने",
      "मा</w>"
    ],
    [
      "मा",
      "ल"
    ],
    [
      "न्या",
      "स</w>"
    ],
    [
      "लग",
      "ा।</w>"
    ],
    [
      "टि",
      "कट</w>"
    ],
    [
      "घ",
      "ू"
    ],
    [
      "शब्",
      "दों</w>"
    ],
    [
      "ब्",
      "लै"
    ],
    [
      "ले",
      "ना</w>"
    ],
    [
      "जल",
      "वायु</w>"
    ],
    [
      "ध",
      "नु"
    ],
    [
      "पुरा",
      "ना</w>"
    ],
    [
      "पृ",
      "ष्ठ</w>"
    ],
    [
      "मि",
      "ंग</w>"
    ],
    [
      "सं",
      "लक्षण</w>"
    ],
    [
      "दर्",
      "शन</w>"
    ],
    [
      "न्या",
      "यालय</w>"
    ],
    [
      "ठ",
      "ों</w>"
    ],
    [
      ".ओ",
      ".</w>"
    ],
    [
      "े",
      "श</w>"
    ],
    [
      "च",
      "क्"
    ],
    [
      "प",
      "ारी</w>"
    ],
    [
      "ग्र",
      "ह</w>"
    ],
    [
      "सा",
      "ह"
    ],
    [
      "लेख",
      "ों</w>"
    ],
    [
      "प्रे",
      "स</w>"
    ],
    [
      "नि",
      "चले</w>"
    ],
    [
      "सहम",
      "त</w>"
    ],
    [
      "क",
      "ें</w>"
    ],
    [
      "ट",
      "रों</w>"
    ],
    [
      "घ",
      "न</w>"
    ],
    [
      "क्रा",
      "मक</w>"
    ],
    [
      "गुस्",
      "सा</w>"
    ],
    [
      "चि",
      "ह्"
    ],
    [
      "का",
      "एँ</w>"
    ],
    [
      "मा",
      "लिक</w>"
    ],
    [
      "मा",
      "ंस"
    ],
    [
      "झ",
      "र"
    ],
    [
      "प्रा",
      "ग</w>"
    ],
    [
      "ई",
      "स्ट</w>"
    ],
    [
      "सं",
      "सद</w>"
    ],
    [
      "त",
      "गा"
    ],
    [
      "दौ",
      "रे</w>"
    ],
    [
      "वं",
      "श"
    ],
    [
      "रा",
      "त्रि"
    ],
    [
      "अधिक",
      "तम</w>"
    ],
    [
      "लंब",
      "ा</w>"
    ],
    [
      "क्र",
      "िया"
    ],
    [
      "प्रतिद्वं",
      "द्व"
    ],
    [
      "व्या",
      "पार"
    ],
    [
      "दूस",
      "रों</w>"
    ],
    [
      "न",
      "ियाँ</w>"
    ],
    [
      "पु",
      "रा</w>"
    ],
    [
      "जा",
      "या</w>"
    ],
    [
      "अ",
      "ट"
    ],
    [
      "लद्दा",
      "ख</w>"
    ],
    [
      "नि",
      "वेश"
    ],
    [
      "ऊ",
      "र्जा</w>"
    ],
    [
      "ब",
      "ृह"
    ],
    [
      "पदा",
      "र्थ</w>"
    ],
    [
      "गू",
      "गल</w>"
    ],
    [
      "डे",
      "ल्"
    ],
    [
      "जे",
      "ब</w>"
    ],
    [
      "हा",
      "थों</w>"
    ],
    [
      "समुद्र",
      "ी</w>"
    ],
    [
      "ति",
      ",</w>"
    ],
    [
      "क",
      "प्"
    ],
    [
      "शा",
      "नदार</w>"
    ],
    [
      "प",
      "ल</w>"
    ],
    [
      "स्थि",
      "र</w>"
    ],
    [
      "दुर्",
      "ल"
    ],
    [
      "से",
      "-"
    ],
    [
      "श्",
      "न</w>"
    ],
    [
      "लग",
      "ी</w>"
    ],
    [
      "19",
      "वीं</w>"
    ],
    [
      "ज़",
      "रू"
    ],
    [
      "सिक्",
      "किम</w>"
    ],
    [
      "क",
      "स्"
    ],
    [
      "सफे",
      "द</w>"
    ],
    [
      ".एम",
      ".</w>"
    ],
    [
      "डि",
      "ट</w>"
    ],
    [
      "आई",
      ".</w>"
    ],
    [
      "प्रो",
      "ग्राम</w>"
    ],
    [
      "क्",
      "कन</w>"
    ],
    [
      "अ",
      "क्ष"
    ],
    [
      "उप",
      "स्थिति</w>"
    ],
    [
      "नौ",
      "</w>"
    ],
    [
      "व",
      "हां</w>"
    ],
    [
      "अर्थ",
      "व्यवस्था</w>"
    ],
    [
      "घट",
      "नाओं</w>"
    ],
    [
      "आउ",
      "ट</w>"
    ],
    [
      "रि",
      "श्"
    ],
    [
      "चिं",
      "ता</w>"
    ],
    [
      "सो",
      "च</w>"
    ],
    [
      ".आर",
      ".</w>"
    ],
    [
      "गुण",
      "व"
    ],
    [
      "बुनिया",
      "दी</w>"
    ],
    [
      "वि",
      "विध"
    ],
    [
      "क्",
      "ता</w>"
    ],
    [
      "श्रे",
      "ण"
    ],
    [
      "ंग",
      "ल</w>"
    ],
    [
      "मा",
      "ला</w>"
    ],
    [
      "रही",
      "।</w>"
    ],
    [
      "स",
      "टी"
    ],
    [
      "पै",
      "र</w>"
    ],
    [
      "वि",
      "ल</w>"
    ],
    [
      "शा",
      "ह"
    ],
    [
      "गिरफ्",
      "तार</w>"
    ],
    [
      "वे",
      "स्ट</w>"
    ],
    [
      "प",
      "ल"
    ],
    [
      "195",
      "0</w>"
    ],
    [
      "क",
      "न्न"
    ],
    [
      "म्",
      "ब"
    ],
    [
      "आत्",
      "म"
    ],
    [
      "शि",
      "व"
    ],
    [
      "अ",
      "स्"
    ],
    [
      "बंध",
      "ित</w>"
    ],
    [
      "वि",
      "रा"
    ],
    [
      "ख",
      "ी"
    ],
    [
      "तेलु",
      "गु</w>"
    ],
    [
      "ल्",
      "ट</w>"
    ],
    [
      "ज़",
      "ो"
    ],
    [
      "औ",
      "रंग"
    ],
    [
      "पू",
      "</w>"
    ],
    [
      "औप",
      "चारिक</w>"
    ],
    [
      "पुर्",
      "तगा"
    ],
    [
      "को",
      "ल"
    ],
    [
      "सं",
      "योजन</w>"
    ],
    [
      "मं",
      "त्र"
    ],
    [
      "ू",
      "प</w>"
    ],
    [
      "लग",
      "े</w>"
    ],
    [
      "ए",
      "व"
    ],
    [
      "ब्रा",
      "ह्म"
    ],
    [
      "सि",
      "ख</w>"
    ],
    [
      "बां",
      "ध</w>"
    ],
    [
      "उप",
      "-"
    ],
    [
      "संस्",
      "कृत</w>"
    ],
    [
      "गो",
      "वा</w>"
    ],
    [
      "ज",
      "ारों</w>"
    ],
    [
      "आ",
      "या।</w>"
    ],
    [
      "स्",
      "तर"
    ],
    [
      "खा",
      "ड़ी</w>"
    ],
    [
      "अ",
      "चा"
    ],
    [
      "मे",
      "ज"
    ],
    [
      "1",
      "."
    ],
    [
      "त",
      "ं"
    ],
    [
      "घ",
      "ु</w>"
    ],
    [
      "देख",
      "ते</w>"
    ],
    [
      "से",
      "वाओं</w>"
    ],
    [
      "स्टा",
      "र</w>"
    ],
    [
      "दे",
      "ं।</w>"
    ],
    [
      "न",
      ")</w>"
    ],
    [
      "पा",
      "इ"
    ],
    [
      "प्रो",
      "त्सा"
    ],
    [
      "धी",
      "रे</w>"
    ],
    [
      "पुस्",
      "तक</w>"
    ],
    [
      "स्",
      "व</w>"
    ],
    [
      "टि",
      "प्प"
    ],
    [
      "पु",
      "स्त"
    ],
    [
      "पदार्थ",
      "ों</w>"
    ],
    [
      "झ",
      "ु"
    ],
    [
      "वी",
      "र</w>"
    ],
    [
      "ार",
      ",</w>"
    ],
    [
      "ई",
      "-"
    ],
    [
      "बा",
      "र्"
    ],
    [
      "स्थ",
      "लों</w>"
    ],
    [
      "हॉ",
      "ल</w>"
    ],
    [
      "1",
      "-"
    ],
    [
      "चला",
      "ने</w>"
    ],
    [
      "आलो",
      "चना</w>"
    ],
    [
      "दो",
      "ष"
    ],
    [
      "जी",
      "व"
    ],
    [
      "हर",
      "िया"
    ],
    [
      "य",
      "ही</w>"
    ],
    [
      "ठ",
      "े</w>"
    ],
    [
      "बा",
      "हरी</w>"
    ],
    [
      "2",
      "-"
    ],
    [
      "फी",
      "ल्ड</w>"
    ],
    [
      "199",
      "5</w>"
    ],
    [
      "उ",
      "ंड</w>"
    ],
    [
      "इ",
      "च्छ"
    ],
    [
      "वर्",
      "ड</w>"
    ],
    [
      "पे",
      "ट</w>"
    ],
    [
      "अ",
      "सम</w>"
    ],
    [
      "ऊँ",
      "चाई</w>"
    ],
    [
      "ट",
      ")</w>"
    ],
    [
      "अड्",
      "डा</w>"
    ],
    [
      "बि",
      "ल्"
    ],
    [
      "बा",
      "त"
    ],
    [
      "ची",
      "त</w>"
    ],
    [
      "स",
      "जा</w>"
    ],
    [
      "सर्वो",
      "च्"
    ],
    [
      "उद्",
      "दीन</w>"
    ],
    [
      "ती",
      ",</w>"
    ],
    [
      "ध्",
      "र</w>"
    ],
    [
      "मूल",
      "्या"
    ],
    [
      "श्रे",
      "य</w>"
    ],
    [
      "द्",
      "द</w>"
    ],
    [
      "नि",
      "वास</w>"
    ],
    [
      "पहु",
      "ंच</w>"
    ],
    [
      "सं",
      "वेद"
    ],
    [
      "बरा",
      "बर</w>"
    ],
    [
      "दु",
      "ल्"
    ],
    [
      "मा",
      "उ"
    ],
    [
      "5",
      "0"
    ],
    [
      "नि",
      "शा"
    ],
    [
      "का",
      "न</w>"
    ],
    [
      "सेल्",
      "सियस</w>"
    ],
    [
      "दुका",
      "नों</w>"
    ],
    [
      "स्ट",
      "ै"
    ],
    [
      "बेल्",
      "ज"
    ],
    [
      "विक्रे",
      "ता</w>"
    ],
    [
      "क",
      "्य</w>"
    ],
    [
      "3",
      "5</w>"
    ],
    [
      "’",
      "</w>"
    ],
    [
      "जान",
      "ते</w>"
    ],
    [
      "फो",
      "र्ड</w>"
    ],
    [
      "भा",
      "व</w>"
    ],
    [
      "लड़",
      "की</w>"
    ],
    [
      "प",
      "द"
    ],
    [
      "जन",
      "रल</w>"
    ],
    [
      "श",
      "ो</w>"
    ],
    [
      "चे",
      "हरे</w>"
    ],
    [
      "उप",
      "करणों</w>"
    ],
    [
      "र",
      "ियन</w>"
    ],
    [
      "स्व",
      "र</w>"
    ],
    [
      "मा",
      "सिक</w>"
    ],
    [
      "अनु",
      "प"
    ],
    [
      "बे",
      "ड"
    ],
    [
      "शास्",
      "त्र</w>"
    ],
    [
      "पा",
      "त्र</w>"
    ],
    [
      "राज्य",
      "पाल</w>"
    ],
    [
      "त्",
      "म</w>"
    ],
    [
      "मु",
      "काब"
    ],
    [
      "साब",
      "ित</w>"
    ],
    [
      "मि",
      "ले</w>"
    ],
    [
      "छा",
      "त्रों</w>"
    ],
    [
      "ख",
      "र</w>"
    ],
    [
      "सम्",
      "मे"
    ],
    [
      "ध",
      "ु</w>"
    ],
    [
      "च",
      "र"
    ],
    [
      "अचा",
      "नक</w>"
    ],
    [
      "करा",
      "ने</w>"
    ],
    [
      "घ",
      "</w>"
    ],
    [
      "कठि",
      "न</w>"
    ],
    [
      "क",
      "ड़ों</w>"
    ],
    [
      "ए",
      "ँ।</w>"
    ],
    [
      "कथ",
      "ित</w>"
    ],
    [
      "जिम्मे",
      "दार</w>"
    ],
    [
      "रू",
      "पों</w>"
    ],
    [
      "सि",
      "ंग</w>"
    ],
    [
      "जे",
      "ं"
    ],
    [
      "गां",
      "व</w>"
    ],
    [
      "लौ",
      "ट</w>"
    ],
    [
      "धी",
      "रे-"
    ],
    [
      "अका",
      "दमी</w>"
    ],
    [
      "त",
      "था</w>"
    ],
    [
      "क",
      "श</w>"
    ],
    [
      "खतर",
      "ा</w>"
    ],
    [
      "बना",
      "या।</w>"
    ],
    [
      "199",
      "6</w>"
    ],
    [
      "गवर्",
      "नर</w>"
    ],
    [
      "बि",
      "हार</w>"
    ],
    [
      "संग्र",
      "हा"
    ],
    [
      "झ",
      "ू"
    ],
    [
      "प्र",
      "शास"
    ],
    [
      "संदर्",
      "भ</w>"
    ],
    [
      "ड",
      "ों</w>"
    ],
    [
      "दबा",
      "व</w>"
    ],
    [
      "क्रा",
      "ंति</w>"
    ],
    [
      "गल",
      "ती</w>"
    ],
    [
      "हो",
      "ं।</w>"
    ],
    [
      "वा",
      "इ"
    ],
    [
      "अग",
      "्"
    ],
    [
      "फ़",
      "ो"
    ],
    [
      "टे",
      "ल</w>"
    ],
    [
      "सा",
      "धन</w>"
    ],
    [
      "या",
      "त्रियों</w>"
    ],
    [
      "ति",
      "रु"
    ],
    [
      "गे",
      "ंद"
    ],
    [
      "कृ",
      "तियों</w>"
    ],
    [
      "अ",
      "स"
    ],
    [
      "म",
      "य</w>"
    ],
    [
      "199",
      "2</w>"
    ],
    [
      "बाव",
      "जू"
    ],
    [
      "बावजू",
      "द,</w>"
    ],
    [
      "ना",
      "गा"
    ],
    [
      "ब्",
      "ब"
    ],
    [
      "राज",
      "पू"
    ],
    [
      "ए",
      "जे"
    ],
    [
      "ग्र",
      "ै"
    ],
    [
      "कौ",
      "न</w>"
    ],
    [
      "कर्मचार",
      "ियों</w>"
    ],
    [
      "गुणव",
      "त्ता</w>"
    ],
    [
      "े",
      "द</w>"
    ],
    [
      "खा",
      "ता</w>"
    ],
    [
      "से",
      "ल</w>"
    ],
    [
      "हो",
      "टल</w>"
    ],
    [
      "ले",
      "ट</w>"
    ],
    [
      "सब",
      "र्ग</w>"
    ],
    [
      "रे",
      "ड</w>"
    ],
    [
      "मु",
      "कद"
    ],
    [
      "सू",
      "र</w>"
    ],
    [
      "ट्र",
      "ि"
    ],
    [
      "त",
      "त्"
    ],
    [
      "गण",
      "राज्य</w>"
    ],
    [
      "सर्वोच्",
      "च</w>"
    ],
    [
      "अला",
      "उद्दीन</w>"
    ],
    [
      "ब",
      ",</w>"
    ],
    [
      "पर्व",
      "त"
    ],
    [
      "ह",
      "ारों</w>"
    ],
    [
      "डा",
      "ल</w>"
    ],
    [
      "ज़",
      "ी"
    ],
    [
      "य",
      "हू"
    ],
    [
      "रे",
      "शन</w>"
    ],
    [
      "मे",
      "घा"
    ],
    [
      "र",
      ")</w>"
    ],
    [
      "से",
      "वन</w>"
    ],
    [
      "ज़ि",
      "ले</w>"
    ],
    [
      "पर्व",
      "त</w>"
    ],
    [
      "क्रे",
      "डिट</w>"
    ],
    [
      "रा",
      "ष्ट्र</w>"
    ],
    [
      "नेह",
      "रू</w>"
    ],
    [
      "बात",
      "चीत</w>"
    ],
    [
      "हस्ता",
      "क्षर</w>"
    ],
    [
      "म",
      "शी"
    ],
    [
      "क",
      "न्"
    ],
    [
      "सुझा",
      "व</w>"
    ],
    [
      "व",
      "रि"
    ],
    [
      "र",
      "द्द</w>"
    ],
    [
      "चिकित्",
      "सक</w>"
    ],
    [
      "लक्ष",
      "्"
    ],
    [
      "बचा",
      "ने</w>"
    ],
    [
      "कि",
      "ंग"
    ],
    [
      "ंग",
      "े,</w>"
    ],
    [
      "सो",
      "चा</w>"
    ],
    [
      "आखि",
      "री</w>"
    ],
    [
      "चाह",
      "ता</w>"
    ],
    [
      "वर्गी",
      "कृत</w>"
    ],
    [
      "कॉ",
      "ल</w>"
    ],
    [
      "मा",
      "दक</w>"
    ],
    [
      "मो",
      "बा"
    ],
    [
      "मोबा",
      "इल</w>"
    ],
    [
      "उम्मी",
      "द"
    ],
    [
      "ह",
      "र्"
    ],
    [
      "परेशा",
      "न</w>"
    ],
    [
      "उप",
      "महाद्वीप</w>"
    ],
    [
      "की",
      "र्"
    ],
    [
      "बढ़",
      "ने</w>"
    ],
    [
      "जिन",
      "की</w>"
    ],
    [
      "प्रती",
      "त</w>"
    ],
    [
      "खे",
      "ती</w>"
    ],
    [
      "18",
      "5"
    ],
    [
      "ड",
      "ू"
    ],
    [
      "व",
      ",</w>"
    ],
    [
      "सर्",
      "दियों</w>"
    ],
    [
      "वा",
      "णि"
    ],
    [
      "वाणि",
      "ज"
    ],
    [
      "है",
      "।\"</w>"
    ],
    [
      "ट",
      "ियों</w>"
    ],
    [
      "ट",
      "ली</w>"
    ],
    [
      "उ",
      "ष्णकटिबंधीय</w>"
    ],
    [
      "कै",
      "रो"
    ],
    [
      "गै",
      "स</w>"
    ],
    [
      "ई",
      ".</w>"
    ],
    [
      "पो",
      "षण</w>"
    ],
    [
      "बं",
      "दी</w>"
    ],
    [
      "सू",
      "चित</w>"
    ],
    [
      "परि",
      "वर्"
    ],
    [
      "बै",
      "ंग"
    ],
    [
      "मै",
      "न"
    ],
    [
      "विवा",
      "हित</w>"
    ],
    [
      "परि",
      "सर</w>"
    ],
    [
      "भी",
      ",</w>"
    ],
    [
      "फा",
      "य"
    ],
    [
      "मूर्",
      "ति</w>"
    ],
    [
      "लेख",
      "न</w>"
    ],
    [
      "ना",
      "म"
    ],
    [
      "प्रतिद्वंद्व",
      "ी</w>"
    ],
    [
      "निभा",
      "ई</w>"
    ],
    [
      "चैंप",
      "ियन</w>"
    ],
    [
      "सं",
      "चार</w>"
    ],
    [
      "हो",
      "ंगे।</w>"
    ],
    [
      "त",
      "े।</w>"
    ],
    [
      "डि",
      "जा"
    ],
    [
      "एम",
      ".</w>"
    ],
    [
      "चे",
      "क</w>"
    ],
    [
      "चा",
      "लु"
    ],
    [
      "धीरे-",
      "धीरे</w>"
    ],
    [
      "बॉ",
      "लीवुड</w>"
    ],
    [
      "वे",
      "स्ट"
    ],
    [
      "4",
      "5</w>"
    ],
    [
      "बा",
      "ँ"
    ],
    [
      "विभा",
      "जन</w>"
    ],
    [
      "ंड",
      "ि"
    ],
    [
      "को",
      "र"
    ],
    [
      "िया",
      "र</w>"
    ],
    [
      "मिल",
      "कर</w>"
    ],
    [
      "ज",
      "ं"
    ],
    [
      "द",
      "ारों</w>"
    ],
    [
      "दस्ता",
      "वे"
    ],
    [
      "सं",
      "स्थाप"
    ],
    [
      "खो",
      "जने</w>"
    ],
    [
      "ं",
      "जन</w>"
    ],
    [
      "गि",
      "र</w>"
    ],
    [
      "सी",
      "ख"
    ],
    [
      "ज़",
      "ा</w>"
    ],
    [
      "अर्",
      "जित</w>"
    ],
    [
      "मुख",
      "्य"
    ],
    [
      "फै",
      "ल</w>"
    ],
    [
      "श्",
      "विक</w>"
    ],
    [
      "दोस्त",
      "ों</w>"
    ],
    [
      "ट",
      "लैंड</w>"
    ],
    [
      "इंड",
      "ो"
    ],
    [
      "दा",
      "स</w>"
    ],
    [
      "उत्तरा",
      "धि"
    ],
    [
      "शा",
      "सकों</w>"
    ],
    [
      "त",
      "रिक</w>"
    ],
    [
      "ती",
      "व्"
    ],
    [
      "पेश",
      "कश</w>"
    ],
    [
      "र",
      "खा"
    ],
    [
      "वै",
      "दिक</w>"
    ],
    [
      "शा",
      "ंत</w>"
    ],
    [
      "रे",
      "ट</w>"
    ],
    [
      "पा",
      "ठ"
    ],
    [
      "बना",
      "ना</w>"
    ],
    [
      "प्रशास",
      "निक</w>"
    ],
    [
      "ब",
      "चा</w>"
    ],
    [
      "कै",
      "म"
    ],
    [
      "2",
      "5"
    ],
    [
      "दै",
      "निक</w>"
    ],
    [
      "ह",
      "रि"
    ],
    [
      "प्र",
      "चार</w>"
    ],
    [
      "हिमा",
      "लय</w>"
    ],
    [
      "वि",
      "धा</w>"
    ],
    [
      "अ",
      "ल्प"
    ],
    [
      "फे",
      "फ"
    ],
    [
      "अव",
      "काश</w>"
    ],
    [
      "चे",
      "ता"
    ],
    [
      "कॉ",
      "न्"
    ],
    [
      "प्रसार",
      "ित</w>"
    ],
    [
      "व",
      "की"
    ],
    [
      "है",
      "दर</w>"
    ],
    [
      "तीव्",
      "र</w>"
    ],
    [
      "अंतर",
      "राष्ट्रीय</w>"
    ],
    [
      "स्को",
      "र</w>"
    ],
    [
      "ग्रं",
      "थों</w>"
    ],
    [
      "सं",
      "तु"
    ],
    [
      "चु",
      "नौ"
    ],
    [
      "अ",
      "हम"
    ],
    [
      "मौ",
      "जू"
    ],
    [
      "बद",
      "ले</w>"
    ],
    [
      "जु",
      "ड़ी</w>"
    ],
    [
      "मूल्या",
      "ंकन</w>"
    ],
    [
      "संगीत",
      "कार</w>"
    ],
    [
      "फिल्",
      "म"
    ],
    [
      "भे",
      "ज"
    ],
    [
      "स्ट",
      "िक</w>"
    ],
    [
      "दुर्ल",
      "भ</w>"
    ],
    [
      "सर्",
      "वे"
    ],
    [
      "या",
      "त्री</w>"
    ],
    [
      "च्",
      "छ</w>"
    ],
    [
      "निय",
      "र</w>"
    ],
    [
      "उच्",
      "च"
    ],
    [
      "त",
      "रा"
    ],
    [
      "व",
      "री,</w>"
    ],
    [
      "सु",
      "पर"
    ],
    [
      "बा",
      "स्के"
    ],
    [
      "औरंग",
      "जेब</w>"
    ],
    [
      "क",
      "ू</w>"
    ],
    [
      "शक्ति",
      "शाली</w>"
    ],
    [
      "उपा",
      "धि</w>"
    ],
    [
      "उस",
      "में</w>"
    ],
    [
      "अ",
      "सम"
    ],
    [
      "त",
      "त्व</w>"
    ],
    [
      "बच",
      "ने</w>"
    ],
    [
      "ंड",
      "े</w>"
    ],
    [
      "य",
      "नों</w>"
    ],
    [
      "प्रति",
      "बंध</w>"
    ],
    [
      "बार",
      "-"
    ],
    [
      "सलाह",
      "कार</w>"
    ],
    [
      "लं",
      "बाई</w>"
    ],
    [
      "त्",
      "कार</w>"
    ],
    [
      "रे",
      "डियो</w>"
    ],
    [
      "शे",
      "यर</w>"
    ],
    [
      "अग",
      "ली</w>"
    ],
    [
      "ब्",
      "लि"
    ],
    [
      "यू",
      ".एस"
    ],
    [
      "सं",
      "रचना</w>"
    ],
    [
      "संस्",
      "कार</w>"
    ],
    [
      "क्",
      "वा"
    ],
    [
      "गुज",
      "र"
    ],
    [
      "सू",
      "च"
    ],
    [
      "गा",
      "या</w>"
    ],
    [
      "डि",
      "जि"
    ],
    [
      "पि",
      "ंग</w>"
    ],
    [
      "फ़िल्",
      "म</w>"
    ],
    [
      "मनुष",
      "्यों</w>"
    ],
    [
      "ग",
      "ढ़"
    ],
    [
      "है",
      "दरा"
    ],
    [
      "म्",
      "बे</w>"
    ],
    [
      "वि",
      "न</w>"
    ],
    [
      "च",
      "ंद्र</w>"
    ],
    [
      "इक",
      "ट्"
    ],
    [
      "क्",
      "लाइ"
    ],
    [
      "का",
      "ने</w>"
    ],
    [
      "प",
      "थ</w>"
    ],
    [
      "वन",
      "स्प"
    ],
    [
      "मेघा",
      "लय</w>"
    ],
    [
      "बना",
      "ता</w>"
    ],
    [
      "स्",
      "की</w>"
    ],
    [
      "एन",
      ".</w>"
    ],
    [
      "ड",
      "च</w>"
    ],
    [
      "उ",
      "र्"
    ],
    [
      "मु",
      "हम्मद</w>"
    ],
    [
      "मी",
      ",</w>"
    ],
    [
      "न",
      "वी"
    ],
    [
      "इला",
      "कों</w>"
    ],
    [
      "जंग",
      "ल</w>"
    ],
    [
      "पे",
      "ड़</w>"
    ],
    [
      "क्",
      "वी"
    ],
    [
      "नृ",
      "त्य"
    ],
    [
      "चल",
      "चित्र</w>"
    ],
    [
      "पे",
      "ं"
    ],
    [
      "अधि",
      "नियम</w>"
    ],
    [
      "वि",
      "लिय"
    ],
    [
      "फ़",
      "ि"
    ],
    [
      "मनोरं",
      "जन</w>"
    ],
    [
      "घा",
      "ट</w>"
    ],
    [
      ".के",
      ".</w>"
    ],
    [
      "मना",
      "ते</w>"
    ],
    [
      "रे",
      "स्त"
    ],
    [
      "रेस्त",
      "रा"
    ],
    [
      "सु",
      "विधा</w>"
    ],
    [
      "ज्",
      "वर</w>"
    ],
    [
      "सं",
      "दे"
    ],
    [
      "तै",
      "य"
    ],
    [
      "गा",
      "र</w>"
    ],
    [
      "च",
      "तु"
    ],
    [
      "डा",
      "य"
    ],
    [
      "क्",
      "का"
    ],
    [
      "ह",
      ",</w>"
    ],
    [
      "रु",
      "द्ध</w>"
    ],
    [
      "तट",
      "ीय</w>"
    ],
    [
      "सम्मे",
      "लन</w>"
    ],
    [
      "टू",
      "ट</w>"
    ],
    [
      "आखि",
      "र"
    ],
    [
      "बार-",
      "बार</w>"
    ],
    [
      "अधी",
      "न</w>"
    ],
    [
      "बता",
      "ते</w>"
    ],
    [
      "च",
      "ंद</w>"
    ],
    [
      "न",
      "स</w>"
    ],
    [
      "रक्त",
      "स्रा"
    ],
    [
      "बि",
      "न</w>"
    ],
    [
      "ने",
      "-"
    ],
    [
      "वृत्",
      "त</w>"
    ],
    [
      "कु",
      "श्"
    ],
    [
      "अमरी",
      "की</w>"
    ],
    [
      "पै",
      "रा"
    ],
    [
      "बेल्ज",
      "ियम</w>"
    ],
    [
      "मार्",
      "ग"
    ],
    [
      "गी",
      ",</w>"
    ],
    [
      "वर्ण",
      "ित</w>"
    ],
    [
      "ब",
      "ल"
    ],
    [
      "पु",
      "ल"
    ],
    [
      "नारा",
      "यण</w>"
    ],
    [
      "च",
      "रि"
    ],
    [
      "प्रे",
      "म</w>"
    ],
    [
      "खा",
      "ली</w>"
    ],
    [
      "गति",
      "विधि</w>"
    ],
    [
      "वा",
      "सी</w>"
    ],
    [
      "गि",
      "राव"
    ],
    [
      "बल्",
      "ले"
    ],
    [
      "अर्",
      "ध"
    ],
    [
      "फे",
      "यर</w>"
    ],
    [
      "रिकॉ",
      "र्"
    ],
    [
      "भे",
      "ज</w>"
    ],
    [
      "3",
      "00</w>"
    ],
    [
      "स",
      "ारी</w>"
    ],
    [
      "वो",
      "त्तर</w>"
    ],
    [
      "तीस",
      "रा</w>"
    ],
    [
      "ल",
      "घु</w>"
    ],
    [
      "दर्शा",
      "ता</w>"
    ],
    [
      "प्री",
      "म"
    ],
    [
      "य",
      "ंत्र</w>"
    ],
    [
      "पं",
      "चा"
    ],
    [
      "रू",
      "स</w>"
    ],
    [
      "इ",
      "ड</w>"
    ],
    [
      "र",
      "म"
    ],
    [
      "श्",
      "वे"
    ],
    [
      "प्रत्य",
      "क्ष</w>"
    ],
    [
      "कु",
      "ं"
    ],
    [
      "ं",
      "ति"
    ],
    [
      "जा",
      "त</w>"
    ],
    [
      "फ",
      "र</w>"
    ],
    [
      "वाप",
      "सी</w>"
    ],
    [
      "वि",
      "मान</w>"
    ],
    [
      "परंपरा",
      "ओं</w>"
    ],
    [
      "विधा",
      "न"
    ],
    [
      "ग",
      "े</w>"
    ],
    [
      "थ",
      "न</w>"
    ],
    [
      "द",
      "-"
    ],
    [
      "रक्ष",
      "ात्मक</w>"
    ],
    [
      "न",
      "कार"
    ],
    [
      "मा",
      ",</w>"
    ],
    [
      "विशेष",
      "ता</w>"
    ],
    [
      "बि",
      "ल"
    ],
    [
      "शा",
      "म</w>"
    ],
    [
      "सं",
      "पा"
    ],
    [
      "199",
      "7</w>"
    ],
    [
      "ज",
      "ें</w>"
    ],
    [
      "डिजि",
      "टल</w>"
    ],
    [
      "ऑ",
      "क्"
    ],
    [
      "एल",
      ".</w>"
    ],
    [
      "क्रो",
      "स</w>"
    ],
    [
      "दी",
      "र्"
    ],
    [
      "रु",
      "चि</w>"
    ],
    [
      "तैय",
      "ारी</w>"
    ],
    [
      "मे",
      "ं।</w>"
    ],
    [
      "डॉ",
      "क्टर</w>"
    ],
    [
      "मि",
      "स्"
    ],
    [
      "दी",
      "दा</w>"
    ],
    [
      "छो",
      "ड़ने</w>"
    ],
    [
      "ध",
      "म"
    ],
    [
      "आं",
      "ध्र</w>"
    ],
    [
      "द्",
      "वार</w>"
    ],
    [
      "लोकप्र",
      "ियता</w>"
    ],
    [
      "मु",
      "क्"
    ],
    [
      "अनु",
      "बंध</w>"
    ],
    [
      "वितर",
      "ण</w>"
    ],
    [
      "स्ना",
      "तक</w>"
    ],
    [
      "शा",
      "खा</w>"
    ],
    [
      "र",
      "ज"
    ],
    [
      "वार",
      "िक</w>"
    ],
    [
      "अ",
      "ंग"
    ],
    [
      "सा",
      "ध"
    ],
    [
      "दे",
      "र</w>"
    ],
    [
      "आस",
      "-"
    ],
    [
      "का",
      "ली</w>"
    ],
    [
      "पहुँ",
      "चने</w>"
    ],
    [
      "अ",
      "स्थायी</w>"
    ],
    [
      "ंग्",
      "स</w>"
    ],
    [
      "ते",
      "ल"
    ],
    [
      "देख",
      "ी</w>"
    ],
    [
      "द्वी",
      "पों</w>"
    ],
    [
      "प्रो",
      "टीन</w>"
    ],
    [
      "हो",
      "मा</w>"
    ],
    [
      "उपयोग",
      "ी</w>"
    ],
    [
      "विस्त",
      "ृत</w>"
    ],
    [
      "बद",
      "लकर</w>"
    ],
    [
      "बेह",
      "द</w>"
    ],
    [
      "यु",
      "द्ध"
    ],
    [
      "हृ",
      "दय</w>"
    ],
    [
      "रा",
      "य</w>"
    ],
    [
      "बंगा",
      "ली</w>"
    ],
    [
      "ब्रा",
      "ंड</w>"
    ],
    [
      "कि",
      "क</w>"
    ],
    [
      "ब",
      "ू</w>"
    ],
    [
      "ला",
      "ना</w>"
    ],
    [
      "सिं",
      "धु</w>"
    ],
    [
      "गु",
      "ना</w>"
    ],
    [
      "सम",
      "य,</w>"
    ],
    [
      "बढ़",
      "ती</w>"
    ],
    [
      "सड़",
      "कों</w>"
    ],
    [
      "ी",
      "-"
    ],
    [
      "क",
      "पड़"
    ],
    [
      "रख",
      "ता</w>"
    ],
    [
      "देश",
      "क</w>"
    ],
    [
      "पूर्",
      "वोत्तर</w>"
    ],
    [
      "थो",
      "ड़ा</w>"
    ],
    [
      "से",
      "क"
    ],
    [
      "करे",
      "ं,</w>"
    ],
    [
      "का",
      "ना</w>"
    ],
    [
      "199",
      "3</w>"
    ],
    [
      "प्रया",
      "सों</w>"
    ],
    [
      "आं",
      "तरिक</w>"
    ],
    [
      "सफ",
      "लता"
    ],
    [
      "रात्रि",
      "</w>"
    ],
    [
      "भे",
      "जा</w>"
    ],
    [
      "देव",
      "ताओं</w>"
    ],
    [
      "गिराव",
      "ट</w>"
    ],
    [
      "हम",
      "ारी</w>"
    ],
    [
      "भा",
      "र</w>"
    ],
    [
      "3",
      ","
    ],
    [
      "बद",
      "लने</w>"
    ],
    [
      "\"",
      ",</w>"
    ],
    [
      "पा",
      "ँ"
    ],
    [
      "चु",
      "न"
    ],
    [
      "अधिक",
      "तर</w>"
    ],
    [
      "कह",
      "ता</w>"
    ],
    [
      "वै",
      "श्विक</w>"
    ],
    [
      "स्टू",
      "डियो</w>"
    ],
    [
      "लै",
      "ंग"
    ],
    [
      "निवा",
      "सी</w>"
    ],
    [
      "बास्के",
      "टबॉल</w>"
    ],
    [
      "पोर्",
      "ट्स</w>"
    ],
    [
      "डे",
      "मो"
    ],
    [
      "बै",
      "ं"
    ],
    [
      "को",
      "रिया</w>"
    ],
    [
      "गर्",
      "मियों</w>"
    ],
    [
      "संदे",
      "ह</w>"
    ],
    [
      "प",
      "त्र"
    ],
    [
      "च",
      "लित</w>"
    ],
    [
      "परिवर्",
      "तित</w>"
    ],
    [
      "लो",
      "र</w>"
    ],
    [
      "सटी",
      "क</w>"
    ],
    [
      "भी",
      "म</w>"
    ],
    [
      "199",
      "4</w>"
    ],
    [
      "मु",
      "ग"
    ],
    [
      "प",
      "ल्ल"
    ],
    [
      "प्रा",
      "य"
    ],
    [
      "निवा",
      "सियों</w>"
    ],
    [
      "प्रोत्सा",
      "हित</w>"
    ],
    [
      "ला",
      "स</w>"
    ],
    [
      "सर्वे",
      "क्षण</w>"
    ],
    [
      "सा",
      "फ</w>"
    ],
    [
      "भी",
      "ड़</w>"
    ],
    [
      "पारि",
      "वारिक</w>"
    ],
    [
      "जि",
      "तना</w>"
    ],
    [
      "मिश्र",
      "ित</w>"
    ],
    [
      "फ",
      "सल</w>"
    ],
    [
      "चट्टा",
      "न</w>"
    ],
    [
      "हिंद",
      "ुओं</w>"
    ],
    [
      "शि",
      "कार</w>"
    ],
    [
      "व",
      "ली</w>"
    ],
    [
      "जाए",
      "गी।</w>"
    ],
    [
      "इस",
      "े"
    ],
    [
      "ची",
      "ज़"
    ],
    [
      "य",
      "क्ष"
    ],
    [
      "मुद्र",
      "ा</w>"
    ],
    [
      "डे",
      "वि"
    ],
    [
      "उप",
      "वास</w>"
    ],
    [
      "जो",
      "ड़ा</w>"
    ],
    [
      "रिय",
      "ो</w>"
    ],
    [
      "मै",
      "सूर</w>"
    ],
    [
      "स",
      "त्ता</w>"
    ],
    [
      "विवा",
      "द</w>"
    ],
    [
      "तारी",
      "ख</w>"
    ],
    [
      "भ",
      "री</w>"
    ],
    [
      "सल्",
      "त"
    ],
    [
      "पसं",
      "दीदा</w>"
    ],
    [
      "ु",
      "क</w>"
    ],
    [
      "थ",
      "ियों</w>"
    ],
    [
      "7",
      "5</w>"
    ],
    [
      "श्री",
      "लं"
    ],
    [
      "तरी",
      "कों</w>"
    ],
    [
      "ला",
      "य"
    ],
    [
      "पु",
      "रम</w>"
    ],
    [
      "सो",
      "म"
    ],
    [
      "च",
      "ंडी"
    ],
    [
      "मौ",
      "र्य</w>"
    ],
    [
      "वि",
      "रोधी</w>"
    ],
    [
      "क्सि",
      "को</w>"
    ],
    [
      "बढ़",
      "ा</w>"
    ],
    [
      "ह",
      "फ्"
    ],
    [
      "बर्",
      "ट</w>"
    ],
    [
      "आ",
      "वे"
    ],
    [
      "लॉ",
      "स</w>"
    ],
    [
      "तेल",
      "ंगा"
    ],
    [
      "बन",
      "ता</w>"
    ],
    [
      "हा",
      "उस</w>"
    ],
    [
      "आ",
      "नु"
    ],
    [
      "प्रो",
      "ग्रा"
    ],
    [
      "सू",
      "अ"
    ],
    [
      "ग्र",
      "हण</w>"
    ],
    [
      "लग",
      "ती</w>"
    ],
    [
      "नि",
      "गम</w>"
    ],
    [
      "रा",
      ",</w>"
    ],
    [
      "शिवा",
      "जी</w>"
    ],
    [
      "जा",
      "ए</w>"
    ],
    [
      "ख",
      "त्म</w>"
    ],
    [
      "ध",
      "ारा</w>"
    ],
    [
      "प",
      "त्रि"
    ],
    [
      "ने",
      "ताओं</w>"
    ],
    [
      "िया",
      "ँ,</w>"
    ],
    [
      "स",
      "प"
    ],
    [
      "फिल्म",
      "फेयर</w>"
    ],
    [
      "प",
      "ठा"
    ],
    [
      "मार्",
      "क</w>"
    ],
    [
      "रास्",
      "ते</w>"
    ],
    [
      "बंद",
      "ू"
    ],
    [
      "खर्",
      "चों</w>"
    ],
    [
      "ण",
      "ीय</w>"
    ],
    [
      "पा",
      "य"
    ],
    [
      "लग",
      "ने</w>"
    ],
    [
      "व्य",
      "ंजन</w>"
    ],
    [
      "सें",
      "टर</w>"
    ],
    [
      "अभयारण",
      "्य</w>"
    ],
    [
      "जल",
      "प्र"
    ],
    [
      "ज",
      "क</w>"
    ],
    [
      "ले",
      "न</w>"
    ],
    [
      "चेता",
      "वनी</w>"
    ],
    [
      "ले",
      "षण</w>"
    ],
    [
      "चै",
      "नल</w>"
    ],
    [
      "उपयोग",
      "कर्ता</w>"
    ],
    [
      "अ",
      "सफल</w>"
    ],
    [
      "पा",
      "ठ</w>"
    ],
    [
      "मुसल",
      "मानों</w>"
    ],
    [
      "वा",
      "णी</w>"
    ],
    [
      "जो",
      "ड़ी</w>"
    ],
    [
      "इस्ला",
      "मी</w>"
    ],
    [
      "म",
      "ल्"
    ],
    [
      "मा",
      "यू"
    ],
    [
      "पु",
      "ण"
    ],
    [
      "सह",
      "योग"
    ],
    [
      "4",
      "0"
    ],
    [
      "ृ",
      "ह</w>"
    ],
    [
      "हिं",
      "सा</w>"
    ],
    [
      "लिख",
      "ी</w>"
    ],
    [
      "वा",
      "हि"
    ],
    [
      "8",
      "5</w>"
    ],
    [
      "अपे",
      "क्षा"
    ],
    [
      "दुल्",
      "हन</w>"
    ],
    [
      "सा",
      "द</w>"
    ],
    [
      "किंग",
      "डम</w>"
    ],
    [
      "चढ़",
      "ाई</w>"
    ],
    [
      "ग्र",
      "ु"
    ],
    [
      "नि",
      "देशक</w>"
    ],
    [
      "कना",
      "डा"
    ],
    [
      "्या",
      "त्"
    ],
    [
      "त",
      "ियां</w>"
    ],
    [
      "तेलंगा",
      "ना</w>"
    ],
    [
      "ल",
      "ियाँ</w>"
    ],
    [
      "सेक",
      "ंड</w>"
    ],
    [
      "20",
      "वीं</w>"
    ],
    [
      "ई",
      "स्टर</w>"
    ],
    [
      "दुर्",
      "घटना</w>"
    ],
    [
      "रोग",
      "ियों</w>"
    ],
    [
      "स्",
      "कै"
    ],
    [
      "टर्",
      "नर</w>"
    ],
    [
      "दीर्",
      "घ"
    ],
    [
      "सफलता",
      "पूर्वक</w>"
    ],
    [
      "पक",
      "ड़</w>"
    ],
    [
      "ह",
      "ियों</w>"
    ],
    [
      "नि",
      "स</w>"
    ],
    [
      "ढू",
      "ं"
    ],
    [
      "जा",
      "ग"
    ],
    [
      "वा",
      "ह</w>"
    ],
    [
      "म",
      "ती</w>"
    ],
    [
      "मलया",
      "लम</w>"
    ],
    [
      "भ",
      "रा</w>"
    ],
    [
      "स्ट",
      "्रो"
    ],
    [
      "वै",
      "ष्ण"
    ],
    [
      "फ्र",
      "ै"
    ],
    [
      "पं",
      "जी"
    ],
    [
      "कै",
      "लेंडर</w>"
    ],
    [
      "स",
      "के</w>"
    ],
    [
      "टि",
      "व</w>"
    ],
    [
      "चा",
      "लक</w>"
    ],
    [
      "द",
      "्रा"
    ],
    [
      "सं",
      "शो"
    ],
    [
      "विविध",
      "ता</w>"
    ],
    [
      "छ",
      "त्"
    ],
    [
      "आध",
      "्यात्"
    ],
    [
      "रो",
      "मन</w>"
    ],
    [
      "इ",
      "टली</w>"
    ],
    [
      "ॉ",
      "ल</w>"
    ],
    [
      "मांस",
      "पेश"
    ],
    [
      "कि",
      "तनी</w>"
    ],
    [
      "इं",
      "त"
    ],
    [
      "ए",
      "म्"
    ],
    [
      "स्टॉ",
      "क</w>"
    ],
    [
      "डेमो",
      "क्रे"
    ],
    [
      "लै",
      "क्रोस</w>"
    ],
    [
      "शी",
      "तकालीन</w>"
    ],
    [
      "कू",
      "ल</w>"
    ],
    [
      "ज",
      "मीन</w>"
    ],
    [
      "प्रो",
      "फे"
    ],
    [
      "किशो",
      "र</w>"
    ],
    [
      "मा",
      "नी</w>"
    ],
    [
      "चौ",
      "थे</w>"
    ],
    [
      "म",
      "ना</w>"
    ],
    [
      "कु",
      "त्"
    ],
    [
      "स",
      "-"
    ],
    [
      "क्र",
      "ी"
    ],
    [
      "सर",
      "ल</w>"
    ],
    [
      "अस्",
      "ति"
    ],
    [
      "स्पे",
      "न</w>"
    ],
    [
      "प्रबंध",
      "क</w>"
    ],
    [
      "शै",
      "लियों</w>"
    ],
    [
      "जै",
      "से-"
    ],
    [
      "वा",
      "ँ</w>"
    ],
    [
      "विद्याल",
      "यों</w>"
    ],
    [
      "ना",
      "र</w>"
    ],
    [
      "ध",
      "्र"
    ],
    [
      "प्र",
      "धान</w>"
    ],
    [
      "औ",
      "द्यो"
    ],
    [
      "ग",
      "िक</w>"
    ],
    [
      "स्मार",
      "क</w>"
    ],
    [
      "अ",
      "ल</w>"
    ],
    [
      "ब",
      "ड़ी</w>"
    ],
    [
      "बी",
      ".</w>"
    ],
    [
      "ले",
      "स</w>"
    ],
    [
      "ब्र",
      "ह्म"
    ],
    [
      "प्रजा",
      "तियों</w>"
    ],
    [
      "महिला",
      "एँ</w>"
    ],
    [
      "ंब",
      "र,</w>"
    ],
    [
      "रवि",
      "वार</w>"
    ],
    [
      "सिं",
      "हासन</w>"
    ],
    [
      "ंस",
      "क</w>"
    ],
    [
      "टी",
      "वी</w>"
    ],
    [
      "स",
      "वार</w>"
    ],
    [
      "पौ",
      "रा"
    ],
    [
      "पौरा",
      "णिक</w>"
    ],
    [
      "ब",
      "र,</w>"
    ],
    [
      "त्",
      "त"
    ],
    [
      "र्",
      "ती</w>"
    ],
    [
      "बा",
      "ज</w>"
    ],
    [
      "को",
      "य"
    ],
    [
      "वि",
      "क्"
    ],
    [
      "जैसे-",
      "जैसे</w>"
    ],
    [
      "क्र",
      "ू"
    ],
    [
      "भा",
      "गी"
    ],
    [
      "स",
      "ो</w>"
    ],
    [
      "त",
      ":</w>"
    ],
    [
      "सर्",
      "विस</w>"
    ],
    [
      "वि",
      "लय</w>"
    ],
    [
      "निका",
      "य</w>"
    ],
    [
      "ग",
      "ज</w>"
    ],
    [
      "भूमि",
      "काओं</w>"
    ],
    [
      "पक",
      "ड़ने</w>"
    ],
    [
      "सो",
      "सिए"
    ],
    [
      "तुल",
      "सी</w>"
    ],
    [
      "ब्",
      "लॉ"
    ],
    [
      "मा",
      "ंस</w>"
    ],
    [
      "टे",
      "न"
    ],
    [
      "त्रि",
      "पुरा</w>"
    ],
    [
      "टी",
      "का"
    ],
    [
      "जीवा",
      "णु</w>"
    ],
    [
      "ज़ा",
      "र</w>"
    ],
    [
      "डॉ",
      "ल"
    ],
    [
      "अर्",
      "जें"
    ],
    [
      "गुफा",
      "ओं</w>"
    ],
    [
      "हैदरा",
      "बाद</w>"
    ],
    [
      "म",
      "सा"
    ],
    [
      "ा",
      ",</w>"
    ],
    [
      "मना",
      "ने</w>"
    ],
    [
      "सु",
      "ंद"
    ],
    [
      "म्",
      "</w>"
    ],
    [
      "ध",
      "र</w>"
    ],
    [
      "व",
      "ो</w>"
    ],
    [
      "संग्रहा",
      "लय</w>"
    ],
    [
      "ग्रं",
      "थ</w>"
    ],
    [
      "रह",
      "ना</w>"
    ],
    [
      "आध",
      "े</w>"
    ],
    [
      "हु",
      "ई"
    ],
    [
      "धार",
      "णा</w>"
    ],
    [
      "चु",
      "की</w>"
    ],
    [
      "भा",
      "वना</w>"
    ],
    [
      "स्वि",
      "ट्"
    ],
    [
      "सिं",
      "चाई</w>"
    ],
    [
      "विस्",
      "फो"
    ],
    [
      "कुश्",
      "ती</w>"
    ],
    [
      "फ",
      "स"
    ],
    [
      "निक",
      "ट"
    ],
    [
      "रो",
      "ड</w>"
    ],
    [
      "त",
      "भी</w>"
    ],
    [
      "तु",
      "म"
    ],
    [
      "बता",
      "ता</w>"
    ],
    [
      "भा",
      "गों</w>"
    ],
    [
      "टी",
      ".</w>"
    ],
    [
      "अर्जें",
      "टी"
    ],
    [
      "त",
      "कों</w>"
    ],
    [
      "दृष्टि",
      "कोण</w>"
    ],
    [
      "दे",
      "री</w>"
    ],
    [
      "हा",
      "ई</w>"
    ],
    [
      "म",
      "हो"
    ],
    [
      "त्",
      "सव</w>"
    ],
    [
      "किं",
      "व"
    ],
    [
      "किंव",
      "दं"
    ],
    [
      "लग",
      "े।</w>"
    ],
    [
      "मौजू",
      "दा</w>"
    ],
    [
      "ही",
      ",</w>"
    ],
    [
      "वा",
      "नों</w>"
    ],
    [
      "आ",
      "दमी</w>"
    ],
    [
      "पक्ष",
      "ी</w>"
    ],
    [
      "तो",
      "ड़</w>"
    ],
    [
      "ए",
      "का"
    ],
    [
      "बा",
      "न</w>"
    ],
    [
      "शल",
      "्य</w>"
    ],
    [
      "अव",
      "ै"
    ],
    [
      "गो",
      "ली</w>"
    ],
    [
      "ता",
      "त्"
    ],
    [
      "आस-",
      "पास</w>"
    ],
    [
      "प्",
      "ले</w>"
    ],
    [
      "कोशि",
      "का</w>"
    ],
    [
      "न्या",
      "या"
    ],
    [
      "स",
      "िया</w>"
    ],
    [
      "विज",
      "य"
    ],
    [
      "नि",
      "को"
    ],
    [
      "टेक्",
      "सास</w>"
    ],
    [
      "रू",
      "सी</w>"
    ],
    [
      "ब्रा",
      "जी"
    ],
    [
      "गा",
      "वस्"
    ],
    [
      "गावस्",
      "कर</w>"
    ],
    [
      "वकी",
      "ल</w>"
    ],
    [
      "मौ",
      "का</w>"
    ],
    [
      "द",
      "क्कन</w>"
    ],
    [
      "कप्",
      "तान</w>"
    ],
    [
      "बरा",
      "बरी</w>"
    ],
    [
      "3",
      "-"
    ],
    [
      "म",
      "्र"
    ],
    [
      "ग्",
      "र</w>"
    ],
    [
      "ंग",
      "ी।</w>"
    ],
    [
      "क",
      "व"
    ],
    [
      "ति",
      "ब्ब"
    ],
    [
      "कन्न",
      "ड़</w>"
    ],
    [
      "सं",
      "क्षि"
    ],
    [
      "नाग",
      "रि"
    ],
    [
      "शि",
      "वि"
    ],
    [
      "ट्र",
      "ी</w>"
    ],
    [
      "सह",
      "-"
    ],
    [
      "वे",
      "ल</w>"
    ],
    [
      "मा",
      "या</w>"
    ],
    [
      "4",
      "00</w>"
    ],
    [
      "आ",
      "श्र"
    ],
    [
      "ब",
      "ारा</w>"
    ],
    [
      "प्रशिक्ष",
      "क</w>"
    ],
    [
      "अनु",
      "सं"
    ],
    [
      "द",
      "वा"
    ],
    [
      "फ्",
      "ट</w>"
    ],
    [
      "ए",
      "ँ,</w>"
    ],
    [
      "संघ",
      "ीय</w>"
    ],
    [
      "उत्तरा",
      "खंड</w>"
    ],
    [
      "हो",
      "म</w>"
    ],
    [
      "पहुँ",
      "च"
    ],
    [
      "रॉ",
      "क</w>"
    ],
    [
      "पे",
      "न"
    ],
    [
      "गर्",
      "मी</w>"
    ],
    [
      "इं",
      "स्टा"
    ],
    [
      "कब",
      "ड्डी</w>"
    ],
    [
      "भ",
      "ले</w>"
    ],
    [
      "रि",
      "प"
    ],
    [
      "द्",
      "दीन</w>"
    ],
    [
      "फिल्",
      "में</w>"
    ],
    [
      "सा",
      "धारण</w>"
    ],
    [
      "ग्रे",
      "ट</w>"
    ],
    [
      "अ",
      "सामान्य</w>"
    ],
    [
      "इकट्",
      "ठा</w>"
    ],
    [
      "इस्ला",
      "म</w>"
    ],
    [
      "मि",
      "ली"
    ],
    [
      "एक",
      "त्र</w>"
    ],
    [
      "गठ",
      "बंधन</w>"
    ],
    [
      "कि",
      "रदार</w>"
    ],
    [
      "ब",
      "्यू"
    ],
    [
      "चंडी",
      "गढ़</w>"
    ],
    [
      "ढूं",
      "ढ"
    ],
    [
      "संस्थाप",
      "क</w>"
    ],
    [
      "क्षे",
      "प</w>"
    ],
    [
      "पढ़",
      "ाई</w>"
    ],
    [
      "क",
      "स</w>"
    ],
    [
      "मान",
      "सिक</w>"
    ],
    [
      "कह",
      "ा।</w>"
    ],
    [
      "बु",
      "री</w>"
    ],
    [
      "निम्",
      "न"
    ],
    [
      "199",
      "1</w>"
    ],
    [
      "को",
      "लंब"
    ],
    [
      "दि",
      "मा"
    ],
    [
      "दू",
      "र"
    ],
    [
      "ह",
      "ल</w>"
    ],
    [
      "ंट",
      "न</w>"
    ],
    [
      "लैंड",
      ",</w>"
    ],
    [
      "प्",
      "त"
    ],
    [
      "थ",
      "्र"
    ],
    [
      "इंडो",
      "नेश"
    ],
    [
      "त",
      "पे"
    ],
    [
      "क",
      ")</w>"
    ],
    [
      "प्",
      "ति</w>"
    ],
    [
      "मुद्",
      "दों</w>"
    ],
    [
      "पड़ो",
      "सी</w>"
    ],
    [
      "आलोच",
      "कों</w>"
    ],
    [
      "म",
      "क्"
    ],
    [
      "व्यव",
      "स्थित</w>"
    ],
    [
      "हु",
      "ई,</w>"
    ],
    [
      "बंदरगा",
      "ह</w>"
    ],
    [
      "कै",
      "थो"
    ],
    [
      "क",
      "ठ"
    ],
    [
      "197",
      "9</w>"
    ],
    [
      "हैं",
      ";</w>"
    ],
    [
      "शीर्",
      "षक</w>"
    ],
    [
      "जटि",
      "ल</w>"
    ],
    [
      "मु",
      "फ्"
    ],
    [
      "ह",
      "जारों</w>"
    ],
    [
      "रा",
      "ल</w>"
    ],
    [
      "म",
      "स</w>"
    ],
    [
      "क",
      "क्ष</w>"
    ],
    [
      "पुरस्",
      "कारों</w>"
    ],
    [
      "विधान",
      "सभा</w>"
    ],
    [
      "प",
      "न"
    ],
    [
      "2",
      "."
    ],
    [
      "को",
      "च</w>"
    ],
    [
      "व",
      "जन</w>"
    ],
    [
      "्य",
      "ार"
    ],
    [
      "मु",
      "ँ"
    ],
    [
      "अनुसं",
      "धान</w>"
    ],
    [
      "प्रीम",
      "ियर</w>"
    ],
    [
      "पृष्ठ",
      "भूमि</w>"
    ],
    [
      "प",
      "शु</w>"
    ],
    [
      "पो",
      "स्ट</w>"
    ],
    [
      "रख",
      "ें</w>"
    ],
    [
      "क्ष",
      "्"
    ],
    [
      "पे",
      "रिस</w>"
    ],
    [
      "न",
      "शील</w>"
    ],
    [
      "इ",
      "ट</w>"
    ],
    [
      "पी",
      "डिया</w>"
    ],
    [
      "ंद",
      "ु"
    ],
    [
      "वित्",
      "त</w>"
    ],
    [
      "निभा",
      "ई।</w>"
    ],
    [
      "198",
      "7</w>"
    ],
    [
      "विपरी",
      "त,</w>"
    ],
    [
      "रा",
      "य"
    ],
    [
      "जॉर्",
      "ज</w>"
    ],
    [
      "ढ़",
      "ी</w>"
    ],
    [
      "परिव",
      "ारों</w>"
    ],
    [
      "हो",
      "नी</w>"
    ],
    [
      "हरिया",
      "णा</w>"
    ],
    [
      "संक्षि",
      "प्त</w>"
    ],
    [
      "अस्ति",
      "त्व</w>"
    ],
    [
      "प",
      "े</w>"
    ],
    [
      "विरा",
      "सत</w>"
    ],
    [
      "खि",
      "ल</w>"
    ],
    [
      "अके",
      "ले</w>"
    ],
    [
      "ख",
      "ड़े</w>"
    ],
    [
      "इमार",
      "त</w>"
    ],
    [
      "मेज",
      "बानी</w>"
    ],
    [
      "ते",
      ",</w>"
    ],
    [
      "ने",
      "स</w>"
    ],
    [
      "छोड़",
      "कर</w>"
    ],
    [
      "खा",
      "स</w>"
    ],
    [
      "अं",
      "कों</w>"
    ],
    [
      "स्ट्र",
      "ा</w>"
    ],
    [
      "र",
      "खें।</w>"
    ],
    [
      "र",
      "स</w>"
    ],
    [
      "मॉ",
      "ड"
    ],
    [
      "टीका",
      "करण</w>"
    ],
    [
      "बे",
      "सिन</w>"
    ],
    [
      "टी",
      "में</w>"
    ],
    [
      "तुम्",
      "हें</w>"
    ],
    [
      "प्र",
      "था</w>"
    ],
    [
      "सल्त",
      "नत</w>"
    ],
    [
      "6",
      "4</w>"
    ],
    [
      "निर्",
      "णा"
    ],
    [
      "नि",
      "वे"
    ],
    [
      "न",
      "ज"
    ],
    [
      "अपेक्षा",
      "कृत</w>"
    ],
    [
      "नी",
      "दर"
    ],
    [
      "भार",
      "ती"
    ],
    [
      "कल्प",
      "ना</w>"
    ],
    [
      "त",
      "त्व"
    ],
    [
      "ची",
      "जों</w>"
    ],
    [
      "ज़",
      "्"
    ],
    [
      "ज",
      "म्म"
    ],
    [
      "या",
      "म</w>"
    ],
    [
      "झ",
      "ी"
    ],
    [
      "ब्र",
      "ो"
    ],
    [
      "इं",
      "जन</w>"
    ],
    [
      "वे",
      "ब</w>"
    ],
    [
      "बृह",
      "दा"
    ],
    [
      "ंड",
      "ों</w>"
    ],
    [
      "4",
      ","
    ],
    [
      "बो",
      "र्"
    ],
    [
      "महा",
      "विद्यालय</w>"
    ],
    [
      "सचि",
      "व</w>"
    ],
    [
      "पु",
      "ल</w>"
    ],
    [
      "चु",
      "ना"
    ],
    [
      "राजनी",
      "ति</w>"
    ],
    [
      "मुग",
      "लों</w>"
    ],
    [
      "आ",
      "मंत्र"
    ],
    [
      "व",
      "ही</w>"
    ],
    [
      "कार",
      "्र"
    ],
    [
      "198",
      "4</w>"
    ],
    [
      "हिंद",
      "ु"
    ],
    [
      "ज्ञा",
      "न</w>"
    ],
    [
      "नकार",
      "ात्मक</w>"
    ],
    [
      "आ",
      "त"
    ],
    [
      "ं",
      "तर</w>"
    ],
    [
      ".ई",
      ".</w>"
    ],
    [
      "197",
      "1</w>"
    ],
    [
      "हैं",
      "?</w>"
    ],
    [
      "अवै",
      "ध</w>"
    ],
    [
      "ँ",
      "सी</w>"
    ],
    [
      "जॉर्",
      "ज"
    ],
    [
      "कृ",
      "ष्ट</w>"
    ],
    [
      "धार",
      "ा"
    ],
    [
      "लं",
      "घन</w>"
    ],
    [
      "सा",
      "मु"
    ],
    [
      "जम्म",
      "ू</w>"
    ],
    [
      "छत्",
      "तीस"
    ],
    [
      "दि",
      "न,</w>"
    ],
    [
      "थ",
      ",</w>"
    ],
    [
      "परि",
      "भाष"
    ],
    [
      "कि",
      "ता"
    ],
    [
      "िया",
      "ना</w>"
    ],
    [
      "य",
      "ी"
    ],
    [
      "रि",
      "डा</w>"
    ],
    [
      "कां",
      "स्य</w>"
    ],
    [
      "कार्",
      "ट</w>"
    ],
    [
      "जहा",
      "ज</w>"
    ],
    [
      "बॉ",
      "म्बे</w>"
    ],
    [
      "य",
      "म</w>"
    ],
    [
      "प्रशिक्ष",
      "ित</w>"
    ],
    [
      "टु",
      "क"
    ],
    [
      "ण",
      "न</w>"
    ],
    [
      "फु",
      "ट</w>"
    ],
    [
      "भ",
      "र्ती</w>"
    ],
    [
      "उत्",
      "सा"
    ],
    [
      "6",
      "5</w>"
    ],
    [
      "मुफ्",
      "त</w>"
    ],
    [
      "स",
      "ारा</w>"
    ],
    [
      "श",
      "र"
    ],
    [
      "बी",
      "र</w>"
    ],
    [
      "प्रभा",
      "व"
    ],
    [
      "ती",
      "त</w>"
    ],
    [
      "चढ़",
      "ा"
    ],
    [
      "स्ट्र",
      "ी"
    ],
    [
      "पट",
      "कथा</w>"
    ],
    [
      "समुदा",
      "यों</w>"
    ],
    [
      "198",
      "9</w>"
    ],
    [
      "लो",
      "न</w>"
    ],
    [
      "स्",
      "पि"
    ],
    [
      "ए",
      "सोसिए"
    ],
    [
      "बे",
      "च</w>"
    ],
    [
      "बे",
      "ल</w>"
    ],
    [
      "वि",
      "वि"
    ],
    [
      "परिभाष",
      "ित</w>"
    ],
    [
      "निय",
      "ो"
    ],
    [
      "ला",
      "इसे"
    ],
    [
      "साइ",
      "टों</w>"
    ],
    [
      "आनु",
      "वं"
    ],
    [
      "पं",
      "च"
    ],
    [
      "इ",
      "ंग</w>"
    ],
    [
      "ब",
      "टन</w>"
    ],
    [
      "फ़",
      "ो"
    ],
    [
      "ड",
      "र्"
    ],
    [
      "बी",
      "12</w>"
    ],
    [
      "हरा",
      "या।</w>"
    ],
    [
      "पुल",
      "के"
    ],
    [
      "स्क्र",
      "ीन</w>"
    ],
    [
      "ल",
      "ियो"
    ],
    [
      "रे",
      "श"
    ],
    [
      "हु",
      "मायू"
    ],
    [
      "चु",
      "ने</w>"
    ],
    [
      "सर्",
      "व"
    ],
    [
      "5",
      "-"
    ],
    [
      "दोष",
      "ी</w>"
    ],
    [
      "ट",
      "ू</w>"
    ],
    [
      "टा",
      "ई</w>"
    ],
    [
      "नि",
      "काल</w>"
    ],
    [
      "1",
      "1"
    ],
    [
      "ले",
      "ती</w>"
    ],
    [
      "नि",
      "स्तान</w>"
    ],
    [
      "ई",
      "रान</w>"
    ],
    [
      "बढ़",
      "ते</w>"
    ],
    [
      "टि",
      "स</w>"
    ],
    [
      "ज़",
      "र</w>"
    ],
    [
      "आपा",
      "तकालीन</w>"
    ],
    [
      "शिक्ष",
      "क</w>"
    ],
    [
      "गो",
      "ल्"
    ],
    [
      "सि",
      "ल्"
    ],
    [
      "द",
      "ू</w>"
    ],
    [
      "सामु",
      "दा"
    ],
    [
      "सामुदा",
      "यिक</w>"
    ],
    [
      "यहू",
      "दी</w>"
    ],
    [
      "स",
      "च</w>"
    ],
    [
      "198",
      "8</w>"
    ],
    [
      "त्",
      "ती</w>"
    ],
    [
      "सिक्",
      "कों</w>"
    ],
    [
      "आध्यात्",
      "मिक</w>"
    ]
  ],
  "vocab_size": 5000,
  "num_merges": 5000,
  "actual_merges": 5000,
  "vocab": [
    "पत्ति</w>",
    "ंगल</w>",
    "जिन्हें</w>",
    "ओ",
    "धर्म",
    "कू</w>",
    "पर्या",
    "अधिका",
    "जानवरों</w>",
    "संघीय</w>",
    "आधारित</w>",
    "हर्",
    "लक्षणों</w>",
    "द्र</w>",
    "व्य</w>",
    "त,</w>",
    "सभा</w>",
    "थी</w>",
    "नीति</w>",
    "लेता</w>",
    "हिमा",
    "®",
    "ारी</w>",
    "चेन्नई</w>",
    "एं",
    "मिली।</w>",
    "तियां</w>",
    "र्ट</w>",
    "बु",
    "राज",
    "बहा",
    "ग्रीष्मकालीन</w>",
    "बोली</w>",
    "सल्",
    "गुस्सा</w>",
    "पुन",
    "द्दा",
    "सर्वोच्",
    "नु",
    "रं",
    "बी</w>",
    "गुना</w>",
    "गाया</w>",
    "जें",
    "भर्ती</w>",
    "व,</w>",
    "खेले</w>",
    "समी",
    "काउ",
    "5-",
    "है!</w>",
    "ंट",
    "डाल</w>",
    "प्रे",
    "दस</w>",
    "70</w>",
    "विष्णु</w>",
    "हार",
    "प्रधान</w>",
    "भाषाओं</w>",
    "डियम</w>",
    "गुफाओं</w>",
    "निश्",
    "बेसिन</w>",
    "चला",
    "भागी",
    "विय",
    "धीरे</w>",
    "षित</w>",
    "फ्र",
    "जीव</w>",
    "च",
    "तुरंत</w>",
    "ताब</w>",
    "नागरि",
    ".आई",
    "+",
    "रखना</w>",
    "नल</w>",
    "मिल</w>",
    "पूरा</w>",
    "टेलीवि",
    "सर्वश्रे",
    "तथा</w>",
    "आई",
    "उनमें</w>",
    "(",
    "जॉर्",
    "ज़ा",
    "नया</w>",
    "प्रकाश</w>",
    "ये",
    ".मी",
    "17",
    "इस्त",
    "जहाज</w>",
    "लिया</w>",
    "ंगटन</w>",
    "नंबर</w>",
    "ज़ि",
    "सुरक्षा</w>",
    "पृथ",
    "ढू",
    "शेयर</w>",
    "3",
    "नो</w>",
    "कीर्",
    "सार्",
    "क्षेप</w>",
    "जार</w>",
    "साध",
    "ंसक</w>",
    "भविष्य</w>",
    "समझौ",
    "प्रदर्श",
    "64</w>",
    "ली",
    "μ",
    "प्रक्रिया</w>",
    "घरों</w>",
    "बॉक्स</w>",
    "छोड़</w>",
    "गी,</w>",
    "टॉ",
    "महल</w>",
    "मरा",
    "कितनी</w>",
    "लिय",
    "सल</w>",
    "फ़िल्",
    "कैसे</w>",
    "उत्त",
    "अंत",
    "फै",
    "माला</w>",
    "ध्र",
    "नम</w>",
    "बेहतर</w>",
    "शिवि",
    "–",
    "p",
    "स्टे",
    "विधा",
    "सत्ता</w>",
    "दूसरा</w>",
    "छत्",
    "सफलतापूर्वक</w>",
    "शिका",
    "गुप्त</w>",
    "इका",
    "टूट</w>",
    "तपे",
    "ग्रु",
    "अफ्रीका</w>",
    "राजाओं</w>",
    "सुबह</w>",
    "पैसा</w>",
    "राष्ट्र</w>",
    "ध्यान</w>",
    "स्व",
    "हुई।</w>",
    "ट्ट",
    "उद्दीन</w>",
    "<unk>",
    "क्रॉ",
    "दा",
    "र्क</w>",
    ".एफ.</w>",
    "ी।</w>",
    "िका</w>",
    "वें</w>",
    "निर्णय</w>",
    "दिखा",
    "पत्थ",
    "ऊ",
    "मक</w>",
    "सेट</w>",
    "मंदिर</w>",
    "दिल</w>",
    "हू",
    "हालाँकि,</w>",
    "€",
    "शू",
    "त्त</w>",
    "वहाँ</w>",
    "दर",
    "स्था</w>",
    "मुग",
    "त्म</w>",
    "दिख",
    "ళ",
    "उच्",
    "निर्भर</w>",
    "अ",
    "लित</w>",
    "~",
    "पन्न</w>",
    "बाकी</w>",
    "इल</w>",
    "नत</w>",
    "मंड",
    "करा</w>",
    "डियो</w>",
    "है।\"</w>",
    "कारण</w>",
    "नए</w>",
    "पटकथा</w>",
    "संघर्ष</w>",
    "घ</w>",
    "स्वर</w>",
    "लत</w>",
    "महत्व",
    "लद्दा",
    "बेटी</w>",
    "बताता</w>",
    "जक</w>",
    "ंगे।</w>",
    "वादी</w>",
    "खाने</w>",
    "F",
    "म,</w>",
    "आने</w>",
    ".बी",
    "ँ</w>",
    "ईसाई</w>",
    "समृ",
    "दारी</w>",
    "शादी</w>",
    "एक",
    "विरोधी</w>",
    "जापानी</w>",
    "1,",
    "बंधित</w>",
    "कव",
    "പ",
    "फॉ",
    "ंडे",
    "उपस्थिति</w>",
    "इंग</w>",
    "हो",
    "घरे",
    "विन</w>",
    "चाहि",
    "या।</w>",
    "सूचीबद्ध</w>",
    "ंभ</w>",
    "्राष्ट्रीय</w>",
    "सप्ताह</w>",
    "मजबूर</w>",
    "खेलों</w>",
    "निर्दे",
    "फिल्म</w>",
    "चंद</w>",
    "बास्के",
    "स्मारक</w>",
    "ंकि,</w>",
    "हूँ</w>",
    "मानी</w>",
    "यण</w>",
    "ल्टी</w>",
    "वाई</w>",
    "खुद</w>",
    "।\"</w>",
    "अग्",
    "भौ",
    "रखा",
    "अच्छे</w>",
    "ह</w>",
    "षा",
    "भाग</w>",
    "2006</w>",
    "जं",
    "स्को</w>",
    "̺",
    "जॉर्ज</w>",
    "जिसे</w>",
    "कार्ट</w>",
    "बह",
    "ज़ी",
    "दौरान,</w>",
    "मही",
    "यक</w>",
    "चुन",
    "तुलसी</w>",
    "एल",
    "जात</w>",
    "पाल",
    "अकादमी</w>",
    "किता",
    "डो</w>",
    "ित</w>",
    "क्षर</w>",
    "पंजाब</w>",
    "ः",
    "कृष्ट</w>",
    "1987</w>",
    "बाद</w>",
    "क्या</w>",
    "हाथ</w>",
    "किले</w>",
    "भ",
    "अवकाश</w>",
    "कंप",
    "शि",
    "साफ</w>",
    "रण</w>",
    "प्रेर",
    "ले,</w>",
    "आश्र",
    "सिख</w>",
    "टो</w>",
    "धर्",
    ".सी.</w>",
    "रख",
    "पहा",
    "धन</w>",
    "शिक्षा</w>",
    "संस्थान</w>",
    "प्रोत्साहित</w>",
    "भे",
    "|",
    "ंड",
    "ग</w>",
    "6</w>",
    "कर्",
    "खिलाफ</w>",
    "शास",
    "तिम</w>",
    "विरासत</w>",
    "दर्शाता</w>",
    "उनके</w>",
    "लिक</w>",
    "खेती</w>",
    "मिक</w>",
    "ष्णकटिबंधीय</w>",
    "सात</w>",
    "्या</w>",
    "मारी</w>",
    "अधि",
    "इच्छ",
    "स्ट",
    "कॉल</w>",
    "पद</w>",
    "गार</w>",
    "नि",
    "अस्ति",
    "सियस</w>",
    "जें</w>",
    "चीनी</w>",
    "दृष्टिकोण</w>",
    "दिन</w>",
    "त्यो",
    "पता</w>",
    "निक</w>",
    "लाग",
    "बरा",
    "सरकारी</w>",
    "फैस",
    "दीन</w>",
    "जुड़ा</w>",
    "प्रदर्शन</w>",
    "स्टेडियम</w>",
    "ेक</w>",
    "दुर्लभ</w>",
    "ंत्र",
    "चिं",
    "परिभाषित</w>",
    "ट</w>",
    "संक्रमित</w>",
    "क्रम",
    "माँ",
    "लौ",
    "व्यक्तिगत</w>",
    "बनता</w>",
    "दशक</w>",
    "बद",
    "आर",
    "हमारी</w>",
    "1950</w>",
    "नि</w>",
    "डी.</w>",
    "न्यास</w>",
    "स्टी",
    "त्रि",
    "संबंध",
    "तेलंगा",
    "लागत</w>",
    "ग्रं",
    "टो",
    "गर्",
    "सी</w>",
    "तय</w>",
    "कीमत</w>",
    "क्रि",
    "ृत</w>",
    "संगठ",
    "धा</w>",
    "ंडा",
    "वित</w>",
    "कें</w>",
    "ब्रि",
    "लगभग</w>",
    "कैलिफोर्निया</w>",
    "सें",
    "पठा",
    "अन्य</w>",
    "उत्तराधि",
    "प्रतिनिधित्व</w>",
    "असामान्य</w>",
    "वेब",
    "कुं",
    "दारों</w>",
    "रम</w>",
    "हिस्सों</w>",
    "प्रशिक्षक</w>",
    "तुम",
    "वास्त",
    "फि",
    "टिश</w>",
    "तात्",
    "नो",
    "जटिल</w>",
    "मुद्",
    "सक्षम</w>",
    "देव",
    "8",
    "णि",
    "मानक</w>",
    "ल्प",
    "पार",
    "हित</w>",
    "खिताब</w>",
    "त्र</w>",
    "थोड़ा</w>",
    "यॉर्",
    "थु",
    "लेखन</w>",
    "हारों</w>",
    "दीदा</w>",
    "लीवुड</w>",
    "वकील</w>",
    "हियों</w>",
    "अधिक</w>",
    "उस</w>",
    "प्रार्थना</w>",
    "1992</w>",
    "नकारात्मक</w>",
    "\"</w>",
    "करेगा।</w>",
    "प्रका",
    "लकर</w>",
    "पहचान</w>",
    "चर</w>",
    "दु",
    "सात",
    "कि",
    "४",
    "ने-",
    "उन</w>",
    "प्त</w>",
    "चु",
    "गतिविधियों</w>",
    "नेट</w>",
    "ही",
    "अर्जित</w>",
    "सह-",
    "चाहिए।</w>",
    "न्यू",
    "समु",
    "ंभ",
    "इमारत</w>",
    "भूमि</w>",
    "फिल्मफेयर</w>",
    "लेना</w>",
    "राल</w>",
    "दुनिया</w>",
    ".ए",
    "पकड़</w>",
    "लिन</w>",
    "निवेश</w>",
    "क्सि",
    "बानी</w>",
    "प्रतिनिधि</w>",
    "न्",
    "सचि",
    "यू",
    "रा,</w>",
    "ज़",
    "साब",
    "क्रांति</w>",
    "तः</w>",
    "धि",
    "c",
    "तिक</w>",
    "गोल</w>",
    "सिटी</w>",
    "मिंग</w>",
    "लं",
    "विष्",
    "केंद्र",
    "थन</w>",
    "सहित</w>",
    "पर",
    "सां",
    "हे</w>",
    "कू",
    "तुम्हें</w>",
    "पीय</w>",
    "खिलाड़ी</w>",
    "इतना</w>",
[...]
