{
  "merges": [
    [
      "ು",
      "</w>"
    ],
    [
      "ತ",
      "್"
    ],
    [
      "ನ",
      "್"
    ],
    [
      "ಲ",
      "್"
    ],
    [
      ".",
      "</w>"
    ],
    [
      "ಿ",
      "</w>"
    ],
    [
      "ತ್",
      "ತ"
    ],
    [
      "ನ್",
      "ನ"
    ],
    [
      "ಾ",
      "ಗ"
    ],
    [
      "ೆ",
      "</w>"
    ],
    [
      "ರ",
      "್"
    ],
    [
      "ಲ್",
      "ಲ"
    ],
    [
      "ಗ",
      "ಳ"
    ],
    [
      "ಂ",
      "ದ"
    ],
    [
      "್",
      "ರ"
    ],
    [
      "ಿ",
      "ದ"
    ],
    [
      "ನ್ನ",
      "ು</w>"
    ],
    [
      "ಸ",
      "್"
    ],
    [
      ",",
      "</w>"
    ],
    [
      "ಿ",
      "ಸ"
    ],
    [
      "ಿ",
      "ಯ"
    ],
    [
      "ದ",
      "</w>"
    ],
    [
      "ಕ",
      "್"
    ],
    [
      "ಾ",
      "ರ"
    ],
    [
      "ೆ",
      ".</w>"
    ],
    [
      "ೆ",
      "ಯ"
    ],
    [
      "ಲ್ಲ",
      "ಿ</w>"
    ],
    [
      "್",
      "ಯ"
    ],
    [
      "ು",
      ".</w>"
    ],
    [
      "ು",
      "ವ"
    ],
    [
      "ಮ",
      "ಾ"
    ],
    [
      "ಪ",
      "್ರ"
    ],
    [
      "ು",
      "ತ್ತ"
    ],
    [
      "ಮ",
      "ತ್ತ"
    ],
    [
      "ನ",
      "</w>"
    ],
    [
      "ಿ",
      "ಕ"
    ],
    [
      "ಮತ್ತ",
      "ು</w>"
    ],
    [
      "ರ",
      "</w>"
    ],
    [
      "ಗ",
      "ೆ</w>"
    ],
    [
      "್",
      "</w>"
    ],
    [
      "್",
      "ದ"
    ],
    [
      "ವ",
      "ಾ"
    ],
    [
      "ನ",
      "ಿ"
    ],
    [
      "ವ",
      "ಿ"
    ],
    [
      "್",
      "ಟ"
    ],
    [
      "ು",
      "ದ"
    ],
    [
      "ಂ",
      "ತ"
    ],
    [
      "ಂ",
      "ಡ"
    ],
    [
      "ವ",
      "ಾಗ"
    ],
    [
      "ರ",
      "ಾ"
    ],
    [
      "ಿ",
      "ತ"
    ],
    [
      "ಂದ",
      "ು</w>"
    ],
    [
      "ಿದ",
      "್ದ"
    ],
    [
      "ರ",
      "ಿ"
    ],
    [
      "ವ",
      "ು</w>"
    ],
    [
      "ಿ",
      "ರ"
    ],
    [
      "ಂ",
      "ಗ"
    ],
    [
      "ುವ",
      "</w>"
    ],
    [
      "ಾ",
      "ಯ"
    ],
    [
      "ರ",
      "ು</w>"
    ],
    [
      "್",
      "‌"
    ],
    [
      "ವ",
      "ನ್ನು</w>"
    ],
    [
      "ಗಳ",
      "ನ್ನು</w>"
    ],
    [
      "ಕ್",
      "ಕ"
    ],
    [
      "ಿದ",
      "ೆ.</w>"
    ],
    [
      "ಗಳ",
      "ು</w>"
    ],
    [
      "ಕ",
      "ಾ"
    ],
    [
      "ೂ",
      "</w>"
    ],
    [
      "ೇ",
      "</w>"
    ],
    [
      "ಸ",
      "ಾ"
    ],
    [
      "ಂ",
      "ಬ"
    ],
    [
      "ಾ",
      "</w>"
    ],
    [
      "ುತ್ತ",
      "ದ"
    ],
    [
      "ರ",
      "ು.</w>"
    ],
    [
      "ಂದ",
      "</w>"
    ],
    [
      "ನ್",
      "</w>"
    ],
    [
      "ಿ",
      "ನ</w>"
    ],
    [
      "ಅ",
      "ವ"
    ],
    [
      "ಇ",
      "ದ"
    ],
    [
      "ಮಾ",
      "ಡ"
    ],
    [
      "ಾ",
      "ನ"
    ],
    [
      "ದ",
      "ಲ್ಲಿ</w>"
    ],
    [
      "ಈ",
      "</w>"
    ],
    [
      "ು",
      ",</w>"
    ],
    [
      "ೊ",
      "ಂದ"
    ],
    [
      "ಿ",
      "ಗೆ</w>"
    ],
    [
      "ತ್",
      "ರ"
    ],
    [
      "ಟ",
      "್ಟ"
    ],
    [
      "ಲ",
      "ು</w>"
    ],
    [
      "ಗಳ",
      "</w>"
    ],
    [
      "ಸ",
      "ಂ"
    ],
    [
      "ಲ",
      "ಾಗ"
    ],
    [
      "ತ",
      "</w>"
    ],
    [
      "ಿ",
      ",</w>"
    ],
    [
      "ಮ",
      "್"
    ],
    [
      "ಕ್",
      "ಷ"
    ],
    [
      "ುತ್ತದ",
      "ೆ.</w>"
    ],
    [
      "ನ",
      "ಾ"
    ],
    [
      "ರ್",
      "</w>"
    ],
    [
      "ೆಯ",
      "</w>"
    ],
    [
      "ಮ",
      "ು"
    ],
    [
      "ಷ",
      "್ಟ"
    ],
    [
      "ೆ",
      ",</w>"
    ],
    [
      "ಸ್",
      "ಥ"
    ],
    [
      "ಯ",
      "ಾ"
    ],
    [
      "ಯ",
      "</w>"
    ],
    [
      "ಹ",
      "ೆ"
    ],
    [
      "ಸ",
      "ಿ"
    ],
    [
      "ದ",
      "ೇ"
    ],
    [
      "್",
      "ಚ"
    ],
    [
      "್ಯ",
      "ಾ"
    ],
    [
      "ದ",
      "ಿ"
    ],
    [
      "ನ",
      "ೀ"
    ],
    [
      "ಿಸ",
      "ಿದ"
    ],
    [
      "ಕ",
      "ೆ"
    ],
    [
      "ಮ",
      "</w>"
    ],
    [
      "೨",
      "೦"
    ],
    [
      "ಿತ",
      "ು.</w>"
    ],
    [
      "ಪ",
      "ಾ"
    ],
    [
      "ಿಯ",
      "</w>"
    ],
    [
      "ೊ",
      "ಳ"
    ],
    [
      "ಕ",
      "</w>"
    ],
    [
      "ಾಗ",
      "ಿ</w>"
    ],
    [
      "ಲ",
      "ಿ"
    ],
    [
      "ೊ",
      "ಂಡ"
    ],
    [
      "ವಾಗ",
      "ಿ</w>"
    ],
    [
      "ಜ",
      "ನ"
    ],
    [
      "ಬ",
      "ಹ"
    ],
    [
      "ಚ",
      "್ಚ"
    ],
    [
      "ತ",
      "ಿ"
    ],
    [
      "ವ",
      "ರ"
    ],
    [
      "ಸ್",
      "</w>"
    ],
    [
      "‌",
      "</w>"
    ],
    [
      "ಕ",
      "್ರ"
    ],
    [
      "ಗಳ",
      "ಲ್ಲಿ</w>"
    ],
    [
      "ಒ",
      "ಂದು</w>"
    ],
    [
      "ಹ",
      "ಿ"
    ],
    [
      "ಕ",
      "ರ"
    ],
    [
      "ಕ್ಕ",
      "ೆ</w>"
    ],
    [
      "೧",
      "೯"
    ],
    [
      "ಲ್",
      "</w>"
    ],
    [
      "ಚ",
      "ಿ"
    ],
    [
      "ಹ",
      "ಾ"
    ],
    [
      "ಡ",
      "ೆ"
    ],
    [
      "್",
      "ಳ"
    ],
    [
      "ಿಕ",
      "</w>"
    ],
    [
      "ಮ",
      "ೂ"
    ],
    [
      "ಮ",
      "ೇ"
    ],
    [
      "ಸ್",
      "ಟ"
    ],
    [
      "ಕ",
      "ಾರ"
    ],
    [
      "ವ",
      "ೆ.</w>"
    ],
    [
      "ಸ್",
      "ತ"
    ],
    [
      "ನ",
      "ಲ್ಲಿ</w>"
    ],
    [
      "ದೇ",
      "ಶ"
    ],
    [
      "ುವ",
      "ುದ"
    ],
    [
      "ನ",
      "ೆ"
    ],
    [
      "ಇದ",
      "ು</w>"
    ],
    [
      "ಾರ",
      "ೆ.</w>"
    ],
    [
      "ಂ",
      "ಟ"
    ],
    [
      "ರಾ",
      "ಜ"
    ],
    [
      "ಲ್ಲ",
      "ಿ,</w>"
    ],
    [
      "ಬ",
      "್"
    ],
    [
      "ಬ",
      "ೇ"
    ],
    [
      "ು",
      "ರ"
    ],
    [
      "ಿರ",
      "ುವ</w>"
    ],
    [
      "ಲ",
      "ಾ"
    ],
    [
      "ಅ",
      "ದ"
    ],
    [
      "ವ",
      "ರ್"
    ],
    [
      "ಮ",
      "ೊ"
    ],
    [
      "್‌",
      "</w>"
    ],
    [
      "ೆಯ",
      "ನ್ನು</w>"
    ],
    [
      "ಿ",
      "ತ್ತ"
    ],
    [
      "ಪ",
      "್"
    ],
    [
      "ಡ",
      "ಿ"
    ],
    [
      "ಎ",
      "ಂದು</w>"
    ],
    [
      "ಮ್",
      "ಮ</w>"
    ],
    [
      "ರ",
      "ಲ್ಲಿ</w>"
    ],
    [
      "ಹೆ",
      "ಚ್ಚ"
    ],
    [
      "ೋ",
      "ಗ"
    ],
    [
      "ಲ",
      "</w>"
    ],
    [
      "ತ್",
      "ಯ"
    ],
    [
      "ಡ",
      "್"
    ],
    [
      "ಬ",
      "ಿ"
    ],
    [
      "ನಿ",
      "ರ್"
    ],
    [
      "ವಾ",
      "</w>"
    ],
    [
      "ಸ",
      "ಮ"
    ],
    [
      "ಹ",
      "ೊಂದ"
    ],
    [
      "ಬಹ",
      "ುದ"
    ],
    [
      "ಭ",
      "ಾರ"
    ],
    [
      "ನ",
      "ೇ</w>"
    ],
    [
      "ಆ",
      "ತ</w>"
    ],
    [
      "ನ",
      "ಂತ"
    ],
    [
      "ೀ",
      "ಯ</w>"
    ],
    [
      "ಂತ",
      "</w>"
    ],
    [
      "ಾ",
      "ದ</w>"
    ],
    [
      "ಬ",
      "ೆ"
    ],
    [
      "ಸ",
      "ೇ"
    ],
    [
      "ಅ",
      "ಥ"
    ],
    [
      "ಿ",
      "ಗ"
    ],
    [
      "ಣ",
      "</w>"
    ],
    [
      "ು",
      "ಗ"
    ],
    [
      "ಎ",
      "ಂಬ"
    ],
    [
      "್",
      "ಧ"
    ],
    [
      "ಅಥ",
      "ವಾ</w>"
    ],
    [
      "ಿಯ",
      "ನ್ನು</w>"
    ],
    [
      "ರ",
      "ೆ</w>"
    ],
    [
      "ಆ",
      "ಗ"
    ],
    [
      "ಿಸ",
      "ುತ್ತ"
    ],
    [
      "ಹ",
      "ೊ"
    ],
    [
      "ೊಳ",
      "್ಳ"
    ],
    [
      "್",
      "ವ"
    ],
    [
      "ನ್",
      "‌"
    ],
    [
      "ಬ",
      "ಾ"
    ],
    [
      "ಿಸ",
      "ಲಾಗ"
    ],
    [
      "ಬ",
      "ಳ"
    ],
    [
      "ಲ",
      "ೆ"
    ],
    [
      "ದ",
      "ಾ"
    ],
    [
      "ಕ",
      "ೊ"
    ],
    [
      "ಿತ್ತ",
      "ು.</w>"
    ],
    [
      "ಂ",
      "ಪ"
    ],
    [
      "ಮ",
      "ಿ"
    ],
    [
      "ಭಾರ",
      "ತ"
    ],
    [
      "ನ್",
      "ಯ"
    ],
    [
      "ಸ್",
      "‌"
    ],
    [
      "್ರ",
      "ಾ"
    ],
    [
      "ಆ",
      "ದ"
    ],
    [
      "ಬ್",
      "ಬ"
    ],
    [
      "ಾಗ",
      "ಿದ್ದ"
    ],
    [
      "ಕ್",
      "</w>"
    ],
    [
      "ಕ",
      "ು"
    ],
    [
      "ಕ",
      "ೋ"
    ],
    [
      ".",
      "ಎ"
    ],
    [
      "ವ",
      "ೆ"
    ],
    [
      "ಿ",
      "ಂದ</w>"
    ],
    [
      "ಅ",
      "ನ"
    ],
    [
      "ದ",
      "ಲ್ಲ"
    ],
    [
      "ವಾ",
      "ದ</w>"
    ],
    [
      "ರ",
      "ಡ"
    ],
    [
      "ಲ",
      "ಾಯ"
    ],
    [
      "ಮೊ",
      "ದ"
    ],
    [
      "ಚಿ",
      "ತ್ರ"
    ],
    [
      "ೆ",
      "ಗ"
    ],
    [
      "ಪ",
      "ಡ"
    ],
    [
      "ಭ",
      "ಾಗ"
    ],
    [
      "ಧ",
      "್ಯ"
    ],
    [
      "ಸ",
      "ಹ"
    ],
    [
      "ಮು",
      "ಖ"
    ],
    [
      "ೆ",
      "ಗೆ</w>"
    ],
    [
      "ಸ",
      "ು"
    ],
    [
      "ವಾಗ",
      "ಿದೆ.</w>"
    ],
    [
      "ರ್",
      "‌"
    ],
    [
      "ಶ",
      "ಾ"
    ],
    [
      "ಟ",
      "ಿ"
    ],
    [
      "ಕೆ",
      "ಲ"
    ],
    [
      "ವ",
      "್ಯ"
    ],
    [
      "ಸ",
      "ರ"
    ],
    [
      "ಿ",
      "ಲ್ಲ"
    ],
    [
      "ಮೇ",
      "ಲ"
    ],
    [
      "ು",
      "ಕ"
    ],
    [
      "ೇ",
      "ಳ"
    ],
    [
      "ಹ",
      "ಾಗ"
    ],
    [
      "ೋ",
      "</w>"
    ],
    [
      "ೆ",
      "ದ"
    ],
    [
      "ಂ",
      "ಭ"
    ],
    [
      "ಪ",
      "ೂ"
    ],
    [
      "ನೀ",
      "ಡ"
    ],
    [
      "ಪ",
      "ರಿ"
    ],
    [
      "ನ್ನ",
      "</w>"
    ],
    [
      "ೊಂದ",
      "ಿಗೆ</w>"
    ],
    [
      "ತ",
      "ಿ</w>"
    ],
    [
      "ಿಸ",
      "ಲು</w>"
    ],
    [
      "ಪ",
      "ು"
    ],
    [
      "ಪ್ರ",
      "ದೇಶ"
    ],
    [
      "ಗ",
      "ು"
    ],
    [
      "ೆಯ",
      "ು</w>"
    ],
    [
      "ರಿ",
      "ಂದ</w>"
    ],
    [
      "ಜ",
      "ಾ"
    ],
    [
      "ಗ",
      "್"
    ],
    [
      "ನ",
      "ಿಯ"
    ],
    [
      "ಮ",
      "ಾರ"
    ],
    [
      "೨೦",
      "೧"
    ],
    [
      "ಬಹುದ",
      "ು.</w>"
    ],
    [
      "೦",
      "೦"
    ],
    [
      "ಮ",
      "ೆ"
    ],
    [
      "ಭ",
      "ಾ"
    ],
    [
      "ಕಾ",
      "ರ್"
    ],
    [
      "ವಿ",
      "ಶ"
    ],
    [
      "ತ",
      "ಮ್ಮ</w>"
    ],
    [
      "ಎ",
      "ರಡ"
    ],
    [
      "ಪ್",
      "ಪ"
    ],
    [
      "ಆ",
      "ತ"
    ],
    [
      "ಮೂ",
      "ಲ"
    ],
    [
      "ಗಳ",
      "ಿಗೆ</w>"
    ],
    [
      "ಿಸಿದ",
      "ರು.</w>"
    ],
    [
      "ತ",
      "ಾ"
    ],
    [
      "ಸ",
      "ೆ"
    ],
    [
      "ನ",
      "ು</w>"
    ],
    [
      "ಟ",
      "್"
    ],
    [
      "ಾಗ",
      "ಿದೆ.</w>"
    ],
    [
      "ದಿ",
      "ಂದ</w>"
    ],
    [
      "ರ",
      "ೀ"
    ],
    [
      "ಯ",
      "ು"
    ],
    [
      "ಿಯ",
      "ು</w>"
    ],
    [
      "ಕ",
      "ೇ"
    ],
    [
      "ನ",
      "ೋ"
    ],
    [
      "ಿಸ",
      "ುವ</w>"
    ],
    [
      "ಮಾ",
      "ನ"
    ],
    [
      "ರ",
      "ೆ"
    ],
    [
      "ರ್",
      "ಥ"
    ],
    [
      "ಆ",
      "ಕ"
    ],
    [
      "ರಾಜ",
      "್ಯ"
    ],
    [
      "ಿಸ",
      "ಿಕ"
    ],
    [
      "ಅವ",
      "ರು</w>"
    ],
    [
      "ಡ",
      "್</w>"
    ],
    [
      "ರ",
      "ೂ"
    ],
    [
      "ಕ್",
      "ತ"
    ],
    [
      "ಣ",
      "್"
    ],
    [
      "ಎಂಬ",
      "ುದ"
    ],
    [
      "ಮೇಲ",
      "ೆ</w>"
    ],
    [
      "ಸಾ",
      "ಮಾ"
    ],
    [
      "ಲ",
      "ಯ"
    ],
    [
      "ಿ",
      "ವೆ.</w>"
    ],
    [
      "ಸ್",
      "ವ"
    ],
    [
      "ಮ",
      "ೀ"
    ],
    [
      "ನೀ",
      "ವು</w>"
    ],
    [
      "ಕ",
      "ಿ"
    ],
    [
      "ನ",
      "ಗ"
    ],
    [
      "ತ",
      "ನ್ನ</w>"
    ],
    [
      "ಿಯ",
      "ಲ್ಲಿ</w>"
    ],
    [
      "ಟ",
      "್</w>"
    ],
    [
      "ದ",
      "್ಯ"
    ],
    [
      "ಲಾಯ",
      "ಿತು.</w>"
    ],
    [
      "ಶ",
      "ಿ"
    ],
    [
      "ಪ್ರ",
      "ಾ"
    ],
    [
      "ಂಗ",
      "್</w>"
    ],
    [
      "ಿದ್ದ",
      "ರು.</w>"
    ],
    [
      "ತ",
      "ು"
    ],
    [
      "ಆ",
      "ಟ"
    ],
    [
      "್",
      "ದ</w>"
    ],
    [
      "ಯ",
      "ೋ"
    ],
    [
      "ವ",
      "ೇ"
    ],
    [
      "ಬ",
      "ರ"
    ],
    [
      "ಂ",
      "ಧ"
    ],
    [
      "ಸ್",
      "ಪ"
    ],
    [
      "ಡ್",
      "ಡ"
    ],
    [
      "ಬ",
      "್ರ"
    ],
    [
      "ಬಳ",
      "ಸ"
    ],
    [
      "ರಿ",
      "ಗೆ</w>"
    ],
    [
      "ರ",
      "ಿಯ"
    ],
    [
      "ಾ",
      "ದ"
    ],
    [
      "ನ",
      "ು.</w>"
    ],
    [
      "ಂತ",
      "ೆ</w>"
    ],
    [
      "ಗ",
      "ೊಂಡ"
    ],
    [
      "ನಂತ",
      "ರ</w>"
    ],
    [
      "ನ",
      "ಡ"
    ],
    [
      "ಿತ",
      "</w>"
    ],
    [
      "ಸ",
      "ೋ"
    ],
    [
      "ಹಿ",
      "ಂದ"
    ],
    [
      "ವ",
      "ಾರ"
    ],
    [
      "ವರ್",
      "ಷ"
    ],
    [
      "೦",
      "</w>"
    ],
    [
      "ರ",
      "ಣ"
    ],
    [
      "ರ",
      "ನ್ನು</w>"
    ],
    [
      ")",
      "</w>"
    ],
    [
      "ರ",
      "ೋ"
    ],
    [
      "ಒ",
      "ಳ"
    ],
    [
      "ಲ",
      "ೀ"
    ],
    [
      "ಷ",
      "್"
    ],
    [
      "ಹ",
      "ೋ"
    ],
    [
      "ರ್",
      "ವ"
    ],
    [
      "ದ",
      "್ದ"
    ],
    [
      "ಷ್ಟ",
      "ು</w>"
    ],
    [
      "ಹ",
      "ೇಳ"
    ],
    [
      "ಷ್ಟ",
      "್ರ"
    ],
    [
      "ೆಯ",
      "ಲ್ಲಿ</w>"
    ],
    [
      "ಪ",
      "ಟ್ಟ"
    ],
    [
      "ಗ",
      "ೋ"
    ],
    [
      "ಉ",
      "ತ್ತ"
    ],
    [
      "ಜ",
      "್"
    ],
    [
      "ಮ್",
      "ಮ"
    ],
    [
      "ಿದ",
      "</w>"
    ],
    [
      "ು",
      "ಗಳನ್ನು</w>"
    ],
    [
      "ಮ",
      "ನ"
    ],
    [
      "ಿದ",
      "್ದ</w>"
    ],
    [
      "ಸ",
      "</w>"
    ],
    [
      "ಜ",
      "ೀ"
    ],
    [
      "ಮೊದ",
      "ಲ</w>"
    ],
    [
      "ವ",
      "ಹ"
    ],
    [
      "ಲ",
      "ನ"
    ],
    [
      "ಿದ್ದ",
      "ಾರೆ.</w>"
    ],
    [
      "ನ",
      "ೇ"
    ],
    [
      "ೀ",
      "ಡ"
    ],
    [
      "ರ",
      "ಂದು</w>"
    ],
    [
      "ಮ",
      "್</w>"
    ],
    [
      "ಿದ",
      "ರು.</w>"
    ],
    [
      "ವ",
      "ೈ"
    ],
    [
      "ಸ",
      "ೂ"
    ],
    [
      "ಬೇ",
      "ಕ"
    ],
    [
      "ುದ",
      "್ಧ"
    ],
    [
      "ಪ",
      "ಿ"
    ],
    [
      "ೇ",
      "ಕ</w>"
    ],
    [
      "ನಿ",
      "ಮ್ಮ</w>"
    ],
    [
      ":",
      "</w>"
    ],
    [
      "ಅ",
      "ತ್ಯ"
    ],
    [
      "ಲ್",
      "‌"
    ],
    [
      "ತ್",
      "ರ</w>"
    ],
    [
      "ಆ",
      "</w>"
    ],
    [
      "ಹ",
      "</w>"
    ],
    [
      "ನ್",
      "‌</w>"
    ],
    [
      "ಬ",
      "ದ"
    ],
    [
      "ಿಸಿದ",
      "</w>"
    ],
    [
      "ಇ",
      "ತ"
    ],
    [
      "ವ",
      "ೃ"
    ],
    [
      "ಗ",
      "ಾ"
    ],
    [
      "೨೦",
      "೦"
    ],
    [
      "ವ",
      "ರು</w>"
    ],
    [
      "ಅ",
      "ನ್ನು</w>"
    ],
    [
      "ರ್",
      "ಶ"
    ],
    [
      "ರ",
      "ಿಸ"
    ],
    [
      "ರ",
      "ಿಕ"
    ],
    [
      "ಜ",
      "ಿ"
    ],
    [
      "ಸ",
      "ಂಗ"
    ],
    [
      "ಗ",
      "ಾರ"
    ],
    [
      "ಆ",
      "ಡ"
    ],
    [
      "ಹ",
      "ಲ"
    ],
    [
      "ಹಾಗ",
      "ು</w>"
    ],
    [
      "ಕ",
      "ೃ"
    ],
    [
      "ತ",
      "ಂಡ"
    ],
    [
      "ಹೆಚ್ಚ",
      "ು</w>"
    ],
    [
      "ಇದ",
      "ನ್ನು</w>"
    ],
    [
      "ಕಾ",
      "ಲ"
    ],
    [
      "ಹ",
      "ು"
    ],
    [
      "ಂ",
      "ಶ"
    ],
    [
      "ಗಳ",
      "ು,</w>"
    ],
    [
      "ಲಾಗ",
      "ುತ್ತದೆ.</w>"
    ],
    [
      "ಸ್ಥ",
      "ಾನ"
    ],
    [
      "ಸ್ಥ",
      "ಳ"
    ],
    [
      "ದಿ",
      "ನ"
    ],
    [
      "ವ",
      "ಿದ"
    ],
    [
      "ಆ",
      "ರ"
    ],
    [
      "ಕೆಲ",
      "ವು</w>"
    ],
    [
      "್ಯ",
      "</w>"
    ],
    [
      "ಮಾ",
      "ರ್"
    ],
    [
      "ಂ",
      "ಕ"
    ],
    [
      "ಂ",
      "ಚ"
    ],
    [
      "ಂಗ",
      "್"
    ],
    [
      "ಂದ",
      "್ರ"
    ],
    [
      "ತ",
      "ೆ"
    ],
    [
      "ಾಗ",
      "</w>"
    ],
    [
      "ಳ",
      "</w>"
    ],
    [
      "ಒ",
      "ಂದ"
    ],
    [
      "ವಿ",
      "ಧ"
    ],
    [
      "ಸಾಮಾ",
      "ನ್ಯ"
    ],
    [
      "ರ",
      "ೆ,</w>"
    ],
    [
      "ಅ",
      "ಂತ"
    ],
    [
      "ುತ್ತ",
      "ಾರೆ.</w>"
    ],
    [
      "ವಿ",
      "ರ"
    ],
    [
      "ಣ್",
      "ಣ"
    ],
    [
      "ಲ",
      "ೋ"
    ],
    [
      "ರ್",
      "ಮ"
    ],
    [
      "ನಂತ",
      "ರ"
    ],
    [
      "ಪ",
      "ದ"
    ],
    [
      "್ಯ",
      "ೂ"
    ],
    [
      "ನ",
      "ಡೆ"
    ],
    [
      "ತ",
      "ೀ"
    ],
    [
      "ಾರ",
      "ಂಭ"
    ],
    [
      "ಭ",
      "ಿ"
    ],
    [
      "ಗಳ",
      "ಿಂದ</w>"
    ],
    [
      "ವ",
      "ು.</w>"
    ],
    [
      "ಶ",
      "್ರ"
    ],
    [
      "ಗ",
      "್ರ"
    ],
    [
      "ಮ",
      "ರ"
    ],
    [
      "ಲ",
      "ಿಯ"
    ],
    [
      "ಸ",
      "ರ್"
    ],
    [
      "ನ",
      "ನ್ನು</w>"
    ],
    [
      "ಯಾ",
      "ವ"
    ],
    [
      "ಇತ",
      "ರ</w>"
    ],
    [
      "ುತ್ತ",
      "ವೆ.</w>"
    ],
    [
      "ಚ",
      "ಲನ"
    ],
    [
      "ಾ",
      "ಪ"
    ],
    [
      "ಅವ",
      "ರ</w>"
    ],
    [
      "ಮೂಲ",
      "ಕ</w>"
    ],
    [
      "ಎಂಬ",
      "</w>"
    ],
    [
      "ಕ",
      "ೂ"
    ],
    [
      "ದ",
      "ಲ್ಲಿ,</w>"
    ],
    [
      "ು",
      "ತ"
    ],
    [
      "ಸಮ",
      "ಯ"
    ],
    [
      "ಟ",
      "ೆ"
    ],
    [
      "ಿಸ",
      "ುತ್ತದೆ.</w>"
    ],
    [
      "ಸ್",
      "ಯ"
    ],
    [
      "ಪ",
      "ುರ"
    ],
    [
      "ೇ",
      "ಷ"
    ],
    [
      "ಡ",
      "ುಗ"
    ],
    [
      "ಭಾರತ",
      "ದ</w>"
    ],
    [
      "ಎ",
      "ಲ್ಲ"
    ],
    [
      "ದ",
      "ೊ"
    ],
    [
      "ಿದ",
      "ೆ</w>"
    ],
    [
      "ವ",
      "್ಯಾ"
    ],
    [
      "ರ",
      "ಿ</w>"
    ],
    [
      "ಬ",
      "ಗ್"
    ],
    [
      "ನಗ",
      "ರ"
    ],
    [
      "ಯ",
      "್"
    ],
    [
      "ಆತ",
      "ನ</w>"
    ],
    [
      "ನಿ",
      "ಂದ</w>"
    ],
    [
      "ಆದ",
      "ರೆ</w>"
    ],
    [
      "ಹ",
      "ಾರ"
    ],
    [
      "ಎಂಬುದ",
      "ು</w>"
    ],
    [
      "ರಾ",
      "ಷ್ಟ್ರ"
    ],
    [
      "ಕಾರ",
      "ಣ"
    ],
    [
      "ಗ",
      "ೊಳ"
    ],
    [
      "ವಿಶ",
      "್ವ"
    ],
    [
      "ಅನ",
      "ೇಕ</w>"
    ],
    [
      "ಚ",
      "ಾ"
    ],
    [
      "ಂ",
      "ತ್ರ"
    ],
    [
      "ಟ",
      "್‌"
    ],
    [
      "ತ್",
      "</w>"
    ],
    [
      "ುವುದ",
      "ು</w>"
    ],
    [
      "ಮ",
      "ೈ"
    ],
    [
      "ಪ್ರ",
      "ದ"
    ],
    [
      "ಕ",
      "ಳ"
    ],
    [
      "\"",
      "</w>"
    ],
    [
      "ಕರ",
      "ೆಯ"
    ],
    [
      "ಕಾರ್",
      "ಯ"
    ],
    [
      "ಂ",
      "</w>"
    ],
    [
      "ಕ್ಷ",
      "ಣ"
    ],
    [
      "ಲ",
      "ಿ</w>"
    ],
    [
      "ಲ",
      "ೈ"
    ],
    [
      "ಹ",
      "ೋಗ"
    ],
    [
      "ಬಗ್",
      "ಗೆ</w>"
    ],
    [
      "ಬ",
      "ಂದ"
    ],
    [
      "ಗ",
      "ಣ"
    ],
    [
      "ಪ",
      "ಂದ"
    ],
    [
      "ಆಕ",
      "ೆ</w>"
    ],
    [
      "ವರ",
      "ೆಗೆ</w>"
    ],
    [
      "ೆ",
      "ಗಳನ್ನು</w>"
    ],
    [
      "ನ್ನ",
      "ೂ</w>"
    ],
    [
      "ಇ",
      "ರ"
    ],
    [
      "ಪ್ರ",
      "ಾರಂಭ"
    ],
    [
      "ಪ",
      "ಡೆ"
    ],
    [
      "ವಾ",
      "ದ"
    ],
    [
      "ಧ",
      "ಿಕ"
    ],
    [
      "ಫ",
      "್"
    ],
    [
      "ಪ್ರ",
      "ಮುಖ"
    ],
    [
      "ರ",
      "ೂ</w>"
    ],
    [
      "ವಾ",
      "ಯ"
    ],
    [
      "ನ",
      "ಲ್ಲ"
    ],
    [
      "ಲ",
      "ು"
    ],
    [
      "ಹೊ",
      "ರ"
    ],
    [
      "ಬೆ",
      "ಳ"
    ],
    [
      "ಜೀ",
      "ವ"
    ],
    [
      "ಲ್",
      "ಪ"
    ],
    [
      "ನ",
      "ದ"
    ],
    [
      "ಸಹ",
      "</w>"
    ],
    [
      "ುತ್ತದ",
      "ೆ</w>"
    ],
    [
      "ಪ್ರಮುಖ",
      "</w>"
    ],
    [
      "ತ್",
      "ವ"
    ],
    [
      "ಎರಡ",
      "ು</w>"
    ],
    [
      "ಡ",
      "ಿಯ"
    ],
    [
      "ಿ",
      ".</w>"
    ],
    [
      "ಪ್ರ",
      "ತಿ"
    ],
    [
      "ಕ",
      "ಂಡ"
    ],
    [
      "ಹೆಚ್ಚ",
      "ಿನ</w>"
    ],
    [
      "ರ",
      "ೋಗ"
    ],
    [
      "ಾ",
      "ಳ"
    ],
    [
      "ಿಸ",
      "ಿತು.</w>"
    ],
    [
      "ಸೇ",
      "ರ"
    ],
    [
      "ಹಾ",
      "ಕ"
    ],
    [
      "ೋ",
      "ದ"
    ],
    [
      "ಯ",
      "ಾರ"
    ],
    [
      "ರ",
      "ಲ್ಲಿ,</w>"
    ],
    [
      "ಧ",
      "ನ"
    ],
    [
      "ಮು",
      "ಂದ"
    ],
    [
      "ಲ್ಲ",
      ".</w>"
    ],
    [
      "ಅತ್ಯ",
      "ಂತ</w>"
    ],
    [
      "ಕ್",
      "ಯಾ"
    ],
    [
      "ರ",
      "ೇ"
    ],
    [
      "ಜನ",
      "ರು</w>"
    ],
    [
      "ಿಸಿಕ",
      "ೊಂಡ"
    ],
    [
      "ಬ",
      "್ಯಾ"
    ],
    [
      "ಡಿ",
      "ಮ"
    ],
    [
      "ವ",
      "ೆ</w>"
    ],
    [
      "ಕ್ರ",
      "ಮ"
    ],
    [
      "ಕ",
      "ೈ"
    ],
    [
      "ಿದ್ದ",
      "ು,</w>"
    ],
    [
      "ಅದ",
      "ು</w>"
    ],
    [
      "ಸಾಮಾನ್ಯ",
      "ವಾಗಿ</w>"
    ],
    [
      "ೋ",
      "ರ್"
    ],
    [
      "ಭ",
      "ೂ"
    ],
    [
      "ತ",
      "ಿಯ"
    ],
    [
      "ನಂತರ",
      ",</w>"
    ],
    [
      "ದ",
      "ು"
    ],
    [
      "ಉ",
      "ಪ"
    ],
    [
      "ರ್",
      "ಧ"
    ],
    [
      "ಚ",
      "ೆ"
    ],
    [
      "ಿ",
      "ಂತ</w>"
    ],
    [
      "ಂದ",
      "ರೆ</w>"
    ],
    [
      "ಣ",
      "ಾ"
    ],
    [
      "ಕ್ಷ",
      "ಿ"
    ],
    [
      "ಕ",
      "ಡಿಮ"
    ],
    [
      "ಡ್ಡ",
      "</w>"
    ],
    [
      "ಒ",
      "ಬ್ಬ"
    ],
    [
      "ಚಲನ",
      "ಚಿತ್ರ"
    ],
    [
      "ಯಾವ",
      "ುದ"
    ],
    [
      "ಕ್ರ",
      "ೀಡ"
    ],
    [
      "ಣ",
      "ಿ"
    ],
    [
      "ಾನ",
      "ೆ.</w>"
    ],
    [
      "ಖ",
      "್ಯ"
    ],
    [
      "ಆರ",
      "ಂಭ"
    ],
    [
      "ು",
      "ಗಳು</w>"
    ],
    [
      "ೆ",
      "ಗಳು</w>"
    ],
    [
      "ವಾ",
      "ಸ"
    ],
    [
      "ಿಸಿಕ",
      "ೊಳ್ಳ"
    ],
    [
      "ಪೂ",
      "ರ್"
    ],
    [
      "ಬ",
      "ೀ"
    ],
    [
      "ಅ",
      "ಪ"
    ],
    [
      "ಅನ",
      "ು"
    ],
    [
      "ಲ್ಲ",
      "</w>"
    ],
    [
      "ರೂ",
      "ಪ"
    ],
    [
      "ತ",
      "ರ"
    ],
    [
      "ಿಸ",
      "ಲಾಯಿತು.</w>"
    ],
    [
      "ತ",
      "ಿಯ</w>"
    ],
    [
      "ೀ",
      "ಕರ"
    ],
    [
      "ಡ",
      "ಿ</w>"
    ],
    [
      "ಸ",
      "ಂಬ"
    ],
    [
      "ವ",
      "ಣ"
    ],
    [
      "್‌",
      "ನ</w>"
    ],
    [
      "ಕ್",
      "‌"
    ],
    [
      "ಸ",
      "ಿದ"
    ],
    [
      "ಸು",
      "ಮಾರ"
    ],
    [
      "ಾಗಿದ್ದ",
      "ರು.</w>"
    ],
    [
      "ಡ",
      "ಾ"
    ],
    [
      "ಶ",
      "್ಚ"
    ],
    [
      "ೀ",
      "</w>"
    ],
    [
      "ತ",
      "ೆಗ"
    ],
    [
      "ಲ",
      "ೇ"
    ],
    [
      "ು",
      "ಗಳ</w>"
    ],
    [
      "ಕ",
      "ಂಪ"
    ],
    [
      "ಾಯ",
      "</w>"
    ],
    [
      "ರ",
      "ು,</w>"
    ],
    [
      "೧೯",
      "೯"
    ],
    [
      "ಸ",
      "ೈ"
    ],
    [
      "ಭಾರತ",
      "ೀಯ</w>"
    ],
    [
      "ವ",
      "ಯ"
    ],
    [
      "ಮಾ",
      "ಣ"
    ],
    [
      "ಿಯ",
      "ಾಗ"
    ],
    [
      "ದ",
      "ಶ"
    ],
    [
      "ೊ",
      "ಂದು</w>"
    ],
    [
      "ವೃ",
      "ತ್ತ"
    ],
    [
      "ುಕ",
      "ೊಂಡ"
    ],
    [
      "ಸಾ",
      "ಮ"
    ],
    [
      "ಅದ",
      "ರ</w>"
    ],
    [
      "ೋ",
      "ಷ"
    ],
    [
      "ಿಸಲಾಗ",
      "ಿದೆ.</w>"
    ],
    [
      "ತ್",
      "ಮ"
    ],
    [
      "ಶ",
      "ತ"
    ],
    [
      "ಸ",
      "ದ"
    ],
    [
      "ೆಯ",
      "ಾಗ"
    ],
    [
      "ಲ್",
      "ಕ"
    ],
    [
      "ಿಲ್ಲ",
      ".</w>"
    ],
    [
      "೧",
      "೮"
    ],
    [
      "ಉ",
      "ತ್"
    ],
    [
      "ಟ",
      "್ರ"
    ],
    [
      "ಖ",
      "ಾ"
    ],
    [
      "ದ",
      "ರು.</w>"
    ],
    [
      "ಭಾ",
      "ವ"
    ],
    [
      "ದ",
      "ೂ"
    ],
    [
      "ನಿ",
      "ಮ"
    ],
    [
      "ಸಂ",
      "ಖ್ಯ"
    ],
    [
      "ರಾಷ್ಟ್ರ",
      "ೀಯ</w>"
    ],
    [
      "ಿತ",
      "ು</w>"
    ],
    [
      "ಆ",
      "ಫ"
    ],
    [
      "ಳ",
      "ು</w>"
    ],
    [
      "ಿಕ",
      "ೊಳ್ಳ"
    ],
    [
      "ಅ",
      "ಧಿಕ"
    ],
    [
      "ಸುಮಾರ",
      "ು</w>"
    ],
    [
      "ಗ",
      "ುರ"
    ],
    [
      "ರ್",
      "‌</w>"
    ],
    [
      "ಭಾ",
      "ಷ"
    ],
    [
      "ಜ",
      "ಿಲ್ಲ"
    ],
    [
      "ಾರ",
      "ೆ</w>"
    ],
    [
      "ಸಂಬ",
      "ಂಧ"
    ],
    [
      "ೇ",
      "ಶ"
    ],
    [
      "ಮ",
      "ಧ್ಯ"
    ],
    [
      "೫",
      "</w>"
    ],
    [
      "ನ",
      "ಾಯ"
    ],
    [
      "ಧ",
      "ಾರ"
    ],
    [
      "ವಾರ",
      "ು</w>"
    ],
    [
      "ೀ",
      "ತ"
    ],
    [
      "ಬ",
      "ಾರ"
    ],
    [
      "ಟ",
      "ಿ</w>"
    ],
    [
      "ನಡ",
      "ುವ"
    ],
    [
      "ಉ",
      "ಳ"
    ],
    [
      "ಪಂದ",
      "್ಯ"
    ],
    [
      "ಚ",
      "ೀ"
    ],
    [
      "ೊ",
      "</w>"
    ],
    [
      "ಯಾವುದ",
      "ೇ</w>"
    ],
    [
      "ಿ",
      "ಗಳು</w>"
    ],
    [
      "ದ",
      "ಿ</w>"
    ],
    [
      "ದ",
      "್ಧ"
    ],
    [
      "ವಾ",
      "ಹ"
    ],
    [
      "ಲ್",
      "ಯಾ"
    ],
    [
      "ಬ",
      "ರ್"
    ],
    [
      "ಕ್",
      "ತ</w>"
    ],
    [
      "ತ",
      "ೋ"
    ],
    [
      "ಒಳ",
      "ಗೊಂಡ"
    ],
    [
      "ದಲ್ಲ",
      "ಿರುವ</w>"
    ],
    [
      "ಂತ",
      "ಹ</w>"
    ],
    [
      "ವ",
      "ಳ"
    ],
    [
      "ಿಕ",
      "ೊಂಡ"
    ],
    [
      "ಹಾಗ",
      "ೂ</w>"
    ],
    [
      "ಹಲ",
      "ವಾರು</w>"
    ],
    [
      "ಗ",
      "ೆ"
    ],
    [
      "ುವ",
      "ಂತೆ</w>"
    ],
    [
      "ಿಕ",
      "ಿ"
    ],
    [
      "ಪ",
      "ರ್"
    ],
    [
      "ಹ",
      "ಣ"
    ],
    [
      "ಿಸ",
      "ಿ</w>"
    ],
    [
      "ಕಾ",
      "ಣ"
    ],
    [
      ".ಎ",
      "ಸ್"
    ],
    [
      "ಿಸಲಾಗ",
      "ುತ್ತದೆ.</w>"
    ],
    [
      "ಗ",
      "</w>"
    ],
    [
      "ಆ",
      "ಯ್"
    ],
    [
      "ಆ",
      "ರ್"
    ],
    [
      "ವಯ",
      "ಸ್"
    ],
    [
      "ನಿ",
      "ಗೆ</w>"
    ],
    [
      "ಎಲ್ಲ",
      "ಾ</w>"
    ],
    [
      "ಪಡ",
      "ೆಯ"
    ],
    [
      "ಸ್ಥ",
      "ಾಪ"
    ],
    [
      "ಭ",
      "ವ"
    ],
    [
      "ಜ",
      "ೆ"
    ],
    [
      "ನ",
      "ೈ"
    ],
    [
      "ಪ್ರ",
      "ಕಾರ"
    ],
    [
      "ರ",
      "ೈ"
    ],
    [
      "ಫ",
      "ಿ"
    ],
    [
      "ಪಾ",
      "ತ್ರ"
    ],
    [
      "ೆ",
      "ಂಬ"
    ],
    [
      "ಅದ",
      "ನ್ನು</w>"
    ],
    [
      "ಲ",
      "ೂ</w>"
    ],
    [
      "ಪ್ರ",
      "ಶ"
    ],
    [
      "ಸ",
      "ಿಯ"
    ],
    [
      "ಡ",
      "</w>"
    ],
    [
      "ಅ",
      "ಭಿ"
    ],
    [
      "ಸಾ",
      "ಧ್ಯ"
    ],
    [
      "ನಡೆ",
      "ಸ"
    ],
    [
      "ಸ್",
      "ತ್ರ"
    ],
    [
      "ಗಳ",
      "ಿಗ"
    ],
    [
      "ಕ್ಕ",
      "ಾಗಿ</w>"
    ],
    [
      "ೀ",
      "ಪ"
    ],
    [
      "ಕ್",
      "ಟ"
    ],
    [
      "ಹೆ",
      "ಸರ"
    ],
    [
      "ಜ",
      "ೊ"
    ],
    [
      "ಆಟ",
      "ಗಾರ"
    ],
    [
      "ತ",
      "ೆ</w>"
    ],
    [
      "ಬಿ",
      "ಡುಗ"
    ],
    [
      "ಗ",
      "್ರಾ"
    ],
    [
      "ಜ್",
      "ಞ"
    ],
    [
      "ಳ",
      "್ಳ"
    ],
    [
      "ಪ",
      "ರ"
    ],
    [
      "ಷ",
      "್</w>"
    ],
    [
      "ುಕ",
      "ೊಳ್ಳ"
    ],
    [
      "ರ",
      "ು"
    ],
    [
      "ದ",
      "ಕ್ಷಿ"
    ],
    [
      "ನ",
      "ಂಗ"
    ],
    [
      "ನ",
      "ಾ</w>"
    ],
    [
      "ವಾಗ",
      "ಿರ"
    ],
    [
      "ಾರ",
      "</w>"
    ],
    [
      "ಕಡಿಮ",
      "ೆ</w>"
    ],
    [
      "ಆ",
      "ಚ"
    ],
    [
      "ಪ್ರ",
      "ಯ"
    ],
    [
      "ವಿ",
      "ಷ"
    ],
    [
      "ದೇ",
      "ವಾ"
    ],
    [
      "ನ",
      "ಿ</w>"
    ],
    [
      "ಮ",
      "ಟ್ಟ"
    ],
    [
      "೨",
      "</w>"
    ],
    [
      "ಬ್ರ",
      "ಿ"
    ],
    [
      "ತಿ",
      "ಳ"
    ],
    [
      "ಕ",
      "ಟ್ಟ"
    ],
    [
      "ನಿರ್",
      "ಮ"
    ],
    [
      "ಚ",
      "್"
    ],
    [
      "ಧ",
      "ಾ"
    ],
    [
      "ಸ್",
      "‌</w>"
    ],
    [
      "ಡ",
      "ೆಯ"
    ],
    [
      "ನ",
      "ೆಯ</w>"
    ],
    [
      "ದೇ",
      "ವ"
    ],
    [
      "ಮಾಡ",
      "ಲು</w>"
    ],
    [
      "ಪ",
      "ೆ"
    ],
    [
      "ರ",
      "ವ"
    ],
    [
      "ನ",
      "ದ</w>"
    ],
    [
      "ಪರಿ",
      "ಣಾ"
    ],
    [
      "ಿಸುತ್ತ",
      "ಾರೆ.</w>"
    ],
    [
      "ಸ್ಪ",
      "ರ್ಧ"
    ],
    [
      "ಅ",
      "ಧ್ಯ"
    ],
    [
      "ದ",
      "ು</w>"
    ],
    [
      "ೀ",
      "ರ್"
    ],
    [
      ".",
      "ಸಿ"
    ],
    [
      "ಂ",
      "ಜ"
    ],
    [
      "ಅವ",
      "ಧ"
    ],
    [
      "ನ",
      "ಟ"
    ],
    [
      "ನಿರ್",
      "ವಹ"
    ],
    [
      "ನ",
      "ಾಗ"
    ],
    [
      "ಲ್",
      "ಯ"
    ],
    [
      "ದ",
      "್ರ"
    ],
    [
      "ಕಾ",
      "ಶ"
    ],
    [
      "೦",
      "ರ</w>"
    ],
    [
      "ವಿರ",
      "ುದ್ಧ"
    ],
    [
      "ಕ್ಕ",
      "ೂ</w>"
    ],
    [
      "ವ",
      "ಸ್ತ"
    ],
    [
      "ೆಯ",
      "ಾಗಿದೆ.</w>"
    ],
    [
      "ಲ",
      "ಾ</w>"
    ],
    [
      "ಶತ",
      "ಮಾನ"
    ],
    [
      "!",
      "</w>"
    ],
    [
      "ೆ",
      "ಗಳ"
    ],
    [
      "ದೊ",
      "ಡ್ಡ</w>"
    ],
    [
      "ತ್",
      "ಸ"
    ],
    [
      "ಕ",
      "ರ್"
    ],
    [
      "ರ",
      "ಚ"
    ],
    [
      "ಳ",
      "ೆಯ"
    ],
    [
      "ಮ",
      "ಹಿ"
    ],
    [
      "ವ",
      "ು"
    ],
    [
      "ಹ",
      "್"
    ],
    [
      "ಟ",
      "ು"
    ],
    [
      "ಫ",
      "ೆ"
    ],
    [
      "ಲ್",
      "‌</w>"
    ],
    [
      "ಕೇ",
      "ಂದ್ರ"
    ],
    [
      "ಆದ",
      "ಾಗ"
    ],
    [
      "ಕಂಡ",
      "ು"
    ],
    [
      "ಹೊಂದ",
      "ಿರ"
    ],
    [
      "ಸ್ಟ",
      "್ರ"
    ],
    [
      "ತು",
      "ಂಬ"
    ],
    [
      "ಸರ್",
      "ಕಾರ"
    ],
    [
      "ಹೊ",
      "ಸ</w>"
    ],
    [
      "ಸಂ",
      "ಸ್ಥ"
    ],
    [
      "ಪೂ",
      "ರ್ವ"
    ],
    [
      "ಿಕ",
      "ೆ</w>"
    ],
    [
      "ದೂ",
      "ರ"
    ],
    [
      "ಚ",
      "ಿಕಿ"
    ],
    [
      "್‌",
      "ನಲ್ಲಿ</w>"
    ],
    [
      "ಹೊಂದ",
      "ಿದೆ.</w>"
    ],
    [
      "೧೯",
      "೮"
    ],
    [
      "ಮ",
      "್ಯಾ"
    ],
    [
      "ಾ",
      "ಟ"
    ],
    [
      "ಸ್‌",
      "ನ</w>"
    ],
    [
      "ವ್ಯಾ",
      "ಪ"
    ],
    [
      "ೆಯ",
      "ಿಂದ</w>"
    ],
    [
      "ನೋ",
      "ಡ"
    ],
    [
      "ಲಾ",
      "ದ</w>"
    ],
    [
      "ಒಬ್ಬ",
      "</w>"
    ],
    [
      "ುವುದ",
      "ನ್ನು</w>"
    ],
    [
      "ದೇವಾ",
      "ಲಯ"
    ],
    [
      "ಅ",
      "ಮೆ"
    ],
    [
      "ಗ",
      "ೆದ"
    ],
    [
      "ಒ",
      "ಟ್ಟ"
    ],
    [
      "೧",
      "</w>"
    ],
    [
      "ುತ್ತದ",
      "ೆ,</w>"
    ],
    [
      "ಟ",
      "ರ್</w>"
    ],
    [
      "ಹಾ",
      "ಸ"
    ],
    [
      "ಮ",
      "ೋ"
    ],
    [
      "ಗ",
      "ಿ"
    ],
    [
      "ಾಗ",
      ",</w>"
    ],
    [
      "ಕ",
      "ಥ"
    ],
    [
      "ಪ",
      "ೊ"
    ],
    [
      "ಸ",
      "ುತ್ತ"
    ],
    [
      "ಭ",
      "ೇ"
    ],
    [
      "ಮುಖ",
      "್ಯ"
    ],
    [
      "ಲ",
      "ಕ್ಷ"
    ],
    [
      "ಂ",
      "ಥ"
    ],
    [
      "ಗ",
      "ಾಯ"
    ],
    [
      "ಬಹ",
      "ು"
    ],
    [
      "ಎರಡ",
      "ನೇ</w>"
    ],
    [
      "ಜ",
      "್ಯ"
    ],
    [
      "ರಾಜ್ಯ",
      "ದ</w>"
    ],
    [
      "ಸಿದ",
      "್ಧ"
    ],
    [
      "ಅ",
      "ಗ"
    ],
    [
      "ತ್",
      "ನ"
    ],
    [
      "ಳ",
      "ಿ</w>"
    ],
    [
      "ನ್",
      "ಯಾ"
    ],
    [
      "ಸೂ",
      "ಚ"
    ],
    [
      "ಅ",
      "ರ್"
    ],
    [
      "ಷ್",
      "ಠ"
    ],
    [
      "ವ್ಯ",
      "ವ"
    ],
    [
      "್ಯೂ",
      ",</w>"
    ],
    [
      "ಯೋ",
      "ಜನ"
    ],
    [
      "ವ",
      "್</w>"
    ],
    [
      "ಿಯ",
      "ಾದ</w>"
    ],
    [
      "ಸ್ಥ",
      "ಿತ"
    ],
    [
      "ಸ್ಟ",
      "್</w>"
    ],
    [
      "ಶ್ಚ",
      "ಿ"
    ],
    [
      ",",
      "೦೦"
    ],
    [
      "ವಿಶ",
      "ೇಷ"
    ],
    [
      "ನ",
      "ೆ</w>"
    ],
    [
      "ಲ್ಲ",
      "ಿನ</w>"
    ],
    [
      "ಹಾ",
      "ಡ"
    ],
    [
      "ಆದಾಗ",
      "್ಯೂ,</w>"
    ],
    [
      "ೆ",
      "ಗಳ</w>"
    ],
    [
      "೧೯",
      "೭"
    ],
    [
      "ಿಸ",
      "ಿದ್ದ"
    ],
    [
      "ಸ",
      "ೀ"
    ],
    [
      "ಕ",
      "ೆ</w>"
    ],
    [
      "ಂಡ",
      "್</w>"
    ],
    [
      "ಗಳ",
      "ಲ್ಲಿ,</w>"
    ],
    [
      "ರೂ",
      ",</w>"
    ],
    [
      "ಡ",
      "ೆ</w>"
    ],
    [
      "ಹ",
      "ಿತ"
    ],
    [
      "ಃ",
      "</w>"
    ],
    [
      "ಸಾ",
      "ಂ"
    ],
    [
      "ಕರ",
      "ಣ"
    ],
    [
      "ಅ",
      "ಂಗ"
    ],
    [
      "ಲಿ",
      "ಲ್ಲ.</w>"
    ],
    [
      "ು",
      "ಷ"
    ],
    [
      "ಯೋ",
      "ಜ"
    ],
    [
      "ಎ",
      "ಂದ"
    ],
    [
      "ನ",
      "ೂ"
    ],
    [
      "ಉ",
      "ದ್ಯ"
    ],
    [
      "ಮೂ",
      "ರು</w>"
    ],
    [
      "ಕರೆಯ",
      "ಲಾಗ"
    ],
    [
      "ನಿರ್",
      "ದೇಶ"
    ],
    [
      "ಉತ್ತ",
      "ರ</w>"
    ],
    [
      "ಸಮ",
      "ುದ"
    ],
    [
      "ದ",
      "್</w>"
    ],
    [
      "ಉ",
      "ಂಟ"
    ],
    [
      "ಹೊಂದ",
      "ಿರುವ</w>"
    ],
    [
      "ಸ",
      "ಭ"
    ],
    [
      "ಉ",
      "ದ್ದ"
    ],
    [
      "ಿ",
      "ನಲ್ಲಿ</w>"
    ],
    [
      "ದ",
      "ೆ"
    ],
    [
      "ಿಸುತ್ತ",
      "ವೆ.</w>"
    ],
    [
      "ಧ",
      "ಾನ"
    ],
    [
      "೪",
      "</w>"
    ],
    [
      "ಚ",
      "ಾರ"
    ],
    [
      "ನಾ",
      "ಲ್ಕ"
    ],
    [
      "ಡ",
      "್‌"
    ],
    [
      "ಜ",
      "ೈ"
    ],
    [
      "ವಿದ",
      "್ಯಾ"
    ],
    [
      "ಪ್ರದ",
      "ರ್ಶ"
    ],
    [
      "ಿಯ",
      "ಾ"
    ],
    [
      "ವಾಗ",
      "ಿ,</w>"
    ],
    [
      "ನಿಮ",
      "ಗೆ</w>"
    ],
    [
      "ಬ",
      "ು"
    ],
    [
      "೧",
      "೭"
    ],
    [
      "ರ",
      "ಾಗ"
    ],
    [
      "೩",
      "</w>"
    ],
    [
      "ಕ",
      "ೌ"
    ],
    [
      "ಪ್ರ",
      "ತಿ</w>"
    ],
    [
      "ಪ",
      "್</w>"
    ],
    [
      "ಪ್ರ",
      "ಮಾಣ"
    ],
    [
      "ಸಾಮ",
      "್ರಾ"
    ],
    [
      "ಯು",
      "ಕ್ತ</w>"
    ],
    [
      "ಕ",
      "ರು</w>"
    ],
    [
      "ವ್ಯ",
      "ಕ್ತ"
    ],
    [
      "ದ",
      "ೃ"
    ],
    [
      "ಜ",
      "ೋ"
    ],
    [
      "ರಾ",
      "ದರು.</w>"
    ],
    [
      "ಅಮೆ",
      "ರಿಕ"
    ],
    [
      "ಚಿಕಿ",
      "ತ್ಸ"
    ],
    [
      "ಂ",
      "ತ್ಯ"
    ],
    [
      "ಪ",
      "ಶ್ಚಿ"
    ],
    [
      "ವಾಯ",
      "ಿತು.</w>"
    ],
    [
      "ಪ್ರಯ",
      "ತ್ನ"
    ],
    [
      "ಬ",
      "ಲ"
    ],
    [
      "ಬ್ರಿ",
      "ಟಿ"
    ],
    [
      "ಕ",
      "ಾಯ"
    ],
    [
      "ಸದ",
      "ಸ್ಯ"
    ],
    [
      "ನ್",
      "ಯ</w>"
    ],
    [
      "ವಿ",
      "ವಿಧ"
    ],
    [
      "ಗೆದ",
      "್ದ"
    ],
    [
      "ಿಯ",
      "ಾ</w>"
    ],
    [
      "ಂದ",
      "ಾಗಿ</w>"
    ],
    [
      "ಣ",
      "ದ</w>"
    ],
    [
      "ಯ",
      "ುದ್ಧ"
    ],
    [
      "ಲ",
      "ೇ</w>"
    ],
    [
      "ವಿವಿಧ",
      "</w>"
    ],
    [
      "ಪಾ",
      "ದ"
    ],
    [
      "ಕ",
      "ೊಂಡ"
    ],
    [
      "ಬ",
      "್</w>"
    ],
    [
      "ವರ",
      "ೆಗ"
    ],
    [
      "ಿ",
      "ಗಳನ್ನು</w>"
    ],
    [
      "ತ",
      "ಯಾರ"
    ],
    [
      "ಶ",
      "ೋ"
    ],
    [
      "ಲ",
      "ಭ"
    ],
    [
      "ರೀ",
      "ಕ್ಷ"
    ],
    [
      "ವರ",
      "ಿ</w>"
    ],
    [
      "ವ್ಯವ",
      "ಸ್ಥ"
    ],
    [
      "ಸ",
      "ಿ</w>"
    ],
    [
      "ು",
      "ನಾ"
    ],
    [
      "ತ",
      "ಿರ"
    ],
    [
      "ಿಸ",
      "ುವ"
    ],
    [
      "ಅ",
      "ಂತ</w>"
    ],
    [
      "ಪರಿಣಾ",
      "ಮ"
    ],
    [
      "ಮ",
      "್‌"
    ],
    [
      "ಗ",
      "ಾಗಿ</w>"
    ],
    [
      "ಾರ",
      "ಾ"
    ],
    [
      "ದಕ್ಷಿ",
      "ಣ</w>"
    ],
    [
      "ಹ",
      "ೀ"
    ],
    [
      "ಹ",
      "ೂ"
    ],
    [
      "ುತ್ತ",
      "ಾನೆ.</w>"
    ],
    [
      "ರಿ",
      "ನ</w>"
    ],
    [
      "ಂದ",
      ",</w>"
    ],
    [
      "ೆ",
      "ಂದು</w>"
    ],
    [
      "ಪ್ರದ",
      "ಾಯ"
    ],
    [
      "ಟ",
      "ಾ"
    ],
    [
      "ಷ್ಟ",
      "</w>"
    ],
    [
      "ಸಂ",
      "ಯುಕ್ತ</w>"
    ],
    [
      "ತೆಗ",
      "ೆದ"
    ],
    [
      "ಸಾಮ್ರಾ",
      "ಜ್ಯ"
    ],
    [
      "ಣ್",
      "ಣ</w>"
    ],
    [
      "ನ್",
      ",</w>"
    ],
    [
      "ಹ",
      "ತ್ತ"
    ],
    [
      "ಗಳ",
      "ೊಂದಿಗೆ</w>"
    ],
    [
      "ರ್",
      "ಷ"
    ],
    [
      "ಂತ",
      "ರ"
    ],
    [
      "ಿಸಿದ",
      "ನು.</w>"
    ],
    [
      "೬",
      "</w>"
    ],
    [
      "ದಾ",
      "ಖ"
    ],
    [
      "ದ",
      "್ವ"
    ],
    [
      "ಲ್ಲ",
      "ಿರುವ</w>"
    ],
    [
      "ಸಹ",
      "ಾಯ</w>"
    ],
    [
      "ಲ್ಲ",
      "ದ"
    ],
    [
      "ವಿರುದ್ಧ",
      "</w>"
    ],
    [
      "ಟು",
      "ಂಬ"
    ],
    [
      "ತಿ",
      "ಂ"
    ],
    [
      "ರಾ",
      "</w>"
    ],
    [
      "ಸಮಯ",
      "ದಲ್ಲಿ</w>"
    ],
    [
      "ಮಾಡ",
      "ುವ</w>"
    ],
    [
      "ಿಕ",
      "ವಾಗಿ</w>"
    ],
    [
      "ಷ್",
      "ಣ"
    ],
    [
      "ತ್",
      "ಯ</w>"
    ],
    [
      "ಅ",
      "ಲ್ಲಿ</w>"
    ],
    [
      "ಪ್ರ",
      "ಸ್ತ"
    ],
    [
      "ಪ",
      "್ಟ"
    ],
    [
      "ಜನ",
      "ಪ್ರ"
    ],
    [
      "೧",
      "ರ</w>"
    ],
    [
      "ನಲ್ಲ",
      "ಿರುವ</w>"
    ],
    [
      "ನ್",
      "ಸ್</w>"
    ],
    [
      "ಅಧಿಕ",
      "ಾರ"
    ],
    [
      "ಹ",
      "ಬ್ಬ"
    ],
    [
      "ರ್",
      "ಜ"
    ],
    [
      "ಕ್",
      "‌</w>"
    ],
    [
      "ಇದ",
      "ರ</w>"
    ],
    [
      "ತ",
      "ೊ"
    ],
    [
      "ಶ",
      "ೀ"
    ],
    [
      "ುದ",
      "್ದ"
    ],
    [
      "ನಡ",
      "ೆಯ"
    ],
    [
      "ಗಳ",
      "ಾಗ"
    ],
    [
      "ಗು",
      "ಂಪ"
    ],
    [
      "ಚ",
      "್</w>"
    ],
    [
      "ಘ",
      "ಟ"
    ],
    [
      "ತ",
      "ಾನ"
    ],
    [
      "ರ",
      "ವರೆಗೆ</w>"
    ],
    [
      "ನ್‌",
      "ನ</w>"
    ],
    [
      "ಡ",
      "ಿಸ"
    ],
    [
      "ಕು",
      "ಟುಂಬ"
    ],
    [
      "ಆ",
      "ಧ"
    ],
    [
      "ಾಗಿದ್ದ",
      "ಾರೆ.</w>"
    ],
    [
      "ಸಂ",
      "ಸ್ಥಾನ"
    ],
    [
      "ಕ್",
      "ಲ"
    ],
    [
      "ತ",
      "ನ"
    ],
    [
      "ುತ್ತ",
      "ಿದ್ದ"
    ],
    [
      "ಆಫ",
      "್</w>"
    ],
    [
      "ಿದ",
      "ೆ,</w>"
    ],
    [
      "೧೯",
      "೬"
    ],
    [
      "ಸ",
      "ಂದ"
    ],
    [
      "ಕ",
      "ೇಳ"
    ],
    [
      "ವಾಗ",
      "ಿತ್ತು.</w>"
    ],
    [
      "ಲೆ",
      "ಂಡ"
    ],
    [
      "ಸಂಗ",
      "ೀತ"
    ],
    [
      "ಜ",
      "ು"
    ],
    [
      "ಬ",
      "ಯ"
    ],
    [
      "ಆ",
      "ಳ"
    ],
    [
      "ಪರಿ",
      "ಗಣ"
    ],
    [
      "ಿಸ",
      "ಿದ್ದಾರೆ.</w>"
    ],
    [
      "ಂದ",
      "ು,</w>"
    ],
    [
      "ೊ",
      "ಬ್ಬ"
    ],
    [
      "ಿಕ",
      "ೆಯ</w>"
    ],
    [
      "ರ",
      "ಳ"
    ],
    [
      "ಮಾರ್",
      "ಗ"
    ],
    [
      "ಹ",
      "ೇ"
    ],
    [
      "ವ",
      "ೀ"
    ],
    [
      "ುವುದ",
      "ಿಲ್ಲ.</w>"
    ],
    [
      "ಮ",
      "ಕ್ಕ"
    ],
    [
      "ನ",
      "ಿಕ"
    ],
    [
      "ಶ",
      "ು"
    ],
    [
      "ಪೂರ್",
      "ಣ"
    ],
    [
      "ಮೊದ",
      "ಲು</w>"
    ],
    [
      "ಕೋ",
      "ಟ"
    ],
    [
      "ಘ",
      "ಾ"
    ],
    [
      "ಮಾಡ",
      "ಿದ"
    ],
    [
      "ನ",
      "ು"
    ],
    [
      "ತ",
      "ಿದ"
    ],
    [
      "ಸ್",
      "ತಿ"
    ],
    [
      "ಲಾಗ",
      "ಿದೆ.</w>"
    ],
    [
      "ಿಯ",
      "ೂ</w>"
    ],
    [
      "ಿಕ",
      "ೆ"
    ],
    [
      "ಂಟ",
      "್</w>"
    ],
    [
      "ಪ್ರಕಾರ",
      ",</w>"
    ],
    [
      "ರ",
      "ವರು</w>"
    ],
    [
      "ಒ",
      "ಪ್ಪ"
    ],
    [
      "್ರ",
      "ೆ"
    ],
    [
      "ನ್",
      "ಸ"
    ],
    [
      "ರ್",
      "ಯ"
    ],
    [
      "ಅವ",
      "ರನ್ನು</w>"
    ],
    [
      "ಸ",
      "ಣ್ಣ</w>"
    ],
    [
      "ಇ",
      "ಂಡ"
    ],
    [
      "ೀ",
      "ಯ"
    ],
    [
      "ಖ",
      "ರೀ"
    ],
    [
      "ವ",
      "ನ್ನ"
    ],
    [
      "ವಿಧ",
      "ಾನ"
    ],
    [
      "ಮ್ಮ",
      "ೆ</w>"
    ],
    [
      "ಆಗ",
      "ಿದೆ.</w>"
    ],
    [
      "ಸಿ",
      "ನಲ್ಲಿ</w>"
    ],
    [
      "ಬಹುದ",
      "ು</w>"
    ],
    [
      "ುವ",
      "ಿನ</w>"
    ],
    [
      "ಲ",
      "ೆ</w>"
    ],
    [
      "ೇ",
      "ಕ"
    ],
    [
      "ತ್ಮ",
      "ಕ</w>"
    ],
    [
      "ವ",
      "ೇ</w>"
    ],
    [
      "ನಿ",
      "ಧನ"
    ],
    [
      "ವ",
      "್ರ"
    ],
    [
      "ತಿ",
      "ಹಾಸ"
    ],
    [
      "ಶ",
      "್"
    ],
    [
      "ಂಪ",
      "ಿಯ"
    ],
    [
      "ಿತ",
      "ು,</w>"
    ],
    [
      "ಮಾ",
      "ನ</w>"
    ],
    [
      "ಹೆ",
      "ಸ"
    ],
    [
      "ರ",
      "ೆಯ"
    ],
    [
      "ಕ",
      "ರ</w>"
    ],
    [
      "ಿಯ",
      "ಾಗಿ</w>"
    ],
    [
      "ಮಾ",
      "</w>"
    ],
    [
      "೦೦",
      "</w>"
    ],
    [
      "ನ",
      "ಾನ"
    ],
    [
      "ನ",
      "ಲ್ಲಿ,</w>"
    ],
    [
      "ಾಗ",
      "್"
    ],
    [
      "ನಡುವ",
      "ೆ</w>"
    ],
    [
      "ಿಸ",
      "ಬಹುದು.</w>"
    ],
    [
      "ಾಯ",
      "ಿತು.</w>"
    ],
    [
      "ಪ",
      "ೋ"
    ],
    [
      "ಮ",
      "ೌ"
    ],
    [
      "ದ",
      "ುರ"
    ],
    [
      "ಫ",
      "ಾ"
    ],
    [
      "ಸ್",
      "ವಾ"
    ],
    [
      "೧",
      "೫"
    ],
    [
      "ಗ",
      "್</w>"
    ],
    [
      "೨",
      "ರ</w>"
    ],
    [
      "ದ",
      "್"
    ],
    [
      "ಹಿಂದ",
      "ೂ</w>"
    ],
    [
      "ಎಂಬುದ",
      "ನ್ನು</w>"
    ],
    [
      "ಮುಖ",
      "್ಯ</w>"
    ],
    [
      "ಧ",
      "ರ್ಮ"
    ],
    [
      "ನಾ",
      "ದ</w>"
    ],
    [
      "ದಶ",
      "ಕ"
    ],
    [
      "ನ",
      "ಂಬ"
    ],
    [
      "ಮಾರ",
      "ಾಟ"
    ],
    [
      "ಶ",
      "ೈ"
    ],
    [
      "ಮ",
      "ಗ"
    ],
    [
      "೮",
      "ರ</w>"
    ],
    [
      "ಕ್ಕ",
      "ಿಂತ</w>"
    ],
    [
      "ಜ",
      "ೂ"
    ],
    [
      "ಮಾ",
      "ತ್ರ</w>"
    ],
    [
      "ಜ",
      "ಯ"
    ],
    [
      "ಮ",
      "ನೆ"
    ],
    [
      "ವೇ",
      "ಶ"
    ],
    [
      "ಪ್ರದೇಶ",
      "ದ</w>"
    ],
    [
      "ಕ್ರೀಡ",
      "ಾ"
    ],
    [
      "ಜ",
      "ಿ</w>"
    ],
    [
      "ಹ",
      "ರಣ"
    ],
    [
      "ುವ",
      "ಾ"
    ],
    [
      "ಡ",
      "ು"
    ],
    [
      "ವ",
      "ೂ</w>"
    ],
    [
      "ಅ",
      "ವು</w>"
    ],
    [
      "ವ",
      "</w>"
    ],
    [
      "ಶಾ",
      "ಸ್ತ್ರ"
    ],
    [
      "ೊಂದ",
      "ನ್ನು</w>"
    ],
    [
      "ರ",
      "ಾಗಿದ್ದರು.</w>"
    ],
    [
      "ಉ",
      "ದಾ"
    ],
    [
      "ಳ",
      "ಿ"
    ],
    [
      "ತ",
      "ೆಯನ್ನು</w>"
    ],
    [
      "ನ್ಯ",
      "ೂ"
    ],
    [
      "ಬೇಕ",
      "ಾಗ"
    ],
    [
      "ಮಾ",
      "ತ"
    ],
    [
      "ತ",
      "ಂದ"
    ],
    [
      "ರ",
      "ೊಂದಿಗೆ</w>"
    ],
    [
      "ಬ",
      "ೋ"
    ],
    [
      "ಲ",
      "ು,</w>"
    ],
    [
      "ನಾ",
      "ಟ"
    ],
    [
      "ವೃ",
      "ದ್ಧ"
    ],
    [
      "ಫ",
      "ಲ"
    ],
    [
      "ರ್",
      "ಚ"
    ],
    [
      "ಪಡೆ",
      "ದ"
    ],
    [
      ",೦೦",
      "೦</w>"
    ],
    [
      "ಒ",
      "ದ"
    ],
    [
      "ಮಹಿ",
      "ಳೆಯ"
    ],
    [
      "ದ",
      "ೊಂದಿಗೆ</w>"
    ],
    [
      "ಹ",
      "ೈ"
    ],
    [
      "ಚ",
      "ೇ"
    ],
    [
      "ಆಡ",
      "ಳ"
    ],
    [
      "ಸಿ",
      "ಗ"
    ],
    [
      "ಐ",
      "."
    ],
    [
      "ಪಾ",
      "ವ"
    ],
    [
      "ತ",
      "ಪ್ಪ"
    ],
    [
      "ತ",
      "ಂ"
    ],
    [
      "ಗುರ",
      "ುತ"
    ],
    [
      "ತ",
      "ೆಯ</w>"
    ],
    [
      "ವಿ",
      "ವರ"
    ],
    [
      "ಪ",
      "ಕ್ಷ"
    ],
    [
      "ಣ",
      "ಿ</w>"
    ],
    [
      "ಅಗ",
      "ತ್ಯ"
    ],
    [
      "ಆಕ",
      "ೆಯ</w>"
    ],
    [
      "ಬಾ",
      "ಲ್</w>"
    ],
    [
      "ಬ",
      "ಣ್ಣ"
    ],
    [
      "ಸ",
      "ೌ"
    ],
    [
      "ಇ",
      "ಂಗ್"
    ],
    [
      "ಾಗ",
      "ಿ,</w>"
    ],
    [
      "ಉದಾ",
      "ಹರಣ"
    ],
    [
      "ಫ",
      "ು"
    ],
    [
      "ೇ",
      "ಖ"
    ],
    [
      "ವೆ",
      "ಂದು</w>"
    ],
    [
      "ಸಾ",
      "ರ್ವ"
    ],
    [
      "ರ್",
      "ಭ"
    ],
    [
      "ತುಂಬ",
      "ಾ</w>"
    ],
    [
      "ಮ",
      "ಹ"
    ],
    [
      "ರಾ",
      "ದ</w>"
    ],
    [
      "ಿಯ",
      "ಾಗಿದೆ.</w>"
    ],
    [
      "ಲ",
      "ಕ್ಷಣ"
    ],
    [
      "ಪು",
      "ನ"
    ],
    [
      "ಎ",
      "ತ್ತ"
    ],
    [
      "ಂಪ",
      "ಿ"
    ],
    [
      "ಸ್ವ",
      "ಲ್ಪ"
    ],
    [
      "ಳ",
      "ಿಗ"
    ],
    [
      "ಿಸ",
      "ಿ,</w>"
    ],
    [
      "ಸಾ",
      "ಕ"
    ],
    [
      "ವಿ",
      "ಭಾಗ"
    ],
    [
      "ತ",
      "ಮಿ"
    ],
    [
      "ತ",
      "ಾ</w>"
    ],
    [
      "ವರ್",
      "ಗ"
    ],
    [
      "ಚಾ",
      "ಂಪಿಯ"
    ],
    [
      "ಾಗಿದ್ದ",
      "ು,</w>"
    ],
    [
      "ಸಂ",
      "ಪರ್"
    ],
    [
      "ಕ್",
      "ಸ್</w>"
    ],
    [
      "ನಾಲ್ಕ",
      "ು</w>"
    ],
    [
      "ಲ",
      "ಿಕ"
    ],
    [
      "ರಿ",
      "ಗ"
    ],
    [
      "ಪಶ್ಚಿ",
      "ಮ</w>"
    ],
    [
      "ಫ",
      "ೋ"
    ],
    [
      "೧",
      "೬"
    ],
    [
      "೧೯",
      "೫"
    ],
    [
      "ಜ",
      "್</w>"
    ],
    [
      "ಕೆಲ",
      "ಸ</w>"
    ],
    [
      "ಸೇರ",
      "ಿದ"
    ],
    [
      "ರೀ",
      "ತಿಯ</w>"
    ],
    [
      "ರ",
      "ಕ್ತ"
    ],
    [
      "ಿಸ",
      "ಿದ್ದರು.</w>"
    ],
    [
      "ಆತ",
      "ನನ್ನು</w>"
    ],
    [
      "ಭೂ",
      "ಮ"
    ],
    [
      "ಕೃ",
      "ತ"
    ],
    [
      "ಸ",
      "ಮಾ"
    ],
    [
      "ಿರ",
      "ುತ್ತದೆ.</w>"
    ],
    [
      "ನ",
      "ೃ"
    ],
    [
      "ದ",
      "ೇ</w>"
    ],
    [
      "ರ",
      "ದ</w>"
    ],
    [
      "ಮುಂದ",
      "ುವ"
    ],
    [
      "ಹ",
      "ಳ"
    ],
    [
      "ಮಾಡ",
      "ಿದರು.</w>"
    ],
    [
      "ಕಾ",
      "ಲ</w>"
    ],
    [
      "ವ",
      "ು,</w>"
    ],
    [
      "ಒದ",
      "ಗ"
    ],
    [
      "ಬ",
      "ಂಧ"
    ],
    [
      "ಿದ್ದ",
      "ು</w>"
    ],
    [
      "ಕೆ",
      "ಳ"
    ],
    [
      "ಇದ",
      "್ದ"
    ],
    [
      "ಆ",
      "ಸ್ಟ್ರ"
    ],
    [
      "ಲ",
      "ದ</w>"
    ],
    [
      "ಇ",
      "ನ್ನೂ</w>"
    ],
    [
      "ವ",
      "ೆ,</w>"
    ],
    [
      "ತಾ",
      "ಣ"
    ],
    [
      "ಕ",
      "ೀಯ</w>"
    ],
    [
      "೧",
      "೦"
    ],
    [
      "ಗ",
      "ೊಳ್ಳ"
    ],
    [
      "ಸ್ಥಳ",
      "ೀಯ</w>"
    ],
    [
      "ಪಟ್ಟ",
      "ಣ"
    ],
    [
      "ದಲ್ಲ",
      "ಿದೆ.</w>"
    ],
    [
      "ಯ",
      "ಶ"
    ],
    [
      "ನಿಯ",
      "ಂತ್ರ"
    ],
    [
      "ಸಂ",
      "ಭವ"
    ],
    [
      "ಪ್ರ",
      "ಿ"
    ],
    [
      "ಿಸ",
      "ುವುದ"
    ],
    [
      "ಖರೀ",
      "ದ"
    ],
    [
      "ವೆ",
      "ಂಬ"
    ],
    [
      "ದೆ",
      "ಹಲ"
    ],
    [
      "ವ",
      "ಲ</w>"
    ],
    [
      "್ಯ",
      "ು"
    ],
    [
      "ಪಾ",
      "ಲ"
    ],
    [
      "೪",
      "ರ</w>"
    ],
    [
      "ಿಯ",
      "ಿಂದ</w>"
    ],
    [
      ";",
      "</w>"
    ],
    [
      "ಸ್‌",
      "ನಲ್ಲಿ</w>"
    ],
    [
      "ನ",
      "ೆಯ"
    ],
    [
      "ಇ",
      "ನ್ನ"
    ],
    [
      "ಪ",
      "ತ್ತ"
    ],
    [
      "ಆಗ",
      "್"
    ],
    [
      "ನ",
      "ವನ್ನು</w>"
    ],
    [
      "ಸಮ",
      "ಸ್ಯ"
    ],
    [
      "ೆಂಬ",
      "ರ್</w>"
    ],
    [
      "ಸ",
      "ು</w>"
    ],
    [
      "ಲಿ",
      "ಂಪಿ"
    ],
    [
      "ವೃತ್ತ",
      "ಿ"
    ],
    [
      "ಿಯ",
      "ನ್</w>"
    ],
    [
      "ಗ",
      "ೌ"
    ],
    [
      "ಯ",
      "ೂ"
    ],
    [
      "ಬ",
      "ಂಗ"
    ],
    [
      "ಸ್ಟ",
      "ಾ"
    ],
    [
      "೭",
      "ರ</w>"
    ],
    [
      "ಈ",
      "ಗ</w>"
    ],
    [
      "ಿಸ",
      "ಿ.</w>"
    ],
    [
      "ಮ",
      "ದ"
    ],
    [
      "ಟ",
      "ೈ"
    ],
    [
      "ಪ್ರಶ",
      "ಸ್ತ"
    ],
    [
      "ಘ",
      "ೋಷ"
    ],
    [
      "ಮೂ",
      "ರ"
    ],
    [
      "ಕಾರ್ಯ",
      "ಕ್ರಮ"
    ],
    [
      "ಅಭಿ",
      "ವೃದ್ಧ"
    ],
    [
      "ಲಯ",
      "ದ</w>"
    ],
    [
      "ವಿಷ",
      "ಯ"
    ],
    [
      "ದಶ",
      "ಲಕ್ಷ"
    ],
    [
      "೬",
      "ರ</w>"
    ],
    [
      "ನ",
      "ನ್</w>"
    ],
    [
      "ಅಧ್ಯ",
      "ಕ್ಷ"
    ],
    [
      "ಕ್ರ",
      "ಾ"
    ],
    [
      "ಧ",
      "ರ"
    ],
    [
      "ಆಚ",
      "ರ"
    ],
    [
      "ವಿ",
      "ಸ್ತ"
    ],
    [
      "ಕೇ",
      "ವಲ</w>"
    ],
    [
      "ಕ್ರ",
      "ಿಯ"
    ],
    [
      "ನಿ",
      "ಲ್"
    ],
    [
      "ಹಿ",
      "ಡ"
    ],
    [
      "ಾಯ",
      "ಾ"
    ],
    [
      "ಆ",
      "ಹಾರ"
    ],
    [
      "ಪುರ",
      "ುಷ"
    ],
    [
      "ಷ್ಠ",
      "</w>"
    ],
    [
      "ನಿ",
      "ಧ"
    ],
    [
      "ವರ್ಷ",
      "ಗಳ</w>"
    ],
    [
      ".",
      "ಪಿ"
    ],
    [
      "ಮಾ",
      "ದ"
    ],
    [
      "ಅ",
      "ತಿ</w>"
    ],
    [
      "ಮಿ",
      "ಷ"
    ],
    [
      "ಿದ್ದ",
      "ರೆ,</w>"
    ],
    [
      "ಮತ್ತ",
      "ೆ</w>"
    ],
    [
      "ವಿಶ್ವ",
      "</w>"
    ],
    [
      "ಶ್ರ",
      "ೇ"
    ],
    [
      "ಅತ್ಯ",
      "ುತ್ತ"
    ],
    [
      "ಬಹ",
      "ಳ</w>"
    ],
    [
      "೮",
      "</w>"
    ],
    [
      "ಕ್ರ",
      "ಿ"
    ],
    [
      "ಬ್ರಿಟಿ",
      "ಷ್</w>"
    ],
    [
      "ಚಿ",
      "ತ್ರ</w>"
    ],
    [
      "ೊ",
      "ಮ್ಮೆ</w>"
    ],
    [
      "ಬ",
      "ೌ"
    ],
    [
      "ಸಾಮಾ",
      "ನ್ಯ</w>"
    ],
    [
      "ಗ",
      "ಿನ</w>"
    ],
    [
      "ಯ",
      "ೋಗ"
    ],
    [
      "ದ್ವ",
      "ೀಪ"
    ],
    [
      "ು",
      "ಗಳ"
    ],
    [
      "ಬೇಕ",
      "ು.</w>"
    ],
    [
      "ತ",
      "ೆಯ"
    ],
    [
      "ಸ",
      "ಲ್ಲ"
    ],
    [
      "ಸ್ತ",
      "ಾನ"
    ],
    [
      "ಸಂಗ",
      "್ರ"
    ],
    [
      "ತ",
      "ಿಕ"
    ],
    [
      "ಉ",
      "ಲ್ಲ"
    ],
    [
      "ೆಗ",
      "ೆ,</w>"
    ],
    [
      "ದಲ್ಲ",
      "ಿನ</w>"
    ],
    [
      "ವ",
      "ರ</w>"
    ],
    [
      "ಲ",
      "ೂ"
    ],
    [
      "ೊಂದ",
      "ಿಗ"
    ],
    [
      "ಿಸಲಾಗ",
      "ಿತ್ತು.</w>"
    ],
    [
      "ಸೇ",
      "ರಿ"
    ],
    [
      "ೆ",
      "ಗಳಲ್ಲಿ</w>"
    ],
    [
      "ನಿಯ",
      "ಮ"
    ],
    [
      "೧೯",
      "೪"
    ],
    [
      "ಕರೆಯ",
      "ಲಾಗುತ್ತದೆ.</w>"
    ],
    [
      "ೇ",
      "ಜ"
    ],
    [
      "ಮ",
      "ಂಡ"
    ],
    [
      "ಪ",
      "ತ್ರ"
    ],
    [
      "ಬ",
      "ೈ"
    ],
    [
      "ಸಾ",
      "ಹ"
    ],
    [
      "ಅ",
      "ಲ್ಲ"
    ],
    [
      "ಕಂಡು",
      "ಬರ"
    ],
    [
      "ವ",
      "ೇಳ"
    ],
    [
      "ಅ",
      "ರ"
    ],
    [
      "ಕ್",
      "ತಿ"
    ],
    [
      "ಆ",
      "ರ್ಥ"
    ],
    [
      "ನಿಲ್",
      "ದಾ"
    ],
    [
      "ವಯಸ್",
      "ಸಿನಲ್ಲಿ</w>"
    ],
    [
      "ಟ",
      "ದ</w>"
    ],
    [
      "೭",
      "</w>"
    ],
    [
      "ಾಳ",
      "ೆ.</w>"
    ],
    [
      "ಕ",
      "ೀ"
    ],
    [
      "ಸ",
      "ಿನ</w>"
    ],
    [
      "ನ",
      "ೊಂದಿಗೆ</w>"
    ],
    [
      ".ಎಸ್",
      "."
    ],
    [
      "ವ",
      "ಂಶ"
    ],
    [
      "ಸಂ",
      "ಸ್"
    ],
    [
      "ಾ",
      "ಂಶ"
    ],
    [
      "್ರ",
      "ೆ</w>"
    ],
    [
      "ೆಯ",
      "ೇ</w>"
    ],
    [
      "ಿತ್ತ",
      "ು</w>"
    ],
    [
      "ಜ",
      "ಲ"
    ],
    [
      "ಮಾಡ",
      "್"
    ],
    [
      "ಕ್ಟ",
      "ೋ"
    ],
    [
      "ಪು",
      "ರಾ"
    ],
    [
      "ತ್ತ",
      "ು</w>"
    ],
    [
      "೨೦",
      "೨"
    ],
    [
      "ಬಿಡುಗ",
      "ಡೆ</w>"
    ],
    [
      "ಅವ",
      "ರಿಗೆ</w>"
    ],
    [
      "ವಿಶ್ವ",
      "ವಿದ್ಯಾ"
    ],
    [
      "ಜ",
      "ೇ"
    ],
    [
      "ಿಸ",
      "ಿದೆ.</w>"
    ],
    [
      "ಗ",
      "ಮ"
    ],
    [
      "ಕ",
      "ಿ</w>"
    ],
    [
      "ಸಾ",
      "ಧ"
    ],
    [
      "ಅ",
      "ಭ"
    ],
    [
      "ಂಗ",
      "್‌"
    ],
    [
      "ಇ",
      "ಬ್ಬ"
    ],
    [
      "ರ",
      "ಂದು,</w>"
    ],
    [
      "ಅ",
      "ಲ"
    ],
    [
      "ತ",
      "ೆಗೆ</w>"
    ],
    [
      "ಒ",
      "ಲಿಂಪಿ"
    ],
    [
      "ನಿರ್",
      "ದಿ"
    ],
    [
      "ಸೋ",
      "ಲ"
    ],
    [
      "ಿದ್ದ",
      "ವು.</w>"
    ],
    [
      "ಗ",
      "ೊ"
    ],
    [
      "ದ್ಯ",
      "ಂತ</w>"
    ],
    [
      "ನಿಧನ",
      "ರಾದರು.</w>"
    ],
    [
      "ೆಯ",
      "ಾದ"
    ],
    [
      "ಕ",
      "ಡ"
    ],
    [
      "ಸ್",
      ",</w>"
    ],
    [
      "ಾರ",
      "ೆ,</w>"
    ],
    [
      "ಆ",
      "ಲ್"
    ],
    [
      "ಬೆ",
      "ಂಬ"
    ],
    [
      "ನಡೆ",
      "ದ</w>"
    ],
    [
      "ಣ",
      "ವನ್ನು</w>"
    ],
    [
      "ತಿಳ",
      "ಿದ"
    ],
    [
      "ಧ",
      "್ವ"
    ],
    [
      "ಮ",
      "ಿ</w>"
    ],
    [
      "ತೀ",
      "ವ್ರ"
    ],
    [
      "ಸ",
      "ಲ"
    ],
    [
      "ಎ",
      "ಂ"
    ],
    [
      "ದ",
      "ಾರ"
    ],
    [
      "ಜ",
      "ಾಗ"
    ],
    [
      "ಕೂ",
      "ಡ</w>"
    ],
    [
      "ಚ",
      "ಂಡ"
    ],
    [
      "ಜನ",
      "ಸಂಖ್ಯ"
    ],
    [
      "ನಾ",
      "ಡ"
    ],
    [
      "ಅ",
      "ಂಶ"
    ],
    [
      "ಅಂತ",
      "ಿ"
    ],
    [
      "ದ",
      "ರ್ಶ"
    ],
    [
      "ಕೋ",
      "ಶ"
    ],
    [
      "ಅ",
      "ನ್"
    ],
    [
      "ನ",
      "ಂಗ್</w>"
    ],
    [
      "ತೋ",
      "ರ"
    ],
    [
      "೩",
      "ರ</w>"
    ],
    [
      "ನ",
      "ೂ</w>"
    ],
    [
      "ವೈ",
      "ದ್ಯ"
    ],
    [
      "ಪ್ರಾ",
      "ಂತ್ಯ"
    ],
    [
      "ಮೇ",
      "ಲ್"
    ],
    [
      "ಚೆ",
      "ಂಡ"
    ],
    [
      "ಶ್ರ",
      "ೀ"
    ],
    [
      "ಅತ್ಯುತ್ತ",
      "ಮ</w>"
    ],
    [
      "ಪ",
      "ರೀಕ್ಷ"
    ],
    [
      "ನಾ",
      "ರ್"
    ],
    [
      "ಲ",
      "ಂಬ"
    ],
    [
      "ಏ",
      "ಷ"
    ],
    [
      "ು",
      "ತ</w>"
    ],
    [
      "ಪ್ರ",
      "ೇ"
    ],
    [
      "ಹ",
      "ಂತ"
    ],
    [
      "ಸ",
      "ಾಗ"
    ],
    [
      "ಸೇರಿದ",
      "ಂತೆ</w>"
    ],
    [
      "ತ",
      "ಂತ್ರ"
    ],
    [
      "ಮಾಡ",
      "ುತ್ತ"
    ],
    [
      "ವಾಗ",
      "ಿದ್ದು,</w>"
    ],
    [
      "ರ",
      "ಕ್ಷ"
    ],
    [
      "ಮ",
      "ಹಾ"
    ],
    [
      "ು",
      "ಹ"
    ],
    [
      "೫",
      "ರ</w>"
    ],
    [
      "ಅಪ",
      "ಾಯ"
    ],
    [
      "ಅ",
      "ಂಕ"
    ],
    [
      "ಟ",
      "ೋ"
    ],
    [
      "ತ್",
      "ರಿ"
    ],
    [
      "ನ್‌",
      "ನಲ್ಲಿ</w>"
    ],
    [
      "ಟ",
      "ರ್"
    ],
    [
      "ಆಸ್ಟ್ರ",
      "ೇ"
    ],
    [
      "ಗಳಾಗ",
      "ಿವೆ.</w>"
    ],
    [
      "ಗ",
      "ಾಗ"
    ],
    [
      "ಕರೆಯಲಾಗ",
      "ುವ</w>"
    ],
    [
      "ರಿ",
      "ಂದ,</w>"
    ],
    [
      "ಸ",
      "ಾರ"
    ],
    [
      "ಸಂಗ",
      "ೀ"
    ],
    [
      "ಖ",
      "ಂಡ"
    ],
    [
      "ಮಾಡ",
      "ಿದ</w>"
    ],
    [
      "ಆಸ್ಟ್ರೇ",
      "ಲಿಯ"
    ],
    [
      "ಜಾ",
      "ಲ"
    ],
    [
      "ಿಕ",
      "ೆಯನ್ನು</w>"
    ],
    [
      "ಷ",
      "ಿ"
    ],
    [
      "ಕಾ",
      "ನೂ"
    ],
    [
      "ುತ್ತ",
      "ಿತ್ತು.</w>"
    ],
    [
      "ಫ",
      "್ರಾ"
    ],
    [
      "ಪ್ರ",
      "ಸಿದ್ಧ"
    ],
    [
      "ಪೂರ್ವ",
      "</w>"
    ],
    [
      "ಸ್",
      "ಲಿ"
    ],
    [
      "ಿರ",
      "ುವ"
    ],
    [
      "ಪ್ರ",
      "ತಿಯ"
    ],
    [
      "ನ",
      "ಿಕ</w>"
    ],
    [
      ".",
      "ಬಿ"
    ],
    [
      "ಾನ",
      "ೆ</w>"
    ],
    [
      "ಹ",
      "್ಯಾ"
    ],
    [
      "ಯ",
      "ಿ"
    ],
    [
      "ಲ",
      "ಿನ</w>"
    ],
    [
      "ತ",
      "ು</w>"
    ],
    [
      "ಇ",
      "ಲ್ಲ"
    ],
    [
      "ಣ",
      "ೆ</w>"
    ],
    [
      "ಸೇ",
      "ವ"
    ],
    [
      "ವ",
      "ಿಕ"
    ],
    [
      "ಗಳ",
      "ಿವೆ.</w>"
    ],
    [
      "ಸ್ವಲ್ಪ",
      "</w>"
    ],
    [
      "ಮಾಡ",
      "ಲಾಯಿತು.</w>"
    ],
    [
      "ಬೇ",
      "ರೆ</w>"
    ],
    [
      "ಒಟ್ಟ",
      "ು</w>"
    ],
    [
      "ಭಾರತ",
      "ದಲ್ಲಿ</w>"
    ],
    [
      "ಂ",
      "ಜಾ"
    ],
    [
      "ಬಿ",
      "ಡ"
    ],
    [
      "ಡಿ",
      ".</w>"
    ],
    [
      "ನ",
      "ಂದ"
    ],
    [
      "ಸಂಗೀ",
      "ತ</w>"
    ],
    [
      ".",
      "ಯ"
    ],
    [
      "ಟ",
      "ೀ"
    ],
    [
      "ಪ್ರ",
      "ವೇಶ"
    ],
    [
      "ಇ",
      "ಡ"
    ],
    [
      "ವ",
      "್"
    ],
    [
      "ಜಿಲ್ಲ",
      "ೆಯ</w>"
    ],
    [
      "ಅ",
      "ಂದ"
    ],
    [
      "ಮೂರ",
      "ನೇ</w>"
    ],
    [
      "ಡ",
      "್ರ"
    ],
    [
      "೧",
      "೨"
    ],
    [
      "ವಿಶೇಷ",
      "ವಾಗಿ</w>"
    ],
    [
      "ಕ",
      "ಲ"
    ],
    [
      "ಶತಮಾನ",
      "ದ</w>"
    ],
    [
      "ಿ",
      "ಗಳ</w>"
    ],
    [
      "ಾ",
      "ನ</w>"
    ],
    [
      "ತರ",
      "ಬೇ"
    ],
    [
      "ರ",
      "ೊ"
    ],
    [
      "ಟೆ",
      "ಡ್</w>"
    ],
    [
      "ು",
      "ಳ"
    ],
    [
      ".",
      "ಮೀ"
    ],
    [
      "ಅವ",
      "ಕಾಶ"
    ],
    [
      "ಿಸ",
      "ಲಾದ</w>"
    ],
    [
      "ಬಾರ",
      "ಿ</w>"
    ],
    [
      "ಮೊ",
      "ಘ"
    ],
    [
      "ಳ",
      "ು.</w>"
    ],
    [
      "ಅಂತ",
      "ಾರಾ"
    ],
    [
      "ಆಡಳ",
      "ಿತ"
    ],
    [
      "್ಯ",
      "ಾರ"
    ],
    [
      "ಪ್ರ",
      "ಕರಣ"
    ],
    [
      "ತ",
      "ಲು"
    ],
    [
      "ಅಧ್ಯ",
      "ಯ"
    ],
    [
      "ಅ",
      "ರ್ಥ"
    ],
    [
      "ಸೆ",
      "ಪ್ಟ"
    ],
    [
      "ಪ್ರ",
      "ತಿಕ"
    ],
    [
      "ಬೇಕ",
      "ು</w>"
    ],
    [
      "ಒ",
      "ತ್ತ"
    ],
    [
      "ಕ್ಕ",
      "ಿ"
    ],
    [
      "ಕ",
      "ಿರ"
    ],
    [
      "ಉಲ್ಲ",
      "ೇಖ"
    ],
    [
      "ರ",
      "ಕ್ಷಣ"
    ],
    [
      "ರಿಯ",
      "ಾ"
    ],
    [
      "ಟ",
      "್‌</w>"
    ],
    [
      "ನಿ",
      "ಮಿಷ"
    ],
    [
      "ಅಂತಾರಾ",
      "ಷ್ಟ್ರ"
    ],
    [
      "ಕ",
      "ುರ"
    ],
    [
      "ು",
      "ಗಳಲ್ಲಿ</w>"
    ],
    [
      "ಸಾಂ",
      "ಪ್ರದಾಯ"
    ],
    [
      "ಮ",
      "ಂದ"
    ],
    [
      "ಜನಪ್ರ",
      "ಿಯ"
    ],
    [
      "ನ",
      "ವ"
    ],
    [
      "ಕೆಲ",
      "ಸ"
    ],
    [
      "ಅವ",
      "ನ</w>"
    ],
    [
      "ಎ",
      "ಸ್"
    ],
    [
      "ದ",
      "ಂಡ"
    ],
    [
      "ಸ",
      "ಂತ"
    ],
    [
      "ಫು",
      "ಟ್"
    ],
    [
      "ಕ",
      "ವನ್ನು</w>"
    ],
    [
      "ಲಭ",
      "್ಯ"
    ],
    [
      "ಸಂದ",
      "ರ್ಭ"
    ],
    [
      "ರ್‌",
      "ನ</w>"
    ],
    [
      "ಹು",
      "ಟ್ಟ"
    ],
    [
      "ಕಾ",
      "ಂಗ"
    ],
    [
      "ಲ್ಯಾ",
      "ಂಡ"
    ],
    [
      "ಗಳ",
      "ಿ"
    ],
    [
      "ಅ",
      "ಡ"
    ],
    [
      "ಬ",
      "ರ್</w>"
    ],
    [
      "ವರ್",
      "ತ"
    ],
    [
      "ಗ",
      "ಂಟ"
    ],
    [
      "೧",
      "೩"
    ],
    [
      "ಅ",
      "ಲ್"
    ],
    [
      "ಹ",
      "ರಡ"
    ],
    [
      "ಫ",
      "್ಟ"
    ],
    [
      "ಇ",
      "ತ್ತ"
    ],
    [
      "ಮೀ",
      "ಟರ್</w>"
    ],
    [
      "ನಿ",
      "ನ</w>"
    ],
    [
      "ಹೊ",
      "ತ್ತ"
    ],
    [
      "೭",
      "ರಲ್ಲಿ</w>"
    ],
    [
      "ರ್",
      "ಯಾ"
    ],
    [
      "್ಯಾ",
      "ವಳ"
    ],
    [
      "ಗ",
      "ೇ"
    ],
    [
      "ಪ್ರಾ",
      "ಚೀ"
    ],
    [
      "ಸೇರಿ",
      "ವೆ.</w>"
    ],
    [
      "ಹಣ",
      "ವನ್ನು</w>"
    ],
    [
      "ಅವ",
      "ುಗಳನ್ನು</w>"
    ],
    [
      "್",
      "ನ</w>"
    ],
    [
      "ಅಂತಾರಾಷ್ಟ್ರ",
      "ೀಯ</w>"
    ],
    [
      "ಅ",
      "ಕ್ಟೋ"
    ],
    [
      "ಐ",
      "ದು</w>"
    ],
    [
      "ತಂಡ",
      "ವು</w>"
    ],
    [
      "ಟ",
      "</w>"
    ],
    [
      "ಉತ್",
      "ಪಾದ"
    ],
    [
      "೯",
      "</w>"
    ],
    [
      "ಬ",
      "ಿ</w>"
    ],
    [
      "-",
      "</w>"
    ],
    [
      "ಕ",
      "ಣ್ಣ"
    ],
    [
      "ಪ್ರತಿ",
      "ನಿಧ"
    ],
    [
      "ತಲು",
      "ಪ"
    ],
    [
      "ಾ",
      ",</w>"
    ],
    [
      "ಅದ",
      "ೇ</w>"
    ],
    [
      "ಸಾಧ್ಯ",
      "ವಾಗ"
    ],
    [
      "ವ",
      "ಶ"
    ],
    [
      "ಗಳ",
      "ಲ್ಲ"
    ],
    [
      "ಉಂಟ",
      "ಾಗ"
    ],
    [
      "ಮ",
      "ತ"
    ],
    [
      "ಮ",
      "ಳ"
    ],
    [
      "೨೦",
      "೨೦"
    ],
    [
      "್ರ",
      "ಿಯ"
    ],
    [
      "ಏ",
      "ಪ್ರಿ"
    ],
    [
      "ನ",
      "ವೆಂಬ"
    ],
    [
      "ಕಳ",
      "ುಹ"
    ],
    [
      "ರಾ",
      "ಯ"
    ],
    [
      "ಶಿ",
      "ಕ್ಷ"
    ],
    [
      "ತ್",
      "ಯಾ"
    ],
    [
      "ಮಾಡ",
      "ುತ್ತದೆ.</w>"
    ],
    [
      "ಕೊ",
      "ನೆ"
    ],
    [
      "ಕಾರಣ",
      "ವಾಗ"
    ],
    [
      "೧",
      "೪"
    ],
    [
      "ರ",
      "ಷ್ಟು</w>"
    ],
    [
      "ಿಯ",
      "ೇ</w>"
    ],
    [
      "ರ್",
      "ಪ"
    ],
    [
      "ಎ",
      "ನ್"
    ],
    [
      "ನ",
      "ಲ್</w>"
    ],
    [
      "ಇ",
      "ತಿಹಾಸ"
    ],
    [
      "ಪೊ",
      "ಲೀ"
    ],
    [
      "ನ",
      "ವು</w>"
    ],
    [
      "೨",
      "ರಲ್ಲಿ</w>"
    ],
    [
      "ವರೆಗ",
      "ೂ</w>"
    ],
    [
      "ಕ",
      "ವಾಗಿ</w>"
    ],
    [
      "ಫ",
      "ೋರ್"
    ],
    [
      "ಆಳ",
      "್ವ"
    ],
    [
      "ಪೂರ್",
      "ಣ</w>"
    ],
    [
      "ಸಿ",
      "ಂಗ್</w>"
    ],
    [
      "ಸಾರ್ವ",
      "ಜನ"
    ],
    [
      "ನದ",
      "ಿಯ</w>"
    ],
    [
      "ನೇ",
      "ಮ"
    ],
    [
      "ಮ",
      "ರಾ"
    ],
    [
      "ನ",
      "ದಿ"
    ],
    [
      "ಕ್ಷ",
      "ೇ"
    ],
    [
      "ಕ",
      "ೊಳ"
    ],
    [
      "ಪಾ",
      "ರ್"
    ],
    [
      "ನಿ",
      "ಗ"
    ],
    [
      "ಬ",
      "್ರಾ"
    ],
    [
      "ಸ",
      "ಿಗೆ</w>"
    ],
    [
      "ೂ",
      ",</w>"
    ],
    [
      "ದಾಖ",
      "ಲ"
    ],
    [
      "ಮ",
      "ಲ"
    ],
    [
      "ಬಹ",
      "ುತ"
    ],
    [
      "ರಾ",
      "ತ್ರ"
    ],
    [
      "ಪಂದ",
      "್ಯಾವಳ"
    ],
    [
      "ಹೂ",
      "ಡ"
    ],
    [
      "ಕ್ರ",
      "ೋ"
    ],
    [
      "ಿರ",
      "ೋ</w>"
    ],
    [
      "ರ",
      "ಂಗ"
    ],
    [
      "ನಾ",
      "ಮ"
    ],
    [
      "ತ್",
      "‌"
    ],
    [
      "ತಂಡ",
      "ದ</w>"
    ],
    [
      "ಸ್ಟ",
      "ೇ"
    ],
    [
      "ವೇ",
      "ಗ"
    ],
    [
      "ನಿಲ್ದಾ",
      "ಣ"
    ],
    [
      "ಸ",
      "ುರ"
    ],
    [
      "ಎರಡ",
      "ೂ</w>"
    ],
    [
      "ಉದ್ದ",
      "ೇಶ"
    ],
    [
      "ನಿ",
      "ರಾ"
    ],
    [
      "ಬಿ",
      "ಟ್ಟ"
    ],
    [
      "ಟ",
      "ರ್‌"
    ],
    [
      "ಸಮುದ",
      "ಾಯ"
    ],
    [
      "ವಾ",
      "ಸ್ತ"
    ],
    [
      "ಬಂಗ",
      "ಾಳ"
    ],
    [
      "ಆ",
      "ಧಾರ"
    ],
    [
      "ಮು",
      "ಸ್ಲಿ"
    ],
    [
      "ಧಾ",
      "ನ</w>"
    ],
    [
      "ಒಂದ",
      "ೇ</w>"
    ],
    [
      "೧",
      "ರಲ್ಲಿ</w>"
    ],
    [
      "ಕ್",
      "ಸ್‌"
    ],
    [
      "ನಡುವ",
      "ಿನ</w>"
    ],
    [
      "ಬಹುದ",
      "ಾದ</w>"
    ],
    [
      "ಕೆಲ",
      "ವ"
    ],
    [
      "ಮು",
      "ನ್ನ"
    ],
    [
      "ಬಾರ",
      "ಿಗೆ</w>"
    ],
    [
      "ಳ್ಳ",
      "</w>"
    ],
    [
      "ವ",
      "ಿ</w>"
    ],
    [
      "ಮ",
      "ೇ</w>"
    ],
    [
      "ಉತ್ತ",
      "ಮ</w>"
    ],
    [
      "ಮತ್ತ",
      "ೊಂದು</w>"
    ],
    [
      "ರ್",
      ",</w>"
    ],
    [
      "ಿತ್ತ",
      "ು,</w>"
    ],
    [
      "ಕೌ",
      "ಂಟ"
    ],
    [
      "ುವುದ",
      "ರಿಂದ</w>"
    ],
    [
      "ಆತ",
      "ನಿಗೆ</w>"
    ],
    [
      "ುದ",
      "್ರ"
    ],
    [
      "ವೆ",
      "ಚ್ಚ"
    ],
    [
      "ಮಾತ",
      "ನಾಡ"
    ],
    [
      "ಪುರ",
      "ಸಭ"
    ],
    [
      "ಚ",
      "ಿತ"
    ],
    [
      "ಮಾಡ",
      "ಲಾಗ"
    ],
    [
      "ರ",
      "ಸ್ತ"
    ],
    [
      "ಚಿತ್ರ",
      "ದ</w>"
    ],
    [
      "ತಾನ",
      "ು</w>"
    ],
    [
      "ನ್ಯ",
      "ಾಯಾ"
    ],
    [
      "ುವ",
      "ು</w>"
    ],
    [
      "ಗ್",
      "ಗ"
    ],
    [
      "ಸೋ",
      "ಂಕ"
    ],
    [
      "ಯಶ",
      "ಸ್ವ"
    ],
    [
      "ಹ",
      "ರ"
    ],
    [
      "ಮ",
      "ನ್</w>"
    ],
    [
      "ಮರ",
      "ು"
    ],
    [
      "ಪ",
      "ನ್ನ"
    ],
    [
      "ಕೊ",
      "ನೆಯ</w>"
    ],
    [
      "ಔ",
      "ಷ"
    ],
    [
      "ಕ",
      "ಲಾ"
    ],
    [
      "ಕಳ",
      "ೆದ"
    ],
    [
      "ಯು",
      "ನೈ"
    ],
    [
      "ಿಲ್ಲ",
      "</w>"
    ],
    [
      "೫",
      "ರಲ್ಲಿ</w>"
    ],
    [
      "ಹೆಚ್ಚ",
      "ಾಗಿ</w>"
    ],
    [
      "ರಾಜ್ಯ",
      "</w>"
    ],
    [
      "ವ್ಯಾಪ",
      "ಾರ"
    ],
    [
      "ಶ",
      "ಃ</w>"
    ],
    [
      "ಹಿಂದ",
      "ೆ</w>"
    ],
    [
      ".",
      "ಟಿ"
    ],
    [
      "ಒಂದ",
      "ಾಗಿದೆ.</w>"
    ],
    [
      "ಮಾ",
      "ಹಿತ"
    ],
    [
      "ಬಳಸ",
      "ಲಾಗುತ್ತದೆ.</w>"
    ],
    [
      "ಸಹ",
      "ೋದ"
    ],
    [
      "ಹಿಂದ",
      "ಿನ</w>"
    ],
    [
      "ತಂ",
      "ತ್"
    ],
    [
      "ಸಾ",
      "ಹಿ"
    ],
    [
      "ಜು",
      "ಲೈ"
    ],
    [
      "ರೋ",
      "ಪ"
    ],
    [
      "೬",
      "ರಲ್ಲಿ</w>"
    ],
    [
      "ಫ",
      "ೈ"
    ],
    [
      "ಪ",
      "ಂಜಾ"
    ],
    [
      "ಬಿಡುಗ",
      "ಡೆಯ"
    ],
    [
      "ಚ್",
      "ಛ"
    ],
    [
      "?",
      "</w>"
    ],
    [
      "ಅ",
      "ತಿದ"
    ],
    [
      "ಅತಿದ",
      "ೊ"
    ],
    [
      "ಎಂದ",
      "ೂ</w>"
    ],
    [
      "ಭಾಗ",
      "ವಹ"
    ],
    [
      "ರೋ",
      "ಧ"
    ],
    [
      "ಗಳ",
      "ೆ"
    ],
    [
      "ನಾ",
      "ನ್</w>"
    ],
    [
      "ೆಯ",
      "ಲ್ಲ"
    ],
    [
      "ಆಯ್",
      "ಕೆ</w>"
    ],
    [
      "ಾರ",
      "ು</w>"
    ],
    [
      "ಜ್ಞ",
      "ಾನ"
    ],
    [
      "ಸಮುದ",
      "್ರ"
    ],
    [
      "ವಿ",
      "ಮ"
    ],
    [
      "ಪ್ರಸ್ತ",
      "ುತ</w>"
    ],
    [
      "ಅನು",
      "ಭವ"
    ],
    [
      "ಆರಂಭ",
      "ಿಕ</w>"
    ],
    [
      "ಬ",
      "ಗ"
    ],
    [
      "ರ್",
      "ಯ</w>"
    ],
    [
      "ಸ್ಟ",
      "ಿ"
    ],
    [
      "ಡ",
      "ೇ"
    ],
    [
      "ಚ",
      "ುನಾ"
    ],
    [
      "ಶಾ",
      "ಸ"
    ],
    [
      "ಅ",
      "ಷ್ಟ"
    ],
    [
      "ಸ್",
      "ಯಾ"
    ],
    [
      "ಈ",
      "ತ</w>"
    ],
    [
      "ಪ್ರ",
      "ತ್ಯ"
    ],
    [
      "ಸ",
      "ಿಕ"
    ],
    [
      "ಪ",
      "ೇ"
    ],
    [
      "ಬಹುತ",
      "ೇಕ</w>"
    ],
    [
      "ನಿ",
      "ಜ"
    ],
    [
      "ಸಂಗ್ರ",
      "ಹ"
    ],
    [
      "ಔಷ",
      "ಧ"
    ],
    [
      "ಚುನಾ",
      "ವಣ"
    ],
    [
      "ತ",
      "ಾಯ"
    ],
    [
      "ಮೇಲ",
      "ಿನ</w>"
    ],
    [
      "ೀರ್",
      "ಘ"
    ],
    [
      "ಸಹ",
      "ಾಯ"
    ],
    [
      "ಪ್ರ",
      "ಯಾ"
    ],
    [
      "ಜ",
      "ರ್"
    ],
    [
      "ಗೋ",
      "ಲ"
    ],
    [
      "ಕಿ",
      ".ಮೀ"
    ],
    [
      "ಫ",
      "್</w>"
    ],
    [
      "ಜೈ",
      "ನ</w>"
    ],
    [
      "ನಿರ್ದಿ",
      "ಷ್ಟ</w>"
    ],
    [
      "ಂತ",
      "ೆ,</w>"
    ],
    [
      "ಕ",
      "ರ್</w>"
    ],
    [
      "ಪ್ರಾಚೀ",
      "ನ</w>"
    ],
    [
      "ರಾಜ",
      "ಧಾನ"
    ],
    [
      "ಮ",
      "್‌</w>"
    ],
    [
      "ಹೊ",
      "ಡೆ"
    ],
    [
      "೨೦",
      "೧೯"
    ],
    [
      "ನ",
      "ೆಯನ್ನು</w>"
    ],
    [
      "ಫೆ",
      "ಬ್ರ"
    ],
    [
      "ವಿ",
      "ವಾಹ"
    ],
    [
      "ಗಳಿಗ",
      "ಾಗಿ</w>"
    ],
    [
      "ಗ",
      "ಮನ"
    ],
    [
      "ಯ",
      "ುರ"
    ],
    [
      "ಿಸಿದ",
      "ರು</w>"
    ],
    [
      "ವ",
      "ಧ"
    ],
    [
      "ತಮಿ",
      "ಳ"
    ],
    [
      "ಪ",
      "ರ</w>"
    ],
    [
      "ಸ್",
      "ನೇ"
    ],
    [
      "ಗು",
      "ಣ"
    ],
    [
      "ಅತಿದೊ",
      "ಡ್ಡ</w>"
    ],
    [
      "ಚಿ",
      "ಕ್ಕ"
    ],
    [
      "ಮ",
      "ಿತ"
    ],
    [
      "ಮ",
      "ರಣ"
    ],
    [
      "ಲ್",
      ",</w>"
    ],
    [
      "ವಾಗ",
      "ಿದೆ</w>"
    ],
    [
      "ೆಯ",
      "ಾದ</w>"
    ],
    [
      "ಸಾಕ",
      "ಷ್ಟು</w>"
    ],
    [
      "ದಶಲಕ್ಷ",
      "</w>"
    ],
    [
      "ಜನ",
      "ವರಿ</w>"
    ],
    [
      "ಹೋ",
      "ರಾ"
    ],
    [
      "ಬಳ",
      "ಿ</w>"
    ],
    [
      "ಿಸ",
      "ುವುದು</w>"
    ],
    [
      "ವಿ",
      "ಮಾನ</w>"
    ],
    [
      "ಆರ",
      "ೋಗ"
    ],
    [
      "ಲ",
      "ಿಗೆ</w>"
    ],
    [
      "ಪ",
      "್ಯಾ"
    ],
    [
      "ಜ",
      "ಪಾ"
    ],
    [
      "ಚಂಡ",
      "ಮಾರ"
    ],
    [
      "ಆ",
      "ಕ್ರಮ"
    ],
    [
      "ಹೋ",
      "ಲ"
    ],
    [
      "ಂ",
      "ಸ"
    ],
    [
      "ಕ",
      "ಟ"
    ],
    [
      "'",
      "</w>"
    ],
    [
      "ಉಳ",
      "ಿದ"
    ],
    [
      ".ಎ",
      "ಫ್"
    ],
    [
      "ನಗರ",
      "ವಾಗಿದೆ.</w>"
    ],
    [
      "ಫ",
      "್ರ"
    ],
    [
      "ಬೀ",
      "ರ"
    ],
    [
      "ಿರ",
      "ಬಹುದು.</w>"
    ],
    [
      "ಿಯ",
      "ಲ್ಲಿ,</w>"
    ],
    [
      "ಲ",
      "ರ್</w>"
    ],
    [
      "ಮರಾ",
      "ಠ"
    ],
    [
      "ಡ",
      "ಗ"
    ],
    [
      "ಆಚ",
      "ರಣ"
    ],
    [
      "ೋ",
      "ಪ"
    ],
    [
      "ಅವ",
      "ನು</w>"
    ],
    [
      "ನ್ನ",
      "ೆ"
    ],
    [
      "ನೆ",
      "ಗಳನ್ನು</w>"
    ],
    [
      "೮",
      "ರಲ್ಲಿ</w>"
    ],
    [
      "ಬಳ",
      "ಕ"
    ],
    [
      "ಡ",
      "ಾ</w>"
    ],
    [
      "ಲಾಯ",
      "ಿತು</w>"
    ],
    [
      "ಅಧಿಕ",
      "ೃ"
    ],
    [
      "ದಿ",
      "ಂದ"
    ],
    [
      "ಸರ",
      "ಣ"
    ],
    [
      "ವಿ",
      "ನ್ಯಾ"
    ],
    [
      "ರಿ",
      ".</w>"
    ],
    [
      "ಡ",
      "ುಕ"
    ],
    [
      "ನಂತರ",
      "ದ</w>"
    ],
    [
      "ಸರ",
      "ೋ"
    ],
    [
      "ವಾಗ",
      "ಿವೆ.</w>"
    ],
    [
      "ಾಗ",
      "ಿತ್ತು.</w>"
    ],
    [
      "ವರ್ಷ",
      "ದ</w>"
    ],
    [
      "ತ",
      "ು.</w>"
    ],
    [
      "ುತ್ತ",
      "ಿರುವ</w>"
    ],
    [
      "ಕೆ",
      "ನಡ"
    ],
    [
      "ನ",
      "ಿಯ</w>"
    ],
    [
      "ಸಾ",
      "ಲ"
    ],
    [
      "ಜನ",
      "ಿಸಿದರು.</w>"
    ],
    [
      "ಅವ",
      "್"
    ],
    [
      "ಹ",
      "ಾನ"
    ],
    [
      ".",
      "ಡಿ"
    ],
    [
      "ನ್",
      "ಸ್‌"
    ],
    [
      "ವ್ಯ",
      "ಕ್ತಿ"
    ],
    [
      "ಕೊ",
      "ರ"
    ],
    [
      "ಯುನೈ",
      "ಟೆಡ್</w>"
    ],
    [
      "ಹಾರ",
      "ಾ"
    ],
    [
      "ತ",
      "ಿಯನ್ನು</w>"
    ],
    [
      "ವರ್ಷ",
      "</w>"
    ],
    [
      "ಾದ",
      "ರೂ</w>"
    ],
    [
      "ಜೊ",
      "ತೆಗ"
    ],
    [
      "ಪ",
      "ಂಚ"
    ],
    [
      "ಡ",
      "್‌</w>"
    ],
    [
      "ನ",
      "ು,</w>"
    ],
    [
      "ನ್ನ",
      "ು"
    ],
    [
      "ಬರ",
      "ೆದ"
    ],
    [
      "ಪ",
      "ೈ"
    ],
    [
      "ದ",
      "ಂದು</w>"
    ],
    [
      "ನ್",
      "ಸಿ"
    ],
    [
      "ಟ್ಟ",
      "</w>"
    ],
    [
      "ಉತ್",
      "ಪನ್ನ"
    ],
    [
      "ಹಿಡ",
      "ಿದ"
    ],
    [
      "ಮಾಡ",
      "ಿಕೊಳ್ಳ"
    ],
    [
      "ದು",
      "ರ್"
    ],
    [
      "ಚ",
      "ೋ"
    ],
    [
      "ಪ್ರದೇಶ",
      "ದಲ್ಲಿ</w>"
    ],
    [
      "ದ",
      "ೈ"
    ],
    [
      "ೀ",
      "ಚ"
    ],
    [
      "ಬೆಂಬ",
      "ಲ"
    ],
    [
      "ಗಳ",
      "ಾದ</w>"
    ],
    [
      "ುವ",
      "ನ್ನು</w>"
    ],
    [
      "ಿಸ",
      "ಿ"
    ],
    [
      "ಿಸುತ್ತ",
      "ಾನೆ.</w>"
    ],
    [
      "ಜೊ",
      "ತೆಗೆ</w>"
    ],
    [
      "ಒಳ",
      "್ಳ"
    ],
    [
      "ಮ",
      "್ಯ"
    ],
    [
      "ಸಮಯ",
      "ದಲ್ಲಿ,</w>"
    ],
    [
      "ಳ",
      "ನ್ನು</w>"
    ],
    [
      "ತ",
      "ಾರ"
    ],
    [
      "ತ",
      "ುದ"
    ],
    [
      "ಪು",
      "ಸ್ತ"
    ],
    [
      "ಪ್ರತಿಕ",
      "್ರಿಯ"
    ],
    [
      "ಲಾ",
      "ವಣ"
    ],
    [
      "ಗ್ರಾ",
      "ಹ"
    ],
    [
      "ಿಸಿಕೊಳ್ಳ",
      "ಲು</w>"
    ],
    [
      "ಉದಾಹರಣ",
      "ೆಗೆ,</w>"
    ],
    [
      "ಇ",
      "ಷ್ಟ"
    ],
    [
      "ಹೇಳ",
      "ಿದರು.</w>"
    ],
    [
      "ಗ್ರ",
      "ೀ"
    ],
    [
      "ಬಳಸ",
      "ಲಾಗ"
    ],
    [
      "ಡ",
      "ೋ"
    ],
    [
      "ಸ್",
      "ವರ"
    ],
    [
      "ಮಹಿ",
      "ಳ"
    ],
    [
      "ವಣ",
      "ಿಗ"
    ],
    [
      "ಸ",
      "ೃ"
    ],
    [
      "ಮ",
      "ಹಾರಾ"
    ],
    [
      "ಚೆ",
      "ನ್ನ"
    ],
    [
      "ಎ",
      "ಂಟ"
    ],
    [
      "ಸಂಪರ್",
      "ಕ"
    ],
    [
      "ಕ",
      "ರಾ"
    ],
    [
      ".ಸಿ",
      ".</w>"
    ],
    [
      "ಜ",
      "ಾರ"
    ],
    [
      "ವಿ",
      "ಜಯ"
    ],
    [
      "ರ",
      "ಲ್ಲ"
    ],
    [
      "೧೯",
      "೩"
    ],
    [
      "ಬೌ",
      "ದ್ಧ"
    ],
    [
      "ದಾ",
      "ದ್ಯಂತ</w>"
    ],
    [
      "ಶ",
      "್ಯ"
    ],
    [
      "ಮುಂದ",
      "ಿನ</w>"
    ],
    [
      "ಇದ",
      "ಕ್ಕೆ</w>"
    ],
    [
      "ಋ",
      "ತ"
    ],
    [
      "ಿದ",
      "ೆ"
    ],
    [
      "ಆಯ್",
      "ಕ"
    ],
    [
      "ಿಯ",
      "ಾದ"
    ],
    [
      ".ಎಸ್",
      ".</w>"
    ],
    [
      "ದೇಶ",
      "ದ</w>"
    ],
    [
      "ನಗರ",
      "ದ</w>"
    ],
    [
      "ಪಾ",
      "ಕಿ"
    ],
    [
      "೩",
      "ರಲ್ಲಿ</w>"
    ],
    [
      "ಲ್‌",
      "ನ</w>"
    ],
    [
      "ಂಗ",
      "್‌</w>"
    ],
    [
      "ಬ್ಯಾ",
      "ಂ"
    ],
    [
      "ಂಗ",
      "ಾ"
    ],
    [
      "ಗ್ರಾ",
      "ಮ"
    ],
    [
      "ಕೃ",
      "ಷ"
    ],
    [
      "ಬೇ",
      "ಕೆ"
    ],
    [
      "ಮದ",
      "ುವ"
    ],
    [
      "ನಿ",
      "ಲ್ಲ"
    ],
    [
      "ಪ",
      "್‌"
    ],
    [
      "ಿಕ",
      "ೊ"
    ],
    [
      "ಹು",
      "ಡುಕ"
    ],
    [
      "ಹೆಸರ",
      "ುವಾ"
    ],
    [
      "ಕಂಪ",
      "್ಯೂ"
    ],
    [
      "ದ",
      "ಾನ"
    ],
    [
      "ಾ",
      "ತ್ಮಕ</w>"
    ],
    [
      "ಆದ",
      "್ದ"
    ],
    [
      "ವ",
      "ಲ"
    ],
    [
      "ಪ್ರ",
      "ಧಾನ</w>"
    ],
    [
      "ಪರಿ",
      "ಸ್ಥಿತ"
    ],
    [
      "ಚ",
      "ಕ್ರ"
    ],
    [
      "ಲ್",
      "ಡ್</w>"
    ],
    [
      "್",
      "ವಾ"
    ],
    [
      "ಏ",
      "ಕೆ"
    ],
    [
      "ಬದ",
      "ಲಾಯ"
    ],
    [
      "ವಿಶೇಷ",
      "</w>"
    ],
    [
      "ಡ",
      "ಬ್"
    ],
    [
      "ಹ",
      "ಕ್ಕ"
    ],
    [
      "ಿರ",
      "ುಗ"
    ],
    [
      "ಿದ",
      "ನು.</w>"
    ],
    [
      "೧",
      "೦</w>"
    ],
    [
      "ಗಳ",
      "ಾಗಿ</w>"
    ],
    [
      "ಕ್",
      "ತಿ</w>"
    ],
    [
      "ಸ",
      "ಾಯ"
    ],
    [
      "ಎ",
      "ಷ್ಟ"
    ],
    [
      "ಚಂಡಮಾರ",
      "ುತ"
    ],
    [
      "ದ",
      "ೋ"
    ],
    [
      "ರ",
      "ಾಗಿ</w>"
    ],
    [
      "ಕ್ಕ",
      "ೂ"
    ],
    [
      "ಅವಧ",
      "ಿಯಲ್ಲಿ</w>"
    ],
    [
      "ಪ್ರ",
      "ಾಯ"
    ],
    [
      "ಹಳ",
      "ೆಯ</w>"
    ],
    [
      "ಭೇ",
      "ಟಿ</w>"
    ],
    [
      "ಬರ",
      "ೆಯ"
    ],
    [
      "ಕಾರ",
      "ಿ</w>"
    ],
    [
      "ಬಹುದ",
      "ು,</w>"
    ],
    [
      "ಮಾಡ",
      "ಬಹುದು.</w>"
    ],
    [
      "ತೆಗೆದ",
      "ುಕೊಳ್ಳ"
    ],
    [
      "ಬ",
      "ಂಡ"
    ],
    [
      "ಪಾ",
      "ತ"
    ],
    [
      "ಸ",
      "ೊ"
    ],
    [
      "೯",
      "ರ</w>"
    ],
    [
      "ಭಾರ",
      "ತ</w>"
    ],
    [
      "ನ",
      "ದಲ್ಲಿ</w>"
    ],
    [
      "ಎ",
      "ಂದರೆ</w>"
    ],
    [
      "ೆಯ",
      "ಾಗಿ</w>"
    ],
    [
      "ಕೊ",
      "ಲ್ಲ"
    ],
    [
      "ಧಿಕ",
      "ಾರ"
    ],
    [
      "ಸಂ",
      "ಪ್ರದಾಯ"
    ],
    [
      "ಪರಿ",
      "ಚ"
    ],
    [
      "ಆಧ",
      "ು"
    ],
    [
      "ರ್",
      "ಸ್</w>"
    ],
    [
      "ನಗ",
      "ರ</w>"
    ],
    [
      "ಬೆ",
      "ಟ್ಟ"
    ],
    [
      "ಕಂಪ",
      "ನಿಯ"
    ],
    [
      "ೊಳ",
      "ಗೆ</w>"
    ],
    [
      "ಪಾ",
      "ಲು</w>"
    ],
    [
      "ಕೂ",
      "ಟ"
    ],
    [
      "ಹೊಂದ",
      "ಿದ್ದ"
    ],
    [
      "ಧ",
      "ರಿಸ"
    ],
    [
      "ಆ",
      "ವೃತ್ತ"
    ],
    [
      "ಿ",
      "ನ"
    ],
    [
      "ಕ",
      "ಪ್ಪ"
    ],
    [
      "ಫ",
      "ೇ"
    ],
    [
      "ಗಳ",
      "ು"
    ],
    [
      "ಪ್ರ",
      "ಭಾವ"
    ],
    [
      "೨೦೨೦",
      "ರ</w>"
    ],
    [
      "ಆ",
      "ಯೋಜ"
    ],
    [
      "ಪ",
      "ರ್ವ"
    ],
    [
      "ಒ",
      "ಕ್ಕೂ"
    ],
    [
      "೪",
      "ರಲ್ಲಿ</w>"
    ],
    [
      "ಿಕ",
      "ೆಯು</w>"
    ],
    [
      "ಆಟ",
      "ದ</w>"
    ],
    [
      "ನೃ",
      "ತ್ಯ"
    ],
    [
      "ಿ",
      "ನಿಂದ</w>"
    ],
    [
      "ಯ",
      "ೆ"
    ],
    [
      "ಚ",
      "ಲ"
    ],
    [
      "ನೆ",
      "ಲ"
    ],
    [
      "ನಂಗ",
      "್‌</w>"
    ],
    [
      "ಸ",
      "ೆ</w>"
    ],
    [
      "ಪಾವ",
      "ತ"
    ],
    [
      "ಸರೋ",
      "ವರ"
    ],
    [
      "ಇದ",
      "ೆ.</w>"
    ],
    [
      "ಂಗ",
      "</w>"
    ],
    [
      "ದೇ",
      "ಹ"
    ],
    [
      "ಸಂ",
      "ಯೋಜ"
    ],
    [
      "ಬಯ",
      "ಸ"
    ],
    [
      "ಆ",
      "ರು</w>"
    ],
    [
      "ಯಾ",
      "ರ್"
    ],
    [
      "ಿಕ",
      "ಾ</w>"
    ],
    [
      "ವ",
      "ೊಂದ"
    ],
    [
      "ವಾಸ",
      "ಿಸುತ್ತ"
    ],
    [
      "ರೋಗ",
      "ಲಕ್ಷಣ"
    ],
    [
      "ಶ",
      "ೇಕ"
    ],
    [
      "ಸಾಂಪ್ರದಾಯ",
      "ಿಕ</w>"
    ],
    [
      "೯",
      "ರಲ್ಲಿ</w>"
    ],
    [
      "ಕಾಣ",
      "ಿಸಿಕೊಂಡ"
    ],
    [
      ".",
      "ವಿ"
    ],
    [
      "ದ",
      "ೆ</w>"
    ],
    [
      "ಮರ",
      "ಳ"
    ],
    [
      "ವಶ",
      "ಪಡ"
    ],
    [
      "ದಿನ",
      "ಗಳ</w>"
    ],
    [
      "ಮೂ",
      "ಲ</w>"
    ],
    [
      "ಫುಟ್",
      "ಬಾಲ್</w>"
    ],
    [
      "ಕ",
      "ನಿ"
    ],
    [
      "ಸಾ",
      "ಧನ"
    ],
    [
      "ಇದ",
      "ರಲ್ಲಿ</w>"
    ],
    [
      "ಹಿ",
      "ಡಿಯ"
    ],
    [
      "ವಿ",
      "ನ</w>"
    ],
    [
      "ನಿ",
      "ಖ"
    ],
    [
      "ಎ",
      "ದುರ"
    ],
    [
      "ಅ",
      "ನಿ"
    ],
    [
      "್ಯಾ",
      "ದ</w>"
    ],
    [
      "ಸ್",
      "ಕಾ"
    ],
    [
      "ಹೆಚ್ಚ",
      "ುವ"
    ],
    [
      ".ಸಿ",
      "."
    ],
    [
      "ಷ",
      "ೇ"
    ],
    [
      "ೆಯ",
      "ಲ್ಲಿರುವ</w>"
    ],
    [
      "ಉತ್ತ",
      "ರ"
    ],
    [
      "್",
      ",</w>"
    ],
    [
      "ವರ್",
      "ಣ"
    ],
    [
      "ಹ",
      "ಿರ"
    ],
    [
      "ಚ",
      "ು"
    ],
    [
      "ವಿರ",
      "ುವ</w>"
    ],
    [
      "ಲ",
      "ಿಯ</w>"
    ],
    [
      "ಮ",
      "ವಾಗಿ</w>"
    ],
    [
      "ಕ",
      "ಗಳನ್ನು</w>"
    ],
    [
      "ಕೆಲವ",
      "ೊಮ್ಮೆ</w>"
    ],
    [
      "ಕ",
      "ದ</w>"
    ],
    [
      "ಚಲನ",
      "ಚಿತ್ರ</w>"
    ],
    [
      "ಪ್ರಶ",
      "ಸ್ತಿ"
    ],
    [
      "ವಿನ್ಯಾ",
      "ಸ"
    ],
    [
      "ಕೆ",
      "ಲ್"
    ],
    [
      "ಚ",
      "ರ್ಚ"
    ],
    [
      "ೃ",
      "ಹ"
    ],
    [
      "ಲಿ",
      "ಲ್ಲ"
    ],
    [
      "ನಂತ",
      "ಹ</w>"
    ],
    [
      "ಒಪ್ಪ",
      "ಂದ"
    ],
    [
      "ಕ",
      "ಲ್ಪ"
    ],
    [
      "ಸಾಮಾ",
      "ಜ"
    ],
    [
      "ಬೇ",
      "ಕಾ"
    ],
    [
      "ಬದ",
      "ಲಾವಣ"
    ],
    [
      "ಇರ",
      "ುವ</w>"
    ],
    [
      "ಭಿ",
      "ನ್ನ"
    ],
    [
      "ಮ",
      "ೃ"
    ],
    [
      "ಉಂಟ",
      "ು"
    ],
    [
      "ಫ",
      "ೀ"
    ],
    [
      "ಣ",
      "್ಯ"
    ],
    [
      "ಪ್ರ",
      "ೋ"
    ],
    [
      "ಪ",
      "ೀ"
    ],
    [
      "ೈ",
      "</w>"
    ],
    [
      "ನ",
      "ರ"
    ],
    [
      "ಇ",
      "ವ"
    ],
    [
      "ಶೀ",
      "ಲ"
    ],
    [
      "ಗ",
      "ಢ"
    ],
    [
      "ಜುಲೈ",
      "</w>"
    ],
    [
      "ನಿರ್",
      "ಧರ"
    ],
    [
      "ರಿ",
      "ನಲ್ಲಿ</w>"
    ],
    [
      "ಯ",
      "್ಯ"
    ],
    [
      "ಅ",
      "ಳ"
    ],
    [
      "ಇ",
      "ಂದ"
    ],
    [
      "ವಿಶ್ವವಿದ್ಯಾ",
      "ಲಯ"
    ],
    [
      "ಬಹು",
      "ಪಾಲು</w>"
    ],
    [
      "ತ",
      "ೃ"
    ],
    [
      "೨೦",
      "</w>"
    ],
    [
      "ಜ",
      "ರಾ"
    ],
    [
      "ವರ",
      "ದ"
    ],
    [
      "ಬೆಳ",
      "ೆಯ"
    ],
    [
      "ನಿರ್",
      "ಣ"
    ],
    [
      "ಲ್",
      "ಸ್</w>"
    ],
    [
      "ವ್ಯ",
      "ವಹ"
    ],
    [
      "ನ",
      "ೊ"
    ],
    [
      "ಮು",
      "ಚ್ಚ"
    ],
    [
      "ಗೌ",
      "ರವ"
    ],
    [
      "ಪ್ರ",
      "ಕಟ"
    ],
    [
      "ಸಾಮ",
      "ರ್ಥ"
    ],
    [
      "ವರ",
      "ನ್ನು</w>"
    ],
    [
      "ಹ",
      "ಳ್ಳ"
    ],
    [
      "ಕಾರ್ಯ",
      "ನಿರ್ವಹ"
    ],
    [
      "ತ",
      "ನ್ನ"
    ],
    [
      "ರ",
      "ಾಗಿದ್ದಾರೆ.</w>"
    ],
    [
      "ಪ",
      "ಟ"
    ],
    [
      "ದಿ",
      "ಂದಾಗಿ</w>"
    ],
    [
      "ಇಬ್ಬ",
      "ರು</w>"
    ],
    [
      "ಜ್",
      "ಜ"
    ],
    [
      "ಅವ",
      "ಲಂಬ"
    ],
    [
      "ದ",
      "ತ್ತ"
    ],
    [
      "ಚಾಂಪಿಯ",
      "ನ್‌"
    ],
    [
      "ಮಾರ್",
      "ಚ್</w>"
    ],
    [
      "ಅಂತ",
      "ರ"
    ],
    [
      "ಮ",
      "ಿಕ</w>"
    ],
    [
      "ದ",
      "ಷ್ಟು</w>"
    ],
    [
      "ುತ್ತ",
      "ವೆ</w>"
    ],
    [
      "ೂ",
      "ಪ"
    ],
    [
      ".ಎ",
      "ಲ್"
    ],
    [
      "ಸಾಮ್ರಾಜ್ಯ",
      "ದ</w>"
    ],
    [
      "ರ",
      "ೆದ"
    ],
    [
      "ಆಗ",
      "ಿ</w>"
    ],
    [
      "ಾ",
      "ಲ"
    ],
    [
      "ಿಕ",
      "ೆಯ"
    ],
    [
      "ಮೊಘ",
      "ಲ್</w>"
    ],
    [
      "ಪ",
      "ೋಷ"
    ],
    [
      "ಪ",
      "ೋರ್"
    ],
    [
      "ಫ",
      "್ರೆ"
    ],
    [
      "ಜನಪ್ರ",
      "ಿಯ</w>"
    ],
    [
      "ರಾಜ",
      "ಕೀಯ</w>"
    ],
    [
      "ತ್ವ",
      "ದ</w>"
    ],
    [
      "ಆರ್ಥ",
      "ಿಕ</w>"
    ],
    [
      "ಪ್ರಶಸ್ತ",
      "ಿಯನ್ನು</w>"
    ],
    [
      "ರಾಜ",
      "</w>"
    ],
    [
      "ಮಾರಾಟ",
      "</w>"
    ],
    [
      "ರಾ",
      "ಣ"
    ],
    [
      "ಪ",
      "ದಾ"
    ],
    [
      "ಾ",
      "ಂತ"
    ],
    [
      "ಶಾ",
      "ಲೆ"
    ],
    [
      "ತಮಿಳ",
      "ುನಾ"
    ],
    [
      "ಸೈ",
      "ನ್ಯ"
    ],
    [
      "ಪ್ರದೇಶ",
      "ವು</w>"
    ],
    [
      "ವಾ",
      "ರ್ಷ"
    ],
    [
      "ನೀಡ",
      "ುವ</w>"
    ],
    [
      "ಿಯ",
      "ಲ್ಲ"
    ],
    [
      "ಉದ್ಯ",
      "ೋಗ"
    ],
    [
      "ುತ್ತ",
      "ಾಳೆ.</w>"
    ],
    [
      "ಚ",
      "ರ್ಮ"
    ],
    [
      "ಮುಂದ",
      "ೆ</w>"
    ],
    [
      "ಜೂ",
      "ನ್</w>"
    ],
    [
      "ರಿಕ",
      "ೊಂಡ"
    ],
    [
      "ಾಗ",
      "ಿರ"
    ],
    [
      "ಹೆಸರುವಾ",
      "ಸಿಯ"
    ],
    [
      "ಆಧು",
      "ನಿಕ</w>"
    ],
    [
      "ನಾ",
      "ಥ"
    ],
    [
      "ಾಗ",
      "್</w>"
    ],
    [
      "ತ",
      "ಮ್ಮ"
    ],
    [
      ".",
      "ಶ"
    ],
    [
      "ನ್ನ",
      "ಿನ</w>"
    ],
    [
      "ಇ",
      "ಂಟ"
    ],
    [
      "ಬ",
      "ಾಯ"
    ],
    [
      "ನೀ",
      "ರಿನ</w>"
    ],
    [
      "ಧಾ",
      "ರ್ಮ"
    ],
    [
      "ಸೆಪ್ಟ",
      "ೆಂಬರ್</w>"
    ],
    [
      "ಮಾಡ",
      "ಿತು.</w>"
    ],
    [
      "ತ",
      "ವಾಗಿ</w>"
    ],
    [
      "ರ್‌",
      "ನಲ್ಲಿ</w>"
    ],
    [
      "ಹು",
      "ಡುಗ"
    ],
    [
      "ಾ",
      "ದಲ್ಲಿ</w>"
    ],
    [
      "ದ",
      "ೀರ್ಘ"
    ],
    [
      "ಸ",
      "ನ್</w>"
    ],
    [
      "ುತ್ತ",
      "ಾರೆ</w>"
    ],
    [
      "ಏಕೆ",
      "ಂದರೆ</w>"
    ],
    [
      "ಹೆಸರ",
      "ನ್ನು</w>"
    ],
    [
      "ವಿದ",
      "್ಯು"
    ],
    [
      "ಯಾ",
      "ವಾಗ"
    ],
    [
      "ಿ",
      "ವೆ</w>"
    ],
    [
      "ಿಸಿದ",
      "ರು,</w>"
    ],
    [
      "ತ",
      "ೆಯು</w>"
    ],
    [
      "ನ್ನ",
      "ಿ"
    ],
    [
      "ಸೇ",
      "ವೆ</w>"
    ],
    [
      "ಫ",
      "್‌"
    ],
    [
      ")",
      ",</w>"
    ],
    [
      "೧",
      "ರಂದು</w>"
    ],
    [
      "೦",
      "ರಲ್ಲಿ</w>"
    ],
    [
      "ುಗ",
      "ಾರ"
    ],
    [
      "ಾ",
      "ವ"
    ],
    [
      "ಳ",
      "ಿಯ</w>"
    ],
    [
      "ಂ",
      "ಗೆ</w>"
    ],
    [
      "ಂಟ",
      "ಿ"
    ],
    [
      "ುತ್ತ",
      "ಿದ್ದ</w>"
    ],
    [
      "ತಾ",
      "ವು</w>"
    ],
    [
      "ಟ್",
      "ಸ್</w>"
    ],
    [
      "ವ",
      "ಿದೆ.</w>"
    ],
    [
      "ಇತ್ತ",
      "ೀಚ"
    ],
    [
      "ಶಿ",
      "ಲ್ಪ"
    ],
    [
      "ಹ್",
      "ಮ"
    ],
    [
      "ತ್",
      "‌</w>"
    ],
    [
      "ಖ",
      "್ಯಾ"
    ],
    [
      "ಹ",
      "ರಿಯ"
    ],
    [
      ".",
      "ಇ"
    ],
    [
      "ಸ್ವಾ",
      "ತಂತ್"
    ],
    [
      "ವಿ",
      "ಚಾರ"
    ],
    [
      "ಹಿಂದ",
      "ೂ"
    ],
    [
      "ಲ",
      "ಂಡ"
    ],
    [
      "ಸಾರ್ವಜನ",
      "ಿಕ</w>"
    ],
    [
      "ಸ",
      "ರಾ"
    ],
    [
      "ಜನ",
      "ರ</w>"
    ],
    [
      "ಸೃ",
      "ಷ್ಟ"
    ],
    [
      "ಡ",
      "ು</w>"
    ],
    [
      "ನಾ",
      "ದ"
    ],
    [
      "ನಾಯ",
      "ಕ"
    ],
    [
      "ಸರ್ಕಾರ",
      "ವು</w>"
    ],
    [
      "ಸಾ",
      "</w>"
    ],
    [
      "ಪಾಕಿ",
      "ಸ್ತಾನ"
    ],
    [
      "ುವ",
      "ಾಗ</w>"
    ],
    [
      "ಹಣ",
      "ಕಾ"
    ],
    [
      "ಪೂ",
      "ರೈ"
    ],
    [
      "ಹತ್ತ",
      "ಿರ"
    ],
    [
      "ಿಸ",
      "ುತ್ತದೆ</w>"
    ],
    [
      "ಗಳಿಗ",
      "ಿಂತ</w>"
    ],
    [
      "ಸ್",
      "ಲಾ"
    ],
    [
      "ಮೌ",
      "ಲ್ಯ"
    ],
    [
      "ಪೂ",
      "ಜ"
    ],
    [
      "ರಾ",
      "ಮ"
    ],
    [
      "ಉದ್ಯ",
      "ಾನ"
    ],
    [
      "ತ",
      "ೂ"
    ],
    [
      "ಕ್ರ",
      "ೀ"
    ],
    [
      "ಂಡ",
      "್ರ"
    ],
    [
      "ನ",
      "ನ್‌</w>"
    ],
    [
      "೨೦೧",
      "೪ರ</w>"
    ],
    [
      "ಪಡೆ",
      "ದರು.</w>"
    ],
    [
      "ಘಾ",
      "ತ"
    ],
    [
      "ಕಾಲ",
      "ದ</w>"
    ],
    [
      "ಗಳ",
      "ೂ</w>"
    ],
    [
      "ಪ್ರದೇಶ",
      "ಗಳಲ್ಲಿ</w>"
    ],
    [
      "ಟ",
      "ನ್</w>"
    ],
    [
      "ಕೇ",
      "ರಳ"
    ],
    [
      "ು",
      "ಹಾಕ"
    ],
    [
      "ದ",
      "ಯ"
    ],
    [
      "ನ",
      "ೌ"
    ],
    [
      "ಸಂ",
      "ಪೂರ್ಣ"
    ],
    [
      "ಿಗ",
      "ೆ,</w>"
    ],
    [
      "ಮಾಡ",
      "ಿಕೊ"
    ],
    [
      "ಿತ",
      "ವಾಗಿ</w>"
    ],
    [
      "ಟ",
      "ುವ"
    ],
    [
      "ಚಲನಚಿತ್ರ",
      "ವು</w>"
    ],
    [
      "ಗೊ",
      "ತ್ತ"
    ],
    [
      "ಸ್ವ",
      "ೀಡ"
    ],
    [
      "ಲ್‌",
      "ನಲ್ಲಿ</w>"
    ],
    [
      "ಸು",
      "ಧಾರ"
    ],
    [
      "ಗ್ರ",
      "ಂಥ"
    ],
    [
      "ಎ",
      "ಷ್ಟು</w>"
    ],
    [
      "ಲ್ಯ",
      "ೂ"
    ],
    [
      "ಹೋ",
      "ದ"
    ],
    [
      "ಇ",
      "ನ್"
    ],
    [
      "ಕ",
      "ಚೇ"
    ],
    [
      "ೂ",
      "ಡ"
    ],
    [
      "ಗ",
      "ಿ</w>"
    ],
    [
      "ಅವ",
      "ುಗಳ</w>"
    ],
    [
      "ಆ",
      "ಸ್ಪ"
    ],
    [
      "ಕಾಂಗ",
      "್ರೆ"
    ],
    [
      "ಕೂ",
      "ಡ"
    ],
    [
      "ದ",
      "ವರೆಗೆ</w>"
    ],
    [
      "೨",
      "೫"
    ],
    [
      "೧",
      ","
    ],
    [
      "ಕಾಯ",
      "ಿ"
    ],
    [
      "ಸಂ",
      "ಶೋ"
    ],
    [
      "ನಿಯ",
      "ಾದ</w>"
    ],
    [
      "ಣ",
      "ದಲ್ಲಿ</w>"
    ],
    [
      "ನಾನ",
      "ು</w>"
    ],
    [
      "ಗಳ",
      "ಂತಹ</w>"
    ],
    [
      "ಕಿ.ಮೀ",
      ".</w>"
    ],
    [
      "ಗೊಂಡ",
      "</w>"
    ],
    [
      "ಪ್ರ",
      "ವಾ"
    ],
    [
      "ಶಾ",
      "ಲ"
    ],
    [
      "ಪ್ರಸಿದ್ಧ",
      "</w>"
    ],
    [
      "ಪರಿಚ",
      "ಯ"
    ],
    [
      ".ಎ",
      ".</w>"
    ],
    [
      "ಸಂ",
      "ಘ"
    ],
    [
      "ಕ",
      "ಷ್ಟ"
    ],
    [
      "ಗ",
      "ೆ,</w>"
    ],
    [
      "ಳ",
      "ದ</w>"
    ],
    [
      "ಚಿತ್ರ",
      "ೀಕರ"
    ],
    [
      "ಸರ",
      "ಿ</w>"
    ],
    [
      "ನಿ",
      "ಮ್ಮ"
    ],
    [
      ".",
      ".</w>"
    ],
    [
      "ಕನಿ",
      "ಷ್ಠ</w>"
    ],
    [
      "ಿರ",
      "ುವುದ"
    ],
    [
      "ನ",
      "ರ್</w>"
    ],
    [
      "ಅ",
      "ರಣ"
    ],
    [
      "ರಾಜ",
      "ವಂಶ"
    ],
    [
      "ಖ",
      "ರ್ಚ"
    ],
    [
      "ಅಕ್ಟೋ",
      "ಬರ್</w>"
    ],
    [
      "ಭೇ",
      "ಟ"
    ],
    [
      "ನ",
      "ಾಗಿದ್ದ"
    ],
    [
      "ವಿದ್ಯಾ",
      "ರ್ಥ"
    ],
    [
      "ತ",
      "ಿಯಲ್ಲಿ</w>"
    ],
    [
      "ದೃ",
      "ಷ್ಟ"
    ],
    [
      "ಮು",
      "ಂಬ"
    ],
    [
      "ಡಿಸ",
      "ೆಂಬರ್</w>"
    ],
    [
      "ವಿ",
      "ಮಾನ"
    ],
    [
      "ಸಿ",
      "ಂ"
    ],
    [
      "ಚ",
      "ರಣ"
    ],
    [
      "ಗು",
      "ಜರಾ"
    ],
    [
      "ಆಫ",
      "್ರ"
    ],
    [
      "ಹೆಚ್ಚುವ",
      "ರಿ</w>"
    ],
    [
      "ನಾ",
      "ಶ"
    ],
    [
      "ಪಾ",
      "ಂಡ"
    ],
    [
      "ವ",
      "ೊಂದನ್ನು</w>"
    ],
    [
      "ಸಾಮಾಜ",
      "ಿಕ</w>"
    ],
    [
      "ವಾಗ",
      "ಿರುವ</w>"
    ],
    [
      "ಮುಖ್ಯ",
      "ವಾಗಿ</w>"
    ],
    [
      "ಕ್",
      "ಸಾ"
    ],
    [
      "ಜ",
      "</w>"
    ],
    [
      "ಸ್",
      "ಕೋ"
    ],
    [
      ".ಎ",
      "ಂ"
    ],
    [
      "ಧ",
      "ೀ"
    ],
    [
      "ಮು",
      "ಂಚ"
    ],
    [
      "ನವೆಂಬ",
      "ರ್</w>"
    ],
    [
      "ಕೊ",
      "ಡ"
    ],
    [
      "ಸೇ",
      "ವೆ"
    ],
    [
      "ಅದ",
      "್"
    ],
    [
      "ಎ",
      "ದು"
    ],
    [
      "ಎ",
      "ಫ್"
    ],
    [
      "ತ",
      "ಡೆಯ"
    ],
    [
      "ಏಪ್ರಿ",
      "ಲ್</w>"
    ],
    [
      "ಮ",
      "ಂತ್ರ"
    ],
    [
      "ನ",
      "ೋ</w>"
    ],
    [
      "ಸ್ಟ",
      "ರ್</w>"
    ],
    [
      "ಹ",
      "ಣ</w>"
    ],
    [
      "ಸು",
      "ಲಭ"
    ],
    [
      "ನ್ನ",
      "ು,</w>"
    ],
    [
      "ಇಂಗ್",
      "ಲೆಂಡ"
    ],
    [
      "ಿದ",
      "್ರ"
    ],
    [
      "ಕಿ",
      "ಲೋ"
    ],
    [
      "ಪಾ",
      "ರ್ಶ"
    ],
    [
      "ಿಸಿದ",
      "ವು.</w>"
    ],
    [
      "ತ",
      "ಡೆ"
    ],
    [
      "ಶ",
      "ಕ್ತ"
    ],
    [
      "ಭೇ",
      "ದ"
    ],
    [
      "ಧಾರ್ಮ",
      "ಿಕ</w>"
    ],
    [
      ".ಎ",
      "ನ್"
    ],
    [
      "ಬ",
      "ಟ್ಟ"
    ],
    [
      "ಪಾರ್ಶ",
      "್ವ"
    ],
    [
      "ಗಾ",
      "ಂಧ"
    ],
    [
      "ಆ",
      "ದ</w>"
    ],
    [
      "ಚಿತ್ರ",
      "ವು</w>"
    ],
    [
      "ಸ",
      "ವ"
    ],
    [
      "ಲ್ಲ",
      "ಾ</w>"
    ],
    [
      "ನ್ಯಾ",
      "ಷ"
    ],
    [
      ".",
      "ಐ."
    ],
    [
      "ವೆ",
      "ಂದರೆ</w>"
    ],
    [
      "ಗ",
      "್‌</w>"
    ],
    [
      "ುತ್ತ",
      "ಿದೆ.</w>"
    ],
    [
      "ವೇ",
      "ದ"
    ],
    [
      "ನ",
      "ೆಯಲ್ಲಿ</w>"
    ],
    [
      "ನ",
      "ೆಯು</w>"
    ],
    [
      "ಹ",
      "ೃ"
    ],
    [
      "ತ",
      "ೇ"
    ],
    [
      "ಭಾಗ",
      "ದ</w>"
    ],
    [
      "ಚ",
      "ಳಿಗ"
    ],
    [
      "ಆರಂಭ",
      "ದಲ್ಲಿ</w>"
    ],
    [
      "ಸಾಮರ್ಥ",
      "್ಯ"
    ],
    [
      "ವಾಗ",
      "ುತ್ತದೆ.</w>"
    ],
    [
      "ಫೆಬ್ರ",
      "ವರಿ</w>"
    ],
    [
      "ಾಯ",
      "ಿ"
    ],
    [
      "ಿಗ",
      "ೂ</w>"
    ],
    [
      "ಶ",
      "್ವ"
    ],
    [
      "ಇಂಗ್",
      "ಲಿ"
    ],
    [
      "ನಿ",
      "ಗಳು</w>"
    ],
    [
      "ಪ್ರಯಾ",
      "ಣ"
    ],
    [
      "ಬ್ಯಾ",
      "ಂಡ"
    ],
    [
      "ಹ",
      "ಿ</w>"
    ],
    [
      "ಮೊ",
      "ತ್ತ"
    ],
    [
      "ನಿ",
      "ಮ್"
    ],
    [
      "ಬ್ರ",
      "ೆ"
    ],
    [
      "ಕು",
      "ಮಾ"
    ],
    [
      "ಜ",
      "ನ್"
    ],
    [
      "ಭಾಗ",
      "ದಲ್ಲಿ</w>"
    ],
    [
      "ಸ್ಟ",
      "ೋ"
    ],
    [
      "ರಾ",
      "ಧ"
    ],
    [
      "ಹಿಂದ",
      "ಿ</w>"
    ],
    [
      "ನ",
      "ಗಳು</w>"
    ],
    [
      "ತೋ",
      "ರಿಸ"
    ],
    [
      "ಮ",
      "ುತ್ತ"
    ],
    [
      "ಸ್ಪ",
      "ಷ್ಟ"
    ],
    [
      "ವಿಮ",
      "ರ್ಶ"
    ],
    [
      "ಜನ",
      "ರನ್ನು</w>"
    ],
    [
      "ನಿರ್",
      "ಮಾಣ"
    ],
    [
      "ಲ",
      "ಯ</w>"
    ],
    [
      "ಆಗ",
      "ಸ್ಟ್</w>"
    ],
    [
      "ಮ್",
      "ಸ್</w>"
    ],
    [
      "ಅವಕಾಶ",
      "</w>"
    ],
    [
      "ಹೇ",
      "ಗೆ</w>"
    ],
    [
      "ಪ್ರಮಾಣ",
      "ದ</w>"
    ],
    [
      "ಅಭಿವೃದ್ಧ",
      "ಿ"
    ],
    [
      "ಗ",
      "ೂ"
    ],
    [
      "ಏ",
      "ಕೈ"
    ],
    [
      "ಹಾಕ",
      "ಿ</w>"
    ],
    [
      "ದೃ",
      "ಢ"
    ],
    [
      "ಾಯ",
      "್"
    ],
    [
      "ಐ",
      "ತಿಹಾಸ"
    ],
    [
      "ರಿಯ",
      "ಾ</w>"
    ],
    [
      "ಭಾಗ",
      "ವನ್ನು</w>"
    ],
    [
      "ಸೇ",
      "ರಿಸ"
    ],
    [
      "ಪ್ರಾ",
      "ಣಿ"
    ],
    [
      "ಂದ್ರ",
      "ೆ</w>"
    ],
    [
      "ಚ",
      "ೌ"
    ],
    [
      "ಸಂಪೂರ್ಣ",
      "ವಾಗಿ</w>"
    ],
    [
      "ದ",
      "ಂತ"
    ],
    [
      "ಸಂಸ್",
      "ಕೃ"
    ],
    [
      "ಏಕೈ",
      "ಕ</w>"
    ],
    [
      "ಕ್ಷೇ",
      "ತ್ರ"
    ],
    [
      "ಕ",
      "ಣಿ"
    ],
    [
      "ನೃ",
      "ತ್ಯ</w>"
    ],
    [
      "ಟ್ಟ",
      "ು</w>"
    ],
    [
      "ಚಿಕಿತ್ಸ",
      "ೆ</w>"
    ],
    [
      "ನದ",
      "ಿಯು</w>"
    ],
    [
      "ನೀಡ",
      "ಿದರು.</w>"
    ],
    [
      "ಅ",
      "ಂ"
    ],
    [
      "ನೆ",
      "ಗಳು</w>"
    ],
    [
      "ಸಂಸ್ಥಾನ",
      "ದ</w>"
    ],
    [
      "ಆಗ",
      "ಿತ್ತು.</w>"
    ],
    [
      "ಪ್ರದೇಶ",
      "ವನ್ನು</w>"
    ],
    [
      "ಚ",
      "ಟುವ"
    ],
    [
      "ಚಟುವ",
      "ಟ"
    ],
    [
      "ವ",
      "ರ್</w>"
    ],
    [
      "ಹ",
      "ವಾ"
    ],
    [
      "ಏ",
      "ಕ"
    ],
    [
      "ನ",
      "ಾರ"
    ],
    [
      "ಆಗ",
      "ಿದ್ದರು.</w>"
    ],
    [
      "ರ",
      "ವಾಗಿ</w>"
    ],
    [
      "ಅಡ",
      "ಿಯಲ್ಲಿ</w>"
    ],
    [
      "ತ",
      "ಃ</w>"
    ],
    [
      "ೆ",
      "ಲ್ಲ</w>"
    ],
    [
      "ಆ",
      "ನಂದ"
    ],
    [
      "ಕಾ",
      "</w>"
    ],
    [
      "ಾ",
      "ಂತರ"
    ],
    [
      "ಜನ",
      "ಗಣ"
    ],
    [
      "ನಿ",
      "ರೀಕ್ಷ"
    ],
    [
      "ಉತ್ತ",
      "ರಾ"
    ],
    [
      "ಬ್ರಿಟಿ",
      "ಷ"
    ],
    [
      "ಇ",
      "ವು</w>"
    ],
    [
      "ಲೇ",
      "ಖ"
    ],
    [
      "ವಾಗ",
      "ಿದ್ದ"
    ],
    [
      "ವ",
      "ಲಯ"
    ],
    [
      "ಾ",
      "ಜ"
    ],
    [
      "ವೈ",
      "ಯ"
    ],
    [
      "೩",
      "೦"
    ],
    [
      "ಬು",
      "ಡ"
    ],
    [
      "ಯ",
      "ುಗ"
    ],
    [
      "ವೈದ್ಯ",
      "ಕೀಯ</w>"
    ],
    [
      "ಬ",
      "ಡ್ಡ"
    ],
    [
      "ನ್ನ",
      "ತ</w>"
    ],
    [
      "ಕೆ",
      "ಗೆ</w>"
    ],
    [
      "ಕ್ರ",
      "ಿಕೆ"
    ],
    [
      "ದ",
      "್‌</w>"
    ],
    [
      "ಮಹಾರಾ",
      "ಷ್ಟ್ರ"
    ],
    [
      "್‌",
      "ಗೆ</w>"
    ],
    [
      "ಕ್",
      "ಯ"
    ],
    [
      "ಪರಿಣಾ",
      "ಮ</w>"
    ],
    [
      "ಸ್ವ",
      "ೀಕರ"
    ],
    [
      "ದೊ",
      "ಡ್ಡ"
    ],
    [
      "ಜ",
      "಼"
    ],
    [
      "ೊಬ್ಬ",
      "</w>"
    ],
    [
      "ವಿಶ್ವ",
      "ದ</w>"
    ],
    [
      "ಹ",
      "ೌ"
    ],
    [
      "ಪ್ರ",
      "ವಾಸ"
    ],
    [
      "ಸಂ",
      "ಕೇ"
    ],
    [
      "ಶ",
      "್</w>"
    ],
    [
      "ಗು",
      "ಂಡ"
    ],
    [
      "ಕರ್",
      "ನಾಟ"
    ],
    [
      "ನೆ",
      "ರ"
    ],
    [
      "ಮಟ್ಟ",
      "ದ</w>"
    ],
    [
      "ಮಧ್ಯ",
      "</w>"
    ],
    [
      "೨೦೧",
      "೦ರ</w>"
    ],
    [
      "ರ್",
      "ತ"
    ],
    [
      "ಆಸ್ಪ",
      "ತ್ರ"
    ],
    [
      ".ಎ",
      "."
    ],
    [
      "ವ",
      "ಿಯ"
    ],
    [
      "ವೈಯ",
      "ಕ್ತ"
    ],
    [
      "ೆ",
      "ಗಳಿಗೆ</w>"
    ],
    [
      "ದ",
      "ರ</w>"
    ],
    [
      "ಅ",
      "ಯೋ"
    ],
    [
      "ಂಡ",
      "ೋ"
    ],
    [
      "ಪ್",
      "ತ"
    ],
    [
      "ಬ",
      "್ದ"
    ],
    [
      "ಅ",
      "ಸ್ತಿ"
    ],
    [
      "ಿಸುತ್ತ",
      "ಿದ್ದ"
    ],
    [
      "ಪ್ರ",
      "ಚ"
    ],
    [
      "ಸಾ",
      "ಕ್ಷ"
    ],
    [
      "ದೂರ",
      "ದರ್ಶ"
    ],
    [
      "ಕಾರ",
      "ಣ</w>"
    ],
    [
      "ಸಂ",
      "ಪೂರ್ಣ</w>"
    ],
    [
      "ಖ",
      "ಚಿತ"
    ],
    [
      "ವ",
      "ನ್ನೂ</w>"
    ],
    [
      "ಿಸ",
      "ಿತ್ತು.</w>"
    ],
    [
      "ಭಿ",
      "ನ್ನ</w>"
    ],
    [
      "ಕರಾ",
      "ವಳ"
    ],
    [
      "ಅಧಿಕೃ",
      "ತ</w>"
    ],
    [
      "ಕ",
      "ಲೆ"
    ],
    [
      "ಜನ",
      "ರಿಗೆ</w>"
    ],
    [
      "ಮೂ",
      "ಹ"
    ],
    [
      "ವ",
      "್‌</w>"
    ],
    [
      "ಪು",
      "ಟ"
    ],
    [
      "ಪದಾ",
      "ರ್ಥ"
    ],
    [
      "ಸೆ",
      "ಂಟ"
    ],
    [
      "ಏ",
      "ಳು</w>"
    ],
    [
      "ನೋ",
      "ಡಿ</w>"
    ],
    [
      "ರಾ",
      "ದ"
    ],
    [
      "ಬದ",
      "ಲಾಗ"
    ],
    [
      "ಪ್ರ",
      "ೆ"
    ],
    [
      "ಗಳ",
      "ಲ್ಲಿನ</w>"
    ],
    [
      "ಕರ",
      "ೆದ"
    ],
    [
      "ತ್ವ",
      "</w>"
    ],
    [
      "ತೊ",
      "ಡಗ"
    ],
    [
      "ಯಾವ",
      "</w>"
    ],
    [
      "ಪಡೆ",
      "ದ</w>"
    ],
    [
      "ೇಷ",
      "ನ್</w>"
    ],
    [
      "ದಿನ",
      "ದಂದು</w>"
    ],
    [
      "ಮಾಡ",
      "ಿ</w>"
    ],
    [
      "ಬಳಸ",
      "ುವ</w>"
    ],
    [
      "ಡೆ",
      "ಗೆ</w>"
    ],
    [
      "ನ",
      "ಯ"
    ],
    [
      "ಂದ್ರ",
      "</w>"
    ],
    [
      "ರ್",
      "ಡ್</w>"
    ],
    [
      "ಹಲ",
      "ವು</w>"
    ],
    [
      "ಅ",
      "ರ್ಧ"
    ],
    [
      "ಮ",
      "ಣಿ"
    ],
    [
      "ಪ್ರ",
      "ಧಾನ"
    ],
    [
      "ವಿ",
      "ಭಿನ್ನ</w>"
    ],
    [
      "ಗ",
      "ಟ್ಟ"
    ],
    [
      "ಟ",
      "್ರಾ"
    ],
    [
      "ಸೈ",
      "ನಿಕ"
    ],
    [
      "ಪ",
      "ಠ"
    ],
    [
      "ೆ",
      "ದ</w>"
    ],
    [
      "ೆಗ",
      "ಾಗಿ</w>"
    ],
    [
      "ಸ",
      "ಿರ"
    ],
    [
      "ಸ್ನೇ",
      "ಹಿತ"
    ],
    [
      "ಾನ",
      "ೆ,</w>"
    ],
    [
      "ವೈ",
      "ರ"
    ],
    [
      "ಬೇಕಾಗ",
      "ುತ್ತದೆ.</w>"
    ],
    [
      "ಖ",
      "್"
    ],
    [
      "ಷ",
      "ಾ"
    ],
    [
      "ತೆ",
      "ಲ"
    ],
    [
      "ಚ",
      "್‌"
    ],
    [
      "ನಿರ್",
      "ಮಾ"
    ],
    [
      "ಸ",
      "್ರ"
    ],
    [
      "ಣ",
      "ವು</w>"
    ],
    [
      "ಗ",
      "್ಯಾ"
    ],
    [
      "ನಾ",
      "ಂಗ"
    ],
    [
      "ರ",
      "ೇ</w>"
    ],
    [
      "ಆಟ",
      "ವನ್ನು</w>"
    ],
    [
      "ಅ",
      "ಲೆ"
    ],
    [
      "ಮಾಡ",
      "ಲಾಗುತ್ತದೆ.</w>"
    ],
    [
      "ನೆ",
      "ಲೆ"
    ],
    [
      "ತ್ವ",
      "ವನ್ನು</w>"
    ],
    [
      "ರ",
      "ಿಕ</w>"
    ],
    [
      "ದ",
      "ರ"
    ],
    [
      "ಅಂದ",
      "ಾಜ"
    ],
    [
      "ದ",
      "ಂಗ"
    ],
    [
      "ಭ",
      "್ರ"
    ],
    [
      "ಕಾಲ",
      "ದಲ್ಲಿ</w>"
    ],
    [
      "ಸ",
      "ತ್ತ"
    ],
    [
      "ನೆ",
      "ಂದು</w>"
    ],
    [
      "ಂ",
      "ನ</w>"
    ],
    [
      "ಸು",
      "ಲ್"
    ],
    [
      "್",
      "ಮ"
    ],
    [
      "ದಲ್ಲ",
      "ೇ</w>"
    ],
    [
      "ತ್ತ",
      "ು.</w>"
    ],
    [
      "ಿ",
      "ಗಳಿಗೆ</w>"
    ],
    [
      "ಕ",
      "ೀರ್"
    ],
    [
      "ಕಾಲ",
      "ೇಜ"
    ],
    [
      "್",
      "ಮೀ"
    ],
    [
      "ಜೊ",
      "ತೆ</w>"
    ],
    [
      "ಸ್",
      "ಸ"
    ],
    [
      "ಜ",
      "ಗ"
    ],
    [
      "ರವ",
      "ರ</w>"
    ],
    [
      "೧",
      "೨</w>"
    ],
    [
      "ಸ್",
      "ಕ"
    ],
    [
      "ಿರ",
      "ುತ್ತವೆ.</w>"
    ],
    [
      "ಇತ",
      "ರ"
    ],
    [
      "ಆ",
      "ಸ"
    ],
    [
      "ಆದ",
      "ರೆ,</w>"
    ],
    [
      "ಫಿ",
      "ಲ್"
    ],
    [
      "ಕ",
      "ಲ್ಲ"
    ],
    [
      "ಎ",
      "ನ್ನ"
    ],
    [
      "ಮ",
      "ದ</w>"
    ],
    [
      "ಮು",
      "ಗ"
    ],
    [
      "ಕ್ರೀಡಾ",
      "ಕೂಟ"
    ],
    [
      "ುತ್ತ",
      "ವೆ,</w>"
    ],
    [
      "ಂತ",
      "ಲೂ</w>"
    ],
    [
      "ವಸ್ತ",
      "ುಗಳನ್ನು</w>"
    ],
    [
      "ವಾರ",
      "</w>"
    ],
    [
      "ಮಾಡ",
      "ಿಕೊಂಡ"
    ],
    [
      "ವೃತ್ತಿ",
      "ಜೀವ"
    ],
    [
      "ಅಭಿವೃದ್ಧಿ",
      "ಪಡ"
    ],
    [
      "ಣ",
      "ೆಯನ್ನು</w>"
    ],
    [
      "ಆರೋಗ",
      "್ಯ</w>"
    ],
    [
      "ಒಲಿಂಪಿ",
      "ಕ್</w>"
    ],
    [
      "ಎಂಬುದ",
      "ರ</w>"
    ],
    [
      "೧೯",
      "೨"
    ],
    [
      "೨೦",
      "೦೦"
    ],
    [
      "ಲೆ",
      "ಕ್ಕ"
    ],
    [
      "ಮೊದ",
      "ಲು,</w>"
    ],
    [
      "ಪಾತ್ರ",
      "ವನ್ನು</w>"
    ],
    [
      "ಅವ",
      "್ರ"
    ],
    [
      "ಬದ",
      "್ಧ"
    ],
    [
      "ವಿ",
      "ತ"
    ],
    [
      "ಕ",
      "ದ"
    ],
    [
      "ಮಾ",
      "ಧ್ಯ"
    ],
    [
      "ನಿ",
      "ರ"
    ],
    [
      "ಲಿ",
      "ಂಗ"
    ],
    [
      "ುತ್ತದ",
      "ೆ"
    ],
    [
      "ವಾ",
      "ಣಿ"
    ],
    [
      "ನ್ನ",
      "ಾಗಿ</w>"
    ],
    [
      "ಶಿ",
      "ವ"
    ],
    [
      "ದಾ",
      "ಳಿ</w>"
    ],
    [
      "ವ",
      "ಸಾಹ"
    ],
    [
      "ಗಳ",
      "ಿಸಿದರು.</w>"
    ],
    [
      "ರ",
      "ಿಯ</w>"
    ],
    [
      "ಜ",
      "ಾನ"
    ],
    [
      "ಪ್ರಾರಂಭ",
      "ಿಸಿದರು.</w>"
    ],
    [
      "ವ್ಯವಹ",
      "ಾರ"
    ],
    [
      "ಪ್ರ",
      "ಕ್ರಿಯ"
    ],
    [
      "ಆಟಗಾರ",
      "ರು</w>"
    ],
    [
      "ಶಾ",
      "ಂತ"
    ],
    [
      "ಗಮ",
      "ನಾರ್"
    ],
    [
      "ಷ್ಟ",
      "ೇ</w>"
    ],
    [
      "ತಮಿ",
      "ಳು</w>"
    ],
    [
      "ಗೆದ್ದ",
      "ರು.</w>"
    ],
    [
      "ಈ",
      "ಗ"
    ],
    [
      "೨೦೧೯",
      "ರ</w>"
    ],
    [
      "ಹೊಂದ",
      "ಿವೆ.</w>"
    ],
    [
      "ಸ",
      "ಚಿ"
    ],
    [
      "ಸಾಹಿ",
      "ತ್ಯ"
    ],
    [
      "ಅ",
      "ಂತ್ಯ"
    ],
    [
      "ಇದ",
      "ೇ</w>"
    ],
    [
      "ಿಯ",
      "ಾನ"
    ],
    [
      "ಎತ್ತ",
      "ರ"
    ],
    [
      "ಪೊಲೀ",
      "ಸ"
    ],
    [
      "ನಾ",
      "ನ್‌</w>"
    ],
    [
      "ಸಾ",
      ".ಶ"
    ],
    [
      "ಲ್",
      "ಪಟ್ಟ"
    ],
    [
      "ವಶಪಡ",
      "ಿಸಿಕೊಂಡ"
    ],
    [
      "ಭಾರ",
      "ೀ</w>"
    ],
    [
      "ೊಂದಿಗ",
      "ೆ,</w>"
    ],
    [
      "ಒ",
      "ಡಿ"
    ],
    [
      "ವಿ",
      "ರೋಧ"
    ],
    [
      "ುತ್ತ",
      "ಿದ್ದರು.</w>"
    ],
    [
      "ಪರಿ",
      "ಶೀಲ"
    ],
    [
      "ರ",
      "ಷ"
    ],
    [
      "ಸ್ಥಾನ",
      "ವನ್ನು</w>"
    ],
    [
      "ಜ",
      "್ಯ</w>"
    ],
    [
      "ಿ",
      "ಂದಾಗಿ</w>"
    ],
    [
      "ಆ",
      "ರೋಪ"
    ],
    [
      "ಿದ್ದ",
      "ಾರೆ</w>"
    ],
    [
      "ಕ್",
      "ಲಿ"
    ],
    [
      "ರಿಯ",
      "ಾದ</w>"
    ],
    [
      "ಪ್ರ",
      "ಭೇದ"
    ],
    [
      "ಆಕ",
      "ರ್ಷ"
    ],
    [
      "ಕಟ್ಟ",
      "ಡ"
    ],
    [
      ".",
      "ಐ"
    ],
    [
      "ರ್ಥ",
      "</w>"
    ],
    [
      "ಆಕ",
      "ೆಯನ್ನು</w>"
    ],
    [
      "ಬಹು",
      "ಶಃ</w>"
    ],
    [
      "ಡ",
      "ಲು</w>"
    ],
    [
      "ಅ",
      "ನ್ನ"
    ],
    [
      "೫",
      "೦</w>"
    ],
    [
      "ಇ",
      "ರಾ"
    ],
    [
      "೨೦೧",
      "೩ರ</w>"
    ],
    [
      "ವಾ",
      "ದ್ಯ"
    ],
    [
      "ರಿ",
      ",</w>"
    ],
    [
      "ಕೆ",
      "ಂಪ"
    ],
    [
      "ಅಂತಿ",
      "ಮ</w>"
    ],
    [
      "ಚಿ",
      "ನ್ನ"
    ],
    [
      "ಶತಮಾನ",
      "ದಲ್ಲಿ</w>"
    ],
    [
      "ಲೀ",
      "ಗ್</w>"
    ],
    [
      "ಟ",
      "ೇ"
    ],
    [
      "ಆ",
      "ರ್‌"
    ],
    [
      "ಸಾ",
      "ಫ್ಟ"
    ],
    [
      "ಳ",
      "ಿಗೆ</w>"
    ],
    [
      "ಗ್ರ",
      "ೇ"
    ],
    [
      "ಅಮೆರಿಕ",
      "ದ</w>"
    ],
    [
      "ಜೊತೆಗ",
      "ೆ,</w>"
    ],
    [
      "ಿ",
      "ಗಳಲ್ಲಿ</w>"
    ],
    [
      "ಆದ್ದ",
      "ರಿಂದ</w>"
    ],
    [
      "ನಂಗ",
      "ೆ.</w>"
    ],
    [
      "ರಾ",
      "ಜನ"
    ],
    [
      "ಕ್ಕ",
      "ಿ</w>"
    ],
    [
      "೨೦೧",
      "೮ರ</w>"
    ],
    [
      "ಮೈ",
      "ದಾನ"
    ],
    [
      "ುಕೊಂಡ",
      "ಿತು.</w>"
    ],
    [
      "ಸ",
      "ರ್ವ"
    ],
    [
      "ಟ",
      "ೊ"
    ],
    [
      "ಮಹಿಳ",
      "ಾ</w>"
    ],
    [
      "ಶ",
      "ಸ್ತ್ರ"
    ],
    [
      "ಸ್",
      "ವಿ"
    ],
    [
      "ತು",
      "ಪಡ"
    ],
    [
      "ಬಾ",
      "ರ್"
    ],
    [
      "ಒಳಗೊಂಡ",
      "ಿದೆ.</w>"
    ],
    [
      "ನಾ",
      "ಲ್"
    ],
    [
      "ಜಾಲ",
      "ತಾಣ"
    ],
    [
      "ಣ",
      "ೆ"
    ],
    [
      "ದಶಕ",
      "ದ</w>"
    ],
    [
      "ಅನು",
      "ಸರ"
    ],
    [
      "ಆ",
      "ಯ"
    ],
    [
      "ಕ್ರೀಡ",
      "ಾ</w>"
    ],
    [
      "ಬ",
      "ೊ"
    ],
    [
      "ನಿರಾ",
      "ಕರ"
    ],
    [
      "ಸಮ",
      "ೀಪ"
    ],
    [
      "ತು",
      "ರ್"
    ],
    [
      "ಸ್‌",
      "ಗೆ</w>"
    ],
    [
      "ಕ",
      "ತ್ತ"
    ],
    [
      "ಎ",
      "ಲ್"
    ],
    [
      "ತಿ",
      "ಗಳು</w>"
    ],
    [
      "ಭ",
      "ೌ"
    ],
    [
      "೩",
      "೦</w>"
    ],
    [
      "ಕ್ಲ",
      "ಬ್</w>"
    ],
    [
      "ಿಯ",
      "ೊ"
    ],
    [
      "ವ",
      "ಸ"
    ],
    [
      "ತ",
      "ಿಕ</w>"
    ],
    [
      "ಸಂ",
      "ಯೋಜನ"
    ],
    [
      "ಿ",
      "ಂದ"
    ],
    [
      "ನೆ",
      "ಗೆ</w>"
    ],
    [
      "ಚೆಂಡ",
      "ನ್ನು</w>"
    ],
    [
      "ೋಗ",
      "್ರಾ"
    ],
    [
      "ುಕ",
      "ಟ್ಟ"
    ],
    [
      "ದ",
      "ಿನ</w>"
    ],
    [
      "ನ",
      "ಾಗಿ</w>"
    ],
    [
      "ಲಾಯ",
      "ಿತು,</w>"
    ],
    [
      "ಆದ",
      "ಾಯ"
    ],
    [
      "ದಾಖ",
      "ಲೆ"
    ],
    [
      "ಕ",
      "ುದ"
    ],
    [
      "ಇಡ",
      "ೀ</w>"
    ],
    [
      "ನೀಡ",
      "ಲು</w>"
    ],
    [
      "ಿಯ",
      "ೋ"
    ],
    [
      "ವಾಗಿರ",
      "ುತ್ತದೆ.</w>"
    ],
    [
      "ತ್ತ",
      "ೆ.</w>"
    ],
    [
      "ಬ",
      "ಿರ"
    ],
    [
      "ಸಾ",
      "ವನ್ನ"
    ],
    [
      "ಮ",
      "ಂ"
    ],
    [
      "ಪ್ರ",
      "ೀ"
    ],
    [
      "ನ್ಯಾಷ",
      "ನಲ್</w>"
    ],
    [
      "ಲ",
      "ೆಯ</w>"
    ],
    [
      "ಸ್ಟ",
      "್‌"
    ],
    [
      "ಆಫ್ರ",
      "ಿಕ"
    ],
    [
      "ವಿ",
      "ಂಗ"
    ],
    [
      "​",
      "​"
    ],
    [
      "ಇ",
      "ಳ"
    ],
    [
      "ಭ",
      "ೀ"
    ],
    [
      "ಆ",
      "ತ್ಮ"
    ],
    [
      "ತ",
      "ಲೆ"
    ],
    [
      "ಜರ್",
      "ಮನ"
    ],
    [
      "ಕೊ",
      "ಟ್ಟ"
    ],
    [
      "ತಿಂ",
      "ಗಳ"
    ],
    [
      "ುಕೊಂಡ",
      "ು</w>"
    ],
    [
      "ಸಾವನ್ನ",
      "ಪ್ಪ"
    ],
    [
      "ಪ್ರತಿ",
      "ಭ"
    ],
    [
      "ದ್ದ",
      "ು</w>"
    ],
    [
      "ಬೆಳ",
      "ವಣಿಗ"
    ],
    [
      "ಕ್‌",
      "ನ</w>"
    ],
    [
      "ಾರ",
      "ೆ"
    ],
    [
      "ವಾ",
      "ರ್"
    ],
    [
      "ಗ",
      "ಂಗ"
    ],
    [
      "ವ",
      "ರಿಗೆ</w>"
    ],
    [
      "ವ್ಯ",
      "</w>"
    ],
    [
      "ಿಯ",
      "ಾಗಿದ್ದರು.</w>"
    ],
    [
      "ಏಷ",
      "್ಯ"
    ],
    [
      "ಡ",
      "ಿನ</w>"
    ],
    [
      "ು",
      "ಗಳಿಗೆ</w>"
    ],
    [
      "ಮಾಡ",
      "ುತ್ತಾರೆ.</w>"
    ],
    [
      "ೀ",
      "ರಿ</w>"
    ],
    [
      "ಪಿ",
      "ಂಗ್</w>"
    ],
    [
      "ೊಂದಿಗ",
      "ಿನ</w>"
    ],
    [
      "ಿಸಿದ",
      "ಾಗ</w>"
    ],
    [
      "ಗ್ರ",
      "ಹ"
    ],
    [
      "ತಾ",
      "ಪ"
    ],
    [
      "ಥ",
      "ಾ"
    ],
    [
      "ಪ್ರದೇಶ",
      "ವಾಗಿದೆ.</w>"
    ],
    [
      "ಇ",
      "ಸ್ಲಾ"
    ],
    [
      "ಸ್ತ",
      "ಿ</w>"
    ],
    [
      "ಹೊಂದ",
      "ಿತ್ತು.</w>"
    ],
    [
      "ಮ",
      "ಧ"
    ],
    [
      "ಬುಡ",
      "ಕಟ್ಟ"
    ],
    [
      "ುತ್ತ",
      "ಾನೆ</w>"
    ],
    [
      "ಆ",
      "ದೇಶ"
    ],
    [
      "ತ್",
      "ರಾ"
    ],
    [
      "ಲ",
      "ೊ"
    ],
    [
      "ದಿ",
      "ನಾ"
    ],
    [
      "ಮುಸ್ಲಿ",
      "ಂ</w>"
    ],
    [
      "ವಿ",
      "ಲ್ಲ"
    ],
    [
      "%",
      "</w>"
    ],
    [
      "ಿಯ",
      "ಲ್ಲಿರುವ</w>"
    ],
    [
      "ಶಾಸ್ತ್ರ",
      "ೀಯ</w>"
    ],
    [
      "ಆಚರ",
      "ಿಸಲಾಗುತ್ತದೆ.</w>"
    ],
    [
      "ಸ",
      "ಸ್ಯ"
    ],
    [
      "ನ",
      "ಮ್</w>"
    ],
    [
      "ಬ",
      "ೋರ್"
    ],
    [
      "ೋ",
      "ಜ"
    ],
    [
      "ಮಾ",
      "ತ್ರ"
    ],
    [
      "ಭ",
      "ದ್ರ"
    ],
    [
      "ಫ್ರೆ",
      "ಂಚ"
    ],
    [
      "ರಾಜ್ಯ",
      "ವು</w>"
    ],
    [
      "ತಿ",
      "ಥ"
    ],
    [
      "ನಾಲ್ಕ",
      "ನೇ</w>"
    ],
    [
      "ವಿಶ",
      "ಿ"
    ],
    [
      "ಕೋ",
      "ಪ"
    ],
    [
      "ವ",
      "ಲಯದ</w>"
    ],
    [
      "ಜ",
      "ನಾಂಗ"
    ],
    [
      "ಕಾ",
      "ನ್"
    ],
    [
      "ಅಸ್ತಿ",
      "ತ್ವ"
    ],
    [
      "ಲ",
      "ೋ</w>"
    ],
    [
      "ಲ್ಲದ",
      "ೆ,</w>"
    ],
    [
      "೨",
      "೪"
    ],
    [
      "ಸೂಚ",
      "ಿಸುತ್ತದೆ.</w>"
    ],
    [
      "ಕ್ರೀಡಾ",
      "ಂಗ"
    ],
    [
      "ನ್ಯೂ",
      "ಯಾರ್"
    ],
    [
      "ವಿದ್ಯು",
      "ತ್</w>"
    ],
    [
      "ಪ್ರತಿಯ",
      "ೊಂದು</w>"
    ],
    [
      "ಗಳ",
      "ನ್ನೂ</w>"
    ],
    [
      "ಬಹ",
      "ಳ"
    ],
    [
      "ಜಾ",
      "ನ್</w>"
    ],
    [
      "ಸಂ",
      "ಘಟ"
    ],
    [
      "ಪ್ರದೇಶ",
      "</w>"
    ],
    [
      "ಗಳ",
      "ಷ್ಟು</w>"
    ],
    [
      "ಪ್ರತ್ಯ",
      "ೇಕ"
    ],
    [
      "ಸುರ",
      "ಕ್ಷ"
    ],
    [
      "ಮ",
      "ಗ</w>"
    ],
    [
      "ಟಿ",
      "ಂಗ್</w>"
    ],
    [
      "ಸಂತ",
      "ೋಷ"
    ],
    [
      "ಚಲನಚಿತ್ರ",
      "ಗಳಲ್ಲಿ</w>"
    ],
    [
      "ಪ್",
      "ಲೇ"
    ],
    [
      "ಲಾಗ",
      "ಿತ್ತು.</w>"
    ],
    [
      "ಯಾ",
      "ತ್ರ"
    ],
    [
      "ವಿ",
      "ಭ"
    ],
    [
      "ಗ",
      "ರ್"
    ],
    [
      ",೦೦",
      "೦"
    ],
    [
      "ಬ",
      "ಡ"
    ],
    [
      "ಕಾಶ",
      "್ಮೀ"
    ],
    [
      "ಟ",
      "್ಯಾ"
    ],
    [
      "ಎಲ್ಲ",
      "</w>"
    ],
    [
      "ಬೀ",
      "ಳ"
    ],
    [
      "ಬ",
      "್‌"
    ],
    [
      "ಜ",
      "ರ್ಮ"
    ],
    [
      "ಆಧಾರ",
      "ದ</w>"
    ],
    [
      "೨೦೧",
      "೧ರ</w>"
    ],
    [
      "ನ್ನ",
      "ರು</w>"
    ],
    [
      "ಅಂತ",
      "ರ್"
    ],
    [
      "ಗಳ",
      "್ನ</w>"
    ],
    [
      "ನ್ಯಾಯಾ",
      "ಲಯ"
    ],
    [
      "ಹಿ",
      "ಂ"
    ],
    [
      "ಇ",
      "ಲ್ಲಿ</w>"
    ],
    [
      "ಕ್ಯಾ",
      "ನ್ಸ"
    ],
    [
      "ುದ್ದ",
      "ೀ"
    ],
    [
      "ುವ",
      "ಲ್ಲಿ</w>"
    ],
    [
      "ೀ",
      "ಸ್</w>"
    ],
    [
      "ಸ್ಥಳ",
      "ಾಂತರ"
    ],
    [
      "ಂಥ",
      "</w>"
    ],
    [
      "ಬ",
      "ೂ"
    ],
    [
      "ಪಂದ್ಯ",
      "ಗಳನ್ನು</w>"
    ],
    [
      "ಿಲ್ಲ",
      ",</w>"
    ],
    [
      "ಗಾ",
      "ರ್"
    ],
    [
      "ಹೊಡೆ",
      "ತ"
    ],
    [
      "ಕಲಾ",
      "ವಿದ"
    ],
    [
      "ಪ",
      "ವಿ"
    ],
    [
      "ಪ",
      "ತ್"
    ],
    [
      "ಹ",
      "ತ್ಯ"
    ],
    [
      "ಐತಿಹಾಸ",
      "ಿಕ</w>"
    ],
    [
      "ರಿಕೊಂಡ",
      "ರು.</w>"
    ],
    [
      "ಕು",
      "ಳ"
    ],
    [
      "ಡ",
      "ೈ"
    ],
    [
      "ಯುರ",
      "ೋಪ"
    ],
    [
      "ಗು",
      "ಹೆ"
    ],
    [
      "ನ್",
      "‍"
    ],
    [
      "ಿಕೊಂಡ",
      "ು</w>"
    ],
    [
      "ಹೈ",
      "ದ"
    ],
    [
      "ಿಯ",
      "ಾಗಿದ್ದ"
    ],
    [
      "ಹ",
      "ಂಚ"
    ],
    [
      "ಲಿ",
      "ಲ್ಲ</w>"
    ],
    [
      "ಆಹಾರ",
      "</w>"
    ],
    [
      "ಶ್ರೇ",
      "ಣ"
    ],
    [
      "ಎತ್ತ",
      "ರದ</w>"
    ],
    [
      "೧",
      "೦೦</w>"
    ],
    [
      "ಯುದ್ಧ",
      "ದ</w>"
    ],
    [
      "ಇರ",
      "ುತ್ತದೆ.</w>"
    ],
    [
      "ಫಲ",
      "ಿತ"
    ],
    [
      "ಿಸ",
      "ಲಾಯಿತು</w>"
    ],
    [
      "ೇ",
      ",</w>"
    ],
    [
      "ಮು",
      "ಕ್ತ"
    ],
    [
      "ತ",
      "ೈ"
    ],
    [
      "ಟಿ",
      "ಕ್</w>"
    ],
    [
      "ುಗ",
      "ು"
    ],
    [
      "ಆಸ್ಟ್ರೇಲಿಯ",
      "ಾದ</w>"
    ],
    [
      "ಲಾ",
      "ಖ"
    ],
    [
      "ನಿ",
      "ವಾ"
    ],
    [
      "ಫಲಿತ",
      "ಾಂಶ"
    ],
    [
      "ಕೃಷ",
      "ಿ</w>"
    ],
    [
      "ಕ",
      ",</w>"
    ],
    [
      "ಣ",
      "ೆಯ</w>"
    ],
    [
      "ಸ್",
      "ಯ</w>"
    ],
    [
      "ಕುಮಾ",
      "ರ್</w>"
    ],
    [
      "ಅವ",
      "ುಗಳಲ್ಲಿ</w>"
    ],
    [
      "ಮಾರ",
      "ುಕಟ್ಟ"
    ],
    [
      "ಫ್",
      "ಲೋ"
    ],
    [
      "ಯು",
      ".ಎಸ್."
    ],
    [
      "ಬರ",
      "ುವ</w>"
    ],
    [
      "೨೦೧",
      "೬ರ</w>"
    ],
    [
      "ದಾ",
      "ಳ"
    ],
    [
      "ವರ್",
      "‌"
    ],
    [
      "ಿಸ",
      "ುವಂತೆ</w>"
    ],
    [
      "ಆಗ",
      "ಾಗ್"
    ],
    [
      "ಪ",
      "ಕ್ಕ"
    ],
    [
      "ಾಗ",
      "ಿ"
    ],
    [
      "ವರೆಗ",
      "ೆ,</w>"
    ],
    [
      "ಪಡೆಯ",
      "ಲು</w>"
    ],
    [
      "ಕಂಡು",
      "ಬಂದ"
    ],
    [
      "ನೆ",
      "ನ"
    ],
    [
      "ೆ",
      "ಂದರೆ</w>"
    ],
    [
      "ದ",
      "ಂತೆ</w>"
    ],
    [
      "ಮಾಡ",
      "ಿದ್ದ"
    ],
    [
      "ಸಮ",
      "ಾರಂಭ"
    ],
    [
      "ಪೂ",
      ".</w>"
    ],
    [
      "ಆಧ",
      "ರಿಸ"
    ],
    [
      "ಪಟ್ಟ",
      "ಿ</w>"
    ],
    [
      "ಇ",
      "ಲಾಖ"
    ],
    [
      "ೆಯ",
      "ೂ</w>"
    ],
    [
      "ಭ",
      "ು"
    ],
    [
      "ತ",
      "ನ</w>"
    ],
    [
      "೨೦೧",
      "೨ರ</w>"
    ],
    [
      "ಟ್‌",
      "ನ</w>"
    ],
    [
      "ಅಲ",
      "ಂ"
    ],
    [
      "ಅಭ",
      "್ಯಾ"
    ],
    [
      "೨೦೨",
      "೧ರ</w>"
    ],
    [
      "ವಾರ್ಷ",
      "ಿಕ</w>"
    ],
    [
      "ಕಾರ್",
      "ಯಾ"
    ],
    [
      "ಪರ",
      "ಸ್ಪ"
    ],
    [
      "ಕ್",
      "ಸ್"
    ],
    [
      "ಅಂತ",
      "ಹ</w>"
    ],
    [
      "ಸಂಬಂಧ",
      "ಿಸಿದ</w>"
    ],
    [
      "ಪ್ರದರ್ಶ",
      "ನ"
    ],
    [
      "ಪರ್ವ",
      "ತ"
    ],
    [
      "ಂಧ",
      "್ರ"
    ],
    [
      "ವೃತ್ತಿ",
      "ಪರ</w>"
    ],
    [
      "ಉ",
      "ಷ್ಣ"
    ],
    [
      "ಪಕ್ಷ",
      "ದ</w>"
    ],
    [
      "ಸ",
      "ರ್</w>"
    ],
    [
      "ರಾತ್ರ",
      "ಿ</w>"
    ],
    [
      "ಕರ",
      "ನ್ನು</w>"
    ],
    [
      "ಬಾ",
      "ಂಬ"
    ],
    [
      "ನಿ",
      "ವೃತ್ತ"
    ],
    [
      "೧",
      "ನೇ</w>"
    ],
    [
      "೨೦೧",
      "೭ರ</w>"
    ],
    [
      "ೆಯ",
      "ಲ್ಲಿ,</w>"
    ],
    [
      "ಸಿ",
      "ಂಗ"
    ],
    [
      "ನೇ",
      "ತೃ"
    ],
    [
      "ಎ",
      "ಚ್ಚ"
    ],
    [
      "ಕೃ",
      "ಷ್ಣ"
    ],
    [
      "ಾರ",
      "ಿ</w>"
    ],
    [
      "ಹಿ",
      "ಮಾ"
    ],
    [
      "ಮಾಡ",
      "ುವುದ"
    ],
    [
      "ಮ",
      "ನೋ"
    ],
    [
      "ಮ",
      "ಣ್ಣ"
    ],
    [
      "ಸರಾ",
      "ಸರಿ</w>"
    ],
    [
      "ಜ್",
      "ವರ"
    ],
    [
      "ಬೌದ್ಧ",
      "</w>"
    ],
    [
      "ೆ",
      "ಸ"
    ],
    [
      "ಕೋ",
      "ರ"
    ],
    [
      "ಪ",
      "ೌ"
    ],
    [
      "ವ",
      "ಲ್ಲ"
    ],
    [
      "ಖಚಿತ",
      "ಪಡ"
    ],
    [
      "ಉ",
      "ಡುಗ"
    ],
    [
      "ಅ",
      "ಕ್"
    ],
    [
      "ಬೇಕೆ",
      "ಂದು</w>"
    ],
    [
      "ನ್‌",
      "ಗೆ</w>"
    ],
    [
      "ಬ",
      "ಂದ</w>"
    ],
    [
      "ಗ",
      "ಡ"
    ],
    [
      "ಂದ",
      "ರೆ,</w>"
    ],
    [
      "ಸ್ವ",
      "ಯ"
    ],
    [
      "೫",
      "೦"
    ],
    [
      "ಸಂಕೇ",
      "ತ"
    ],
    [
      "ಸಂಖ್ಯ",
      "ೆಯ</w>"
    ],
    [
      "ಅ",
      "ಕ್ಷ"
    ],
    [
      "ಪಾರ್ಶ್ವ",
      "ವಾಯ"
    ],
    [
      "ರಾಜ್ಯ",
      "ದಲ್ಲಿ</w>"
    ],
    [
      "ಬದ",
      "ಲಿಗೆ</w>"
    ],
    [
      "ವೈಯಕ್ತ",
      "ಿಕ</w>"
    ],
    [
      "ವಿ",
      "ಧ್ಯ"
    ],
    [
      "ಉದ್ಯ",
      "ಮ"
    ],
    [
      "ಗ",
      "ಿಂತ</w>"
    ],
    [
      "ಮಿ",
      "ಶ್ರ"
    ],
    [
      "ನೀಡ",
      "ುತ್ತದೆ.</w>"
    ],
    [
      "ನೀಡ",
      "ಿದ"
    ],
    [
      "ಭ",
      "ಯ"
    ],
    [
      "ಚ",
      "ಂದ್ರ"
    ],
    [
      "ಕಳ",
      "ೆದ</w>"
    ],
    [
      "ಅಧ್ಯಯ",
      "ನ</w>"
    ],
    [
      "್ಯ",
      "ದ</w>"
    ],
    [
      "ಸಿ",
      "ಂಧ"
    ],
    [
      "ಪಂದ್ಯ",
      "ದಲ್ಲಿ</w>"
    ],
    [
      "ಲೀ",
      "ಗ"
    ],
    [
      "ಹ",
      "ಚ್ಚ"
    ],
    [
      ".ಎ",
      "ಚ್"
    ],
    [
      "ಿದ್ದ",
      "ರೆ</w>"
    ],
    [
      "ಶಾ",
      "ಖ"
    ],
    [
      "ುಳ",
      "ಿನ</w>"
    ],
    [
      "ಕು",
      "ಮಾರ"
    ],
    [
      "ಪುಸ್ತ",
      "ಕ"
    ],
    [
      "ವಿ",
      "ಫಲ"
    ],
    [
      "ಭೂಮ",
      "ಿಯ</w>"
    ],
    [
      "ಕೇಂದ್ರ",
      "</w>"
    ],
    [
      "ಮಹಿಳೆಯ",
      "ರು</w>"
    ],
    [
      "ದತ್ತ",
      "ಾಂಶ"
    ],
    [
      "೧",
      "೦೦"
    ],
    [
      "ೀ",
      "ರ"
    ],
    [
      "ಕ",
      "ರಿಗೆ</w>"
    ],
    [
      "ವಿ",
      "ಷ್ಣ"
    ],
    [
      "ಗೆ",
      "ಲ್ಲ"
    ],
    [
      "ವಾಸ್ತ",
      "ು"
    ],
    [
      "ಕ್ಯಾ",
      "ಲಿ"
    ],
    [
      "ತಂಡ",
      "ಗಳು</w>"
    ],
    [
      "ತೆಗೆದ",
      "ುಹಾಕ"
    ],
    [
      "ಅ",
      "ಸ್"
    ],
    [
      "ಪು",
      "ರ</w>"
    ],
    [
      "ಭಾರತ",
      "ವು</w>"
    ],
    [
      "ಕಾ",
      "ಳ"
    ],
    [
      "ಣ",
      "ಕ್ಕೆ</w>"
    ],
    [
      "ತಿಂ",
      "ಗಳ</w>"
    ],
    [
      "ಅವ",
      "ರೊಂದಿಗೆ</w>"
    ],
    [
      "ತಿ",
      "ಗಳನ್ನು</w>"
    ],
    [
      "ಹ",
      "ರಿ"
    ],
    [
      "ಆಲ್",
      "ಬ"
    ],
    [
      "ಪ್ರಾ",
      "ಥ"
    ],
    [
      "ಸಂಸ್ಥಾನ",
      "ಗಳ</w>"
    ],
    [
      ".",
      "ಆರ್"
    ],
    [
      "ಪ್ರ",
      "ೋಗ್ರಾ"
    ],
    [
      "ಖಾ",
      "ನ್</w>"
    ],
    [
      "ಪರ",
      "ಂಪ"
    ],
    [
      "ಿಕ",
      "ೆಗೆ</w>"
    ],
    [
      "ಕೆಂಪ",
      "ು</w>"
    ],
    [
      "ಟ್ರ",
      "ೋ"
    ],
    [
      "ಂಡ",
      "್"
    ],
    [
      "ಹೊತ್ತ",
      "ಿಗೆ,</w>"
    ],
    [
      "ಂಗ್",
      ",</w>"
    ],
    [
      "ಚಾಂಪಿಯನ್‌",
      "ಷಿ"
    ],
    [
      "ಸಮ",
      "ಯ</w>"
    ],
    [
      "೨",
      "೬"
    ],
    [
      "ಜನ",
      "ರ"
    ],
    [
      "ವಿದ",
      "ೇಶ"
    ],
    [
      "ುತ್ತ",
      "ಾರೆ,</w>"
    ],
    [
      "ಮ",
      "ೆದ"
    ],
    [
      "ಸಿ",
      "ಸ್ಟ"
    ],
    [
      "ಸ",
      "ುದ್ದ"
    ],
    [
      "ರ",
      "ಜ"
    ],
    [
      "ೇ",
      "ರ"
    ],
    [
      "ವಾ",
      "ಡ"
    ],
    [
      "”",
      "</w>"
    ],
    [
      "ಪೂರ್ಣ",
      "ಗೊಳ"
    ],
    [
      "ಮಂದ",
      "ಿ</w>"
    ],
    [
      "ಹಾ",
      "ರ್"
    ],
    [
      "೧",
      "೫</w>"
    ],
    [
      "ಹ",
      "ಂದ"
    ],
    [
      "ಚ",
      "ದರ</w>"
    ],
    [
      "ಹಬ್ಬ",
      "ದ</w>"
    ],
    [
      "ಮ",
      "ೋದ"
    ],
    [
      "ಫ",
      "ಾರ"
    ],
    [
      "ಪ್ರಶ",
      "್"
    ],
    [
      "ವ",
      "ಡ"
    ],
    [
      "ಟ",
      "ು</w>"
    ],
    [
      "ಿಕ",
      "ೋ"
    ],
    [
      "ತಿ",
      "ನ್ನ"
    ],
    [
      "ಸ್",
      "ಮ"
    ],
    [
      "ಇ",
      "ವು"
    ],
    [
      "ಪ",
      "ಾನ"
    ],
    [
      "ಉಳ",
      "ಿತ"
    ],
    [
      "ಮಣಿ",
      "ಪುರ"
    ],
    [
      "ಧ",
      "ಿ"
    ],
    [
      "ಜ",
      "ಿಯ"
    ],
    [
      "ತ",
      "ನದ</w>"
    ],
    [
      "ಲಿ",
      "ಕ್</w>"
    ],
    [
      "ಇ",
      "ಟ್ಟ"
    ],
    [
      "ಹೆಸ",
      "ರು</w>"
    ],
    [
      "ಲೈ",
      "ಂಗ"
    ],
    [
      "ಹೊಂದ",
      "ಿದ್ದು,</w>"
    ],
    [
      "ಮೂ",
      "ರ್"
    ],
    [
      "ರೈ",
      "ಲ್"
    ],
    [
      "ಅಂತಿ",
      "ಮವಾಗಿ</w>"
    ],
    [
      "ಕುಟುಂಬ",
      "ದ</w>"
    ],
    [
      "ಮಾನ",
      "ವ</w>"
    ],
    [
      "ದ",
      "ಂತಹ</w>"
    ],
    [
      "ಚ",
      "ರ್"
    ],
    [
      "ಚ",
      "ಂದ"
    ],
    [
      "ದೃ",
      "ಶ್ಯ"
    ],
    [
      "ಹೊರ",
      "ತ"
    ],
    [
      "ಕ",
      "ಮ"
    ],
    [
      "ಖಾ",
      "ಸ"
    ],
    [
      "ಕ್",
      ",</w>"
    ],
    [
      "ಕ್ರಾ",
      "ಂತ"
    ],
    [
      "ಸಂಶೋ",
      "ಧನ"
    ],
    [
      "ಭಾಗ",
      "ವು</w>"
    ],
    [
      "ಮುಖ್ಯ",
      "ಸ್ಥ"
    ],
    [
      "ಕ",
      "ು</w>"
    ],
    [
      "ುಗ",
      "್"
    ],
    [
      "ಎಂಟ",
      "ು</w>"
    ],
    [
      "ನದ",
      "ಿ</w>"
    ],
    [
      "ವ್ಯ",
      "ತ್ಯಾ"
    ],
    [
      "ಬಳ",
      "ಕೆ"
    ],
    [
      "ಲ್ಯಾ",
      "ಂಡ್</w>"
    ],
    [
      "ಮುನ್ನ",
      "ಡೆ"
    ],
    [
      "ಲ್",
      "ಡ"
    ],
    [
      "ಗ",
      "ಿರ"
    ],
    [
      "ಸಹೋದ",
      "ರ"
    ],
    [
      "ನಿಯ",
      "ಾ</w>"
    ],
    [
      "೧",
      "ರಿಂದ</w>"
    ],
    [
      "ತಾ",
      "ಳ"
    ],
    [
      "ಮೇ",
      "ಳ"
    ],
    [
      "ಪ್ರಾ",
      "ರ್ಥ"
    ],
    [
      "ನೋ",
      "ಡ್"
    ],
    [
      "ಸ್ವಾತಂತ್",
      "ರ್ಯ"
    ],
    [
      "ದಶಕ",
      "ದಲ್ಲಿ</w>"
    ],
    [
      "ಇ",
      "ಂದು</w>"
    ],
    [
      "ಂಟ",
      "ು"
    ],
    [
      "ಆ",
      "ಕೆಗೆ</w>"
    ],
    [
      "ಉದ್ಯಾನ",
      "ವ"
    ],
    [
      "ಎದು",
      "ರಾ"
    ],
    [
      "ಪ್",
      "ಲಾ"
    ],
    [
      "ಪ",
      "ರಿಸ"
    ],
    [
      ".ಎ",
      "ಸ್‌"
    ],
    [
      "ಮಿ",
      "ನ್</w>"
    ],
    [
      "ಬಣ್ಣ",
      "ದ</w>"
    ],
    [
      "ನಿರ್ಣ",
      "ಯ"
    ],
    [
      "ಟ್ರ",
      "ಿ"
    ],
    [
      "ಿರ",
      "ಂಗ"
    ],
    [
      "ರ",
      "ಾಗಿದ್ದ"
    ],
    [
      "ಪ್",
      "ತ</w>"
    ],
    [
      "ಬೇ",
      "ಡ"
    ],
    [
      "ಲ",
      "ನ್ನು</w>"
    ],
    [
      "ಬ",
      "ೃಹ"
    ],
    [
      "ಹತ್ತ",
      "ು</w>"
    ],
    [
      "ೇ",
      "ದ"
    ],
    [
      "ದೇವಾಲಯ",
      "ವು</w>"
    ],
    [
      "ನಿಮಿಷ",
      "ಗಳ</w>"
    ],
    [
      "೨",
      "ನೇ</w>"
    ],
    [
      "ಕ್ಯಾಲಿ",
      "ಫೋರ್"
    ],
    [
      "ಸ",
      "ಿಕ</w>"
    ],
    [
      ".",
      "ಜಿ"
    ],
    [
      "ಹ",
      "ಣ್ಣ"
    ],
    [
      "ಸಂ",
      "ಭಾ"
    ],
    [
      "ೆಯಾಗ",
      "ಿತ್ತು.</w>"
    ],
    [
      "ಿಕ",
      "ೆಗಳನ್ನು</w>"
    ],
    [
      "ಗೋಲ",
      "ನ್ನು</w>"
    ],
    [
      "ಬ",
      "ುದ್ಧ"
    ],
    [
      "ನ",
      "ಕ್ಷ"
    ],
    [
      "ರ",
      "ವಾ"
    ],
    [
      "ತಂಡ",
      "ವನ್ನು</w>"
    ],
    [
      "ಮ",
      "ರ್"
    ],
    [
      "ಹೆಸ",
      "ರಿನ</w>"
    ],
    [
      "ಆಡಳ",
      "ಿತ</w>"
    ],
    [
      "ಚಿತ್ರ",
      "ವನ್ನು</w>"
    ],
    [
      "ಆಗಾಗ್",
      "ಗೆ</w>"
    ],
    [
      "ೆಯ",
      "ೊಂದಿಗೆ</w>"
    ],
    [
      "ಮೂಲ",
      "ದ</w>"
    ],
    [
      "ಮಕ್ಕ",
      "ಳ</w>"
    ],
    [
      "ಈ",
      "ಶಾ"
    ],
    [
      "ಎ",
      "ಲೆ"
    ],
    [
      "ಖ",
      "್</w>"
    ],
    [
      "ಶಿ",
      "ಕ್ಷಣ"
    ],
    [
      "ರ",
      "ದ್ದ"
    ],
    [
      "ಿಸ",
      "ುವುದನ್ನು</w>"
    ],
    [
      "ಿ",
      "ಟ್ಟ"
    ],
    [
      "ಬರ",
      "ಹ"
    ],
    [
      "ುತ್ತ",
      "ಿರ"
    ],
    [
      "ಸ",
      "ಮೂಹ"
    ],
    [
      "ಸಂ",
      "ಕೀರ್"
    ],
    [
      "ಶ್ರ",
      "ೀ</w>"
    ],
    [
      "ಹೊರ",
      "ತುಪಡ"
    ],
    [
      "ಲಿಯ",
      "ನ್</w>"
    ],
    [
      "ಭಾಗ",
      "ಗಳಲ್ಲಿ</w>"
    ],
    [
      "ಜಲ",
      "ಪಾತ"
    ],
    [
      "ಪ",
      "್ಯಾರ"
    ],
    [
      "ಆ",
      "ಮ್"
    ],
    [
      "ಾಗ",
      "್‌</w>"
    ],
    [
      "ಡ",
      "ೊ"
    ],
    [
      "ಒಕ್ಕೂ",
      "ಟ"
    ],
    [
      "ವಸ್ತ",
      "ು"
    ],
    [
      "ಬೇಕಾ",
      "ದ</w>"
    ],
    [
      "ಸಿ",
      "ಕ್ಕ"
    ],
    [
      "ಗಾರ",
      "ರು</w>"
    ],
    [
      "ಮ",
      "ುದ್ರ"
    ],
    [
      "ಹಳ",
      "ದಿ</w>"
    ],
    [
      "ಜನಗಣ",
      "ತಿಯ</w>"
    ],
    [
      "ಇಂಡ",
      "ಿಯಾ</w>"
    ],
    [
      "ಬಳ",
      "ಿಕ</w>"
    ],
    [
      "ಮೆ",
      "ಂಟ"
    ],
    [
      "ವ್ಯಕ್ತ",
      "ಿಯು</w>"
    ],
    [
      "ಿಸುವ",
      "ಲ್ಲಿ</w>"
    ],
    [
      "ನೀಡ",
      "ಲಾಯಿತು.</w>"
    ],
    [
      "ಕಾ",
      "ಮ"
    ],
    [
      "ಸಮಾ",
      "ಜ"
    ],
    [
      "ಮನೆ",
      "ಗೆ</w>"
    ],
    [
      "೨೦೦",
      "೮ರ</w>"
    ],
    [
      "ತೆ",
      "ಗಳನ್ನು</w>"
    ],
    [
      "ಋತ",
      "ುವ"
    ],
    [
      "ಪ್ರಕಾರ",
      "</w>"
    ],
    [
      "ಶ",
      "ೆ"
    ],
    [
      "ೋದ",
      "ು</w>"
    ],
    [
      "ನೀಡ",
      "ಿದ</w>"
    ],
    [
      "ಷ",
      "ಾ</w>"
    ],
    [
      "ಸರ್ಕಾರ",
      "ದ</w>"
    ],
    [
      "೨",
      "೮"
    ],
    [
      "ಕೊ",
      "ನೆಯಲ್ಲಿ</w>"
    ],
    [
      "ುದ",
      "ನ್ನು</w>"
    ],
    [
      "ಗು",
      "ಲಾ"
    ],
    [
      "ಯ",
      "ಲ್ಲಿ</w>"
    ],
    [
      "ತ್ತ",
      "</w>"
    ],
    [
      "ನಗ",
      "ೊಂಡ"
    ],
    [
      "೩",
      "ನೇ</w>"
    ],
    [
      "ವಾಗ",
      "ುವ</w>"
    ],
    [
      "ಅರ್",
      "ಹ"
    ],
    [
      "ವ",
      "ೋ"
    ],
    [
      "ಬಿಡುಗಡೆಯ",
      "ಾಯಿತು.</w>"
    ],
    [
      "ಮಂಡ",
      "ಳ"
    ],
    [
      "ವ",
      "ೀಡ"
    ],
    [
      "ವ್ಯಾಪ",
      "ಕವಾಗಿ</w>"
    ],
    [
      "ಅ",
      "ಶೋ"
    ],
    [
      "ಆಗ್",
      "ನೇ"
    ],
    [
      "ಪ",
      "ೀಡ"
    ],
    [
      "ಯ",
      "ನ</w>"
    ],
    [
      "ದೇಶ",
      "ಗಳಲ್ಲಿ</w>"
    ],
    [
      "ಇಂಡ",
      "ೋ"
    ],
    [
      "ಹೆಚ್ಚ",
      "ಾಗ"
    ],
    [
      "ವಿ",
      "ಟ"
    ],
    [
      "ಸಂಗೀತ",
      "ದ</w>"
    ],
    [
      "ಮಾಹಿತ",
      "ಿಯನ್ನು</w>"
    ],
    [
      "ಿಸಿದ",
      "ರೆ,</w>"
    ],
    [
      "ಮಾ",
      "ಜಿ</w>"
    ],
    [
      "ನಿ",
      "ಷೇ"
    ],
    [
      "ಗೋ",
      "ಲು</w>"
    ],
    [
      "ಕಪ್ಪ",
      "ು</w>"
    ],
    [
      "ುರ",
      "ು"
    ],
    [
      "ಕಂಪ್ಯೂ",
      "ಟರ್</w>"
    ],
    [
      "ಇ",
      "ಲ್"
    ],
    [
      "ಕಾನೂ",
      "ನು</w>"
    ],
    [
      "ತರಬೇ",
      "ತಿ</w>"
    ],
    [
      "ಲೀ",
      "ನ</w>"
    ],
    [
      "ಅ",
      "ಡ್ಡ"
    ],
    [
      "ನಿ",
      "ಕ್</w>"
    ],
    [
      "ಮನ",
      "ುಷ"
    ],
    [
      "ಪ್ರ",
      "ೊ"
    ],
    [
      "ಿಸ",
      "ಿವೆ.</w>"
    ],
    [
      "ಮೆ",
      "ಕ್"
    ],
    [
      "ಜರ್ಮನ",
      "ಿಯ</w>"
    ],
    [
      "ಿಸುತ್ತ",
      "ಾರೆ</w>"
    ],
    [
      "ಅಭಿ",
      "ನಯ"
    ],
    [
      "ಅಧಿಕಾರ",
      "ಿಗಳು</w>"
    ],
    [
      "ಕ್ರ",
      "ೈ"
    ],
    [
      "ಮಾ",
      "ಲೀ"
    ],
    [
      "ಹಣಕಾ",
      "ಸು</w>"
    ],
    [
      "ಸಂಪರ್",
      "ಕ</w>"
    ],
    [
      "ಕಾರಣ",
      "ವಾಯಿತು.</w>"
    ],
    [
      "ಿಕ",
      "ೆಗಳು</w>"
    ],
    [
      "ಮಾ",
      "ನ್</w>"
    ],
    [
      "ಿ",
      "ಗಳ"
    ],
    [
      "ಕಾಣ",
      "ಿಸಿಕೊಳ್ಳ"
    ],
    [
      "ವಾಸ್ತು",
      "ಶಿಲ್ಪ"
    ],
    [
      "ಾ",
      "ಲದ</w>"
    ],
    [
      "ಚರ್ಮ",
      "ದ</w>"
    ],
    [
      "ದೆಹಲ",
      "ಿಯ</w>"
    ],
    [
      "ಕಾರ್ಯಾ",
      "ಚರಣ"
    ],
    [
      "ಪ್ರ",
      "ವಾಹ"
    ],
    [
      "ವರ",
      "ದಿ</w>"
    ],
    [
      "ಗೊಂಡ",
      "ಿತು.</w>"
    ],
    [
      "ಲೆ",
      "ಂಡ್</w>"
    ],
    [
      "ಸ್",
      "ಕೃತ"
    ],
    [
      "ನೀ",
      "ರು</w>"
    ],
    [
      "ಕೈ",
      "ಗಾರ"
    ],
    [
      "ಟ",
      "ಾ</w>"
    ],
    [
      "ಜಾ",
      "ರ್ಜ"
    ],
    [
      "ಕಿಲೋ",
      "ಮೀಟರ್</w>"
    ],
    [
      "ರೇ",
      "ಖ"
    ],
    [
      "ನ",
      "ಮ್"
    ],
    [
      "ೊ",
      "ಯ್ಯ"
    ],
    [
      "ಅದ",
      "ಕ್ಕೆ</w>"
    ],
    [
      "ಖ",
      "ಿ"
    ],
    [
      "ಸರ್ಕಾರ",
      "ಿ</w>"
    ],
    [
      "ಇಂಗ್ಲಿ",
      "ಷ್</w>"
    ],
    [
      "ಸ್ಥ",
      "ಿರ"
    ],
    [
      "ರಲ್ಲ",
      "ೂ</w>"
    ],
    [
      "ಅ",
      "ಡಿ"
    ],
    [
      "ಚ",
      "ಳ"
    ],
    [
      "ಲಿ",
      "ನ್</w>"
    ],
    [
      "ಓ",
      "ದ"
    ],
    [
      "ಚಿನ್ನ",
      "ದ</w>"
    ],
    [
      "ನಿಷೇ",
      "ಧ"
    ],
    [
      "ಭಾಷ",
      "ೆಯ</w>"
    ],
    [
      "ವ್ಯತ್ಯಾ",
      "ಸ"
    ],
    [
      "ನೀ",
      "</w>"
    ],
    [
      "ಹ",
      "ಾ</w>"
    ],
    [
      "ಮೊದ",
      "ಲ"
    ],
    [
      "ಗ",
      "ಲ್ಲ"
    ],
    [
      "ಗ",
      "ಂಭ"
    ],
    [
      "ಟ",
      "ಲ್</w>"
    ],
    [
      "ಲಿ",
      "ನಲ್ಲಿ</w>"
    ],
    [
      "ಖರ್ಚ",
      "ು</w>"
    ],
    [
      "ಸಮ",
      "ಿತ"
    ],
    [
      "ಸೂ",
      "ಕ್ಷ"
    ],
    [
      "ಕ",
      "ಗಳು</w>"
    ],
    [
      "ಹೆ",
      "ದ್ದ"
    ],
    [
      "ುಗ",
      "ೊಳ"
    ],
    [
      "ಕಂಪ",
      "ನಿಯ</w>"
    ],
    [
      "ತಂದ",
      "ೆ</w>"
    ],
    [
      "ನಿರ್",
      "ಧಾರ"
    ],
    [
      "ಗ",
      "ಂಡ"
    ],
    [
      "ಗೆ",
      "ಲ"
    ],
    [
      "ಿಯ",
      "ೊಂದಿಗೆ</w>"
    ],
    [
      "ಾ",
      "ಸ"
    ],
    [
      "ಫಿ",
      "ಲಿ"
    ],
    [
      "ಅ",
      "ಮೇ"
    ],
    [
      "ಮ",
      "ೆ</w>"
    ],
    [
      "ಕ",
      "ವಾದ</w>"
    ],
    [
      "ನಾಮ",
      "ನಿರ್ದೇಶ"
    ],
    [
      "ಮಾಡ",
      "ುವುದು</w>"
    ],
    [
      "ತ",
      "ಿಯು</w>"
    ],
    [
      "ನ",
      "ಿಯನ್ನು</w>"
    ],
    [
      "ಿತ",
      "ವಾದ</w>"
    ],
    [
      "ಪ",
      "ರ್</w>"
    ],
    [
      "ಗ",
      "ರಿ"
    ],
    [
      "ಪಟ್ಟಣ",
      "ವಾಗಿದೆ.</w>"
    ],
    [
      "ಸರ್",
      "ಗ"
    ],
    [
      "ದಿನ",
      "ವನ್ನು</w>"
    ],
    [
      ".",
      ")</w>"
    ],
    [
      "ಸಾಮಾನ್ಯ",
      "ವಾಗಿ,</w>"
    ],
    [
      "ಅಯೋ",
      "ವಾ"
    ],
    [
      "ಪದ",
      "್ಧ"
    ],
    [
      "ಪ್ರಸ್ತ",
      "ುತ"
    ],
    [
      "ಕಾರ",
      "</w>"
    ],
    [
      "ಮಾಡಿಕೊ",
      "ಡ"
    ],
    [
      "ಟ",
      "್ಯೂ"
    ],
    [
      "ಫ್ರೆಂಚ",
      "್</w>"
    ],
    [
      "ವೈ",
      "ವಿಧ್ಯ"
    ],
    [
      "ದೈ",
      "ಹ"
    ],
    [
      "ಲ್",
      "ಯು"
    ],
    [
      "ಪ್ರಾಥ",
      "ಮಿಕ</w>"
    ],
    [
      "ಉತ್",
      "ಸವ"
    ],
    [
      "ಬೇ",
      "ಸಿಗೆ</w>"
    ],
    [
      "ಇತ್ತೀಚ",
      "ಿನ</w>"
    ],
    [
      "ಆದ",
      "್ರೆ</w>"
    ],
    [
      "ಅಪ",
      "ರಾಧ"
    ],
    [
      "ಹಿರ",
      "ಿಯ</w>"
    ],
    [
      "ಣ",
      "್</w>"
    ],
    [
      "ಮ",
      "್ಯೂ"
    ],
    [
      "ಡ",
      "ೀ"
    ],
    [
      "ಾಗ",
      "ಿವೆ.</w>"
    ],
    [
      "ಮುಂದುವ",
      "ರ"
    ],
    [
      "ಮಿ",
      "ಲಿ"
    ],
    [
      "ಪ್ರತಿಭ",
      "ಟ"
    ],
    [
      "ಸಾಂ",
      "ಸ್ಕೃತ"
    ],
    [
      "ಾ",
      "ಂಗ"
    ],
    [
      "ವ",
      "್‌"
    ],
    [
      "ಯ",
      "ಂತ್ರ"
    ],
    [
      "ಣೆ",
      "ಕಟ್ಟ"
    ],
    [
      "ಉಡುಗ",
      "ೊ"
    ],
    [
      "ರೀ",
      "ತಿಯಲ್ಲಿ</w>"
    ],
    [
      "ಗೋ",
      "ಳ"
    ],
    [
      "ಹ",
      "ದಿ"
    ],
    [
      "ನಾ",
      "ಣ್ಯ"
    ],
    [
      "ರ್‌",
      "ಗಳು</w>"
    ],
    [
      "ನೀಡ",
      "ಲಾಗ"
    ],
    [
      "ಪ",
      "ದ</w>"
    ],
    [
      "ಸ್ಟೇ",
      "ಟ್"
    ],
    [
      "ಪವಿ",
      "ತ್ರ</w>"
    ],
    [
      "ಸ್ಥಾನ",
      "ದ</w>"
    ],
    [
      "ಿದ್ದ",
      "ನು.</w>"
    ],
    [
      "ಕಾರ",
      "ದ</w>"
    ],
    [
      "ಸಾ",
      "ವಿ"
    ],
    [
      "ಪ್ರಾಂತ್ಯ",
      "ದ</w>"
    ],
    [
      "ಅ",
      "ಸೋ"
    ],
    [
      "ಶ",
      "ಯ"
    ],
    [
      "ವಾಗ",
      "ಿದೆ,</w>"
    ],
    [
      ")",
      ".</w>"
    ],
    [
      "ಲ",
      "ಂ"
    ],
    [
      "ಅ",
      "ಗ್ರ"
    ],
    [
      "ಮ",
      "ಳಿಗ"
    ],
    [
      "ಸ್ಥ",
      "ಾನ</w>"
    ],
    [
      "ಹೆಸ",
      "ರಿ"
    ],
    [
      "ಗ",
      "ೂ</w>"
    ],
    [
      "ಕಣಿ",
      "ವ"
    ],
    [
      "ಕ್ರೀ",
      "ಡೆ"
    ],
    [
      "ಗಳೆ",
      "ಂದರೆ</w>"
    ],
    [
      "ಬ್",
      "ಲಾ"
    ],
    [
      "ಕಾಂಗ್ರೆ",
      "ಸ್</w>"
    ],
    [
      "ಉ",
      "ದ್"
    ],
    [
      "ಸಂ",
      "ಚ"
    ],
    [
      "ಮ",
      "ಿಯ"
    ],
    [
      "ಿದ",
      "್</w>"
    ],
    [
      "ಿದ್ದ",
      "ರೂ,</w>"
    ],
    [
      "ಬ",
      "ಲ</w>"
    ],
    [
      "ಮುಂಬ",
      "ೈ"
    ],
    [
      "ಕ",
      "ಾಗ"
    ],
    [
      "ಸಿ",
      "ಕ್ಕಿ"
    ],
    [
      "ಿಸಲಾಗ",
      "ಿದೆ</w>"
    ],
    [
      "ಕ",
      "ಿನ</w>"
    ],
    [
      "ಗಾ",
      "ಳಿ"
    ],
    [
      "ಜಲ",
      "ಾನ"
    ],
    [
      "ಸ್",
      "ನಾಯ"
    ],
    [
      "ಜೀ",
      "ವಿ"
    ],
    [
      "೨",
      "೨"
    ],
    [
      "ಅರಣ",
      "್ಯ"
    ],
    [
      "ಚಿಕ್ಕ",
      "</w>"
    ],
    [
      "ಅ",
      "ಂಬ"
    ],
    [
      "ಎ",
      "</w>"
    ],
    [
      "ರ್‌",
      "ಗೆ</w>"
    ],
    [
      "ಅದ",
      "ರಲ್ಲಿ</w>"
    ],
    [
      "ಸ್ಟ",
      "್‌</w>"
    ],
    [
      "ರ",
      "ೆಯ</w>"
    ],
    [
      "ವ",
      "ೊ"
    ],
    [
      "ಮೀ",
      "ಸ"
    ],
    [
      "ನೈ",
      "ಸರ್ಗ"
    ],
    [
      "ಪ್",
      "ಪು"
    ],
    [
      "ಚಾ",
      "ಲ"
    ],
    [
      "ಒಲಿಂಪಿ",
      "ಕ್"
    ],
    [
      "ಥ",
      "ೈ"
    ],
    [
      "ಮೀ",
      "ನ"
    ],
    [
      "ನ್ಯ",
      "ೂ</w>"
    ],
    [
      "ಜಪಾ",
      "ನಿನ</w>"
    ],
    [
      "ತಿರ",
      "ುಗ"
    ],
    [
      "ಸಹ",
      "ಿ</w>"
    ],
    [
      "ಸಮಯ",
      "ದ</w>"
    ],
    [
      "ಜೀವ",
      "ನದ</w>"
    ],
    [
      "ತೀ",
      "ರ"
    ],
    [
      "ರ",
      "ಿಯನ್ನು</w>"
    ],
    [
      "ಸ್",
      "ಕರ</w>"
    ],
    [
      "ವಾ",
      "ನ್</w>"
    ],
    [
      "ಭ",
      "ವಿಷ"
    ],
    [
      "ಇನ್ನ",
      "ೊಂದು</w>"
    ],
    [
      "ಡಿಯ",
      "ೋ</w>"
    ],
    [
      "ಭ",
      "ರ"
    ],
    [
      "ಕ್",
      "ಯೂ"
    ],
    [
      "ಉ",
      "ರಿಯ"
    ],
    [
      "ರೋಗ",
      "ದ</w>"
    ],
    [
      "ತ್ತ",
      "ೆ</w>"
    ],
    [
      "ಅವ",
      "ನನ್ನು</w>"
    ],
    [
      "ಹ",
      "ಮ್ಮ"
    ],
    [
      "ಿಕ",
      "ೆಯಲ್ಲಿ</w>"
    ],
    [
      "ಚಿತ್ರ",
      "ದಲ್ಲಿ</w>"
    ],
    [
      "ಸಿ",
      "ಬ್ಬ"
    ],
    [
      "ಸಿಬ್ಬ",
      "ಂದ"
    ],
    [
      "ೆಗ",
      "ಿನ</w>"
    ],
    [
      "ರೈ",
      "ಲು</w>"
    ],
    [
      "ಬದ",
      "ುಕ"
    ],
    [
      "ಗಾ",
      "ತ್ರ"
    ],
    [
      "ವ್ಯಾಪ",
      "ಾರ</w>"
    ],
    [
      "ಂಗ್",
      "ಲಾ"
    ],
    [
      "ಕ್ಕ",
      "ಾಗ"
    ],
    [
      "ಯಾವಾಗ",
      "ಲೂ</w>"
    ],
    [
      "ಶ್",
      "ವಾಸ"
    ],
    [
      "ವಿಂಗ",
      "ಡ"
    ],
    [
      "ವಿ",
      "ಂಡೋ"
    ],
    [
      "ತ",
      "ಿದೆ.</w>"
    ],
    [
      "ಆಯ್",
      "ತು.</w>"
    ],
    [
      "ುವ",
      "ಂತ"
    ],
    [
      "ಪ್ರಯ",
      "ೋಗ"
    ],
    [
      "ಕ",
      "ನ್ನ"
    ],
    [
      "ಿಗ",
      "ಾಗಿ</w>"
    ],
    [
      "ಯು",
      "ಕ್ತ"
    ],
    [
      "ಪ್ರಚ",
      "ೋದ"
    ],
    [
      "ರೂ",
      "ಪಾ"
    ],
    [
      "ಿದ್ದ",
      "ಾಗ</w>"
    ],
    [
      "ದಿ",
      "ಕ್ಕ"
    ],
    [
      "ಉ",
      "ನ್ನತ</w>"
    ],
    [
      "ಮ",
      "ದ್ಯ"
    ],
    [
      "ಪಾತ್ರ",
      "ದಲ್ಲಿ</w>"
    ],
    [
      "ಹೇಳ",
      "ುತ್ತದೆ.</w>"
    ],
    [
      "ಖಾಸ",
      "ಗಿ</w>"
    ],
    [
      "೨",
      "೭"
    ],
    [
      "ನಾ",
      "ಳ"
    ],
    [
      "ಅಸೋ",
      "ಸಿಯ"
    ],
    [
      "ತೀ",
      "ರಿಕೊಂಡರು.</w>"
    ],
    [
      "ತ",
      "ದ"
    ],
    [
      "ಿಸಿದ",
      "ರೆ</w>"
    ],
    [
      "ನಿ",
      "ಂತ"
    ],
    [
      "ುತ್ತ",
      "ಾ</w>"
    ],
    [
      "ದಿನಾ",
      "ಂಕ"
    ],
    [
      "ಟ್ಟ",
      "ಿಗ"
    ],
    [
      "ಂಡ",
      "ಿ"
    ],
    [
      "ಉಳ",
      "ಿದ</w>"
    ],
    [
      "೧",
      "."
    ],
    [
      "ಸ್ಟ",
      "ೀ"
    ],
    [
      "ವಾಸಿಸುತ್ತ",
      "ಿದ್ದರು.</w>"
    ],
    [
      "ಉಷ್ಣ",
      "ವಲಯದ</w>"
    ],
    [
      "ಖ",
      "ಾನ"
    ],
    [
      "ದ",
      "ರ್"
    ],
    [
      "ಶ",
      "ೇಖ"
    ],
    [
      "ಪರಸ್ಪ",
      "ರ</w>"
    ],
    [
      "ಿಸಲಾಗ",
      "ುತ್ತದೆ</w>"
    ],
    [
      "ವಿ",
      "ಳ"
    ],
    [
      "ಿತ",
      "ಗೊಳ"
    ],
    [
      "ುವ",
      "ಾರ"
    ],
    [
      "ಕ",
      "ಪ್</w>"
    ],
    [
      "ಡಬ್",
      "ಲ್ಯೂ"
    ],
    [
      "ಹೇಳ",
      "ುತ್ತಾರೆ.</w>"
    ],
    [
      "ಮಕ್ಕ",
      "ಳು</w>"
    ],
    [
      "ಅ",
      "ಣೆಕಟ್ಟ"
    ],
    [
      "ಮೈ",
      "ಕ್ರೋ"
    ],
    [
      "ಅ",
      "ಂದ್ರೆ</w>"
    ],
    [
      "ಇ",
      "ರ್"
    ],
    [
      "ನ್ಯ",
      "ಾಯ"
    ],
    [
      "ದ",
      "ೀ"
    ],
    [
      "ಫ",
      "್ಯಾ"
    ],
    [
      "ವಾಗ",
      "ಿಯೂ</w>"
    ],
    [
      "ಆಕ್ರಮ",
      "ಣ"
    ],
    [
      "ನ್ನ",
      "ೇ</w>"
    ],
    [
      "ಕಾ",
      "ಲೀನ</w>"
    ],
    [
      "ಸಲ",
      "ಹೆ"
    ],
    [
      "ಹೋಗ",
      "ುವ</w>"
    ],
    [
      "ರ",
      "ಂ"
    ],
    [
      "೨೦೧",
      "೫ರ</w>"
    ],
    [
      "ಎ",
      "ಚ್"
    ],
    [
      "೧೮",
      "</w>"
    ],
    [
      "ನಟ",
      "ಿಸಿದ್ದಾರೆ.</w>"
    ],
    [
      "ಜಲಾನ",
      "ಯನ</w>"
    ],
    [
      "ಅಧ್ಯಕ್ಷ",
      "</w>"
    ],
    [
      "ೂ",
      "ಲ"
    ],
    [
      "ಘ",
      "್ರ"
    ],
    [
      "೨",
      "೩"
    ],
    [
      "ಪಂದ್ಯ",
      "ವನ್ನು</w>"
    ],
    [
      "ನಿ",
      ",</w>"
    ],
    [
      "ಅ",
      "ಪ್"
    ],
    [
      "ಎ",
      "ನ್‌"
    ],
    [
      "ಅಮೆರಿಕ",
      "ನ್</w>"
    ],
    [
      "ಬ",
      "ಲ್</w>"
    ],
    [
      "ಇ",
      "ಟ"
    ],
    [
      "ಆ",
      "ಪ"
    ],
    [
      "ವಸಾಹ",
      "ತು"
    ],
    [
      "ಯ",
      "ುವ"
    ],
    [
      "ನಿರ್",
      "ಧರಿಸ"
    ],
    [
      "ಪರಿಣಾಮ",
      "ಕಾರ"
    ],
    [
      "ಯ",
      "ನ್ನು</w>"
    ],
    [
      "೨",
      "೯"
    ],
    [
      "ಮಾನ",
      "ದ</w>"
    ],
    [
      "ಮನುಷ",
      "್ಯ"
    ],
    [
      "ಬಹಳ",
      "ಷ್ಟು</w>"
    ],
    [
      "ಶೈ",
      "ಲ"
    ],
    [
      "ಾಳ",
      "ೆ</w>"
    ],
    [
      "ಿಸಿಕೊಳ್ಳ",
      "ಿ.</w>"
    ],
    [
      "ಹೊ",
      "ಡೆಯ"
    ],
    [
      "ುವ",
      "ವರೆಗೂ</w>"
    ],
    [
      "ಶ್ರೀ",
      "ಮ"
    ],
    [
      "ಚ",
      "ೂ"
    ],
    [
      "ಇ",
      "ಲ್ಲದ"
    ],
    [
      "ಸಂಗೀತ",
      "ವನ್ನು</w>"
    ],
    [
      "ನಾ",
      "ವು</w>"
    ],
    [
      "ಕೇರಳ",
      "ದ</w>"
    ],
    [
      "ಪೊಲೀಸ",
      "ರು</w>"
    ],
    [
      "ಥ",
      "ರ</w>"
    ],
    [
      "ಿಸ",
      "ಿತು</w>"
    ],
    [
      "ಆ",
      "ಂಗ್"
    ],
    [
      "ು",
      "ಳ್ಳ</w>"
    ],
    [
      "ಫ",
      "ಿ</w>"
    ],
    [
      "ಜ",
      "ಾ</w>"
    ],
    [
      "ಅ",
      "ರಿ"
    ],
    [
      "ಶೀ",
      "ಘ್ರ"
    ],
    [
      "ರೆ",
      "ಂದು</w>"
    ],
    [
      "ಲಾ",
      "ಸ್</w>"
    ],
    [
      "ಆ",
      "ಶ್ರ"
    ],
    [
      "ವಾಸ್ತ",
      "ವ"
    ],
    [
      "ಪ್ರಾ",
      "ದೇಶ"
    ],
    [
      "ವಿಶ",
      "್ವಾ"
    ],
    [
      "ಬಾ",
      "ಂಗ್ಲಾ"
    ],
    [
      "ಪರಿಗಣ",
      "ಿಸಲಾಗಿದೆ.</w>"
    ],
    [
      "ವಾ",
      "ಹಿ"
    ],
    [
      "ಸ್ಟ",
      "ೆ"
    ],
    [
      "ಕೋ",
      "ಟಿ</w>"
    ],
    [
      "ಬಾ",
      "ಕ್"
    ],
    [
      "ಚಳಿಗ",
      "ಾಲದ</w>"
    ],
    [
      "ಡಾ",
      "ಲ"
    ],
    [
      "೪",
      "ನೇ</w>"
    ],
    [
      "ಫ",
      "ರ್"
    ],
    [
      "ಶ",
      "ೂ"
    ],
    [
      "ರ್",
      "ಪಡ"
    ],
    [
      "ಬೆಳ",
      "ೆದ"
    ],
    [
      "ಒತ್ತ",
      "ಡ"
    ],
    [
      "ಕರ",
      "ೆ"
    ],
    [
      "ಪುರುಷ",
      "ರ</w>"
    ],
    [
      "ಗಳ",
      "ವರೆಗೆ</w>"
    ],
    [
      "ಂತ",
      "ೂ</w>"
    ],
    [
      "ರ",
      "ಜಾ"
    ],
    [
      "ಕಂಪನಿಯ",
      "ು</w>"
    ],
    [
      "ಚಕ್ರ",
      "ವರ್"
    ],
    [
      "ಡಿಸ",
      "ೆಂಬ"
    ],
    [
      "ಮ",
      "ಂಗ"
    ],
    [
      "ಚ",
      "ಿ</w>"
    ],
    [
      "೪",
      "೦</w>"
    ],
    [
      "ಮರ",
      "ಳಿ</w>"
    ],
    [
      "೧",
      "೬</w>"
    ],
    [
      "ಸುತ್ತ",
      "ಮುತ್ತ"
    ],
    [
      "ವಿ",
      "ಲ್ಲ.</w>"
    ],
    [
      "ಕರ",
      "ೆ</w>"
    ],
    [
      "ಲ",
      "ೇಷ"
    ],
    [
      "ಬ್ಯಾಂ",
      "ಕ್</w>"
    ],
    [
      "ವರ್ಗ",
      "ೀಕರ"
    ],
    [
      "ವಯಸ್",
      "ಸಿಗೆ</w>"
    ],
    [
      "ಶಿ",
      "ಫಾರ"
    ],
    [
      "ದಲ್ಲ",
      "ಿದ್ದ</w>"
    ],
    [
      "ಪು",
      "ತ್ರ"
    ],
    [
      "ಹೋರಾ",
      "ಡ"
    ],
    [
      "ಲಿಲ್ಲ",
      ",</w>"
    ],
    [
      "ಮಂದ",
      "ಿರ"
    ],
    [
      "ಸ್",
      "ಮಾರ"
    ],
    [
      "ರಿ",
      "ಗಳನ್ನು</w>"
    ],
    [
      "ವರ್ಷ",
      "ಗಳಲ್ಲಿ</w>"
    ],
    [
      "ಹೊರ",
      "ಗೆ</w>"
    ],
    [
      "ವಾಣಿ",
      "ಜ್ಯ</w>"
    ],
    [
      "ಇದ",
      "ರ"
    ],
    [
      "೧",
      "೧</w>"
    ],
    [
      "ಕ್ಟ",
      "ೀ"
    ],
    [
      "ಬೆ",
      "ಲ್"
    ],
    [
      "ತೆ",
      "ರೆಯ"
    ],
    [
      "ಅ",
      "ಂಗ್"
    ],
    [
      "ಿದ",
      "ು</w>"
    ],
    [
      "ಅಭಿವೃದ್ಧ",
      "ಿ</w>"
    ],
    [
      "ಅಳ",
      "ವಡ"
    ],
    [
      "ಟ",
      "ವನ್ನು</w>"
    ],
    [
      "ಕೆಲ",
      "ವರು</w>"
    ],
    [
      "ಶ",
      "ಾ</w>"
    ],
    [
      "ಿಯ",
      "ೊ</w>"
    ],
    [
      "೧೯",
      "೦"
    ],
    [
      "ಮಹಿಳೆಯ",
      "ರ</w>"
    ],
    [
      "ಎಂ",
      "ಜಿ"
    ],
    [
      "ಬಳಸ",
      "ಬಹುದು.</w>"
    ],
    [
      "ಬ್ರೆ",
      "ಜಿ"
    ],
    [
      "ಿಯ",
      "ವರು</w>"
    ],
    [
      "ನ್",
      "-"
    ],
    [
      "ೆ",
      "ಗಳು,</w>"
    ],
    [
      "ಿರ",
      "ಲಿಲ್ಲ.</w>"
    ],
    [
      "ಸದಸ್ಯ",
      "ರಾಗಿದ್ದರು.</w>"
    ],
    [
      "ಶಸ್ತ್ರ",
      "ಚಿಕಿತ್ಸ"
    ],
    [
      "ದಿನ",
      "ದ</w>"
    ],
    [
      "ಪ",
      "್ಯ"
    ],
    [
      "ತನ",
      "ಕ</w>"
    ],
    [
      "ಸಾಂಸ್ಕೃತ",
      "ಿಕ</w>"
    ],
    [
      "ನಲ್ಲ",
      "ಿನ</w>"
    ],
    [
      "ಕೆ",
      "ತ್ತ"
    ],
    [
      "ಚಿಕಿ",
      "ತ್"
    ],
    [
      "ನಿಮ್ಮ",
      "ನ್ನು</w>"
    ],
    [
      "ನಿ",
      "ರೋಧ"
    ],
    [
      "ಕೋಶ",
      "ದ</w>"
    ],
    [
      "ಭಾಗ",
      "ವಾಗಿದೆ.</w>"
    ],
    [
      "ಗಳ",
      "್"
    ],
    [
      "ಚುನಾವಣ",
      "ೆಯಲ್ಲಿ</w>"
    ],
    [
      "ಪರಿ",
      "ವರ್ತ"
    ],
    [
      "ಅವಧ",
      "ಿಯಲ್ಲಿ,</w>"
    ],
    [
      "ಸ್ವ",
      "ಂತ</w>"
    ],
    [
      "ವಿಶ",
      "್"
    ],
    [
      "ಆಳ್ವ",
      "ಿಕೆಯ</w>"
    ],
    [
      "ಟ್",
      "ಸ್‌"
    ],
    [
      "ಬಗ",
      "ೆಯ</w>"
    ],
    [
      "ಗ",
      "ೀ"
    ],
    [
      "ತ್",
      "ವರ"
    ],
    [
      "ುವ",
      "ಿಗೆ</w>"
    ],
    [
      "ಸಾ",
      "ರ್"
    ],
    [
      "ಲ್",
      "ಯ</w>"
    ],
    [
      "೨",
      ","
    ],
    [
      "ನೈಸರ್ಗ",
      "ಿಕ</w>"
    ],
    [
      "ುಗ",
      "ು</w>"
    ],
    [
      "ಕಂಡುಬರ",
      "ುವ</w>"
    ],
    [
      "ಹೊಂದಿರ",
      "ುತ್ತದೆ.</w>"
    ],
    [
      "ಕಂಡುಬರ",
      "ುತ್ತದೆ.</w>"
    ],
    [
      "ರ",
      "ಷ್ಟ"
    ],
    [
      "ಸ್",
      "ತ್ರ</w>"
    ],
    [
      "ಪ್ರಸ್ತ",
      "ಾಪ"
    ],
    [
      "ಆಯ್",
      "ಕೆ"
    ],
    [
      "ಲಿ",
      "ವು"
    ],
    [
      "ಕುದ",
      "ುರ"
    ],
    [
      "ಮಟ್ಟ",
      "ಿಗೆ</w>"
    ],
    [
      "ಕ್ರಿಕೆ",
      "ಟ್</w>"
    ],
    [
      "ಹಿಂದ",
      "ಿರುಗ"
    ],
    [
      "ಂಡ",
      "ರ್</w>"
    ],
    [
      "ಆ",
      "ನ"
    ],
    [
      "ಬ್ಯಾ",
      "ಕ್ಟೀ"
    ],
    [
      "ಕ್",
      "ಯಾರ"
    ],
    [
      "್ದ",
      "ೇ</w>"
    ],
    [
      "ಅನ್",
      "ಕೊಂಡ"
    ],
    [
      "ಪ್ರೇ",
      "ಕ್ಷ"
    ],
    [
      "ಯೋ",
      "ಚ"
    ],
    [
      "ನ",
      "ಗಳನ್ನು</w>"
    ],
    [
      "ಕ",
      "ಗಳ</w>"
    ],
    [
      "ಿದ್ದ",
      "ರು</w>"
    ],
    [
      "ಜಗ",
      "ತ್ತ"
    ],
    [
      "ಮು",
      "ರ"
    ],
    [
      "ಆ",
      "ರೋ"
    ],
    [
      "ಬ",
      "ಲ್ಲ"
    ],
    [
      "ಮುಂದುವ",
      "ರಿಯ"
    ],
    [
      "ಪ್ರಾ",
      "ಂತ"
    ],
    [
      "ಅ",
      "ಕಾ"
    ],
    [
      "ಕ್",
      "ಲೈ"
    ],
    [
      "ಅಪ",
      "ರೂಪ"
    ],
    [
      "ಹತ್ತಿರ",
      "ದ</w>"
    ],
    [
      "ಗಳಿಗ",
      "ೂ</w>"
    ],
    [
      "ಗಳ",
      "ು.</w>"
    ],
    [
      "ಆರ್",
      "ಡ"
    ],
    [
      "ಶೇಕ",
      "ಡ</w>"
    ],
    [
      "ನ",
      "ಂಗೆ</w>"
    ],
    [
      "ಹಿ",
      "ನ್ನೆ"
    ],
    [
      "ಿಸಿದ",
      "್ದ</w>"
    ],
    [
      "ರೆ",
      "ದ</w>"
    ],
    [
      "ವಾದ",
      "ಿ</w>"
    ],
    [
      "ಪ್ರ",
      "ತೀ"
    ],
    [
      "ಅಕ್ಟೋ",
      "ಬ"
    ],
    [
      "ಬ",
      "ಂದು</w>"
    ],
    [
      "ಮಾನ",
      "ವನ್ನು</w>"
    ],
    [
      "ಸ್ವ",
      "ತಃ</w>"
    ],
    [
      "ಹಾಗ",
      "ೆ</w>"
    ],
    [
      "ನಿ",
      "ರೂಪ"
    ],
    [
      "ವೇ",
      "ಷ"
    ],
    [
      "ಗೋಲ",
      "ುಗಳನ್ನು</w>"
    ],
    [
      "ರ",
      "ವಾದ</w>"
    ],
    [
      "ತರಬೇ",
      "ತುದ"
    ],
    [
      "೧",
      "೪</w>"
    ],
    [
      "ಆಟ",
      "ವು</w>"
    ],
    [
      "ಂಡ",
      "್‌"
    ],
    [
      "ಅಮೇ",
      "ರಿಕ"
    ],
    [
      "ವಿಟ",
      "ಮಿನ್</w>"
    ],
    [
      "ಜ",
      "ಲಾ"
    ],
    [
      "ಅವ",
      "ಳು</w>"
    ],
    [
      "ತ",
      "ರು</w>"
    ],
    [
      "ನ",
      "ಕ್ಕೆ</w>"
    ],
    [
      "ಏ",
      "ರ"
    ],
    [
      "ಪರ್",
      "ಯ"
    ],
    [
      "ವಾಗ",
      "ಿದ್ದ</w>"
    ],
    [
      "ನೇ",
      "ರವಾಗಿ</w>"
    ],
    [
      "ದಿನ",
      "ಗಳಲ್ಲಿ</w>"
    ],
    [
      "ಜ್ಞ",
      "ಾ"
    ],
    [
      "ಸಮ",
      "ರ</w>"
    ],
    [
      "ಹೂಡ",
      "ಿಕೆ</w>"
    ],
    [
      "ಂ",
      "ಕು"
    ],
    [
      "ಸ",
      "ರಿ"
    ],
    [
      "ಪ್ರದರ್ಶ",
      "ನ</w>"
    ],
    [
      "ಒಳ",
      "ಗ"
    ],
    [
      "ಫಾ",
      "ರ್"
    ],
    [
      "ಈ",
      "ಗಾಗ"
    ],
    [
      "ನೆ",
      "ಟ್‌"
    ],
    [
      "ವ",
      "ಿಕಿ"
    ],
    [
      "ಧರ್ಮ",
      "ದ</w>"
    ],
    [
      "ಂದ",
      "ೂ</w>"
    ],
    [
      "ಮು",
      "ಂತ"
    ],
    [
      "ಸೆಪ್ಟ",
      "ೆಂಬ"
    ],
    [
      "ನ",
      "ಿಸ"
    ],
    [
      "ಕೊ",
      "ನೆಯ"
    ],
    [
      "಼",
      "</w>"
    ],
    [
      "ಸ್ಥಾಪ",
      "ಿಸಲಾಯಿತು.</w>"
    ],
    [
      "ಬುಡಕಟ್ಟ",
      "ು</w>"
    ],
    [
      "ತೀವ್ರ",
      "ವಾದ</w>"
    ],
    [
      "ವ್ಯವಸ್ಥ",
      "ೆಯನ್ನು</w>"
    ],
    [
      "ಸ್ವ",
      "ಸ್ಥ"
    ],
    [
      "ಲೈಂಗ",
      "ಿಕ</w>"
    ],
    [
      "ಮಕ್ಕ",
      "ಳ"
    ],
    [
      "ದೂರದರ್ಶ",
      "ನ</w>"
    ],
    [
      "ಮೈ",
      "ಲಿ"
    ],
    [
      "ಲ",
      "ಡಾ"
    ],
    [
      "ಅಂಗ",
      "ಡಿ"
    ],
    [
      "೨೦೨",
      "೨ರ</w>"
    ],
    [
      "ಗಾ",
      "ಳ"
    ],
    [
      "ಆ",
      "ನ್‌"
    ],
    [
      "ಂಗ",
      "್ಟ"
    ],
    [
      "ಿಕ",
      ",</w>"
    ],
    [
      "ನಿ",
      "ಂದ"
    ],
    [
      "ಮ",
      "್ರ"
    ],
    [
      "ೂ",
      "ರು</w>"
    ],
    [
      "ಿಸ",
      "ಬಹುದು</w>"
    ],
    [
      "ಮೂ",
      "ವರು</w>"
    ],
    [
      "ವರ",
      "ಲ್ಲಿ</w>"
    ],
    [
      "ದ",
      ",</w>"
    ],
    [
      "ಅ",
      "ಸ್ವಸ್ಥ"
    ],
    [
      "ಕೋ",
      "</w>"
    ],
    [
      "ಚಾ",
      "ರ್"
    ],
    [
      "ಿ",
      "ಡ"
    ],
    [
      "ಇವು",
      "ಗಳಲ್ಲಿ</w>"
    ],
    [
      "ಈಗಾಗ",
      "ಲೇ</w>"
    ],
    [
      "ನಿವಾ",
      "ಸಿ"
    ],
    [
      "ದ",
      "ು.</w>"
    ],
    [
      "ನೀಡ",
      "ಲಾಗುತ್ತದೆ.</w>"
    ],
    [
      "ದೂರ",
      "ದಲ್ಲಿದೆ.</w>"
    ],
    [
      "ಿ",
      "ರ್"
    ],
    [
      "ನಡೆಯ",
      "ುವ</w>"
    ],
    [
      "ದಿ",
      "ಗಳು</w>"
    ],
    [
      "ಸು",
      "ಂದ"
    ],
    [
      "ಬೆಳ",
      "ೆಸ"
    ],
    [
      "ಲೀ",
      "</w>"
    ],
    [
      "ತ",
      "ಕ್ಷಣ"
    ],
    [
      "ಾ",
      "ಡ"
    ],
    [
      "ಮೇಲ",
      "ೆ,</w>"
    ],
    [
      "ುತ್ತ",
      "ಾನೆ,</w>"
    ],
    [
      "೨",
      "೫</w>"
    ],
    [
      "ಚೋ",
      "ಳ"
    ],
    [
      "೫",
      "ನೇ</w>"
    ],
    [
      "೨೦",
      "೦</w>"
    ],
    [
      "ದೈಹ",
      "ಿಕ</w>"
    ],
    [
      "ಯು",
      ".ಎಸ್.</w>"
    ],
    [
      "ಶು",
      "ಲ್ಕ"
    ],
    [
      "ಳ",
      "ೆ"
    ],
    [
      "ಕೌಂಟ",
      "ಿಯ</w>"
    ],
    [
      "ತುರ್",
      "ತು</w>"
    ],
    [
      "ಉತ್ತ",
      "ೇಜ"
    ],
    [
      "ಸಂಸ್",
      "ಕೃತ"
    ],
    [
      "ಸಲ",
      "ಹ"
    ],
    [
      "ತ",
      "ೊಂದ"
    ],
    [
      "ಹ",
      "ರ್"
    ],
    [
      "ವ್ಯ",
      "ಕ್ತಿ</w>"
    ],
    [
      "ಕುರ",
      "ಿತು</w>"
    ],
    [
      "ಅ",
      "ಪ್ಪ"
    ],
    [
      "ಬಿ",
      "ಲ್ಲ"
    ],
    [
      "೪",
      "೦"
    ],
    [
      "ಪ್ರ",
      "ಯೋಜನ"
    ],
    [
      "ಬೇ",
      "ಸಿಗ"
    ],
    [
      "ಿ",
      "ರಿ.</w>"
    ],
    [
      "ೀ",
      "ರಿ.</w>"
    ],
    [
      "ಪ",
      "ತಿ</w>"
    ],
    [
      "ಹ",
      "ಿತ</w>"
    ],
    [
      "ಬಂಗಾಳ",
      "ದ</w>"
    ],
    [
      "ಜ",
      "ನ</w>"
    ],
    [
      "ಸಮಯ",
      "ವನ್ನು</w>"
    ],
    [
      "ನ್",
      "ಸ್‌ನ</w>"
    ],
    [
      ".ಪಿ",
      ".</w>"
    ],
    [
      "ಪ್ರ",
      "ತಿರ"
    ],
    [
      "ಕಾಲ",
      "ಿಕ</w>"
    ],
    [
      "ಸಂಸ್ಥ",
      "ೆಯು</w>"
    ],
    [
      "ಕ್‌",
      "ನಲ್ಲಿ</w>"
    ],
    [
      "ಶೇಕ",
      "ಡಾ</w>"
    ],
    [
      "?",
      "!</w>"
    ],
    [
      ".ಯ",
      "ು</w>"
    ],
    [
      "ಶ",
      "ಂಕ"
    ],
    [
      "ಕು",
      "ಸ"
    ],
    [
      "ಇಬ್ಬ",
      "ರೂ</w>"
    ],
    [
      "೧",
      "ರಲ್ಲಿ,</w>"
    ],
    [
      "ಬೆ",
      "ಲೆ"
    ],
    [
      "ಾ",
      "ಳ</w>"
    ],
    [
      "ಮೆ",
      "ಚ್ಚ"
    ],
    [
      "ವ್ಯಾ",
      "ಪ್"
    ],
    [
      "ಆ",
      "ಶ್ಚ"
    ],
    [
      "ಶ",
      "ೀರ್"
    ],
    [
      "ಪ್ರಾದೇಶ",
      "ಿಕ</w>"
    ],
    [
      "೨",
      "ರಲ್ಲಿ,</w>"
    ],
    [
      "ಮ",
      "್‌ನ</w>"
    ],
    [
      "ಕ",
      "ಣ"
    ],
    [
      "ಒ",
      "ಂಬ"
    ],
    [
      "ನೆ",
      "ಗಳ</w>"
    ],
    [
      "ದ್",
      "ವಿ"
    ],
    [
      "ನಗರ",
      "ದಲ್ಲಿ</w>"
    ],
    [
      "ಉರಿಯ",
      "ೂ"
    ],
    [
      "ಿಸಿದ",
      "ಾಗ,</w>"
    ],
    [
      "ನಡೆಯ",
      "ಿತು.</w>"
    ],
    [
      "ಸಂಬಂಧ",
      "ಿಸಿದ"
    ],
    [
      "೮",
      "ರಲ್ಲಿ,</w>"
    ],
    [
      "ತೀವ್ರ",
      "</w>"
    ],
    [
      "ಿಸಿಕೊಂಡ",
      "ರು.</w>"
    ],
    [
      "ಪ್ರಶಸ್ತಿ",
      "ಗಳನ್ನು</w>"
    ],
    [
      "ರಾಜ್ಯ",
      "ಪಾಲ"
    ],
    [
      "ಸಲ್ಲ",
      "ಿಸಿದರು.</w>"
    ],
    [
      ".",
      "ಪೂ.</w>"
    ],
    [
      "ೊಬ್ಬ",
      "ರು</w>"
    ],
    [
      "ಪಶ್ಚಿ",
      "ಮ"
    ],
    [
      "ಇಂಟ",
      "ರ್"
    ],
    [
      "ತ",
      "ಂತ"
    ],
    [
      "ತ",
      "ಿದ್ದ"
    ],
    [
      "ಇ",
      "ವೆ.</w>"
    ],
    [
      "ಮಾಡ",
      "ಿ.</w>"
    ],
    [
      "ಫೆ",
      "ಡ"
    ],
    [
      "ಡ",
      "ೌ"
    ],
    [
      "ಕೆನಡ",
      "ಾದ</w>"
    ],
    [
      "ಆನ್‌",
      "ಲೈ"
    ],
    [
      "ಮೊಘ",
      "ಲ"
    ],
    [
      "ಮ",
      "ಿಕ"
    ],
    [
      "ತ",
      "ುವ"
    ],
    [
      "ಪರ್",
      "ಷ"
    ],
    [
      "೭",
      "ರಲ್ಲಿ,</w>"
    ],
    [
      "ಗಂಗ",
      "ಾ</w>"
    ],
    [
      "ಒಳ",
      "ಗಾಗ"
    ],
    [
      "ಾಗ",
      "ೆ</w>"
    ],
    [
      "ಿಸ",
      "ಲ್ಪಟ್ಟ"
    ],
    [
      "ಏಷ",
      "್ಯಾದ</w>"
    ],
    [
      "ತ",
      "ದ</w>"
    ],
    [
      "೩",
      "ರಿಂದ</w>"
    ],
    [
      "ಸ್",
      "ಸಿನ</w>"
    ],
    [
      "ುದ",
      "ು</w>"
    ],
    [
      "ಹಿ",
      "ಂತ"
    ],
    [
      "ುವ",
      "ಾಗಿ</w>"
    ],
    [
      "ಕಾಲ",
      "ೇ"
    ],
    [
      "ಾಗ",
      "ಿದ್ದ</w>"
    ],
    [
      "ಟ",
      "ರಿ</w>"
    ],
    [
      "ಹ",
      "ಸ್ತ"
    ],
    [
      "ತಿಳ",
      "ಿಯ"
    ],
    [
      "ರೂಪಾ",
      "ಂತರ"
    ],
    [
      "ಬಗ",
      "ೆಗಿನ</w>"
    ],
    [
      "ಿದ",
      "ರು</w>"
    ],
    [
      "ಂಟ",
      "್"
    ],
    [
      "೭",
      "ನೇ</w>"
    ],
    [
      "ಖ್ಯ",
      "ಾನ"
    ],
    [
      "ಿಸ",
      "ುತ್ತದೆ,</w>"
    ],
    [
      "ವೇಳ",
      "ೆಗೆ</w>"
    ],
    [
      "ಕಂಡು",
      "ಹಿಡಿಯ"
    ],
    [
      "ಉ",
      "ಡು"
    ],
    [
      "ೆಯ",
      "ಾಗಿದ್ದು,</w>"
    ],
    [
      "ಪುರಸಭ",
      "ೆಯಾಗಿದೆ.</w>"
    ],
    [
      "ಒಳಗೊಂಡ",
      "ಿರುತ್ತದೆ.</w>"
    ],
    [
      "ಷ್ಟ",
      "್‌</w>"
    ],
    [
      "ಸ್",
      ":</w>"
    ],
    [
      "ಬಳಸ",
      "ಿಕೊಂಡು</w>"
    ],
    [
      "ಜ",
      "ವಾ"
    ],
    [
      "ಅ",
      "ಂಡ"
    ],
    [
      "ಕ್ಕ",
      "ೊಳ"
    ],
    [
      "ವಿಸ್ತ",
      "ರ"
    ],
    [
      "ತನ್ನ",
      "ನ್ನು</w>"
    ],
    [
      "ಸ",
      "ಲ್"
    ],
    [
      "ಲ್",
      "ಪಡ"
    ],
    [
      "ತೆ",
      "ರಳ"
    ],
    [
      "ಕ",
      "ಠ"
    ],
    [
      "ಸ್",
      "ಸಿ"
    ],
    [
      "ಲಾ",
      "ಭ"
    ],
    [
      "ಕ",
      "ಂ"
    ],
    [
      "ಕಥ",
      "ೆಯನ್ನು</w>"
    ],
    [
      "ಡಾ",
      "ರ್"
    ],
    [
      "ರಿಗ",
      "ೂ</w>"
    ],
    [
      "ಮ",
      "ಂಜ"
    ],
    [
      "ಕ್",
      "ಸಿ"
    ],
    [
      "ಲ",
      "ಸ"
    ],
    [
      "ಕ",
      "ಡೆಗೆ</w>"
    ],
    [
      "ಕರ್ನಾಟ",
      "ಕ</w>"
    ],
    [
      "ಯ",
      "ಿ</w>"
    ],
    [
      "ನಾಗ",
      "ರಿಕ"
    ],
    [
      "೬",
      "ರಲ್ಲಿ,</w>"
    ],
    [
      "ನ",
      "ನ್ನ"
    ],
    [
      "ನಿರ್",
      "ಬಂಧ"
    ],
    [
      "ನಿಯ",
      "ನ್</w>"
    ],
    [
      "ಾಯ",
      "್</w>"
    ],
    [
      "೧೯",
      "ನೇ</w>"
    ],
    [
      "ಹೊಂದಿರ",
      "ುತ್ತವೆ.</w>"
    ],
    [
      "ನ್",
      ":</w>"
    ],
    [
      "ಅವಧ",
      "ಿಯ</w>"
    ],
    [
      "ಪ್ರತ್ಯ",
      "ೇಕ</w>"
    ],
    [
      "ಎಂಬುದ",
      "ಾಗಿ</w>"
    ],
    [
      "ಟ್ಟ",
      "ಿ"
    ],
    [
      "೫",
      "ರಿಂದ</w>"
    ],
    [
      "ನೇ",
      "ಪಾ"
    ],
    [
      "ಹೋಗ",
      "್"
    ],
    [
      "ಕಳೆದ",
      "ುಕೊಂಡ"
    ],
    [
      "ಠ",
      "ಾ"
    ],
    [
      "೮",
      "ನೇ</w>"
    ],
    [
      "ಉಳ",
      "ಿಯ"
    ],
    [
      "ಪು",
      "ರ್</w>"
    ],
    [
      "ಮಟ್ಟ",
      "ದಲ್ಲಿ</w>"
    ],
    [
      "ತ್ಮ",
      "ಕವಾಗಿ</w>"
    ],
    [
      "ಪ",
      "ಲ್ಲ"
    ],
    [
      "ಐ",
      "ದ"
    ],
    [
      "ನೀಡ",
      "ಿತು.</w>"
    ],
    [
      "ಟ್",
      ",</w>"
    ],
    [
      "ಚ",
      "ರ"
    ],
    [
      "ಕ್ರ",
      "ೆ"
    ],
    [
      "ನಂಬ",
      "ಲಾಗಿದೆ.</w>"
    ],
    [
      "ಮಾಡ",
      "ುವ"
    ],
    [
      "ದೇವಾಲಯ",
      "ದ</w>"
    ],
    [
      "ಡಿ",
      "ಸ್"
    ],
    [
      "ನ್‌",
      "ಗಳು</w>"
    ],
    [
      "ಪ",
      "್‌</w>"
    ],
    [
      "ಿದ",
      "್"
    ],
    [
      "ಹ",
      "ತ್ರ</w>"
    ],
    [
      "ದೆಹಲ",
      "ಿ</w>"
    ],
    [
      "ನಿಯ",
      "ಾ"
    ],
    [
      "ಅ",
      "ಂದರೆ</w>"
    ],
    [
      "ಬಿಡುಗಡೆಯ",
      "ಾದ</w>"
    ],
    [
      "ಸುಲ್",
      "ತಾನ"
    ],
    [
      "ತಂ",
      "ತ್ರ</w>"
    ],
    [
      "ಕೌ",
      "ಶ"
    ],
    [
      "ೊಂದ",
      "ರ</w>"
    ],
    [
      "ದ್ರ",
      "ವ್ಯ"
    ],
    [
      "ಗಳೆ",
      "ರಡ"
    ],
    [
      "ಕರ",
      "ಾಗಿದ್ದರು.</w>"
    ],
    [
      "ಿ",
      "ರ</w>"
    ],
    [
      "ಪ್ರ",
      "ೌ"
    ],
    [
      "ರ",
      "ಿಯು</w>"
    ],
    [
      "ಾಗ",
      "ಿದೆ</w>"
    ],
    [
      "ರಾ",
      "ಯ್"
    ],
    [
      "ಒದಗ",
      "ಿಸುತ್ತದೆ.</w>"
    ],
    [
      "ಉಂಟಾಗ",
      "ುವ</w>"
    ],
    [
      "ಆಡ",
      "ಲಾಗ"
    ],
    [
      "ಿಸಲಾಗ",
      "ುವ</w>"
    ],
    [
      "ಣ",
      "ಾ</w>"
    ],
    [
      "ಕ",
      "ೀಯ"
    ],
    [
      "ಮ್",
      ",</w>"
    ],
    [
      "ಸಾ.ಶ",
      ".</w>"
    ],
    [
      "ಿದ",
      "ಾಗ</w>"
    ],
    [
      "ರಿ",
      "ಗಾಗಿ</w>"
    ],
    [
      "ನಟ",
      "</w>"
    ],
    [
      "ವಿರುದ್ಧ",
      "ದ</w>"
    ],
    [
      "ಆಗ್ನೇ",
      "ಯ</w>"
    ],
    [
      "ಬಿ",
      "ಂದ"
    ],
    [
      "ಪ್ರೌ",
      "ಢ"
    ],
    [
      "ಹ್",
      "ವಾ"
    ],
    [
      "ವ್ಯಾ",
      "ಖ್ಯಾನ"
    ],
    [
      "ಮೆಕ್",
      "ಸಿಕ"
    ],
    [
      "ಅ",
      "ಧ"
    ],
    [
      "ಪೊಲೀ",
      "ಸ್</w>"
    ],
    [
      "ಿ",
      "ನ್</w>"
    ],
    [
      "ಜನಸಂಖ್ಯ",
      "ೆಯ</w>"
    ],
    [
      "ನ್‌",
      "ರವರು</w>"
    ],
    [
      "ಸರ್",
      "ಯ"
    ],
    [
      "ಫ",
      "ೌ"
    ],
    [
      "ಉತ್ತರಾ",
      "ಧಿಕಾರ"
    ],
    [
      "ಶಿ",
      "ವಾ"
    ],
    [
      "ಗ್ರಾ",
      "ಮೀ"
    ],
    [
      "ಂತ",
      "ರ</w>"
    ],
    [
      "ವು",
      "ಳ್ಳ</w>"
    ],
    [
      "ಜನ",
      "ವರ"
    ],
    [
      "ಮಾಡ",
      "ುತ್ತಿದ್ದ"
    ],
    [
      "ಅಕಾ",
      "ಡೆ"
    ],
    [
      "ಬೆ",
      "ಂಕ"
    ],
    [
      "ರಾಜ್ಯ",
      "ವನ್ನು</w>"
    ],
    [
      "ರ್‌",
      "ಗಳನ್ನು</w>"
    ],
    [
      "ಕಿ",
      "ಂಗ್</w>"
    ],
    [
      "ಸ್ತ",
      "ಾ"
    ],
    [
      "ಗರಿ",
      "ಷ್ಠ</w>"
    ],
    [
      "ಸದಸ್ಯ",
      "ರು</w>"
    ],
    [
      ".",
      "ನ</w>"
    ],
    [
      "ಟಿ",
      "ನ್</w>"
    ],
    [
      "ಕಾನೂ",
      "ನು"
    ],
    [
      "ಸ್ಥಳ",
      "ೀಯ"
    ],
    [
      "ಮಾಡ",
      "ುತ್ತವೆ.</w>"
    ],
    [
      "ಅಂತರ",
      "ರಾಷ್ಟ್ರೀಯ</w>"
    ],
    [
      "ಶಿಫಾರ",
      "ಸು</w>"
    ],
    [
      "ಜವಾ",
      "ಬ್ದ"
    ],
    [
      "ವಾ",
      "ಸ್"
    ],
    [
      "ಪಠ",
      "್ಯ"
    ],
    [
      "ಚ",
      "ುಗ"
    ],
    [
      "ಒಪ್ಪ",
      "ಿಕೊಂಡ"
    ],
    [
      "ಾ",
      "ರ್"
    ],
    [
      "ಕೋಟ",
      "ೆಯನ್ನು</w>"
    ],
    [
      "ದ",
      "ೀಪ"
    ],
    [
      "ಪ್ರಶಸ್ತ",
      "ಿ</w>"
    ],
    [
      "ಗ",
      "ೀತ"
    ],
    [
      "ರಿಗ",
      "ಿಂತ</w>"
    ],
    [
      "ಫ",
      "ೂ"
    ],
    [
      ".ಎ",
      "ಲ್‌"
    ],
    [
      "ನಿ",
      "ಧಾನ"
    ],
    [
      "ಪ",
      "ಬ್"
    ],
    [
      "ಅಕ್ಷ",
      "ರ"
    ],
    [
      "ಡ್",
      ",</w>"
    ],
    [
      "ಅಗತ್ಯ",
      "ವಿರ"
    ],
    [
      "ುವುದ",
      "ು.</w>"
    ],
    [
      "ಫ",
      "ಾ</w>"
    ],
    [
      "ದೇಹ",
      "ದ</w>"
    ],
    [
      "ಬಳಕೆ",
      "ದಾರ"
    ],
    [
      "ತಡೆ",
      "ಗಟ್ಟ"
    ],
    [
      "ಸ್ವೀಡ",
      "ನ್‌ನ</w>"
    ],
    [
      "ಮುಸ್ಲಿ",
      "ಮ"
    ],
    [
      "ಹ",
      "್</w>"
    ],
    [
      "ಪಡೆ",
      "ಗಳು</w>"
    ],
    [
      "ಸ್ಥಾನ",
      "ಕ್ಕೆ</w>"
    ],
    [
      "ಿಸಿದ",
      "ನು</w>"
    ],
    [
      "ಕುರ",
      "ಿತ"
    ],
    [
      "ಾದ",
      "ರೂ,</w>"
    ],
    [
      "ಹೊರತ",
      "ಾಗ"
    ],
    [
      "ವಿ",
      "ಜೇ"
    ],
    [
      "ರಕ್ಷಣ",
      "ಾ</w>"
    ],
    [
      "ಸಂಸ್ಥ",
      "ೆಗಳು</w>"
    ],
    [
      "ಚೀ",
      "ನಾದ</w>"
    ],
    [
      "ಸ",
      "ಾರ</w>"
    ],
    [
      "ವರ್ಗ",
      "ದ</w>"
    ],
    [
      "ಪದ",
      "ಕವನ್ನು</w>"
    ],
    [
      "ವಿನ್ಯಾಸ",
      "ಗೊಳ"
    ],
    [
      "ಬಿ",
      "ಳಿ</w>"
    ],
    [
      "ಸ್ವರ",
      "ೂಪ"
    ],
    [
      "ಚಿ",
      "ಹ್"
    ],
    [
      "ವೇಳ",
      "ೆಗೆ,</w>"
    ],
    [
      "ಪರಿಣಾಮ",
      "ವಾಗಿ</w>"
    ],
    [
      "ಕರ",
      "ಣ</w>"
    ],
    [
      "ಮನ",
      "ೆಯ</w>"
    ],
    [
      "ಿಕೊಳ್ಳ",
      "ಲು</w>"
    ],
    [
      "ಎಚ್ಚ",
      "ರಿಕ"
    ],
    [
      "ಸೂ",
      "ಕ್ತ"
    ],
    [
      "ಗಳ",
      "ಾಗಿದ್ದ"
    ],
    [
      "ಗ್ರಾಮೀ",
      "ಣ</w>"
    ],
    [
      "ಭೇಟ",
      "ಿಯಾಗ"
    ],
    [
      "ಏಷ",
      "್ಯಾ"
    ],
    [
      "ಸ್ಪ",
      "ೇ"
    ],
    [
      "ಕ",
      "ನ</w>"
    ],
    [
      "ತ್ಸ",
      "ವ"
    ],
    [
      "ಯುರ",
      "ೋ"
    ],
    [
      "ನಿಜ",
      "ವಾದ</w>"
    ],
    [
      "ನಗ",
      "ೊಳ"
    ],
    [
      "ಬಿಡುಗ",
      "ಡ"
    ],
    [
      "ಪರ",
      "ವಾಗಿ</w>"
    ],
    [
      "ಗುರ",
      "ು"
    ],
    [
      "ಸ್ಟ",
      "ರ್"
    ],
    [
      "ಪ್ರ",
      "ೀತ"
    ],
    [
      "ಪ್ರಮಾಣ",
      "ದಲ್ಲಿ</w>"
    ],
    [
      ".ವಿ",
      ".</w>"
    ],
    [
      "ಗ",
      "ಡಿಯ"
    ],
    [
      ".ಎಲ್",
      ".</w>"
    ],
    [
      "ಇದ",
      "ರಿಂದ</w>"
    ],
    [
      "ಇ",
      "ರೋ"
    ],
    [
      "ಹೋಗ",
      "ಿ</w>"
    ],
    [
      "ಹಿಡಿದ",
      "ು</w>"
    ],
    [
      "ವ",
      "ಿಸ"
    ],
    [
      "ಮನ",
      "ೆಯಲ್ಲಿ</w>"
    ],
    [
      "ಂ",
      ",</w>"
    ],
    [
      "ುವುದ",
      "ಿಲ್ಲ</w>"
    ],
    [
      "ಚಲನಚಿತ್ರ",
      "ವನ್ನು</w>"
    ],
    [
      "ಸಂ",
      "ವಹ"
    ],
    [
      "ಗಮ",
      "ನ</w>"
    ],
    [
      "ಪ್ರದೇಶ",
      "ಗಳನ್ನು</w>"
    ],
    [
      "ಸಂ",
      "ಖ್ಯಾ"
    ],
    [
      "ಗ",
      "ವರ್"
    ],
    [
      "ಗಮನಾರ್",
      "ಹ</w>"
    ],
    [
      "ಪಾಕಿಸ್ತಾನ",
      "ದ</w>"
    ],
    [
      "ಹ",
      "ುದ್ದ"
    ],
    [
      "ಲ",
      "ಿ,</w>"
    ],
    [
      "ದ",
      "ೋಷ"
    ],
    [
      "ಪದ",
      "ೇ</w>"
    ],
    [
      "ಬಳ",
      "ಿಯ</w>"
    ],
    [
      "ಎ",
      "ಕ್ಸ್‌"
    ],
    [
      "ನೇ",
      "ಷ"
    ],
    [
      "ರ",
      "ವರ"
    ],
    [
      "ಪ",
      "ಕ್ಷಿ"
    ],
    [
      "ಿಸ",
      "ಬೇಕು.</w>"
    ],
    [
      "ಬರ",
      "ುತ್ತದೆ.</w>"
    ],
    [
      "ವಿಂಡೋ",
      "ಸ್</w>"
    ],
    [
      "ೆಯ",
      "ೊಂದನ್ನು</w>"
    ],
    [
      "ಮತ್ತ",
      "ೊಮ್ಮೆ</w>"
    ],
    [
      "ಔ",
      "ರಂಗ"
    ],
    [
      "ವ್ಯಕ್ತ",
      "ಪಡ"
    ],
    [
      "ಜೋ",
      "ಡ"
    ],
    [
      "ಗ್ರೀ",
      "ಕ್</w>"
    ],
    [
      "ತೀ",
      "ರ್ಥ"
    ],
    [
      "ವಾಯ",
      "ಿತು</w>"
    ],
    [
      "ಮೆ",
      "ಂಟ್</w>"
    ],
    [
      "ನಿರ್ದಿ",
      "ಷ್ಟ"
    ],
    [
      "ಾಗ",
      "ುವ</w>"
    ],
    [
      "ಿಯಾಗ",
      "ಿತ್ತು.</w>"
    ],
    [
      "ಪುರಾ",
      "ವೆ"
    ],
    [
      "ನ",
      "ನ್ನ</w>"
    ],
    [
      "೧೯೮",
      "೦ರ</w>"
    ],
    [
      "ಕಾರ",
      "ಾತ್ಮಕ</w>"
    ],
    [
      "ಪಂಜಾ",
      "ಬ"
    ],
    [
      "ಆರ್ಥ",
      "ಿಕ"
    ],
    [
      "ಿದ",
      "ೆಯ"
    ],
    [
      "೨೦೦",
      "೭ರ</w>"
    ],
    [
      "ಒಳ್ಳ",
      "ೆಯ</w>"
    ],
    [
      "ತಮಿಳುನಾ",
      "ಡಿನ</w>"
    ],
    [
      "ಗ",
      "ರ್ಭ"
    ],
    [
      "ು",
      "ಗಳು,</w>"
    ],
    [
      "ರೆ",
      "ಟಿ"
    ],
    [
      "ಬಿ",
      "ಡ್"
    ],
    [
      "ಹೈದ",
      "ರಾ"
    ],
    [
      "ತು",
      "ಳ"
    ],
    [
      "ಡ",
      "್‌ನ</w>"
    ],
    [
      "ಮ",
      "ಗಳು</w>"
    ],
    [
      "ವಿವಾಹ",
      "ವಾದ"
    ],
    [
      "ಬಿ",
      "ಹಾರ"
    ],
    [
      "ಹಾಡ",
      "ುಗಳನ್ನು</w>"
    ],
    [
      "ಡ್ರ",
      "ೈ"
    ],
    [
      "ಇ",
      "ಲ್ಲ.</w>"
    ],
    [
      "ಬ",
      "ಾ</w>"
    ],
    [
      "ಸಮುದ್ರ",
      "</w>"
    ],
    [
      "ಕೋಟ",
      "ೆಯು</w>"
    ],
    [
      "ಮಾ",
      "ದ</w>"
    ],
    [
      "ರಾಜಧಾನ",
      "ಿ</w>"
    ],
    [
      "ಪತ್ತ",
      "ೆ"
    ],
    [
      "ುದ",
      "ಾಗಿ</w>"
    ],
    [
      "ಬಂದ",
      "ಿದೆ.</w>"
    ],
    [
      "ಹೊಂದ",
      "ಿದೆ</w>"
    ],
    [
      "ಕಣ್ಣ",
      "ಿನ</w>"
    ],
    [
      "ದ",
      "ಿದ್ದರೆ,</w>"
    ],
    [
      "ಕೆಲ್",
      "ಸ</w>"
    ],
    [
      "ವಿಭ",
      "ಜನ"
    ],
    [
      "ಹೊಂದ",
      "ಿದ್ದ</w>"
    ],
    [
      "ನ",
      "ನ</w>"
    ],
    [
      "ಕಡಿಮ",
      "ೆಯಾಗ"
    ],
    [
      "ಯ",
      "ುವ</w>"
    ],
    [
      "ಡಿ",
      "ನಲ್ಲಿ</w>"
    ],
    [
      "ಮಾಡ",
      "ಲಾಗಿದೆ.</w>"
    ],
    [
      "ಲಿ",
      "ಗ"
    ],
    [
      "ತ",
      "ರ</w>"
    ],
    [
      "ಿಗ",
      "್"
    ],
    [
      "ಶಾಸ",
      "ನ"
    ],
    [
      "ಕು",
      "ಲ"
    ],
    [
      "ತೆ",
      "ರಿಗೆ</w>"
    ],
    [
      "ಭ",
      "ೋ"
    ],
    [
      "ದ",
      "ಾ</w>"
    ],
    [
      "ನ್‌",
      "ಗಳನ್ನು</w>"
    ],
    [
      "ಪುರುಷ",
      "ರು</w>"
    ],
    [
      "ಬಲ",
      "ವಾದ</w>"
    ],
    [
      "ಆಟಗಾರ",
      "</w>"
    ],
    [
      "ಕೆಳ",
      "ಗಿನ</w>"
    ],
    [
      "ತೆ",
      "ಗಳು</w>"
    ],
    [
      "ಋ",
      "ತು"
    ],
    [
      "ಸ್",
      "ಫೋ"
    ],
    [
      "ಹಬ್ಬ",
      "ವನ್ನು</w>"
    ],
    [
      "ಿರ",
      "ುತ್ತಾರೆ.</w>"
    ],
    [
      "ಿ",
      "ವೆ,</w>"
    ],
    [
      "ಮ್ಯ",
      "ಾನ"
    ],
    [
      "ಸೇ",
      "ನ್</w>"
    ],
    [
      "ಚೀ",
      "ನೀ</w>"
    ],
    [
      "ಐ",
      "ರೋಪ"
    ],
    [
      "ಪ",
      "ಾರ"
    ],
    [
      "ಅ",
      "ತಿಯ"
    ],
    [
      "ಾಯ",
      "ಿತ"
    ],
    [
      "ಇಂದ",
      "ಿನ</w>"
    ],
    [
      "ರ",
      "ಕ್ತ</w>"
    ],
    [
      "ರೆ",
      "ಸ"
    ],
    [
      "ನಾ",
      "ತ್ಮಕ</w>"
    ],
    [
      "ಸೀ",
      "ಮಿತ"
    ],
    [
      "ಬಳಸ",
      "ಿ</w>"
    ],
    [
      "ವಿ",
      "ಲ್ಲದ"
    ],
    [
      "ಪ",
      "ಾಯ"
    ],
    [
      "ಪ್ರಾರಂಭ",
      "ವಾಯಿತು.</w>"
    ],
    [
      "ಸಮ",
      "ರ್ಪ"
    ],
    [
      "ಒ",
      "ಮ್ಮೆ</w>"
    ],
    [
      "ನಿಗ",
      "ದಿ"
    ],
    [
      "ಸ್ಥಾಪ",
      "ಿಸಿದರು.</w>"
    ],
    [
      "ಸಿ",
      ".</w>"
    ],
    [
      "ಆ",
      "ವರ"
    ],
    [
      "ಈಶಾ",
      "ನ್ಯ</w>"
    ],
    [
      "ಜೆ",
      "ಂಟ"
    ],
    [
      "ಸ್",
      "ಕೆ"
    ],
    [
      "ನಾಗ",
      "ರಿಕ</w>"
    ],
    [
      "ನಡೆ",
      "ದ"
    ],
    [
      "ವಿದ",
      "್ವಾ"
    ],
    [
      "ಪೋರ್",
      "ಚುಗ"
    ],
    [
      "ತ",
      "ನಿಖ"
    ],
    [
      "ಶ್ರೇ",
      "ಷ್ಠ</w>"
    ],
    [
      "ಜ",
      "್‌"
    ],
    [
      "ಮನ",
      "ೆ</w>"
    ],
    [
      "ಟಿ",
      "ಪ್ಪ"
    ],
    [
      "ರಾ",
      "ವ"
    ],
    [
      "ತಾಯ",
      "ಿ</w>"
    ],
    [
      "೫",
      "ರಲ್ಲಿ,</w>"
    ],
    [
      "ಗಳಿ",
      "ಂದಾಗಿ</w>"
    ],
    [
      "ತಾ",
      "ಂತ್ರ"
    ],
    [
      "ಬೆಳ",
      "್ಳ"
    ],
    [
      "ಮ",
      "್‌ನಲ್ಲಿ</w>"
    ],
    [
      "ರಡ",
      "ು</w>"
    ],
    [
      "ವಿಶಿ",
      "ಷ್ಟ</w>"
    ],
    [
      "ನಾ",
      "ದಲ್ಲಿ</w>"
    ],
    [
      "ನ್ಯೂಯಾರ್",
      "ಕ್</w>"
    ],
    [
      "ಿಸ",
      "ಿರುವ</w>"
    ],
    [
      "ಕ್ರೀಡ",
      "ಾಪ"
    ],
    [
      "ಅ",
      "ಡಿ</w>"
    ],
    [
      "ಸ್",
      "ಕ್"
    ],
    [
      "ಸಂಬಂಧ",
      "</w>"
    ],
    [
      "ರಂ",
      "ಜನ"
    ],
    [
      "ರೈಲ್",
      "ವೆ</w>"
    ],
    [
      "ಂಡ್ರ",
      "ೋ"
    ],
    [
      "ವೈ",
      "ರಾಣ"
    ],
    [
      "ನಿ",
      "ಮ್</w>"
    ],
    [
      "ನ",
      "ಮ್‌</w>"
    ],
    [
      "ಭಾ",
      "ಳ</w>"
    ],
    [
      "೬",
      "೦"
    ],
    [
      "ಕಳ",
      "ಪ"
    ],
    [
      "ಕ್ಯಾ",
      "ಥ"
    ],
    [
      "ಕ್",
      "ಲಾ"
    ],
    [
      "ಅ",
      "ರೆ"
    ],
    [
      "ಸಿದ್ಧ",
      "ಾಂತ"
    ],
    [
      "ಿರುವ",
      "ಾಗ</w>"
    ],
    [
      "ನ",
      "ಷ್ಟ"
    ],
    [
      "ಪ್ರ",
      "ಚಾರ"
    ],
    [
      "ಿದ",
      "ವು.</w>"
    ],
    [
      "ಗೊಳ",
      "ಿಸಲು</w>"
    ],
    [
      "ರ್‌",
      "ನಿಂದ</w>"
    ],
    [
      "ರಿ",
      "ಂದ"
    ],
    [
      "ವರ್",
      "ಧ"
    ],
    [
      "ನಿಗದಿ",
      "ಪಡ"
    ],
    [
      "ಶ",
      "ೇಷ"
    ],
    [
      "ಕ್",
      "ಸ"
    ],
    [
      "ಪ್ರ",
      "ಥ"
    ],
    [
      "ಬಯ",
      "ಸುತ್ತ"
    ],
    [
      "ಷ್",
      "ಣ</w>"
    ],
    [
      ".",
      "ಒ"
    ],
    [
      "ರೋಗ",
      "ವು</w>"
    ],
    [
      "ಮೈಕ್ರೋ",
      "ಸಾಫ್ಟ"
    ],
    [
      "ಡಬ್",
      "ಲ್ಯು"
    ],
    [
      "ಟೆ",
      "ಕ್ಸಾ"
    ],
    [
      "ಆಗ",
      "</w>"
    ],
    [
      "ಎಂದ",
      "ಿಗೂ</w>"
    ],
    [
      "ದ",
      "ೊಳಗೆ</w>"
    ],
    [
      "ಸೇ",
      "ನಾ</w>"
    ],
    [
      "ಹೊಂದ",
      "ಿದ್ದರು.</w>"
    ],
    [
      "ಪುನ",
      "ರು"
    ],
    [
      "ಸ",
      "ುದ"
    ],
    [
      "ಡ್",
      "ಸ್</w>"
    ],
    [
      "ಅನ",
      "ುವು</w>"
    ],
    [
      "ಸಾಮ್ರಾಜ್ಯ",
      "ವು</w>"
    ],
    [
      "ನಿರ್ಮಾ",
      "ಪ"
    ],
    [
      "ನೀ",
      "ರನ್ನು</w>"
    ],
    [
      "೧೭",
      "</w>"
    ],
    [
      "ವರೆಗ",
      "ಿನ</w>"
    ],
    [
      "೧೮",
      "೫"
    ],
    [
      "ಲೋ",
      "ಹ"
    ],
    [
      "ಸ್ಥಳ",
      "ಗಳಲ್ಲಿ</w>"
    ],
    [
      "ಹೇಳ",
      "ಲಾಗುತ್ತದೆ.</w>"
    ],
    [
      "ಸ",
      "ವಾರ"
    ],
    [
      "್ಯ",
      "ೂ</w>"
    ],
    [
      "ುವುದ",
      "ರ</w>"
    ],
    [
      "ಪ್ರ",
      "ಸಾರ"
    ],
    [
      "ಕೆ",
      "ಟ್ಟ"
    ],
    [
      "ಪ್ಯಾರ",
      "ಿ"
    ],
    [
      "ಖ್",
      "ಖ"
    ],
    [
      "ತಿ",
      "ಗಳ</w>"
    ],
    [
      "ಿಯ",
      "ವರ</w>"
    ],
    [
      "ಶಾ",
      "ಹಿ</w>"
    ],
    [
      "ಶಿಕ್ಷ",
      "ಣ</w>"
    ],
    [
      "ಡ",
      "ಳ"
    ],
    [
      "ದೇವ",
      "್</w>"
    ],
    [
      "ಡಿಯ",
      "ೋ"
    ],
    [
      "ತ್ವ",
      "ದಲ್ಲಿ</w>"
    ],
    [
      "ೆ",
      "ಗಳಿಂದ</w>"
    ],
    [
      "ನೀ",
      "ಯ</w>"
    ],
    [
      "ರೂಪ",
      "ದಲ್ಲಿ</w>"
    ],
    [
      "ು",
      "ಗಳಿಂದ</w>"
    ],
    [
      "ಓ",
      "ಡ"
    ],
    [
      "ೆಯಾದ",
      "ರೂ,</w>"
    ],
    [
      "ಹಿ",
      "ಮ"
    ],
    [
      "ಪ್ರ",
      "ಪಂಚ"
    ],
    [
      "ಸಂಖ್ಯ",
      "ೆ</w>"
    ],
    [
      "ಸ್",
      "ತ</w>"
    ],
    [
      "೨",
      "."
    ],
    [
      "ಬರ್",
      "ಗ"
    ],
    [
      "ನಿಯಮ",
      "ಗಳನ್ನು</w>"
    ],
    [
      "ಿಸುತ್ತ",
      "ಿದೆ.</w>"
    ],
    [
      "ನ್",
      "ಸ್‌</w>"
    ],
    [
      "ಜನಸಂಖ್ಯ",
      "ೆಯು</w>"
    ],
    [
      "ನಿಯ",
      "ು</w>"
    ],
    [
      "ುಕೊಳ್ಳ",
      "ಲು</w>"
    ],
    [
      "ಿಸ",
      "ಿತು,</w>"
    ],
    [
      "ಕರ",
      "ಾಗಿ</w>"
    ],
    [
      "ಿಸ",
      "ಲು,</w>"
    ],
    [
      "ಸೌ",
      "ಲಭ್ಯ"
    ],
    [
      "ಿಲ್ಲ",
      "ದ</w>"
    ],
    [
      "ಪಟ್ಟ",
      "ು</w>"
    ],
    [
      "ಸಮಸ್ಯ",
      "ೆಗಳನ್ನು</w>"
    ],
    [
      "ಸುಲಭ",
      "ವಾಗಿ</w>"
    ],
    [
      "ಕ",
      "ನು</w>"
    ],
    [
      "ಿ",
      "ಂಗ್</w>"
    ],
    [
      "ಿಯ",
      "ೂ,</w>"
    ],
    [
      "೨",
      "-"
    ],
    [
      "ುಗು",
      "ಣ"
    ],
    [
      "ಗಳ",
      "ಿಸಿತು.</w>"
    ],
    [
      "ವೇಳ",
      "ೆ</w>"
    ],
    [
      "ಕೆಳ",
      "ಗೆ</w>"
    ],
    [
      "ಉದ್ದ",
      "ಕ್ಕೂ</w>"
    ],
    [
      "ಆ",
      "ಂಧ್ರ"
    ],
    [
      "ನಿರ್ಮಾ",
      "ಣ</w>"
    ],
    [
      "ಅ",
      "ಸಹ"
    ],
    [
      ".",
      "ಯ</w>"
    ],
    [
      "ಟ",
      "ೌ"
    ],
    [
      "ವಾಗ",
      "ಿದ್ದು</w>"
    ],
    [
      "ಮ",
      "ರ್</w>"
    ],
    [
      "ಆಯ್ಕ",
      "ೆಯಾದ"
    ],
    [
      "ತೀ",
      "ರ್ಪ"
    ],
    [
      "ಮರಾಠ",
      "</w>"
    ],
    [
      "ಧ",
      "್ಯಾ"
    ],
    [
      "ಜನ್",
      "ಮ"
    ],
    [
      "ಕಾ",
      "ಡ"
    ],
    [
      "ಲ",
      "ಾರ"
    ],
    [
      "ಆಡ",
      "ಿದರು.</w>"
    ],
    [
      "ಮೊದ",
      "ಲೇ</w>"
    ],
    [
      "ಜನ",
      "ರಲ್ಲಿ</w>"
    ],
    [
      "ಒಳ",
      "ಗೆ</w>"
    ],
    [
      "ಶ",
      "ೃ"
    ],
    [
      "ಕಾರಣ",
      "ದಿಂದಾಗಿ</w>"
    ],
    [
      "ಒಟ್ಟ",
      "ಿಗೆ</w>"
    ],
    [
      "ವಾಗ",
      "ಿದ್ದರು.</w>"
    ],
    [
      "ಹೀ",
      "ಗೆ</w>"
    ],
    [
      "ಅಂಕ",
      "ಗಳನ್ನು</w>"
    ],
    [
      "ದೊಡ್ಡ",
      "ದ"
    ],
    [
      "ಡ",
      "್ಯಾ"
    ],
    [
      "ಕಾರ್",
      "ಡ್</w>"
    ],
    [
      "ಬ್ಯಾಂಡ",
      "ಿ</w>"
    ],
    [
      "ಶಾ",
      "ಪಿಂಗ್</w>"
    ],
    [
      "ಮೂಲ",
      "ಭೂ"
    ],
    [
      "ಸೇ",
      "ನಾ"
    ],
    [
      "ಭಾಗ",
      "ಗಳನ್ನು</w>"
    ],
    [
      "ಹಮ್ಮ",
      "ದ್</w>"
    ],
    [
      "ಶ",
      "ೇ"
    ],
    [
      "ಕು",
      "ಶ"
    ],
    [
      "ಬಳ",
      "ಲ"
    ],
    [
      "ಉಪ",
      "ಖಂಡ"
    ],
    [
      "ಖ",
      "ೋ"
    ],
    [
      "ಸ",
      "ಲ</w>"
    ],
    [
      "ದ",
      "ವರೆಗೂ</w>"
    ],
    [
      "ರಾಜವಂಶ",
      "ದ</w>"
    ],
    [
      "ರ",
      "ನ್</w>"
    ],
    [
      "ತ",
      "ಮ"
    ],
    [
      "ರಾಜ",
      "್</w>"
    ],
    [
      "ಉತ್ತ",
      "ಮ"
    ],
    [
      "ಹೃ",
      "ದಯ"
    ],
    [
      "ಸಿ",
      "ಸ್</w>"
    ],
    [
      "ತ",
      "ಳ"
    ],
    [
      "ಗ್",
      "ರ್ಯಾ"
    ],
    [
      "ು",
      ")</w>"
    ],
    [
      "ಸ್ಪ",
      "ೋರ್"
    ],
    [
      "ಪ್ರೋ",
      "ಟೀ"
    ],
    [
      "ನೆ",
      "ಲ್ಲ</w>"
    ],
    [
      "ಚ",
      "ಿತ</w>"
    ],
    [
      "ಕಿ",
      "ಂಗ್"
    ],
    [
      "ನೆ",
      "ಹ"
    ],
    [
      "೯",
      "ರಲ್ಲಿ,</w>"
    ],
    [
      "ಗು",
      "ಪ್ತ"
    ],
    [
      "ಹಾ",
      "ನಿ"
    ],
    [
      "ಪ",
      "ನ್"
    ],
    [
      "ಸ",
      "ುವ"
    ],
    [
      "ಲಿ",
      "ಂಗ್</w>"
    ],
    [
      "ಬಂಗ",
      "ಾಳ</w>"
    ],
    [
      "ಸೇ",
      "ಂಟ್</w>"
    ],
    [
      "ಿರ",
      "ುವುದನ್ನು</w>"
    ],
    [
      "ಕಾಲೇಜ",
      "ು</w>"
    ],
    [
      "ಹಣ",
      "ದ</w>"
    ],
    [
      "ಡ",
      "್ರಾ"
    ],
    [
      "ಪಡೆಯ",
      "ಿತು.</w>"
    ],
    [
      "ಮ್ಮ",
      "ು</w>"
    ],
    [
      "ಾಗಿದ್ದ",
      "ು</w>"
    ],
    [
      "ಕ",
      "ವು</w>"
    ],
    [
      "ತ",
      "ಿಗೆ</w>"
    ],
    [
      "ವೆ",
      "ಲ್"
    ],
    [
      "ಹೆಸರುವಾಸಿಯ",
      "ಾಗಿದೆ.</w>"
    ],
    [
      "ಮೊದ",
      "ಲನ"
    ],
    [
      "ಪಟ್ಟ",
      "ಿಯನ್ನು</w>"
    ],
    [
      "ನಡೆಸ",
      "ಲಾಗುತ್ತದೆ.</w>"
    ],
    [
      "ರಿ",
      "ಪಬ್"
    ],
    [
      "ಅನ್",
      "ವಯ"
    ],
    [
      "ಮೀ",
      "ಟರ್‌"
    ],
    [
      "ಹಾ",
      "ದು"
    ],
    [
      "ರಿಯ",
      "ನ್</w>"
    ],
    [
      "ಮಾಡ",
      "ಿದೆ.</w>"
    ],
    [
      "ನಗರ",
      "ವು</w>"
    ],
    [
      "ಸೆ",
      "ಕೆ"
    ],
    [
      "ಸಂ",
      "ಸತ್ತ"
    ],
    [
      "ಬಾ",
      "ದ್</w>"
    ],
    [
      "ವಿ",
      "ಜ್ಞಾನ"
    ],
    [
      "ದುರ್",
      "ಬಲ"
    ],
    [
      "ಪ",
      "ರಿಕ"
    ],
    [
      "ರ",
      "ವರೆಗೆ,</w>"
    ],
    [
      "ಬೋ",
      "ಧ"
    ],
    [
      "ಸಂಬಂಧ",
      "ವನ್ನು</w>"
    ],
    [
      "ಸೆ",
      "ರೆ"
    ],
    [
      "ಮಲ",
      "ಯಾ"
    ],
    [
      "ರ",
      "ೆಗೆ</w>"
    ],
    [
      "ವ್ಯವಸ್ಥ",
      "ೆಯ</w>"
    ],
    [
      "ಶಾ",
      "ಲಾ</w>"
    ],
    [
      "ಮತ್ತ",
      "ಷ್ಟು</w>"
    ],
    [
      "ಗುಂಪ",
      "ು</w>"
    ],
    [
      "ಖ",
      "ು"
    ],
    [
      "ಮಾರ್",
      "ಚ"
    ],
    [
      "ಗೋ",
      "ಲು"
    ],
    [
      "ವಾ",
      "ಯು"
    ],
    [
      "ದ",
      "್‌"
    ],
    [
      "ಪಂದ್ಯ",
      "ಗಳಲ್ಲಿ</w>"
    ],
    [
      "ವಿಸ್ತ",
      "ರಿಸ"
    ],
    [
      "ಿರ",
      "ುವುದು</w>"
    ],
    [
      "ಸಂಖ್ಯ",
      "ೆಯನ್ನು</w>"
    ],
    [
      "ಚ",
      "ದುರ"
    ],
    [
      "ುಗ್",
      "ಗ"
    ],
    [
      "ಬಾ",
      "ಲ್"
    ],
    [
      "ನ",
      ",</w>"
    ],
    [
      "ನಿಕ",
      "ೋ"
    ],
    [
      "ಶೈ",
      "ಲಿ"
    ],
    [
      "ಬ",
      "ಜೆ"
    ],
    [
      "ಆಮ್",
      "ಲ"
    ],
    [
      "ಬಾ",
      "ಲ್‌</w>"
    ],
    [
      "ಜಾ",
      "ಸ್ತಿ</w>"
    ],
    [
      "ಅನು",
      "ಮೋದ"
    ],
    [
      "ಮಾಡ",
      "ಿದ್ದಾರೆ.</w>"
    ],
    [
      "ಪುನ",
      "ರಾ"
    ],
    [
      "ಐರೋಪ",
      "್ಯ</w>"
    ],
    [
      "ದ",
      "ಡ"
    ],
    [
      "ಮಹ",
      "ಾಯ"
    ],
    [
      "ಟ್‌",
      "ನಲ್ಲಿ</w>"
    ],
    [
      "ಅಂಗ",
      "ಡ"
    ],
    [
      "ೊಳ",
      "ಗಿನ</w>"
    ],
    [
      "೬",
      "೦</w>"
    ],
    [
      "ಶ",
      "ುರ"
    ],
    [
      "ಿಸುತ್ತ",
      "ಾರೆ,</w>"
    ],
    [
      "ಿಸಲಾಗ",
      "ುತ್ತದೆ,</w>"
    ],
    [
      "ಂ",
      "ಕ್</w>"
    ],
    [
      "ಪ್ರದೇಶ",
      "ಗಳು</w>"
    ],
    [
      "ಿಸುತ್ತ",
      "ವೆ</w>"
    ],
    [
      "೨೦",
      "ನೇ</w>"
    ],
    [
      "ಹೋ",
      "ಟೆ"
    ],
    [
      "ಳ",
      "ೆ</w>"
    ],
    [
      "ಎ",
      "ಸ್‌"
    ],
    [
      "ಚಾಂಪಿಯ",
      "ನ್"
    ],
    [
      "ಏ",
      "ನು</w>"
    ],
    [
      "ದೇ",
      ",</w>"
    ],
    [
      "ಉ",
      "ಚ್ಚ"
    ],
    [
      "ಮಾಡಿದ",
      "ನು.</w>"
    ],
    [
      "೭",
      "ರಿಂದ</w>"
    ],
    [
      "ರೀ",
      "ತಿಯ"
    ],
    [
      "ಇ",
      "ನ್‌"
    ],
    [
      "ೆಗ",
      "ೊಳ"
    ],
    [
      "ುಗ",
      "ೊಂಡ"
    ],
    [
      "ಸಮ",
      "ೃ"
    ],
    [
      "ಲ್ಕ",
      "ತ್ತ"
    ],
    [
      "ಧ್ವ",
      "ನಿಮ"
    ],
    [
      "ಮಾಡಲಾಗ",
      "ಿತ್ತು.</w>"
    ],
    [
      "ಕಿರ",
      "ಿಯ</w>"
    ],
    [
      "೯",
      "ನೇ</w>"
    ],
    [
      "ರಾಜ",
      "ೀ"
    ],
    [
      "ತೆಗೆದ",
      "ುಕೊಂಡ"
    ],
    [
      "ಿಸುತ್ತ",
      "ಾಳೆ.</w>"
    ],
    [
      "ದಲ್ಲ",
      "ೂ</w>"
    ],
    [
      "ಲ",
      "ೆಯನ್ನು</w>"
    ],
    [
      "ೆಯ",
      "ೇ,</w>"
    ],
    [
      "ವೀ",
      "ಕ್ಷ"
    ],
    [
      "ಮೆ",
      "ರ"
    ],
    [
      "ಅ",
      "ಗ್"
    ],
    [
      "ಕೇ",
      "ರ"
    ],
    [
      "ಆಟಗಾರ",
      "ರ</w>"
    ],
    [
      "ಸ್ಟ",
      "್"
    ],
    [
      "ಗಳ",
      "ೆಂದು</w>"
    ],
    [
      "ಆದ",
      "್ಯ"
    ],
    [
      "ಪುರಾ",
      "ತ"
    ],
    [
      "ಬ್ರ",
      "ೂ"
    ],
    [
      "ಸ",
      "್ರಾ"
    ],
    [
      "ಕ್ಕಿ",
      "ಂತಲೂ</w>"
    ],
    [
      "ನ",
      "ಮೂ"
    ],
    [
      "ಕ",
      "ನ್"
    ],
    [
      "ಿಸ",
      "ಬಹುದ"
    ],
    [
      "ಿಸಿಕೊಳ್ಳ",
      "ುವ</w>"
    ],
    [
      "ಯುದ್ಧ",
      "ದಲ್ಲಿ</w>"
    ],
    [
      "ನಾರ",
      "ಾಯ"
    ],
    [
      "ಬ್ರಾ",
      "ಹ್ಮ"
    ],
    [
      "ಹೀ",
      "ರಾ"
    ],
    [
      "ಬಹ",
      "ಿರಂಗ"
    ],
    [
      "ೆಯ",
      "ಲ್ಲಿನ</w>"
    ],
    [
      "೪",
      "ರಲ್ಲಿ,</w>"
    ],
    [
      "ಂಗ",
      "ೇ"
    ],
    [
      "ಯು",
      "."
    ],
    [
      "೧",
      "-"
    ],
    [
      "ಹೋಗ",
      "ಲು</w>"
    ],
    [
      "ಪತ್ತೆ",
      "ಹಚ್ಚ"
    ],
    [
      "ವ",
      "ೊಂದು</w>"
    ],
    [
      "ಯ",
      "ಿಂದ</w>"
    ],
    [
      "ಮನ",
      "ರಂಜನ"
    ],
    [
      "ಅಪ",
      "ಘಾತ"
    ],
    [
      "ಟ",
      "ೂ"
    ],
    [
      "್",
      "ಲೂ</w>"
    ],
    [
      "ಅದ",
      "್ರ"
    ],
    [
      "ಸ್ಥಾನ",
      "ದಲ್ಲಿ</w>"
    ],
    [
      "ಭ",
      "ರವ"
    ],
    [
      "ತಮ್ಮ",
      "ನ್ನು</w>"
    ],
    [
      "ಔರಂಗ",
      "ಜೇ"
    ],
    [
      "ರಾಜ",
      "ಕುಮಾರ"
    ],
    [
      "ಕೃ",
      "ತ</w>"
    ],
    [
      "ಭ",
      "ಗ"
    ],
    [
      "ಸೂ",
      "ರ್ಯ"
    ],
    [
      "ಕೇ",
      "ಶ"
    ],
    [
      "ಉ",
      "ಸಿ"
    ],
    [
      "ಹಿಂ",
      "ಸಾ"
    ],
    [
      "ಸಾ",
      "ವಿರ"
    ],
    [
      "ತೆ",
      "ರಿಗ"
    ],
    [
      "ಹೃ",
      "ದ"
    ],
    [
      "ನ್",
      "ಸ್"
    ],
    [
      "ವಿಶ್ವವಿದ್ಯಾಲಯ",
      "ದಲ್ಲಿ</w>"
    ],
    [
      "ಪಂಜಾ",
      "ಬ್</w>"
    ],
    [
      "ಪಾ",
      "ಲ್</w>"
    ],
    [
      "ಿಯ",
      "ಾಯಿತು.</w>"
    ],
    [
      "ಂಬ",
      "</w>"
    ],
    [
      "ಕ",
      "ಪೂ"
    ],
    [
      "ಬರೆದ",
      "ಿದ್ದಾರೆ.</w>"
    ],
    [
      "೫",
      "೦೦</w>"
    ],
    [
      "ಅ",
      "ಂಚ"
    ],
    [
      "ಉಪ",
      "ಕರಣ"
    ],
    [
      "೨೦೦",
      "೯ರ</w>"
    ],
    [
      "ಯ",
      "ಾನ"
    ],
    [
      "ಹ",
      "ಸಿರ"
    ],
    [
      "ವಾರ",
      "ದ</w>"
    ],
    [
      "ಕೊ",
      "ಡ್"
    ],
    [
      "ುದ",
      "ಾರ"
    ],
    [
      "ರಾ",
      "ವ್</w>"
    ],
    [
      "ವ",
      "ಕೀ"
    ],
    [
      "ಈ",
      "ಸ್ಟ್</w>"
    ],
    [
      "ಪುನ",
      "ಃ</w>"
    ],
    [
      "ಕ್ರಮ",
      "ವಾಗಿ</w>"
    ],
    [
      "ಕ್ರ",
      "ಮ</w>"
    ],
    [
      "ಮುಂತ",
      "ಾದ</w>"
    ],
    [
      "ತಾ",
      "ತ್"
    ],
    [
      "ಸೋ",
      "ಮ"
    ],
    [
      "ಶಾಸ್ತ್ರ",
      "ಜ್ಞ"
    ],
    [
      "ಪಡೆಯ",
      "ುವ</w>"
    ],
    [
      "ಸಮೃ",
      "ದ್ಧ"
    ],
    [
      "ಧ್ವನಿಮ",
      "ುದ್ರ"
    ],
    [
      "ೊಂದ",
      "ರಲ್ಲಿ</w>"
    ],
    [
      "ಚೀ",
      "ಲ"
    ],
    [
      "ಸ್ವ",
      "ತಂತ್ರ</w>"
    ],
    [
      "ಚಾಂಪಿಯ",
      "ನ್</w>"
    ],
    [
      "ಮ",
      "ಯ</w>"
    ],
    [
      "ುವ",
      "ವರೆಗೆ</w>"
    ],
    [
      "ವೊಂದ",
      "ರಲ್ಲಿ</w>"
    ],
    [
      "ಲೋ",
      "ಚ"
    ],
    [
      "ಭ",
      "ಕ್ತ"
    ],
    [
      "ಕಂಪ",
      "ನಿ"
    ],
    [
      "ಶ",
      "ುದ್ಧ"
    ],
    [
      "ಕೇರ",
      "ಳ</w>"
    ],
    [
      ".",
      "ಓ"
    ],
    [
      "ದಾ",
      "ಟ"
    ],
    [
      "೧",
      "೩</w>"
    ],
    [
      "೪",
      "ರಿಂದ</w>"
    ],
    [
      "ಸರ",
      "ಿಯಾದ</w>"
    ],
    [
      "ಒಕ್ಕೂ",
      "ಟದ</w>"
    ],
    [
      "ಥ",
      "್ರ"
    ],
    [
      "ಷ",
      "ನ್</w>"
    ],
    [
      "ಕಾಣ",
      "ಬಹುದು.</w>"
    ],
    [
      "ಶು",
      "ಕ್ರ"
    ],
    [
      "ಿಸುತ್ತ",
      "ಿದ್ದರು.</w>"
    ],
    [
      "ಧೀ",
      "ನ"
    ],
    [
      "ಕ",
      "ೆ.</w>"
    ],
    [
      "ನೇ",
      "ರ</w>"
    ],
    [
      "ಪ್ರಾ",
      "ಬ"
    ],
    [
      "ನಿರ್",
      "ವಾಹ"
    ],
    [
      "ವಿ",
      "ವಾ"
    ],
    [
      "ವಾಯ",
      "ುವ"
    ],
    [
      "ಗೆದ್ದ",
      "ುಕೊಂಡಿತು.</w>"
    ],
    [
      "ಪಾ",
      "ದಾ"
    ],
    [
      "್ಯ",
      "ಾ</w>"
    ],
    [
      "ಬಂದ",
      "ೂ"
    ],
    [
      "ಚ್ಛ",
      "ೇದ"
    ],
    [
      "ಸ್ವ",
      "ಚ್ಛ"
    ],
    [
      "ಇನ್ನ",
      "ಷ್ಟು</w>"
    ],
    [
      "ಘ",
      "ಟ್ಟ"
    ],
    [
      "ಸ",
      "ವಾ"
    ],
    [
      "ಕ್",
      "ವಿ"
    ],
    [
      "ಪ್ರಯಾಣ",
      "ಿಕ"
    ],
    [
      "ನು",
      "ಡ"
    ],
    [
      "ಸಂ",
      "ರಕ್ಷ"
    ],
    [
      "೨",
      "ರಿಂದ</w>"
    ],
    [
      "ಪಾ",
      "ಪ"
    ],
    [
      "ಯ",
      "ರ್</w>"
    ],
    [
      "ಇವ",
      "ುಗಳನ್ನು</w>"
    ],
    [
      "ಕೈ",
      "</w>"
    ],
    [
      "ಬಡ್ಡ",
      "ಿ</w>"
    ],
    [
      "ದ",
      "ಂಪ"
    ],
    [
      "ದಾಖಲ",
      "ೆಯನ್ನು</w>"
    ],
    [
      "ಅಭ",
      "್ಯ"
    ],
    [
      "ಕಾಯ",
      "್ದ"
    ],
    [
      "ಕುಸ",
      "ಿತ"
    ],
    [
      "ಅಂಶ",
      "ಗಳನ್ನು</w>"
    ],
    [
      "ಶಾಸ್ತ್ರ",
      "ದ</w>"
    ],
    [
      "ಪುರ",
      "ದ</w>"
    ],
    [
      "೨",
      "೪</w>"
    ],
    [
      "ಪೂರೈ",
      "ಸ"
    ],
    [
      "೬",
      "ರಿಂದ</w>"
    ],
    [
      "ವಿ",
      "ಲೀ"
    ],
    [
      "ಆಸ",
      "ಕ್ತ"
    ],
    [
      "ಮೊದಲ",
      "ನೇ</w>"
    ],
    [
      "ದಿ",
      "ಂದ,</w>"
    ],
    [
      "ುವ",
      "ಂತಹ</w>"
    ],
    [
      "ಗಳಿ",
      "ಂದ"
    ],
    [
      "ಸಮ",
      "ರ್ಥ"
    ],
    [
      "ಶೀರ್",
      "ಷ"
    ],
    [
      "ಿಯಾಗ",
      "ಿದ್ದ</w>"
    ],
    [
      "ಋತುವ",
      "ಿನಲ್ಲಿ</w>"
    ],
    [
      "ಭಾಗ",
      "ದಲ್ಲಿರುವ</w>"
    ],
    [
      "ಪಟ್ಟ",
      "ಿಯಲ್ಲಿ</w>"
    ],
    [
      "೬",
      "ನೇ</w>"
    ],
    [
      "ದೀರ್ಘ",
      "ಕಾಲದ</w>"
    ],
    [
      "ಂಡ",
      "ಿ</w>"
    ],
    [
      "ಮೃ",
      "ತ"
    ],
    [
      "ಸ",
      "ದ</w>"
    ],
    [
      "ಮಹಾಯ",
      "ುದ್ಧ"
    ],
    [
      "ಹೊಂದ",
      "ಿದ್ದಾರೆ.</w>"
    ],
    [
      "ನ",
      "ರ್ತ"
    ],
    [
      "ಆ",
      "ತಿಥ"
    ],
    [
      "ನೆನ",
      "ಪ"
    ],
    [
      "ಮಾನ",
      "ಸಿಕ</w>"
    ],
    [
      "ನೈ",
      "ಋ"
    ],
    [
      "ನಿರೋಧ",
      "ಕ</w>"
    ],
    [
      "ರೋಗ",
      "</w>"
    ],
    [
      "ಕ್ಕ",
      "ೇ</w>"
    ],
    [
      "ಮೆದ",
      "ುಳಿನ</w>"
    ],
    [
      "ಇ",
      "ಲಿ"
    ],
    [
      "ಪ್ರ",
      "ಭು"
    ],
    [
      "ಕ್ರ",
      "ಿಯ</w>"
    ],
    [
      "ನಾಗಿದ್ದ",
      "ನು.</w>"
    ],
    [
      "ಸೇ",
      "ತುವ"
    ],
    [
      "ಸಾರ್ವ",
      "ತ್ರ"
    ],
    [
      "ಬೆ",
      "ನ್ನ"
    ],
    [
      "ಕಾಣಿಸಿಕೊಂಡ",
      "ರು.</w>"
    ],
    [
      "ಸ",
      "ತ್ಯ"
    ],
    [
      "ವಯಸ್",
      "ಸಿ"
    ],
    [
      "ಟ್‌",
      "ಗಳನ್ನು</w>"
    ],
    [
      "ಾರ",
      "ೋಗ"
    ],
    [
      "ಪ್ರೋ",
      "ತ್"
    ],
    [
      "ದ",
      "ವರ"
    ],
    [
      "ಅಲಂ",
      "ಕರ"
    ],
    [
      "ಮರ",
      "ದ</w>"
    ],
    [
      "ಪಾದಾ",
      "ರ್ಪ"
    ],
    [
      "ರಾ",
      "ಣಿ</w>"
    ],
    [
      "ಏ",
      "ನೂ</w>"
    ],
    [
      "ಋತ",
      "ುವಿನ</w>"
    ],
    [
      "ಾಯ",
      "ಕ</w>"
    ],
    [
      "ತ್",
      ",</w>"
    ],
    [
      "ನಾಯ",
      "್"
    ],
    [
      "ರಿ",
      "ಬ್ಬ"
    ],
    [
      "ಮೊ",
      "ಟ್ಟ"
    ],
    [
      "ುವ",
      "ಿಕೆಯನ್ನು</w>"
    ],
    [
      "ಕ",
      "ಛ"
    ],
    [
      "ಮಿ",
      "ಕ್</w>"
    ],
    [
      "ಮಾದ",
      "ಕ"
    ],
    [
      "ಗಿ",
      "ಡ"
    ],
    [
      "ಟಿ",
      "ವ್</w>"
    ],
    [
      "ಅಪಾಯ",
      "ವನ್ನು</w>"
    ],
    [
      "ಮೊ",
      "ಬೈ"
    ],
    [
      "ಖ",
      "ುಷ"
    ],
    [
      "ಇ",
      "ಲ್ಲ</w>"
    ],
    [
      "ಒಳ್ಳ",
      "ೆ</w>"
    ],
    [
      "ಅಧಿಕಾರ",
      "ವನ್ನು</w>"
    ],
    [
      "ಶಾ",
      "ಶ್ವ"
    ],
    [
      "ಜಾ",
      "ಹೀರಾ"
    ],
    [
      "ಕೆಲ",
      "ವೇ</w>"
    ],
    [
      "ಕೋಟ",
      "ೆಯ</w>"
    ],
    [
      "ಲಾ",
      "ಲ್</w>"
    ],
    [
      "ರ್",
      "ಗ"
    ],
    [
      "ಅನ",
      "ಾರೋಗ"
    ],
    [
      "ಕ",
      "ಂಚ"
    ],
    [
      "ಬಾ",
      "ಲಿವು"
    ],
    [
      "ುದ್ದ",
      "ಕ್ಕೂ</w>"
    ],
    [
      "ರಿ",
      "ನಿಂದ</w>"
    ],
    [
      "ುವುದ",
      "ಕ್ಕೆ</w>"
    ],
    [
      "ಾಪ",
      "ೆ"
    ],
    [
      "ಸ",
      "ತ"
    ],
    [
      "ಹೊರತುಪಡ",
      "ಿಸಿ</w>"
    ],
    [
      "ಪರಿ",
      "ಹಾರ"
    ],
    [
      "ಮಾ",
      "ಂಸ"
    ],
    [
      "ಕ್",
      "ಯು"
    ],
    [
      "ವಾಗಿರ",
      "ುತ್ತವೆ.</w>"
    ],
    [
      "ಇ",
      "ಂ"
    ],
    [
      "ಮೇ",
      "ಘಾ"
    ],
    [
      "ಬ್ರ",
      "ಹ್ಮ"
    ],
    [
      "ರೋಗಲಕ್ಷಣ",
      "ಗಳು</w>"
    ],
    [
      "ಕ್ಷ",
      "ಯ"
    ],
    [
      "ಎಷ್ಟ",
      "್‌</w>"
    ],
    [
      "ಕ",
      "ನ"
    ],
    [
      "ಒತ್ತ",
      "ಾಯ"
    ],
    [
      "ಶ",
      "ಕ್ತಿ"
    ],
    [
      "ಆರೋಗ",
      "್ಯ"
    ],
    [
      "ೈ",
      "ನ್</w>"
    ],
    [
      "ಸಮ",
      "ೀ"
    ],
    [
      "ಮಿಲಿ",
      "ಟರಿ</w>"
    ],
    [
      "ಪ್ರ",
      "ಕಾಶ"
    ],
    [
      "ಸ",
      "ಮಾನ"
    ],
    [
      "ಪ",
      "ಥ"
    ],
    [
      "ಸ್ಟ",
      "ು"
    ],
    [
      "ಗೆದ",
      "್ದ</w>"
    ],
    [
      "ಹ",
      "ದಿನ"
    ],
    [
      "ಕು",
      "ಡಿಯ"
    ],
    [
      "ಪ",
      "ಿ</w>"
    ],
    [
      "ಆ",
      "ಹ್ವಾ"
    ],
    [
      "ಸ",
      "ಕ್ರಿಯ"
    ],
    [
      "ಾನ",
      "ೆ"
    ],
    [
      "ಪಡೆದ",
      "ುಕೊಂಡ"
    ],
    [
      "ಡೇ",
      "ವಿ"
    ],
    [
      "ಮಾನ",
      "ವು</w>"
    ],
    [
      "ಮರಣ",
      "ದ</w>"
    ],
    [
      "ಬಿಟ್ಟ",
      "ು</w>"
    ],
    [
      "ಬೆ",
      "ಲೆ</w>"
    ],
    [
      "ಉಸಿ",
      "ರಾ"
    ],
    [
      "ಹ",
      "ರಿಯಾ"
    ],
    [
      "೧೯೭",
      "೦ರ</w>"
    ],
    [
      "ಜ",
      "ಹಾ"
    ],
    [
      "ಮು",
      "ಟ್ಟ"
    ],
    [
      "ರ್",
      "-"
    ],
    [
      "ಂ",
      "ನಲ್ಲಿ</w>"
    ],
    [
      "ಿಕ",
      "ೆ,</w>"
    ],
    [
      "ಒ",
      "ಂಟ"
    ],
    [
      "ಮು",
      "ಳ"
    ],
    [
      "ಚಾ",
      "ಲು"
    ],
    [
      "ಒಂದ",
      "ನೇ</w>"
    ],
    [
      "ಒ",
      "ಡ್ಡ"
    ],
    [
      "ನೋ",
      "ಂದ"
    ],
    [
      "ಪ್ರ",
      "ಸ್ಥ"
    ],
    [
      "ಂ",
      "ಕ</w>"
    ],
    [
      "ಜಿ",
      "ಪ್ಟ"
    ],
    [
      "೮",
      "ರಿಂದ</w>"
    ],
    [
      "ವಿ",
      "ಲಿಯ"
    ],
    [
      "ವಿ",
      "ನಿಮ"
    ],
    [
      "ಆಟಗಾರ",
      "ನು</w>"
    ],
    [
      "ಏ",
      "ಳ"
    ],
    [
      "ಕ್ಯಾಲಿಫೋರ್",
      "ನಿಯಾದ</w>"
    ],
    [
      ".ಬಿ",
      ".</w>"
    ],
    [
      "ಬರ್",
      "ಗ್</w>"
    ],
    [
      "೩",
      ","
    ],
    [
      "ಸಾಂ",
      "ಕ್ರಾ"
    ],
    [
      "ಕ್ಲ",
      "ಹೋ"
    ],
    [
      "ಪುರಸಭ",
      "ೆಯಲ್ಲಿರುವ</w>"
    ],
    [
      "ರಜ",
      "ಪೂ"
    ],
    [
      "ಆ",
      "ಮೇಲೆ</w>"
    ],
    [
      "ಭೂ",
      "ಷ"
    ],
    [
      "ದಲ್ಲ",
      "ಿವೆ.</w>"
    ],
    [
      "ಸಾಮರ್ಥ್ಯ",
      "ವನ್ನು</w>"
    ],
    [
      "ಸೋ",
      "ತ"
    ],
    [
      "ದಿಂದ",
      "ಾಗಿ,</w>"
    ],
    [
      "ಅಂದಾಜ",
      "ು</w>"
    ],
    [
      "ಿ",
      "ಗಳು,</w>"
    ],
    [
      "ಕ್ರೀಡಾಕೂಟ",
      "ದಲ್ಲಿ</w>"
    ],
    [
      "ಸಂಗ",
      "ಾ"
    ],
    [
      "ಬೃಹ",
      "ತ್</w>"
    ],
    [
      "ವೇಗ",
      "ವಾಗಿ</w>"
    ],
    [
      "ನಿ",
      "ಷ್"
    ],
    [
      "ಕಠ",
      "ಿ"
    ],
    [
      "ಡ",
      "ರ್"
    ],
    [
      "ಮು",
      "ಂಗ"
    ],
    [
      "ಸ್",
      "ಸು</w>"
    ],
    [
      "ಗೆದ್ದ",
      "ುಕೊಂಡ"
    ],
    [
      "ರಿ",
      "ಗಳು</w>"
    ],
    [
      "ಚೆ",
      "ಸ್</w>"
    ],
    [
      "ಬ್ರಿ",
      "ಟ"
    ],
    [
      "ತರಬೇತುದ",
      "ಾರ"
    ],
    [
      "ಅ",
      "ಟ್"
    ],
    [
      "ಶೈ",
      "ಲಿಯ</w>"
    ],
    [
      "ಪ್ರಮಾಣ",
      "ವು</w>"
    ],
    [
      "ಪ್ರವಾ",
      "ಸಿಗ"
    ],
    [
      "ಸಂಸ್ಥ",
      "ೆಯ</w>"
    ],
    [
      "ಹೆದ್ದ",
      "ಾರ"
    ],
    [
      "ಕಂಡುಬರ",
      "ುತ್ತವೆ.</w>"
    ],
    [
      "ಥ",
      "ೆ"
    ],
    [
      "ರ್ವ",
      "</w>"
    ],
    [
      "ನಿರ್ದೇಶ",
      "ಕ</w>"
    ],
    [
      "ನೀಡ",
      "ಿ</w>"
    ],
    [
      "ಹಿಂತ",
      "ಿರುಗ"
    ],
    [
      "ಅ",
      "ಡ್"
    ],
    [
      "೦",
      "ರಿಂದ</w>"
    ],
    [
      "ರಾಗ",
      "ಿದ್ದ</w>"
    ],
    [
      "ಗಂಟ",
      "ೆಗಳ</w>"
    ],
    [
      "ಮ್",
      "ಮೆ"
    ],
    [
      "ಪರಿಣಾಮ",
      "ವಾಗಿ,</w>"
    ],
    [
      "ಆದ್ದ",
      "ರಿಂದ,</w>"
    ],
    [
      "ಗಳ",
      "ಿಸಿದ</w>"
    ],
    [
      "ಗಂಭ",
      "ೀ"
    ],
    [
      "ಅವ",
      "ರ"
    ],
    [
      "ವಾ",
      "ಲ್"
    ],
    [
      "ವ",
      "ತ್ತ"
    ],
    [
      "ಸ್ಥ",
      "ಗ"
    ],
    [
      "ಜನರ",
      "ಲ್</w>"
    ],
    [
      "ವಿದೇಶ",
      "ಿ</w>"
    ],
    [
      "ವ",
      "ೋ</w>"
    ],
    [
      "ತ",
      "ೆಯಿಂದ</w>"
    ],
    [
      "ಖರೀದ",
      "ಿಸಲು</w>"
    ],
    [
      "ಿಯ",
      "ಾಗಿದ್ದು,</w>"
    ],
    [
      "೧೮",
      "೯"
    ],
    [
      "ಅ",
      "ಕ್ಕ"
    ],
    [
      "ಕ",
      "ಲ್ಲಿನ</w>"
    ],
    [
      "ನಕ್ಷ",
      "ತ್ರ"
    ],
    [
      "ಅವ",
      "ಶೇಷ"
    ],
    [
      "೯",
      "ರಿಂದ</w>"
    ],
    [
      "ತೆಲ",
      "ುಗು</w>"
    ],
    [
      "ಕು",
      "ಂಭ"
    ],
    [
      "ನೆಲೆ",
      "ಗೊಂಡ"
    ],
    [
      "ಸಂಬಂಧ",
      "ಿತ</w>"
    ],
    [
      "ಜಾನ",
      "ಪದ</w>"
    ],
    [
      "ಸೆ",
      "ಲ್"
    ],
    [
      "ುವ",
      "ಂಶ"
    ],
    [
      "ಮೈಕ್ರೋಸಾಫ್ಟ",
      "್</w>"
    ],
    [
      "ತ",
      "ಗೊಳ"
    ],
    [
      "ಅಮೆರಿಕ",
      "ಾದ</w>"
    ],
    [
      "ಉಳಿತ",
      "ಾಯ</w>"
    ],
    [
      "ರಷ",
      "್ಯಾದ</w>"
    ],
    [
      "್ರ",
      "ೂ</w>"
    ],
    [
      "ದ್ರ",
      "ೂ</w>"
    ],
    [
      "ಹೇಳ",
      "್"
    ],
    [
      "ದೊ",
      "ರೆಯ"
    ],
    [
      "ಅಕ್",
      "ಬರ"
    ],
    [
      "ಿಸ",
      "ಲಾಯಿತು,</w>"
    ],
    [
      "ಕಾ",
      "ದ"
    ],
    [
      "ಜವಾಬ್ದ",
      "ಾರ"
    ],
    [
      "ಪೂ",
      "ರ"
    ],
    [
      "ಗ",
      "ೃಹ"
    ],
    [
      "ಜರ್ಮ",
      "ನ್</w>"
    ],
    [
      "ಬಾ",
      "ಧ"
    ],
    [
      "ುವ",
      "ಿ"
    ],
    [
      "ಸಮಾ",
      "ಧ"
    ],
    [
      "ಭಾರತ",
      "ಕ್ಕೆ</w>"
    ],
    [
      "ಫಿಲ್",
      "ಮ್‌"
    ],
    [
      "ಗಾರ",
      "</w>"
    ],
    [
      "ಯುದ್ಧ",
      "</w>"
    ],
    [
      "ಡು",
      "ಗೆ</w>"
    ],
    [
      "ಸಂ",
      "ಜ"
    ],
    [
      "ಿಕೊಳ್ಳ",
      "ುವ</w>"
    ],
    [
      "ಬೇ",
      "ಟ"
    ],
    [
      "ಪ್ರಾ",
      "ಣ"
    ],
    [
      "ಸ್ವಾತಂತ್",
      "ರ್ಯ</w>"
    ],
    [
      "ಜನಸಂಖ್ಯ",
      "ೆಯನ್ನು</w>"
    ],
    [
      "ಮಾಡ",
      "ಿದ್ದರು.</w>"
    ],
    [
      "ಿಸ",
      "ಬಹುದಾದ</w>"
    ],
    [
      "ವರ್ಷ",
      "ಕ್ಕೆ</w>"
    ],
    [
      "ಿಸುತ್ತ",
      "ಿರುವ</w>"
    ],
    [
      "ಮೇಲ್",
      "ಮೈ"
    ],
    [
      "ಸ್",
      "ಕೇ"
    ],
    [
      "ಕೂ",
      "ದ"
    ],
    [
      "ನ",
      "ನ್"
    ],
    [
      "ರೋಗ",
      "ವನ್ನು</w>"
    ],
    [
      "ತನ",
      "ಗೆ</w>"
    ],
    [
      "ವಿ",
      "ವಾದ"
    ],
    [
      "ಮೀ",
      "ರ"
    ],
    [
      "ದಂತ",
      "ಕಥ"
    ],
    [
      "ಆರಂಭ",
      "ದಲ್ಲಿ,</w>"
    ],
    [
      "ಕ",
      "ಂದ"
    ],
    [
      "ನಾಯ",
      "ಕ</w>"
    ],
    [
      "ಶ",
      "ನ್</w>"
    ],
    [
      "ನ್ಯೂ",
      "ಜಿ"
    ],
    [
      "ಹ",
      "ಗ"
    ],
    [
      "ಐದ",
      "ನೇ</w>"
    ],
    [
      "ು",
      "ಪ"
    ],
    [
      "ಅನ",
      "ುಗುಣ"
    ],
    [
      "ಂಡ",
      "ೆ"
    ],
    [
      "ಸರ",
      "ಳ"
    ],
    [
      "ಬೇಕ",
      "ಾಯಿತು.</w>"
    ],
    [
      "ಗಳ",
      "ನ್ನ"
    ],
    [
      "ುವುದ",
      "ು,</w>"
    ],
    [
      "ನಿರ್ದೇಶ",
      "ನದ</w>"
    ],
    [
      "ಸ್",
      "ತ್ರಾ"
    ],
    [
      "ಸಿ",
      "ಟಿ</w>"
    ],
    [
      "ಿಯ",
      "ೋ</w>"
    ],
    [
      "ಟಿ",
      "ಸ್</w>"
    ],
    [
      "ಬೇ",
      "ಡಿ.</w>"
    ],
    [
      "ಗು",
      "ಹ"
    ],
    [
      "ಅ",
      "ಲಿ</w>"
    ],
    [
      "ಹೊ",
      "ಮ್ಮ"
    ],
    [
      "ೇಶ",
      "್ವ"
    ],
    [
      "ಿಸಿದ",
      "ಳು.</w>"
    ],
    [
      "ಎ",
      "ಸ"
    ],
    [
      "ಗಮನಾರ್",
      "ಹ"
    ],
    [
      "ವಿತ",
      "ರಣ"
    ],
    [
      "ು",
      ";</w>"
    ],
    [
      "ನದಿ",
      "ಗಳು</w>"
    ],
    [
      "ಆಯ್ಕೆಯಾದ",
      "ರು.</w>"
    ],
    [
      "ಾಗ",
      "ೋ"
    ],
    [
      "ಣ",
      "ೆಯ"
    ],
    [
      "ಥ",
      "್"
    ],
    [
      "ಕ್ಷ",
      "ಮ"
    ],
    [
      "ುವುದ",
      "ರಿಂದ,</w>"
    ],
    [
      "ಇ",
      "ಪ್ಪ"
    ],
    [
      "ಕ್ಕ",
      "ೋ"
    ],
    [
      "ಪಾದಾರ್ಪ",
      "ಣೆ</w>"
    ],
    [
      "ಾಗ",
      "ಳು</w>"
    ],
    [
      "ಫಿಲ್ಮ್‌",
      "ಫೇ"
    ]
  ],
  "merge_stats": [
    {
      "step": 1,
      "pair": [
        "ು",
        "</w>"
      ],
      "frequency": 247937,
      "new_token": "ು</w>"
    },
    {
      "step": 2,
      "pair": [
        "ತ",
        "್"
      ],
      "frequency": 124911,
      "new_token": "ತ್"
    },
    {
      "step": 3,
      "pair": [
        "ನ",
        "್"
      ],
      "frequency": 123767,
      "new_token": "ನ್"
    },
    {
      "step": 4,
      "pair": [
        "ಲ",
        "್"
      ],
      "frequency": 108739,
      "new_token": "ಲ್"
    },
    {
      "step": 5,
      "pair": [
        ".",
        "</w>"
      ],
      "frequency": 102540,
      "new_token": ".</w>"
    },
    {
      "step": 6,
      "pair": [
        "ಿ",
        "</w>"
      ],
      "frequency": 101542,
      "new_token": "ಿ</w>"
    },
    {
      "step": 7,
      "pair": [
        "ತ್",
        "ತ"
      ],
      "frequency": 88573,
      "new_token": "ತ್ತ"
    },
    {
      "step": 8,
      "pair": [
        "ನ್",
        "ನ"
      ],
      "frequency": 84154,
      "new_token": "ನ್ನ"
    },
    {
      "step": 9,
      "pair": [
        "ಾ",
        "ಗ"
      ],
      "frequency": 83804,
      "new_token": "ಾಗ"
    },
    {
      "step": 10,
      "pair": [
        "ೆ",
        "</w>"
      ],
      "frequency": 80532,
      "new_token": "ೆ</w>"
    },
    {
      "step": 11,
      "pair": [
        "ರ",
        "್"
      ],
      "frequency": 80360,
      "new_token": "ರ್"
    },
    {
      "step": 12,
      "pair": [
        "ಲ್",
        "ಲ"
      ],
      "frequency": 79864,
      "new_token": "ಲ್ಲ"
    },
    {
      "step": 13,
      "pair": [
        "ಗ",
        "ಳ"
      ],
      "frequency": 79155,
      "new_token": "ಗಳ"
    },
    {
      "step": 14,
      "pair": [
        "ಂ",
        "ದ"
      ],
      "frequency": 76018,
      "new_token": "ಂದ"
    },
    {
      "step": 15,
      "pair": [
        "್",
        "ರ"
      ],
      "frequency": 74488,
      "new_token": "್ರ"
    },
    {
      "step": 16,
      "pair": [
        "ಿ",
        "ದ"
      ],
      "frequency": 71497,
      "new_token": "ಿದ"
    },
    {
      "step": 17,
      "pair": [
        "ನ್ನ",
        "ು</w>"
      ],
      "frequency": 68408,
      "new_token": "ನ್ನು</w>"
    },
    {
      "step": 18,
      "pair": [
        "ಸ",
        "್"
      ],
      "frequency": 67573,
      "new_token": "ಸ್"
    },
    {
      "step": 19,
      "pair": [
        ",",
        "</w>"
      ],
      "frequency": 57929,
      "new_token": ",</w>"
    },
    {
      "step": 20,
      "pair": [
        "ಿ",
        "ಸ"
      ],
      "frequency": 56195,
      "new_token": "ಿಸ"
    },
    {
      "step": 21,
      "pair": [
        "ಿ",
        "ಯ"
      ],
      "frequency": 55246,
      "new_token": "ಿಯ"
    },
    {
      "step": 22,
      "pair": [
        "ದ",
        "</w>"
      ],
      "frequency": 54248,
      "new_token": "ದ</w>"
    },
    {
      "step": 23,
      "pair": [
        "ಕ",
        "್"
      ],
      "frequency": 53738,
      "new_token": "ಕ್"
    },
    {
      "step": 24,
      "pair": [
        "ಾ",
        "ರ"
      ],
      "frequency": 52624,
      "new_token": "ಾರ"
    },
    {
      "step": 25,
      "pair": [
        "ೆ",
        ".</w>"
      ],
      "frequency": 46800,
      "new_token": "ೆ.</w>"
    },
    {
      "step": 26,
      "pair": [
        "ೆ",
        "ಯ"
      ],
      "frequency": 45277,
      "new_token": "ೆಯ"
    },
    {
      "step": 27,
      "pair": [
        "ಲ್ಲ",
        "ಿ</w>"
      ],
      "frequency": 44711,
      "new_token": "ಲ್ಲಿ</w>"
    },
    {
      "step": 28,
      "pair": [
        "್",
        "ಯ"
      ],
      "frequency": 42718,
      "new_token": "್ಯ"
    },
    {
      "step": 29,
      "pair": [
        "ು",
        ".</w>"
      ],
      "frequency": 42116,
      "new_token": "ು.</w>"
    },
    {
      "step": 30,
      "pair": [
        "ು",
        "ವ"
      ],
      "frequency": 40568,
      "new_token": "ುವ"
    },
    {
      "step": 31,
      "pair": [
        "ಮ",
        "ಾ"
      ],
      "frequency": 35712,
      "new_token": "ಮಾ"
    },
    {
      "step": 32,
      "pair": [
        "ಪ",
        "್ರ"
      ],
      "frequency": 35495,
      "new_token": "ಪ್ರ"
    },
    {
      "step": 33,
      "pair": [
        "ು",
        "ತ್ತ"
      ],
      "frequency": 34964,
      "new_token": "ುತ್ತ"
    },
    {
      "step": 34,
      "pair": [
        "ಮ",
        "ತ್ತ"
      ],
      "frequency": 33608,
      "new_token": "ಮತ್ತ"
    },
    {
      "step": 35,
      "pair": [
        "ನ",
        "</w>"
      ],
      "frequency": 33427,
      "new_token": "ನ</w>"
    },
    {
      "step": 36,
      "pair": [
        "ಿ",
        "ಕ"
      ],
      "frequency": 32298,
      "new_token": "ಿಕ"
    },
    {
      "step": 37,
      "pair": [
        "ಮತ್ತ",
        "ು</w>"
      ],
      "frequency": 31930,
      "new_token": "ಮತ್ತು</w>"
    },
    {
      "step": 38,
      "pair": [
        "ರ",
        "</w>"
      ],
      "frequency": 31455,
      "new_token": "ರ</w>"
    },
    {
      "step": 39,
      "pair": [
        "ಗ",
        "ೆ</w>"
      ],
      "frequency": 31190,
      "new_token": "ಗೆ</w>"
    },
    {
      "step": 40,
      "pair": [
        "್",
        "</w>"
      ],
      "frequency": 29755,
      "new_token": "್</w>"
    },
    {
      "step": 41,
      "pair": [
        "್",
        "ದ"
      ],
      "frequency": 28300,
      "new_token": "್ದ"
    },
    {
      "step": 42,
      "pair": [
        "ವ",
        "ಾ"
      ],
      "frequency": 28011,
      "new_token": "ವಾ"
    },
    {
      "step": 43,
      "pair": [
        "ನ",
        "ಿ"
      ],
      "frequency": 27663,
      "new_token": "ನಿ"
    },
    {
      "step": 44,
      "pair": [
        "ವ",
        "ಿ"
      ],
      "frequency": 26481,
      "new_token": "ವಿ"
    },
    {
      "step": 45,
      "pair": [
        "್",
        "ಟ"
      ],
      "frequency": 25342,
      "new_token": "್ಟ"
    },
    {
      "step": 46,
      "pair": [
        "ು",
        "ದ"
      ],
      "frequency": 25312,
      "new_token": "ುದ"
    },
    {
      "step": 47,
      "pair": [
        "ಂ",
        "ತ"
      ],
      "frequency": 24946,
      "new_token": "ಂತ"
    },
    {
      "step": 48,
      "pair": [
        "ಂ",
        "ಡ"
      ],
      "frequency": 24886,
      "new_token": "ಂಡ"
    },
    {
      "step": 49,
      "pair": [
        "ವ",
        "ಾಗ"
      ],
      "frequency": 24051,
      "new_token": "ವಾಗ"
    },
    {
      "step": 50,
      "pair": [
        "ರ",
        "ಾ"
      ],
      "frequency": 22844,
      "new_token": "ರಾ"
    },
    {
      "step": 51,
      "pair": [
        "ಿ",
        "ತ"
      ],
      "frequency": 22655,
      "new_token": "ಿತ"
    },
    {
      "step": 52,
      "pair": [
        "ಂದ",
        "ು</w>"
      ],
      "frequency": 22208,
      "new_token": "ಂದು</w>"
    },
    {
      "step": 53,
      "pair": [
        "ಿದ",
        "್ದ"
      ],
      "frequency": 20891,
      "new_token": "ಿದ್ದ"
    },
    {
      "step": 54,
      "pair": [
        "ರ",
        "ಿ"
      ],
      "frequency": 20586,
      "new_token": "ರಿ"
    },
    {
      "step": 55,
      "pair": [
        "ವ",
        "ು</w>"
      ],
      "frequency": 19884,
      "new_token": "ವು</w>"
    },
    {
      "step": 56,
      "pair": [
        "ಿ",
        "ರ"
      ],
      "frequency": 19317,
      "new_token": "ಿರ"
    },
    {
      "step": 57,
      "pair": [
        "ಂ",
        "ಗ"
      ],
      "frequency": 18882,
      "new_token": "ಂಗ"
    },
    {
      "step": 58,
      "pair": [
        "ುವ",
        "</w>"
      ],
      "frequency": 18829,
      "new_token": "ುವ</w>"
    },
    {
      "step": 59,
      "pair": [
        "ಾ",
        "ಯ"
      ],
      "frequency": 18527,
      "new_token": "ಾಯ"
    },
    {
      "step": 60,
      "pair": [
        "ರ",
        "ು</w>"
      ],
      "frequency": 18414,
      "new_token": "ರು</w>"
    },
    {
      "step": 61,
      "pair": [
        "್",
        "‌"
      ],
      "frequency": 18235,
      "new_token": "್‌"
    },
    {
      "step": 62,
      "pair": [
        "ವ",
        "ನ್ನು</w>"
      ],
      "frequency": 18180,
      "new_token": "ವನ್ನು</w>"
    },
    {
      "step": 63,
      "pair": [
        "ಗಳ",
        "ನ್ನು</w>"
      ],
      "frequency": 17720,
      "new_token": "ಗಳನ್ನು</w>"
    },
    {
      "step": 64,
      "pair": [
        "ಕ್",
        "ಕ"
      ],
      "frequency": 17567,
      "new_token": "ಕ್ಕ"
    },
    {
      "step": 65,
      "pair": [
        "ಿದ",
        "ೆ.</w>"
      ],
      "frequency": 17138,
      "new_token": "ಿದೆ.</w>"
    },
    {
      "step": 66,
      "pair": [
        "ಗಳ",
        "ು</w>"
      ],
[...]
