{
  "merges": [
    [
      "ٕ",
      "</w>"
    ],
    [
      "ن",
      "</w>"
    ],
    [
      "س",
      "</w>"
    ],
    [
      "ہ",
      "ٕ</w>"
    ],
    [
      "ِ",
      "</w>"
    ],
    [
      "ی",
      "</w>"
    ],
    [
      "ن",
      "ٛ"
    ],
    [
      "ھ",
      "</w>"
    ],
    [
      "۔",
      "</w>"
    ],
    [
      "ہ",
      "</w>"
    ],
    [
      "ز",
      "</w>"
    ],
    [
      "ر",
      "</w>"
    ],
    [
      "ہ",
      "ِ</w>"
    ],
    [
      "ا",
      "ن"
    ],
    [
      "ت",
      "ہٕ</w>"
    ],
    [
      "نٛ",
      "ز</w>"
    ],
    [
      "،",
      "</w>"
    ],
    [
      "ر",
      "ی"
    ],
    [
      "م",
      "نٛز</w>"
    ],
    [
      "م",
      "</w>"
    ],
    [
      "چ",
      "ھ"
    ],
    [
      "و",
      "</w>"
    ],
    [
      "ل",
      "</w>"
    ],
    [
      "ن",
      "ہٕ</w>"
    ],
    [
      "و",
      "ا"
    ],
    [
      "ۍ",
      "</w>"
    ],
    [
      "ا",
      "و"
    ],
    [
      "ک",
      "ر"
    ],
    [
      "ی",
      "ا"
    ],
    [
      "ت",
      "</w>"
    ],
    [
      "د",
      "</w>"
    ],
    [
      "ا",
      "ی"
    ],
    [
      "ا",
      "ر"
    ],
    [
      "ک",
      "</w>"
    ],
    [
      "ت",
      "ھ</w>"
    ],
    [
      "ا",
      "ن</w>"
    ],
    [
      "و",
      "ر"
    ],
    [
      "پ",
      "ی"
    ],
    [
      "ا",
      "ک"
    ],
    [
      "م",
      "ن"
    ],
    [
      "چ",
      "ھ</w>"
    ],
    [
      "ا",
      "م"
    ],
    [
      "ی",
      "و"
    ],
    [
      "ا",
      "</w>"
    ],
    [
      "ر",
      "و"
    ],
    [
      "ل",
      "ی"
    ],
    [
      "ب",
      "ا"
    ],
    [
      "س",
      "ت"
    ],
    [
      "ی",
      "ٚ"
    ],
    [
      "ک",
      "و"
    ],
    [
      "م",
      "ی"
    ],
    [
      "ِ",
      "س</w>"
    ],
    [
      "ن",
      "د"
    ],
    [
      "ت",
      "ھ"
    ],
    [
      "ہ",
      "ٕ"
    ],
    [
      "ا",
      "ل"
    ],
    [
      "نٛ",
      "د"
    ],
    [
      "ٹ",
      "ھ</w>"
    ],
    [
      "ی",
      "ہ</w>"
    ],
    [
      "ر",
      "ٕ</w>"
    ],
    [
      "ر",
      "ا"
    ],
    [
      "ن",
      "ی"
    ],
    [
      "ٮ",
      "۪"
    ],
    [
      "ے",
      "</w>"
    ],
    [
      "ان",
      "۔</w>"
    ],
    [
      "ل",
      "ا"
    ],
    [
      "ٹ",
      "</w>"
    ],
    [
      "ک",
      "ھ"
    ],
    [
      "اک",
      "ھ</w>"
    ],
    [
      "َ",
      "س</w>"
    ],
    [
      "ت",
      "ہِ</w>"
    ],
    [
      "ٹ",
      "ھ"
    ],
    [
      "س",
      "ۭ"
    ],
    [
      "ی",
      "ن</w>"
    ],
    [
      "ی",
      "ن"
    ],
    [
      "و",
      "ٗ"
    ],
    [
      "چھ",
      "ِ</w>"
    ],
    [
      "م",
      "ا"
    ],
    [
      "ک",
      "ٔ"
    ],
    [
      "ی",
      "ِ"
    ],
    [
      "َ",
      "ن</w>"
    ],
    [
      "ر",
      "ی</w>"
    ],
    [
      "ُ",
      "</w>"
    ],
    [
      "چ",
      "</w>"
    ],
    [
      "من",
      "ز</w>"
    ],
    [
      "نٛ",
      "د</w>"
    ],
    [
      "س",
      "ٕ"
    ],
    [
      "ن",
      "گ"
    ],
    [
      "ژ",
      "ھ"
    ],
    [
      "ی",
      "م"
    ],
    [
      "ی",
      "ہِ</w>"
    ],
    [
      "خ",
      "ٲ"
    ],
    [
      "او",
      "س</w>"
    ],
    [
      "ا",
      "م</w>"
    ],
    [
      "ت",
      "ۍ</w>"
    ],
    [
      "ط",
      "رٕ</w>"
    ],
    [
      "ف",
      "</w>"
    ],
    [
      "د",
      "ٕ</w>"
    ],
    [
      "س",
      "ٹ"
    ],
    [
      "چھ",
      "ُ</w>"
    ],
    [
      "2",
      "0"
    ],
    [
      "ڈ",
      "</w>"
    ],
    [
      "و",
      "ُ"
    ],
    [
      "ن",
      "ہِ</w>"
    ],
    [
      "یا",
      "</w>"
    ],
    [
      "س",
      "ی"
    ],
    [
      "و",
      "ر</w>"
    ],
    [
      "خٲ",
      "طرٕ</w>"
    ],
    [
      "چ",
      "ُ"
    ],
    [
      "پی",
      "ٹھ</w>"
    ],
    [
      "ز",
      "ِ</w>"
    ],
    [
      "ب",
      "</w>"
    ],
    [
      "ری",
      "ا"
    ],
    [
      "وا",
      "ن</w>"
    ],
    [
      "ک",
      "ی"
    ],
    [
      "پ",
      "ن"
    ],
    [
      "ہ",
      "س</w>"
    ],
    [
      "ہ",
      "ہ</w>"
    ],
    [
      "ک",
      "س</w>"
    ],
    [
      "سۭ",
      "تۍ</w>"
    ],
    [
      "ر",
      "ِ"
    ],
    [
      "کر",
      "نہٕ</w>"
    ],
    [
      "و",
      "ن"
    ],
    [
      "ب",
      "ن"
    ],
    [
      "م",
      "ُ"
    ],
    [
      "ہ",
      "ند"
    ],
    [
      "1",
      "9"
    ],
    [
      "گ",
      "و"
    ],
    [
      "ب",
      "ر"
    ],
    [
      "چُ",
      "ھ</w>"
    ],
    [
      "ن",
      "س</w>"
    ],
    [
      "ا",
      "ر</w>"
    ],
    [
      "ش",
      "</w>"
    ],
    [
      "ی",
      "ل"
    ],
    [
      "ُ",
      "ک</w>"
    ],
    [
      "گ",
      "ژھ"
    ],
    [
      "م",
      "و"
    ],
    [
      "م",
      "ہِ</w>"
    ],
    [
      "ت",
      "ر"
    ],
    [
      "ہ",
      "ِ"
    ],
    [
      "0",
      "</w>"
    ],
    [
      "آ",
      "س"
    ],
    [
      "م",
      "ی</w>"
    ],
    [
      "ے",
      "ٚ"
    ],
    [
      "و",
      "ی"
    ],
    [
      "د",
      "ِ"
    ],
    [
      "د",
      "ی"
    ],
    [
      "ی",
      "یٚ"
    ],
    [
      "کو",
      "ٚ"
    ],
    [
      "ن",
      "ا"
    ],
    [
      "م",
      "ت"
    ],
    [
      "ت",
      "ِ"
    ],
    [
      "پ",
      "ر"
    ],
    [
      "ک",
      "ِس</w>"
    ],
    [
      "ہ",
      "ی"
    ],
    [
      "ےٚ",
      "</w>"
    ],
    [
      "چھ",
      "ٗ"
    ],
    [
      "ت",
      "ی</w>"
    ],
    [
      "ن",
      "ِ"
    ],
    [
      "ل",
      "و"
    ],
    [
      "پ",
      "تہٕ</w>"
    ],
    [
      "ہٕ",
      "۔</w>"
    ],
    [
      "ل",
      "ی</w>"
    ],
    [
      "و",
      "ٲ"
    ],
    [
      "د",
      "ر"
    ],
    [
      "ا",
      "ہ"
    ],
    [
      "م",
      "ٕ"
    ],
    [
      "ن",
      "د</w>"
    ],
    [
      "ب",
      "ی"
    ],
    [
      "کر",
      "ن"
    ],
    [
      "چھٗ",
      "</w>"
    ],
    [
      "ت",
      "ام</w>"
    ],
    [
      "ل",
      "ہٕ</w>"
    ],
    [
      "پ",
      "ٮ۪"
    ],
    [
      "ن",
      "ی</w>"
    ],
    [
      "س",
      "ا"
    ],
    [
      "گ",
      "</w>"
    ],
    [
      "ن",
      "و"
    ],
    [
      "م",
      "ٗ"
    ],
    [
      "او",
      "نہٕ</w>"
    ],
    [
      "م",
      "ر"
    ],
    [
      "چ",
      "ِ"
    ],
    [
      "د",
      "ی</w>"
    ],
    [
      "ز",
      "ی"
    ],
    [
      "ٕ",
      "چ</w>"
    ],
    [
      "س",
      "ُ"
    ],
    [
      "ٲ",
      "س"
    ],
    [
      "ب",
      "ی</w>"
    ],
    [
      "ک",
      "ہ</w>"
    ],
    [
      "گ",
      "ر</w>"
    ],
    [
      "ن",
      "ۍ</w>"
    ],
    [
      "نٛ",
      "ہہ</w>"
    ],
    [
      "ت",
      "ٔ"
    ],
    [
      "ٹ",
      "ی"
    ],
    [
      "و",
      "و"
    ],
    [
      "ع",
      "</w>"
    ],
    [
      "ت",
      "س</w>"
    ],
    [
      "ا",
      "د"
    ],
    [
      "ا",
      "َ"
    ],
    [
      "ت",
      "م"
    ],
    [
      "د",
      "ۄ"
    ],
    [
      "پ",
      "ٲ"
    ],
    [
      "س",
      "و"
    ],
    [
      "ط",
      "ور</w>"
    ],
    [
      "ک",
      "ا"
    ],
    [
      "ر",
      "س</w>"
    ],
    [
      "وا",
      "ریا"
    ],
    [
      "ہ",
      "ُ"
    ],
    [
      "ک",
      "ہِ</w>"
    ],
    [
      "ت",
      "ہ</w>"
    ],
    [
      "نٛ",
      "ز"
    ],
    [
      "ب",
      "و"
    ],
    [
      "ع",
      "ل"
    ],
    [
      "ی",
      "تھ</w>"
    ],
    [
      "ز",
      "یا"
    ],
    [
      "م",
      "ٲ"
    ],
    [
      "و",
      "ست"
    ],
    [
      "ق",
      "</w>"
    ],
    [
      "ان",
      "،</w>"
    ],
    [
      "ل",
      "ہِ</w>"
    ],
    [
      "ج",
      "</w>"
    ],
    [
      "آ",
      "و</w>"
    ],
    [
      "س",
      "ی</w>"
    ],
    [
      "ك",
      "ر"
    ],
    [
      "ک",
      "ِ"
    ],
    [
      "ک",
      "ار"
    ],
    [
      "ا",
      "ب"
    ],
    [
      "ک",
      "ٲ"
    ],
    [
      "و",
      "ِ"
    ],
    [
      "کوٚ",
      "ر</w>"
    ],
    [
      "س",
      "ر"
    ],
    [
      "ل",
      "ہ</w>"
    ],
    [
      "٘",
      "</w>"
    ],
    [
      "با",
      "پ"
    ],
    [
      "م",
      "ق"
    ],
    [
      "ت",
      "و"
    ],
    [
      "م",
      "ِ"
    ],
    [
      "ٲ",
      "ی"
    ],
    [
      "ک",
      "م"
    ],
    [
      "زیا",
      "دٕ</w>"
    ],
    [
      "د",
      "و"
    ],
    [
      "ک",
      "ن</w>"
    ],
    [
      "ک",
      "ھ</w>"
    ],
    [
      "ُ",
      "ن</w>"
    ],
    [
      "ٹ",
      "ی</w>"
    ],
    [
      "ہ",
      "ن</w>"
    ],
    [
      "ش",
      "ہ"
    ],
    [
      "کٔ",
      "ر"
    ],
    [
      "ما",
      "ل</w>"
    ],
    [
      "ا",
      "ست"
    ],
    [
      "م",
      "ۍ</w>"
    ],
    [
      "20",
      "1"
    ],
    [
      "ت",
      "ی"
    ],
    [
      "ٹ",
      "ر"
    ],
    [
      "نگ",
      "</w>"
    ],
    [
      "ب",
      "ہٕ</w>"
    ],
    [
      "پ",
      "و"
    ],
    [
      "ن",
      "ہ</w>"
    ],
    [
      "ق",
      "ی</w>"
    ],
    [
      "و",
      "ٕ"
    ],
    [
      "ڈ",
      "ی"
    ],
    [
      "ا",
      "تھ</w>"
    ],
    [
      "ا",
      "ہ</w>"
    ],
    [
      "ٲ",
      "س</w>"
    ],
    [
      "ك",
      "</w>"
    ],
    [
      "سۭ",
      "تہِ</w>"
    ],
    [
      "م",
      "نٛز"
    ],
    [
      "گ",
      "ۄ"
    ],
    [
      "ہند",
      "وست"
    ],
    [
      "ش",
      "ٲ"
    ],
    [
      "کر",
      "ان</w>"
    ],
    [
      "ی",
      "ُ"
    ],
    [
      "ف",
      "ل"
    ],
    [
      "م",
      "ن</w>"
    ],
    [
      "چِ",
      "ھ</w>"
    ],
    [
      "ز",
      "ن</w>"
    ],
    [
      "پٮ۪",
      "ٹھ</w>"
    ],
    [
      "واریا",
      "ہ</w>"
    ],
    [
      "ہ",
      "نٛد</w>"
    ],
    [
      "ا",
      "ئ"
    ],
    [
      "ان",
      "س</w>"
    ],
    [
      "د",
      "ور"
    ],
    [
      "ل",
      "س</w>"
    ],
    [
      "نٛد",
      "ِ</w>"
    ],
    [
      "ف",
      "ی"
    ],
    [
      "ا",
      "ٔ"
    ],
    [
      "س",
      "پ"
    ],
    [
      "ع",
      "لا"
    ],
    [
      "ا",
      "ص"
    ],
    [
      "ی",
      "وان</w>"
    ],
    [
      "ن",
      "ڈ"
    ],
    [
      "ش",
      "ن</w>"
    ],
    [
      "کھ",
      "ۄ"
    ],
    [
      "5",
      "</w>"
    ],
    [
      "1",
      "</w>"
    ],
    [
      "س",
      "ل"
    ],
    [
      "س",
      "ار"
    ],
    [
      "پٲ",
      "ٹھ"
    ],
    [
      "2",
      "</w>"
    ],
    [
      "م",
      "ب"
    ],
    [
      "چھ",
      "ےٚ</w>"
    ],
    [
      "ٹ",
      "ر</w>"
    ],
    [
      "ٮ۪",
      "ن</w>"
    ],
    [
      "پی",
      "ٹھ"
    ],
    [
      "ہ",
      "یٚ"
    ],
    [
      "کھۄ",
      "تہٕ</w>"
    ],
    [
      "ب",
      "ٲ"
    ],
    [
      "ا",
      "ِ"
    ],
    [
      "ل",
      "ِ"
    ],
    [
      "ی",
      "س</w>"
    ],
    [
      "ی",
      "م</w>"
    ],
    [
      "گ",
      "ر"
    ],
    [
      "است",
      "ع"
    ],
    [
      ")",
      "</w>"
    ],
    [
      "م",
      "ل"
    ],
    [
      "کٔ",
      "ر</w>"
    ],
    [
      "ز",
      "ٕ</w>"
    ],
    [
      "ط",
      "ر"
    ],
    [
      "چ",
      "ی"
    ],
    [
      "خ",
      "ت"
    ],
    [
      "ج",
      "و"
    ],
    [
      "م",
      "ع"
    ],
    [
      "ف",
      "ر"
    ],
    [
      "ت",
      "ن</w>"
    ],
    [
      "ش",
      "ن"
    ],
    [
      "ت",
      "ق"
    ],
    [
      "ان",
      "د"
    ],
    [
      "کر",
      "ان۔</w>"
    ],
    [
      "ت",
      "۔</w>"
    ],
    [
      "4",
      "</w>"
    ],
    [
      "ان",
      "ہٕ</w>"
    ],
    [
      "علا",
      "ق"
    ],
    [
      "گۄ",
      "ڈ"
    ],
    [
      "یُ",
      "س</w>"
    ],
    [
      "و",
      "ج"
    ],
    [
      "س",
      "ت</w>"
    ],
    [
      "پ",
      "</w>"
    ],
    [
      "استع",
      "مال</w>"
    ],
    [
      "ژ",
      "</w>"
    ],
    [
      "رو",
      "ٗ"
    ],
    [
      "ر",
      "ِ</w>"
    ],
    [
      "ا",
      "ف"
    ],
    [
      "8",
      "</w>"
    ],
    [
      "باپ",
      "ت</w>"
    ],
    [
      "20",
      "0"
    ],
    [
      "م",
      "ار"
    ],
    [
      "ٗ",
      "ن</w>"
    ],
    [
      "ش",
      "ر"
    ],
    [
      "چ",
      "ہِ</w>"
    ],
    [
      "ہ",
      "ن"
    ],
    [
      "6",
      "</w>"
    ],
    [
      "3",
      "</w>"
    ],
    [
      "7",
      "</w>"
    ],
    [
      "ک",
      "م</w>"
    ],
    [
      "ب",
      "ھ"
    ],
    [
      "و",
      "ی</w>"
    ],
    [
      "م",
      "د"
    ],
    [
      "ک",
      "ُ"
    ],
    [
      "ہُ",
      "نٛد</w>"
    ],
    [
      "ہ",
      "ٗ"
    ],
    [
      "س",
      "ِ"
    ],
    [
      "ر",
      "ن</w>"
    ],
    [
      "گ",
      "ی</w>"
    ],
    [
      "گو",
      "ٚ"
    ],
    [
      "ری",
      "ن</w>"
    ],
    [
      "ح",
      "ص"
    ],
    [
      "م",
      "گر</w>"
    ],
    [
      "ہ",
      "ا"
    ],
    [
      "ج",
      "ا"
    ],
    [
      "ح",
      "ٲ"
    ],
    [
      "یِ",
      "م</w>"
    ],
    [
      "ہ",
      "ہِ</w>"
    ],
    [
      "ٲ",
      "ری</w>"
    ],
    [
      "س",
      "ہ</w>"
    ],
    [
      "ک",
      "ی</w>"
    ],
    [
      "ج",
      "ن"
    ],
    [
      "ح",
      "</w>"
    ],
    [
      "ك",
      "ہِ</w>"
    ],
    [
      "ت",
      "ر</w>"
    ],
    [
      "م",
      "س</w>"
    ],
    [
      "ی",
      "و</w>"
    ],
    [
      "ٗ",
      "ك</w>"
    ],
    [
      "ل",
      "ن</w>"
    ],
    [
      "ت",
      "ہ"
    ],
    [
      "ر",
      "۔</w>"
    ],
    [
      "سُ",
      "ہ</w>"
    ],
    [
      "ام",
      "ہ</w>"
    ],
    [
      "م",
      "ت</w>"
    ],
    [
      "ز",
      "ِ"
    ],
    [
      "پ",
      "ھ"
    ],
    [
      "او",
      "ن"
    ],
    [
      "و",
      "ق"
    ],
    [
      "ی",
      "ہٕ</w>"
    ],
    [
      "ٹ",
      "س</w>"
    ],
    [
      "تھ",
      "۔</w>"
    ],
    [
      "ٛ",
      "ا"
    ],
    [
      "لی",
      "ن</w>"
    ],
    [
      "م",
      "ح"
    ],
    [
      "ام",
      "ری"
    ],
    [
      "ہٕ",
      "،</w>"
    ],
    [
      "پٲٹھ",
      "ۍ</w>"
    ],
    [
      "ج",
      "ی"
    ],
    [
      "کرن",
      "ہٕ۔</w>"
    ],
    [
      "ڈ",
      "ی</w>"
    ],
    [
      "ک",
      "ن"
    ],
    [
      "ہ",
      "و"
    ],
    [
      "پ",
      "ری"
    ],
    [
      "ش",
      "ی"
    ],
    [
      "م",
      "َ"
    ],
    [
      "یم",
      "ن</w>"
    ],
    [
      "ت",
      "ع"
    ],
    [
      "ک",
      "ۍ</w>"
    ],
    [
      "پ",
      "نٛ"
    ],
    [
      "د",
      "ار</w>"
    ],
    [
      "ل",
      "ٲ"
    ],
    [
      "تر",
      "ٛ"
    ],
    [
      "ز",
      "ا"
    ],
    [
      "س",
      "ن"
    ],
    [
      "تٔ",
      "مۍ</w>"
    ],
    [
      "ب",
      "ٔ"
    ],
    [
      "چھ",
      "ِ"
    ],
    [
      "ک",
      "َ"
    ],
    [
      "م",
      "ےٚ</w>"
    ],
    [
      "م",
      "ہ</w>"
    ],
    [
      "کٔ",
      "رِ"
    ],
    [
      "0",
      "0</w>"
    ],
    [
      "ٲ",
      "ب"
    ],
    [
      "ای",
      "ہ</w>"
    ],
    [
      "گ",
      "ا"
    ],
    [
      "ع",
      "ام</w>"
    ],
    [
      "ک",
      "ل"
    ],
    [
      "ور",
      "ی</w>"
    ],
    [
      "ئ",
      "ی</w>"
    ],
    [
      "و",
      "ۄ"
    ],
    [
      "ان",
      "ن</w>"
    ],
    [
      "ف",
      "ِ"
    ],
    [
      "کھ",
      "و"
    ],
    [
      "ت",
      "ۄ"
    ],
    [
      "س",
      "ہٕ</w>"
    ],
    [
      "پ",
      "ا"
    ],
    [
      "پر",
      "ٛ"
    ],
    [
      "دور",
      "ان</w>"
    ],
    [
      "ت",
      "ُ"
    ],
    [
      "س",
      "ان</w>"
    ],
    [
      "ع",
      "ہٕ</w>"
    ],
    [
      "د",
      "ٔ"
    ],
    [
      "ت",
      "ح"
    ],
    [
      "س",
      "ط"
    ],
    [
      "ہ",
      "َس</w>"
    ],
    [
      "س",
      "س</w>"
    ],
    [
      "گ",
      "ٔ"
    ],
    [
      "\"",
      "</w>"
    ],
    [
      "ز",
      "ن"
    ],
    [
      "د",
      "ا"
    ],
    [
      "خ",
      "ا"
    ],
    [
      "سٕ",
      "تہِ</w>"
    ],
    [
      "یو",
      "ٗ"
    ],
    [
      "حٲ",
      "ص"
    ],
    [
      "ییٚ",
      "لہ</w>"
    ],
    [
      "م",
      "ل</w>"
    ],
    [
      "یو",
      "ان۔</w>"
    ],
    [
      "ٹ",
      "ن</w>"
    ],
    [
      "ق",
      "ٕ"
    ],
    [
      "ٲی",
      "ی</w>"
    ],
    [
      "ز",
      "ی</w>"
    ],
    [
      "ہٕ",
      "نٛد"
    ],
    [
      "9",
      "</w>"
    ],
    [
      "ب",
      "ہ"
    ],
    [
      "ث",
      "ر</w>"
    ],
    [
      "ے",
      "٘</w>"
    ],
    [
      "ل",
      "۔</w>"
    ],
    [
      "ۍ",
      "۔</w>"
    ],
    [
      "ك",
      "ھ"
    ],
    [
      "د",
      "ھ"
    ],
    [
      "یا",
      "ن</w>"
    ],
    [
      "س",
      "م"
    ],
    [
      "ك",
      "ھ</w>"
    ],
    [
      "ا",
      "گر</w>"
    ],
    [
      "تق",
      "ری"
    ],
    [
      "ب",
      "ار"
    ],
    [
      "آ",
      "یہ</w>"
    ],
    [
      "ٲ",
      "خ"
    ],
    [
      "گ",
      "ی"
    ],
    [
      "ہ",
      "نٛز</w>"
    ],
    [
      "وا",
      "</w>"
    ],
    [
      "گ",
      "ری"
    ],
    [
      "م",
      "ط"
    ],
    [
      "ِ",
      "تھ</w>"
    ],
    [
      "پ",
      "رو"
    ],
    [
      "ب",
      "د"
    ],
    [
      "م",
      "ان"
    ],
    [
      "پ",
      "وٗ"
    ],
    [
      "ک",
      "ین</w>"
    ],
    [
      "ش",
      "رو"
    ],
    [
      "آ",
      "مٕ"
    ],
    [
      "س",
      "ن</w>"
    ],
    [
      "ج",
      "ی</w>"
    ],
    [
      "ت",
      "ا"
    ],
    [
      "ام",
      "ہِ</w>"
    ],
    [
      "ان",
      "ڈ"
    ],
    [
      "ب",
      "س</w>"
    ],
    [
      "ٲس",
      "ۍ</w>"
    ],
    [
      "ن",
      "ظ"
    ],
    [
      "سٕ",
      "نٛد"
    ],
    [
      "س",
      "ند"
    ],
    [
      "د",
      "ٕ"
    ],
    [
      "پ",
      "س</w>"
    ],
    [
      "ٛا",
      "دٕ</w>"
    ],
    [
      "بن",
      "اونہٕ</w>"
    ],
    [
      "ڑ",
      "</w>"
    ],
    [
      "ن",
      "،</w>"
    ],
    [
      "گوٚ",
      "و</w>"
    ],
    [
      "سٹ",
      "ی"
    ],
    [
      "تِ",
      "م</w>"
    ],
    [
      "د",
      "ار"
    ],
    [
      "ہ",
      "نٛد"
    ],
    [
      "یِ",
      "و"
    ],
    [
      "چھ",
      "نہٕ</w>"
    ],
    [
      "و",
      "ن</w>"
    ],
    [
      "آ",
      "ف</w>"
    ],
    [
      "گژھ",
      "ان</w>"
    ],
    [
      "ف",
      "ی</w>"
    ],
    [
      "ب",
      "ل"
    ],
    [
      "رو",
      "ز"
    ],
    [
      "وا",
      "ر"
    ],
    [
      "وٕ",
      "ے</w>"
    ],
    [
      "ب",
      "ر</w>"
    ],
    [
      "ای",
      "ن</w>"
    ],
    [
      "پ",
      "ار"
    ],
    [
      "ژ",
      "ن</w>"
    ],
    [
      "کر",
      "ن</w>"
    ],
    [
      "پ",
      "ور"
    ],
    [
      "ہند",
      "ِ</w>"
    ],
    [
      "ہٕ",
      "نٛز</w>"
    ],
    [
      "پی",
      "ٚ"
    ],
    [
      "ت",
      "م</w>"
    ],
    [
      "ا",
      "ے</w>"
    ],
    [
      "ک",
      "ار</w>"
    ],
    [
      "ش",
      "ُ"
    ],
    [
      "م",
      "غ"
    ],
    [
      "ک",
      "ین"
    ],
    [
      "اہ",
      "م</w>"
    ],
    [
      "ب",
      "طور</w>"
    ],
    [
      "ن",
      "ڈ</w>"
    ],
    [
      "ٕ",
      "نہِ</w>"
    ],
    [
      "ہ",
      "ار"
    ],
    [
      "وا",
      "ق"
    ],
    [
      "ش",
      "ِ"
    ],
    [
      "ا",
      "ق"
    ],
    [
      "ج",
      "ر"
    ],
    [
      "س",
      "ٹ</w>"
    ],
    [
      "ٹ",
      "و"
    ],
    [
      "آس",
      "ان</w>"
    ],
    [
      "کوٚ",
      "ر"
    ],
    [
      "پ",
      "ی</w>"
    ],
    [
      "مب",
      "ر</w>"
    ],
    [
      "بر",
      "ٛ"
    ],
    [
      "ت",
      "مہِ</w>"
    ],
    [
      "گ",
      "ھ"
    ],
    [
      "س",
      "ۄ"
    ],
    [
      "چ",
      "ہ</w>"
    ],
    [
      "پٮ۪",
      "ٹھ"
    ],
    [
      "و",
      "ٔ"
    ],
    [
      "ا",
      "ع"
    ],
    [
      "ق",
      "ی"
    ],
    [
      "ی",
      "َ"
    ],
    [
      "دۄ",
      "ہ</w>"
    ],
    [
      "ہٗ",
      "ند</w>"
    ],
    [
      "س",
      "ٲ"
    ],
    [
      "آ",
      "ر"
    ],
    [
      "ریا",
      "ست"
    ],
    [
      "ق",
      "ص"
    ],
    [
      "ح",
      "ال"
    ],
    [
      "ف",
      "ہٕ</w>"
    ],
    [
      "ام",
      "ی"
    ],
    [
      "كر",
      "نہٕ</w>"
    ],
    [
      "ی",
      "ی</w>"
    ],
    [
      "19",
      "9"
    ],
    [
      "چھ",
      "ُ"
    ],
    [
      "م",
      "ِس</w>"
    ],
    [
      "وو",
      "ل</w>"
    ],
    [
      "ب",
      "را"
    ],
    [
      "کٲ",
      "م</w>"
    ],
    [
      "س",
      "ہِ</w>"
    ],
    [
      "ک",
      "و</w>"
    ],
    [
      "ہ",
      "ر"
    ],
    [
      "کھو",
      "تہٕ</w>"
    ],
    [
      "با",
      "د"
    ],
    [
      "ڈ",
      "و"
    ],
    [
      "ل",
      "ف</w>"
    ],
    [
      "ٲ",
      "تی</w>"
    ],
    [
      "ر",
      "ف</w>"
    ],
    [
      "ک",
      "ل</w>"
    ],
    [
      "ہ",
      "۔</w>"
    ],
    [
      "خ",
      "اص"
    ],
    [
      "پیٹھ",
      "ہٕ</w>"
    ],
    [
      "ہ",
      "م</w>"
    ],
    [
      ":",
      "</w>"
    ],
    [
      "گ",
      "ِ"
    ],
    [
      "ب",
      "َ"
    ],
    [
      "ا",
      "ح"
    ],
    [
      "ن",
      "ن</w>"
    ],
    [
      "ن",
      "او"
    ],
    [
      "یا",
      "ر</w>"
    ],
    [
      "کا",
      "نٛہہ</w>"
    ],
    [
      "ل",
      "ۍ</w>"
    ],
    [
      "چھ",
      "ے٘</w>"
    ],
    [
      "پ",
      "ٔ"
    ],
    [
      "ی",
      "ر</w>"
    ],
    [
      "ح",
      "کو"
    ],
    [
      "م",
      "ش"
    ],
    [
      "ک",
      "ٕ"
    ],
    [
      "نٛ",
      "گ"
    ],
    [
      "ہِ",
      "نٛد"
    ],
    [
      "ک",
      "ر</w>"
    ],
    [
      "ای",
      "س</w>"
    ],
    [
      "ك",
      "ِ"
    ],
    [
      "رو",
      "ُ"
    ],
    [
      "س",
      "،</w>"
    ],
    [
      "س",
      "کو"
    ],
    [
      "ک",
      "ال"
    ],
    [
      "تھ",
      "و"
    ],
    [
      "م",
      "َن</w>"
    ],
    [
      "ری",
      "ٖ"
    ],
    [
      "سٕ",
      "نٛز</w>"
    ],
    [
      "وا",
      "ج"
    ],
    [
      "ں",
      "</w>"
    ],
    [
      "شٲ",
      "مِ"
    ],
    [
      "ت",
      "ما"
    ],
    [
      "ی",
      "ل</w>"
    ],
    [
      "ک",
      "ٹ"
    ],
    [
      "ا",
      "ش"
    ],
    [
      "ہن",
      "ز</w>"
    ],
    [
      "سۄ",
      "</w>"
    ],
    [
      "م",
      "ال"
    ],
    [
      "ڈ",
      "ر"
    ],
    [
      "ि",
      "</w>"
    ],
    [
      "م",
      "ہٕ</w>"
    ],
    [
      "ک",
      "ور"
    ],
    [
      "یو",
      "ٚ"
    ],
    [
      "د",
      "ر</w>"
    ],
    [
      "کی",
      "نٛہہ</w>"
    ],
    [
      "عل",
      "ق</w>"
    ],
    [
      "ب",
      "چ"
    ],
    [
      "ن",
      "۔</w>"
    ],
    [
      "یِ",
      "وان</w>"
    ],
    [
      "س",
      "ین"
    ],
    [
      "ون",
      "ان</w>"
    ],
    [
      "مٗ",
      "ت</w>"
    ],
    [
      "ک",
      "ہٕ</w>"
    ],
    [
      "با",
      "ل</w>"
    ],
    [
      "ص",
      "و"
    ],
    [
      "منٛز",
      "۔</w>"
    ],
    [
      "نا",
      "و</w>"
    ],
    [
      "ق",
      "و"
    ],
    [
      "ت",
      "ٲ"
    ],
    [
      "ك",
      "ِس</w>"
    ],
    [
      "ہُ",
      "ند</w>"
    ],
    [
      "مُ",
      "ت۔</w>"
    ],
    [
      "مُ",
      "ت</w>"
    ],
    [
      "وا",
      "ر</w>"
    ],
    [
      "خ",
      "و"
    ],
    [
      "ن",
      "ز"
    ],
    [
      "م",
      "ای"
    ],
    [
      "چھ",
      "۔</w>"
    ],
    [
      "ص",
      "رف</w>"
    ],
    [
      "د",
      "س</w>"
    ],
    [
      "ژ",
      "۔</w>"
    ],
    [
      "ک",
      "ان"
    ],
    [
      "ب",
      "ن</w>"
    ],
    [
      "دِ",
      "نہٕ</w>"
    ],
    [
      "ق",
      "ب"
    ],
    [
      "ف",
      "و"
    ],
    [
      "نی",
      "ن</w>"
    ],
    [
      "ٲ",
      "می</w>"
    ],
    [
      "ان",
      "ت"
    ],
    [
      "ہ",
      "ٮ۪"
    ],
    [
      "ل",
      "وٗ"
    ],
    [
      "م",
      "خت"
    ],
    [
      "ج",
      "نگ"
    ],
    [
      "آس",
      "ان۔</w>"
    ],
    [
      "ش",
      "ی</w>"
    ],
    [
      "مت",
      "۔</w>"
    ],
    [
      "د",
      "ُ"
    ],
    [
      "سل",
      "ط"
    ],
    [
      "ک",
      "یا"
    ],
    [
      "ٲس",
      "ہِ</w>"
    ],
    [
      "ن",
      "یا"
    ],
    [
      "ح",
      "ی"
    ],
    [
      "پی",
      "ش"
    ],
    [
      "برٛ",
      "و"
    ],
    [
      "ر",
      "ۍ</w>"
    ],
    [
      "ت",
      "،</w>"
    ],
    [
      "باپ",
      "تھ</w>"
    ],
    [
      "خاص",
      "</w>"
    ],
    [
      "ب",
      "نی"
    ],
    [
      "ٲ",
      "دی</w>"
    ],
    [
      "ییٚ",
      "لہِ</w>"
    ],
    [
      "غ",
      "ٲ"
    ],
    [
      "ع",
      "م"
    ],
    [
      "فل",
      "م</w>"
    ],
    [
      "ل",
      "ٹ"
    ],
    [
      "چ",
      "و"
    ],
    [
      "کھ",
      "یل"
    ],
    [
      "طر",
      "فہٕ</w>"
    ],
    [
      "ای",
      "ن"
    ],
    [
      "न",
      "</w>"
    ],
    [
      "تٔ",
      "مہِ</w>"
    ],
    [
      "ل",
      "ۄ"
    ],
    [
      "أ",
      "کس</w>"
    ],
    [
      "ن",
      "ش"
    ],
    [
      "ن",
      "ِس</w>"
    ],
    [
      "ب",
      "ین"
    ],
    [
      "20",
      "</w>"
    ],
    [
      "وا",
      "ی"
    ],
    [
      "لا",
      "ئ"
    ],
    [
      "تما",
      "م</w>"
    ],
    [
      "ل",
      "گ"
    ],
    [
      "یِو",
      "ان۔</w>"
    ],
    [
      "19",
      "8"
    ],
    [
      "لی",
      "ٖ"
    ],
    [
      "ت",
      "َ"
    ],
    [
      "ری",
      "ق"
    ],
    [
      "مغ",
      "ر"
    ],
    [
      "با",
      "قی</w>"
    ],
    [
      "ٕ",
      "نۍ</w>"
    ],
    [
      "ز",
      "ان"
    ],
    [
      "كر",
      "ان</w>"
    ],
    [
      "س",
      "۔</w>"
    ],
    [
      "ج",
      "ہ</w>"
    ],
    [
      "ٲ",
      "وِ"
    ],
    [
      "بر",
      "ط"
    ],
    [
      "ا",
      "كھ</w>"
    ],
    [
      "م",
      "شر"
    ],
    [
      "و",
      "،</w>"
    ],
    [
      "ک",
      "یٚ"
    ],
    [
      "ب",
      "رو"
    ],
    [
      "ہ",
      "،</w>"
    ],
    [
      "ک",
      "ری"
    ],
    [
      "خا",
      "نٛد"
    ],
    [
      "پ",
      "ت"
    ],
    [
      "مو",
      "سی"
    ],
    [
      "س",
      "ٗ"
    ],
    [
      "م",
      "ا</w>"
    ],
    [
      "حص",
      "ہٕ</w>"
    ],
    [
      "دی",
      "ٖ"
    ],
    [
      "ا",
      "ت</w>"
    ],
    [
      "او",
      "ن</w>"
    ],
    [
      "سار",
      "وٕے</w>"
    ],
    [
      "سُ",
      "نٛد</w>"
    ],
    [
      "ٕ",
      "ہ</w>"
    ],
    [
      ".",
      "</w>"
    ],
    [
      "ٲ",
      "و"
    ],
    [
      "ل",
      "،</w>"
    ],
    [
      "ہندوست",
      "ٲ"
    ],
    [
      "گژھ",
      "ان۔</w>"
    ],
    [
      "یو",
      "ُ"
    ],
    [
      "ل",
      "ا</w>"
    ],
    [
      "ٹ",
      "ری"
    ],
    [
      "برط",
      "ان"
    ],
    [
      "رِ",
      "تھ</w>"
    ],
    [
      "پیٹھ",
      "ٕ</w>"
    ],
    [
      "ا",
      "ل</w>"
    ],
    [
      "ٚ",
      "ن</w>"
    ],
    [
      "ت",
      "ام"
    ],
    [
      "1",
      "8"
    ],
    [
      "ب",
      "یٚ"
    ],
    [
      "برٛو",
      "نٛہہ</w>"
    ],
    [
      "تم",
      "ن</w>"
    ],
    [
      "ِ",
      "ل</w>"
    ],
    [
      "ف",
      "وج"
    ],
    [
      "0",
      "00</w>"
    ],
    [
      "شٲ",
      "مل</w>"
    ],
    [
      "رِ",
      "یا"
    ],
    [
      "م",
      "یان</w>"
    ],
    [
      "لا",
      "ف</w>"
    ],
    [
      "فِ",
      "ل"
    ],
    [
      "منٛز",
      "،</w>"
    ],
    [
      "ح",
      "ِ"
    ],
    [
      "مٲ",
      "لی</w>"
    ],
    [
      "در",
      "میان</w>"
    ],
    [
      "ک",
      "ا</w>"
    ],
    [
      "سٕ",
      "نٛدِ</w>"
    ],
    [
      "ت",
      "ج"
    ],
    [
      "پ",
      "َ"
    ],
    [
      "آ",
      "یہِ</w>"
    ],
    [
      "سلط",
      "ن"
    ],
    [
      "ف",
      "ا"
    ],
    [
      "ڈ",
      "ن</w>"
    ],
    [
      "ل",
      "ب"
    ],
    [
      "19",
      "7"
    ],
    [
      "ل",
      "َ"
    ],
    [
      "و",
      "٘"
    ],
    [
      "ک",
      "ش"
    ],
    [
      "اد",
      "اک"
    ],
    [
      "نٛ",
      "زِ</w>"
    ],
    [
      "ل",
      "و</w>"
    ],
    [
      "ف",
      "ت"
    ],
    [
      "وا",
      "لین</w>"
    ],
    [
      "ر",
      "،</w>"
    ],
    [
      "یل",
      "ی</w>"
    ],
    [
      "ا",
      "ز</w>"
    ],
    [
      "گ",
      "ُ"
    ],
    [
      "ان",
      "ہ</w>"
    ],
    [
      "ِ",
      "ہ</w>"
    ],
    [
      "ی",
      "یل"
    ],
    [
      "م",
      "شہ"
    ],
    [
      "کر",
      "نس</w>"
    ],
    [
      "ہ",
      "ی</w>"
    ],
    [
      "ھ",
      "۔</w>"
    ],
    [
      "ز",
      "س</w>"
    ],
    [
      "ش",
      "و"
    ],
    [
      "نِ",
      "ش</w>"
    ],
    [
      "او",
      "ان۔</w>"
    ],
    [
      "تۄ",
      "ہہ</w>"
    ],
    [
      "ن",
      "ف"
    ],
    [
      "د",
      "یو"
    ],
    [
      "ک",
      "ام"
    ],
    [
      "ٗ",
      "ک</w>"
    ],
    [
      "ف",
      "را"
    ],
    [
      "ط",
      "</w>"
    ],
    [
      "ل",
      "ع"
    ],
    [
      "ر",
      "ُ"
    ],
    [
      "س",
      "ای"
    ],
    [
      "می",
      "ٹر</w>"
    ],
    [
      "لی",
      "نڈ"
    ],
    [
      "یَ",
      "تھ</w>"
    ],
    [
      "م",
      "ۄ"
    ],
    [
      "ان",
      "ی</w>"
    ],
    [
      "ک",
      "ٹ</w>"
    ],
    [
      "شرو",
      "ع</w>"
    ],
    [
      "نی",
      "شن"
    ],
    [
      "می",
      "ن</w>"
    ],
    [
      "ڈ",
      "س</w>"
    ],
    [
      "ن",
      "ہٕ۔</w>"
    ],
    [
      "م",
      "،</w>"
    ],
    [
      "ج",
      "نو"
    ],
    [
      "ی",
      "ٗ"
    ],
    [
      "ٹ",
      "ہٕ</w>"
    ],
    [
      "وا",
      "ل"
    ],
    [
      "ز",
      "ین"
    ],
    [
      "ب",
      "ِ"
    ],
    [
      "با",
      "ق"
    ],
    [
      "پوٗ",
      "رٕ</w>"
    ],
    [
      "پی",
      "ش</w>"
    ],
    [
      "ٕ",
      "کۍ</w>"
    ],
    [
      "زی",
      "ٛادٕ</w>"
    ],
    [
      "د",
      "ن</w>"
    ],
    [
      "ی",
      "نہٕ</w>"
    ],
    [
      "ہ",
      "ر</w>"
    ],
    [
      "ب",
      "ج"
    ],
    [
      "س",
      "نٛد</w>"
    ],
    [
      "ن",
      "ک</w>"
    ],
    [
      "ش",
      "روٗ"
    ],
    [
      "مخت",
      "لف</w>"
    ],
    [
      "ج",
      "س</w>"
    ],
    [
      "ہندوست",
      "ان"
    ],
    [
      "ب",
      "ڑ"
    ],
    [
      "یو",
      "ن"
    ],
    [
      "ل",
      "ای"
    ],
    [
      "ف",
      "ٹ</w>"
    ],
    [
      "تھ",
      "س</w>"
    ],
    [
      "ش",
      "ا"
    ],
    [
      "ٹ",
      "ا"
    ],
    [
      "ش",
      "اہ</w>"
    ],
    [
      "نٛ",
      "نہٕ</w>"
    ],
    [
      "و",
      "َ"
    ],
    [
      "غٲ",
      "ر</w>"
    ],
    [
      "ند",
      "گی</w>"
    ],
    [
      "کٲ",
      "ری</w>"
    ],
    [
      "حٲص",
      "ل</w>"
    ],
    [
      "ین",
      "ی</w>"
    ],
    [
      "شٲمِ",
      "ل</w>"
    ],
    [
      "گژھ",
      "ن</w>"
    ],
    [
      "مر",
      "ک"
    ],
    [
      "تم",
      "ۍ</w>"
    ],
    [
      "بو",
      "ٚ"
    ],
    [
      "وٗ",
      "</w>"
    ],
    [
      "گ",
      "َ"
    ],
    [
      "س",
      "نگ"
    ],
    [
      "اک",
      "ثر</w>"
    ],
    [
      "ای",
      "ہِ</w>"
    ],
    [
      "ی",
      "ٖ"
    ],
    [
      "پن",
      "ی</w>"
    ],
    [
      "یِ",
      "ہ</w>"
    ],
    [
      "ً",
      "</w>"
    ],
    [
      "ز",
      "ب"
    ],
    [
      "ٹ",
      "یم"
    ],
    [
      "مغر",
      "بی</w>"
    ],
    [
      "ع",
      "۔</w>"
    ],
    [
      "ک",
      "ُن</w>"
    ],
    [
      "اک",
      "ہ</w>"
    ],
    [
      "ت",
      "ب"
    ],
    [
      "سٹ",
      "ری"
    ],
    [
      "ن",
      "ز</w>"
    ],
    [
      "سا",
      "ئ"
    ],
    [
      ",",
      "000</w>"
    ],
    [
      "م",
      "۔</w>"
    ],
    [
      "ہ",
      "ل"
    ],
    [
      "ٕ",
      "۔</w>"
    ],
    [
      "م",
      "پ"
    ],
    [
      "پٮ۪ٹھ",
      "ٕ</w>"
    ],
    [
      "ن",
      "یو"
    ],
    [
      "کٔر",
      "مٕ"
    ],
    [
      "را",
      "م</w>"
    ],
    [
      "را",
      "ج"
    ],
    [
      "س",
      "ب"
    ],
    [
      "منٛز",
      "ٕ</w>"
    ],
    [
      "وا",
      "ری"
    ],
    [
      "گژھ",
      "نہٕ</w>"
    ],
    [
      "ب",
      "ُ"
    ],
    [
      "ج",
      "ٲری</w>"
    ],
    [
      "ف",
      "ار"
    ],
    [
      "ری",
      "و</w>"
    ],
    [
      "گ",
      "و</w>"
    ],
    [
      "19",
      "6"
    ],
    [
      "ری",
      "عہٕ</w>"
    ],
    [
      "کٔ",
      "نۍ</w>"
    ],
    [
      "اد",
      "ا</w>"
    ],
    [
      "کھ",
      "یل</w>"
    ],
    [
      "ن",
      "ٔ"
    ],
    [
      "وٗ",
      "ر</w>"
    ],
    [
      "خ",
      "اند"
    ],
    [
      "ط",
      "ریق"
    ],
    [
      "کٔرِ",
      "تھ</w>"
    ],
    [
      "اہ",
      "ن</w>"
    ],
    [
      "ا",
      "س"
    ],
    [
      "لٲ",
      "ڑ"
    ],
    [
      "کٔر",
      "تھ</w>"
    ],
    [
      "سٹ",
      "ی</w>"
    ],
    [
      "نیشن",
      "ل</w>"
    ],
    [
      "مق",
      "اب"
    ],
    [
      "امری",
      "کی</w>"
    ],
    [
      "ت",
      "ص"
    ],
    [
      "ئ",
      "ر</w>"
    ],
    [
      "ہیٚ",
      "کہ</w>"
    ],
    [
      "نٛ",
      "گ</w>"
    ],
    [
      "ٹ",
      "ِ"
    ],
    [
      "س",
      "َ"
    ],
    [
      "ہندوست",
      "ان</w>"
    ],
    [
      "اَ",
      "مہِ</w>"
    ],
    [
      "ا",
      "نٛ"
    ],
    [
      "ر",
      "ت</w>"
    ],
    [
      "ن",
      "ار"
    ],
    [
      "کم",
      "پنی</w>"
    ],
    [
      "ز",
      "ر"
    ],
    [
      "ل",
      "ڈ</w>"
    ],
    [
      "مُ",
      "ق"
    ],
    [
      "گۄڈ",
      "ٕ"
    ],
    [
      "ا",
      "لی"
    ],
    [
      "و",
      "س</w>"
    ],
    [
      "وا",
      "پس</w>"
    ],
    [
      "پ",
      "ُ"
    ],
    [
      "ہ",
      "ۍ</w>"
    ],
    [
      "ٹ",
      "ین"
    ],
    [
      "ن",
      "یٚ"
    ],
    [
      "ر",
      "ا</w>"
    ],
    [
      "خ",
      "</w>"
    ],
    [
      "ب",
      "نگ"
    ],
    [
      "کر",
      "ان،</w>"
    ],
    [
      "بار",
      "ٕ</w>"
    ],
    [
      "وٲ",
      "لۍ</w>"
    ],
    [
      "وٲ",
      "می</w>"
    ],
    [
      "ٹ",
      "و</w>"
    ],
    [
      "ک",
      "ٮ۪ن</w>"
    ],
    [
      "م",
      "س"
    ],
    [
      "ف",
      "ور"
    ],
    [
      "تو",
      "٘"
    ],
    [
      "زِ",
      "ی"
    ],
    [
      "س",
      "ر</w>"
    ],
    [
      "ای",
      "م</w>"
    ],
    [
      "ن",
      "ش</w>"
    ],
    [
      "و",
      "و</w>"
    ],
    [
      "یٗ",
      "س</w>"
    ],
    [
      "َ",
      "و</w>"
    ],
    [
      "ؤ",
      "ن"
    ],
    [
      "ص",
      "</w>"
    ],
    [
      "تۄ",
      "ہہِ</w>"
    ],
    [
      "ہٕ",
      "نٛدِ</w>"
    ],
    [
      "स",
      "</w>"
    ],
    [
      "ی",
      "ژھ"
    ],
    [
      "ہِ",
      "۔</w>"
    ],
    [
      "می",
      "ل"
    ],
    [
      "ن",
      "ٕچ</w>"
    ],
    [
      "ق",
      "ٲ"
    ],
    [
      "ت",
      "ا</w>"
    ],
    [
      "ر",
      "ق"
    ],
    [
      "ت",
      "ۍ۔</w>"
    ],
    [
      "ا",
      "و</w>"
    ],
    [
      "ڈ",
      "یو"
    ],
    [
      "ریا",
      "ست</w>"
    ],
    [
      "اَ",
      "کھ</w>"
    ],
    [
      "أ",
      "کِس</w>"
    ],
    [
      "مت",
      "علق</w>"
    ],
    [
      "م",
      "و</w>"
    ],
    [
      "پ",
      "وُ"
    ],
    [
      "ش",
      "ہِ</w>"
    ],
    [
      "ت",
      "یٚ"
    ],
    [
      "م",
      "ہ"
    ],
    [
      "ن",
      "ٕ"
    ],
    [
      "سپ",
      "د"
    ],
    [
      "ذ",
      "ٔ"
    ],
    [
      "ہ",
      "ند</w>"
    ],
    [
      "دۄ",
      "ش"
    ],
    [
      "ت",
      "خ"
    ],
    [
      "سٕ",
      "تۍ</w>"
    ],
    [
      "می",
      "ٖ"
    ],
    [
      "چ",
      "یم"
    ],
    [
      "ت",
      "رین</w>"
    ],
    [
      "ج",
      "ان"
    ],
    [
      "قو",
      "می</w>"
    ],
    [
      "ما",
      "ر</w>"
    ],
    [
      "ۍ",
      "،</w>"
    ],
    [
      "یم",
      "ہِ</w>"
    ],
    [
      "ر",
      "س"
    ],
    [
      "ای",
      "ف</w>"
    ],
    [
      "ب",
      "ند"
    ],
    [
      "د",
      "ست"
    ],
    [
      "گ",
      "ٲ"
    ],
    [
      "علاق",
      "ہٕ</w>"
    ],
    [
      "پٲٹھ",
      "ہِ</w>"
    ],
    [
      "پ",
      "ان"
    ],
    [
      "أ",
      "مۍ</w>"
    ],
    [
      "کھ",
      "لٲڑ"
    ],
    [
      "ج",
      "ن</w>"
    ],
    [
      "ک",
      "َن</w>"
    ],
    [
      "ام",
      "س</w>"
    ],
    [
      "ر",
      "ان</w>"
    ],
    [
      "ش",
      "ک"
    ],
    [
      "م",
      "ج"
    ],
    [
      "ان",
      "گ"
    ],
    [
      "وا",
      "ئ"
    ],
    [
      "ا",
      "ض"
    ],
    [
      "19",
      "</w>"
    ],
    [
      "ظ",
      "ٲ"
    ],
    [
      "تو",
      "ہہِ</w>"
    ],
    [
      "ن",
      "ُک</w>"
    ],
    [
      "کو",
      "ٗ"
    ],
    [
      "ٹ",
      "ا</w>"
    ],
    [
      "ائ",
      "ی</w>"
    ],
    [
      "ف",
      "ٲ"
    ],
    [
      "س",
      "یا"
    ],
    [
      "سٕ",
      "ند"
    ],
    [
      "با",
      "قٕ"
    ],
    [
      "اَ",
      "تھ</w>"
    ],
    [
      "موسی",
      "قی</w>"
    ],
    [
      "زِی",
      "ٛادٕ</w>"
    ],
    [
      "غ",
      "یر</w>"
    ],
    [
      "خ",
      "ٕ"
    ],
    [
      "ا",
      "وان</w>"
    ],
    [
      "وج",
      "ہ</w>"
    ],
    [
      "ڈ",
      "ِ"
    ],
    [
      "با",
      "ً</w>"
    ],
    [
      "م",
      "خ"
    ],
    [
      "ب",
      "ین</w>"
    ],
    [
      "ض",
      "ر"
    ],
    [
      "تھ",
      "،</w>"
    ],
    [
      "پن",
      "ُن</w>"
    ],
    [
      "چ",
      "ل"
    ],
    [
      "را",
      "ئ"
    ],
    [
      "ت",
      "ش"
    ],
    [
      "ک",
      "ٗ"
    ],
    [
      "مَ",
      "نٛز</w>"
    ],
    [
      "ای",
      "ت</w>"
    ],
    [
      "ہندوست",
      "انس</w>"
    ],
    [
      "م",
      "ث"
    ],
    [
      "تُ",
      "ہۍ</w>"
    ],
    [
      "ژ",
      "ھ</w>"
    ],
    [
      "د",
      "ہ"
    ],
    [
      "ف",
      "ن</w>"
    ],
    [
      "ور",
      "س</w>"
    ],
    [
      "ع",
      "ی"
    ],
    [
      "ك",
      "ٕ"
    ],
    [
      "ک",
      "س"
    ],
    [
      "م",
      "وُ"
    ],
    [
      "ہند",
      "ِس</w>"
    ],
    [
      "یا",
      "ب</w>"
    ],
    [
      "وا",
      "ت"
    ],
    [
      "ک",
      "ٮ۪"
    ],
    [
      "شہ",
      "ر</w>"
    ],
    [
      "ك",
      "ٗ"
    ],
    [
      "ع",
      "ہ</w>"
    ],
    [
      "او",
      "ٕ</w>"
    ],
    [
      "وٲ",
      "لہِ</w>"
    ],
    [
      "ٲ",
      "نی</w>"
    ],
    [
      "ن",
      "ام"
    ],
    [
      "19",
      "5"
    ],
    [
      "ذ",
      "ہ"
    ],
    [
      "ل",
      "وُ"
    ],
    [
      "خ",
      "یا"
    ],
    [
      "نی",
      "ور"
    ],
    [
      "واق",
      "ع</w>"
    ],
    [
      "پرٛ",
      "یتھ</w>"
    ],
    [
      "ییٚ",
      "مہِ</w>"
    ],
    [
      "یِ",
      "تھ</w>"
    ],
    [
      "بٔ",
      "ڑ"
    ],
    [
      "مشر",
      "قی</w>"
    ],
    [
      "ای",
      "ڈ"
    ],
    [
      "خ",
      "ر"
    ],
    [
      "پیٚ",
      "ٹھ</w>"
    ],
    [
      "ل",
      "ب</w>"
    ],
    [
      "پ",
      "ؠ"
    ],
    [
      "مق",
      "ٲمی</w>"
    ],
    [
      "پن",
      "نہِ</w>"
    ],
    [
      "خ",
      "ط"
    ],
    [
      "ج",
      "ہِ</w>"
    ],
    [
      "ك",
      "رِتھ</w>"
    ],
    [
      "ز",
      "۔</w>"
    ],
    [
      "ک",
      "تھ</w>"
    ],
    [
      "ت",
      "یار</w>"
    ],
    [
      "ٹھ",
      "اہ</w>"
    ],
    [
      "غ",
      "ل"
    ],
    [
      "وِ",
      "زِ</w>"
    ],
    [
      "و",
      "۔</w>"
    ],
    [
      "ن",
      "َس</w>"
    ],
    [
      "فرا",
      "ہم</w>"
    ],
    [
      "تو٘",
      "ہہِ</w>"
    ],
    [
      "ظ",
      "</w>"
    ],
    [
      "تر",
      "تی"
    ],
    [
      "ہ",
      "ُک</w>"
    ],
    [
      "یا",
      "د"
    ],
    [
      "تِ",
      "من</w>"
    ],
    [
      "د",
      "ریا"
    ],
    [
      "او",
      "ل"
    ],
    [
      "برطان",
      "وی</w>"
    ],
    [
      "ن",
      "س"
    ],
    [
      "خ",
      "لاف</w>"
    ],
    [
      "ق",
      "ر"
    ],
    [
      "ز",
      "َن</w>"
    ],
    [
      "پن",
      "ٕنۍ</w>"
    ],
    [
      "سار",
      "وی</w>"
    ],
    [
      "ہ",
      "َ"
    ],
    [
      "ٹ",
      "ک</w>"
    ],
    [
      "ای",
      "ل</w>"
    ],
    [
      "ط",
      "لا"
    ],
    [
      "ک",
      "لا"
    ],
    [
      "تھ",
      "ی"
    ],
    [
      "تقری",
      "باً</w>"
    ],
    [
      "ہٕنٛد",
      "ۍ</w>"
    ],
    [
      "چی",
      "ز</w>"
    ],
    [
      "ای",
      "ی</w>"
    ],
    [
      "ری",
      "ہ</w>"
    ],
    [
      "آ",
      "بٲ"
    ],
    [
      "م",
      "ٔ"
    ],
    [
      "د",
      "م</w>"
    ],
    [
      "ح",
      "م"
    ],
    [
      "ر",
      "و</w>"
    ],
    [
      "واریا",
      "ہن</w>"
    ],
    [
      "ور",
      "ن</w>"
    ],
    [
      "ن",
      "َ"
    ],
    [
      "خ",
      "ی"
    ],
    [
      "ان",
      "ٹر"
    ],
    [
      "ص",
      "د</w>"
    ],
    [
      "ن",
      "ق"
    ],
    [
      "ص",
      "لہٕ</w>"
    ],
    [
      "ج",
      "ھ"
    ],
    [
      "لی",
      "نڈ</w>"
    ],
    [
      "ال",
      "گ</w>"
    ],
    [
      "ت",
      "ٗ"
    ],
    [
      "ہ",
      "ک</w>"
    ],
    [
      "ل",
      "ِس</w>"
    ],
    [
      "ی",
      "ۄ"
    ],
    [
      "یِ",
      "نہٕ</w>"
    ],
    [
      "گ",
      "رو"
    ],
    [
      "ی",
      "ور"
    ],
    [
      "د",
      "ٗ"
    ],
    [
      "شٲ",
      "مل"
    ],
    [
      "ا",
      "گ"
    ],
    [
      "م",
      "یو"
    ],
    [
      "زی",
      "ر</w>"
    ],
    [
      "ر",
      "ٕ"
    ],
    [
      "آ",
      "ب"
    ],
    [
      "ج",
      "ین</w>"
    ],
    [
      "عل",
      "ام"
    ],
    [
      "با",
      "ل"
    ],
    [
      "ن",
      "ٹ</w>"
    ],
    [
      "وو",
      "ٚن</w>"
    ],
    [
      "ت",
      "عل"
    ],
    [
      "اک",
      "ہِ</w>"
    ],
    [
      "سند",
      "ِ</w>"
    ],
    [
      "ح",
      "ر"
    ],
    [
      "کِ",
      "ہ</w>"
    ],
    [
      "ج",
      "م"
    ],
    [
      "كِ",
      "نہِ</w>"
    ],
    [
      "ف",
      "ری"
    ],
    [
      "مو",
      "جو"
    ],
    [
      "د",
      "ہ</w>"
    ],
    [
      "ز",
      "ا</w>"
    ],
    [
      "گ",
      "ور"
    ],
    [
      "بوٚ",
      "ڑ</w>"
    ],
    [
      "ام",
      "ن</w>"
    ],
    [
      "کِ",
      "ر"
    ],
    [
      "لی",
      "و</w>"
    ],
    [
      "او",
      "س۔</w>"
    ],
    [
      "انت",
      "ظ"
    ],
    [
      "د",
      "نہٕ</w>"
    ],
    [
      "ل",
      "عہٕ</w>"
    ],
    [
      "ٹ",
      "ہِ</w>"
    ],
    [
      "تھ",
      "ہٕ</w>"
    ],
    [
      "گو",
      "ل</w>"
    ],
    [
      "پن",
      "ن</w>"
    ],
    [
      "ع",
      "ال"
    ],
    [
      "أ",
      "کِس</w>"
    ],
    [
      "خ",
      "ۄ"
    ],
    [
      "لا",
      "گ"
    ],
    [
      "ی",
      "َن</w>"
    ],
    [
      "ِ",
      "ق</w>"
    ],
    [
      "آ",
      "ر</w>"
    ],
    [
      "ٹ",
      "رو"
    ],
    [
      "ک",
      "ان</w>"
    ],
    [
      "ای",
      "ٚ"
    ],
    [
      "لب",
      "نہٕ</w>"
    ],
    [
      "دۄ",
      "ن</w>"
    ],
    [
      "ن",
      "ا</w>"
    ],
    [
      "19",
      "4"
    ],
    [
      "ڈ",
      "ا"
    ],
    [
      "ر",
      "ٮ۪"
    ],
    [
      "پ",
      "ل"
    ],
    [
      "آ",
      "ی"
    ],
    [
      "ار",
      "ٕ</w>"
    ],
    [
      "من",
      "ی</w>"
    ],
    [
      "خ",
      "را"
    ],
    [
      "زی",
      "ٖ"
    ],
    [
      "کُ",
      "نہِ</w>"
    ],
    [
      "ص",
      "وٗ"
    ],
    [
      "من",
      "ظ"
    ],
    [
      "ل",
      "ُ"
    ],
    [
      "ص",
      "دی</w>"
    ],
    [
      "نی",
      "و</w>"
    ],
    [
      "1",
      "7"
    ],
    [
      "ی",
      "ت</w>"
    ],
    [
      "ج",
      "ِ"
    ],
    [
      "خ",
      "د"
    ],
    [
      "ار",
      "ن</w>"
    ],
    [
      "س",
      "ام"
    ],
    [
      "र",
      "</w>"
    ],
    [
      "پی",
      "و"
    ],
    [
      "من",
      "در</w>"
    ],
    [
      "ر",
      "َ"
    ],
    [
      "د",
      "ٲ"
    ],
    [
      "پٲ",
      "دٕ</w>"
    ],
    [
      "ع",
      "ا"
    ],
    [
      "فل",
      "مہ</w>"
    ],
    [
      "کار",
      "ڈ</w>"
    ],
    [
      "سٕنٛد",
      "ِس</w>"
    ],
    [
      "ٲوِ",
      "تھ</w>"
    ],
    [
      "یو",
      "٘</w>"
    ],
    [
      "مُ",
      "ل"
    ],
    [
      "ٚ",
      "و</w>"
    ],
    [
      "بن",
      "او"
    ],
    [
      "ک",
      "لو"
    ],
    [
      "ش",
      "ٗ"
    ],
    [
      "1",
      "0</w>"
    ],
    [
      "چُ",
      "ھ"
    ],
    [
      "ہ",
      "َن</w>"
    ],
    [
      "ل",
      "گ</w>"
    ],
    [
      "چِ",
      "ھ"
    ],
    [
      "م",
      "ض"
    ],
    [
      "آبٲ",
      "دی</w>"
    ],
    [
      "چ",
      "ن</w>"
    ],
    [
      "گۄڈ",
      "ن"
    ],
    [
      "ص",
      "ٔ"
    ],
    [
      "ٲ",
      "بی</w>"
    ],
    [
      "ل",
      "ف"
    ],
    [
      "یا",
      "ہس</w>"
    ],
    [
      "علاق",
      "ن</w>"
    ],
    [
      "قٕ",
      "س"
    ],
    [
      "کر",
      "و"
    ],
    [
      "پیٚ",
      "ٹھ"
    ],
    [
      "چھ",
      "س</w>"
    ],
    [
      "ج",
      "ل"
    ],
    [
      "اِ",
      "ن"
    ],
    [
      "ٮ۪",
      "تھ</w>"
    ],
    [
      "ी",
      "</w>"
    ],
    [
      "برو",
      "ن"
    ],
    [
      "ک",
      "شن</w>"
    ],
    [
      "ل",
      "ڑ"
    ],
    [
      "یم",
      "و</w>"
    ],
    [
      "اول",
      "مپ"
    ],
    [
      "ج",
      "وُ"
    ],
    [
      "ب",
      "ور"
    ],
    [
      "دو",
      "ٚ"
    ],
    [
      "ہ",
      "و</w>"
    ],
    [
      "ک",
      "نہ</w>"
    ],
    [
      "ل",
      "َس</w>"
    ],
    [
      "ئ",
      "ی"
    ],
    [
      "سٕ",
      "نٛد</w>"
    ],
    [
      "م",
      "وٗ"
    ],
    [
      "ز",
      "،</w>"
    ],
    [
      "با",
      "ر</w>"
    ],
    [
      "یم",
      "س</w>"
    ],
    [
      "عل",
      "اوٕ</w>"
    ],
    [
      "ری",
      "ا</w>"
    ],
    [
      "ك",
      "و٘"
    ],
    [
      "سی",
      "ٹھاہ</w>"
    ],
    [
      "ای",
      "وار"
    ],
    [
      "تِ",
      "ہ</w>"
    ],
    [
      "آس",
      "ہِ</w>"
    ],
    [
      "د",
      "گی</w>"
    ],
    [
      "ڈ",
      "ال"
    ],
    [
      "د",
      "ری</w>"
    ],
    [
      "ٲخ",
      "ٕ"
    ],
    [
      "ٹ",
      "ای"
    ],
    [
      "س",
      "وی"
    ],
    [
      "م",
      "بر"
    ],
    [
      "ا",
      "ُ"
    ],
    [
      "حٲص",
      "ِل</w>"
    ],
    [
      "یٚ",
      "ن</w>"
    ],
    [
      "ان",
      "ہِ</w>"
    ],
    [
      "شٲمل",
      "۔</w>"
    ],
    [
      "وق",
      "تس</w>"
    ],
    [
      "حِ",
      "ص"
    ],
    [
      "م",
      "سل"
    ],
    [
      "2",
      "1</w>"
    ],
    [
      "ر",
      "َس</w>"
    ],
    [
      "ٕ",
      "کہِ</w>"
    ],
    [
      "را",
      "ر</w>"
    ],
    [
      "ب",
      "ا</w>"
    ],
    [
      "ٕ",
      "،</w>"
    ],
    [
      "دی",
      "د</w>"
    ],
    [
      "من",
      "در"
    ],
    [
      "ب",
      "ح"
    ],
    [
      "علاق",
      "س</w>"
    ],
    [
      "روز",
      "ان</w>"
    ],
    [
      "تم",
      "ہ</w>"
    ],
    [
      "ن",
      "ر</w>"
    ],
    [
      "ت",
      "و</w>"
    ],
    [
      "ڈ",
      "ا</w>"
    ],
    [
      "خت",
      "م</w>"
    ],
    [
      "مد",
      "د</w>"
    ],
    [
      "لی",
      "م</w>"
    ],
    [
      "ٹی",
      "م</w>"
    ],
    [
      "کٔ",
      "نہِ</w>"
    ],
    [
      "زان",
      "نہٕ</w>"
    ],
    [
      "م",
      "ہار"
    ],
    [
      "خٲ",
      "طر"
    ],
    [
      "پن",
      "نِس</w>"
    ],
    [
      "أ",
      "مہِ</w>"
    ],
    [
      "م",
      "ص"
    ],
    [
      "ٛ",
      "اہ</w>"
    ],
    [
      "چھُ",
      "۔</w>"
    ],
    [
      "اص",
      "ل</w>"
    ],
    [
      "ہِ",
      "،</w>"
    ],
    [
      "ن",
      "ٗك</w>"
    ],
    [
      "کرن",
      "ٕچ</w>"
    ],
    [
      "یِ",
      "من</w>"
    ],
    [
      "ج",
      "وٗ"
    ],
    [
      "ت",
      "کیا"
    ],
    [
      "سٹ",
      "ر</w>"
    ],
    [
      "أ",
      "مس</w>"
    ],
    [
      "تی",
      "ٖ"
    ],
    [
      "د",
      "س"
    ],
    [
      "ج",
      "ہٕ</w>"
    ],
    [
      "نی",
      "ٹ</w>"
    ],
    [
      "د",
      "۔</w>"
    ],
    [
      "ع",
      "ق"
    ],
    [
      "ڈی",
      "و</w>"
    ],
    [
      "ال",
      "اق"
    ],
    [
      "1",
      "5"
    ],
    [
      "3",
      "0</w>"
    ],
    [
      "گ",
      "نٛد"
    ],
    [
      "آ",
      "سٹری"
    ],
    [
      "س",
      "ال"
    ],
    [
      "مٕ",
      "تہِ</w>"
    ],
    [
      "ون",
      "نہٕ</w>"
    ],
    [
      "مط",
      "لب</w>"
    ],
    [
      "آ",
      "ب</w>"
    ],
    [
      "بن",
      "اون"
    ],
    [
      "ا",
      "خت"
    ],
    [
      "ژ",
      "ٕ</w>"
    ],
    [
      "ب",
      "وُ"
    ],
    [
      "ب",
      "ل</w>"
    ],
    [
      "و",
      "ٕ</w>"
    ],
    [
      "آ",
      "مُت</w>"
    ],
    [
      "ان",
      "گری"
    ],
    [
      "ق",
      "ہٕ</w>"
    ],
    [
      "ص",
      "ح"
    ],
    [
      "ٹ",
      "ور"
    ],
    [
      "ز",
      "ٲ"
    ],
    [
      "ب",
      "گ</w>"
    ],
    [
      "مط",
      "ٲب"
    ],
    [
      "من",
      "ٹ</w>"
    ],
    [
      "پ",
      "ال"
    ],
    [
      "د",
      "ع"
    ],
    [
      "مٕ",
      "ژ</w>"
    ],
    [
      "1",
      "0"
    ],
    [
      "ت",
      "ن"
    ],
    [
      "سار",
      "ِ"
    ],
    [
      "ہ",
      "نٛدِ</w>"
    ],
    [
      "و",
      "ل</w>"
    ],
    [
      "پ",
      "ِ"
    ],
    [
      "ہِ",
      "نٛدِ</w>"
    ],
    [
      "ری",
      "لی"
    ],
    [
      "م",
      "ذہ"
    ],
    [
      "ڈ",
      "ر</w>"
    ],
    [
      "کا",
      "ؤن"
    ],
    [
      "دۄش",
      "وٕ"
    ],
    [
      "ص",
      "وُ"
    ],
    [
      "د",
      "ایت</w>"
    ],
    [
      "ہ",
      "ف"
    ],
    [
      "می",
      "ن"
    ],
    [
      "یا",
      "ر"
    ],
    [
      "ب",
      "ٗ"
    ],
    [
      "پ",
      "لی"
    ],
    [
      "نز",
      "دیٖ"
    ],
    [
      "و",
      "٘</w>"
    ],
    [
      "وا",
      "رِیا"
    ],
    [
      "اک",
      "س</w>"
    ],
    [
      "د",
      "ری"
    ],
    [
      "ان",
      "س"
    ],
    [
      "جا",
      "ز"
    ],
    [
      "کی",
      "ر"
    ],
    [
      "ال",
      "ہ</w>"
    ],
    [
      "ہٕ",
      "نٛد</w>"
    ],
    [
      "ہٕ",
      "چ</w>"
    ],
    [
      "ف",
      "ت</w>"
    ],
    [
      "تم",
      "و</w>"
    ],
    [
      "ہِ",
      "نٛز</w>"
    ],
    [
      "آ",
      "م"
    ],
    [
      "ار",
      "ت</w>"
    ],
    [
      "م",
      "ان</w>"
    ],
    [
      "یِ",
      "مَن</w>"
    ],
    [
      "ٹ",
      "نگ</w>"
    ],
    [
      "ت",
      "علق</w>"
    ],
    [
      "ت",
      "ٕ"
    ],
    [
      "ذٔ",
      "ریعہٕ</w>"
    ],
    [
      "ص",
      "ِ"
    ],
    [
      "پر",
      "دی"
    ],
    [
      "جنو",
      "بی</w>"
    ],
    [
      "وا",
      "ب"
    ],
    [
      "ج",
      "ین"
    ],
    [
      "دِ",
      "وان</w>"
    ],
    [
      "آ",
      "مت</w>"
    ],
    [
      "سط",
      "ح"
    ],
    [
      "طریق",
      "ہٕ</w>"
    ],
    [
      "گۄڈٕ",
      "نِ"
    ],
    [
      "ب",
      "او"
    ],
    [
      "وق",
      "تہٕ</w>"
    ],
    [
      "ب",
      "یم"
    ],
    [
      "ک",
      "یم"
    ],
    [
      "جن",
      "وری</w>"
    ],
    [
      "صٔ",
      "دی</w>"
    ],
    [
      "ز",
      "خ"
    ],
    [
      "ضر",
      "ور"
    ],
    [
      "کر",
      "دار</w>"
    ],
    [
      "د",
      "ِ</w>"
    ],
    [
      "غ",
      "</w>"
    ],
    [
      "ت",
      "َس</w>"
    ],
    [
      "ون",
      "ی</w>"
    ],
    [
      "زن",
      "انہٕ</w>"
    ],
    [
      "ك",
      "ین</w>"
    ],
    [
      "1",
      "2</w>"
    ],
    [
      "ق",
      "رار</w>"
    ],
    [
      "چ",
      "ار"
    ],
    [
      "یو",
      "نیور"
    ],
    [
      "د",
      "ٲری</w>"
    ],
    [
      "پؠ",
      "ٹھ</w>"
    ],
    [
      "ی",
      "َس</w>"
    ],
    [
      "گ",
      "ٗ"
    ],
    [
      "ز",
      "ندگی</w>"
    ],
    [
      "ام",
      "ی</w>"
    ],
    [
      "ٮ",
      "ٔ"
    ],
    [
      "و",
      "ل"
    ],
    [
      "گ",
      "ز"
    ],
    [
      "پن",
      "نس</w>"
    ],
    [
      "ض",
      "ہٕ</w>"
    ],
    [
      "یژھ",
      "ان</w>"
    ],
    [
      "ط",
      "اق"
    ],
    [
      "ہی",
      "کن</w>"
    ],
    [
      "ب",
      "یا"
    ],
    [
      "ت",
      "ل"
    ],
    [
      "ت",
      "ال"
    ],
    [
      "کو",
      "ل"
    ],
    [
      "ن",
      "تی"
    ],
    [
      "باد",
      "شاہ</w>"
    ],
    [
      "س",
      "رو"
    ],
    [
      "ڈ",
      "ٕ</w>"
    ],
    [
      "ر",
      "ٗ"
    ],
    [
      "्",
      "</w>"
    ],
    [
      "دا",
      "د</w>"
    ],
    [
      "وٲ",
      "نٛ"
    ],
    [
      "سا",
      "س</w>"
    ],
    [
      "ن",
      "اک"
    ],
    [
      "تٲ",
      "ری"
    ],
    [
      "ج",
      "ان</w>"
    ],
    [
      "س",
      "وا"
    ],
    [
      "ترٛ",
      "یٚ"
    ],
    [
      "چ",
      "ین"
    ],
    [
      "عال",
      "می</w>"
    ],
    [
      "مت",
      "ٲ"
    ],
    [
      "ی",
      "ی"
    ],
    [
      "چھِ",
      "۔</w>"
    ],
    [
      "ج",
      "ے</w>"
    ],
    [
      "ہ",
      "ین"
    ],
    [
      "ا",
      "پری"
    ],
    [
      "س",
      "ک"
    ],
    [
      "م",
      "ون"
    ],
    [
      "ور",
      "لڈ</w>"
    ],
    [
      "ٲ",
      "نۍ</w>"
    ],
    [
      "تر",
      "٘"
    ],
    [
      "ف",
      "یل"
    ],
    [
      "ترتی",
      "ب</w>"
    ],
    [
      "کم",
      "ل</w>"
    ],
    [
      "الاق",
      "وٲمی</w>"
    ],
    [
      "1",
      "6"
    ],
    [
      "تح",
      "ت</w>"
    ],
    [
      "و",
      "سط"
    ],
    [
      "گ",
      "ڑ"
    ],
    [
      "امری",
      "کہ</w>"
    ],
    [
      "مان",
      "نہٕ</w>"
    ],
    [
      "یو",
      "ان،</w>"
    ],
    [
      "ب",
      "ۄ"
    ],
    [
      "س",
      "پی"
    ],
    [
      "د",
      "َ"
    ],
    [
      "201",
      "0</w>"
    ],
    [
      "ٹ",
      "ل</w>"
    ],
    [
      "ہیٚ",
      "کہِ</w>"
    ],
    [
      "بہ",
      "ترین</w>"
    ],
    [
      "پرٛ",
      "ٮ۪تھ</w>"
    ],
    [
      "ر",
      "نگ"
    ],
    [
      "لٹ",
      "ہ</w>"
    ],
    [
      "2",
      "2</w>"
    ],
    [
      "ا",
      "ث"
    ],
    [
      "آ",
      "مت"
    ],
    [
      "وۄ",
      "نۍ</w>"
    ],
    [
      "م",
      "لین</w>"
    ],
    [
      "201",
      "4</w>"
    ],
    [
      "ناو",
      "ٕ</w>"
    ],
    [
      "آ",
      "با"
    ],
    [
      "ی",
      "ق"
    ],
    [
      "ٲ",
      "نہِ</w>"
    ],
    [
      "ت",
      "ک</w>"
    ],
    [
      "کَ",
      "ر"
    ],
    [
      "خیا",
      "ل</w>"
    ],
    [
      "پنٛ",
      "نس</w>"
    ],
    [
      "س",
      "ٔ"
    ],
    [
      "ش",
      "ہ</w>"
    ],
    [
      "ز",
      "یو"
    ],
    [
      "ع",
      "ی</w>"
    ],
    [
      "ٹ",
      "،</w>"
    ],
    [
      "س",
      "مٲ"
    ],
    [
      "پ",
      "ن</w>"
    ],
    [
      "گ",
      "ا</w>"
    ],
    [
      "ج",
      "ہا"
    ],
    [
      "ض",
      "ِ"
    ],
    [
      "ح",
      "د</w>"
    ],
    [
      "ُ",
      "ست"
    ],
    [
      "گِ",
      "نٛد"
    ],
    [
      "گ",
      "ن</w>"
    ],
    [
      "ای",
      "ش"
    ],
    [
      "ت",
      "ل</w>"
    ],
    [
      "ق",
      "اف"
    ],
    [
      "ق",
      "س</w>"
    ],
    [
      "ف",
      "ر</w>"
    ],
    [
      "آ",
      "مُت۔</w>"
    ],
    [
      "ج",
      "ایہ</w>"
    ],
    [
      "تر",
      "قی</w>"
    ],
    [
      "بنی",
      "ٲدی</w>"
    ],
    [
      "ب",
      "ری"
    ],
    [
      "ض",
      "لع"
    ],
    [
      "ہی",
      "تھ</w>"
    ],
    [
      "پن",
      "ٕنہِ</w>"
    ],
    [
      "ڈ",
      "و</w>"
    ],
    [
      "گ",
      "را"
    ],
    [
      "ند",
      "ٕ</w>"
    ],
    [
      "ط",
      "ہٕ</w>"
    ],
    [
      "می",
      "ر</w>"
    ],
    [
      "ल",
      "</w>"
    ],
    [
      "شروٗ",
      "ع</w>"
    ],
    [
      "ان",
      "ا</w>"
    ],
    [
      "س",
      "تہٕ</w>"
    ],
    [
      "ق",
      "ون"
    ],
    [
      "کٔرِ",
      "و</w>"
    ],
    [
      "ك",
      "ن</w>"
    ],
    [
      "چ",
      "ر"
    ],
    [
      "تب",
      "دی"
    ],
    [
      "وُ",
      "ر</w>"
    ],
    [
      "سٹ",
      "ر"
    ],
    [
      "؟",
      "</w>"
    ],
    [
      "ک",
      "لی"
    ],
    [
      "ٲ",
      "و</w>"
    ],
    [
      "کرن",
      "ہٕ،</w>"
    ],
    [
      "ن",
      "و</w>"
    ],
    [
      "نیا",
      "ہس</w>"
    ],
    [
      "ام",
      "ہٕ</w>"
    ],
    [
      "ہٕنٛد",
      "س</w>"
    ],
    [
      "201",
      "3</w>"
    ],
    [
      "ج",
      "ُ"
    ],
    [
      "تھ",
      "اونہٕ</w>"
    ],
    [
      "می",
      "ک</w>"
    ],
    [
      "و",
      "ز</w>"
    ],
    [
      "سُ",
      "ند</w>"
    ],
    [
      "ٕ",
      "ک</w>"
    ],
    [
      "می",
      "ڈ"
    ],
    [
      "آ",
      "ٮٔ"
    ],
    [
      "م",
      "وا"
    ],
    [
      "ٮ۪",
      "و</w>"
    ],
    [
      "ث",
      "قاف"
    ],
    [
      "جا",
      "ے</w>"
    ],
    [
      "آ",
      "مت۔</w>"
    ],
    [
      "ر",
      "ٹ"
    ],
    [
      "ری",
      "،</w>"
    ],
    [
      "اص",
      "لی</w>"
    ],
    [
      "بن",
      "د</w>"
    ],
    [
      "تق",
      "سی"
    ],
    [
      "لِ",
      "تھ</w>"
    ],
    [
      "دۄشوٕ",
      "نی</w>"
    ],
    [
      "سٕ",
      "نٛزِ</w>"
    ],
    [
      "ل",
      "یو"
    ],
    [
      "آ",
      "ز"
    ],
    [
      "ک",
      "،</w>"
    ],
    [
      "کِ",
      "و</w>"
    ],
    [
      "کرن",
      "ُک</w>"
    ],
    [
      "مشہ",
      "وٗر</w>"
    ],
    [
      "ا",
      "عل"
    ],
    [
      "آس",
      "نہٕ</w>"
    ],
    [
      "ک",
      "ے</w>"
    ],
    [
      "ییٚ",
      "تہ</w>"
    ],
    [
      "آ",
      "یی</w>"
    ],
    [
      "اپری",
      "ل</w>"
    ],
    [
      "ییٚ",
      "مہ</w>"
    ],
    [
      "انڈ",
      "یا</w>"
    ],
    [
      "ح",
      "و"
    ],
    [
      "ض",
      "</w>"
    ],
    [
      "1",
      "5</w>"
    ],
    [
      "آ",
      "مٗت</w>"
    ],
    [
      "ت",
      "اہ</w>"
    ],
    [
      "سا",
      "تہٕ</w>"
    ],
    [
      "کی",
      "ٛا"
    ],
    [
      "ئ",
      "ن</w>"
    ],
    [
      "بٲ",
      "تھ</w>"
    ],
    [
      "ر",
      "ٲ"
    ],
    [
      "کی",
      "نی"
    ],
    [
      "ام",
      "ِ"
    ],
    [
      "ہِنٛد",
      "ُست"
    ],
    [
      "پ",
      "انس</w>"
    ],
    [
      "ور",
      "ِ</w>"
    ],
    [
      "اک",
      "ی</w>"
    ],
    [
      "سی",
      "ری"
    ],
    [
      "ا",
      "ی</w>"
    ],
    [
      "اک",
      "تو"
    ],
    [
      "عق",
      "د</w>"
    ],
    [
      "بن",
      "یو"
    ],
    [
      "ل",
      "ر</w>"
    ],
    [
      "'",
      "</w>"
    ],
    [
      "س",
      "وٗ</w>"
    ],
    [
      "م",
      "ک"
    ],
    [
      "س",
      "ند</w>"
    ],
    [
      "ا",
      "نٛد"
    ],
    [
      "سپد",
      "ان</w>"
    ],
    [
      "ور",
      "ٲ"
    ],
    [
      "أ",
      "مۍ</w>"
    ],
    [
      "تکیا",
      "ز</w>"
    ],
    [
      "د",
      "ور</w>"
    ],
    [
      "دی",
      "م</w>"
    ],
    [
      "تج",
      "وی"
    ],
    [
      "خ",
      "ت</w>"
    ],
    [
      "چھِ",
      "و</w>"
    ],
    [
      "ب",
      "ے</w>"
    ],
    [
      "نف",
      "ر</w>"
    ],
    [
      "مطٲب",
      "ق</w>"
    ],
    [
      "ئ",
      "ر"
    ],
    [
      "پنٛ",
      "نہ</w>"
    ],
    [
      "م",
      "انس</w>"
    ],
    [
      "ف",
      "ہر"
    ],
    [
      "ज़",
      "</w>"
    ],
    [
      "د",
      "ھ</w>"
    ],
    [
      "نزدیٖ",
      "ک</w>"
    ],
    [
      "ٕ",
      "كہِ</w>"
    ],
    [
      "یو",
      "٘"
    ],
    [
      "ذ",
      "ری"
    ],
    [
      "ت",
      "نا"
    ],
    [
      "ک",
      "مر"
    ],
    [
      "क",
      "र"
    ],
    [
      "ش",
      "ش</w>"
    ],
    [
      "و",
      "ری"
    ],
    [
      "دس",
      "مبر</w>"
    ],
    [
      "ٹ",
      "ائ"
    ],
    [
      "ڈ",
      "ین"
    ],
    [
      "امری",
      "ک"
    ],
    [
      "ڈ",
      "ری"
    ],
    [
      "201",
      "2</w>"
    ],
    [
      "ب",
      "ہ</w>"
    ],
    [
      "س",
      "ہ"
    ],
    [
      "ڈ",
      "اک"
    ],
    [
      "س",
      "ۍ</w>"
    ],
    [
      "حم",
      "لہٕ</w>"
    ],
    [
      "ع",
      "مل</w>"
    ],
    [
      "ٲس",
      "ِتھ</w>"
    ],
    [
      "ق",
      "ٲی"
    ],
    [
      "ریلی",
      "ز</w>"
    ],
    [
      "ق",
      "ان"
    ],
    [
      "س",
      "ور"
    ],
    [
      "ت",
      "ُک</w>"
    ],
    [
      "حال",
      "انٛ"
    ],
    [
      "5",
      "0</w>"
    ],
    [
      "سٕنٛد",
      "س</w>"
    ],
    [
      "اب",
      "ت"
    ],
    [
      "مع",
      "ام"
    ],
    [
      "مِ",
      "ہ</w>"
    ],
    [
      "ک",
      "امی"
    ],
    [
      "لوٗ",
      "کھ</w>"
    ],
    [
      "آٮٔ",
      "ی</w>"
    ],
    [
      "م",
      "را"
    ],
    [
      "گ",
      "یہ</w>"
    ],
    [
      "حکو",
      "ٗ"
    ],
    [
      "ش",
      "ہٕ</w>"
    ],
    [
      "كو٘",
      "ر</w>"
    ],
    [
      "ق",
      "دیم</w>"
    ],
    [
      "ك",
      "ٗن</w>"
    ],
    [
      "ب",
      "ت</w>"
    ],
    [
      "تٔ",
      "مِس</w>"
    ],
    [
      "ت",
      "تھ</w>"
    ],
    [
      "مار",
      "چ</w>"
    ],
    [
      "ا",
      "تھ"
    ],
    [
      "مُ",
      "ط"
    ],
    [
      "لِ",
      "ف</w>"
    ],
    [
      "ق",
      "اب"
    ],
    [
      "نو",
      "مبر</w>"
    ],
    [
      "آس",
      "ان،</w>"
    ],
    [
      "ش",
      "س</w>"
    ],
    [
      "ی",
      "،</w>"
    ],
    [
      "کی",
      "و</w>"
    ],
    [
      "وٲ",
      "یی</w>"
    ],
    [
      "ا",
      "تن</w>"
    ],
    [
      "دور",
      "س</w>"
    ],
    [
      "ا",
      "ثر</w>"
    ],
    [
      "ف",
      "رو"
    ],
    [
      "ای",
      "ک"
    ],
    [
      "%",
      "</w>"
    ],
    [
      "خ",
      "ری"
    ],
    [
      "خا",
      "طرٕ</w>"
    ],
    [
      "یونیور",
      "سٹی</w>"
    ],
    [
      "ای",
      "چ</w>"
    ],
    [
      "کاؤن",
      "ٹی</w>"
    ],
    [
      "ہندوستٲ",
      "نہِ</w>"
    ],
    [
      "سلطن",
      "ت</w>"
    ],
    [
      "بہ",
      "تر</w>"
    ],
    [
      "ام",
      "۔</w>"
    ],
    [
      "پو",
      "نٛ"
    ],
    [
      "من",
      "اونہٕ</w>"
    ],
    [
      "ت",
      "ف"
    ],
    [
      "پ",
      "ہ"
    ],
    [
      "ہ",
      "ار</w>"
    ],
    [
      "یا",
      "ت</w>"
    ],
    [
      "ست",
      "ھ"
    ],
    [
      "ور",
      "انہٕ</w>"
    ],
    [
      "تھ",
      "ی</w>"
    ],
    [
      "زی",
      "د</w>"
    ],
    [
      "ف",
      "س</w>"
    ],
    [
      "ہٕ",
      "ند"
    ],
    [
      "مرک",
      "زی</w>"
    ],
    [
      "پو",
      "لی"
    ],
    [
      "ؤ",
      "</w>"
    ],
    [
      "ت",
      "اب"
    ],
    [
      "مت",
      "س</w>"
    ],
    [
      "کی",
      "نٛ"
    ],
    [
      "ہِنٛد",
      "ِس</w>"
    ],
    [
      "تہ",
      "ۍ</w>"
    ],
    [
      "ن",
      "نہٕ</w>"
    ],
    [
      "گٔ",
      "یہ</w>"
    ],
    [
      "و",
      "یل"
    ],
    [
      "وا",
      "رٕ</w>"
    ],
    [
      "مد",
      "تھ</w>"
    ],
    [
      "201",
      "1</w>"
    ],
    [
      "ییل",
      "ہِ</w>"
    ],
    [
      "ے",
      "،</w>"
    ],
    [
      "پ",
      "ان</w>"
    ],
    [
      "چی",
      "ٖ"
    ],
    [
      "وِ",
      "ی</w>"
    ],
    [
      "پی",
      "ن</w>"
    ],
    [
      "و",
      "ین"
    ],
    [
      "ا",
      "،</w>"
    ],
    [
      "واج",
      "یٚ"
    ],
    [
      "پ",
      "ور</w>"
    ],
    [
      "س",
      "یٚ"
    ],
    [
      "جم",
      "ع</w>"
    ],
    [
      "کین",
      "ژن</w>"
    ],
    [
      "ب",
      "۔</w>"
    ],
    [
      "نٛد",
      "ۍ</w>"
    ],
    [
      "مقاب",
      "لہٕ</w>"
    ],
    [
      "و",
      "ٚ"
    ],
    [
      "ٹھ",
      "س</w>"
    ],
    [
      "ز",
      "بٲ"
    ],
    [
      "لی",
      "کھ"
    ],
    [
      "کٔر",
      "تھ۔</w>"
    ],
    [
      "“",
      "</w>"
    ],
    [
      "بو",
      "ل</w>"
    ],
    [
      "ص",
      "ن"
    ],
    [
      "ذ",
      "ِ"
    ],
    [
      "حکو",
      "مت</w>"
    ],
    [
      "ع",
      "ر"
    ],
    [
      "کلو",
      "میٹر</w>"
    ],
    [
      "جاز",
      "ت</w>"
    ],
    [
      "ٕ",
      "چہِ</w>"
    ],
    [
      "20",
      "20</w>"
    ],
    [
      "پ",
      "ٗ"
    ],
    [
      "چ",
      "ند"
    ],
    [
      "گۄڈ",
      "ٕ</w>"
    ],
    [
      "دو",
      "ہ</w>"
    ],
    [
      "ہ",
      "ائ"
    ],
    [
      "اکتو",
      "بر</w>"
    ],
    [
      "ری",
      "۔</w>"
    ],
    [
      "ییٚ",
      "مۍ</w>"
    ],
    [
      "پ",
      "ر</w>"
    ],
    [
      "ج",
      "ار"
    ],
    [
      "ن",
      "ر"
    ],
    [
      "نی",
      "ر"
    ],
    [
      "छ",
      "ु"
    ],
    [
      "و",
      "ک</w>"
    ],
    [
      "ش",
      "مٲلی</w>"
    ],
    [
      "200",
      "8</w>"
    ],
    [
      "چھ",
      "،</w>"
    ],
    [
      "کرن",
      "ک</w>"
    ],
    [
      "म",
      "</w>"
    ],
    [
      "ت",
      "یا"
    ],
    [
      "م",
      "زید</w>"
    ],
    [
      "ژ",
      "ور</w>"
    ],
    [
      "ت",
      "جر"
    ],
    [
      "گوٚ",
      "و،</w>"
    ],
    [
      "دِ",
      "و"
    ],
    [
      "ج",
      "ٲ"
    ],
    [
      "یم",
      "ہٕ</w>"
    ],
    [
      "ست",
      "مبر</w>"
    ],
    [
      "ش",
      "ای"
    ],
    [
      "آ",
      "ن</w>"
    ],
    [
      "من",
      "ٹ"
    ],
    [
      "فر",
      "ان"
    ],
    [
      "ا",
      "ہس</w>"
    ],
    [
      "یِو",
      "ان،</w>"
    ],
    [
      "گ",
      "یو"
    ],
    [
      "س",
      "وُ"
    ],
    [
      "نِ",
      "ہ</w>"
    ],
    [
      "ص",
      "در</w>"
    ],
    [
      "20",
      "19</w>"
    ],
    [
      "ش",
      "پ</w>"
    ],
    [
      "ما",
      "ت</w>"
    ],
    [
      "پار",
      "ٹی</w>"
    ],
    [
      "ہن",
      "زِ</w>"
    ],
    [
      "ح",
      "وا"
    ],
    [
      "بن",
      "ی</w>"
    ],
    [
      "ت",
      "ری</w>"
    ],
    [
      "ب",
      "یل"
    ],
    [
      "م",
      "ری"
    ],
    [
      "خ",
      "طرٕ</w>"
    ],
    [
      "ک",
      "نی"
    ],
    [
      "ت",
      "یل"
    ],
    [
      "2",
      "5</w>"
    ],
    [
      "رق",
      "م</w>"
    ],
    [
      "्",
      "र"
    ],
    [
      "ہند",
      "ین</w>"
    ],
    [
      "د",
      "ف"
    ],
    [
      "پور",
      "ٕ</w>"
    ],
    [
      "پ",
      "ون"
    ],
    [
      "م",
      "ایہ</w>"
    ],
    [
      "ز",
      "و</w>"
    ],
    [
      "ز",
      "نہٕ</w>"
    ],
    [
      "یا",
      "د</w>"
    ],
    [
      "اگ",
      "ست</w>"
    ],
    [
      "سار",
      "وِی</w>"
    ],
    [
      "او",
      "ر"
    ],
    [
      "ی",
      "لا"
    ],
    [
      "ش",
      "اہ"
    ],
    [
      "1",
      "6</w>"
    ],
    [
      "آمٕ",
      "ژ</w>"
    ],
    [
      "را",
      "ت</w>"
    ],
    [
      "فر",
      "وری</w>"
    ],
    [
      "نز",
      "دی"
    ],
    [
      "ٲخ",
      "رس</w>"
    ],
    [
      "مو",
      "ق"
    ],
    [
      "ل",
      "َن</w>"
    ],
    [
      ")",
      "،</w>"
    ],
    [
      "شہ",
      "رس</w>"
    ],
    [
      "ک",
      "او"
    ],
    [
      "ہٗ",
      "نٛد</w>"
    ],
    [
      "گۄڈ",
      "نِ"
    ],
    [
      "ہ",
      "اونہٕ</w>"
    ],
    [
      "ان",
      "َن</w>"
    ],
    [
      "ہنٛد",
      "س</w>"
    ],
    [
      "ست",
      "ی</w>"
    ],
    [
      "س",
      "م</w>"
    ],
    [
      "201",
      "7</w>"
    ],
    [
      "ج",
      "زی"
    ],
    [
      "-",
      "</w>"
    ],
    [
      "پ",
      "ٹ"
    ],
    [
      "ش",
      "خ"
    ],
    [
      "دی",
      "و</w>"
    ],
    [
      "ن",
      "ص"
    ],
    [
      "گو",
      "ڑ"
    ],
    [
      "ریاست",
      "س</w>"
    ],
    [
      "کو",
      "ُ"
    ],
    [
      "سٕنٛد",
      "ۍ</w>"
    ],
    [
      "1",
      "8</w>"
    ],
    [
      "وق",
      "ت</w>"
    ],
    [
      "شہ",
      "ر۔</w>"
    ],
    [
      "ش",
      "۔</w>"
    ],
    [
      "گ",
      "ار"
    ],
    [
      "چھُ",
      "نہٕ</w>"
    ],
    [
      "ذ",
      "ا</w>"
    ],
    [
      "چ",
      "ی</w>"
    ],
    [
      "کر",
      "ُن</w>"
    ],
    [
      "چھ",
      "ےٚ"
    ],
    [
      "ع",
      "د"
    ],
    [
      "ك",
      "ار"
    ],
    [
      "و",
      "ف"
    ],
    [
      "کٔرمٕ",
      "ژ۔</w>"
    ],
    [
      "س",
      "ڑ"
    ],
    [
      "نی",
      "ُک</w>"
    ],
    [
      "سر",
      "کٲ"
    ],
    [
      "م",
      "ست"
    ],
    [
      "م",
      "بنی</w>"
    ],
    [
      "چیم",
      "پ"
    ],
    [
      "ہندوستٲ",
      "نۍ</w>"
    ],
    [
      "ج",
      "ایہِ</w>"
    ],
    [
      "پری",
      "تھ</w>"
    ],
    [
      "مُق",
      "اب"
    ],
    [
      "1",
      "4</w>"
    ],
    [
      "1",
      "7</w>"
    ],
    [
      "و",
      "نٛنہٕ</w>"
    ],
    [
      "سط",
      "ح</w>"
    ],
    [
      "ع",
      "ظ"
    ],
    [
      "با",
      "س"
    ],
    [
      "آ",
      "مد"
    ],
    [
      "متٲ",
      "ثر</w>"
    ],
    [
      "من",
      "تق"
    ],
    [
      "چ",
      "ین</w>"
    ],
    [
      "بی",
      "ٛ"
    ],
    [
      "ا",
      "خ"
    ],
    [
      "ق",
      "یاد"
    ],
    [
      "کِر",
      "دار</w>"
    ],
    [
      "ٲخ",
      "ری</w>"
    ],
    [
      "ج",
      "ٲی"
    ],
    [
      "س",
      "ین</w>"
    ],
    [
      "خ",
      "ی</w>"
    ],
    [
      "ش",
      "و</w>"
    ],
    [
      "دریا",
      "و</w>"
    ],
    [
      "छ",
      "ि</w>"
    ],
    [
      "ن",
      "ٹ"
    ],
    [
      "ان",
      "و</w>"
    ],
    [
      "ریٖ",
      "ن</w>"
    ],
    [
      "ہی",
      "كہِ</w>"
    ],
    [
      "او",
      "ر</w>"
    ],
    [
      "ٲ",
      "فی</w>"
    ],
    [
      "سپ",
      "ور"
    ],
    [
      "ب",
      "وٗ"
    ],
    [
      "دٕ",
      "سہِ</w>"
    ],
    [
      "تی",
      "ز</w>"
    ],
    [
      "ٹی",
      "ک"
    ],
    [
      "واری",
      "ٛاہ</w>"
    ],
    [
      "قٲی",
      "م</w>"
    ],
    [
      "201",
      "8</w>"
    ],
    [
      "َ",
      "</w>"
    ],
    [
      "تام",
      "ل</w>"
    ],
    [
      "تیٚ",
      "لہِ</w>"
    ],
    [
      "آمٕ",
      "تہِ</w>"
    ],
    [
      "شٲمِ",
      "ل۔</w>"
    ],
    [
      "آس",
      "ہٕ</w>"
    ],
    [
      "لینڈ",
      "س</w>"
    ],
    [
      "ز",
      "ر</w>"
    ],
    [
      "باقٕ",
      "ے</w>"
    ],
    [
      "روز",
      "ان۔</w>"
    ],
    [
      "छु",
      "</w>"
    ],
    [
      "ا",
      "ج"
    ],
    [
      "َ",
      "ر</w>"
    ],
    [
      "ف",
      "ال"
    ],
    [
      "ظٲ",
      "ہر</w>"
    ],
    [
      "ر",
      "قص"
    ],
    [
      "نٛ",
      "ڈ</w>"
    ],
    [
      "ت",
      "اہ"
    ],
    [
      "سٗ",
      "ند</w>"
    ],
    [
      "ب",
      "یان</w>"
    ],
    [
      "ان",
      "ک</w>"
    ],
    [
      "گ",
      "لو"
    ],
    [
      "ییل",
      "ہٕ</w>"
    ],
    [
      "ون",
      "س</w>"
    ],
    [
      "ت",
      "ار</w>"
    ],
    [
      "ك",
      "ین"
    ],
    [
      "ذ",
      "ریعہٕ</w>"
    ],
    [
      "٘",
      "ہہ</w>"
    ],
    [
      "آ",
      "غ"
    ],
    [
      "یم",
      "ہ</w>"
    ],
    [
      "و",
      "ض"
    ],
    [
      "کوٚ",
      "ر۔</w>"
    ],
    [
      "وٗ",
      "ن</w>"
    ],
    [
      "با",
      "سان</w>"
    ],
    [
      "ہندوستان",
      "َس</w>"
    ],
    [
      "پنٛ",
      "نہِ</w>"
    ],
    [
      "201",
      "6</w>"
    ],
    [
      "با",
      "ہ</w>"
    ],
    [
      "ع",
      "ت</w>"
    ],
    [
      "خرا",
      "ب</w>"
    ],
    [
      "مٕ",
      "ژ۔</w>"
    ],
    [
      "فِل",
      "مہِ</w>"
    ],
    [
      "آ",
      "ن"
    ],
    [
      "سر",
      "مایہ</w>"
    ],
    [
      "كر",
      "ن</w>"
    ],
    [
      "ک",
      "یا</w>"
    ],
    [
      "وٕ",
      "چھ"
    ],
    [
      "صو",
      "بہٕ</w>"
    ],
    [
      "ٕ",
      "ن</w>"
    ],
    [
      "مُط",
      "ٲب"
    ],
    [
      "ترٛ",
      "ےٚ</w>"
    ],
    [
      "فِ",
      "لِ"
    ],
    [
      "ای",
      "ر"
    ],
    [
      "ل",
      "ک</w>"
    ],
    [
      "ب",
      "ڈ"
    ],
    [
      "د",
      "ٲخ"
    ],
    [
      "ٲس",
      "ی</w>"
    ],
    [
      "پ",
      "ہا"
    ],
    [
      "د",
      "،</w>"
    ],
    [
      "تِ",
      "مَن</w>"
    ],
    [
      "چ",
      "س</w>"
    ],
    [
      "1",
      "1</w>"
    ],
    [
      "ییٚ",
      "تہِ</w>"
    ],
    [
      "ل",
      "ان</w>"
    ],
    [
      "تیٚ",
      "لہ</w>"
    ],
    [
      "ف",
      "ون</w>"
    ],
    [
      "د",
      "ین</w>"
    ],
    [
      "وٲ",
      "لِس</w>"
    ],
    [
      "کھلٲڑ",
      "ۍ</w>"
    ],
    [
      "ا",
      "طلا"
    ],
    [
      "کٮ۪",
      "نٛہہ</w>"
    ],
    [
      "سٕند",
      "ِ</w>"
    ],
    [
      "دٔ",
      "لیٖ"
    ],
    [
      "ص",
      "ور"
    ],
    [
      "\"",
      "۔</w>"
    ],
    [
      "اند",
      "ر</w>"
    ],
    [
      "جن",
      "سی</w>"
    ],
    [
      "م",
      "ور"
    ],
    [
      "وسط",
      "ی</w>"
    ],
    [
      "ر",
      "ل</w>"
    ],
    [
      "؛",
      "</w>"
    ],
    [
      "گژھ",
      "ِ</w>"
    ],
    [
      "را",
      "ج</w>"
    ],
    [
      "ب",
      "ط"
    ],
    [
      "مَ",
      "و</w>"
    ],
    [
      "مت",
      "ح"
    ],
    [
      "ل",
      "نہٕ</w>"
    ],
    [
      "ک",
      "یو"
    ],
    [
      "ل",
      "گا"
    ],
    [
      "فوج",
      "ی</w>"
    ],
    [
      "وۄ",
      "نہِ</w>"
    ],
    [
      "نو",
      "ٚو</w>"
    ],
    [
      "ک",
      "ٹر"
    ],
    [
      "تم",
      "ِس</w>"
    ],
    [
      "ا",
      "كِس</w>"
    ],
    [
      "ت",
      "س"
    ],
    [
      "ٹھ",
      "ا</w>"
    ],
    [
      "ی",
      "ُک</w>"
    ],
    [
      "ت",
      "ٕچ</w>"
    ],
    [
      "ھ",
      "ی</w>"
    ],
    [
      "ق",
      "ٲب"
    ],
    [
      "من",
      "زٕ</w>"
    ],
    [
      "ست",
      "ان</w>"
    ],
    [
      "ٲس",
      "ِ"
    ],
    [
      "او",
      "نس</w>"
    ],
    [
      "و",
      "ٹ"
    ],
    [
      "ہ",
      "م"
    ],
    [
      "ا",
      "ف</w>"
    ],
    [
      "ان",
      "َس</w>"
    ],
    [
      "گۄ",
      "ڑ"
    ],
    [
      "ٹ",
      "ری</w>"
    ],
    [
      "تبدی",
      "ل</w>"
    ],
    [
      "و",
      "ے</w>"
    ],
    [
      "وُ",
      "ن</w>"
    ],
    [
      "اِ",
      "ست"
    ],
    [
      "ر",
      "وای"
    ],
    [
      "س",
      "کر"
    ],
    [
      "ر",
      "ٛ"
    ],
    [
      "ز",
      "می"
    ],
    [
      "ل",
      "ند"
    ],
    [
      "می",
      "چ</w>"
    ],
    [
      "قی",
      "ٖ"
    ],
    [
      "پا",
      "نٛ"
    ],
    [
      "ف",
      "ائ"
    ],
    [
      "پوُ",
      "رٕ</w>"
    ],
    [
      "باق",
      "ین</w>"
    ],
    [
      "ا",
      "د</w>"
    ],
    [
      "س",
      "َس</w>"
    ],
    [
      "ذ",
      "ٲتی</w>"
    ],
    [
      "کھیل",
      "ن</w>"
    ],
    [
      "ش",
      "ل</w>"
    ],
    [
      "چیمپ",
      "ئن</w>"
    ],
    [
      "دٔ",
      "ریا"
    ],
    [
      "ت",
      "َن</w>"
    ],
    [
      "ل",
      "ن"
    ],
    [
      "وا",
      "ض"
    ],
    [
      "خ",
      "وا"
    ],
    [
      "بن",
      "اوان</w>"
    ],
    [
      "ج",
      "نگ</w>"
    ],
    [
      "د",
      "ان</w>"
    ],
    [
      "ض",
      "ی</w>"
    ],
    [
      "گژھ",
      "ان،</w>"
    ],
    [
      "مق",
      "صد</w>"
    ],
    [
      "او",
      "ی"
    ],
    [
      "ٹ",
      "رس</w>"
    ],
    [
      "سُ",
      "ہٕ</w>"
    ],
    [
      "واق",
      "ع۔</w>"
    ],
    [
      "ب",
      "لی"
    ],
    [
      "كٕ",
      "ر</w>"
    ],
    [
      "ہ",
      "اکی</w>"
    ],
    [
      "نِ",
      "تھ</w>"
    ],
    [
      "ٹ",
      "یلی</w>"
    ],
    [
      "دو",
      "بارٕ</w>"
    ],
    [
      "ڈ",
      "ای"
    ],
    [
      "ب",
      "نٛد</w>"
    ],
    [
      "عم",
      "وٗ"
    ],
    [
      "0",
      ",000</w>"
    ],
    [
      "ما",
      "یا"
    ],
    [
      "ہ",
      "دایت</w>"
    ],
    [
      "ہیٚ",
      "کِو</w>"
    ],
    [
      "ال",
      "ب"
    ],
    [
      "ت",
      "ری"
    ],
    [
      "س",
      "من"
    ],
    [
      "حوا",
      "لہٕ</w>"
    ],
    [
      "ر",
      "گ"
    ],
    [
      "پی",
      "مانس</w>"
    ],
    [
      "کیر",
      "الہ</w>"
    ],
    [
      "آ",
      "ئ"
    ],
    [
      "ش",
      "َ"
    ],
    [
      "ك",
      "ٕنہِ</w>"
    ],
    [
      "ِ",
      "م</w>"
    ],
    [
      "ج",
      "ا</w>"
    ],
    [
      "ل",
      "ہ"
    ],
    [
      "کام",
      "یاب</w>"
    ],
    [
      "ی",
      "یمہِ</w>"
    ],
    [
      "کر",
      "ِ</w>"
    ],
    [
      "ض",
      "لعہٕ</w>"
    ],
    [
      "ہ",
      "لا"
    ],
    [
      "ح",
      "ُ"
    ],
    [
      "19",
      "3"
    ],
    [
      "یوٗ",
      "ت</w>"
    ],
    [
      "ا",
      "ظ"
    ],
    [
      "گ",
      "س</w>"
    ],
    [
      "ہیٚ",
      "کو</w>"
    ],
    [
      "ہی",
      "کہ</w>"
    ],
    [
      "س",
      "ری</w>"
    ],
    [
      "ست",
      "انس</w>"
    ],
    [
      "د",
      "ا</w>"
    ],
    [
      "ك",
      "م</w>"
    ],
    [
      "اعل",
      "ان</w>"
    ],
    [
      "ت",
      "یو"
    ],
    [
      "سند",
      "ِس</w>"
    ],
    [
      "थ",
      "</w>"
    ],
    [
      "کیا",
      "زِ</w>"
    ],
    [
      "ور",
      "ٕ</w>"
    ],
    [
      "ہ",
      "ری"
    ],
    [
      "ُ",
      "ن۔</w>"
    ],
    [
      "لٹ",
      "ہِ</w>"
    ],
    [
      "وارِیا",
      "ہ</w>"
    ],
    [
      "دِ",
      "یُ"
    ],
    [
      "ڈ",
      "،</w>"
    ],
    [
      "ری",
      "تہٕ</w>"
    ],
    [
      "پونٛ",
      "سہٕ</w>"
    ],
    [
      "گ",
      "یم</w>"
    ],
    [
      "ر",
      "ۄ"
    ],
    [
      "ری",
      "س</w>"
    ],
    [
      "1",
      "3</w>"
    ],
    [
      "I",
      "</w>"
    ],
    [
      "لو",
      "کن</w>"
    ],
    [
      "گٔ",
      "یہِ</w>"
    ],
    [
      "و",
      "زیر</w>"
    ],
    [
      "ج",
      "ر</w>"
    ],
    [
      "سۭ",
      "تۍ۔</w>"
    ],
    [
      "ضرور",
      "ت</w>"
    ],
    [
      "2",
      "4</w>"
    ],
    [
      "ك",
      "و"
    ],
    [
      "مٗ",
      "ن"
    ],
    [
      "س",
      "ک</w>"
    ],
    [
      "تقری",
      "با</w>"
    ],
    [
      "ن",
      "ٗ"
    ],
    [
      "س",
      "ون"
    ],
    [
      "جو",
      "ن</w>"
    ],
    [
      "پ",
      "اک"
    ],
    [
      "ڈ",
      "یل"
    ],
    [
      "ژ",
      "،</w>"
    ],
    [
      "ن",
      "ٮ۪ن</w>"
    ],
    [
      "گو",
      "٘</w>"
    ],
    [
      "ٲ",
      "ٹھ"
    ],
    [
      "ال",
      "س</w>"
    ],
    [
      "اون",
      "ہٕ۔</w>"
    ],
    [
      "ع",
      "وٲمی</w>"
    ],
    [
      "او",
      "سط"
    ],
    [
      "ा",
      "न</w>"
    ],
    [
      "دور",
      "ٕ</w>"
    ],
    [
      "ل",
      "چ"
    ],
    [
      "ز",
      "و"
    ],
    [
      "ل",
      "ے</w>"
    ],
    [
      "کٔر",
      "ۍ</w>"
    ],
    [
      "ک",
      "می"
    ],
    [
      "می",
      "ٹر"
    ],
    [
      "ॅ",
      "</w>"
    ],
    [
      "ر",
      "ے</w>"
    ],
    [
      "چ",
      "ہٕ</w>"
    ],
    [
      "ن",
      "فر"
    ],
    [
      "گَ",
      "ژھ"
    ],
    [
      "آسٹری",
      "ل"
    ],
    [
      "4",
      "0</w>"
    ],
    [
      "کٔرمٕ",
      "ژ</w>"
    ],
    [
      "کیٚ",
      "ن</w>"
    ],
    [
      "ب",
      "غ"
    ],
    [
      "ج",
      "نٛگ"
    ],
    [
      "ت",
      "ہِ۔</w>"
    ],
    [
      "مت",
      "ن</w>"
    ],
    [
      "ر",
      "فت"
    ],
    [
      "ای",
      "نڈ</w>"
    ],
    [
      "ف",
      "ن"
    ],
    [
      "دٔریا",
      "و</w>"
    ],
    [
      "پری",
      "ش"
    ],
    [
      "ڈ",
      "یم"
    ],
    [
      "ا",
      "ٹ"
    ],
    [
      "بن",
      "ٲو"
    ],
    [
      "اداک",
      "ٲری</w>"
    ],
    [
      "وض",
      "اح"
    ],
    [
      "پیٚٹھ",
      "ٕ</w>"
    ],
    [
      "مر",
      "دم</w>"
    ],
    [
      "ा",
      "न"
    ],
    [
      "کٲ",
      "فی</w>"
    ],
    [
      "د",
      "اد"
    ],
    [
      "گا",
      "ڑ"
    ],
    [
      "فٲ",
      "صلہٕ</w>"
    ],
    [
      "ن",
      "ج</w>"
    ],
    [
      "زیا",
      "دٕ"
    ],
    [
      "پن",
      "نین</w>"
    ],
    [
      "وی",
      "ب</w>"
    ],
    [
      "्",
      "य"
    ],
    [
      "ج",
      "ای"
    ],
    [
      "ہ",
      "سپ"
    ],
    [
      "ہَ",
      "م</w>"
    ],
    [
      "پیش",
      "ورانہٕ</w>"
    ],
    [
      "ز",
      "ام"
    ],
    [
      "ش",
      "ت</w>"
    ],
    [
      "ر",
      "ٲب"
    ],
    [
      "علا",
      "ج</w>"
    ],
    [
      "دِ",
      "تھ</w>"
    ],
    [
      "س",
      "فی"
    ],
    [
      "وال",
      "ٮ۪ن</w>"
    ],
    [
      "م",
      "نٛد"
    ],
    [
      "ای",
      "سو"
    ],
    [
      "س",
      "کی"
    ],
    [
      "د",
      "وست"
    ],
    [
      "پ",
      "تہ</w>"
    ],
    [
      "تجوی",
      "ز</w>"
    ],
    [
      "سر",
      "گر"
    ],
    [
      "201",
      "5</w>"
    ],
    [
      "ع",
      "س</w>"
    ],
    [
      "ب",
      "ٕ"
    ],
    [
      "یۄ",
      "س</w>"
    ],
    [
      "اک",
      "ھ۔</w>"
    ],
    [
      "ہف",
      "تہٕ</w>"
    ],
    [
      "ف",
      "ای"
    ],
    [
      "گو",
      "ڈ"
    ],
    [
      "پن",
      "نہ</w>"
    ],
    [
      "اداک",
      "ار</w>"
    ],
    [
      "زب",
      "ان</w>"
    ],
    [
      "نظ",
      "ر</w>"
    ],
    [
      "شر",
      "ح</w>"
    ],
    [
      "دٔ",
      "ری"
    ],
    [
      "ش",
      "ع"
    ],
    [
      "در",
      "جہٕ</w>"
    ],
    [
      "خ",
      "تٔ"
    ],
    [
      "دِ",
      "ژ</w>"
    ],
    [
      "کیٛا",
      "زِ</w>"
    ],
    [
      "فا",
      "ظ"
    ],
    [
      "کٔرِ",
      "تھ۔</w>"
    ],
    [
      "ٹور",
      "نا"
    ],
    [
      "حص",
      "س</w>"
    ],
    [
      "ع",
      "ات</w>"
    ],
    [
      "سم",
      "ہٕ</w>"
    ],
    [
      "کٲ",
      "نٛ"
    ],
    [
      "لوٗ",
      "کن</w>"
    ],
    [
      "کامی",
      "ٲبی</w>"
    ],
    [
      "واض",
      "ح</w>"
    ],
    [
      "را",
      "ز"
    ],
    [
      "ر",
      "ر</w>"
    ],
    [
      "یق",
      "ینی</w>"
    ],
    [
      "ج",
      "ٗ"
    ],
    [
      "لۄ",
      "کٹ"
    ],
    [
      "ل",
      "ٔ"
    ],
    [
      "ہٕنٛد",
      "ِس</w>"
    ],
    [
      ")",
      "۔</w>"
    ],
    [
      "کرن",
      "ہ</w>"
    ],
    [
      "س",
      "وٗ"
    ],
    [
      "مال",
      "س</w>"
    ],
    [
      "ق",
      "د"
    ],
    [
      "ر",
      "تی</w>"
    ],
    [
      "صح",
      "ت</w>"
    ],
    [
      "ج",
      "وا"
    ],
    [
      "مط",
      "ال"
    ],
    [
      "ک",
      "ٹر</w>"
    ],
    [
      "چھٗ",
      "نہٕ</w>"
    ],
    [
      "ن",
      "یا</w>"
    ],
    [
      "و",
      "ِ</w>"
    ],
    [
      "مایا",
      "ں</w>"
    ],
    [
      "ر",
      "او"
    ],
    [
      "ہند",
      "س</w>"
    ],
    [
      "شہ",
      "ری</w>"
    ],
    [
      "ج",
      "دید</w>"
    ],
    [
      "چُ",
      "ھ۔</w>"
    ],
    [
      "ری",
      "لو"
    ],
    [
      "فو",
      "ج</w>"
    ],
    [
      "چ",
      "ینی</w>"
    ],
    [
      "نی",
      "بر</w>"
    ],
    [
      "اطلا",
      "ع</w>"
    ],
    [
      "ؤ",
      "رۍ</w>"
    ],
    [
      "ن",
      "ۍ۔</w>"
    ],
    [
      "ج",
      "ٔ"
    ],
    [
      "خانٛد",
      "ر</w>"
    ],
    [
      "مُ",
      "ت،</w>"
    ],
    [
      "بیا",
      "کھ</w>"
    ],
    [
      "یِ",
      "مو</w>"
    ],
    [
      "گ",
      "ری</w>"
    ],
    [
      "مر",
      "ح"
    ],
    [
      "ڈ",
      "ب"
    ],
    [
      "ٹ",
      "ین</w>"
    ],
    [
      "مہار",
      "اش"
    ],
    [
      "ٹ",
      "ڈ</w>"
    ],
    [
      "1",
      ","
    ],
    [
      "نظ",
      "ام</w>"
    ],
    [
      "پت",
      "ہٕ،</w>"
    ],
    [
      "ك",
      "ہٕ</w>"
    ],
    [
      "ایوار",
      "ڈ</w>"
    ],
    [
      "پا",
      "ل</w>"
    ],
    [
      "پ",
      "تھ</w>"
    ],
    [
      "ح",
      "مل"
    ],
    [
      "اداک",
      "ار"
    ],
    [
      "ك",
      "ٲ"
    ],
    [
      "شٲ",
      "ہی</w>"
    ],
    [
      "و",
      "ون"
    ],
    [
      "دِ",
      "لہِ</w>"
    ],
    [
      "ام",
      "ا</w>"
    ],
    [
      "بغ",
      "او"
    ],
    [
      "تح",
      "ری"
    ],
    [
      "ب",
      "ای"
    ],
    [
      "تقسی",
      "م</w>"
    ],
    [
      "ن",
      "ان</w>"
    ],
    [
      "وا",
      "لی"
    ],
    [
      "اَ",
      "ہَم</w>"
    ],
    [
      "20",
      "21</w>"
    ],
    [
      "اَ",
      "کہِ</w>"
    ],
    [
      "200",
      "7</w>"
    ],
    [
      "مٗ",
      "ل"
    ],
    [
      "ہ",
      "یو"
    ],
    [
      "ک",
      "سی"
    ],
    [
      "ک",
      "۔</w>"
    ],
    [
      "سٹ",
      "و"
    ],
    [
      "نام",
      "ز"
    ],
    [
      "پن",
      "ٗن</w>"
    ],
    [
      "آ",
      "زا"
    ],
    [
      "ت",
      "نظ"
    ],
    [
      "ं",
      "ज़</w>"
    ],
    [
      "ِ",
      "نہِ</w>"
    ],
    [
      "ن",
      "چ</w>"
    ],
    [
      "حِص",
      "ہٕ</w>"
    ],
    [
      "ٛ",
      "ن</w>"
    ],
    [
      "سٕ",
      "نز</w>"
    ],
    [
      "آ",
      "وا"
    ],
    [
      "شِ",
      "ش</w>"
    ],
    [
      "ج",
      "مٲ"
    ],
    [
      "اِست",
      "ع"
    ],
    [
      "لی",
      "ٚ"
    ],
    [
      "حص",
      "ن</w>"
    ],
    [
      "اولمپ",
      "ک</w>"
    ],
    [
      "آ",
      "ف"
    ],
    [
      "کر",
      "نا"
    ],
    [
      "گ",
      "وا"
    ],
    [
      "ق",
      "لع"
    ],
    [
      "تاہ",
      "م،</w>"
    ],
    [
      "آمٕ",
      "ژ۔</w>"
    ],
    [
      "ہ",
      "ا</w>"
    ],
    [
      "ین",
      "ن</w>"
    ],
    [
      "ك",
      "وُ"
    ],
    [
      "وو",
      "ٚ"
    ],
    [
      "اہ",
      "َس</w>"
    ],
    [
      "ے",
      "۔</w>"
    ],
    [
      "1",
      "2"
    ],
    [
      "ڑ",
      "ی</w>"
    ],
    [
      "دار",
      "ن</w>"
    ],
    [
      "ٹ",
      "یو"
    ],
    [
      "ز",
      "ور</w>"
    ],
    [
      "نٔ",
      "تیٖ"
    ],
    [
      "ہِ",
      "مہِ</w>"
    ],
    [
      "ا",
      "ب</w>"
    ],
    [
      "انتظ",
      "ام</w>"
    ],
    [
      "ش",
      "ور"
    ],
    [
      "اک",
      "ی"
    ],
    [
      "دیو",
      "ی</w>"
    ],
    [
      "بد",
      "ل"
    ],
    [
      "اک",
      "ھ"
    ],
    [
      "اض",
      "اف"
    ],
    [
      "م",
      "َس</w>"
    ],
    [
      "ہ",
      "می"
    ],
    [
      "قٲ",
      "یِم</w>"
    ],
    [
      "آز",
      "ٲدی</w>"
    ],
    [
      "فِلِ",
      "م</w>"
    ],
    [
      "گ",
      "رام</w>"
    ],
    [
      "200",
      "0</w>"
    ],
    [
      "ہند",
      "ۍ</w>"
    ],
    [
      "ہِ",
      "ند"
    ],
    [
      "یم",
      "ِس</w>"
    ],
    [
      "ین",
      "ہِ</w>"
    ],
    [
      "ژ",
      "و</w>"
    ],
    [
      "بیٚ",
      "یہ</w>"
    ],
    [
      "ح",
      "کمر"
    ],
    [
      "تخ",
      "ب</w>"
    ],
    [
      "ل",
      "ٗ"
    ],
    [
      "او",
      "س،</w>"
    ],
    [
      "در",
      "جہ</w>"
    ],
    [
      "ُ",
      "ت</w>"
    ],
    [
      "کر",
      "ٛ"
    ],
    [
      "مس",
      "لہٕ</w>"
    ],
    [
      "بند",
      "ی</w>"
    ],
    [
      "200",
      "9</w>"
    ],
    [
      "پنٛ",
      "نِس</w>"
    ],
    [
      "ت",
      "ہنٛد</w>"
    ],
    [
      "تِ",
      "کیازِ</w>"
    ],
    [
      "ڈ",
      "ے</w>"
    ],
    [
      "ک",
      "تھ"
    ],
    [
      "ا",
      "ٮ۪"
    ],
    [
      "غل",
      "ط</w>"
    ],
    [
      "لی",
      "گ</w>"
    ],
    [
      "!",
      "</w>"
    ],
    [
      "کوٚر",
      "مُت۔</w>"
    ],
    [
      "ا",
      "چ"
    ],
    [
      "اع",
      "زا"
    ],
    [
      "1",
      "3"
    ],
    [
      "ح",
      "دس</w>"
    ],
    [
      "سٹ",
      "س</w>"
    ],
    [
      "نٛز",
      "ن</w>"
    ],
    [
      "ش",
      "یٚ"
    ],
    [
      "چ",
      "و</w>"
    ],
    [
      "موجو",
      "دٕ</w>"
    ],
    [
      "ا",
      "جازت</w>"
    ],
    [
      "کٔر",
      "۔</w>"
    ],
    [
      "جن",
      "وُ"
    ],
    [
      "مر",
      "نہٕ</w>"
    ],
    [
      "نی",
      "ک</w>"
    ],
    [
      "ق",
      "یم"
    ],
    [
      "زا",
      "و</w>"
    ],
    [
      "1",
      "00</w>"
    ],
    [
      "خ",
      "س</w>"
    ],
    [
      "ژ",
      "ِ"
    ],
    [
      "کٔ",
      "می</w>"
    ],
    [
      "چی",
      "زن</w>"
    ],
    [
      "ہٮ۪",
      "کن</w>"
    ],
    [
      "تہ",
      "نٛد"
    ],
    [
      "ذری",
      "عہ</w>"
    ],
    [
      "گ",
      "نگ"
    ],
    [
      "بنیو",
      "و</w>"
    ],
    [
      "و",
      "سی"
    ],
    [
      "آس",
      "ہ</w>"
    ],
    [
      "ک",
      "شن"
    ],
    [
      "لگ",
      "اونہٕ</w>"
    ],
    [
      "سطح",
      "س</w>"
    ],
    [
      "من",
      "عقد</w>"
    ],
    [
      "مو",
      "ل</w>"
    ],
    [
      "ند",
      "ھ"
    ],
    [
      "200",
      "6</w>"
    ],
    [
      "تح",
      "قی"
    ],
    [
      "قب",
      "ل</w>"
    ],
    [
      "مٲ",
      "ی"
    ],
    [
      "اوسط",
      "</w>"
    ],
    [
      "م",
      "سی"
    ],
    [
      "سوی",
      "ڈن</w>"
    ],
    [
      "نٛز",
      "ٕ</w>"
    ],
    [
      "ٕ",
      "ل</w>"
    ],
    [
      "دۄ",
      "ہن</w>"
    ],
    [
      "تع",
      "داد</w>"
    ],
    [
      "ٹی",
      "ٖ"
    ],
    [
      "سۭ",
      "ت"
    ],
    [
      "ن",
      "ۄ"
    ],
    [
      "ہ",
      "وٲیی</w>"
    ],
    [
      "سا",
      "فٹ</w>"
    ],
    [
      "سی",
      "ٲسی</w>"
    ],
    [
      "ز",
      "بر"
    ],
    [
      "گٔ",
      "ژھ"
    ],
    [
      "وی",
      "ل</w>"
    ],
    [
      "زیو",
      "ٗن</w>"
    ],
    [
      "أ",
      "مِس</w>"
    ],
    [
      "ن",
      "ٮ۪"
    ],
    [
      "بیٚ",
      "یہِ</w>"
    ],
    [
      "اع",
      "ظ"
    ],
    [
      "قص",
      "ان</w>"
    ],
    [
      "می",
      "ُک</w>"
    ],
    [
      "ت",
      "باہ</w>"
    ],
    [
      "سن",
      "ز</w>"
    ],
    [
      "خ",
      "صو"
    ],
    [
      "مٕ",
      "چ</w>"
    ],
    [
      "د",
      "وا"
    ],
    [
      "روٗ",
      "د</w>"
    ],
    [
      "ریاست",
      "ی</w>"
    ],
    [
      "أ",
      "مہِ</w>"
    ],
    [
      "کان",
      "گری"
    ],
    [
      "سمن",
      "دری</w>"
    ],
    [
      "م",
      "د</w>"
    ],
    [
      "اح",
      "ساس</w>"
    ],
    [
      "ف",
      "ری</w>"
    ],
    [
      "س",
      "ان"
    ],
    [
      "ض",
      "روُ"
    ],
    [
      "مد",
      "ھ"
    ],
    [
      "آبا",
      "د</w>"
    ],
    [
      "گُ",
      "ز"
    ],
    [
      "ای",
      "ل"
    ],
    [
      "اب",
      "س</w>"
    ],
    [
      "وو",
      "ت</w>"
    ],
    [
      "تِ",
      "مو</w>"
    ],
    [
      "ر",
      "م</w>"
    ],
    [
      "ش",
      "مال</w>"
    ],
    [
      "چ",
      "ر</w>"
    ],
    [
      "م",
      "کمل</w>"
    ],
    [
      "دار",
      "س</w>"
    ],
    [
      "م",
      "ے٘</w>"
    ],
    [
      "ک",
      "ڑ"
    ],
    [
      "خ",
      "طر"
    ],
    [
      "ر",
      "ہن"
    ],
    [
      "مُطٲب",
      "ِق</w>"
    ],
    [
      "ما",
      "لی"
    ],
    [
      "ی",
      "ک</w>"
    ],
    [
      "ست",
      "س</w>"
    ],
    [
      "فِل",
      "م</w>"
    ],
    [
      "ن",
      "اونہٕ</w>"
    ],
    [
      "لگا",
      "تار</w>"
    ],
    [
      "مذہ",
      "بی</w>"
    ],
    [
      "من",
      "د</w>"
    ],
    [
      "س",
      "ا</w>"
    ],
    [
      "ض",
      "روٗ"
    ],
    [
      "پ",
      "د"
    ],
    [
      "فت",
      "ح</w>"
    ],
    [
      "ڈ",
      "ل</w>"
    ],
    [
      "ق",
      "س"
    ],
    [
      "آمٕ",
      "تۍ</w>"
    ],
    [
      "ب",
      "و</w>"
    ],
    [
      "مق",
      "ام</w>"
    ],
    [
      "ریلو",
      "ے</w>"
    ],
    [
      "فی",
      "صد</w>"
    ],
    [
      "ت",
      "بد"
    ],
    [
      "ج",
      "وان</w>"
    ],
    [
      "ش",
      "را"
    ],
    [
      "سکو",
      "ر</w>"
    ],
    [
      "ی",
      "ر"
    ],
    [
      "ان",
      "فی"
    ],
    [
      "ش",
      "،</w>"
    ],
    [
      "2",
      "3</w>"
    ],
    [
      "ح",
      "قی"
    ],
    [
      "اِستع",
      "مال</w>"
    ],
    [
      "بٔ",
      "ڑ</w>"
    ],
    [
      "أ",
      "کس</w>"
    ],
    [
      "امی",
      "ک</w>"
    ],
    [
      "نٛ",
      "ڈ"
    ],
    [
      "پ",
      "ک"
    ],
    [
      "سو",
      "ی</w>"
    ],
    [
      "چھ",
      "ا</w>"
    ],
    [
      "چھےٚ",
      "۔</w>"
    ],
    [
      "य",
      "ि</w>"
    ],
    [
      "ق",
      "ات</w>"
    ],
    [
      "ری",
      "کارڈ</w>"
    ],
    [
      "عم",
      "لی</w>"
    ],
    [
      "ث",
      "</w>"
    ],
    [
      "مط",
      "اب"
    ],
    [
      "تو",
      "جہ</w>"
    ],
    [
      "تٔ",
      "ریٖن</w>"
    ],
    [
      "شُ",
      "روٗ"
    ],
    [
      "رو",
      "زن</w>"
    ],
    [
      "ج",
      "َ"
    ],
    [
      "ور",
      "ا"
    ],
    [
      "نی",
      "۔</w>"
    ],
    [
      "म",
      "ंज़</w>"
    ],
    [
      "ع",
      "ار"
    ],
    [
      "ن",
      "ہٕ،</w>"
    ],
    [
      "بر",
      "قرار</w>"
    ],
    [
      "باقٕ",
      "یہ</w>"
    ],
    [
      "سٹی",
      "ٹ</w>"
    ],
    [
      "ا",
      "پ"
    ],
    [
      "د",
      "وان</w>"
    ],
    [
      "گۄ",
      "پھ"
    ],
    [
      "سٲ",
      "نی</w>"
    ],
    [
      "یل",
      "ن</w>"
    ],
    [
      "ند",
      "ر</w>"
    ],
    [
      "فل",
      "مہِ</w>"
    ],
    [
      "ط",
      "وف"
    ],
    [
      "ان",
      "گ</w>"
    ],
    [
      "باق",
      "یہ</w>"
    ],
    [
      "تہ",
      "وار</w>"
    ],
    [
      "کم",
      "پیو"
    ],
    [
      "स",
      "्"
    ],
    [
      "یا",
      "،</w>"
    ],
    [
      "د",
      "وی"
    ],
    [
      "ڈ",
      "ھ"
    ],
    [
      "ہ",
      "یوٚ"
    ],
    [
      "ٹر",
      "ن</w>"
    ],
    [
      "ج",
      "این</w>"
    ],
    [
      "ک",
      "َس</w>"
    ],
    [
      "پور",
      "ٹ</w>"
    ],
    [
      "ون",
      "ان۔</w>"
    ],
    [
      "ڈب",
      "لیو</w>"
    ],
    [
      "ف",
      "ٲی"
    ],
    [
      "م",
      "ئی</w>"
    ],
    [
      "ک",
      "ت</w>"
    ],
    [
      "کل",
      "ب</w>"
    ],
    [
      "ما",
      "نٛنہٕ</w>"
    ],
    [
      "س",
      "نگ</w>"
    ],
    [
      "آس",
      "ن</w>"
    ],
    [
      "ؤ",
      "رِ"
    ],
    [
      "ि",
      "य"
    ],
    [
      "کُ",
      "ل</w>"
    ],
    [
      "گ",
      "اند"
    ],
    [
      "مُ",
      "ختٔ"
    ],
    [
      "ار",
      "۔</w>"
    ],
    [
      "کلا",
      "سی"
    ],
    [
      "خصو",
      "ص"
    ],
    [
      "ز",
      "ٔ"
    ],
    [
      "ہی",
      "کو</w>"
    ],
    [
      "ा",
      "व"
    ],
    [
      "تص",
      "وی"
    ],
    [
      "و",
      "ہ"
    ],
    [
      "گٔ",
      "ی"
    ],
    [
      "تھو",
      "نہٕ</w>"
    ],
    [
      "بھ",
      "و"
    ],
    [
      "ہ",
      "یم"
    ],
    [
      "لائ",
      "ن</w>"
    ],
    [
      "جن",
      "وٗ"
    ],
    [
      "کٲ",
      "م۔</w>"
    ],
    [
      "تھ",
      "او"
    ],
    [
      "ك",
      "ان"
    ],
    [
      "ن",
      "ٲ"
    ],
    [
      "پن",
      "ج"
    ],
    [
      "ت",
      "را"
    ],
    [
      "ن",
      "َن</w>"
    ],
    [
      "ک",
      "نڈ"
    ],
    [
      "ہنٛد",
      "ِس</w>"
    ],
    [
      "ض",
      "ٔ"
    ],
    [
      "سیا",
      "ح"
    ],
    [
      "ڈ",
      "وی"
    ],
    [
      "म",
      "ा"
    ],
    [
      "ل",
      "م</w>"
    ],
    [
      "ن",
      "ُ"
    ],
    [
      "جنگ",
      "س</w>"
    ],
    [
      "یو",
      "ٗك</w>"
    ],
    [
      "ٛ",
      "وو</w>"
    ],
    [
      "ال",
      "ی</w>"
    ],
    [
      "ح",
      "مای"
    ],
    [
      "ک",
      "سس</w>"
    ],
    [
      "اند",
      "ا"
    ],
    [
      "ال",
      "ہٕ</w>"
    ],
    [
      "ہندوستٲ",
      "نی</w>"
    ],
    [
      "عد",
      "ال"
    ],
    [
      "ڑ",
      "ا</w>"
    ],
    [
      "ار",
      "س</w>"
    ],
    [
      "سارِ",
      "وٕے</w>"
    ],
    [
      "سمٲ",
      "جی</w>"
    ],
    [
      "ص",
      "اف</w>"
    ],
    [
      "من",
      "ز"
    ],
    [
      "یۄ",
      "سہٕ</w>"
    ],
    [
      "ج",
      "ہ"
    ],
    [
      "خٕ",
      "لاف</w>"
    ],
    [
      "مج",
      "مو"
    ],
    [
      "د",
      "ٲیی</w>"
    ],
    [
      "مک",
      "نہٕ</w>"
    ],
    [
      "ری",
      "ف</w>"
    ],
    [
      "م",
      "زا"
    ],
    [
      "م",
      "یٚ"
    ],
    [
      "س",
      "سٹ"
    ],
    [
      "د",
      "نیاہس</w>"
    ],
    [
      "ورٲ",
      "ے</w>"
    ],
    [
      "سال",
      "انہٕ</w>"
    ],
    [
      "ا",
      "كہِ</w>"
    ],
    [
      "پ",
      "را"
    ],
    [
      "ز",
      "ک</w>"
    ],
    [
      "پَ",
      "ن"
    ],
    [
      "مُ",
      "ن"
    ],
    [
      "قب",
      "ضہٕ</w>"
    ],
    [
      "مٗ",
      "ش"
    ],
    [
      "کِ",
      "نہِ</w>"
    ],
    [
      "کو",
      "ر</w>"
    ],
    [
      "س",
      "یم"
    ],
    [
      "زن",
      "انن</w>"
    ],
    [
      "بار",
      "س</w>"
    ],
    [
      "کی",
      "ل"
    ],
    [
      "آ",
      "باد"
    ],
    [
      "تا",
      "ب</w>"
    ],
    [
      "سیری",
      "ز</w>"
    ],
    [
      "حٲص",
      "ل۔</w>"
    ],
    [
      "خ",
      "ٔ"
    ],
    [
      "ل",
      "ٕ"
    ],
    [
      "ژ",
      "ۄ"
    ],
    [
      "آ",
      "ئی</w>"
    ],
    [
      "کوٚر",
      "مت۔</w>"
    ],
    [
      "ر",
      "َن</w>"
    ],
    [
      "چیم",
      "پین</w>"
    ],
    [
      "ٹی",
      "سٹ</w>"
    ],
    [
      "بی",
      "یہ</w>"
    ],
    [
      "1",
      "4"
    ],
    [
      "۔",
      "۔</w>"
    ],
    [
      "پہا",
      "ڑ"
    ],
    [
      "وا",
      "دی</w>"
    ],
    [
      "وٲ",
      "ی"
    ],
    [
      "یِ",
      "و</w>"
    ],
    [
      "ت",
      "رو"
    ],
    [
      "لا",
      "س</w>"
    ],
    [
      "د",
      "ل</w>"
    ],
    [
      "س",
      "مس</w>"
    ],
    [
      "ش",
      "نس</w>"
    ],
    [
      "ری",
      "ل</w>"
    ],
    [
      "می",
      "ل</w>"
    ],
    [
      "صن",
      "ع"
    ],
    [
      "ک",
      "ٹی"
    ],
    [
      "پی",
      "ن"
    ],
    [
      "شخ",
      "ص"
    ],
    [
      "فوج",
      "س</w>"
    ],
    [
      "رو",
      "زن"
    ],
    [
      "لُ",
      "کھ</w>"
    ],
    [
      "کھ",
      "ٕ</w>"
    ],
    [
      "ِ",
      "ن</w>"
    ],
    [
      "ژ",
      "ِ</w>"
    ],
    [
      "6",
      "0</w>"
    ],
    [
      "ڈی",
      "ز"
    ],
    [
      "وا",
      "رِ</w>"
    ],
    [
      "وٲنٛ",
      "سہ</w>"
    ],
    [
      "حص",
      "ہٕ۔</w>"
    ],
    [
      "س",
      "نٛز</w>"
    ],
    [
      "د",
      "ۍ</w>"
    ],
    [
      "کار",
      "ڈ"
    ],
    [
      "ط",
      "ورس</w>"
    ],
    [
      "کی",
      "لی"
    ],
    [
      "ف",
      "ص"
    ],
    [
      "د",
      "ت</w>"
    ],
    [
      "یو",
      "ُ</w>"
    ],
    [
      "پٮ۪ٹھ",
      "ہٕ</w>"
    ],
    [
      "ج",
      "را"
    ],
    [
      "ٕ",
      "ے</w>"
    ],
    [
      "تو",
      "ٚ"
    ],
    [
      "200",
      "1</w>"
    ],
    [
      "ن",
      "یہ</w>"
    ],
    [
      "وضاح",
      "ت</w>"
    ],
    [
      "ین",
      "س</w>"
    ],
    [
      "ش",
      "نا"
    ],
    [
      "ؤ",
      "رین</w>"
    ],
    [
      "ن",
      "زِ</w>"
    ],
    [
      "نٛد",
      "گی</w>"
    ],
    [
      "تِ",
      "کیٛازِ</w>"
    ],
    [
      "مشہ",
      "ور</w>"
    ],
    [
      "چھ",
      "ن</w>"
    ],
    [
      "ار",
      "ِ</w>"
    ],
    [
      "جنو",
      "ب</w>"
    ],
    [
      "ش",
      "طر"
    ],
    [
      "بیٛ",
      "اکھ</w>"
    ],
    [
      "جر",
      "منی</w>"
    ],
    [
      "سو",
      "س</w>"
    ],
    [
      "وی",
      "ڈیو</w>"
    ],
    [
      "دِو",
      "ان۔</w>"
    ],
    [
      "ور",
      "ِ"
    ],
    [
      "تہ",
      "نٛز</w>"
    ],
    [
      "ن",
      "ج"
    ],
    [
      "مشر",
      "قس</w>"
    ],
    [
      "ک",
      "پ</w>"
    ],
    [
      "نش",
      "ہ</w>"
    ],
    [
      "ٹھ",
      "ٕ</w>"
    ],
    [
      "ق",
      "ۭ"
    ],
    [
      "ت",
      "لا"
    ],
    [
      "انڈ",
      "ین</w>"
    ],
    [
      "ش",
      "ک</w>"
    ],
    [
      "نِ",
      "شہِ</w>"
    ],
    [
      "ٲخٕ",
      "ری</w>"
    ],
    [
      "پو",
      "ری"
    ],
    [
      "لو",
      "کھ</w>"
    ],
    [
      "گر",
      "م</w>"
    ],
    [
      "ك",
      "ڈ"
    ],
    [
      "ن",
      "وا"
    ],
    [
      "آزا",
      "د</w>"
    ],
    [
      "ب",
      "نٛ"
    ],
    [
      "آمد",
      "نی</w>"
    ],
    [
      "تہ",
      "۔</w>"
    ],
    [
      "من",
      "ی"
    ],
    [
      "ای",
      "س"
    ],
    [
      "ست",
      "ھ۔</w>"
    ],
    [
      "क",
      "</w>"
    ],
    [
      "ہ",
      "ے</w>"
    ],
    [
      "من",
      "ز۔</w>"
    ],
    [
      "تم",
      "س</w>"
    ],
    [
      "مر",
      "دن</w>"
    ],
    [
      "د",
      "وا</w>"
    ],
    [
      "ہ",
      "ای"
    ],
    [
      "ص",
      "حی"
    ],
    [
      "لچ",
      "سپ"
    ],
    [
      "مُختٔ",
      "لِف</w>"
    ],
    [
      "ن",
      "ای"
    ],
    [
      "ش",
      "ین</w>"
    ],
    [
      "لا",
      "ل</w>"
    ],
    [
      "ٲس",
      "۔</w>"
    ],
    [
      "گ",
      "ام"
    ],
    [
      "لا",
      "ئی</w>"
    ],
    [
      "تر",
      "بی"
    ],
    [
      "2",
      "6</w>"
    ],
    [
      "دی",
      "ت</w>"
    ],
    [
      "ٹ",
      "را"
    ],
    [
      "تم",
      "غ"
    ],
    [
      "ص",
      "ر</w>"
    ],
    [
      "کم",
      "پ"
    ],
    [
      "ب",
      "اک"
    ],
    [
      "त",
      "</w>"
    ],
    [
      "یوٗ",
      "</w>"
    ],
    [
      "ژ",
      "وٗ"
    ],
    [
      "ہنٛد",
      "ۍ</w>"
    ],
    [
      "و",
      "د</w>"
    ],
    [
      "رو",
      "نی</w>"
    ],
    [
      "فی",
      "ڈری"
    ],
    [
      "سٹ",
      "ا"
    ],
    [
      "جان",
      "ورن</w>"
    ],
    [
      "اض",
      "ٲفی</w>"
    ],
    [
      "ع",
      "لی</w>"
    ],
    [
      "ر",
      "ای"
    ],
    [
      "س",
      "نی"
    ],
    [
      "اب",
      "ھ"
    ],
    [
      "ی",
      "ٔ"
    ],
    [
      "ٰ",
      "</w>"
    ],
    [
      "لای",
      "ی</w>"
    ],
    [
      "گو",
      "س</w>"
    ],
    [
      "وٲ",
      "لس</w>"
    ],
    [
      "مٕ",
      "تۍ۔</w>"
    ],
    [
      "کار",
      "ن</w>"
    ],
    [
      "ر",
      "د</w>"
    ],
    [
      "سنگ",
      "ھ</w>"
    ],
    [
      "سٹ",
      "ن</w>"
    ],
    [
      "س",
      "ٲری</w>"
    ],
    [
      "لَ",
      "ٹہِ</w>"
    ],
    [
      "ٹ",
      "۔</w>"
    ],
    [
      "ع",
      "دٕ</w>"
    ],
    [
      "پ",
      "سند</w>"
    ],
    [
      "عی",
      "سوی</w>"
    ],
    [
      "تو",
      "ق"
    ],
    [
      "پ",
      "ك"
    ],
    [
      "روُ",
      "د</w>"
    ],
    [
      "بہ",
      "تٔریٖن</w>"
    ],
    [
      "ہا",
      "وان</w>"
    ],
    [
      "نٛ",
      "ٹ</w>"
    ],
    [
      "ر",
      "ک</w>"
    ],
    [
      "سا",
      "ز</w>"
    ],
    [
      "ح",
      "ی</w>"
    ],
    [
      "ت",
      "ین</w>"
    ],
    [
      "برا",
      "دری</w>"
    ],
    [
      "نا",
      "ک</w>"
    ],
    [
      "ر",
      "ٔ"
    ],
    [
      "قص",
      "بہٕ</w>"
    ],
    [
      "کلاسی",
      "کی</w>"
    ],
    [
      "ت",
      "اکہ</w>"
    ],
    [
      "بٔڑ",
      "س</w>"
    ],
    [
      "وج",
      "ہہ</w>"
    ],
    [
      "اہ",
      "َن</w>"
    ],
    [
      "خاند",
      "ان</w>"
    ],
    [
      "ا",
      "ك"
    ],
    [
      "ان",
      "در"
    ],
    [
      "ٖ",
      "ن</w>"
    ],
    [
      "س",
      "کری"
    ],
    [
      "ڈ",
      "ائ"
    ],
    [
      "ت",
      "یہ</w>"
    ],
    [
      "خری",
      "دٲری</w>"
    ],
    [
      "تھ",
      "ۍ</w>"
    ],
    [
      "لی",
      "ت</w>"
    ],
    [
      "پ",
      "انہٕ</w>"
    ],
    [
      "ص",
      "ف"
    ],
    [
      "ہ",
      "یل"
    ],
    [
      "ما",
      "ئ"
    ],
    [
      "پ",
      "ھ</w>"
    ],
    [
      "تش",
      "خی"
    ],
    [
      "گز",
      "ری"
    ],
    [
      "ख",
      "</w>"
    ],
    [
      "مغ",
      "ل</w>"
    ],
    [
      "خ",
      "ان</w>"
    ],
    [
      "سِ",
      "ل"
    ],
    [
      "2",
      "9</w>"
    ],
    [
      "حالانٛ",
      "کہ</w>"
    ],
    [
      "تام",
      "ِل</w>"
    ],
    [
      "سی",
      "ل"
    ],
    [
      "ط",
      "ال"
    ],
    [
      "ف",
      "لو"
    ],
    [
      "بن",
      "وو"
    ],
    [
      "موُ",
      "جوُ"
    ],
    [
      "کار",
      "کر"
    ],
    [
      "الی",
      "ہ</w>"
    ],
    [
      "دٲخ",
      "ل</w>"
    ],
    [
      "پوٗ",
      "ر</w>"
    ],
    [
      "پردی",
      "ش</w>"
    ],
    [
      "پ",
      "لا"
    ],
    [
      "ہی",
      "کہِ</w>"
    ],
    [
      "زا",
      "نٛہہ</w>"
    ],
    [
      "ھ",
      "س</w>"
    ],
    [
      "مح",
      "فو"
    ],
    [
      "چھ",
      "ان</w>"
    ],
    [
      "کیٚ",
      "نٛہہ</w>"
    ],
    [
      "ن",
      "سل"
    ],
    [
      "بن",
      "اوان۔</w>"
    ],
    [
      "ور",
      "۔</w>"
    ],
    [
      "و",
      "س"
    ],
    [
      "واجیٚ",
      "نۍ</w>"
    ],
    [
      "چِ",
      "ہ</w>"
    ],
    [
      "گ",
      "رٕ</w>"
    ],
    [
      "دو",
      "ان۔</w>"
    ],
    [
      "ف",
      "۔</w>"
    ],
    [
      "ہ",
      "نگ"
    ],
    [
      "ب",
      "،</w>"
    ],
    [
      "تھ",
      "اوان۔</w>"
    ],
    [
      "علاق",
      "ہٕ۔</w>"
    ],
    [
      "200",
      "4</w>"
    ],
    [
      "گژھ",
      "نس</w>"
    ],
    [
      "شرو",
      "ع۔</w>"
    ],
    [
      "لو",
      "ٚ"
    ],
    [
      "سکو",
      "ل</w>"
    ],
    [
      "نِ",
      "ش"
    ],
    [
      "مُ",
      "تعل"
    ],
    [
      "خ",
      "لی"
    ],
    [
      "راج",
      "ستھ"
    ],
    [
      "چ",
      "ن"
    ],
    [
      "کیلی",
      "فور"
    ],
    [
      "وِ",
      "تھ</w>"
    ],
    [
      "2",
      "8</w>"
    ],
    [
      "تبد",
      "یلی</w>"
    ],
    [
      "ل",
      "ٹی</w>"
    ],
    [
      "ش",
      "دید</w>"
    ],
    [
      "چھِ",
      "،</w>"
    ],
    [
      "ع",
      "،</w>"
    ],
    [
      "چُھ",
      "نہٕ</w>"
    ],
    [
      "ک",
      "نگ</w>"
    ],
    [
      "برٛ",
      "ۄ"
    ],
    [
      "منتق",
      "ل</w>"
    ],
    [
      "یور",
      "پی</w>"
    ],
    [
      "ت",
      "اہم</w>"
    ],
    [
      "گاند",
      "ھی</w>"
    ],
    [
      "من",
      "صوبہٕ</w>"
    ],
    [
      "برا",
      "ہ</w>"
    ],
    [
      "ا",
      "ٗ"
    ],
    [
      "اح",
      "ت"
    ],
    [
      "ر",
      "ل"
    ],
    [
      "سٹ",
      "ین"
    ],
    [
      "ان",
      "ج"
    ],
    [
      "مل",
      "کن</w>"
    ],
    [
      "ٹ",
      "َس</w>"
    ],
    [
      "ر",
      "ج"
    ],
    [
      "ن",
      "مبر</w>"
    ],
    [
      "ر",
      "ک"
    ],
    [
      "م",
      "یون"
    ],
    [
      "ر",
      "نگ</w>"
    ],
    [
      "نِ",
      "نہٕ</w>"
    ],
    [
      "شُ",
      "مٲلی</w>"
    ],
    [
      "کی",
      "ٹ</w>"
    ],
    [
      "ف",
      "این"
    ],
    [
      "2",
      "7</w>"
    ],
    [
      "کار",
      "پوری"
    ],
    [
      "ِ",
      "و</w>"
    ],
    [
      "200",
      "5</w>"
    ],
    [
      "ب",
      "ق"
    ],
    [
      "گڑ",
      "ھ</w>"
    ],
    [
      "وٗ",
      "چھنہٕ</w>"
    ],
    [
      "ئ",
      "ے</w>"
    ],
    [
      "س",
      "َن</w>"
    ],
    [
      "ر",
      "تھ</w>"
    ],
    [
      "پٮ۪ٹھ",
      "ٕہ</w>"
    ],
    [
      "ؤ",
      "ری</w>"
    ],
    [
      "در",
      "ج</w>"
    ],
    [
      "ال",
      "ز"
    ],
    [
      "گور",
      "نر</w>"
    ],
    [
      "انت",
      "خ"
    ],
    [
      "وا",
      "پ"
    ],
    [
      "ی",
      "ٲتی</w>"
    ],
    [
      "گ",
      "ار</w>"
    ],
    [
      "ع",
      "مار"
    ],
    [
      "م",
      "ر</w>"
    ],
    [
      "د",
      "ک</w>"
    ],
    [
      "دری",
      "او"
    ],
    [
      "ر",
      "ض"
    ],
    [
      "ٹر",
      "ٛ"
    ],
    [
      "ڈ",
      "ین</w>"
    ],
    [
      "ٲس",
      "ۍ۔</w>"
    ],
    [
      "ن",
      "ژ"
    ],
    [
      "یار",
      "ک</w>"
    ],
    [
      "بن",
      "ان</w>"
    ],
    [
      "این",
      "ٹی</w>"
    ],
    [
      "من",
      "صوٗ"
    ],
    [
      "ج",
      "ذ"
    ],
    [
      "ت",
      "وٲ"
    ],
    [
      "من",
      "تخب</w>"
    ],
    [
      "میل",
      "ان</w>"
    ],
    [
      "فران",
      "سی"
    ],
    [
      "ح",
      "فاظ"
    ],
    [
      "نا",
      "ئ"
    ],
    [
      "پ",
      "ا</w>"
    ],
    [
      "ش",
      "پ"
    ],
    [
      "امریک",
      "ہس</w>"
    ],
    [
      "व",
      "</w>"
    ],
    [
      "ा",
      "र"
    ],
    [
      "بی",
      "ک</w>"
    ],
    [
      "گو",
      "٘"
    ],
    [
      "یل",
      "ہٕ</w>"
    ],
    [
      "20",
      "0</w>"
    ],
    [
      "ہ",
      "تھ"
    ],
    [
      "تھ",
      "ہِ</w>"
    ],
    [
      "گ",
      "ل</w>"
    ],
    [
      "یو",
      "ر</w>"
    ],
    [
      "ان",
      "سٲنی</w>"
    ],
    [
      "پل",
      "ے</w>"
    ],
    [
      "ٹی",
      "کس</w>"
    ],
    [
      "ڈی",
      "م</w>"
    ],
    [
      "استع",
      "مال"
    ],
    [
      "لی",
      "ٹ</w>"
    ],
    [
      "ڈال",
      "ر</w>"
    ],
    [
      "چ",
      "َ"
    ],
    [
      "گ",
      "ام</w>"
    ],
    [
      "تھو",
      "ٚ"
    ],
    [
      "ر",
      "ن"
    ],
    [
      "گژھ",
      "ِتھ</w>"
    ],
    [
      "بج",
      "لی</w>"
    ],
    [
      "ذٔ",
      "ری"
    ],
    [
      "کی",
      "ری"
    ],
    [
      "گ",
      "ژھ</w>"
    ],
    [
      "ؠ",
      "ن</w>"
    ],
    [
      "كھ",
      "و"
    ],
    [
      "ف",
      "ُ"
    ],
    [
      "ش",
      "ور</w>"
    ],
    [
      "کٔر",
      "ِ</w>"
    ],
    [
      "گو",
      "و</w>"
    ],
    [
      "تع",
      "لیم</w>"
    ],
    [
      "خٲطر",
      "ٕ۔</w>"
    ],
    [
      "ٹ",
      "َن</w>"
    ],
    [
      "اص",
      "طلا"
    ],
    [
      "ट",
      "</w>"
    ],
    [
      "ند",
      "ِ</w>"
    ],
    [
      "ك",
      "س</w>"
    ],
    [
      "مُقاب",
      "لہٕ</w>"
    ],
    [
      "وٲی",
      "تی</w>"
    ],
    [
      "کار",
      "ٕ"
    ],
    [
      "ط",
      "بی</w>"
    ],
    [
      "ہ",
      "ٹ"
    ],
    [
      "198",
      "0</w>"
    ],
    [
      "ح",
      "ق"
    ],
    [
      "ڈاک",
      "ٹر</w>"
    ],
    [
      "وٲ",
      "حد</w>"
    ],
    [
      "مخ",
      "تٔ"
    ],
    [
      "عظ",
      "یم</w>"
    ],
    [
      "گرو",
      "پ</w>"
    ],
    [
      "ما",
      "حو"
    ],
    [
      "ز",
      "َس</w>"
    ],
    [
      "تج",
      "ار"
    ],
    [
      "ریاست",
      "ن</w>"
    ],
    [
      "ٲ",
      "ستھ۔</w>"
    ],
    [
      "تَ",
      "مہِ</w>"
    ],
    [
      "ع",
      "ٲ"
    ],
    [
      "َ",
      "ے</w>"
    ],
    [
      "اعظ",
      "م</w>"
    ],
    [
      "چل",
      "اونہٕ</w>"
    ],
    [
      "او",
      "ڈی"
    ],
    [
      "ی",
      "۔</w>"
    ],
    [
      "فٲی",
      "دٕ</w>"
    ],
    [
      "ش",
      "ار"
    ],
    [
      "رٲب",
      "طہٕ</w>"
    ],
    [
      "گ",
      "یم"
    ],
    [
      "ہ",
      "ائی</w>"
    ],
    [
      "سکو",
      "ٗ"
    ],
    [
      "اع",
      "لی</w>"
    ],
    [
      "چِھ",
      "و</w>"
    ],
    [
      "أ",
      "مِس</w>"
    ],
    [
      "آ",
      "یہٕ</w>"
    ],
    [
      "پی",
      "ٛ"
    ],
    [
      "مدھ",
      "یہ</w>"
    ],
    [
      "I",
      "I</w>"
    ],
    [
      "ور",
      "،</w>"
    ],
    [
      "کٔر",
      "ٕن</w>"
    ],
    [
      "پرو",
      "ڈ"
    ],
    [
      "ر",
      "ام"
    ],
    [
      "ا",
      "پ</w>"
    ],
    [
      "م",
      "لی"
    ],
    [
      "قون",
      "وٗ"
    ],
    [
      "متح",
      "دہ</w>"
    ],
    [
      "مرا",
      "ٹھا</w>"
    ],
    [
      "ل",
      "ت</w>"
    ],
    [
      "مع",
      "اہ"
    ],
    [
      "جن",
      "رل</w>"
    ],
    [
      "ب",
      "ہِ</w>"
    ],
    [
      "کٮ۪",
      "و</w>"
    ],
    [
      "لو",
      "ک</w>"
    ],
    [
      "انگری",
      "زی</w>"
    ],
    [
      "ذ",
      "خی"
    ],
    [
      "لۄ",
      "کٕ"
    ],
    [
      "وٲنٛ",
      "سہِ</w>"
    ],
    [
      "ٲ",
      "ئی</w>"
    ],
    [
      "ناک",
      "ام</w>"
    ],
    [
      "چھِ",
      "نہٕ</w>"
    ],
    [
      "بن",
      "اون</w>"
    ],
    [
      "تھ",
      "ر</w>"
    ],
    [
      "مٗ",
      "تعلق</w>"
    ],
    [
      "پھ",
      "ٔ"
    ],
    [
      "ہند",
      "و</w>"
    ],
    [
      "سا",
      "ح"
    ],
    [
      "مر",
      "د</w>"
    ],
    [
      "ل",
      "ہٕ۔</w>"
    ],
    [
      "تھ",
      "ر"
    ],
    [
      "وسی",
      "ع</w>"
    ],
    [
      "سٹی",
      "شن</w>"
    ],
    [
      "گۄڈن",
      "چہ</w>"
    ],
    [
      "انٹر",
      "نیشنل</w>"
    ],
    [
      "فل",
      "من</w>"
    ],
    [
      "0",
      "0"
    ],
    [
      "بد",
      "لہٕ</w>"
    ],
    [
      "ہِ",
      "ر</w>"
    ],
    [
      "ب",
      "ٮ۪"
    ],
    [
      "لۄ",
      "ک"
    ],
    [
      "و",
      "تھ</w>"
    ],
    [
      "چھُ",
      "،</w>"
    ],
    [
      "آ",
      "پری"
    ],
    [
      "خا",
      "ب</w>"
    ],
    [
      "لا",
      "ڑ"
    ],
    [
      "پرو",
      "ڈیو"
    ],
    [
      "ع",
      "ہ"
    ],
    [
      "مق",
      "بول</w>"
    ],
    [
      "در",
      "مِ"
    ],
    [
      "تٲ",
      "ریٖ"
    ],
    [
      "ل",
      "ح"
    ],
    [
      "199",
      "0</w>"
    ],
    [
      "سمٲ",
      "نی</w>"
    ],
    [
      "فیل",
      "ڈ</w>"
    ],
    [
      "پ",
      "بل"
    ],
    [
      "نی",
      "ٲدی</w>"
    ],
    [
      "زا",
      "نٛ"
    ],
    [
      ",",
      "</w>"
    ],
    [
      "چی",
      "ک</w>"
    ],
    [
      "य",
      "ि"
    ],
    [
      "پیٹھ",
      "۔</w>"
    ],
    [
      "تقری",
      "بن</w>"
    ],
    [
      "ع",
      "قی"
    ],
    [
      "ہٗ",
      "ك</w>"
    ],
    [
      "کوٗ",
      "شش</w>"
    ],
    [
      "کال",
      "ج</w>"
    ],
    [
      "20",
      "22</w>"
    ],
    [
      "د",
      "لہ</w>"
    ],
    [
      "یا",
      "ب۔</w>"
    ],
    [
      "بین",
      "ک</w>"
    ],
    [
      "آ",
      "بہٕ</w>"
    ],
    [
      "مق",
      "بوُ"
    ],
    [
      "دٔری",
      "او"
    ],
    [
      "ك",
      "ار</w>"
    ],
    [
      "سٕ",
      "چ</w>"
    ],
    [
      "عا",
      "تس</w>"
    ],
    [
      "ل",
      "ہا"
    ],
    [
      "ڈ",
      "گری</w>"
    ],
    [
      "برو",
      "نٛہہ</w>"
    ],
    [
      "س",
      "یو"
    ],
    [
      "8",
      "0</w>"
    ],
    [
      "یلا",
      "ج</w>"
    ],
    [
      "بل",
      "دی"
    ],
    [
      "گ",
      "ن"
    ],
    [
      "جل",
      "دی</w>"
    ],
    [
      "فرانسی",
      "سی</w>"
    ],
    [
      "تی",
      "زی</w>"
    ],
    [
      "ا",
      "۔</w>"
    ],
    [
      "د",
      "ست</w>"
    ],
    [
      "ای",
      "نڈ"
    ],
    [
      "ج",
      "و</w>"
    ],
    [
      "مُ",
      "ک</w>"
    ],
    [
      "ما",
      "ئی"
    ],
    [
      "جٲی",
      "زٕ</w>"
    ],
    [
      "سب",
      "ب</w>"
    ],
    [
      "مسی",
      "ح</w>"
    ],
    [
      "ب",
      "ع</w>"
    ],
    [
      "ز",
      "َ"
    ],
    [
      "ذ",
      "کر</w>"
    ],
    [
      "کار",
      "و"
    ],
    [
      "و",
      "ین</w>"
    ],
    [
      "ز",
      "ٕ"
    ],
    [
      "رِ",
      "ف</w>"
    ],
    [
      "ؤ",
      "نڈ</w>"
    ],
    [
      "ضٔ",
      "روٗ"
    ],
    [
      "ترٛ",
      "ین</w>"
    ],
    [
      "ٲس",
      "تھ</w>"
    ],
    [
      "نی",
      "،</w>"
    ],
    [
      "مو",
      "٘"
    ],
    [
      "بنگ",
      "ال</w>"
    ],
    [
      "غل",
      "ط"
    ],
    [
      "ہ",
      "چ</w>"
    ],
    [
      "اون",
      "ٕچ</w>"
    ],
    [
      "مخ",
      "صو"
    ],
    [
      "پھ",
      "ی"
    ],
    [
      "مع",
      "ی"
    ],
    [
      "ت",
      "ار"
    ],
    [
      "لا",
      "وان</w>"
    ],
    [
      "رو",
      "م</w>"
    ],
    [
      "197",
      "0</w>"
    ],
    [
      "ڈ",
      "ن"
    ],
    [
      "کِ",
      "نۍ</w>"
    ],
    [
      "م",
      "ز</w>"
    ],
    [
      "ز",
      "ُ"
    ],
    [
      "زین",
      "ن</w>"
    ],
    [
      "س",
      "ل</w>"
    ],
    [
      "س",
      "لی"
    ],
    [
      "اضاف",
      "ہٕ</w>"
    ],
    [
      "امی",
      "ُک</w>"
    ],
    [
      "است",
      "مال</w>"
    ],
    [
      "ری",
      "ڈ</w>"
    ],
    [
      "ہ",
      "وا"
    ],
    [
      "کن",
      "۔</w>"
    ],
    [
      "त",
      "्</w>"
    ],
    [
      "زِ",
      "ندگی</w>"
    ],
    [
      "ِ",
      "ر</w>"
    ],
    [
      "نگ",
      "ر</w>"
    ],
    [
      "نو",
      "جوان</w>"
    ],
    [
      "ح",
      "سا"
    ],
    [
      "س",
      "کا"
    ],
    [
      "پ",
      "اب"
    ],
    [
      "مُتعل",
      "ِق</w>"
    ],
    [
      "گ",
      "وان</w>"
    ],
    [
      "کو",
      "ڈ</w>"
    ],
    [
      "کٔر",
      "و</w>"
    ],
    [
      "द",
      "</w>"
    ],
    [
      "نس",
      "ل</w>"
    ],
    [
      "لی",
      "،</w>"
    ],
    [
      "ہِ",
      "م</w>"
    ],
    [
      "ٕ",
      "یہ</w>"
    ],
    [
      "س",
      "فر</w>"
    ],
    [
      "خد",
      "مات</w>"
    ],
    [
      "وی",
      "سٹ</w>"
    ],
    [
      "پٔ",
      "کۍ</w>"
    ],
    [
      "یِ",
      "مَو</w>"
    ],
    [
      "بنی",
      "و</w>"
    ],
    [
      "د",
      "را"
    ],
    [
      "ك",
      "ی</w>"
    ],
    [
      "بھ",
      "ار"
    ],
    [
      "ا",
      "س</w>"
    ],
    [
      "بج",
      "ایہ</w>"
    ],
    [
      "گ",
      "ل"
    ],
    [
      "واج",
      "ینہِ</w>"
    ],
    [
      "ز",
      "مین</w>"
    ],
    [
      "مو",
      "ن</w>"
    ],
    [
      "ژ",
      "ار"
    ],
    [
      "تُ",
      "ل"
    ],
    [
      "اف",
      "ریق"
    ],
    [
      "پا",
      "س</w>"
    ],
    [
      "با",
      "تھ</w>"
    ],
    [
      "ہی",
      "كن</w>"
    ],
    [
      "ک",
      "ۄ"
    ],
    [
      "یو",
      "نی"
    ],
    [
      "क",
      "म"
    ],
    [
      "ہند",
      "ی</w>"
    ],
    [
      "نامز",
      "د</w>"
    ],
    [
      "ک",
      "نہِ</w>"
    ],
    [
      "ری",
      "ٚ"
    ],
    [
      "پ",
      "سند"
    ],
    [
      "مخصو",
      "ص</w>"
    ],
    [
      "ان",
      "ُک</w>"
    ],
    [
      "غ",
      "ذ"
    ],
    [
      "مش",
      "تم"
    ],
    [
      "ای",
      "م"
    ],
    [
      "نق",
      "ل</w>"
    ],
    [
      "کر",
      "ٕنہِ</w>"
    ],
    [
      "ر",
      "ہ</w>"
    ],
    [
      "تع",
      "می"
    ],
    [
      "سفی",
      "د</w>"
    ],
    [
      "روای",
      "تی</w>"
    ],
    [
      "برٛۄ",
      "نٛہہ</w>"
    ],
    [
      "توق",
      "ع</w>"
    ],
    [
      "مختٔ",
      "لف</w>"
    ],
    [
      "بن",
      "وو</w>"
    ],
    [
      "تٲری",
      "خ</w>"
    ],
    [
      "شِ",
      "ک"
    ],
    [
      "قب",
      "ض"
    ],
    [
      "مٲ",
      "د"
    ],
    [
      "د",
      "ک"
    ],
    [
      "ن",
      "٘"
    ],
    [
      "د",
      "لی"
    ],
    [
      "ص",
      "د"
    ],
    [
      "ہٕ",
      "نز</w>"
    ],
    [
      "جر",
      "من</w>"
    ],
    [
      "چھ",
      "و</w>"
    ],
    [
      "200",
      "3</w>"
    ],
    [
      "अ",
      "ख</w>"
    ],
    [
      "کوٚر",
      "مُت</w>"
    ],
    [
      "یل",
      "س</w>"
    ],
    [
      "محفو",
      "ظ</w>"
    ],
    [
      "کر",
      "ی</w>"
    ],
    [
      "ر",
      "نہٕ</w>"
    ],
    [
      "س",
      "نڈ"
    ],
    [
      "ن",
      "ے</w>"
    ],
    [
      "بور",
      "ڈ</w>"
    ],
    [
      "مرک",
      "ز</w>"
    ],
    [
      "ز",
      "م</w>"
    ],
    [
      "اند",
      "ِ</w>"
    ],
    [
      "آغ",
      "از</w>"
    ],
    [
      "خو",
      "ف"
    ],
    [
      "ط",
      "ٲ"
    ],
    [
      "بن",
      "ان۔</w>"
    ],
    [
      "ق",
      "۔</w>"
    ],
    [
      "مو",
      "ض"
    ],
    [
      "٘",
      "ن</w>"
    ],
    [
      "بط",
      "ورِ</w>"
    ],
    [
      "تس",
      "لیم</w>"
    ],
    [
      "خ",
      "ط</w>"
    ],
    [
      "كھ",
      "و٘"
    ],
    [
      "ش",
      "ٔ"
    ],
    [
      "دِیُ",
      "ت</w>"
    ],
    [
      "و",
      "ت</w>"
    ],
    [
      "برا",
      "بر</w>"
    ],
    [
      "رِیا",
      "ست"
    ],
    [
      "ثقاف",
      "تی</w>"
    ],
    [
      "200",
      "2</w>"
    ],
    [
      "آ",
      "ی</w>"
    ],
    [
      "پی",
      "رو"
    ],
    [
      "ژِ",
      "ھ"
    ],
    [
      "ہسپ",
      "تال"
    ],
    [
      "یا",
      "ف"
    ],
    [
      "میون",
      "سپ"
    ],
    [
      "ع",
      "مل"
    ],
    [
      "و",
      "ہر</w>"
    ],
    [
      "ضر",
      "وری</w>"
    ],
    [
      "چ",
      "ال"
    ],
    [
      "دِ",
      "نہٕ۔</w>"
    ],
    [
      "دۄش",
      "وٕے</w>"
    ],
    [
      "ت",
      "کنی"
    ],
    [
      "ضِ",
      "لع"
    ],
    [
      "نزدی",
      "ک</w>"
    ],
    [
      "پ",
      "ل</w>"
    ],
    [
      "فٲ",
      "ص"
    ],
    [
      "ل",
      "این</w>"
    ],
    [
      "رقص",
      "</w>"
    ],
    [
      "کھیل",
      "َن</w>"
    ],
    [
      "न",
      "्"
    ],
    [
      "وو",
      "ن</w>"
    ],
    [
      "بُ",
      "نیا"
    ],
    [
      "دوی",
      "م</w>"
    ],
    [
      "5",
      "00</w>"
    ],
    [
      "ڈ",
      "ِ</w>"
    ],
    [
      "ك",
      "رِ"
    ],
    [
      "بی",
      "مار</w>"
    ],
    [
      "ش",
      "ر</w>"
    ],
    [
      "زبر",
      "دست</w>"
    ],
    [
      "پی",
      "چی"
    ],
    [
      "ش",
      "ائ"
    ],
    [
      "من",
      "ٹن</w>"
    ],
    [
      "با",
      "ئ"
    ],
    [
      "سٕند",
      "ِس</w>"
    ],
    [
      "در",
      "تی</w>"
    ],
    [
      "اف",
      "را"
    ],
    [
      "دِ",
      "ل</w>"
    ],
    [
      "لا",
      "م</w>"
    ],
    [
      "برون",
      "ہہ</w>"
    ],
    [
      "پن",
      "نہٕ</w>"
    ],
    [
      "تر",
      "ا</w>"
    ],
    [
      "ٹ",
      "یمن</w>"
    ],
    [
      "سن",
      "ن</w>"
    ],
    [
      "پرو",
      "گرام</w>"
    ],
    [
      "ٲخٕ",
      "ر</w>"
    ],
    [
      "ٖ",
      "م</w>"
    ],
    [
      "چیٖ",
      "ز</w>"
    ],
    [
      "ری",
      "ن"
    ],
    [
      "د",
      "نہٕ۔</w>"
    ],
    [
      "پولی",
      "س</w>"
    ],
    [
      "ہ",
      "وا</w>"
    ],
    [
      "واب",
      "ستہٕ</w>"
    ],
    [
      "ح",
      "َ"
    ],
    [
      "کوٚر",
      "ُن</w>"
    ],
    [
      "فی",
      "س</w>"
    ],
    [
      "ہی",
      "ك"
    ],
    [
      "لف",
      "ظ"
    ],
    [
      "لی",
      "گ"
    ],
    [
      "مت",
      "ی</w>"
    ],
    [
      "اخت",
      "یار</w>"
    ],
    [
      "شن",
      "و</w>"
    ],
    [
      "صِ",
      "رِف</w>"
    ],
    [
      "بناو",
      "نس</w>"
    ],
    [
      "ل",
      "ار"
    ],
    [
      "9",
      "0</w>"
    ],
    [
      "تا",
      "ل</w>"
    ],
    [
      "سٹ",
      "رو"
    ],
    [
      "स",
      "त"
    ],
    [
      "ن",
      "مبر"
    ],
    [
      "ند",
      "ی</w>"
    ],
    [
      "پریش",
      "ان</w>"
    ],
    [
      "گو",
      "ل"
    ],
    [
      "مق",
      "رر</w>"
    ],
    [
      "س",
      "ما"
    ],
    [
      "ہٕ",
      "کۍ</w>"
    ],
    [
      "س",
      "ٮ۪"
    ],
    [
      "نیٚ",
      "چو"
    ],
    [
      "کینٛ",
      "ژن</w>"
    ],
    [
      "ی",
      "ک"
    ],
    [
      "س",
      "خت</w>"
    ],
    [
      "خ",
      "بر</w>"
    ],
    [
      "ع",
      "ن</w>"
    ],
    [
      "انٛد",
      "ر</w>"
    ],
    [
      "گور",
      "ن"
    ],
    [
      "گٲ",
      "نٛ"
    ],
    [
      "وا",
      "لہِ</w>"
    ],
    [
      "کی",
      "ٛاہ</w>"
    ],
    [
      "ب",
      "َس</w>"
    ],
    [
      "ش",
      "ار</w>"
    ],
    [
      "ك",
      "ی"
    ],
    [
      "ہ",
      "مہ</w>"
    ],
    [
      "ار",
      "،</w>"
    ],
    [
      "س",
      "و</w>"
    ],
    [
      "م",
      "انہٕ</w>"
    ],
    [
      "لف",
      "ظ</w>"
    ],
    [
      "فہر",
      "ست</w>"
    ],
    [
      "مح",
      "سوس</w>"
    ],
    [
      "ان",
      "و"
    ],
    [
      "پی",
      "ر"
    ],
    [
      "کھلٲڑ",
      "ِ</w>"
    ],
    [
      "ش",
      "م"
    ],
    [
      "مص",
      "نو"
    ],
    [
      "طاق",
      "ت</w>"
    ],
    [
      "جی",
      "ٖ"
    ],
    [
      "سنگ",
      "ھ"
    ],
    [
      "ہ",
      "ری</w>"
    ],
    [
      "اہ",
      "ل"
    ],
    [
      "پہ",
      "ٲ"
    ],
    [
      "پ",
      "لو"
    ],
    [
      "ضلع",
      "س</w>"
    ],
    [
      "برطان",
      "ی"
    ],
    [
      "بیم",
      "ٲ"
    ],
    [
      "ہنٛد",
      "ست"
    ],
    [
      "ा",
      "</w>"
    ],
    [
      "دُ",
      "بارٕ</w>"
    ],
    [
      "می",
      "د"
    ],
    [
      "شی",
      "ر</w>"
    ],
    [
      "ہٗ",
      "ک</w>"
    ],
    [
      "لوُ",
      "کھ</w>"
    ],
    [
      "پو",
      "ٚ"
    ],
    [
      "ٹ",
      "ۍ</w>"
    ],
    [
      "ِ",
      "ک</w>"
    ],
    [
      "نٛد",
      "ٕ</w>"
    ],
    [
      "ا",
      "ڈ"
    ],
    [
      "تٔ",
      "مس</w>"
    ],
    [
      "بوٚ",
      "ڈ</w>"
    ],
    [
      "س",
      "ب</w>"
    ],
    [
      "ق",
      "ا"
    ],
    [
      "حالانٛ",
      "کہِ</w>"
    ],
    [
      "نٛد",
      "ی</w>"
    ],
    [
      "سلطن",
      "تس</w>"
    ],
    [
      "ر",
      "ش"
    ],
    [
      "زبٲ",
      "نی</w>"
    ],
    [
      "سم",
      "کھ"
    ],
    [
      "دریا",
      "فت</w>"
    ],
    [
      "کر",
      "کٹ</w>"
    ],
    [
      "یا",
      "ہن</w>"
    ],
    [
      "دٔ",
      "سۍ</w>"
    ],
    [
      "گ",
      "نی"
    ],
    [
      "پر",
      "٘"
    ],
    [
      "نیٚ",
      "ن</w>"
    ],
    [
      "کن",
      "ٹرو"
    ],
    [
      "ग",
      "</w>"
    ],
    [
      "े",
      "क"
    ],
    [
      "د",
      "وُ"
    ],
    [
      "درمِ",
      "یان</w>"
    ],
    [
      "19",
      "0"
    ],
    [
      "مع",
      "اون</w>"
    ],
    [
      "رِ",
      "ی"
    ],
    [
      "ست",
      "۔</w>"
    ],
    [
      "ند",
      "ن</w>"
    ],
    [
      "مار",
      "شل</w>"
    ],
    [
      "بٔڑ",
      "ِس</w>"
    ],
    [
      "آ",
      "ؤ"
    ],
    [
      "گ",
      "رس</w>"
    ],
    [
      "بر",
      "ہ"
    ],
    [
      "ک",
      "تاب"
    ],
    [
      "شہ",
      "رن</w>"
    ],
    [
      "ژھ",
      "انٛ"
    ],
    [
      "1",
      "."
    ],
    [
      "بیم",
      "ارِ</w>"
    ],
    [
      "نگ",
      "،</w>"
    ],
    [
      "ٕ",
      "ہٕ</w>"
    ],
    [
      "ِ",
      "ین</w>"
    ],
    [
      "کور",
      "ِ</w>"
    ],
    [
      "ُ",
      "وک</w>"
    ],
    [
      "س",
      "ٲب"
    ],
    [
      "شن",
      "ن</w>"
    ],
    [
      "ز",
      "رس</w>"
    ],
    [
      "ک",
      "نۍ</w>"
    ],
    [
      "ام",
      "،</w>"
    ],
    [
      "تھ",
      "ن</w>"
    ],
    [
      "ہی",
      "ٛ"
    ],
    [
      "ون",
      "ن</w>"
    ],
    [
      "پھ",
      "ہل"
    ],
    [
      "و",
      "ۍ</w>"
    ],
    [
      "کو",
      "٘"
    ],
    [
      "فی",
      "صلہٕ</w>"
    ],
    [
      "ت",
      "ور</w>"
    ],
    [
      "ائ",
      "ن</w>"
    ],
    [
      "م",
      "ز"
    ],
    [
      "نو",
      "و</w>"
    ],
    [
      "ج",
      "،</w>"
    ],
    [
      "ُ",
      "کھ</w>"
    ],
    [
      "پ",
      "ای"
    ],
    [
      "ہٗ",
      "</w>"
    ],
    [
      "مقبوُ",
      "ل</w>"
    ],
    [
      "وی",
      "ژن</w>"
    ],
    [
      "مر",
      "بع</w>"
    ],
    [
      "أ",
      "نٛدۍ</w>"
    ],
    [
      "غ",
      "ل</w>"
    ],
    [
      "مب",
      "لی</w>"
    ],
    [
      "دۄ",
      "شو"
    ],
    [
      "ن",
      "ور"
    ],
    [
      "کر",
      "ِ"
    ],
    [
      "مت",
      "،</w>"
    ],
    [
      "گی",
      "ری</w>"
    ],
    [
      "دو",
      "د</w>"
    ],
    [
      "کوٚر",
      "مت</w>"
    ],
    [
      "پیٹھ",
      "ٕہ</w>"
    ],
    [
      "صحی",
      "ح</w>"
    ],
    [
      "حال",
      "ت</w>"
    ],
    [
      "مث",
      "ال"
    ],
    [
      "شک",
      "ست</w>"
    ],
    [
      "با",
      "لہِ</w>"
    ],
    [
      "پ",
      "اد"
    ],
    [
      "نتی",
      "جس</w>"
    ],
    [
      "ر",
      "ٕچ</w>"
    ],
    [
      "کر",
      "ٕنۍ</w>"
    ],
    [
      "ڈر",
      "ٛ"
    ],
    [
      "ف",
      "ا</w>"
    ],
    [
      "لا",
      "ت</w>"
    ],
    [
      "شی",
      "ٲیی</w>"
    ],
    [
      "ایوار",
      "ڈ"
    ],
    [
      "آر",
      "ڈر</w>"
    ],
    [
      "دٲ",
      "ئی</w>"
    ],
    [
      "علام",
      "تہٕ</w>"
    ],
    [
      "تھ",
      "اوان</w>"
    ],
    [
      "تقری",
      "ٖ"
    ],
    [
      "کِ",
      "ھ"
    ],
    [
      "دِ",
      "یوٗت</w>"
    ],
    [
      "ؤ",
      "رِ"
    ],
    [
      "میو",
      "ن</w>"
    ],
    [
      "ع",
      "یا"
    ],
    [
      "مٕ",
      "تۍ</w>"
    ],
    [
      "ك",
      "ٲری</w>"
    ],
    [
      "تی",
      "م</w>"
    ],
    [
      "دُ",
      "نیا"
    ],
    [
      "چ",
      "ٗ"
    ],
    [
      "سام",
      "ان</w>"
    ],
    [
      "بناون",
      "ہٕ۔</w>"
    ],
    [
      "بھ",
      "گوان</w>"
    ],
    [
      "کھ",
      "ین</w>"
    ],
    [
      "ییٚ",
      "میک</w>"
    ],
    [
      "نو",
      "ِ</w>"
    ],
    [
      "ش",
      "اہن</w>"
    ],
    [
      "ک",
      "ش</w>"
    ],
    [
      "ہنٛد",
      "وست"
    ],
    [
      "حمای",
      "ت</w>"
    ],
    [
      "رس",
      "می</w>"
    ],
    [
      "روز",
      "نہٕ</w>"
    ],
    [
      "ای",
      "ون"
    ],
    [
      "بٲ",
      "نی</w>"
    ],
    [
      "مو",
      "س"
    ],
    [
      "ؤ",
      "ر"
    ],
    [
      "مٗ",
      "م"
    ],
    [
      "یوٚ",
      "تام</w>"
    ],
    [
      "پ",
      "اور</w>"
    ],
    [
      "موسی",
      "ق"
    ],
    [
      "سٲ",
      "تھی</w>"
    ],
    [
      "فوج",
      "ن</w>"
    ],
    [
      "ک",
      "ٗن</w>"
    ],
    [
      "پن",
      "جا"
    ],
    [
      "ژ",
      "ٹ"
    ],
    [
      "تع",
      "میر</w>"
    ],
    [
      "پرو",
      "گر"
    ],
    [
      "ز",
      "ور"
    ],
    [
      "کَ",
      "ران</w>"
    ],
    [
      "شروٗ",
      "ع۔</w>"
    ],
    [
      "مت",
      "عل"
    ],
    [
      "واری",
      "ٛ"
    ],
    [
      "کمپیو",
      "ٹر</w>"
    ],
    [
      "تیو",
      "ہار</w>"
    ],
    [
      "ما",
      "جہِ</w>"
    ],
    [
      "199",
      "9</w>"
    ],
    [
      "ی",
      "تھہٕ</w>"
    ],
    [
      "پار",
      "لی"
    ],
    [
      "ما",
      "ہ"
    ],
    [
      "وُ",
      "ہُ"
    ],
    [
      "لِ",
      "ہ</w>"
    ],
    [
      "كر",
      "ٗن</w>"
    ],
    [
      "س",
      "ہٗ</w>"
    ],
    [
      "وٕ",
      "یہ</w>"
    ],
    [
      "دٔلیٖ",
      "ل</w>"
    ],
    [
      "ہنٛد",
      "ین</w>"
    ],
    [
      "یو",
      "سہٕ</w>"
    ],
    [
      "کان",
      "ہہ</w>"
    ],
    [
      "ف",
      "ین"
    ],
    [
      "سرکٲ",
      "رِ</w>"
    ],
    [
      "ٹھ",
      "ۍ</w>"
    ],
    [
      "کر",
      "ٕ"
    ],
    [
      "دست",
      "اوی"
    ],
    [
      "مزا",
      "ح"
    ],
    [
      "سی",
      "زن</w>"
    ],
    [
      "معام",
      "لن</w>"
    ],
    [
      "ب",
      "اکس</w>"
    ],
    [
      "ہو",
      "ل"
    ],
    [
      "کر",
      "ان"
    ],
    [
      "یوٗ",
      "ک</w>"
    ],
    [
      "عموٗ",
      "مَن</w>"
    ],
    [
      "ز",
      "نس</w>"
    ],
    [
      "ؤ",
      "ری</w>"
    ],
    [
      "د",
      "وُر</w>"
    ],
    [
      "اک",
      "ِس</w>"
    ],
    [
      "رس",
      "م</w>"
    ],
    [
      "انت",
      "خاب</w>"
    ],
    [
      "ہمی",
      "شہٕ</w>"
    ],
    [
      "فار",
      "م</w>"
    ],
    [
      "چھٗ",
      "س</w>"
    ],
    [
      "كر",
      "نس</w>"
    ],
    [
      "آوا",
      "ز</w>"
    ],
    [
      "نٔتیٖ",
      "جس</w>"
    ],
    [
      "7",
      "0</w>"
    ],
    [
      "س",
      "ُک</w>"
    ],
    [
      "بن",
      "ٲوِ"
    ],
    [
      "یو",
      "ن</w>"
    ],
    [
      "خو",
      "شی</w>"
    ],
    [
      "انفی",
      "کشن</w>"
    ],
    [
      "ہِ",
      "ہ</w>"
    ],
    [
      "حر",
      "ارت</w>"
    ],
    [
      "سٹ",
      "ری</w>"
    ],
    [
      "تف",
      "ص"
    ],
    [
      "تھ",
      "وان</w>"
    ],
    [
      "نا",
      "تھ</w>"
    ],
    [
      "قان",
      "ون</w>"
    ],
    [
      "ہ",
      "او"
    ],
    [
      "جوا",
      "ب</w>"
    ],
    [
      "من",
      "گ"
    ],
    [
      "ق",
      "ت</w>"
    ],
    [
      "نا",
      "ڈو"
    ],
    [
      "پت",
      "اہ</w>"
    ],
    [
      "غ",
      "ور</w>"
    ],
    [
      "ت",
      "فری"
    ],
    [
      "ہو",
      "لی</w>"
    ],
    [
      "کھ",
      "لاڑ"
    ],
    [
      "پؠ",
      "ٹھٕ</w>"
    ],
    [
      "ान",
      ".</w>"
    ],
    [
      "برطان",
      "یہ</w>"
    ],
    [
      "ع",
      "وا"
    ],
    [
      "خاص",
      "كرِتھ</w>"
    ],
    [
      "کِ",
      "ہِ</w>"
    ],
    [
      "س",
      "نٛد"
    ],
    [
      "سی",
      "ٖ"
    ],
    [
      "زانٛ",
      "کٲری</w>"
    ],
    [
      "ٹی",
      "،</w>"
    ],
    [
      "تخ",
      "می"
    ],
    [
      "وای",
      "رس</w>"
    ],
    [
      "ہٕنٛد",
      "ٮ۪ن</w>"
    ],
    [
      "آمٕ",
      "تۍ۔</w>"
    ],
    [
      "چِ",
      "ھ۔</w>"
    ],
    [
      "कम",
      "प"
    ],
    [
      "ि",
      "ं"
    ],
    [
      "با",
      "لی</w>"
    ],
    [
      "را",
      "تھ</w>"
    ],
    [
      "ہ",
      "ٲ"
    ],
    [
      "دی",
      "ُت</w>"
    ],
    [
      "کٕ",
      "ر</w>"
    ],
    [
      "ژ",
      "ور"
    ],
    [
      "تن",
      "قی"
    ],
    [
      "وٕ",
      "چھنہٕ</w>"
    ],
    [
      "و",
      "چھ"
    ],
    [
      "م",
      "لا"
    ],
    [
      "مجمو",
      "عی</w>"
    ],
    [
      "ا",
      "سہ</w>"
    ],
    [
      "سو",
      "ن</w>"
    ],
    [
      "ز",
      "ندٕ</w>"
    ],
    [
      "زخ",
      "م</w>"
    ],
    [
      "باق",
      "ٲ"
    ],
    [
      "تشخی",
      "ص</w>"
    ],
    [
      "عموٗ",
      "من</w>"
    ],
    [
      "्य",
      "ू"
    ],
    [
      "لو",
      "٘"
    ],
    [
      "گوٚ",
      "و۔</w>"
    ],
    [
      "حو",
      "صلہٕ</w>"
    ],
    [
      "نا",
      "وان</w>"
    ],
    [
      "او",
      "ٚ"
    ],
    [
      "ییٚ",
      "میُک</w>"
    ],
    [
      "تھ",
      "ٕ"
    ],
    [
      "سرکٲ",
      "رۍ</w>"
    ],
    [
      "ح",
      "ال</w>"
    ],
    [
      "ابت",
      "دٲیی</w>"
    ],
    [
      "لۄ",
      "کُ"
    ],
    [
      "عل",
      "م</w>"
    ],
    [
      "ہلا",
      "ک</w>"
    ],
    [
      "تع",
      "داد"
    ],
    [
      "ک",
      "می</w>"
    ],
    [
      "بُ",
      "نیٲدی</w>"
    ],
    [
      "پر",
      "وا"
    ],
    [
      "ل",
      "ان"
    ],
    [
      "بین",
      "ڈی</w>"
    ],
    [
      "موض",
      "و"
    ],
    [
      "ك",
      "ور"
    ],
    [
      "ب",
      "ک</w>"
    ],
    [
      "مغر",
      "بس</w>"
    ],
    [
      "طر",
      "ف"
    ],
    [
      "حٲص",
      "ِ"
    ],
    [
      "ك",
      "ر</w>"
    ],
    [
      "قٕس",
      "مٕ"
    ],
    [
      "مح",
      "بت</w>"
    ],
    [
      "م",
      "زٕ</w>"
    ],
    [
      "می",
      "نی"
    ],
    [
      "کٲنٛ",
      "سہ</w>"
    ],
    [
      "بر",
      "ع"
    ],
    [
      "ج",
      "سمٲنی</w>"
    ],
    [
      "ब",
      "न"
    ],
    [
      "جنوُ",
      "بی</w>"
    ],
    [
      "لچسپ",
      "ی</w>"
    ],
    [
      "دِ",
      "ژ"
    ],
    [
      "قیاد",
      "ت</w>"
    ],
    [
      "ن",
      "ٲو"
    ],
    [
      "َ",
      "ت</w>"
    ],
    [
      "سر",
      "پر"
    ],
    [
      "اند",
      "از</w>"
    ],
    [
      "ان",
      "ی"
    ],
    [
      "م",
      "ام"
    ],
    [
      "م",
      "انن</w>"
    ],
    [
      "س",
      "زا</w>"
    ],
    [
      "پی",
      "دٕ</w>"
    ],
    [
      "ا",
      "دٕ</w>"
    ],
    [
      "در",
      "وا"
    ],
    [
      "مِ",
      "ث"
    ],
    [
      "سرو",
      "س</w>"
    ],
    [
      "نو",
      "ٹ</w>"
    ],
    [
      "مٲ",
      "ری</w>"
    ],
    [
      "ژ",
      "وُ"
    ],
    [
      "ب",
      "رٕ</w>"
    ],
    [
      "ق",
      "تل</w>"
    ],
    [
      "وا",
      "لیو</w>"
    ],
    [
      "کو",
      "شش</w>"
    ],
    [
      "ت",
      "ٗك</w>"
    ],
    [
      "اہ",
      "و</w>"
    ],
    [
      "حکوٗ",
      "مت</w>"
    ],
    [
      "زا",
      "نٛنہٕ</w>"
    ],
    [
      "گ",
      "اہ</w>"
    ],
    [
      "وُ",
      "نہِ</w>"
    ],
    [
      "یا",
      "دٕ</w>"
    ],
    [
      "س",
      "تھ</w>"
    ],
    [
      "نف",
      "رس</w>"
    ],
    [
      "ذ",
      "مہٕ</w>"
    ],
    [
      "تح",
      "ف"
    ],
    [
      "ن",
      "مٲی"
    ],
    [
      "بر",
      "گ</w>"
    ],
    [
      "ٹ",
      "ن"
    ],
    [
      "مع",
      "لو"
    ],
    [
      "ب",
      "لا"
    ],
    [
      "راز",
      "دٲ"
    ],
    [
      "مار",
      "نہٕ</w>"
    ],
    [
      "حال",
      "ان"
    ],
    [
      "196",
      "0</w>"
    ],
    [
      "خۄ",
      "ش</w>"
    ],
    [
      "رو",
      "ن</w>"
    ],
    [
      "پی",
      "دا"
    ],
    [
      "کر",
      "َن</w>"
    ],
    [
      "گِنٛد",
      "نہٕ</w>"
    ],
    [
      "ک",
      "ٹو"
    ],
    [
      "تج",
      "ٲ"
    ],
    [
      "کَ",
      "و</w>"
    ],
    [
      "سائ",
      "ی"
    ],
    [
      "ٹری",
      "ک</w>"
    ],
    [
      "سپور",
      "ٹس</w>"
    ],
    [
      "برون",
      "٘ہہ</w>"
    ],
    [
      "د",
      "یہ</w>"
    ],
    [
      "مح",
      "مد</w>"
    ],
    [
      "موسی",
      "ٖ"
    ],
    [
      "ہیٚ",
      "نٛدِ</w>"
    ],
    [
      "آغ",
      "ا"
    ],
    [
      "شن",
      "ا</w>"
    ],
    [
      "جمٲ",
      "ژ</w>"
    ],
    [
      "ہٕ",
      "نٛزِ</w>"
    ],
    [
      "ذ",
      "ی"
    ],
    [
      "اَ",
      "مِہ</w>"
    ],
    [
      "مان",
      "َس</w>"
    ],
    [
      "پ",
      "ہٕ</w>"
    ],
    [
      "س",
      "پر"
    ],
    [
      "ری",
      "ڈ"
    ],
    [
      "پ",
      "انڈ"
    ],
    [
      "لح",
      "اظ"
    ],
    [
      "لوٗ",
      "کَن</w>"
    ],
    [
      "کل",
      "وٗ"
    ],
    [
      "ای",
      "سٹ</w>"
    ],
    [
      "سو",
      "ُ</w>"
    ],
    [
      "شہ",
      "نش"
    ],
    [
      "بو",
      "دھ</w>"
    ],
    [
      "مغ",
      "رِ"
    ],
    [
      "الز",
      "ام</w>"
    ],
    [
      "گھ",
      "ا"
    ],
    [
      "لی",
      "ٲتی</w>"
    ],
    [
      "۔",
      "\"</w>"
    ],
    [
      "پار",
      "ک</w>"
    ],
    [
      "ٹ",
      "ہ</w>"
    ],
    [
      "ابت",
      "دٲئی</w>"
    ],
    [
      "ام",
      "چ</w>"
    ],
    [
      "أ",
      "مہ</w>"
    ],
    [
      "े",
      "मा"
    ],
    [
      "ک",
      "مار</w>"
    ],
    [
      "پُ",
      "ر"
    ],
    [
      "چھِ",
      "تھ</w>"
    ],
    [
      "وُ",
      "ل</w>"
    ],
    [
      "آ",
      "رام</w>"
    ],
    [
      "جنوٗ",
      "بی</w>"
    ],
    [
      "وا",
      "ل</w>"
    ],
    [
      "3",
      "1</w>"
    ],
    [
      "سکو",
      "ُ"
    ],
    [
      "حکو",
      "متس</w>"
    ],
    [
      "م",
      "ک</w>"
    ],
    [
      "سٕ",
      "ے</w>"
    ],
    [
      "مطاب",
      "ق</w>"
    ],
    [
      "تع",
      "لی"
    ],
    [
      "نی",
      "ل</w>"
    ],
    [
      "کھ",
      "ٮ۪"
    ],
    [
      "ح",
      "ل</w>"
    ],
    [
      "شطر",
      "نج</w>"
    ],
    [
      "سۭت",
      "ۍ،</w>"
    ],
    [
      "ن",
      "ہہ</w>"
    ],
    [
      "ا",
      "تہِ</w>"
    ],
    [
      "ایش",
      "یا</w>"
    ],
    [
      "مش",
      "ورٕ</w>"
    ],
    [
      "د",
      "و</w>"
    ],
    [
      "رۄ",
      "پی"
    ],
    [
      "ل",
      "ز</w>"
    ],
    [
      "گ",
      "ین"
    ],
    [
      "پون",
      "سہٕ</w>"
    ],
    [
      "ری",
      "کارڈ"
    ],
    [
      "م",
      "م"
    ],
    [
      "کو",
      "ئ"
    ],
    [
      "تجٲ",
      "رتی</w>"
    ],
    [
      "کِ",
      "لو"
    ],
    [
      "ہٕنٛد",
      "ین</w>"
    ],
    [
      "س",
      "ج"
    ],
    [
      "دٔ",
      "ست"
    ],
    [
      "كٲ",
      "م</w>"
    ],
    [
      "ل",
      "ط"
    ],
    [
      "اس",
      "مبلی</w>"
    ],
    [
      "2",
      ","
    ],
    [
      "جٲ",
      "ری۔</w>"
    ],
    [
      "ز",
      "ان</w>"
    ],
    [
      "را",
      "گ"
    ],
    [
      "ٹ",
      "یٚ"
    ],
    [
      "رٲ",
      "ژ</w>"
    ],
    [
      "آ",
      "بس</w>"
    ],
    [
      "اک",
      "ہٕ</w>"
    ],
    [
      "فو",
      "ٹو</w>"
    ],
    [
      "و",
      "نی"
    ],
    [
      "مقاب",
      "لس</w>"
    ],
    [
      "علاق",
      "ٲیی</w>"
    ],
    [
      "ق",
      "،</w>"
    ],
    [
      "ر",
      "انی</w>"
    ],
    [
      "ن",
      "ہ"
    ],
    [
      "ا",
      "گر"
    ],
    [
      "مٗ",
      "خت"
    ],
    [
      "ہو",
      "م</w>"
    ],
    [
      "ان",
      "ڈی"
    ],
    [
      "سین",
      "ٹ</w>"
    ],
    [
      "مع",
      "مو"
    ],
    [
      "کین",
      "سر</w>"
    ],
    [
      "199",
      "8</w>"
    ],
    [
      "فرو",
      "غ</w>"
    ],
    [
      "اد",
      "ارٕ</w>"
    ],
    [
      "ہائ",
      "ے</w>"
    ],
    [
      "پ",
      "ک</w>"
    ],
    [
      "الی",
      "کٹر"
    ],
    [
      "اد",
      "ای"
    ],
    [
      "الب",
      "م</w>"
    ],
    [
      "مۄ",
      "کھٕ</w>"
    ],
    [
      "یوٚ",
      "و</w>"
    ],
    [
      "س",
      "او"
    ],
    [
      "لہا",
      "ذا</w>"
    ],
    [
      "رٗ",
      "ك"
    ],
    [
      "تع",
      "ریف</w>"
    ],
    [
      "می",
      "ٹ"
    ],
    [
      "خط",
      "ہٕ</w>"
    ],
    [
      "د",
      "نیا"
    ],
    [
      "پار",
      "ٹ"
    ],
    [
      "علام",
      "ت</w>"
    ],
    [
      "رو",
      "د</w>"
    ],
    [
      "ای",
      "و"
    ],
    [
      "د",
      "وٗ"
    ],
    [
      "زِ",
      "تھ</w>"
    ],
    [
      "ر",
      "اک"
    ],
    [
      "اک",
      "ث"
    ],
    [
      "رفت",
      "ار</w>"
    ],
    [
      "پلی",
      "ٹ</w>"
    ],
    [
      "پو",
      "لو</w>"
    ],
    [
      "ای",
      "ڈی"
    ],
    [
      "دف",
      "تر</w>"
    ],
    [
      "تی",
      "،</w>"
    ],
    [
      "ہٮ۪",
      "کہِ</w>"
    ],
    [
      "ری",
      "تن</w>"
    ],
    [
      "خط",
      "س</w>"
    ],
    [
      "پیش",
      "ہٕ</w>"
    ],
    [
      "رُ",
      "ک"
    ],
    [
      "ش",
      "ام"
    ],
    [
      "پنٛ",
      "نیٚن</w>"
    ],
    [
      "ت",
      "تہِ</w>"
    ],
    [
      "م",
      "سا"
    ],
    [
      "ان",
      "تہ"
    ],
    [
      "جو",
      "ڑ"
    ],
    [
      "ڈ",
      "یا</w>"
    ],
    [
      "دٔ",
      "ہ"
    ],
    [
      "مو",
      "ٹر</w>"
    ],
    [
      "بی",
      "کٹی"
    ],
    [
      "پ",
      "نگ</w>"
    ],
    [
      "منصوٗ",
      "بہٕ</w>"
    ],
    [
      "ال",
      "دین</w>"
    ],
    [
      "ٹیم",
      "س</w>"
    ],
    [
      "كٗ",
      "نہِ</w>"
    ],
    [
      "نا",
      "گ"
    ],
    [
      "کر",
      "ِتھ</w>"
    ],
    [
      "سو",
      "زنہٕ</w>"
    ],
    [
      "د",
      "ان"
    ],
    [
      "ا",
      "ژ"
    ],
    [
      "ط",
      "ویل</w>"
    ],
    [
      "و",
      "ٹہٕ</w>"
    ],
    [
      "بنی",
      "یہ</w>"
    ],
    [
      "سٹ",
      "یو"
    ],
    [
      "ان",
      "ق"
    ],
    [
      "ل",
      "دا"
    ],
    [
      "بی",
      "س</w>"
    ],
    [
      "ور",
      "ک</w>"
    ],
    [
      "ڈا",
      "ہس</w>"
    ],
    [
      "سٹا",
      "ک</w>"
    ],
    [
      "ٲ",
      "نس</w>"
    ],
    [
      "न",
      "्</w>"
    ],
    [
      "इ",
      "सत"
    ],
    [
      "فت",
      "ار</w>"
    ],
    [
      "کھ",
      "و</w>"
    ],
    [
      "نِ",
      "ظ"
    ],
    [
      "پنٛ",
      "نٮ۪ن</w>"
    ],
    [
      "ی",
      "یہِ</w>"
    ],
    [
      "قلع",
      "ہ</w>"
    ],
    [
      "ك",
      "یا"
    ],
    [
      "نی",
      "م</w>"
    ],
    [
      "زخ",
      "می</w>"
    ],
    [
      "آؤ",
      "ٹ</w>"
    ],
    [
      "اہ",
      "ل</w>"
    ],
    [
      "میٖ",
      "ٹر</w>"
    ],
    [
      "کھ",
      "ڑا</w>"
    ],
    [
      "ذ",
      "یلی</w>"
    ],
    [
      "ژ",
      "س</w>"
    ],
    [
      "جزی",
      "رٕ</w>"
    ],
    [
      "دٗ",
      "بارٕ</w>"
    ],
    [
      "ن",
      "ال"
    ],
    [
      "ہا",
      "ؤ"
    ],
    [
      "قٲب",
      "ل</w>"
    ],
    [
      "گژھ",
      "نک</w>"
    ],
    [
      "چو",
      "لا</w>"
    ],
    [
      "پرو",
      "جی"
    ],
    [
      "تا",
      "ری"
    ],
    [
      "زب",
      "انن</w>"
    ],
    [
      "تہنٛد",
      "س</w>"
    ],
    [
      "س",
      "نس</w>"
    ],
    [
      "لند",
      "ن</w>"
    ],
    [
      "ب",
      "نٛگ"
    ],
    [
      "می",
      "زبٲنی</w>"
    ],
    [
      "ل",
      "کش"
    ],
    [
      "لی",
      "ہ</w>"
    ],
    [
      "لہ",
      "ذا</w>"
    ],
    [
      "بن",
      "ٲو</w>"
    ],
    [
      "آ",
      "و۔</w>"
    ],
    [
      "ن",
      "مای"
    ],
    [
      "فی",
      "ص"
    ],
    [
      "ج",
      "یم"
    ],
    [
      "اہ",
      "می"
    ],
    [
      "موا",
      "د</w>"
    ],
    [
      "مِ",
      "ل"
    ],
    [
      "تقسی",
      "ٖم</w>"
    ],
    [
      "ق",
      "ۄ"
    ],
    [
      "مندر",
      "س</w>"
    ],
    [
      "ش",
      "مالس</w>"
    ],
    [
      "ای",
      "شیٲیی</w>"
    ],
    [
      "ن",
      "تھ</w>"
    ],
    [
      "ای",
      "مری"
    ],
    [
      "ایسو",
      "سی</w>"
    ],
    [
      "یل",
      "و</w>"
    ],
    [
      "تۄ",
      "ہِہ</w>"
    ],
    [
      "ہ",
      "می</w>"
    ],
    [
      "ق",
      "ٔ"
    ],
    [
      "گۄڈٕنِ",
      "چ</w>"
    ],
    [
      "ع",
      "ز"
    ],
    [
      "را",
      "ک</w>"
    ],
    [
      "ژھ",
      "ار"
    ],
    [
      "ل",
      "ٕچ</w>"
    ],
    [
      "لوُ",
      "کن</w>"
    ],
    [
      "ج",
      "ما"
    ],
    [
      "بۄ",
      "ن</w>"
    ],
    [
      "سوی",
      "ڈ"
    ],
    [
      "فر",
      "ق</w>"
    ],
    [
      "وۄ",
      "پد"
    ],
    [
      "مٲ",
      "لِس</w>"
    ],
    [
      "حِ",
      "سا"
    ],
    [
      "ت",
      "بٲ"
    ],
    [
      "مٗ",
      "قاب"
    ],
    [
      "دٕ",
      "۔</w>"
    ],
    [
      "ش",
      "کل</w>"
    ],
    [
      "مش",
      "رِ"
    ],
    [
      "کو",
      "ش"
    ],
    [
      "گِ",
      "ند"
    ],
    [
      "سو",
      "ل</w>"
    ],
    [
      "و",
      "ز"
    ],
    [
      "بن",
      "یا"
    ],
    [
      "ان",
      "ا"
    ],
    [
      "ان",
      "ٕچ</w>"
    ],
    [
      "ب",
      "ہٕ۔</w>"
    ],
    [
      "ٹ",
      "ار"
    ],
    [
      "سین",
      "ٹر"
    ],
    [
      "می",
      "گھ"
    ],
    [
      "سٹ",
      "ا</w>"
    ],
    [
      "مش",
      "تر"
    ],
    [
      "او",
      "س"
    ],
    [
      "واب",
      "سط"
    ],
    [
      "اند",
      "ار</w>"
    ],
    [
      "با",
      "لا"
    ],
    [
      "پ",
      "ت</w>"
    ],
    [
      "ظٲ",
      "ہِر</w>"
    ],
    [
      "مٲ",
      "لس</w>"
    ],
    [
      "مُ",
      "تٲ"
    ],
    [
      "ہا",
      "ل</w>"
    ],
    [
      "ح",
      "کم</w>"
    ],
    [
      "ہی",
      "نہٕ</w>"
    ],
    [
      "ہندوستان",
      "ُک</w>"
    ],
    [
      "ک",
      "امہِ</w>"
    ],
    [
      "لیکھ",
      "نہٕ</w>"
    ],
    [
      "فی",
      "ٖ"
    ],
    [
      "ا",
      "ت"
    ],
    [
      "وُ",
      "چھ"
    ],
    [
      "ق",
      "بول</w>"
    ],
    [
      "و",
      "ُ</w>"
    ],
    [
      "تربی",
      "ت</w>"
    ],
    [
      "دیٖ",
      "د</w>"
    ],
    [
      "وری",
      "ہہ</w>"
    ],
    [
      "فُ",
      "ٹ</w>"
    ],
    [
      "وائ",
      "ے</w>"
    ],
    [
      "ٹر",
      "ا</w>"
    ],
    [
      "ٹ",
      "نس</w>"
    ],
    [
      "इसत",
      "ेमा"
    ],
    [
      "क",
      "ो"
    ],
    [
      "نٕ",
      "چہِ</w>"
    ],
    [
      "غ",
      "ی"
    ],
    [
      "باد",
      "شاہ"
    ],
    [
      "گۄڈ",
      "نیُک</w>"
    ],
    [
      "ش",
      "وٗ"
    ],
    [
      "دور",
      "ِ</w>"
    ],
    [
      "کر",
      "ُن۔</w>"
    ],
    [
      "س",
      "ف"
    ],
    [
      "ج",
      "ون"
    ],
    [
      "ا",
      "سل"
    ],
    [
      "دو",
      "ست</w>"
    ],
    [
      "کمی",
      "ٹی</w>"
    ],
    [
      "ص",
      "لٲ"
    ],
    [
      "د",
      "وٗر</w>"
    ],
    [
      "زٔ",
      "میٖ"
    ],
    [
      "موجو",
      "د</w>"
    ],
    [
      "قر",
      "ض"
    ],
    [
      "قٕس",
      "م</w>"
    ],
    [
      "سی",
      "نی"
    ],
    [
      "ٹر",
      "ان"
    ],
    [
      "گ",
      "نہٕ</w>"
    ],
    [
      "واری",
      "ہن</w>"
    ],
    [
      "زن",
      "انَن</w>"
    ],
    [
      "ड",
      "</w>"
    ],
    [
      "ر",
      "وا"
    ],
    [
      "پو",
      "زی"
    ],
    [
      "پ",
      "ۄ"
    ],
    [
      "می",
      "ٛ"
    ],
    [
      "اف",
      "سر"
    ],
    [
      "س",
      "مب"
    ],
    [
      "پنجا",
      "ب</w>"
    ],
    [
      "کم",
      "۔</w>"
    ],
    [
      "موٗ",
      "جوٗ"
    ],
    [
      "پھ",
      "ِ"
    ],
    [
      "د",
      "ای"
    ],
    [
      "لۄکُ",
      "ٹ</w>"
    ],
    [
      "پرو",
      "فی"
    ],
    [
      "ایسو",
      "سی"
    ],
    [
      "ای",
      "ئر</w>"
    ],
    [
      "دار",
      "۔</w>"
    ],
    [
      "ار",
      "ی</w>"
    ],
    [
      "مح",
      "ف"
    ],
    [
      "مق",
      "د"
    ],
    [
      "کم",
      "یون"
    ],
    [
      "گنٛد",
      "نہٕ</w>"
    ],
    [
      "ل",
      "ن،</w>"
    ],
    [
      "یو",
      "س</w>"
    ],
    [
      "ش",
      "ا</w>"
    ],
    [
      "وج",
      "ے</w>"
    ],
    [
      "کَ",
      "رن</w>"
    ],
    [
      "دۄشو",
      "ے</w>"
    ],
    [
      "او",
      "نہ</w>"
    ],
    [
      "گژھ",
      "تھ</w>"
    ],
    [
      "باو",
      "جو"
    ],
    [
      "ری",
      "و"
    ],
    [
      "مت",
      "عار"
    ],
    [
      "کن",
      "ال"
    ],
    [
      "پ",
      "ائ"
    ],
    [
      "تص",
      "دی"
    ],
    [
      "ی",
      "ِس</w>"
    ],
    [
      "تَ",
      "ر</w>"
    ],
    [
      "ط",
      "ے</w>"
    ],
    [
      "ہ",
      "نٛزِ</w>"
    ],
    [
      "س",
      "خٕ"
    ],
    [
      "شی",
      "ٖ"
    ],
    [
      "ضروُ",
      "رت</w>"
    ],
    [
      "ک",
      "امہ</w>"
    ],
    [
      "ش",
      "یا</w>"
    ],
    [
      "ل",
      "کھ</w>"
    ],
    [
      "त",
      "र"
    ],
    [
      "स",
      "ि"
    ],
    [
      "ट",
      "र</w>"
    ],
    [
      "بو",
      "ُ</w>"
    ],
    [
      "بد",
      "ھ</w>"
    ],
    [
      "نی",
      "ران</w>"
    ],
    [
      "ہِند",
      "وست"
    ],
    [
      "اعزا",
      "ز</w>"
    ],
    [
      "ترٛ",
      "ٮ۪ن</w>"
    ],
    [
      "دی",
      "ش</w>"
    ],
    [
      "وج",
      "ی</w>"
    ],
    [
      "دٕ",
      "گی</w>"
    ],
    [
      "یِ",
      "ن</w>"
    ],
    [
      "ا",
      "تھہٕ</w>"
    ],
    [
      "پور",
      "س</w>"
    ],
    [
      "پان",
      "ژن</w>"
    ],
    [
      "واق",
      "عہٕ</w>"
    ],
    [
      "کی",
      "ٖ"
    ],
    [
      "یا",
      "ہَس</w>"
    ],
    [
      "من",
      "ٹس</w>"
    ],
    [
      "دہ",
      "لس</w>"
    ],
    [
      "وٹ",
      "امن</w>"
    ],
    [
      "فیڈری",
      "شن</w>"
    ],
    [
      "ادای",
      "گی</w>"
    ],
    [
      "سن",
      "سکر"
    ],
    [
      "مو",
      "ج</w>"
    ],
    [
      "سٹ",
      "ار</w>"
    ],
    [
      "ج",
      "َس</w>"
    ],
    [
      "یوُ",
      "ل</w>"
    ],
    [
      "وق",
      "ف</w>"
    ],
    [
      "گ",
      "یمہٕ</w>"
    ],
    [
      "پ",
      "تی</w>"
    ],
    [
      "ہی",
      "ندِ</w>"
    ],
    [
      "بی",
      "یہِ</w>"
    ],
    [
      "دھ",
      "ا</w>"
    ],
    [
      "اف",
      "غ"
    ],
    [
      "پن",
      "اہ</w>"
    ],
    [
      "ام",
      "و"
    ],
    [
      "کی",
      "رو"
    ],
    [
      "و",
      "سان</w>"
    ],
    [
      "ب",
      "غٲر</w>"
    ],
    [
      "ک",
      "سٹ"
    ],
    [
      "چھ",
      "وٕ</w>"
    ],
    [
      "مق",
      "ام"
    ],
    [
      "میڈ",
      "یا</w>"
    ],
    [
      "بچ",
      "ت</w>"
    ],
    [
      "ठ",
      "</w>"
    ],
    [
      "ह",
      "</w>"
    ],
    [
      "پن",
      "ِنہِ</w>"
    ],
    [
      "ہِ",
      "نٛزِ</w>"
    ],
    [
      "نگ",
      "ن</w>"
    ],
    [
      "ق",
      "ری"
    ],
    [
      "ییل",
      "ہ</w>"
    ],
    [
      "موسیٖ",
      "قی</w>"
    ],
    [
      "پ",
      "و</w>"
    ],
    [
      "ی",
      "تھ"
    ],
    [
      "ڈ",
      "می</w>"
    ],
    [
      "د",
      "ٲی"
    ],
    [
      "ا",
      "ری"
    ],
    [
      "بو",
      "ل"
    ],
    [
      "کَر",
      "ان۔</w>"
    ],
    [
      "اون",
      "ُک</w>"
    ],
    [
      "بو",
      "٘"
    ],
    [
      "ریاست",
      "ہائے</w>"
    ],
    [
      "پیٚٹھ",
      "ٕہ</w>"
    ],
    [
      "इसतेमा",
      "ल</w>"
    ],
    [
      "رٹ",
      "نہٕ</w>"
    ],
    [
      "فِل",
      "من</w>"
    ],
    [
      "ا",
      "تح"
    ],
    [
      "بغاو",
      "ت</w>"
    ],
    [
      "نٗ",
      "مایاں</w>"
    ],
    [
      "آ",
      "و"
    ],
    [
      "رِ",
      "م</w>"
    ],
    [
      "سن",
      "زِ</w>"
    ],
    [
      "گۄڈٕ",
      "نیُک</w>"
    ],
    [
      "ذِ",
      "کِ"
    ],
    [
      "دھ",
      "و"
    ],
    [
      "ؤ",
      "ن</w>"
    ],
    [
      "گنگ",
      "ا</w>"
    ],
    [
      "کو",
      "چ</w>"
    ],
    [
      "ژ",
      "ٔ"
    ],
    [
      "حال",
      "اتن</w>"
    ],
    [
      "ن",
      "قصان</w>"
    ],
    [
      "انتخ",
      "اب"
    ],
    [
      "ط",
      "ٔ"
    ],
    [
      "گۄڈٕنِ",
      "چہِ</w>"
    ],
    [
      "2",
      "5"
    ],
    [
      "ف",
      "ٗ"
    ],
    [
      "سی",
      "زن"
    ],
    [
      "پن",
      "چ"
    ],
    [
      "اصطلا",
      "ح</w>"
    ],
    [
      "فل",
      "مہٕ</w>"
    ],
    [
      "ब",
      "ा"
    ],
    [
      "प",
      "्र"
    ],
    [
      "می",
      "،</w>"
    ],
    [
      "کَ",
      "تھ</w>"
    ],
    [
      "پ",
      "ٕ"
    ],
    [
      "مع",
      "موٗ"
    ],
    [
      "کر",
      "تھ</w>"
    ],
    [
      "لٲ",
      "نہِ</w>"
    ],
    [
      "مع",
      "او"
    ],
    [
      "گ",
      "وُ"
    ],
    [
      "ذخی",
      "رٕ</w>"
    ],
    [
      "تھ",
      "ا</w>"
    ],
    [
      "لی",
      "ن"
    ],
    [
      "وا",
      "رس</w>"
    ],
    [
      "گڑ",
      "ھ"
    ],
    [
      "وٗ",
      "نہِ</w>"
    ],
    [
      "ذ",
      "</w>"
    ],
    [
      "رِیا",
      "ست</w>"
    ],
    [
      "ج",
      "۔</w>"
    ],
    [
      "ز",
      "ۍ</w>"
    ],
    [
      "شنا",
      "خت</w>"
    ],
    [
      "اخت",
      "یا"
    ],
    [
      "کٔرِ",
      "یو</w>"
    ],
    [
      "چھِ",
      "وٕ</w>"
    ],
    [
      "أ",
      "ری</w>"
    ],
    [
      "با",
      "غ"
    ],
    [
      "ٹھ",
      "ہِ</w>"
    ],
    [
      "سٹی",
      "ٹس</w>"
    ],
    [
      "منظ",
      "م</w>"
    ],
    [
      "ام",
      "کان</w>"
    ],
    [
      "بی",
      "ی</w>"
    ],
    [
      "منظ",
      "ر</w>"
    ],
    [
      "کرنا",
      "ٹک</w>"
    ],
    [
      "م",
      "مکنہٕ</w>"
    ],
    [
      "بچ",
      "ن</w>"
    ],
    [
      "ب",
      "یو"
    ],
    [
      "مای",
      "وس</w>"
    ],
    [
      "کیل",
      "نڈ"
    ],
    [
      "ژھ",
      "ٲ"
    ],
    [
      "ہل",
      "کہٕ</w>"
    ],
    [
      "ان",
      "شور"
    ],
    [
      "بن",
      "یاد</w>"
    ],
    [
      "گز",
      "ریو</w>"
    ],
    [
      "क",
      "े"
    ],
    [
      "وۄ",
      "ں</w>"
    ],
    [
      "قیاد",
      "تس</w>"
    ],
    [
      "ی",
      "یم"
    ],
    [
      "دیو",
      "تا</w>"
    ],
    [
      "ہِنٛدُست",
      "ٲنہِ</w>"
    ],
    [
      "وٗ",
      "ن"
    ],
    [
      "مٗ",
      "تٲ"
    ],
    [
      "وی",
      "و</w>"
    ],
    [
      "ط",
      "س</w>"
    ],
    [
      "گر",
      "ن</w>"
    ],
    [
      "جہا",
      "ز</w>"
    ],
    [
      "می",
      "م</w>"
    ],
    [
      "ا",
      "پی"
    ],
    [
      "مخ",
      "ال"
    ],
    [
      "5",
      "0"
    ],
    [
      "گژھ",
      "ہِ</w>"
    ],
    [
      "تر",
      "جی"
    ],
    [
      "ج",
      "وی"
    ],
    [
      "سو",
      "٘</w>"
    ],
    [
      "تخمی",
      "نہٕ</w>"
    ],
    [
      "کی",
      "ٛن</w>"
    ],
    [
      "انس",
      "انن</w>"
    ],
    [
      "ؤ",
      "ریہ</w>"
    ],
    [
      "حی",
      "در"
    ],
    [
      "سٕ",
      "نزِ</w>"
    ],
    [
      "ک",
      "تہ</w>"
    ],
    [
      "ل",
      "ُک</w>"
    ],
    [
      "مٲ",
      "لۍ</w>"
    ],
    [
      "گ",
      "یمن</w>"
    ],
    [
      "مان",
      "ان</w>"
    ],
    [
      "اف",
      "سر</w>"
    ],
    [
      "صور",
      "ت</w>"
    ],
    [
      "م",
      "ہا"
    ],
    [
      "پر",
      "ن"
    ],
    [
      "کا",
      "ل</w>"
    ],
    [
      "س",
      "بھ"
    ],
    [
      "سا",
      "سہٕ</w>"
    ],
    [
      "ا",
      "ے"
    ],
    [
      "194",
      "7</w>"
    ],
    [
      "تام",
      "۔</w>"
    ],
    [
      "ط",
      "ور"
    ],
    [
      "مُل",
      "کَن</w>"
    ],
    [
      "تمغ",
      "ہٕ</w>"
    ],
    [
      "سی",
      "ل</w>"
    ],
    [
      "پ",
      "وائ"
    ],
    [
      "یو",
      "وا</w>"
    ],
    [
      "ون",
      "ا</w>"
    ],
    [
      "تجر",
      "بہٕ</w>"
    ],
    [
      "کا",
      "ہس</w>"
    ],
    [
      "ن",
      "اوس</w>"
    ],
    [
      "3",
      "5</w>"
    ],
    [
      "بی",
      "ڈ"
    ],
    [
      "تھوٚ",
      "د</w>"
    ],
    [
      "کر",
      "ٗن</w>"
    ],
    [
      "لو",
      "ن</w>"
    ],
    [
      "ن",
      "ار</w>"
    ],
    [
      "فور",
      "ڈ</w>"
    ],
    [
      "ب",
      "ُک</w>"
    ],
    [
      "غلط",
      "ی</w>"
    ],
    [
      "اد",
      "ا۔</w>"
    ],
    [
      "بٔڑ",
      "ۍ</w>"
    ],
    [
      "نۄ",
      "قصان</w>"
    ],
    [
      "امری",
      "ٖ"
    ],
    [
      "واریا",
      "ہو</w>"
    ],
    [
      "2",
      "."
    ],
    [
      "ہی",
      "کَن</w>"
    ],
    [
      "جو",
      "لایی</w>"
    ],
    [
      "گ",
      "یس</w>"
    ],
    [
      "گژھ",
      "َن</w>"
    ],
    [
      "تو",
      "ان"
    ],
    [
      "ای",
      "تھ"
    ],
    [
      "س",
      "کو</w>"
    ],
    [
      "سوا",
      "ل</w>"
    ],
    [
      "خٲطر",
      "ٕہ</w>"
    ],
    [
      "تصوی",
      "ر</w>"
    ],
    [
      "ہن",
      "زٕ</w>"
    ],
    [
      "گر",
      "ٛ"
    ],
    [
      "یق",
      "ین</w>"
    ],
    [
      "واق",
      "ع"
    ],
    [
      "پن",
      "ِ"
    ],
    [
      "وو",
      "نہِ</w>"
    ],
    [
      "ژ",
      "ٲ"
    ],
    [
      "مض",
      "بوٗ"
    ],
    [
      "گو",
      "ل۔</w>"
    ],
    [
      "ا",
      "تر</w>"
    ],
    [
      "ا",
      "ڈٕ</w>"
    ],
    [
      "بن",
      "ٲوِتھ</w>"
    ],
    [
      "رو",
      "ز</w>"
    ],
    [
      "نٛ",
      "ہ"
    ],
    [
      "ر",
      "ُک</w>"
    ],
    [
      "سخٕ",
      "ت</w>"
    ],
    [
      "کٹ",
      "و</w>"
    ],
    [
      "فل",
      "مَن</w>"
    ],
    [
      "آ",
      "یِہ</w>"
    ],
    [
      "لۄ",
      "کٹ</w>"
    ],
    [
      "کیٛا",
      "ز</w>"
    ],
    [
      "े",
      "ट"
    ],
    [
      "म",
      "ु"
    ],
    [
      "ر",
      "ان"
    ],
    [
      "چھ",
      "ے</w>"
    ],
    [
      "کو",
      "ٛ"
    ],
    [
      "قص",
      "بس</w>"
    ],
    [
      "ہل",
      "ِس</w>"
    ],
    [
      "زین",
      "نہٕ</w>"
    ],
    [
      "یو٘",
      "سہٕ</w>"
    ],
    [
      "تقری",
      "ب</w>"
    ],
    [
      "ت",
      "چ</w>"
    ],
    [
      "چ",
      "لاوان</w>"
    ],
    [
      "بر",
      "ن</w>"
    ],
    [
      "4",
      "5</w>"
    ],
    [
      "تر",
      "ج"
    ],
    [
      "رٮ۪",
      "وٲیتی</w>"
    ],
    [
      "ژۄ",
      "ن</w>"
    ],
    [
      "نفر",
      "ن</w>"
    ],
    [
      "ڈائ",
      "ری"
    ],
    [
      "می",
      "ڈی"
    ],
    [
      "سِ",
      "رٛ"
    ],
    [
      "ک",
      "ث"
    ],
    [
      "جھ",
      "یٖ"
    ],
    [
      "3",
      "."
    ],
    [
      "سٹ",
      "ور"
    ],
    [
      "ٲو",
      "تھ</w>"
    ],
    [
      "त",
      "ि</w>"
    ],
    [
      "ٹ",
      "یل"
    ],
    [
      "تنا",
      "ز"
    ],
    [
      "اون",
      "ک</w>"
    ],
    [
      "و",
      "رین</w>"
    ],
    [
      "خ",
      "انہٕ</w>"
    ],
    [
      "کار",
      "۔</w>"
    ],
    [
      "اِن",
      "تِ"
    ],
    [
      "با",
      "لہٕ</w>"
    ],
    [
      "گ",
      "جرا"
    ],
    [
      "یو",
      "و</w>"
    ],
    [
      "ان",
      "نہٕ</w>"
    ],
    [
      "پت",
      "ا</w>"
    ],
    [
      "آسٹریل",
      "یا</w>"
    ],
    [
      "سوا",
      "می</w>"
    ],
    [
      "پ",
      "لو</w>"
    ],
    [
      "کھ",
      "ا"
    ],
    [
      "لُ",
      "کن</w>"
    ],
    [
      "تصدی",
      "ق</w>"
    ],
    [
      "ب",
      "س"
    ],
    [
      "ن",
      "سب"
    ],
    [
      "18",
      "5"
    ],
    [
      "سۭ",
      "تہ</w>"
    ],
    [
      "ٹھ",
      "ِس</w>"
    ],
    [
      "گ",
      "،</w>"
    ],
    [
      "فال",
      "ج</w>"
    ],
    [
      "ش",
      "ری"
    ],
    [
      "سٗ",
      "ہ</w>"
    ],
    [
      "شرا",
      "ب</w>"
    ],
    [
      "وُ",
      "ن"
    ],
    [
      "ٲسِ",
      "تھ۔</w>"
    ],
    [
      "کوٚ",
      "رن</w>"
    ],
    [
      "ٲی",
      "و</w>"
    ],
    [
      "نگ",
      "ا</w>"
    ],
    [
      "ث",
      "بو"
    ],
    [
      "اداکار",
      "ہ</w>"
    ],
    [
      "یِ",
      "تھہٕ</w>"
    ],
    [
      "مُ",
      "ش"
    ],
    [
      "ا",
      "خرا"
    ],
    [
      "اق",
      "ت"
    ],
    [
      "پیو",
      "ٚو</w>"
    ],
    [
      "ب",
      "ےٚ</w>"
    ],
    [
      "قاب",
      "ل</w>"
    ],
    [
      "کال",
      "س</w>"
    ],
    [
      "ظٲ",
      "ہ"
    ],
    [
      "یوٚ",
      "سہٕ</w>"
    ],
    [
      "199",
      "5</w>"
    ],
    [
      "در",
      "خوا"
    ],
    [
      "پا",
      "لی"
    ],
    [
      "ک",
      "ان۔</w>"
    ],
    [
      "سپد",
      "ان۔</w>"
    ],
    [
      "تلا",
      "ش</w>"
    ],
    [
      "ؤ",
      "نڈ"
    ],
    [
      "حکوٗ",
      "مت"
    ],
    [
      "ما",
      "غ"
    ],
    [
      "ک",
      "س،</w>"
    ],
    [
      "د",
      "َن</w>"
    ],
    [
      "پٔ",
      "کہِ</w>"
    ],
    [
      "او",
      "ان،</w>"
    ],
    [
      "می",
      "س"
    ],
    [
      "ك",
      "ور</w>"
    ],
    [
      "خو",
      "د</w>"
    ],
    [
      "ِ",
      "یو</w>"
    ],
    [
      "تعل",
      "ُ"
    ],
    [
      "ژھ",
      "انڈ"
    ],
    [
      "صِ",
      "رف</w>"
    ],
    [
      "تیا",
      "ر۔</w>"
    ],
    [
      "ق",
      "ن</w>"
    ],
    [
      "199",
      "6</w>"
    ],
    [
      "دۄ",
      "ہَن</w>"
    ],
    [
      "تام",
      "،</w>"
    ],
    [
      "یور",
      "پس</w>"
    ],
    [
      "ٕ",
      "ج</w>"
    ],
    [
      "نٛد",
      "ن</w>"
    ],
    [
      "195",
      "0</w>"
    ],
    [
      "کم",
      "پٔ"
    ],
    [
      "گ",
      "لی"
    ],
    [
      "رٮ۪",
      "تہٕ</w>"
    ],
    [
      "اع",
      "لی"
    ],
    [
      "من",
      "گ</w>"
    ],
    [
      "ہیٚ",
      "چھ"
    ],
    [
      "ہ",
      "مالی"
    ],
    [
      "متٲ",
      "ث"
    ],
    [
      "پٔ",
      "ت"
    ],
    [
      "ڈ",
      "ور"
    ],
    [
      "نو",
      "کری</w>"
    ],
    [
      "گوڈ",
      "نِ"
    ],
    [
      "خت",
      "ٕ"
    ],
    [
      "ال",
      "ن</w>"
    ],
    [
      "حٲصِ",
      "ل۔</w>"
    ],
    [
      "کُ",
      "نہ</w>"
    ],
    [
      "ق",
      "ہ</w>"
    ],
    [
      "ن",
      "مایاں</w>"
    ],
    [
      "و",
      "ش"
    ],
    [
      "\"",
      "،</w>"
    ],
    [
      "تش",
      "د"
    ],
    [
      "اکی",
      "ڈمی</w>"
    ],
    [
      "واب",
      "ست"
    ],
    [
      "بلی",
      "ک</w>"
    ],
    [
      "ک",
      "چ"
    ],
    [
      "कमप",
      "्यू"
    ],
    [
      "کانگری",
      "س</w>"
    ],
    [
      "شہنش",
      "اہ</w>"
    ],
    [
      "خو",
      "ش</w>"
    ],
    [
      "را",
      "ے</w>"
    ],
    [
      "شای",
      "ع</w>"
    ],
    [
      "مد",
      "تہٕ</w>"
    ],
    [
      "كر",
      "ِ</w>"
    ],
    [
      "جنگ",
      "ی</w>"
    ],
    [
      "سلطن",
      "تن</w>"
    ],
    [
      "او",
      "سُ"
    ],
    [
      "مع",
      "ٲ"
    ],
    [
      "حی",
      "ث"
    ],
    [
      "دع",
      "وا</w>"
    ],
    [
      "حکو",
      "مت"
    ],
    [
      "کُ",
      "ن۔</w>"
    ],
    [
      "وَ",
      "ن"
    ],
    [
      "خانٛد",
      "ار"
    ],
    [
      "ہی",
      "كِ"
    ],
    [
      "قونوٗ",
      "نی</w>"
    ],
    [
      "ز",
      "یوٗ"
    ],
    [
      "می",
      "ان"
    ],
    [
      "تہ",
      "وار"
    ],
    [
      "می",
      "کسی"
    ],
    [
      "ش",
      "کار</w>"
    ],
    [
      "چ",
      "ان</w>"
    ],
    [
      "ل",
      "ڈ"
    ],
    [
      "ق",
      "ل</w>"
    ],
    [
      "م",
      "او"
    ],
    [
      "ٗ",
      "یہ</w>"
    ],
    [
      "ٗ",
      "</w>"
    ],
    [
      "مل",
      "یا"
    ],
    [
      "دھ",
      "م"
    ],
    [
      "ح",
      "کم"
    ],
    [
      "می",
      "گ"
    ],
    [
      "ج",
      "رات</w>"
    ],
    [
      "مر",
      "ن</w>"
    ],
    [
      "آم",
      "د</w>"
    ],
    [
      "وٲ",
      "حِ"
    ],
    [
      "وٲحِ",
      "د</w>"
    ],
    [
      "کِ",
      "تھ</w>"
    ],
    [
      "دار",
      "ال"
    ],
    [
      "ی",
      "ٗن</w>"
    ],
    [
      "7",
      "5</w>"
    ],
    [
      "اکث",
      "ری"
    ],
    [
      "کٲنٛ",
      "سہِ</w>"
    ],
    [
      "بین",
      "ڈ</w>"
    ],
    [
      "ش",
      "یو</w>"
    ],
    [
      "زی",
      "چھ"
    ],
    [
      "گاڑ",
      "ِ</w>"
    ],
    [
      "ف",
      "ک</w>"
    ],
    [
      "ماحو",
      "لیٲتی</w>"
    ],
    [
      "ما",
      "ڈ"
    ],
    [
      "خر",
      "چہٕ</w>"
    ],
    [
      "ایمری",
      "ك"
    ],
    [
      "کرنا",
      "ٹ"
    ],
    [
      "ک",
      "نگ"
    ],
    [
      "ست",
      "ن</w>"
    ],
    [
      "طاق",
      "تور</w>"
    ],
    [
      "مٲ",
      "لِ"
    ],
    [
      "عل",
      "او"
    ],
    [
      "ری",
      "لو</w>"
    ],
    [
      "بنگ",
      "الس</w>"
    ],
    [
      "ائ",
      "ی"
    ],
    [
      "جا",
      "پٲ"
    ],
    [
      "کی",
      "ل</w>"
    ],
    [
      "شر",
      "کت</w>"
    ],
    [
      "صوُ",
      "رت</w>"
    ],
    [
      "فر",
      "ن"
    ],
    [
      "تب",
      "دیٖ"
    ],
    [
      "ل",
      "ع</w>"
    ],
    [
      "یاف",
      "تہٕ</w>"
    ],
    [
      "مح",
      "کم"
    ],
    [
      "و",
      "ان۔</w>"
    ],
    [
      "مل",
      "کس</w>"
    ],
    [
      "کنٹرو",
      "ل</w>"
    ],
    [
      "وی",
      "دک</w>"
    ],
    [
      "چ",
      "یل"
    ],
    [
      "سٹ",
      "ور</w>"
    ],
    [
      "س",
      "لو"
    ],
    [
      "جی",
      "نی"
    ],
    [
      "्",
      "ल"
    ],
    [
      "اور",
      "نگ</w>"
    ],
    [
      "اَ",
      "ہم</w>"
    ],
    [
      "ٲ",
      "ٹھ</w>"
    ],
    [
      "و",
      "یہ</w>"
    ],
    [
      "بن",
      "نہٕ</w>"
    ],
    [
      "آ",
      "خ"
    ],
    [
      "ث",
      "ٲب"
    ],
    [
      "د",
      "ش"
    ],
    [
      "بر",
      "ص"
    ],
    [
      "لا",
      "ب</w>"
    ],
    [
      "ری",
      "ڈیو</w>"
    ],
    [
      "پو",
      "سٹ</w>"
    ],
    [
      "تھ",
      "ون"
    ],
    [
      "د",
      "با"
    ],
    [
      "خ",
      "ل"
    ],
    [
      "سٲ",
      "رِ"
    ],
    [
      "چ",
      "ا"
    ],
    [
      "ہی",
      "کہٕ</w>"
    ],
    [
      "س",
      "مندر</w>"
    ],
    [
      "پ",
      "کان</w>"
    ],
    [
      "کٕ",
      "ن"
    ],
    [
      "طوف",
      "ان</w>"
    ],
    [
      "وۄ",
      "نٛ"
    ],
    [
      "انٹر",
      "نیٹ</w>"
    ],
    [
      "علاق",
      "َس</w>"
    ],
    [
      "ک",
      "اون"
    ],
    [
      "ار",
      "جن"
    ],
    [
      "क",
      "ि"
    ],
    [
      "مق",
      "بو"
    ],
    [
      "مل",
      "ک</w>"
    ],
    [
      "انتظ",
      "ام"
    ],
    [
      "سِل",
      "سِ"
    ],
    [
      "را",
      "ست</w>"
    ],
    [
      "جنو",
      "بس</w>"
    ],
    [
      "فر",
      "د</w>"
    ],
    [
      "ن",
      "م"
    ],
    [
      "زِ",
      "یادٕ</w>"
    ],
    [
      "ٲ",
      "ژ</w>"
    ],
    [
      "جل",
      "دٕ"
    ],
    [
      "لگ",
      "ان</w>"
    ],
    [
      "سٗ",
      "نٛد</w>"
    ],
    [
      "ت",
      "می</w>"
    ],
    [
      "ور",
      "ڈ</w>"
    ],
    [
      "ضروٗ",
      "رت</w>"
    ],
    [
      "مع",
      "یار</w>"
    ],
    [
      "ش",
      "دٕ</w>"
    ],
    [
      "حر",
      "ک"
    ],
    [
      "ژھانٛ",
      "ڑ"
    ],
    [
      "سپور",
      "ٹ</w>"
    ],
    [
      "ب",
      "ان"
    ],
    [
      "گو",
      "لڈ</w>"
    ],
    [
      "لو",
      "ی</w>"
    ],
    [
      "آب",
      "شار</w>"
    ],
    [
      "ای",
      "نی"
    ],
    [
      "گ",
      "نڈ"
    ],
    [
      "ما",
      "تن</w>"
    ],
    [
      "سی",
      "ٹ</w>"
    ],
    [
      "وارِیا",
      "ہن</w>"
    ],
    [
      "دست",
      "خط</w>"
    ],
    [
      "ب",
      "مب"
    ],
    [
      "ذِکِ",
      "ر</w>"
    ],
    [
      "یوٚ",
      "س</w>"
    ],
    [
      "پَن",
      "ُن</w>"
    ],
    [
      "وَ",
      "نان</w>"
    ],
    [
      "ٹ",
      "ُک</w>"
    ],
    [
      "و",
      "تہِ</w>"
    ],
    [
      "نار",
      "اض"
    ],
    [
      "ان",
      "سان</w>"
    ],
    [
      "آ",
      "مُت،</w>"
    ],
    [
      "ی",
      "یہ</w>"
    ],
    [
      "ب",
      "ٹ"
    ],
    [
      "ک",
      "ڈ"
    ],
    [
      "ٹی",
      "کنال"
    ],
    [
      "ک",
      "وار"
    ],
    [
      "م",
      "ك"
    ],
    [
      "مسل",
      "مان</w>"
    ],
    [
      "خٔ",
      "ریٖ"
    ],
    [
      "سر",
      "ح"
    ],
    [
      "ت",
      "اکہِ</w>"
    ],
    [
      "نٕ",
      "كہِ</w>"
    ],
    [
      "گا",
      "ڈٕ</w>"
    ],
    [
      "ہی",
      "ڈ</w>"
    ],
    [
      "ख",
      "ा"
    ],
    [
      "مل",
      "کی"
    ],
    [
      "حِسا",
      "بہٕ</w>"
    ],
    [
      "سر",
      "براہ</w>"
    ],
    [
      "کَ",
      "رِ</w>"
    ],
    [
      "مای",
      "و"
    ],
    [
      "بر",
      "س</w>"
    ],
    [
      "اندا",
      "زٕ</w>"
    ],
    [
      "گ",
      "ہِ</w>"
    ],
    [
      "اِ",
      "جازت</w>"
    ],
    [
      "بچ",
      "اونہٕ</w>"
    ],
    [
      "ام",
      "ِہ</w>"
    ],
    [
      "ار",
      "و</w>"
    ],
    [
      "کرن",
      "َس</w>"
    ],
    [
      "شای",
      "د</w>"
    ],
    [
      "یٚ",
      "و</w>"
    ],
    [
      "پٲ",
      "دا"
    ],
    [
      "مق",
      "ص"
    ],
    [
      "فی",
      "سٹیو"
    ],
    [
      "پی",
      "وان</w>"
    ],
    [
      "دٕ",
      "ر</w>"
    ],
    [
      "ٹی",
      "و</w>"
    ],
    [
      "یژھ",
      "ان۔</w>"
    ],
    [
      "اعلی",
      "ٰ</w>"
    ],
    [
      "آف",
      "تاب</w>"
    ],
    [
      "ڈی",
      "ٹا</w>"
    ],
    [
      "پن",
      "نِہ</w>"
    ],
    [
      "ش",
      "نگ"
    ],
    [
      "کٗ",
      "نہِ</w>"
    ],
    [
      "مطال",
      "عہٕ</w>"
    ],
    [
      "سہ",
      "ُ</w>"
    ],
    [
      "م",
      "نٛ"
    ],
    [
      "نا",
      "ئی"
    ],
    [
      "ای",
      "لی"
    ],
    [
      "كر",
      "نٗك</w>"
    ],
    [
      "افریق",
      "ہ</w>"
    ],
    [
      "فا",
      "ع</w>"
    ],
    [
      "زر",
      "عی</w>"
    ],
    [
      "من",
      "صوُ"
    ],
    [
      "ص",
      "لا"
    ],
    [
      "ڈھ",
      "ان"
    ],
    [
      "گۄڈ",
      "نیک</w>"
    ],
    [
      "ت",
      "ۍ،</w>"
    ],
    [
      "کَ",
      "نہِ</w>"
    ],
    [
      "3",
      "00</w>"
    ],
    [
      "مع",
      "یا"
    ],
    [
      "والی",
      "ٚن</w>"
    ],
    [
      "ن",
      "سی</w>"
    ],
    [
      "ہٕند",
      "ۍ</w>"
    ],
    [
      "ییل",
      "ِہ</w>"
    ],
    [
      "سپ",
      "ر</w>"
    ],
    [
      "یو",
      "گا</w>"
    ],
    [
      "واجیٚ",
      "نہِ</w>"
    ],
    [
      "بنگ",
      "ال"
    ],
    [
      "نِ",
      "شہ</w>"
    ],
    [
      "تع",
      "ٲ"
    ],
    [
      "وابسط",
      "ہٕ</w>"
    ],
    [
      "را",
      "ز</w>"
    ],
    [
      "معمو",
      "لی</w>"
    ],
    [
      "مع",
      "اش"
    ],
    [
      "وُ",
      "چھنہٕ</w>"
    ],
    [
      "ٹھ",
      "ی"
    ],
    [
      "ن",
      "ٹن</w>"
    ],
    [
      "بنگ",
      "لہ</w>"
    ],
    [
      "کی",
      "شن</w>"
    ],
    [
      "ہَ",
      "</w>"
    ],
    [
      "من",
      "فی</w>"
    ],
    [
      "ژ",
      "ےٚ</w>"
    ],
    [
      "انشور",
      "نس</w>"
    ],
    [
      "ای",
      "ری"
    ],
    [
      "ڈ",
      "ٹ</w>"
    ],
    [
      "میل",
      ")</w>"
    ],
    [
      "وۄ",
      "می"
    ],
    [
      "ف",
      "ار</w>"
    ],
    [
      "رو",
      "ٚ"
    ],
    [
      "مِ",
      "چ</w>"
    ],
    [
      "د",
      "َس</w>"
    ],
    [
      "َ",
      "ل</w>"
    ],
    [
      "کوٗ",
      "ش"
    ],
    [
      "مٗ",
      "ت۔</w>"
    ],
    [
      "س",
      "ری"
    ],
    [
      "م",
      "مب"
    ],
    [
      "4",
      "00</w>"
    ],
    [
      "تجر",
      "ُ"
    ],
    [
      "ٹھ",
      "یک</w>"
    ],
    [
      "بَ",
      "ڑ"
    ],
    [
      "شُ",
      "ر"
    ],
    [
      "جار",
      "ج</w>"
    ],
    [
      "پہاڑ",
      "ن</w>"
    ],
    [
      "ش",
      "یا"
    ],
    [
      "ییٚ",
      "مِس</w>"
    ],
    [
      "ضٔروٗ",
      "رت</w>"
    ],
    [
      "ج",
      "شن</w>"
    ],
    [
      "تحقی",
      "ق</w>"
    ],
    [
      "ٲ",
      "یِو</w>"
    ],
    [
      "اش",
      "وک</w>"
    ],
    [
      "اد",
      "ن</w>"
    ],
    [
      "ج",
      "نس</w>"
    ],
    [
      "آس",
      "ِ"
    ],
    [
      "خاند",
      "انس</w>"
    ],
    [
      "ٕ",
      "س</w>"
    ],
    [
      "ش",
      "ری</w>"
    ],
    [
      "پ",
      "ے</w>"
    ],
    [
      "آ",
      "ل</w>"
    ],
    [
      "سین",
      "ٹر</w>"
    ],
    [
      "کر",
      "م</w>"
    ],
    [
      "مش",
      "کل</w>"
    ],
    [
      "دوٚ",
      "یم</w>"
    ],
    [
      "مُ",
      "کمل</w>"
    ],
    [
      "آ",
      "ز</w>"
    ],
    [
      "شرو",
      "ُ"
    ],
    [
      "شخ",
      "ص</w>"
    ],
    [
      "ق",
      "لعہٕ</w>"
    ],
    [
      "ك",
      "ری"
    ],
    [
      "مق",
      "دس</w>"
    ],
    [
      "ست",
      "ۍ</w>"
    ],
    [
      "کٕ",
      "ننہٕ</w>"
    ],
    [
      "پنٛ",
      "نین</w>"
    ],
    [
      "وو",
      "ڈ</w>"
    ],
    [
      "گوا",
      "س"
    ],
    [
      "ہ",
      "مس"
    ],
    [
      "مرا",
      "ٹھ"
    ],
    [
      "ا",
      "من"
    ],
    [
      "وا",
      "رن</w>"
    ],
    [
      "ا",
      "سہِ</w>"
    ],
    [
      "ٹورنا",
      "منٹ</w>"
    ],
    [
      "سٲب",
      "قہٕ</w>"
    ],
    [
      "کوٛ",
      "ر</w>"
    ],
    [
      "بل",
      "دِ"
    ],
    [
      "کارکر",
      "دگی</w>"
    ],
    [
      "199",
      "2</w>"
    ],
    [
      "کول",
      "مب"
    ],
    [
      "مقاب",
      "لہ</w>"
    ],
    [
      "سٲ",
      "ح"
    ],
    [
      "ص",
      "س</w>"
    ],
    [
      "پ",
      "زِ</w>"
    ],
    [
      "3",
      "0"
    ],
    [
      "جنگ",
      "لی</w>"
    ],
    [
      "شن",
      "،</w>"
    ],
    [
      "تع",
      "ار"
    ],
    [
      "ب",
      "خ"
    ],
    [
      "کھ",
      "نڈ"
    ],
    [
      "گُز",
      "ریو</w>"
    ],
    [
      "سم",
      "ر</w>"
    ],
    [
      "خ",
      "ون</w>"
    ],
    [
      "آسٹری",
      "لوی</w>"
    ],
    [
      "نیو",
      "ک</w>"
    ],
    [
      "ा",
      "य"
    ],
    [
      "ش",
      "اندار</w>"
    ],
    [
      "ب",
      "ٲی"
    ],
    [
      "کو٘",
      "ر</w>"
    ],
    [
      "اچ",
      "انک</w>"
    ],
    [
      "ت",
      "ان"
    ],
    [
      "ن",
      "وٗ"
    ],
    [
      "زی",
      "نہٕ</w>"
    ],
    [
      "کر",
      "س</w>"
    ],
    [
      "زب",
      "انہِ</w>"
    ],
    [
      "و",
      "ط"
    ],
    [
      "دف",
      "تر"
    ],
    [
      "آ",
      "ث"
    ],
    [
      "ب",
      "ش"
    ],
    [
      "حقی",
      "قی</w>"
    ],
    [
      "آ",
      "سٕ"
    ],
    [
      "می",
      "ری</w>"
    ],
    [
      "دو",
      "ش</w>"
    ],
    [
      "انگ",
      "لینڈس</w>"
    ],
    [
      "بٲ",
      "ع"
    ],
    [
      "ہِنٛد",
      "ۍ</w>"
    ],
    [
      "تا",
      "زٕ</w>"
    ],
    [
      "ما",
      "ز</w>"
    ],
    [
      "گ",
      "رین</w>"
    ],
    [
      "اُ",
      "وس</w>"
    ],
    [
      "نش",
      "اند"
    ],
    [
      "ای",
      "کس</w>"
    ],
    [
      "3",
      ","
    ],
    [
      "ک",
      "ب"
    ],
    [
      "ہیٚ",
      "کن</w>"
    ],
    [
      "ڈوی",
      "ژ"
    ],
    [
      "میونسپ",
      "لٹی</w>"
    ],
    [
      "پ",
      "ہ</w>"
    ],
    [
      "باقٲ",
      "عدٕ</w>"
    ],
    [
      "وِ",
      "نڈ"
    ],
    [
      "न",
      "ॅ</w>"
    ],
    [
      "را",
      "س</w>"
    ],
    [
      "گر",
      "فتار</w>"
    ],
    [
      "زِ",
      "نٛدگی</w>"
    ],
    [
      "شِک",
      "ست</w>"
    ],
    [
      "مُ",
      "سل"
    ],
    [
      "مُتٲ",
      "ث"
    ],
    [
      "وٗ",
      "ل</w>"
    ],
    [
      "پن",
      "نٮ۪ن</w>"
    ],
    [
      "199",
      "7</w>"
    ],
    [
      "ق",
      "ط"
    ],
    [
      "ف",
      "کر</w>"
    ],
    [
      "ہُ",
      "ری"
    ],
    [
      "ر",
      "فی"
    ],
    [
      "س",
      "یوٚ"
    ],
    [
      "پو",
      "٘"
    ],
    [
      "پردی",
      "شس</w>"
    ],
    [
      "ز",
      "را"
    ],
    [
      "ک",
      "پ"
    ],
    [
      "مشہ",
      "وُر</w>"
    ],
    [
      "خر",
      "چ</w>"
    ],
    [
      "ڈر",
      "ام"
    ],
    [
      "م",
      "لی</w>"
    ],
    [
      "ڑ",
      "ۍ</w>"
    ],
    [
      "سی",
      "کنڈ"
    ],
    [
      "ف",
      "لی"
    ],
    [
      "کو",
      "ری"
    ],
    [
      "ت",
      "باد"
    ],
    [
      "تر",
      "اکھ"
    ],
    [
      "ٹر",
      "انس"
    ],
    [
      "199",
      "3</w>"
    ],
    [
      "جنگ",
      "ہٕ</w>"
    ],
    [
      "ناو",
      "ن</w>"
    ],
    [
      "سو",
      "ز"
    ],
    [
      "می",
      "چس</w>"
    ],
    [
      "ٹی",
      "سٹ"
    ],
    [
      "تٲری",
      "خ"
    ],
    [
      "بند",
      "رگ"
    ],
    [
      "کر",
      "شنا</w>"
    ],
    [
      "پُ",
      "ل"
    ],
    [
      "س",
      "رس</w>"
    ],
    [
      "بال",
      "غ</w>"
    ],
    [
      "سا",
      "دٕ</w>"
    ],
    [
      "متعار",
      "ف</w>"
    ],
    [
      "نا",
      "ڈو</w>"
    ],
    [
      "کوٚر",
      "ُکھ</w>"
    ],
    [
      "ت",
      "اہن</w>"
    ],
    [
      "سارِ",
      "وٕیہ</w>"
    ],
    [
      "اص",
      "ٕل</w>"
    ],
    [
      "پی",
      "مانَس</w>"
    ],
    [
      "م",
      "بہٕ</w>"
    ],
    [
      "ق",
      "دم</w>"
    ],
    [
      "گۄڈن",
      "چ</w>"
    ],
    [
      "دست",
      "یاب</w>"
    ],
    [
      "وا",
      "لی</w>"
    ],
    [
      "دری",
      "اوس</w>"
    ],
    [
      "تج",
      "ارت</w>"
    ],
    [
      "ریا",
      "ہس</w>"
    ],
    [
      "گۄڈن",
      "کس</w>"
    ],
    [
      "न",
      "ि"
    ],
    [
      "مث",
      "لن،</w>"
    ],
    [
      "ل",
      "می</w>"
    ],
    [
      "بُنیا",
      "د</w>"
    ],
    [
      "ك",
      "م"
    ],
    [
      "اص",
      "لا"
    ],
    [
      "چُھ",
      "،</w>"
    ],
    [
      "ف",
      "َ"
    ],
    [
      "گھ",
      "ریلو</w>"
    ],
    [
      "مٗقاب",
      "لہٕ</w>"
    ],
    [
      "مض",
      "بو"
    ],
    [
      "س",
      "نٛ"
    ],
    [
      "دی",
      "ُ"
    ],
    [
      "در",
      "٘"
    ],
    [
      "ہن",
      "زن</w>"
    ],
    [
      "وون",
      "ہ</w>"
    ],
    [
      "خ",
      "تم"
    ],
    [
      "کر",
      "ٕ</w>"
    ],
    [
      "مر",
      "نس</w>"
    ],
    [
      "حکمر",
      "ان</w>"
    ],
    [
      "باد",
      "شاہن</w>"
    ],
    [
      "ر",
      "ت۔</w>"
    ],
    [
      "تر",
      "ک</w>"
    ],
    [
      "ق",
      "یا"
    ],
    [
      "ام",
      "ر"
    ],
    [
      "چ",
      "ل</w>"
    ],
    [
      "ش",
      "نہٕ</w>"
    ],
    [
      "مار",
      "ک</w>"
    ],
    [
      "عا",
      "تن</w>"
    ],
    [
      "شُ",
      "دٕ</w>"
    ],
    [
      "و",
      "جو"
    ],
    [
      "شا",
      "ٹ</w>"
    ],
    [
      "ع",
      "مو"
    ],
    [
      "سام",
      "ع"
    ],
    [
      "ما",
      "ڈل</w>"
    ],
    [
      "بی",
      "ر</w>"
    ],
    [
      "تیو",
      "ہار"
    ],
    [
      "ہٕ",
      "نٛزن</w>"
    ],
    [
      "نی",
      "شن</w>"
    ],
    [
      "کام",
      "ن</w>"
    ],
    [
      "ڈ",
      "نگ</w>"
    ],
    [
      "ڈ",
      "چ</w>"
    ],
    [
      "ضرور",
      "ت۔</w>"
    ],
    [
      "کٮ۪",
      "نٛ"
    ],
    [
      "ما",
      "جہ</w>"
    ],
    [
      "مر",
      "ان</w>"
    ],
    [
      "کم",
      "زور</w>"
    ],
    [
      "ژ",
      "ٕ۔</w>"
    ],
    [
      "وات",
      "ان</w>"
    ],
    [
      "می",
      "چ"
    ],
    [
      "وٗ",
      "چھ"
    ],
    [
      "كٕ",
      "رِ</w>"
    ],
    [
      "مر",
      "کٔ"
    ],
    [
      "تِ",
      "مَو</w>"
    ],
    [
      "خطر",
      "ناک</w>"
    ],
    [
      "کھیل",
      "س</w>"
    ],
    [
      "جم",
      "ہو"
    ],
    [
      "توٲ",
      "ری"
    ],
    [
      "ٹی",
      "۔</w>"
    ],
    [
      "آ",
      "ندھ"
    ],
    [
      "ووٚ",
      "ن"
    ],
    [
      "ز",
      "ال"
    ],
    [
      "در",
      "ٛ"
    ],
    [
      "ع",
      "باد"
    ],
    [
      "ؤ",
      "رۍ</w>"
    ],
    [
      "بچ",
      "ہٕ</w>"
    ],
    [
      "ٹ",
      "س"
    ],
    [
      "ع",
      "نص"
    ],
    [
      "سرگر",
      "می</w>"
    ],
    [
      "ژ",
      "مہِ</w>"
    ],
    [
      "ج",
      "یو"
    ],
    [
      "ای",
      "جن"
    ],
    [
      "جا",
      "پان</w>"
    ],
    [
      "خر",
      "ٲبی</w>"
    ],
    [
      "ک",
      "سن</w>"
    ],
    [
      "ف",
      "ع"
    ],
    [
      "مو",
      "سم</w>"
    ],
    [
      "کلا",
      "ہو"
    ],
    [
      "وۄنٛ",
      "ہِ</w>"
    ],
    [
      "لو",
      "جی"
    ],
    [
      "لا",
      "گو</w>"
    ],
    [
      "گر",
      "٘"
    ],
    [
      "کرن",
      "۔</w>"
    ],
    [
      "ؤ",
      "ری"
    ],
    [
      "کو",
      "نسل</w>"
    ],
    [
      "كان",
      "ہہ</w>"
    ],
    [
      "ق",
      "درتی</w>"
    ],
    [
      "گیو",
      "ن</w>"
    ],
    [
      "دست",
      "ی</w>"
    ],
    [
      "خٲطر",
      "ٕ،</w>"
    ],
    [
      "کر",
      "،</w>"
    ],
    [
      "مضبوٗ",
      "ط</w>"
    ],
    [
      "ہ",
      "جر"
    ],
    [
      "ر",
      "کن</w>"
    ],
    [
      "تکیا",
      "زِ</w>"
    ],
    [
      "او",
      "ل</w>"
    ],
    [
      "8",
      "5</w>"
    ],
    [
      "کر",
      "و</w>"
    ],
    [
      "ٖ",
      "ز</w>"
    ],
    [
      "حکو",
      "متن</w>"
    ],
    [
      "خۄ",
      "د</w>"
    ],
    [
      "ز",
      "ُک</w>"
    ],
    [
      "س",
      "وار</w>"
    ],
    [
      "کی",
      "تھو"
    ],
    [
      "م",
      "ہر"
    ],
    [
      "چین",
      "س</w>"
    ],
    [
      "ر",
      "سو"
    ],
    [
      "نا",
      "ڈ"
    ],
    [
      "د",
      "ث"
    ],
    [
      "سکا",
      "ٹ</w>"
    ],
    [
      "لیٖ",
      "س</w>"
    ],
    [
      "لا",
      "گ</w>"
    ],
    [
      "نا",
      "گا"
    ],
    [
      "او",
      "کلاہو"
    ],
    [
      "مٲ",
      "ل"
    ],
    [
      "ر",
      ")</w>"
    ],
    [
      "ری",
      "پبل"
    ],
    [
      "أ",
      "نٛدِ</w>"
    ],
    [
      "عار",
      "ضی</w>"
    ],
    [
      "بَ",
      "نی"
    ],
    [
      "واج",
      "ِ"
    ],
    [
      "سپ",
      "ُ"
    ],
    [
      "گلو",
      "کار</w>"
    ],
    [
      "3",
      "2</w>"
    ],
    [
      "خ",
      "انن</w>"
    ],
    [
      "باس",
      "ان۔</w>"
    ],
    [
      "د",
      "ل"
    ],
    [
      "زی",
      "ٛ"
    ],
    [
      "199",
      "4</w>"
    ],
    [
      "نو",
      "ش"
    ],
    [
      "باوجو",
      "د</w>"
    ],
    [
      "و",
      "زن</w>"
    ],
    [
      "عم",
      "لس</w>"
    ],
    [
      "لی",
      "س</w>"
    ],
    [
      "پ",
      "کن"
    ],
    [
      "در",
      "می"
    ],
    [
      "وٲ",
      "ن"
    ],
    [
      "شُ",
      "مال</w>"
    ],
    [
      "ہ",
      "ہہِ</w>"
    ],
    [
      "صلٲ",
      "حی"
    ],
    [
      "سر",
      "حد</w>"
    ]
  ],
  "merge_stats": [
    {
      "step": 1,
      "pair": [
        "ٕ",
        "</w>"
      ],
      "frequency": 174179,
      "new_token": "ٕ</w>"
    },
    {
      "step": 2,
      "pair": [
        "ن",
        "</w>"
      ],
      "frequency": 161542,
      "new_token": "ن</w>"
    },
    {
      "step": 3,
      "pair": [
        "س",
        "</w>"
      ],
      "frequency": 139642,
      "new_token": "س</w>"
    },
    {
      "step": 4,
      "pair": [
        "ہ",
        "ٕ</w>"
      ],
      "frequency": 134482,
      "new_token": "ہٕ</w>"
    },
    {
      "step": 5,
      "pair": [
        "ِ",
        "</w>"
      ],
      "frequency": 109797,
      "new_token": "ِ</w>"
    },
    {
      "step": 6,
      "pair": [
        "ی",
        "</w>"
      ],
      "frequency": 107343,
      "new_token": "ی</w>"
    },
    {
      "step": 7,
      "pair": [
        "ن",
        "ٛ"
      ],
      "frequency": 103831,
      "new_token": "نٛ"
    },
    {
      "step": 8,
      "pair": [
        "ھ",
        "</w>"
      ],
      "frequency": 99265,
      "new_token": "ھ</w>"
    },
    {
      "step": 9,
      "pair": [
        "۔",
        "</w>"
      ],
      "frequency": 98485,
      "new_token": "۔</w>"
    },
    {
      "step": 10,
      "pair": [
        "ہ",
        "</w>"
      ],
      "frequency": 86529,
      "new_token": "ہ</w>"
    },
    {
      "step": 11,
      "pair": [
        "ز",
        "</w>"
      ],
      "frequency": 81641,
      "new_token": "ز</w>"
    },
    {
      "step": 12,
      "pair": [
        "ر",
        "</w>"
      ],
      "frequency": 75626,
      "new_token": "ر</w>"
    },
    {
      "step": 13,
      "pair": [
        "ہ",
        "ِ</w>"
      ],
      "frequency": 72835,
      "new_token": "ہِ</w>"
    },
    {
      "step": 14,
      "pair": [
        "ا",
        "ن"
      ],
      "frequency": 59942,
      "new_token": "ان"
    },
    {
      "step": 15,
      "pair": [
        "ت",
        "ہٕ</w>"
      ],
      "frequency": 56070,
      "new_token": "تہٕ</w>"
    },
    {
      "step": 16,
      "pair": [
        "نٛ",
        "ز</w>"
      ],
      "frequency": 53848,
      "new_token": "نٛز</w>"
    },
    {
      "step": 17,
      "pair": [
        "،",
        "</w>"
      ],
      "frequency": 49751,
      "new_token": "،</w>"
    },
    {
      "step": 18,
      "pair": [
        "ر",
        "ی"
      ],
      "frequency": 48635,
      "new_token": "ری"
    },
    {
      "step": 19,
      "pair": [
        "م",
        "نٛز</w>"
      ],
      "frequency": 47254,
      "new_token": "منٛز</w>"
    },
    {
      "step": 20,
      "pair": [
        "م",
        "</w>"
      ],
      "frequency": 46290,
      "new_token": "م</w>"
    },
    {
      "step": 21,
      "pair": [
        "چ",
        "ھ"
      ],
      "frequency": 45400,
      "new_token": "چھ"
    },
    {
      "step": 22,
      "pair": [
        "و",
        "</w>"
      ],
      "frequency": 44452,
      "new_token": "و</w>"
    },
    {
      "step": 23,
      "pair": [
        "ل",
        "</w>"
      ],
      "frequency": 40318,
      "new_token": "ل</w>"
    },
    {
      "step": 24,
      "pair": [
        "ن",
        "ہٕ</w>"
      ],
      "frequency": 39414,
      "new_token": "نہٕ</w>"
    },
    {
      "step": 25,
      "pair": [
        "و",
        "ا"
      ],
      "frequency": 39027,
      "new_token": "وا"
    },
    {
      "step": 26,
      "pair": [
        "ۍ",
        "</w>"
      ],
      "frequency": 37650,
      "new_token": "ۍ</w>"
    },
    {
      "step": 27,
      "pair": [
        "ا",
        "و"
      ],
      "frequency": 34378,
      "new_token": "او"
    },
    {
      "step": 28,
      "pair": [
        "ک",
        "ر"
      ],
      "frequency": 32701,
      "new_token": "کر"
    },
    {
      "step": 29,
      "pair": [
        "ی",
        "ا"
      ],
      "frequency": 31685,
      "new_token": "یا"
    },
    {
      "step": 30,
      "pair": [
        "ت",
        "</w>"
      ],
      "frequency": 30465,
      "new_token": "ت</w>"
    },
    {
      "step": 31,
      "pair": [
        "د",
        "</w>"
      ],
      "frequency": 30126,
      "new_token": "د</w>"
    },
    {
      "step": 32,
      "pair": [
        "ا",
        "ی"
      ],
      "frequency": 29955,
      "new_token": "ای"
    },
    {
      "step": 33,
      "pair": [
        "ا",
        "ر"
      ],
      "frequency": 29050,
      "new_token": "ار"
    },
    {
      "step": 34,
      "pair": [
        "ک",
        "</w>"
      ],
      "frequency": 28474,
      "new_token": "ک</w>"
    },
    {
      "step": 35,
      "pair": [
        "ت",
        "ھ</w>"
      ],
      "frequency": 28472,
      "new_token": "تھ</w>"
    },
    {
      "step": 36,
      "pair": [
        "ا",
        "ن</w>"
      ],
      "frequency": 27724,
      "new_token": "ان</w>"
    },
    {
      "step": 37,
      "pair": [
        "و",
        "ر"
      ],
      "frequency": 24217,
      "new_token": "ور"
    },
    {
      "step": 38,
      "pair": [
        "پ",
        "ی"
      ],
      "frequency": 24082,
      "new_token": "پی"
    },
    {
      "step": 39,
      "pair": [
        "ا",
        "ک"
      ],
      "frequency": 23673,
      "new_token": "اک"
    },
    {
      "step": 40,
      "pair": [
        "م",
        "ن"
      ],
      "frequency": 22286,
      "new_token": "من"
    },
    {
      "step": 41,
      "pair": [
        "چ",
        "ھ</w>"
      ],
      "frequency": 21898,
      "new_token": "چھ</w>"
    },
    {
      "step": 42,
      "pair": [
        "ا",
        "م"
      ],
      "frequency": 21423,
      "new_token": "ام"
    },
    {
      "step": 43,
      "pair": [
        "ی",
        "و"
      ],
      "frequency": 20875,
      "new_token": "یو"
    },
    {
      "step": 44,
      "pair": [
        "ا",
        "</w>"
      ],
      "frequency": 19735,
      "new_token": "ا</w>"
    },
    {
      "step": 45,
      "pair": [
        "ر",
        "و"
      ],
      "frequency": 19727,
      "new_token": "رو"
    },
    {
      "step": 46,
      "pair": [
        "ل",
        "ی"
      ],
      "frequency": 19308,
      "new_token": "لی"
    },
    {
      "step": 47,
      "pair": [
        "ب",
        "ا"
      ],
      "frequency": 17733,
      "new_token": "با"
    },
    {
      "step": 48,
      "pair": [
        "س",
        "ت"
      ],
      "frequency": 17381,
      "new_token": "ست"
    },
    {
      "step": 49,
      "pair": [
        "ی",
        "ٚ"
      ],
      "frequency": 17141,
      "new_token": "یٚ"
    },
    {
      "step": 50,
      "pair": [
        "ک",
        "و"
      ],
      "frequency": 17046,
      "new_token": "کو"
    },
    {
      "step": 51,
      "pair": [
        "م",
        "ی"
      ],
      "frequency": 16829,
      "new_token": "می"
    },
    {
      "step": 52,
      "pair": [
        "ِ",
        "س</w>"
      ],
      "frequency": 16761,
      "new_token": "ِس</w>"
    },
    {
      "step": 53,
      "pair": [
        "ن",
        "د"
      ],
      "frequency": 16752,
      "new_token": "ند"
    },
    {
      "step": 54,
      "pair": [
        "ت",
        "ھ"
      ],
      "frequency": 16310,
      "new_token": "تھ"
    },
    {
      "step": 55,
      "pair": [
        "ہ",
        "ٕ"
      ],
      "frequency": 16048,
      "new_token": "ہٕ"
    },
    {
      "step": 56,
      "pair": [
        "ا",
        "ل"
      ],
      "frequency": 15791,
      "new_token": "ال"
    },
    {
      "step": 57,
      "pair": [
        "نٛ",
        "د"
      ],
      "frequency": 15712,
      "new_token": "نٛد"
    },
    {
      "step": 58,
      "pair": [
        "ٹ",
        "ھ</w>"
      ],
      "frequency": 15201,
      "new_token": "ٹھ</w>"
    },
    {
      "step": 59,
      "pair": [
        "ی",
        "ہ</w>"
      ],
      "frequency": 15169,
      "new_token": "یہ</w>"
    },
    {
      "step": 60,
      "pair": [
        "ر",
        "ٕ</w>"
      ],
      "frequency": 14633,
      "new_token": "رٕ</w>"
    },
    {
      "step": 61,
      "pair": [
        "ر",
        "ا"
      ],
      "frequency": 14432,
      "new_token": "را"
    },
    {
      "step": 62,
      "pair": [
        "ن",
        "ی"
      ],
      "frequency": 14235,
      "new_token": "نی"
    },
    {
      "step": 63,
      "pair": [
        "ٮ",
        "۪"
      ],
      "frequency": 14084,
      "new_token": "ٮ۪"
    },
    {
      "step": 64,
      "pair": [
        "ے",
        "</w>"
      ],
      "frequency": 14077,
      "new_token": "ے</w>"
    },
    {
      "step": 65,
      "pair": [
        "ان",
        "۔</w>"
      ],
      "frequency": 14059,
      "new_token": "ان۔</w>"
    },
    {
      "step": 66,
      "pair": [
        "ل",
        "ا"
      ],
      "frequency": 13939,
      "new_token": "لا"
    },
    {
      "step": 67,
      "pair": [
        "ٹ",
        "</w>"
      ],
      "frequency": 13898,
      "new_token": "ٹ</w>"
    },
    {
      "step": 68,
      "pair": [
        "ک",
        "ھ"
      ],
      "frequency": 13692,
      "new_token": "کھ"
    },
    {
      "step": 69,
      "pair": [
        "اک",
        "ھ</w>"
      ],
      "frequency": 13612,
      "new_token": "اکھ</w>"
    },
    {
      "step": 70,
      "pair": [
        "َ",
        "س</w>"
      ],
      "frequency": 13392,
      "new_token": "َس</w>"
    },
    {
      "step": 71,
      "pair": [
        "ت",
        "ہِ</w>"
      ],
      "frequency": 13015,
      "new_token": "تہِ</w>"
    },
    {
      "step": 72,
      "pair": [
        "ٹ",
        "ھ"
      ],
      "frequency": 13001,
      "new_token": "ٹھ"
    },
    {
      "step": 73,
      "pair": [
        "س",
        "ۭ"
      ],
      "frequency": 12993,
      "new_token": "سۭ"
    },
    {
      "step": 74,
      "pair": [
        "ی",
        "ن</w>"
      ],
      "frequency": 12585,
      "new_token": "ین</w>"
    },
    {
      "step": 75,
      "pair": [
        "ی",
        "ن"
      ],
      "frequency": 12503,
      "new_token": "ین"
    },
    {
      "step": 76,
      "pair": [
        "و",
[...]
