{
  "merges": [
    [
      "क",
      "</w>"
    ],
    [
      "ा",
      "</w>"
    ],
    [
      "े",
      "</w>"
    ],
    [
      "।",
      "</w>"
    ],
    [
      "ल",
      "</w>"
    ],
    [
      "त",
      "</w>"
    ],
    [
      "्",
      "र"
    ],
    [
      "ँ",
      "</w>"
    ],
    [
      "ि",
      "</w>"
    ],
    [
      "र",
      "</w>"
    ],
    [
      "म",
      "े</w>"
    ],
    [
      "न",
      "</w>"
    ],
    [
      "र",
      "्"
    ],
    [
      "ी",
      "</w>"
    ],
    [
      "अ",
      "छ"
    ],
    [
      "स",
      "्"
    ],
    [
      "ि",
      "।</w>"
    ],
    [
      ",",
      "</w>"
    ],
    [
      "्",
      "य"
    ],
    [
      "क",
      "े"
    ],
    [
      "ा",
      "र"
    ],
    [
      "स",
      "ँ</w>"
    ],
    [
      "आ",
      "</w>"
    ],
    [
      "े",
      "ल</w>"
    ],
    [
      "प",
      "्र"
    ],
    [
      "न",
      "्"
    ],
    [
      "अछ",
      "ि।</w>"
    ],
    [
      "क",
      "्"
    ],
    [
      "ा",
      "क</w>"
    ],
    [
      "ै",
      "त</w>"
    ],
    [
      "क",
      "र"
    ],
    [
      "व",
      "ि"
    ],
    [
      "के",
      "ँ</w>"
    ],
    [
      "म",
      "ा"
    ],
    [
      "ज",
      "ा"
    ],
    [
      "न",
      "ि"
    ],
    [
      "क",
      "ा"
    ],
    [
      "ल",
      "ा"
    ],
    [
      "र",
      "ा"
    ],
    [
      "य",
      "</w>"
    ],
    [
      "म",
      "</w>"
    ],
    [
      "ह",
      "ि"
    ],
    [
      "े",
      "ल"
    ],
    [
      "ग",
      "</w>"
    ],
    [
      "ह",
      "ि</w>"
    ],
    [
      "ट",
      "ा</w>"
    ],
    [
      "म",
      "्"
    ],
    [
      "ङ",
      "्"
    ],
    [
      "ह",
      "ो"
    ],
    [
      "ह",
      "ु"
    ],
    [
      "न",
      "ा"
    ],
    [
      "स",
      "भ"
    ],
    [
      "ि",
      "त</w>"
    ],
    [
      "ब",
      "ा"
    ],
    [
      "इ",
      "त</w>"
    ],
    [
      "ए",
      "क"
    ],
    [
      "क",
      "य"
    ],
    [
      "स",
      "ा"
    ],
    [
      "ह",
      "ा"
    ],
    [
      "ज",
      "े</w>"
    ],
    [
      "त",
      "्र"
    ],
    [
      "स",
      "</w>"
    ],
    [
      "छ",
      "ल"
    ],
    [
      "व",
      "ा"
    ],
    [
      "त",
      "ि"
    ],
    [
      "र",
      "ि"
    ],
    [
      "ऽ",
      "</w>"
    ],
    [
      "त",
      "्"
    ],
    [
      "ई",
      "</w>"
    ],
    [
      "क्",
      "ष"
    ],
    [
      "ल",
      "ेल</w>"
    ],
    [
      "प",
      "र</w>"
    ],
    [
      "अछ",
      "ि</w>"
    ],
    [
      "छ",
      "ै"
    ],
    [
      "द",
      "्"
    ],
    [
      "प",
      "ा"
    ],
    [
      "ओ",
      "</w>"
    ],
    [
      "ि",
      "ल"
    ],
    [
      "ण",
      "</w>"
    ],
    [
      "ड",
      "़"
    ],
    [
      "ब",
      "ाक</w>"
    ],
    [
      "ट",
      "</w>"
    ],
    [
      "त",
      "ा"
    ],
    [
      "द",
      "े"
    ],
    [
      "ि",
      "य"
    ],
    [
      "ी",
      "क</w>"
    ],
    [
      "न",
      "क</w>"
    ],
    [
      "म",
      "ु"
    ],
    [
      "क",
      "।</w>"
    ],
    [
      "र",
      "ू"
    ],
    [
      "क",
      "ो"
    ],
    [
      "ग",
      "ेल</w>"
    ],
    [
      "ब",
      "</w>"
    ],
    [
      "स",
      "े"
    ],
    [
      "म",
      "े"
    ],
    [
      "र",
      "ह"
    ],
    [
      "ल",
      "ो"
    ],
    [
      "अ",
      "प"
    ],
    [
      "छल",
      "।</w>"
    ],
    [
      "एक",
      "टा</w>"
    ],
    [
      "्य",
      "</w>"
    ],
    [
      "क",
      "ि"
    ],
    [
      "ब",
      "े"
    ],
    [
      "स्",
      "थ"
    ],
    [
      "य",
      "ो"
    ],
    [
      "जा",
      "इत</w>"
    ],
    [
      "स",
      "ङ्"
    ],
    [
      "छ",
      "थ"
    ],
    [
      "न",
      "ा</w>"
    ],
    [
      "ए",
      "क</w>"
    ],
    [
      "ि",
      "क</w>"
    ],
    [
      "क",
      "ार"
    ],
    [
      "ला",
      "ह"
    ],
    [
      "२",
      "०"
    ],
    [
      "ल",
      "ा</w>"
    ],
    [
      "द",
      "</w>"
    ],
    [
      "न",
      "ि</w>"
    ],
    [
      "व",
      "</w>"
    ],
    [
      "रू",
      "प"
    ],
    [
      "ष",
      "्"
    ],
    [
      "स",
      "ं"
    ],
    [
      "रा",
      "ज"
    ],
    [
      "भ",
      "ा"
    ],
    [
      "अप",
      "न</w>"
    ],
    [
      "क",
      "ा</w>"
    ],
    [
      "त",
      "ा</w>"
    ],
    [
      "स",
      "क"
    ],
    [
      "ो",
      "</w>"
    ],
    [
      "स",
      "ि"
    ],
    [
      "स",
      "म"
    ],
    [
      "ु",
      "</w>"
    ],
    [
      "ी",
      "य</w>"
    ],
    [
      "्",
      "ड"
    ],
    [
      "न",
      "ि।</w>"
    ],
    [
      "द",
      "ि"
    ],
    [
      "न",
      "हि</w>"
    ],
    [
      "प",
      "ू"
    ],
    [
      "प",
      "ु"
    ],
    [
      "द",
      "ा"
    ],
    [
      "१",
      "९"
    ],
    [
      "त",
      "ि</w>"
    ],
    [
      "ए",
      "हि</w>"
    ],
    [
      "कय",
      "ल</w>"
    ],
    [
      "च",
      "ा"
    ],
    [
      "कर",
      "ैत</w>"
    ],
    [
      "क",
      "्र"
    ],
    [
      "अ",
      "न"
    ],
    [
      "क",
      "र</w>"
    ],
    [
      "स",
      "ी</w>"
    ],
    [
      "उ",
      "प"
    ],
    [
      "कय",
      "ल"
    ],
    [
      "ू",
      "</w>"
    ],
    [
      "स",
      "म्"
    ],
    [
      "क",
      "ऽ</w>"
    ],
    [
      "ल",
      "े"
    ],
    [
      "य",
      "ा"
    ],
    [
      "अ",
      "हा"
    ],
    [
      "म",
      "ि"
    ],
    [
      "लो",
      "क"
    ],
    [
      "सक",
      "ैत</w>"
    ],
    [
      "ल",
      "ि"
    ],
    [
      "्य",
      "ा"
    ],
    [
      "ल",
      "्"
    ],
    [
      "हु",
      "न"
    ],
    [
      "ट",
      "्र"
    ],
    [
      "छै",
      "क।</w>"
    ],
    [
      "ग",
      "ा"
    ],
    [
      "हो",
      "</w>"
    ],
    [
      "ज",
      "</w>"
    ],
    [
      "र",
      "ो"
    ],
    [
      "ि",
      ",</w>"
    ],
    [
      "न",
      "े</w>"
    ],
    [
      "र",
      "ि</w>"
    ],
    [
      "व",
      "ा</w>"
    ],
    [
      "श",
      "्"
    ],
    [
      "हो",
      "इत</w>"
    ],
    [
      "व",
      "र्"
    ],
    [
      "स",
      "ब"
    ],
    [
      "भ",
      "ार"
    ],
    [
      "न",
      "े"
    ],
    [
      "सभ",
      "</w>"
    ],
    [
      "द्",
      "व"
    ],
    [
      "प",
      "्"
    ],
    [
      "से",
      "हो</w>"
    ],
    [
      "भ",
      "ऽ</w>"
    ],
    [
      "ग",
      "ेल"
    ],
    [
      "प",
      "हि"
    ],
    [
      "श",
      "ा"
    ],
    [
      "मा",
      "न"
    ],
    [
      "कर",
      "ा</w>"
    ],
    [
      "सभ",
      "क</w>"
    ],
    [
      "त्र",
      "</w>"
    ],
    [
      "न्",
      "द"
    ],
    [
      "श",
      "</w>"
    ],
    [
      "लाह",
      "।</w>"
    ],
    [
      "ण",
      "्ड"
    ],
    [
      "ग",
      "्र"
    ],
    [
      "के",
      "र</w>"
    ],
    [
      "ख",
      "न</w>"
    ],
    [
      "म",
      "क</w>"
    ],
    [
      "र",
      "क</w>"
    ],
    [
      "च",
      "</w>"
    ],
    [
      "०",
      "</w>"
    ],
    [
      "छथ",
      "ि।</w>"
    ],
    [
      "ह",
      "</w>"
    ],
    [
      "स",
      "ी"
    ],
    [
      "स",
      "ु"
    ],
    [
      "ध",
      "</w>"
    ],
    [
      "र",
      "ा</w>"
    ],
    [
      "ार",
      "ा</w>"
    ],
    [
      "क",
      "े</w>"
    ],
    [
      "त",
      "क</w>"
    ],
    [
      "च",
      "ि"
    ],
    [
      "ट",
      "ी"
    ],
    [
      "स्थ",
      "ा"
    ],
    [
      "अछ",
      "ि,</w>"
    ],
    [
      "ज",
      "ी"
    ],
    [
      "इ",
      "</w>"
    ],
    [
      "स्",
      "त"
    ],
    [
      "पू",
      "र्"
    ],
    [
      "उ",
      "त्"
    ],
    [
      "स",
      "ब</w>"
    ],
    [
      "व",
      "े"
    ],
    [
      "ल",
      "क</w>"
    ],
    [
      "ध",
      "रि</w>"
    ],
    [
      "श",
      "ि"
    ],
    [
      "व",
      "ला</w>"
    ],
    [
      "बे",
      "सी</w>"
    ],
    [
      "य",
      "ु"
    ],
    [
      "सङ्",
      "ग</w>"
    ],
    [
      "द्व",
      "ारा</w>"
    ],
    [
      ".",
      "</w>"
    ],
    [
      "स्",
      "ट"
    ],
    [
      "ल",
      "ी"
    ],
    [
      "ल",
      "ग"
    ],
    [
      "प्र",
      "ा"
    ],
    [
      "न",
      "ी</w>"
    ],
    [
      "त",
      "े"
    ],
    [
      "अन",
      "ु"
    ],
    [
      "प",
      "रि"
    ],
    [
      "ध",
      "ि"
    ],
    [
      "ड",
      "</w>"
    ],
    [
      "स",
      "क</w>"
    ],
    [
      "नि",
      "र्"
    ],
    [
      "भ",
      "ेल</w>"
    ],
    [
      "ब",
      "्"
    ],
    [
      "कर",
      "बाक</w>"
    ],
    [
      "िल",
      "्"
    ],
    [
      "कि",
      "छ"
    ],
    [
      "ब",
      "हु"
    ],
    [
      "एक",
      "र</w>"
    ],
    [
      "ह",
      "म"
    ],
    [
      "ग",
      "ो"
    ],
    [
      "प्र",
      "ति"
    ],
    [
      "द",
      "ु"
    ],
    [
      "ज",
      "े"
    ],
    [
      "छै",
      "क</w>"
    ],
    [
      "ट",
      "ि"
    ],
    [
      "र",
      "ी</w>"
    ],
    [
      "क्ष",
      "े"
    ],
    [
      "क",
      "ु"
    ],
    [
      "न्",
      "त"
    ],
    [
      "रह",
      "ल</w>"
    ],
    [
      "्र",
      "ा"
    ],
    [
      "र",
      "े"
    ],
    [
      "को",
      "न"
    ],
    [
      "म",
      "ी"
    ],
    [
      "न",
      "ी"
    ],
    [
      "ल",
      "ी</w>"
    ],
    [
      "किछ",
      "ु</w>"
    ],
    [
      "ब",
      "ी"
    ],
    [
      "र",
      "ी"
    ],
    [
      "र",
      "ु"
    ],
    [
      "व",
      "्य"
    ],
    [
      "दे",
      "ख"
    ],
    [
      "मु",
      "द"
    ],
    [
      "ओ",
      "ल</w>"
    ],
    [
      "ध",
      "ा"
    ],
    [
      "का",
      "र</w>"
    ],
    [
      "त",
      "्य"
    ],
    [
      "२०",
      "१"
    ],
    [
      "स्",
      "व"
    ],
    [
      "भ",
      "े"
    ],
    [
      "ब",
      "न"
    ],
    [
      "बा",
      "द</w>"
    ],
    [
      "रूप",
      "मे</w>"
    ],
    [
      "क",
      "ह"
    ],
    [
      "प",
      "</w>"
    ],
    [
      "यो",
      "ग</w>"
    ],
    [
      "म",
      "िल"
    ],
    [
      "छ",
      "लाह।</w>"
    ],
    [
      "ङ्",
      "ग"
    ],
    [
      "क",
      "ै"
    ],
    [
      "ज",
      "न"
    ],
    [
      "हुन",
      "का</w>"
    ],
    [
      "अहा",
      "ँ</w>"
    ],
    [
      "हि",
      "मे</w>"
    ],
    [
      "त",
      "ी"
    ],
    [
      "नि",
      "क</w>"
    ],
    [
      "प",
      "ै"
    ],
    [
      "ढ",
      "़"
    ],
    [
      "मु",
      "ख"
    ],
    [
      "म्",
      "प"
    ],
    [
      "द",
      "ो"
    ],
    [
      "गेल",
      "।</w>"
    ],
    [
      "ब",
      "ि"
    ],
    [
      "छ",
      "ल</w>"
    ],
    [
      "ग",
      "ु"
    ],
    [
      "ज",
      "खन</w>"
    ],
    [
      "म",
      "ो"
    ],
    [
      "द",
      "ेल"
    ],
    [
      "म",
      "ै"
    ],
    [
      "ं",
      "</w>"
    ],
    [
      "त",
      "ँ</w>"
    ],
    [
      "र्",
      "थ"
    ],
    [
      "अहा",
      "ँ"
    ],
    [
      "रूप",
      "सँ</w>"
    ],
    [
      "ट",
      "ा"
    ],
    [
      "क",
      "ि</w>"
    ],
    [
      "क्",
      "त</w>"
    ],
    [
      "बहु",
      "त</w>"
    ],
    [
      "क",
      ",</w>"
    ],
    [
      "दे",
      "श"
    ],
    [
      "भ",
      "ि"
    ],
    [
      "ष",
      "</w>"
    ],
    [
      "िय",
      "ा"
    ],
    [
      "ग",
      "ी"
    ],
    [
      "भार",
      "त"
    ],
    [
      "स",
      "र</w>"
    ],
    [
      "ति",
      "क</w>"
    ],
    [
      "क",
      "ी</w>"
    ],
    [
      "छथ",
      "ि</w>"
    ],
    [
      "नि",
      "य"
    ],
    [
      "ल",
      "ै"
    ],
    [
      "श",
      "े"
    ],
    [
      "च",
      "ल"
    ],
    [
      "ष्",
      "ट्र"
    ],
    [
      "म्",
      "ब"
    ],
    [
      "मुद",
      "ा</w>"
    ],
    [
      "ः",
      "</w>"
    ],
    [
      "ब",
      "न्"
    ],
    [
      "च",
      "्"
    ],
    [
      "द",
      "ेल</w>"
    ],
    [
      "सब",
      "सँ</w>"
    ],
    [
      "ग",
      "े"
    ],
    [
      "क",
      "ृ"
    ],
    [
      "द्",
      "ध</w>"
    ],
    [
      "ज",
      "ा</w>"
    ],
    [
      "पहि",
      "ल</w>"
    ],
    [
      "फ",
      "िल्"
    ],
    [
      "श",
      "्र"
    ],
    [
      ")",
      "</w>"
    ],
    [
      "न",
      "मे</w>"
    ],
    [
      "ञ",
      "्"
    ],
    [
      "य",
      "क</w>"
    ],
    [
      "कोन",
      "ो</w>"
    ],
    [
      "ज",
      "ि"
    ],
    [
      "का",
      "र्"
    ],
    [
      "य",
      "बाक</w>"
    ],
    [
      "्य",
      "ू"
    ],
    [
      "स",
      "र"
    ],
    [
      "प",
      "े"
    ],
    [
      "न",
      "ीक</w>"
    ],
    [
      "ख",
      "ेल"
    ],
    [
      "ब",
      "ैत</w>"
    ],
    [
      "छ",
      "ो"
    ],
    [
      "श",
      "ु"
    ],
    [
      "कयल",
      "नि।</w>"
    ],
    [
      "ख",
      "ा"
    ],
    [
      "२०",
      "०"
    ],
    [
      "प्",
      "त</w>"
    ],
    [
      "ट",
      "े"
    ],
    [
      "म्",
      "भ"
    ],
    [
      "प",
      "ो"
    ],
    [
      "अ",
      "व"
    ],
    [
      "ं",
      "ड"
    ],
    [
      "क्षे",
      "त्र"
    ],
    [
      "्य",
      "क</w>"
    ],
    [
      "लाह",
      "</w>"
    ],
    [
      "ट",
      "्"
    ],
    [
      "ं",
      "ग"
    ],
    [
      "स",
      "ू"
    ],
    [
      "५",
      "</w>"
    ],
    [
      "म",
      "ा</w>"
    ],
    [
      "म",
      "ह"
    ],
    [
      "जा",
      "य"
    ],
    [
      "च",
      "ार"
    ],
    [
      "ज",
      "्"
    ],
    [
      "मा",
      "न</w>"
    ],
    [
      "२",
      "</w>"
    ],
    [
      "हुन",
      "कर</w>"
    ],
    [
      "द",
      "र्"
    ],
    [
      "र",
      "ख"
    ],
    [
      "प",
      "ी"
    ],
    [
      "घ",
      "</w>"
    ],
    [
      "१",
      "</w>"
    ],
    [
      "िय",
      "ा</w>"
    ],
    [
      "य",
      "ा</w>"
    ],
    [
      "उप",
      "योग</w>"
    ],
    [
      "ब",
      "ै"
    ],
    [
      "ह",
      "म</w>"
    ],
    [
      "ह",
      "न</w>"
    ],
    [
      "ड",
      "ि"
    ],
    [
      "भे",
      "ट"
    ],
    [
      "र",
      "मे</w>"
    ],
    [
      "म",
      "ू"
    ],
    [
      "मे",
      ",</w>"
    ],
    [
      "ल",
      "ग</w>"
    ],
    [
      "फ",
      "े"
    ],
    [
      "यो",
      "ग"
    ],
    [
      "ट",
      "क</w>"
    ],
    [
      "भ",
      "ू"
    ],
    [
      "न",
      "ल</w>"
    ],
    [
      "स",
      "ो"
    ],
    [
      "प",
      "र्"
    ],
    [
      "द",
      "ी</w>"
    ],
    [
      "प",
      "ि"
    ],
    [
      "उत्",
      "त"
    ],
    [
      "य",
      "ू"
    ],
    [
      "ज",
      "ो"
    ],
    [
      "ह",
      "र</w>"
    ],
    [
      "वि",
      "श्"
    ],
    [
      "म",
      "ी</w>"
    ],
    [
      "ी",
      "।</w>"
    ],
    [
      "सा",
      "मान"
    ],
    [
      "ए",
      "करा</w>"
    ],
    [
      "रह",
      "ैत</w>"
    ],
    [
      "न",
      "ो"
    ],
    [
      "ज",
      "ु"
    ],
    [
      "अ",
      "धि"
    ],
    [
      "मे",
      "रि"
    ],
    [
      "च",
      "ु"
    ],
    [
      "ट",
      "र</w>"
    ],
    [
      "द",
      "ू"
    ],
    [
      "हु",
      "नक</w>"
    ],
    [
      "त",
      "ाक</w>"
    ],
    [
      "क",
      "म</w>"
    ],
    [
      "हु",
      "</w>"
    ],
    [
      "अ",
      "मेरि"
    ],
    [
      "ध",
      "्य"
    ],
    [
      "स",
      "न</w>"
    ],
    [
      "क",
      "ए"
    ],
    [
      "क",
      "र्"
    ],
    [
      "स",
      "ा</w>"
    ],
    [
      "यो",
      "ज"
    ],
    [
      "द",
      "्य"
    ],
    [
      "ण",
      "्"
    ],
    [
      "द",
      "ी"
    ],
    [
      "४",
      "</w>"
    ],
    [
      "क",
      "क</w>"
    ],
    [
      "जा",
      "हिमे</w>"
    ],
    [
      "भ",
      "ेल"
    ],
    [
      "न्",
      "न</w>"
    ],
    [
      "म",
      "न्"
    ],
    [
      "ब",
      "्र"
    ],
    [
      "S",
      "</w>"
    ],
    [
      "ण",
      "क</w>"
    ],
    [
      "े",
      "क</w>"
    ],
    [
      "ध",
      "ार"
    ],
    [
      "रा",
      "ष्ट्र"
    ],
    [
      "राज",
      "्य</w>"
    ],
    [
      "ल",
      "मे</w>"
    ],
    [
      "च",
      "ी"
    ],
    [
      "७",
      "</w>"
    ],
    [
      "बा",
      "द"
    ],
    [
      "म",
      "मे</w>"
    ],
    [
      "अ",
      "न्त"
    ],
    [
      "हि",
      "सँ</w>"
    ],
    [
      "पै",
      "घ</w>"
    ],
    [
      "आ",
      "र"
    ],
    [
      "पूर्",
      "ण</w>"
    ],
    [
      "त्",
      "व"
    ],
    [
      "३",
      "</w>"
    ],
    [
      ".",
      "ए"
    ],
    [
      "८",
      "</w>"
    ],
    [
      "सम्",
      "मिल"
    ],
    [
      "सम्मिल",
      "ित</w>"
    ],
    [
      "ल",
      "नि।</w>"
    ],
    [
      "य",
      "मे</w>"
    ],
    [
      "६",
      "</w>"
    ],
    [
      "क",
      "ॉ"
    ],
    [
      "त",
      "ु"
    ],
    [
      "सभ",
      "केँ</w>"
    ],
    [
      "लोक",
      "नि</w>"
    ],
    [
      "क",
      "ी"
    ],
    [
      "ब",
      "ॉ"
    ],
    [
      "ओ",
      "हि</w>"
    ],
    [
      "का",
      "ज</w>"
    ],
    [
      "म",
      "ार"
    ],
    [
      "फ",
      "ा"
    ],
    [
      "त",
      "।</w>"
    ],
    [
      "ट",
      "ी</w>"
    ],
    [
      "चा",
      "ह"
    ],
    [
      "लो",
      "क</w>"
    ],
    [
      "हो",
      "य"
    ],
    [
      "भारत",
      "ीय</w>"
    ],
    [
      "ख",
      "े"
    ],
    [
      "मा",
      "र्"
    ],
    [
      "हम",
      "रा</w>"
    ],
    [
      "वि",
      "शे"
    ],
    [
      "ब",
      "ा</w>"
    ],
    [
      "कार",
      "ण</w>"
    ],
    [
      "बन्",
      "ध"
    ],
    [
      "न",
      ",</w>"
    ],
    [
      "ड",
      "े"
    ],
    [
      "ङ्",
      "ग</w>"
    ],
    [
      "घ",
      "ा"
    ],
    [
      "श",
      "न</w>"
    ],
    [
      "त",
      "ः</w>"
    ],
    [
      "द",
      "ैत</w>"
    ],
    [
      "म",
      "सँ</w>"
    ],
    [
      "ल",
      "ेल"
    ],
    [
      "प",
      "र"
    ],
    [
      "स्",
      "ता"
    ],
    [
      "फ",
      "</w>"
    ],
    [
      "दि",
      "न</w>"
    ],
    [
      "ह",
      "े"
    ],
    [
      "मे",
      "ं</w>"
    ],
    [
      "ब",
      "ु"
    ],
    [
      "लग",
      "भ"
    ],
    [
      "व",
      "ी"
    ],
    [
      "\"",
      "</w>"
    ],
    [
      "भार",
      "तक</w>"
    ],
    [
      "लगभ",
      "ग</w>"
    ],
    [
      "प",
      "ड़"
    ],
    [
      "ण",
      "ा"
    ],
    [
      "क",
      "ते"
    ],
    [
      "प्र",
      "भा"
    ],
    [
      "ब",
      "ो"
    ],
    [
      "ख",
      "</w>"
    ],
    [
      "०",
      "०</w>"
    ],
    [
      "स्थ",
      "ित</w>"
    ],
    [
      "कार",
      "क</w>"
    ],
    [
      "ख",
      "न"
    ],
    [
      "र",
      "क्ष"
    ],
    [
      "न",
      "ाक</w>"
    ],
    [
      "पहि",
      "ने</w>"
    ],
    [
      "ल",
      "नि</w>"
    ],
    [
      "दो",
      "सर</w>"
    ],
    [
      "हु",
      "ँ"
    ],
    [
      "व",
      "क</w>"
    ],
    [
      "सम",
      "य</w>"
    ],
    [
      "फ",
      "्"
    ],
    [
      "द्",
      "ध"
    ],
    [
      "त",
      "खन</w>"
    ],
    [
      "छ",
      "ी</w>"
    ],
    [
      "न्द",
      "्र"
    ],
    [
      "ओ",
      "करा</w>"
    ],
    [
      "त",
      "ी</w>"
    ],
    [
      "िल",
      "ा</w>"
    ],
    [
      "ज्",
      "ञ"
    ],
    [
      "व",
      "्या"
    ],
    [
      "म",
      "ृ"
    ],
    [
      "छै",
      "क,</w>"
    ],
    [
      "द",
      "क</w>"
    ],
    [
      "क्ष",
      "ि"
    ],
    [
      "व",
      "ी</w>"
    ],
    [
      "ह",
      "क</w>"
    ],
    [
      "य",
      "ल</w>"
    ],
    [
      "ओ",
      "कर</w>"
    ],
    [
      "ज",
      "करा</w>"
    ],
    [
      "फ",
      "ो"
    ],
    [
      "बा",
      "मे</w>"
    ],
    [
      "ज",
      "ी</w>"
    ],
    [
      "ए",
      "हन</w>"
    ],
    [
      "श",
      "ी"
    ],
    [
      "स",
      "मा"
    ],
    [
      "कह",
      "ल</w>"
    ],
    [
      "मा",
      "त्र</w>"
    ],
    [
      "व्य",
      "क्"
    ],
    [
      "र",
      "सँ</w>"
    ],
    [
      "ल",
      "ाक</w>"
    ],
    [
      "ार",
      "ी</w>"
    ],
    [
      "वि",
      "ष"
    ],
    [
      "स्थ",
      "ि"
    ],
    [
      "यु",
      "क्त</w>"
    ],
    [
      "ल",
      "।</w>"
    ],
    [
      "का",
      "ल</w>"
    ],
    [
      "ठ",
      "ा"
    ],
    [
      "य",
      "वला</w>"
    ],
    [
      "ज",
      "ँ</w>"
    ],
    [
      "ना",
      "ओल</w>"
    ],
    [
      "त",
      "य</w>"
    ],
    [
      "ं",
      "ग</w>"
    ],
    [
      "र",
      ",</w>"
    ],
    [
      "सभ",
      "मे</w>"
    ],
    [
      "अहाँ",
      "केँ</w>"
    ],
    [
      "ड़",
      "ी</w>"
    ],
    [
      "अ",
      "भि"
    ],
    [
      "आ",
      "न</w>"
    ],
    [
      "सा",
      "म"
    ],
    [
      "द",
      "क्षि"
    ],
    [
      "सङ्",
      "ग"
    ],
    [
      "ज",
      "कर</w>"
    ],
    [
      "वि",
      "द"
    ],
    [
      "न",
      "ग"
    ],
    [
      "स",
      "मे</w>"
    ],
    [
      "को",
      "</w>"
    ],
    [
      ":",
      "</w>"
    ],
    [
      "कार",
      "ी</w>"
    ],
    [
      "रा",
      "ख"
    ],
    [
      "छल",
      ",</w>"
    ],
    [
      "ला",
      "ग"
    ],
    [
      "हि",
      "न्द"
    ],
    [
      "फिल्",
      "म</w>"
    ],
    [
      "ह",
      "।</w>"
    ],
    [
      "न",
      "केँ</w>"
    ],
    [
      "स्था",
      "प"
    ],
    [
      "स",
      "र्"
    ],
    [
      "ज",
      "न</w>"
    ],
    [
      "च",
      "ित</w>"
    ],
    [
      "क",
      "ाक</w>"
    ],
    [
      "१९",
      "९"
    ],
    [
      "म",
      "हा"
    ],
    [
      "क",
      "म्प"
    ],
    [
      "ख",
      "ेल</w>"
    ],
    [
      "क्र",
      "म"
    ],
    [
      "ट",
      "ो"
    ],
    [
      "ला",
      "इ"
    ],
    [
      "कार",
      "ण"
    ],
    [
      "मुख",
      "्य</w>"
    ],
    [
      "ब",
      "ढ़"
    ],
    [
      "स",
      "ह"
    ],
    [
      "छ",
      "ी।</w>"
    ],
    [
      "ब",
      "द"
    ],
    [
      "ार",
      "क</w>"
    ],
    [
      "ए",
      "</w>"
    ],
    [
      "आ",
      "व"
    ],
    [
      "र्",
      "म"
    ],
    [
      "अहाँ",
      "क</w>"
    ],
    [
      "स्त",
      "ु"
    ],
    [
      "भा",
      "ग"
    ],
    [
      "ना",
      "म</w>"
    ],
    [
      "ष्",
      "ट</w>"
    ],
    [
      "निर्",
      "मा"
    ],
    [
      "कय",
      "ने</w>"
    ],
    [
      "प्रा",
      "प्त</w>"
    ],
    [
      "प",
      "श्"
    ],
    [
      "च",
      "ा</w>"
    ],
    [
      "खे",
      "ला"
    ],
    [
      "स",
      "द"
    ],
    [
      "ग्र",
      "े"
    ],
    [
      "ब",
      "र्"
    ],
    [
      "ड",
      "ी"
    ],
    [
      "दु",
      "न"
    ],
    [
      "व",
      "ै"
    ],
    [
      "ठ",
      "</w>"
    ],
    [
      "सभ",
      "सँ</w>"
    ],
    [
      "ग",
      "ो</w>"
    ],
    [
      "व्य",
      "व"
    ],
    [
      "ड",
      "ा"
    ],
    [
      "स",
      "ै"
    ],
    [
      "गी",
      "त</w>"
    ],
    [
      "ज",
      "क</w>"
    ],
    [
      "च",
      "े"
    ],
    [
      "स्",
      "ट्र"
    ],
    [
      "ग",
      "्"
    ],
    [
      "राज",
      "्यक</w>"
    ],
    [
      "रूप",
      "</w>"
    ],
    [
      "जाय",
      "त</w>"
    ],
    [
      "९",
      "</w>"
    ],
    [
      "कार्",
      "य"
    ],
    [
      "श",
      "ो"
    ],
    [
      "द",
      "ू</w>"
    ],
    [
      "न्",
      "त</w>"
    ],
    [
      "-",
      "</w>"
    ],
    [
      "बे",
      "र</w>"
    ],
    [
      "मन्",
      "दि"
    ],
    [
      "क",
      "मे</w>"
    ],
    [
      "ड",
      "्ड"
    ],
    [
      "प",
      "क</w>"
    ],
    [
      "ै",
      "क</w>"
    ],
    [
      "मृ",
      "त्य"
    ],
    [
      "ग्र",
      "ा"
    ],
    [
      "विशे",
      "ष</w>"
    ],
    [
      "सामान",
      "्य"
    ],
    [
      "राष्ट्र",
      "ीय</w>"
    ],
    [
      "थ",
      "ा"
    ],
    [
      "य",
      "र</w>"
    ],
    [
      "प्र",
      "दर्"
    ],
    [
      "मुख",
      "</w>"
    ],
    [
      "बी",
      "च</w>"
    ],
    [
      "कयल",
      "नि</w>"
    ],
    [
      "ल",
      "य</w>"
    ],
    [
      "ह",
      "र"
    ],
    [
      "भ",
      "ी"
    ],
    [
      "ल",
      "ु"
    ],
    [
      "कयल",
      "क।</w>"
    ],
    [
      "का",
      "ं"
    ],
    [
      "आव",
      "श"
    ],
    [
      "लि",
      "ख"
    ],
    [
      "छ",
      "लाह</w>"
    ],
    [
      "म",
      "हि"
    ],
    [
      "चा",
      "र</w>"
    ],
    [
      "ज्ञ",
      "ा"
    ],
    [
      "प्र",
      "त्य"
    ],
    [
      "छ",
      "ा"
    ],
    [
      "अन",
      "्य</w>"
    ],
    [
      "ल",
      ",</w>"
    ],
    [
      "स",
      "हा"
    ],
    [
      "न",
      "सँ</w>"
    ],
    [
      "ध",
      "न</w>"
    ],
    [
      "वि",
      "त</w>"
    ],
    [
      "ला",
      "मे</w>"
    ],
    [
      "म्भ",
      "</w>"
    ],
    [
      "रू",
      "</w>"
    ],
    [
      "न",
      "ु"
    ],
    [
      "सा",
      "इ"
    ],
    [
      "त",
      "र"
    ],
    [
      "प",
      "ि</w>"
    ],
    [
      "ी",
      ",</w>"
    ],
    [
      "वर्",
      "ष"
    ],
    [
      "भ",
      "ो"
    ],
    [
      "न",
      "व"
    ],
    [
      "य",
      "द्य"
    ],
    [
      "ख",
      "ि"
    ],
    [
      "वर्",
      "त"
    ],
    [
      "प्र",
      "मुख</w>"
    ],
    [
      "भा",
      "ष"
    ],
    [
      "पु",
      "र"
    ],
    [
      "स्",
      "वा"
    ],
    [
      "न्",
      "त्र"
    ],
    [
      "ए",
      "गो</w>"
    ],
    [
      "त",
      "र</w>"
    ],
    [
      "प",
      "हुँ"
    ],
    [
      "दा",
      "न</w>"
    ],
    [
      "दे",
      "श</w>"
    ],
    [
      "पू",
      "रा</w>"
    ],
    [
      "ब",
      "रख"
    ],
    [
      "ज",
      "न्"
    ],
    [
      "थ",
      "</w>"
    ],
    [
      "हि",
      "त</w>"
    ],
    [
      "जे",
      "ना</w>"
    ],
    [
      "अछ",
      "ि"
    ],
    [
      "जा",
      "हिसँ</w>"
    ],
    [
      "क्षे",
      "त्र</w>"
    ],
    [
      "जा",
      "नल</w>"
    ],
    [
      "ब",
      "र</w>"
    ],
    [
      "अ",
      "ग"
    ],
    [
      "स्था",
      "न</w>"
    ],
    [
      "हम",
      "र</w>"
    ],
    [
      "नि",
      ",</w>"
    ],
    [
      "म",
      "ध"
    ],
    [
      "फ",
      "ु"
    ],
    [
      "थ",
      "ि"
    ],
    [
      "ब",
      "नि</w>"
    ],
    [
      "पश्",
      "चि"
    ],
    [
      "छो",
      "ट</w>"
    ],
    [
      "आ",
      "र</w>"
    ],
    [
      "ॉ",
      "र्"
    ],
    [
      "च",
      "ो"
    ],
    [
      "क",
      "ल</w>"
    ],
    [
      "अ",
      "भ"
    ],
    [
      "भि",
      "न्न</w>"
    ],
    [
      "भू",
      "मि"
    ],
    [
      "ट",
      "ू"
    ],
    [
      "ि",
      "य</w>"
    ],
    [
      "१",
      "८"
    ],
    [
      "ण्ड",
      "</w>"
    ],
    [
      "ड़",
      "</w>"
    ],
    [
      "राज",
      "्य"
    ],
    [
      "श",
      "क</w>"
    ],
    [
      "आ",
      "योज"
    ],
    [
      "स्ट",
      "े"
    ],
    [
      "ध",
      "ा</w>"
    ],
    [
      "सम",
      "ू"
    ],
    [
      "ग",
      "क</w>"
    ],
    [
      "क्षेत्र",
      "मे</w>"
    ],
    [
      "अ",
      "ति"
    ],
    [
      "शि",
      "क्ष"
    ],
    [
      "आ",
      "ओ"
    ],
    [
      "ख",
      "्य"
    ],
    [
      "्र",
      "ो"
    ],
    [
      "१९",
      "८"
    ],
    [
      "विद",
      "्या"
    ],
    [
      "प",
      "ार"
    ],
    [
      "सब",
      "केँ</w>"
    ],
    [
      "ड",
      "िय"
    ],
    [
      "सं",
      "स्"
    ],
    [
      "क",
      "ू"
    ],
    [
      "त",
      "ै"
    ],
    [
      "ग",
      "ि"
    ],
    [
      "ल",
      "ीक</w>"
    ],
    [
      "म",
      "ित</w>"
    ],
    [
      "वि",
      "वा"
    ],
    [
      "स्व",
      "ी"
    ],
    [
      "देश",
      "क</w>"
    ],
    [
      "ँ",
      "च</w>"
    ],
    [
      "'",
      "</w>"
    ],
    [
      "त",
      ",</w>"
    ],
    [
      "भा",
      "ग</w>"
    ],
    [
      "ना",
      "मे</w>"
    ],
    [
      "जी",
      "व"
    ],
    [
      "प्र",
      "े"
    ],
    [
      "श",
      "ह"
    ],
    [
      "हि",
      "स्"
    ],
    [
      "त्व",
      "पूर्ण</w>"
    ],
    [
      "जा",
      "य</w>"
    ],
    [
      "आ",
      "ब"
    ],
    [
      "ल",
      "क्ष"
    ],
    [
      "त्",
      "व</w>"
    ],
    [
      "आओ",
      "र</w>"
    ],
    [
      "ए",
      "स"
    ],
    [
      "न",
      "व</w>"
    ],
    [
      "शु",
      "रू</w>"
    ],
    [
      "प्र",
      "या"
    ],
    [
      "स",
      "फ"
    ],
    [
      "स्",
      "त</w>"
    ],
    [
      "फ",
      "्र"
    ],
    [
      "छल",
      "ी"
    ],
    [
      "क",
      "S</w>"
    ],
    [
      "श्र",
      "े"
    ],
    [
      "च",
      "ै"
    ],
    [
      "ब",
      "नाओल</w>"
    ],
    [
      "ए",
      "हिमे</w>"
    ],
    [
      "े",
      "ँ</w>"
    ],
    [
      "क",
      "ता</w>"
    ],
    [
      "प्र",
      "ो"
    ],
    [
      "पा",
      "र्"
    ],
    [
      "घ",
      "ो"
    ],
    [
      "आ",
      "इ"
    ],
    [
      "का",
      "मे</w>"
    ],
    [
      "ज",
      "ै"
    ],
    [
      "कर",
      "ण</w>"
    ],
    [
      "१९",
      "७"
    ],
    [
      "फ",
      "ि"
    ],
    [
      "ल",
      "ऽ</w>"
    ],
    [
      "हा",
      "र</w>"
    ],
    [
      "स्था",
      "न"
    ],
    [
      "ह",
      "ार"
    ],
    [
      "सा",
      "र</w>"
    ],
    [
      "सं",
      "युक्त</w>"
    ],
    [
      "स्",
      "प"
    ],
    [
      "व",
      "ृ"
    ],
    [
      "सद",
      "स्"
    ],
    [
      "प्रत्य",
      "ेक</w>"
    ],
    [
      "र्थ",
      "</w>"
    ],
    [
      "ब्र",
      "ि"
    ],
    [
      "प्र",
      "ार"
    ],
    [
      "कए",
      "ल</w>"
    ],
    [
      "कर",
      "य</w>"
    ],
    [
      "सम्",
      "बन्ध"
    ],
    [
      "त",
      "रह"
    ],
    [
      "दुन",
      "ू</w>"
    ],
    [
      "सब",
      "मे</w>"
    ],
    [
      "ख",
      "ो"
    ],
    [
      "ह",
      "ी</w>"
    ],
    [
      "रि",
      "क</w>"
    ],
    [
      "क्",
      "स</w>"
    ],
    [
      "के",
      "न्द्र"
    ],
    [
      "सामान",
      "्य</w>"
    ],
    [
      "क",
      "ल"
    ],
    [
      "ार",
      "ा"
    ],
    [
      "त्र",
      "ी</w>"
    ],
    [
      "अ",
      "न्"
    ],
    [
      "ति",
      "हा"
    ],
    [
      "ट",
      "र"
    ],
    [
      "य",
      "न</w>"
    ],
    [
      "लोक",
      "निक</w>"
    ],
    [
      "बन",
      "ल</w>"
    ],
    [
      "मी",
      "टर</w>"
    ],
    [
      "ब",
      "च्"
    ],
    [
      "ट",
      "ि</w>"
    ],
    [
      "मान",
      "ल</w>"
    ],
    [
      "श",
      "हर</w>"
    ],
    [
      "थ",
      "ा</w>"
    ],
    [
      "ध",
      "ि</w>"
    ],
    [
      "कते",
      "को</w>"
    ],
    [
      "ड",
      "ॉ"
    ],
    [
      "ल",
      "्ड"
    ],
    [
      "अ",
      "थ"
    ],
    [
      "बा",
      "सँ</w>"
    ],
    [
      "ड़",
      "ल</w>"
    ],
    [
      "द",
      "ीक</w>"
    ],
    [
      "ै",
      "</w>"
    ],
    [
      "ु",
      "क</w>"
    ],
    [
      "य",
      "र"
    ],
    [
      "वि",
      "क"
    ],
    [
      "भेल",
      "।</w>"
    ],
    [
      "न",
      "ू"
    ],
    [
      "दि",
      "स</w>"
    ],
    [
      "च्",
      "छ"
    ],
    [
      "व",
      "र"
    ],
    [
      "मि",
      "ल</w>"
    ],
    [
      "पु",
      "रा"
    ],
    [
      "कोन",
      "हु</w>"
    ],
    [
      "क्ष",
      "</w>"
    ],
    [
      "सामान्य",
      "तः</w>"
    ],
    [
      "अ",
      "ङ्"
    ],
    [
      "द्व",
      "ी"
    ],
    [
      "अथ",
      "वा</w>"
    ],
    [
      "क",
      "िल"
    ],
    [
      "देल",
      "नि।</w>"
    ],
    [
      "घ",
      "ु"
    ],
    [
      "निर्मा",
      "ण</w>"
    ],
    [
      "िय",
      "ाक</w>"
    ],
    [
      "ज",
      "ू"
    ],
    [
      "अ",
      "ं"
    ],
    [
      "ती",
      "न</w>"
    ],
    [
      "विश्",
      "व"
    ],
    [
      "व",
      "र</w>"
    ],
    [
      "ग",
      "त</w>"
    ],
    [
      "स्",
      "ट</w>"
    ],
    [
      "स",
      "ार"
    ],
    [
      "छथ",
      "ि,</w>"
    ],
    [
      "थ",
      "ि।</w>"
    ],
    [
      "मह",
      "त्वपूर्ण</w>"
    ],
    [
      "ड",
      "ो"
    ],
    [
      "त्",
      "मक</w>"
    ],
    [
      "म",
      "ौ"
    ],
    [
      "त्",
      "त"
    ],
    [
      "यद्य",
      "पि</w>"
    ],
    [
      "अ",
      "लग</w>"
    ],
    [
      "ण",
      "मे</w>"
    ],
    [
      "अति",
      "रि"
    ],
    [
      "द",
      "ृ"
    ],
    [
      "मध",
      "्य</w>"
    ],
    [
      "आवश",
      "्य"
    ],
    [
      "विश्",
      "व</w>"
    ],
    [
      "अ",
      "ध्य"
    ],
    [
      "हिन्द",
      "ू</w>"
    ],
    [
      "रा",
      "स</w>"
    ],
    [
      "का",
      "ल"
    ],
    [
      "ना",
      "इ</w>"
    ],
    [
      "ण",
      "ी</w>"
    ],
    [
      "गे",
      "लाह।</w>"
    ],
    [
      "होय",
      "त</w>"
    ],
    [
      "भ",
      "</w>"
    ],
    [
      "न",
      "दी</w>"
    ],
    [
      "ट",
      "बॉ"
    ],
    [
      "ख्य",
      "ा</w>"
    ],
    [
      "ग",
      "ण"
    ],
    [
      "हो",
      "यबाक</w>"
    ],
    [
      "भ",
      "S</w>"
    ],
    [
      "आ",
      "ब</w>"
    ],
    [
      "कि",
      "एक</w>"
    ],
    [
      "घ",
      "ट"
    ],
    [
      "त",
      "ऽ</w>"
    ],
    [
      "भारत",
      "मे</w>"
    ],
    [
      ",",
      "०"
    ],
    [
      "सं",
      "ग</w>"
    ],
    [
      "ध",
      "ी"
    ],
    [
      "प",
      "त्"
    ],
    [
      "मु",
      "दा"
    ],
    [
      "ध",
      "्या"
    ],
    [
      "पहुँ",
      "च"
    ],
    [
      "ए",
      "न"
    ],
    [
      "भ",
      "ु"
    ],
    [
      "द",
      "्र"
    ],
    [
      "ह",
      "ै"
    ],
    [
      "ख",
      "ु"
    ],
    [
      "भा",
      "व"
    ],
    [
      "ब",
      "च"
    ],
    [
      "फ",
      "ी"
    ],
    [
      "लोक",
      "प्र"
    ],
    [
      "ट",
      "ीक</w>"
    ],
    [
      "अधि",
      "कां"
    ],
    [
      "न",
      "्यू"
    ],
    [
      "ेल",
      "्"
    ],
    [
      "ड़",
      "ी"
    ],
    [
      "पुर",
      "स्"
    ],
    [
      "भ",
      "व"
    ],
    [
      "ऑ",
      "फ</w>"
    ],
    [
      "मृत्य",
      "ु</w>"
    ],
    [
      "प्रा",
      "य"
    ],
    [
      "ँ",
      ",</w>"
    ],
    [
      "ड़",
      "ि</w>"
    ],
    [
      "पु",
      "न"
    ],
    [
      "व",
      "री</w>"
    ],
    [
      "कर",
      "ब</w>"
    ],
    [
      "च",
      "क</w>"
    ],
    [
      "ण",
      "ा</w>"
    ],
    [
      "श",
      "ै"
    ],
    [
      "भार",
      "त</w>"
    ],
    [
      "जन्",
      "म</w>"
    ],
    [
      "व",
      "मे</w>"
    ],
    [
      "ज",
      "का"
    ],
    [
      "भ",
      "व</w>"
    ],
    [
      "स",
      ",</w>"
    ],
    [
      "द",
      "श"
    ],
    [
      "र्",
      "ड</w>"
    ],
    [
      "म्ब",
      "र</w>"
    ],
    [
      "न्",
      "न"
    ],
    [
      "धार",
      "ित</w>"
    ],
    [
      "१९",
      "६"
    ],
    [
      "जा",
      "इ"
    ],
    [
      "आ",
      "ग"
    ],
    [
      "ट",
      "न</w>"
    ],
    [
      "ति",
      "मे</w>"
    ],
    [
      "र",
      "केँ</w>"
    ],
    [
      "ल",
      "ैत</w>"
    ],
    [
      "यु",
      "द्ध"
    ],
    [
      "शा",
      "स"
    ],
    [
      "सहा",
      "य"
    ],
    [
      "मा",
      "इ"
    ],
    [
      "आर",
      "म्भ</w>"
    ],
    [
      "देल",
      "क।</w>"
    ],
    [
      "ना",
      "मक</w>"
    ],
    [
      "ड़",
      "ा"
    ],
    [
      "आ",
      "ई"
    ],
    [
      "प्",
      "ता"
    ],
    [
      "ल",
      "क।</w>"
    ],
    [
      "अ",
      "र्"
    ],
    [
      "तु",
      "ल"
    ],
    [
      "अन",
      "ेक</w>"
    ],
    [
      "आब",
      "ि</w>"
    ],
    [
      "अधिकां",
      "श</w>"
    ],
    [
      "व",
      "ं"
    ],
    [
      "प्रया",
      "स</w>"
    ],
    [
      "र्",
      "ड"
    ],
    [
      "परि",
      "व"
    ],
    [
      "र",
      "ल</w>"
    ],
    [
      "उत्",
      "पा"
    ],
    [
      "ज",
      "तय</w>"
    ],
    [
      "ब",
      "ी</w>"
    ],
    [
      "ू",
      "।</w>"
    ],
    [
      "प्र",
      "ति</w>"
    ],
    [
      "दक्षि",
      "ण</w>"
    ],
    [
      "र",
      "-"
    ],
    [
      "आ",
      "यु"
    ],
    [
      "ति",
      "म</w>"
    ],
    [
      "कि",
      "त्"
    ],
    [
      "ध",
      "िक</w>"
    ],
    [
      "चि",
      "कित्"
    ],
    [
      "टी",
      "म</w>"
    ],
    [
      "गो",
      "ल</w>"
    ],
    [
      "२०",
      "</w>"
    ],
    [
      "स",
      "सँ</w>"
    ],
    [
      "प्र",
      "योग</w>"
    ],
    [
      "े",
      "े"
    ],
    [
      "ब",
      "्रा"
    ],
    [
      "आवश्य",
      "कता</w>"
    ],
    [
      "न",
      "्य"
    ],
    [
      "ट",
      "मे</w>"
    ],
    [
      "सि",
      "ं"
    ],
    [
      "्रा",
      "ज"
    ],
    [
      "ल",
      "गा"
    ],
    [
      "ते",
      "क</w>"
    ],
    [
      "त",
      "ो"
    ],
    [
      "जा",
      "हि</w>"
    ],
    [
      "ध",
      "र्"
    ],
    [
      "बाद",
      "मे</w>"
    ],
    [
      "रु",
      "द्ध</w>"
    ],
    [
      "क",
      "ला"
    ],
    [
      "कर",
      "ा"
    ],
    [
      "अमेरि",
      "की</w>"
    ],
    [
      "मा",
      "ध्य"
    ],
    [
      "ै",
      "क।</w>"
    ],
    [
      "म",
      "केँ</w>"
    ],
    [
      "प्रदर्",
      "श"
    ],
    [
      "ल",
      "न</w>"
    ],
    [
      "पूर्",
      "व</w>"
    ],
    [
      "म",
      "द"
    ],
    [
      "थ",
      "ि</w>"
    ],
    [
      "द",
      "िल्"
    ],
    [
      "परि",
      "णा"
    ],
    [
      "क्",
      "ल"
    ],
    [
      "श",
      "ं"
    ],
    [
      "फ",
      "र"
    ],
    [
      "झ",
      "ा"
    ],
    [
      "श",
      "ता"
    ],
    [
      "जका",
      "ँ</w>"
    ],
    [
      "चल",
      "ि</w>"
    ],
    [
      "च",
      "र्"
    ],
    [
      "स",
      "केँ</w>"
    ],
    [
      "ग",
      "ै"
    ],
    [
      "शता",
      "ब्"
    ],
    [
      "र",
      "ॉ"
    ],
    [
      "वि",
      "भिन्न</w>"
    ],
    [
      "उत्त",
      "र</w>"
    ],
    [
      "त",
      "मे</w>"
    ],
    [
      "वे",
      "श</w>"
    ],
    [
      "म",
      "न</w>"
    ],
    [
      "ली",
      "न</w>"
    ],
    [
      "महि",
      "ला</w>"
    ],
    [
      "अनु",
      "सार</w>"
    ],
    [
      "न",
      "ौ"
    ],
    [
      "िल",
      "ि"
    ],
    [
      "मन्दि",
      "र</w>"
    ],
    [
      "नि",
      "धन</w>"
    ],
    [
      "ज",
      "य"
    ],
    [
      "त्र",
      "ि"
    ],
    [
      "हु",
      "ँ</w>"
    ],
    [
      "द",
      "ौ"
    ],
    [
      "ह",
      "ॉ"
    ],
    [
      "लोकप्र",
      "िय</w>"
    ],
    [
      "न",
      "्या"
    ],
    [
      "प्र",
      "कारक</w>"
    ],
    [
      "कृ",
      "त</w>"
    ],
    [
      "त्र",
      "क</w>"
    ],
    [
      "ल",
      "ॉ"
    ],
    [
      "उ",
      "च्"
    ],
    [
      "व्यक्",
      "ति"
    ],
    [
      "|",
      "</w>"
    ],
    [
      "ष्",
      "ण"
    ],
    [
      "स",
      "न्"
    ],
    [
      "या",
      "त्र"
    ],
    [
      "देख",
      "ा"
    ],
    [
      "साम",
      "्राज"
    ],
    [
      "ड",
      "ी</w>"
    ],
    [
      "फ",
      "्रा"
    ],
    [
      "वर्ष",
      "क</w>"
    ],
    [
      "उ",
      "ल्"
    ],
    [
      "ङ्",
      "गा"
    ],
    [
      "प",
      "ता</w>"
    ],
    [
      "र",
      "च"
    ],
    [
      "ब",
      "ं"
    ],
    [
      "प",
      "री"
    ],
    [
      "क",
      "न</w>"
    ],
    [
      "श",
      "ब्"
    ],
    [
      "प्रभा",
      "वित</w>"
    ],
    [
      "सर्",
      "व"
    ],
    [
      "क्र",
      "ो"
    ],
    [
      "ं",
      "ड</w>"
    ],
    [
      "ं",
      "ट</w>"
    ],
    [
      "अतिरि",
      "क्त</w>"
    ],
    [
      "त",
      "ृ"
    ],
    [
      "वि",
      "रुद्ध</w>"
    ],
    [
      "म",
      "िक</w>"
    ],
    [
      "ह",
      "ी"
    ],
    [
      "ए",
      "श"
    ],
    [
      "धा",
      "र</w>"
    ],
    [
      "अन्",
      "तिम</w>"
    ],
    [
      "ग",
      "र</w>"
    ],
    [
      "ज",
      "नक</w>"
    ],
    [
      "चाह",
      "ैत</w>"
    ],
    [
      "ल",
      "ू"
    ],
    [
      "सु",
      "रक्ष"
    ],
    [
      "ल",
      "ि</w>"
    ],
    [
      "दे",
      "व"
    ],
    [
      "स",
      "िक</w>"
    ],
    [
      "विष",
      "यमे</w>"
    ],
    [
      "ल",
      "ब्"
    ],
    [
      "ओ",
      "ल"
    ],
    [
      "१९",
      "५"
    ],
    [
      "उ",
      "द्"
    ],
    [
      "१",
      "०"
    ],
    [
      "कए",
      "</w>"
    ],
    [
      "ब",
      "ज"
    ],
    [
      "नि",
      "या"
    ],
    [
      "छली",
      "ह।</w>"
    ],
    [
      "लाह",
      ",</w>"
    ],
    [
      "नि",
      "श्"
    ],
    [
      "समा",
      "प्त</w>"
    ],
    [
      "घो",
      "ष"
    ],
    [
      "ज",
      "ारी</w>"
    ],
    [
      "%",
      "</w>"
    ],
    [
      "कयल",
      "क</w>"
    ],
    [
      "मुद",
      "्र"
    ],
    [
      "त",
      "्य</w>"
    ],
    [
      "सङ्",
      "गीत</w>"
    ],
    [
      "अन्त",
      "र"
    ],
    [
      "उप",
      "लब्"
    ],
    [
      "प्रति",
      "योग"
    ],
    [
      "ं",
      "प"
    ],
    [
      "ट",
      "ल</w>"
    ],
    [
      "खेल",
      "क</w>"
    ],
    [
      "पु",
      "रु"
    ],
    [
      "च",
      "र"
    ],
    [
      "आ",
      "र्"
    ],
    [
      "ब",
      "ार"
    ],
    [
      "ष्",
      "ठ</w>"
    ],
    [
      "िय",
      "न</w>"
    ],
    [
      "वा",
      "स्त"
    ],
    [
      "ना",
      "इ"
    ],
    [
      "राज",
      "ा</w>"
    ],
    [
      "हिस्",
      "सा</w>"
    ],
    [
      "दु",
      "र्"
    ],
    [
      "मे",
      "सँ</w>"
    ],
    [
      "स्थान",
      "ीय</w>"
    ],
    [
      "सू",
      "च"
    ],
    [
      "फा",
      "इ"
    ],
    [
      "क्षेत्र",
      "क</w>"
    ],
    [
      "कार्य",
      "क्र"
    ],
    [
      "स्थाप",
      "ित</w>"
    ],
    [
      "टा",
      "इ"
    ],
    [
      "का",
      "उ"
    ],
    [
      "१",
      "७"
    ],
    [
      "द",
      "ा</w>"
    ],
    [
      "सा",
      "ल</w>"
    ],
    [
      "सदस्",
      "य</w>"
    ],
    [
      "किल",
      "ो"
    ],
    [
      "न",
      "-"
    ],
    [
      "अ",
      "प्र"
    ],
    [
      "्रा",
      "ष्ट्र"
    ],
    [
      "ऑ",
      "स्ट्र"
    ],
    [
      "म",
      ",</w>"
    ],
    [
      "ग",
      "ल</w>"
    ],
    [
      "घ",
      "र</w>"
    ],
    [
      "दू",
      "टा</w>"
    ],
    [
      "मू",
      "ल"
    ],
    [
      "म्ब",
      "ा</w>"
    ],
    [
      "वा",
      "र</w>"
    ],
    [
      "दो",
      "का"
    ],
    [
      "र्",
      "ष"
    ],
    [
      "ता",
      "सँ</w>"
    ],
    [
      "टबॉ",
      "ल</w>"
    ],
    [
      "ला",
      "सँ</w>"
    ],
    [
      "्राष्ट्र",
      "ीय</w>"
    ],
    [
      "वि",
      "का"
    ],
    [
      "उप",
      "योग"
    ],
    [
      "जि",
      "त"
    ],
    [
      "सि",
      "ने"
    ],
    [
      "क्र",
      "े"
    ],
    [
      "भी",
      "तर</w>"
    ],
    [
      "टि",
      "श</w>"
    ],
    [
      "त",
      "क"
    ],
    [
      "प",
      "हा"
    ],
    [
      "कारण",
      "ेँ</w>"
    ],
    [
      "वि",
      "क</w>"
    ],
    [
      "ब",
      "ड्ड"
    ],
    [
      "न्",
      "द</w>"
    ],
    [
      "अ",
      "ल्"
    ],
    [
      "ह",
      "्"
    ],
    [
      "विशे",
      "ष"
    ],
    [
      "ता",
      "न</w>"
    ],
    [
      "मू",
      "ल</w>"
    ],
    [
      "बा",
      "हर</w>"
    ],
    [
      "ना",
      "ड"
    ],
    [
      "सहाय",
      "ता</w>"
    ],
    [
      "चाह",
      "ी।</w>"
    ],
    [
      "क",
      "खन"
    ],
    [
      "सफ",
      "ल</w>"
    ],
    [
      "ल",
      "सँ</w>"
    ],
    [
      "अ",
      "बैत</w>"
    ],
    [
      "प्र",
      "स्तु"
    ],
    [
      "यो",
      "</w>"
    ],
    [
      "ग",
      "र्"
    ],
    [
      ",०",
      "००</w>"
    ],
    [
      "प्रतियोग",
      "ि"
    ],
    [
      "पो",
      "र्"
    ],
    [
      "क",
      "म"
    ],
    [
      "इ",
      "ं"
    ],
    [
      "ब",
      "य</w>"
    ],
    [
      "कु",
      "ल</w>"
    ],
    [
      "क्",
      "स"
    ],
    [
      "ज",
      "ल</w>"
    ],
    [
      "ल",
      "र</w>"
    ],
    [
      "द",
      "ि</w>"
    ],
    [
      "प",
      "ति</w>"
    ],
    [
      "१९",
      "४"
    ],
    [
      "ब्रि",
      "टिश</w>"
    ],
    [
      "य",
      "सँ</w>"
    ],
    [
      "क्र",
      "ि"
    ],
    [
      "देख",
      "ल</w>"
    ],
    [
      "सि",
      "त"
    ],
    [
      "का",
      "लीन</w>"
    ],
    [
      "प",
      "न्न</w>"
    ],
    [
      "ा",
      "मे</w>"
    ],
    [
      "दे",
      "बाक</w>"
    ],
    [
      "कै",
      "ल</w>"
    ],
    [
      "लग",
      "ैत</w>"
    ],
    [
      "ब",
      "ना</w>"
    ],
    [
      "प",
      "मे</w>"
    ],
    [
      "व्यक्",
      "ति</w>"
    ],
    [
      "जु",
      "ड़ल</w>"
    ],
    [
      "निश्",
      "चित</w>"
    ],
    [
      "न्",
      "ह"
    ],
    [
      "वर्",
      "ष</w>"
    ],
    [
      "राख",
      "ल</w>"
    ],
    [
      "गेल",
      "नि।</w>"
    ],
    [
      "चि",
      "त्र"
    ],
    [
      "प्र",
      "णा"
    ],
    [
      "इ",
      "ला"
    ],
    [
      "स",
      "प्ता"
    ],
    [
      "छै",
      "</w>"
    ],
    [
      "लै",
      "ण्ड"
    ],
    [
      "विद्या",
      "ल"
    ],
    [
      "वा",
      "स</w>"
    ],
    [
      "प",
      "ड़"
    ],
    [
      "स",
      "ित</w>"
    ],
    [
      "ट",
      "िक</w>"
    ],
    [
      "सि",
      "द्ध</w>"
    ],
    [
      "त",
      "ु</w>"
    ],
    [
      "अभि",
      "ने"
    ],
    [
      "त",
      "म</w>"
    ],
    [
      "ना",
      "मसँ</w>"
    ],
    [
      "स्",
      "पर्"
    ],
    [
      "१",
      "०</w>"
    ],
    [
      "क्ष",
      "ा</w>"
    ],
    [
      "न",
      "ृ"
    ],
    [
      "रि",
      "या"
    ],
    [
      "क",
      "केँ</w>"
    ],
    [
      "मि",
      "न"
    ],
    [
      ";",
      "</w>"
    ],
    [
      "पुरस्",
      "कार</w>"
    ],
    [
      "यू",
      "रो"
    ],
    [
      "आ",
      "यल</w>"
    ],
    [
      "सम",
      "स्"
    ],
    [
      "उ",
      "दा"
    ],
    [
      "पु",
      "लि"
    ],
    [
      "ए",
      "फ"
    ],
    [
      "आयोज",
      "ित</w>"
    ],
    [
      "वा",
      "न</w>"
    ],
    [
      "क",
      "सँ</w>"
    ],
    [
      "चि",
      "त्र</w>"
    ],
    [
      "ज",
      "ग"
    ],
    [
      "कृ",
      "तिक</w>"
    ],
    [
      "पुरा",
      "न</w>"
    ],
    [
      "१",
      "५"
    ],
    [
      "त",
      "ीक</w>"
    ],
    [
      "ण",
      "ि"
    ],
    [
      "द",
      "र"
    ],
    [
      "इ",
      "तिहा"
    ],
    [
      "ग",
      "ति"
    ],
    [
      "आयु",
      "मे</w>"
    ],
    [
      "ज",
      "ल"
    ],
    [
      "य",
      "ी</w>"
    ],
    [
      "ह",
      "वा"
    ],
    [
      "निय",
      "ा</w>"
    ],
    [
      "सर",
      "कार</w>"
    ],
    [
      "ए",
      "म"
    ],
    [
      "२०",
      "२"
    ],
    [
      "व",
      "स्तु"
    ],
    [
      "उपलब्",
      "ध</w>"
    ],
    [
      "अ",
      "क्"
    ],
    [
      "ज",
      "़"
    ],
    [
      "क",
      "ठ"
    ],
    [
      "कर",
      "बामे</w>"
    ],
    [
      "सम",
      "र्थ"
    ],
    [
      "ढ़",
      "</w>"
    ],
    [
      "ड़",
      "क</w>"
    ],
    [
      "बि",
      "ना</w>"
    ],
    [
      "कर",
      "यवला</w>"
    ],
    [
      "चार",
      "ि</w>"
    ],
    [
      "उच्",
      "च</w>"
    ],
    [
      "स्थाप",
      "ना</w>"
    ],
    [
      "से",
      "वा</w>"
    ],
    [
      "र",
      "ेल"
    ],
    [
      "र",
      "ङ्ग"
    ],
    [
      "ध",
      "ु"
    ],
    [
      "अन्तर",
      "्राष्ट्रीय</w>"
    ],
    [
      "न",
      "दी"
    ],
    [
      "कर",
      "ो"
    ],
    [
      "ची",
      "न</w>"
    ],
    [
      "भेट",
      "ैत</w>"
    ],
    [
      "ग",
      "ठ"
    ],
    [
      "ख",
      "्या"
    ],
    [
      "र",
      "े</w>"
    ],
    [
      "ले",
      "ख</w>"
    ],
    [
      "ह",
      "मे</w>"
    ],
    [
      "प्र",
      "का"
    ],
    [
      "उत्त",
      "री</w>"
    ],
    [
      "राज्य",
      "मे</w>"
    ],
    [
      "लै",
      "ंड"
    ],
    [
      "च",
      "ौ"
    ],
    [
      "१",
      "६"
    ],
    [
      "ब",
      "ू"
    ],
    [
      "ार",
      "ो"
    ],
    [
      "स",
      "ौ"
    ],
    [
      "ड",
      "क</w>"
    ],
    [
      "दा",
      "र</w>"
    ],
    [
      "ग",
      "मे</w>"
    ],
    [
      "ले",
      "ख"
    ],
    [
      "अमेरि",
      "काक</w>"
    ],
    [
      "बन्",
      "द</w>"
    ],
    [
      "अग",
      "िला</w>"
    ],
    [
      "ऑस्ट्र",
      "ेल"
    ],
    [
      "श",
      "क्"
    ],
    [
      "आ",
      "न"
    ],
    [
      "लोक",
      "नि"
    ],
    [
      "?",
      "</w>"
    ],
    [
      "ठ",
      "ा</w>"
    ],
    [
      "स्व",
      "त"
    ],
    [
      "प्रदर्",
      "शन</w>"
    ],
    [
      "स",
      "ञ्"
    ],
    [
      "कम्प",
      "नी</w>"
    ],
    [
      "पश्चि",
      "मी</w>"
    ],
    [
      "ं",
      "स"
    ],
    [
      "प्र",
      "सिद्ध</w>"
    ],
    [
      "म",
      "रा"
    ],
    [
      "आ",
      "ँ"
    ],
    [
      "छल",
      "नि।</w>"
    ],
    [
      "दे",
      "ने</w>"
    ],
    [
      "फे",
      "र</w>"
    ],
    [
      "फे",
      "रसँ</w>"
    ],
    [
      "भूमि",
      "का</w>"
    ],
    [
      "स्ट",
      "ा"
    ],
    [
      "ल",
      "िय"
    ],
    [
      "निर्",
      "ण"
    ],
    [
      "बरख",
      "क</w>"
    ],
    [
      "दू",
      "र</w>"
    ],
    [
      "चै",
      "म्प"
    ],
    [
      "ल",
      "े</w>"
    ],
    [
      "म",
      "ॉ"
    ],
    [
      "कह",
      "ैत</w>"
    ],
    [
      "जै",
      "न</w>"
    ],
    [
      "प",
      "ञ्"
    ],
    [
      "देश",
      "मे</w>"
    ],
    [
      "अ",
      "लग"
    ],
    [
      "म",
      "ाक</w>"
    ],
    [
      "चल",
      "ैत</w>"
    ],
    [
      "प्र",
      "दान</w>"
    ],
    [
      "समू",
      "ह</w>"
    ],
    [
      "रि",
      "य"
    ],
    [
      "नग",
      "र"
    ],
    [
      "ता",
      "मे</w>"
    ],
    [
      "सङ्",
      "गी"
    ],
    [
      "बड्ड",
      "</w>"
    ],
    [
      "प",
      "ट"
    ],
    [
      "माध्य",
      "मसँ</w>"
    ],
    [
      "चु",
      "ना"
    ],
    [
      "ब",
      "ह"
    ],
    [
      "लोक",
      "क</w>"
    ],
    [
      "श",
      "ा</w>"
    ],
    [
      "द्य",
      "ो"
    ],
    [
      "क्र",
      "ा"
    ],
    [
      "िय",
      "न"
    ],
    [
      "प",
      "दा"
    ],
    [
      "सा",
      "र्"
    ],
    [
      "स",
      "े</w>"
    ],
    [
      "न",
      "य</w>"
    ],
    [
      "खेला",
      "ड़ी</w>"
    ],
    [
      "म",
      "ध्य"
    ],
    [
      "द",
      "र</w>"
    ],
    [
      "लाइ",
      "न</w>"
    ],
    [
      "अनु",
      "भव</w>"
    ],
    [
      "न",
      "र</w>"
    ],
    [
      "का",
      "नू"
    ],
    [
      "स",
      "त"
    ],
    [
      "व",
      "न</w>"
    ],
    [
      "स्थि",
      "ति</w>"
    ],
    [
      "कह",
      "लनि</w>"
    ],
    [
      "नि",
      "क"
    ],
    [
      "ज",
      "यबाक</w>"
    ],
    [
      "भेट",
      "ल</w>"
    ],
    [
      "ड़",
      "ा</w>"
    ],
    [
      "उत्",
      "पन्न</w>"
    ],
    [
      "प्रार",
      "म्भ"
    ],
    [
      "फ्रा",
      "ं"
    ],
    [
      "व",
      "ाक</w>"
    ],
    [
      "बन",
      "ौ"
    ],
    [
      "ते",
      "सर</w>"
    ],
    [
      "ए",
      "ं"
    ],
    [
      "अ",
      "र्थ</w>"
    ],
    [
      "ड़",
      "ीक</w>"
    ],
    [
      "ना",
      "केँ</w>"
    ],
    [
      "स्",
      "त्र"
    ],
    [
      "चा",
      "ल"
    ],
    [
      "अलग",
      "-"
    ],
    [
      "तरह",
      "क</w>"
    ],
    [
      "सङ्",
      "ख्या</w>"
    ],
    [
      "ए",
      "हिसँ</w>"
    ],
    [
      "व",
      "ो"
    ],
    [
      "उ",
      "पा"
    ],
    [
      "फिल्",
      "मक</w>"
    ],
    [
      "पा",
      "इ</w>"
    ],
    [
      "देल",
      "नि</w>"
    ],
    [
      "प्रति",
      "नि"
    ],
    [
      "ँ",
      "च"
    ],
    [
      "सम",
      "यमे</w>"
    ],
    [
      "ज",
      "रा"
    ],
    [
      "किलो",
      "मीटर</w>"
    ],
    [
      "ल",
      "केँ</w>"
    ],
    [
      "छ",
      "ी,</w>"
    ],
    [
      "पा",
      "लि"
    ],
    [
      "प्राय",
      "ः</w>"
    ],
    [
      "बाद",
      ",</w>"
    ],
    [
      "ली",
      "मे</w>"
    ],
    [
      ".",
      "सी"
    ],
    [
      "ज",
      "िल"
    ],
    [
      "म",
      "ेल"
    ],
    [
      "का",
      "लमे</w>"
    ],
    [
      "टी",
      "मक</w>"
    ],
    [
      "बा",
      "त</w>"
    ],
    [
      "ना",
      ",</w>"
    ],
    [
      "अक्",
      "टू"
    ],
    [
      "छ",
      "नि</w>"
    ],
    [
      "प्र",
      "शिक्ष"
    ],
    [
      "नग",
      "र</w>"
    ],
    [
      "ग",
      "र"
    ],
    [
      "शा",
      "मिल</w>"
    ],
    [
      "न",
      "दीक</w>"
    ],
    [
      "ट",
      "े</w>"
    ],
    [
      "ि",
      "न</w>"
    ],
    [
      "पूर्",
      "वी</w>"
    ],
    [
      "ष",
      "ण</w>"
    ],
    [
      "स",
      "मुदा"
    ],
    [
      ".ए",
      "स"
    ],
    [
      "राज",
      "नी"
    ],
    [
      "र",
      "ाक</w>"
    ],
    [
      "वि",
      "चार</w>"
    ],
    [
      "उदा",
      "हर"
    ],
    [
      "पर",
      "म्प"
    ],
    [
      "स",
      "मुद्र"
    ],
    [
      "ब",
      "ौ"
    ],
    [
      "कि",
      "न"
    ],
    [
      "भु",
      "ग"
    ],
    [
      "योज",
      "ना</w>"
    ],
    [
      "ियन",
      "शि"
    ],
    [
      "१",
      "२</w>"
    ],
    [
      "राज",
      "धा"
    ],
    [
      "अलग-",
      "अलग</w>"
    ],
    [
      "हुन",
      "का"
    ],
    [
      "ब",
      "क</w>"
    ],
    [
      "बन्",
      "ध</w>"
    ],
    [
      "पु",
      "र</w>"
    ],
    [
      "विक",
      "सित</w>"
    ],
    [
      "ल",
      "िक</w>"
    ],
    [
      "ता",
      "केँ</w>"
    ],
    [
      "प",
      "ृ"
    ],
    [
      "निय",
      "न्त्र"
    ],
    [
      "जी",
      "त"
    ],
    [
      "जा",
      "पा"
    ],
    [
      "य",
      "िक</w>"
    ],
    [
      "चार",
      "ि"
    ],
    [
      "०",
      "क</w>"
    ],
    [
      "बु",
      "झ"
    ],
    [
      "आ",
      "य"
    ],
    [
      "ए",
      "ल"
    ],
    [
      "पा",
      "ँच</w>"
    ],
    [
      "शा",
      "सन</w>"
    ],
    [
      "अ",
      "र"
    ],
    [
      "वि",
      "धा"
    ],
    [
      "ग्र",
      "ी"
    ],
    [
      "ज",
      "ित</w>"
    ],
    [
      "फु",
      "टबॉल</w>"
    ],
    [
      "ब",
      "न्द"
    ],
    [
      "थि",
      "क।</w>"
    ],
    [
      "ड",
      "्र"
    ],
    [
      "ठा",
      "म</w>"
    ],
    [
      "म",
      "ं"
    ],
    [
      "से",
      "ना</w>"
    ],
    [
      "ठ",
      "ीक</w>"
    ],
    [
      "ध्या",
      "न</w>"
    ],
    [
      "उ",
      "द"
    ],
    [
      "कते",
      "क</w>"
    ],
    [
      "स",
      "ॉ"
    ],
    [
      "वर्",
      "ण"
    ],
    [
      "ना",
      "ग"
    ],
    [
      "ज",
      "र्म"
    ],
    [
      "मा",
      "नक</w>"
    ],
    [
      "प्",
      "प"
    ],
    [
      "द्",
      "वि"
    ],
    [
      "क",
      "य</w>"
    ],
    [
      "भाग",
      "मे</w>"
    ],
    [
      "ने",
      "श"
    ],
    [
      "बे",
      "सी"
    ],
    [
      "त",
      "ीय</w>"
    ],
    [
      "ता",
      "र</w>"
    ],
    [
      "हा",
      "थ"
    ],
    [
      "आ",
      "क्रम"
    ],
    [
      "द",
      "न</w>"
    ],
    [
      "कर",
      "बा</w>"
    ],
    [
      "३",
      "०</w>"
    ],
    [
      "ज",
      "र</w>"
    ],
    [
      "ध",
      "ी</w>"
    ],
    [
      "ब",
      "ला</w>"
    ],
    [
      "जिल",
      "ाक</w>"
    ],
    [
      "ंग",
      "्"
    ],
    [
      "चु",
      "कल</w>"
    ],
    [
      "आ",
      "धारित</w>"
    ],
    [
      "झ",
      "ी"
    ],
    [
      "मै",
      "च</w>"
    ],
    [
      "प्रति",
      "स्पर्"
    ],
    [
      "निर्",
      "देश"
    ],
    [
      "भ",
      "ग"
    ],
    [
      "सम",
      "ी"
    ],
    [
      "वि",
      "ज्ञा"
    ],
    [
      "सार्",
      "व"
    ],
    [
      "उत्",
      "स"
    ],
    [
      "डिय",
      "ो</w>"
    ],
    [
      "१९",
      "</w>"
    ],
    [
      "कर",
      "ू</w>"
    ],
    [
      "छो",
      "ट"
    ],
    [
      "इ",
      "क</w>"
    ],
    [
      "स्व",
      "य"
    ],
    [
      "प",
      "क्ष"
    ],
    [
      "ज",
      "हा"
    ],
    [
      "यु",
      "द्ध</w>"
    ],
    [
      "सङ्",
      "घ"
    ],
    [
      "ी",
      "मे</w>"
    ],
    [
      "कि",
      "स्ता"
    ],
    [
      "परि",
      "वर्त"
    ],
    [
      "छ",
      "लाह,</w>"
    ],
    [
      "ट",
      "ेल"
    ],
    [
      "फ",
      "िलि"
    ],
    [
      "कर",
      "ू।</w>"
    ],
    [
      "द",
      "ऽ</w>"
    ],
    [
      "या",
      "र</w>"
    ],
    [
      "परि",
      "क</w>"
    ],
    [
      "ग",
      "ल"
    ],
    [
      "म",
      "नो"
    ],
    [
      "य",
      ",</w>"
    ],
    [
      "स्वा",
      "स्थ"
    ],
    [
      "लोक",
      "सभ</w>"
    ],
    [
      "ब",
      "ढ़"
    ],
    [
      "शि",
      "ष्ट</w>"
    ],
    [
      "प्रा",
      "चीन</w>"
    ],
    [
      "म",
      "र"
    ],
    [
      "अ",
      "स"
    ],
    [
      "धि",
      "कार"
    ],
    [
      "अनु",
      "म"
    ],
    [
      "तुल",
      "नामे</w>"
    ],
    [
      "निय",
      "ाक</w>"
    ],
    [
      "ए",
      "तेक</w>"
    ],
    [
      "व",
      "ार"
    ],
    [
      "आर",
      "म्भ"
    ],
    [
      "विवा",
      "ह</w>"
    ],
    [
      "मु",
      "गल</w>"
    ],
    [
      "र्",
      "य</w>"
    ],
    [
      "व",
      "स्त"
    ],
    [
      "सं",
      "क्रम"
    ],
    [
      "न्",
      "हि</w>"
    ],
    [
      "ने",
      "तृ"
    ],
    [
      "बद",
      "लि</w>"
    ],
    [
      "स्थ",
      "ा</w>"
    ],
    [
      "निर्ण",
      "य</w>"
    ],
    [
      "िया",
      "मे</w>"
    ],
    [
      "वि",
      "रो"
    ],
    [
      "ल्ड",
      "</w>"
    ],
    [
      "नगर",
      "पालि"
    ],
    [
      "म",
      "नाओल</w>"
    ],
    [
      "श्र",
      "ी"
    ],
    [
      "होय",
      "त।</w>"
    ],
    [
      "स",
      "हित</w>"
    ],
    [
      "चैम्प",
      "ियनशि"
    ],
    [
      "वस्त",
      "ु</w>"
    ],
    [
      "ब",
      "द्ध</w>"
    ],
    [
      "ल",
      "-"
    ],
    [
      "त",
      "मिल"
    ],
    [
      "!",
      "</w>"
    ],
    [
      "ओल",
      "म्प"
    ],
    [
      "इ",
      "न्"
    ],
    [
      "स्व",
      "रूप</w>"
    ],
    [
      "ं",
      "स</w>"
    ],
    [
      "छ",
      "</w>"
    ],
    [
      "छ",
      "नि।</w>"
    ],
    [
      "दि",
      "सम्"
    ],
    [
      "ब",
      "ल</w>"
    ],
    [
      "परी",
      "क्ष"
    ],
    [
      "मा",
      "र</w>"
    ],
    [
      "रह",
      "ल।</w>"
    ],
    [
      "स",
      "ीक</w>"
    ],
    [
      "आ",
      "इ</w>"
    ],
    [
      "रि",
      "या</w>"
    ],
    [
      "अमेरि",
      "कामे</w>"
    ],
    [
      "फ्र",
      "ी"
    ],
    [
      "प",
      "दक</w>"
    ],
    [
      "स",
      "मान</w>"
    ],
    [
      "ड़",
      "</w>"
    ],
    [
      "र",
      "हि</w>"
    ],
    [
      "वर्त",
      "मान</w>"
    ],
    [
      "विद्या",
      "लय</w>"
    ],
    [
      "छो",
      "ड़ि</w>"
    ],
    [
      "ब",
      "ङ्गा"
    ],
    [
      "मह",
      "ारा"
    ],
    [
      "ज",
      "निक</w>"
    ],
    [
      "न्",
      "ध"
    ],
    [
      "कारण",
      "े</w>"
    ],
    [
      "छै",
      "।</w>"
    ],
    [
      "प",
      "छ"
    ],
    [
      "सू",
      "ची"
    ],
    [
      "आयोज",
      "न</w>"
    ],
    [
      "अङ्",
      "ग्रे"
    ],
    [
      "धि",
      "मे</w>"
    ],
    [
      "परिणा",
      "म"
    ],
    [
      "स्",
      "कू"
    ],
    [
      "पुन",
      "र्"
    ],
    [
      "प्",
      "ले"
    ],
    [
      "र्",
      "स</w>"
    ],
    [
      "लेल",
      ",</w>"
    ],
    [
      "युद्ध",
      "क</w>"
    ],
    [
      "१",
      "५</w>"
    ],
    [
      "क्र",
      "िया</w>"
    ],
    [
      "दृ",
      "ष्"
    ],
    [
      "क",
      "ल्"
    ],
    [
      "ते",
      "ँ</w>"
    ],
    [
      "देल",
      "क</w>"
    ],
    [
      "नि",
      "त</w>"
    ],
    [
      "अभि",
      "नय</w>"
    ],
    [
      "ट्",
      "स</w>"
    ],
    [
      "गे",
      "लाह</w>"
    ],
    [
      "र",
      "ित</w>"
    ],
    [
      "अप्र",
      "ै"
    ],
    [
      "त",
      "्या"
    ],
    [
      "र्",
      "प"
    ],
    [
      "ए",
      "हि"
    ],
    [
      "ग",
      "म्भ"
    ],
    [
      "गम्भ",
      "ी"
    ],
    [
      "घोष",
      "णा</w>"
    ],
    [
      "कार",
      "ा"
    ],
    [
      "नि",
      "कल"
    ],
    [
      "न",
      "पर</w>"
    ],
    [
      "बन",
      "यबाक</w>"
    ],
    [
      "र",
      "पर</w>"
    ],
    [
      "प",
      "क"
    ],
    [
      "दि",
      "व"
    ],
    [
      "सी",
      "मा</w>"
    ],
    [
      "जन",
      "वरी</w>"
    ],
    [
      "ब",
      "ना"
    ],
    [
      "१",
      "मे</w>"
    ],
    [
      "स",
      "ल"
    ],
    [
      "श्रे",
      "ष्ठ</w>"
    ],
    [
      "के",
      "ट</w>"
    ],
    [
      "ी",
      "केँ</w>"
    ],
    [
      "पा",
      "किस्ता"
    ],
    [
      "र",
      "ै"
    ],
    [
      "स्थ",
      "ल</w>"
    ],
    [
      "कि",
      "म्बा</w>"
    ],
    [
      "वि",
      "शिष्ट</w>"
    ],
    [
      "आग",
      "ू</w>"
    ],
    [
      "ना",
      "ट"
    ],
    [
      "क",
      "थ"
    ],
    [
      "त",
      "सँ</w>"
    ],
    [
      "स्वी",
      "कार</w>"
    ],
    [
      "व",
      "े</w>"
    ],
    [
      "ट",
      "ु"
    ],
    [
      "जा",
      "र</w>"
    ],
    [
      "अनुम",
      "ति</w>"
    ],
    [
      "अनु",
      "सार"
    ],
    [
      "ति",
      "केँ</w>"
    ],
    [
      "द",
      "ार"
    ],
    [
      "पा",
      "ओल</w>"
    ],
    [
      "ब्",
      "ल"
    ],
    [
      "छल",
      "ैक</w>"
    ],
    [
      "स",
      "ल</w>"
    ],
    [
      "सहा",
      "यक</w>"
    ],
    [
      "म",
      "ण्ड"
    ],
    [
      "पश्चि",
      "म</w>"
    ],
    [
      "देख",
      "ि</w>"
    ],
    [
      "पार",
      "म्"
    ],
    [
      "ख",
      "र्"
    ],
    [
      "व्यव",
      "सा"
    ],
    [
      "ब",
      "।</w>"
    ],
    [
      "त",
      "ेल"
    ],
    [
      "व",
      "ु"
    ],
    [
      "भुग",
      "तान</w>"
    ],
    [
      "ट",
      ",</w>"
    ],
    [
      "तै",
      "यार</w>"
    ],
    [
      "पा",
      "र</w>"
    ],
    [
      "पारम्",
      "परिक</w>"
    ],
    [
      "थ",
      "ो"
    ],
    [
      "ब",
      "र"
    ],
    [
      "राजधा",
      "नी</w>"
    ],
    [
      "ट",
      "ाक</w>"
    ],
    [
      "न",
      "ै"
    ],
    [
      "जि",
      "लामे</w>"
    ],
    [
      "व्या",
      "पक</w>"
    ],
    [
      "आ",
      "त्"
    ],
    [
      "वृ",
      "त्"
    ],
    [
      "मार्",
      "च</w>"
    ],
    [
      "क",
      "हि"
    ],
    [
      "त",
      "ो</w>"
    ],
    [
      "ड़",
      "ि</w>"
    ],
    [
      "गेल",
      ",</w>"
    ],
    [
      "दि",
      "नक</w>"
    ],
    [
      "भाष",
      "ा</w>"
    ],
    [
      "कयल",
      "नि,</w>"
    ],
    [
      "लाग",
      "ल</w>"
    ],
    [
      "सम्बन्ध",
      "ित</w>"
    ],
    [
      "कृ",
      "ति</w>"
    ],
    [
      "सं",
      "रक्ष"
    ],
    [
      "टी",
      "मे</w>"
    ],
    [
      "आवश",
      "्यक</w>"
    ],
    [
      "भार",
      "ी</w>"
    ],
    [
      "स्ट",
      "ो"
    ],
    [
      "सार्व",
      "जनिक</w>"
    ],
    [
      "वा",
      "द</w>"
    ],
    [
      "्र",
      "</w>"
    ],
    [
      "प्र",
      "वेश</w>"
    ],
    [
      "ज",
      "य</w>"
    ],
    [
      "म",
      "न"
    ],
    [
      "य",
      "केँ</w>"
    ],
    [
      "त",
      "री"
    ],
    [
      "कम्प",
      "्यू"
    ],
    [
      "शह",
      "रक</w>"
    ],
    [
      "अ",
      "ड्ड"
    ],
    [
      "न्",
      "त्र</w>"
    ],
    [
      "प्रति",
      "श"
    ],
    [
      "प्र",
      "बन्ध"
    ],
    [
      "थ",
      "ी"
    ],
    [
      "ती",
      "न"
    ],
    [
      "लेल",
      "नि।</w>"
    ],
    [
      "ष्",
      "ठ"
    ],
    [
      "व",
      "ल</w>"
    ],
    [
      "को",
      "शि"
    ],
    [
      "पर्",
      "य"
    ],
    [
      "र्",
      "ष</w>"
    ],
    [
      "बच्",
      "चा"
    ],
    [
      "च",
      "मे</w>"
    ],
    [
      "श्र",
      "ृ"
    ],
    [
      "क",
      "ित</w>"
    ],
    [
      "त",
      "था</w>"
    ],
    [
      "द्वी",
      "प</w>"
    ],
    [
      "इ",
      "स्"
    ],
    [
      "हुँ",
      "।</w>"
    ],
    [
      "ेे",
      "ेे"
    ],
    [
      "केन्द्र",
      "</w>"
    ],
    [
      "वे",
      "श"
    ],
    [
      "सम्",
      "पर्"
    ],
    [
      "सॉ",
      "फ्"
    ],
    [
      "जाय",
      "त।</w>"
    ],
    [
      "प्रारम्भ",
      "िक</w>"
    ],
    [
      "स्त",
      "र</w>"
    ],
    [
      "घ",
      "ण्"
    ],
    [
      "सर्व",
      "श्रेष्ठ</w>"
    ],
    [
      "प्र",
      "थ"
    ],
    [
      "क्",
      "त"
    ],
    [
      "न्",
      "स</w>"
    ],
    [
      "ग्र",
      "ी</w>"
    ],
    [
      "ए",
      "च"
    ],
    [
      "अ",
      "र्थ"
    ],
    [
      "लोकनि",
      "केँ</w>"
    ],
    [
      "प",
      "ॉ"
    ],
    [
      "क्ल",
      "ब</w>"
    ],
    [
      "ख",
      "रा"
    ],
    [
      "रा",
      "म"
    ],
    [
      "आ",
      "धु"
    ],
    [
      "२",
      "मे</w>"
    ],
    [
      "५",
      "०</w>"
    ],
    [
      "सर",
      "ल</w>"
    ],
    [
      "ज",
      "मे</w>"
    ],
    [
      "धिकार",
      "िक</w>"
    ],
    [
      "से",
      "वा"
    ],
    [
      "ज",
      "ॉ"
    ],
    [
      "हा",
      "इ"
    ],
    [
      "भो",
      "जन</w>"
    ],
    [
      "लिख",
      "ल</w>"
    ],
    [
      "म्",
      "म"
    ],
    [
      "स्",
      "ति"
    ],
    [
      "शु",
      "ल्"
    ],
    [
      "आ",
      "धिकारिक</w>"
    ],
    [
      "ए",
      "खन"
    ],
    [
      "रो",
      "ग"
    ],
    [
      "प्र",
      "धा"
    ],
    [
      "वा",
      "सी</w>"
    ],
    [
      "कार्यक्र",
      "म</w>"
    ],
    [
      "क",
      "ला</w>"
    ],
    [
      "फ",
      "ू"
    ],
    [
      "क",
      "िला</w>"
    ],
    [
      "श",
      "ू"
    ],
    [
      "यात्र",
      "ा</w>"
    ],
    [
      "अ",
      "य"
    ],
    [
      "स्प",
      "ष्ट</w>"
    ],
    [
      "क",
      "हु</w>"
    ],
    [
      "मा",
      "स</w>"
    ],
    [
      "द",
      "ल</w>"
    ],
    [
      "प",
      "ं"
    ],
    [
      "वा",
      "दी</w>"
    ],
    [
      "कखन",
      "ो</w>"
    ],
    [
      "बन",
      "बैत</w>"
    ],
    [
      "राष्ट्र",
      "पति</w>"
    ],
    [
      "जी",
      "त</w>"
    ],
    [
      "मृत्य",
      "ुक</w>"
    ],
    [
      "ला",
      "ख</w>"
    ],
    [
      "प",
      "न</w>"
    ],
    [
      "ख",
      "री"
    ],
    [
      "पुलि",
      "स</w>"
    ],
    [
      "खेल",
      "ल</w>"
    ],
    [
      "विश्व",
      "विद्याल"
    ],
    [
      "रह",
      "थि।</w>"
    ],
    [
      "समर्थ",
      "न</w>"
    ],
    [
      "मन्",
      "त्री</w>"
    ],
    [
      "क्ष",
      "म"
    ],
    [
      "ला",
      "ल</w>"
    ],
    [
      "कर",
      "णक</w>"
    ],
    [
      "प्र",
      "जा"
    ],
    [
      "अनुसार",
      ",</w>"
    ],
    [
      "क्र",
      "ममे</w>"
    ],
    [
      "सम",
      "ारो"
    ],
    [
      "न",
      "ह"
    ],
    [
      "ज",
      "िक</w>"
    ],
    [
      "क",
      "था</w>"
    ],
    [
      "करो",
      "ड़</w>"
    ],
    [
      "आ",
      "र्थ"
    ],
    [
      "गो",
      "टे</w>"
    ],
    [
      "क",
      "मा"
    ],
    [
      "ध",
      "ित</w>"
    ],
    [
      "गा",
      "म</w>"
    ],
    [
      "प",
      "ी</w>"
    ],
    [
      "ल",
      "ड़"
    ],
    [
      "आधु",
      "निक</w>"
    ],
    [
      "ट्र",
      "ा"
    ],
    [
      "जु",
      "ला"
    ],
    [
      "स",
      "ँ,</w>"
    ],
    [
      "ए",
      "ल्"
    ],
    [
      "फ",
      "ा</w>"
    ],
    [
      "ले",
      "ने</w>"
    ],
    [
      "राजनी",
      "तिक</w>"
    ],
    [
      "प",
      "ि,</w>"
    ],
    [
      "बा",
      "इ"
    ],
    [
      "पूर्",
      "वक</w>"
    ],
    [
      "उद्",
      "देश"
    ],
    [
      "आ",
      "यो"
    ],
    [
      "१",
      "३"
    ],
    [
      "ता",
      ",</w>"
    ],
    [
      "मै",
      "दा"
    ],
    [
      "श",
      "री"
    ],
    [
      "२",
      "५</w>"
    ],
    [
      "खेल",
      "मे</w>"
    ],
    [
      "सिं",
      "ह</w>"
    ],
    [
      "भाव",
      "ना</w>"
    ],
    [
      "छ",
      "ी"
    ],
    [
      "रि",
      "मे</w>"
    ],
    [
      "वर्",
      "ग</w>"
    ],
    [
      "बे",
      "च"
    ],
    [
      "प्रभा",
      "व</w>"
    ],
    [
      "तमिल",
      "नाड"
    ],
    [
      "या",
      "ल"
    ],
    [
      "मा",
      "मि"
    ],
    [
      "पर्",
      "या"
    ],
    [
      "ली",
      "ग</w>"
    ],
    [
      "द्",
      "धा"
    ],
    [
      "निय",
      "म</w>"
    ],
    [
      "भ",
      "र"
    ],
    [
      "ट्र",
      "े"
    ],
    [
      "पछ",
      "िला</w>"
    ],
    [
      "क",
      "ट"
    ],
    [
      "ण्",
      "ट</w>"
    ],
    [
      "रो",
      "क"
    ],
    [
      "र्म",
      "िक</w>"
    ],
    [
      "दृ",
      "श"
    ],
    [
      "बि",
      "ज"
    ],
    [
      "सा",
      "हि"
    ],
    [
      "ज",
      "र"
    ],
    [
      "ला",
      ",</w>"
    ],
    [
      "८",
      "मे</w>"
    ],
    [
      "परिव",
      "ारक</w>"
    ],
    [
      "धा",
      "र्मिक</w>"
    ],
    [
      "साम्राज",
      "्यक</w>"
    ],
    [
      "मिल",
      "ा</w>"
    ],
    [
      "ना",
      "टक</w>"
    ],
    [
      "नृ",
      "त्य</w>"
    ],
    [
      "परिणाम",
      "स्वरूप</w>"
    ],
    [
      "पा",
      "ल</w>"
    ],
    [
      "लेल",
      "क।</w>"
    ],
    [
      "ङ्",
      "ख"
    ],
    [
      "ले",
      "बाक</w>"
    ],
    [
      "जा",
      "न"
    ],
    [
      "१९",
      "३"
    ],
    [
      "श",
      "ी</w>"
    ],
    [
      "जन",
      "त"
    ],
    [
      "पि",
      "ता</w>"
    ],
    [
      "प्र",
      "स्ता"
    ],
    [
      "अछि",
      ","
    ],
    [
      "रा",
      "इ"
    ],
    [
      "छल",
      "ैक।</w>"
    ],
    [
      "ए",
      "क्"
    ],
    [
      "वा",
      "यर"
    ],
    [
      "न",
      "्य</w>"
    ],
    [
      "क",
      "मी</w>"
    ],
    [
      "ना",
      "म"
    ],
    [
      "स्ट",
      "र</w>"
    ],
    [
      "६",
      "मे</w>"
    ],
    [
      "िय",
      "ो"
    ],
    [
      "उ",
      "ठ"
    ],
    [
      "इ",
      "ण्ड"
    ],
    [
      "ज",
      "ीक</w>"
    ],
    [
      "फो",
      "न</w>"
    ],
    [
      "१",
      "४</w>"
    ],
    [
      "निर्",
      "धारित</w>"
    ],
    [
      "ण",
      "सँ</w>"
    ],
    [
      "ट",
      "ै"
    ],
    [
      "री",
      ",</w>"
    ],
    [
      "ब",
      ",</w>"
    ],
    [
      "प्रस्तु",
      "त</w>"
    ],
    [
      "स्वास्थ",
      "्य</w>"
    ],
    [
      "ध",
      "क</w>"
    ],
    [
      "विका",
      "स</w>"
    ],
    [
      "तिहा",
      "सिक</w>"
    ],
    [
      "थ",
      "िक</w>"
    ],
    [
      "प",
      "ठ"
    ],
    [
      "वि",
      "त्त"
    ],
    [
      "प्रदर्श",
      "ित</w>"
    ],
    [
      "ए",
      "खन</w>"
    ],
    [
      "गम्भी",
      "र</w>"
    ],
    [
      "ता",
      "प"
    ],
    [
      "ब",
      "यवला</w>"
    ],
    [
      "हे",
      "तु</w>"
    ],
    [
      "फ",
      "ै"
    ],
    [
      "जो",
      "ड़"
    ],
    [
      "प्र",
      "ती"
    ],
    [
      "जाइ",
      "वला</w>"
    ],
    [
      "रह",
      "बाक</w>"
    ],
    [
      "उप",
      "चार</w>"
    ],
    [
      "पुरु",
      "ष</w>"
    ],
    [
      "चल",
      "चित्र</w>"
    ],
    [
      "छल",
      "नि</w>"
    ],
    [
      "बौ",
      "द्ध</w>"
    ],
    [
      "उल्",
      "लेख</w>"
    ],
    [
      "सङ्ग",
      "ठ"
    ],
    [
      "उ",
      "द्यो"
    ],
    [
      "मू",
      "र्"
    ],
    [
      "क",
      "ौ"
    ],
    [
      "कते",
      "कहु</w>"
    ],
    [
      "समस्",
      "या</w>"
    ],
    [
      "गु",
      "जरा"
    ],
    [
      "सफ",
      "ल"
    ],
    [
      "फ",
      "ी</w>"
    ],
    [
      "१",
      "२"
    ],
    [
      "विद",
      "्रो"
    ],
    [
      "प",
      "ढ़"
    ],
    [
      "न्",
      "तक</w>"
    ],
    [
      "फो",
      "र्"
    ],
    [
      "म",
      "ि</w>"
    ],
    [
      "आ",
      "प"
    ],
    [
      "क्",
      "सि"
    ],
    [
      "आ",
      "घा"
    ],
    [
      ".",
      "डी"
    ],
    [
      "टे",
      "ड</w>"
    ],
    [
      "च",
      "क्र"
    ],
    [
      "जू",
      "न</w>"
    ],
    [
      "नगरपालि",
      "का</w>"
    ],
    [
      "ट",
      "र्"
    ],
    [
      "म्",
      "स</w>"
    ],
    [
      "ल्",
      "ल"
    ],
    [
      "वि",
      "भा"
    ],
    [
      "खेल",
      "य"
    ],
    [
      "त",
      "ू"
    ],
    [
      "ल",
      "नि,</w>"
    ],
    [
      "प्रका",
      "श"
    ],
    [
      "७",
      "मे</w>"
    ],
    [
      "निय",
      "मित</w>"
    ],
    [
      "एक",
      "मात्र</w>"
    ],
    [
      "बे",
      "रि</w>"
    ],
    [
      "रह",
      "लाह।</w>"
    ],
    [
      "क",
      "ंप"
    ],
    [
      "रख",
      "ैत</w>"
    ],
    [
      "ज",
      "ल्"
    ],
    [
      "रख",
      "बाक</w>"
    ],
    [
      "शब्",
      "द</w>"
    ],
    [
      "अव",
      "धिमे</w>"
    ],
    [
      "ण",
      "केँ</w>"
    ],
    [
      "मार्",
      "ग</w>"
    ],
    [
      "को",
      "ना</w>"
    ],
    [
      "१",
      "४"
    ],
    [
      "दि",
      "ससँ</w>"
    ],
    [
      "के",
      "त</w>"
    ],
    [
      "दश",
      "कमे</w>"
    ],
    [
      "डॉ",
      "ल"
    ],
    [
      "नव",
      "म्बर</w>"
    ],
    [
      "नि",
      "ष्"
    ],
    [
      "जाय",
      "वला</w>"
    ],
    [
      "आ",
      "कर्"
    ],
    [
      "के",
      "ं</w>"
    ],
    [
      "ख",
      "ा</w>"
    ],
    [
      "सम",
      "यक</w>"
    ],
    [
      "स्",
      "को"
    ],
    [
      "अमेरि",
      "का</w>"
    ],
    [
      "व",
      "्"
    ],
    [
      "ड",
      "ब्ल"
    ],
    [
      "के",
      "र"
    ],
    [
      "सा",
      "मा"
    ],
    [
      "जीव",
      "न</w>"
    ],
    [
      "विक",
      "ल्"
    ],
    [
      "घ",
      "रमे</w>"
    ],
    [
      "कर्",
      "ता</w>"
    ],
    [
      ")",
      ",</w>"
    ],
    [
      "ञ्",
      "च</w>"
    ],
    [
      "म",
      "ल"
    ],
    [
      "ध",
      "रि"
    ],
    [
      "पहि",
      "ने"
    ],
    [
      "चार",
      "क</w>"
    ],
    [
      "सा",
      "ं"
    ],
    [
      "अन्त",
      "मे</w>"
    ],
    [
      "त",
      "ट"
    ],
    [
      "से",
      "नाक</w>"
    ],
    [
      "ट्",
      "टा"
    ],
    [
      "लै",
      "ण्ड</w>"
    ],
    [
      "ज",
      "िला</w>"
    ],
    [
      "मान",
      "मे</w>"
    ],
    [
      "ऊ",
      "पर</w>"
    ],
    [
      "टेल",
      "ी"
    ],
    [
      "परि",
      "वार</w>"
    ],
    [
      "अप",
      "े"
    ],
    [
      "ृ",
      "त</w>"
    ],
    [
      "अक्टू",
      "बर</w>"
    ],
    [
      "रो",
      "ग</w>"
    ],
    [
      "२०१",
      "४</w>"
    ],
    [
      "श",
      "ृ"
    ],
    [
      "बढ़",
      "ि</w>"
    ],
    [
      "आ",
      "रो"
    ],
    [
      "वा",
      "इ"
    ],
    [
      "कर्",
      "म"
    ],
    [
      "अप",
      "ना</w>"
    ],
    [
      "पु",
      "त्र</w>"
    ],
    [
      "ह",
      ",</w>"
    ],
    [
      "भ",
      "ौ"
    ],
    [
      "निर्",
      "वा"
    ],
    [
      "जा",
      "ँच</w>"
    ],
    [
      "स्वी",
      "ड"
    ],
    [
      "यद्य",
      "पि,</w>"
    ],
    [
      "ए",
      "ड"
    ],
    [
      "स",
      "ाक</w>"
    ],
    [
      "पा",
      "ण्ड"
    ],
    [
      "क",
      "ट</w>"
    ],
    [
      "पूर्",
      "व"
    ],
    [
      "अ",
      "फ्री"
    ],
    [
      "१",
      "१</w>"
    ],
    [
      "श",
      "ल</w>"
    ],
    [
      "पहि",
      "र"
    ],
    [
      "प्रतिनि",
      "धि"
    ],
    [
      "कु",
      "मार</w>"
    ],
    [
      "ऐ",
      "तिहासिक</w>"
    ],
    [
      "बच्",
      "चा</w>"
    ],
    [
      "स्",
      "पे"
    ],
    [
      "द",
      "बा"
    ],
    [
      "०",
      "०"
    ],
    [
      "त",
      "केँ</w>"
    ],
    [
      "शा",
      "स्त्र"
    ],
    [
      "बा",
      "ँ"
    ],
    [
      "मा",
      "नित</w>"
    ],
    [
      "च",
      "ाक</w>"
    ],
    [
      "मद",
      "ति</w>"
    ],
    [
      "ह",
      "रा</w>"
    ],
    [
      "नेश",
      "नल</w>"
    ],
    [
      "उ",
      "</w>"
    ],
    [
      "शह",
      "रमे</w>"
    ],
    [
      "प",
      "त्र</w>"
    ],
    [
      "५",
      "मे</w>"
    ],
    [
      "सो",
      "च"
    ],
    [
      "अधि",
      "कारी</w>"
    ],
    [
      "ंग",
      "क</w>"
    ],
    [
      "सङ्ग",
      "हि</w>"
    ],
    [
      "९",
      "मे</w>"
    ],
    [
      "त",
      "न</w>"
    ],
    [
      "ं",
      "ट"
    ],
    [
      "स",
      "्रो"
    ],
    [
      "य",
      "ौ"
    ],
    [
      "अग",
      "स्त</w>"
    ],
    [
      "न",
      "ॉ"
    ],
    [
      "श",
      "ॉ"
    ],
    [
      "थ",
      "क</w>"
    ],
    [
      "पर्",
      "व"
    ],
    [
      "ण",
      ",</w>"
    ],
    [
      "सा",
      "त</w>"
    ],
    [
      "प",
      "ीय</w>"
    ],
    [
      "फर",
      "वरी</w>"
    ],
    [
      "जन",
      "गण"
    ],
    [
      "नि",
      "र"
    ],
    [
      "अन्त",
      "र्"
    ],
    [
      "ने",
      "ट"
    ],
    [
      "अधि",
      "कार"
    ],
    [
      "नि",
      "वेश</w>"
    ],
    [
      "ओ",
      "सभ</w>"
    ],
    [
      "स",
      "म</w>"
    ],
    [
      "शताब्",
      "दीक</w>"
    ],
    [
      "दिल्",
      "ली</w>"
    ],
    [
      "व्यक्ति",
      "गत</w>"
    ],
    [
      "अध्य",
      "यन</w>"
    ],
    [
      "ं",
      "त्र"
    ],
    [
      "चि",
      "न्"
    ],
    [
      "सि",
      "क्"
    ],
    [
      "स",
      "हर</w>"
    ],
    [
      "गति",
      "वि"
    ],
    [
      "१",
      "८</w>"
    ],
    [
      "कहि",
      "यो</w>"
    ],
    [
      "चु",
      "नल</w>"
    ],
    [
      "जनत",
      "ब</w>"
    ],
    [
      "पा",
      "स</w>"
    ],
    [
      "छ",
      "ू"
    ],
    [
      "ल",
      "ं"
    ],
    [
      "ख",
      "स"
    ],
    [
      "मा",
      "ँ"
    ],
    [
      "व",
      "ॉ"
    ],
    [
      "सा",
      "ब"
    ],
    [
      "छ",
      "ु"
    ],
    [
      "ए",
      "ल</w>"
    ],
    [
      "ह",
      "रा"
    ],
    [
      "लक्ष",
      "ण</w>"
    ],
    [
      "स",
      "ँ"
    ],
    [
      "भव",
      "तः</w>"
    ],
    [
      "रु",
      "आ"
    ],
    [
      "ख",
      "ण्ड"
    ],
    [
      "सित",
      "म्बर</w>"
    ],
    [
      "पी",
      "ड़"
    ],
    [
      "ह",
      "ू"
    ],
    [
      "ओ",
      "हि"
    ],
    [
      "स्था",
      "मे</w>"
    ],
    [
      "चाह",
      "ी</w>"
    ],
    [
      "व्या",
      "व"
    ],
    [
      "प्रार",
      "म्भ</w>"
    ],
    [
      "दक्षि",
      "णी</w>"
    ],
    [
      "चिकित्",
      "सा</w>"
    ],
    [
      "य",
      "दि</w>"
    ],
    [
      "च",
      "न्द्र"
    ],
    [
      "रच",
      "ना</w>"
    ],
    [
      "मु",
      "सल"
    ],
    [
      "रि",
      "कॉ"
    ],
    [
      "हिन्द",
      "ी</w>"
    ],
    [
      "दिसम्",
      "बर</w>"
    ],
    [
      "महारा",
      "ष्ट्र"
    ],
    [
      "प्र",
      "शं"
    ],
    [
      "द्ध",
      "ि</w>"
    ],
    [
      "वित्त",
      "ीय</w>"
    ],
    [
      "मार",
      "ि</w>"
    ],
    [
      "अ",
      "धी"
    ],
    [
      "त्",
      "स"
    ],
    [
      "नि",
      "हार</w>"
    ],
    [
      "ज",
      "ाक</w>"
    ],
    [
      "स्",
      "टी"
    ],
    [
      "गा",
      "ँ"
    ],
    [
      "य",
      "ब</w>"
    ],
    [
      "र",
      "ीक</w>"
    ],
    [
      "उदाहर",
      "ण</w>"
    ],
    [
      "शि",
      "ला"
    ],
    [
      "खि",
      "ला"
    ],
    [
      "ष",
      "ित</w>"
    ],
    [
      "स",
      "िल"
    ],
    [
      "सामान्य",
      "त"
    ],
    [
      "प्रतिश",
      "त</w>"
    ],
    [
      "एश",
      "िया"
    ],
    [
      "्य",
      "ता</w>"
    ],
    [
      "ज्ञा",
      "त</w>"
    ],
    [
      "का",
      "सँ</w>"
    ],
    [
      "त",
      "ौ"
    ],
    [
      "प",
      "द"
    ],
    [
      "त",
      "कर</w>"
    ],
    [
      "का",
      "लक</w>"
    ],
    [
      "प",
      "सि"
    ],
    [
      "छो",
      "ड़"
    ],
    [
      "आ",
      "धार</w>"
    ],
    [
      "गठ",
      "न</w>"
    ],
    [
      "वे",
      "ब"
    ],
    [
      "वा",
      "र्ष"
    ],
    [
      "नी",
      "मे</w>"
    ],
    [
      "भेट",
      "ि</w>"
    ],
    [
      "मा",
      "त्र"
    ],
    [
      "वि",
      "स्त"
    ],
    [
      "आ",
      "धार"
    ],
    [
      "अभ",
      "िया"
    ],
    [
      "शुल्",
      "क</w>"
    ],
    [
      "स",
      "न्द"
    ],
    [
      "आर्थ",
      "िक</w>"
    ],
    [
      "सु",
      "निश्चित</w>"
    ],
    [
      "अव",
      "सर</w>"
    ],
    [
      "ड़",
      "ी</w>"
    ],
    [
      "नि",
      "काल"
    ],
    [
      "ऑ",
      "न"
    ],
    [
      "s",
      "</w>"
    ],
    [
      "व",
      "स्"
    ],
    [
      "धर्",
      "म</w>"
    ],
    [
      "सूच",
      "ी</w>"
    ],
    [
      "र",
      "ु</w>"
    ],
    [
      "सामा",
      "जिक</w>"
    ],
    [
      "ार",
      "मे</w>"
    ],
    [
      "द",
      "ारी</w>"
    ],
    [
      "र",
      "ण"
    ],
    [
      "कर",
      "बासँ</w>"
    ],
    [
      "धरि",
      ",</w>"
    ],
    [
      "३",
      "मे</w>"
    ],
    [
      "४",
      "मे</w>"
    ],
    [
      "बहु",
      "तो</w>"
    ],
    [
      "भेल",
      "ाक</w>"
    ],
    [
      "मा",
      "ल"
    ],
    [
      "नी",
      "चा"
    ],
    [
      "ज",
      "ौ"
    ],
    [
      "त",
      "मिल</w>"
    ],
    [
      "ग्र",
      "न्"
    ],
    [
      "एस",
      ".</w>"
    ],
    [
      "प",
      "ौ"
    ],
    [
      "वा",
      "य"
    ],
    [
      "ग्र",
      "ह</w>"
    ],
    [
      "य",
      "ाक</w>"
    ],
    [
      "ट",
      "रक</w>"
    ],
    [
      ".ए",
      "फ"
    ],
    [
      "म",
      "णि"
    ],
    [
      "भ",
      "रि</w>"
    ],
    [
      "म",
      "नु"
    ],
    [
      "बा",
      "र</w>"
    ],
    [
      "श्रे",
      "ण"
    ],
    [
      "क्ष",
      "ा"
    ],
    [
      "्",
      "व"
    ],
    [
      "स",
      "त</w>"
    ],
    [
      "सम",
      "र्प"
    ],
    [
      "फ्र",
      "े"
    ],
    [
      "स्",
      "के"
    ],
    [
      "पा",
      "नि</w>"
    ],
    [
      "भ",
      "रिमे</w>"
    ],
    [
      "व्यव",
      "स्था</w>"
    ],
    [
      "ब",
      "हि"
    ],
    [
      "घ",
      "े"
    ],
    [
      "प्र",
      "वा"
    ],
    [
      "अधि",
      "कार</w>"
    ],
    [
      "व",
      "न"
    ],
    [
      "अव",
      "स्थित</w>"
    ],
    [
      "१",
      "६</w>"
    ],
    [
      "ष",
      "क</w>"
    ],
    [
      "ला",
      "भ</w>"
    ],
    [
      "कल्",
      "प"
    ],
    [
      "लोक",
      "केँ</w>"
    ],
    [
      "कु",
      "मार"
    ],
    [
      "डब्ल",
      "्यू"
    ],
    [
      "सा",
      "ँ"
    ],
    [
      "क",
      "-"
    ],
    [
      "प्रतियोगि",
      "ता</w>"
    ],
    [
      "भाष",
      "ाक</w>"
    ],
    [
      "अङ्",
      "क</w>"
    ],
    [
      "१",
      "३</w>"
    ],
    [
      "सं",
      "ग"
    ],
    [
      "सम्",
      "बन्ध</w>"
    ],
    [
      "तीन",
      "टा</w>"
    ],
    [
      "पञ्",
      "जा"
    ],
    [
      "ले",
      "क्"
    ],
    [
      "ह",
      "केँ</w>"
    ],
    [
      "छली",
      "ह</w>"
    ],
    [
      "स्ट",
      "ि"
    ],
    [
      "नि",
      "रा"
    ],
    [
      "प्रा",
      "थ"
    ],
    [
      "मॉ",
      "ड"
    ],
    [
      "प्र",
      "मा"
    ],
    [
      "जो",
      "र</w>"
    ],
    [
      "न्त",
      "र</w>"
    ],
    [
      "धर्",
      "मक</w>"
    ],
    [
      "कठ",
      "िन</w>"
    ],
    [
      "राज",
      "वं"
    ],
    [
      "प",
      "ट्"
    ],
    [
      "हो",
      "ए"
    ],
    [
      "ग",
      "ढ़"
    ],
    [
      "२०",
      "२०"
    ],
    [
      "१",
      "७</w>"
    ],
    [
      "कर्म",
      "चार"
    ],
    [
      "क",
      "्य"
    ],
    [
      "ति",
      "सँ</w>"
    ],
    [
      "ट",
      "सँ</w>"
    ],
    [
      "छोट",
      "-"
    ],
    [
      "न",
      "।</w>"
    ],
    [
      "प्रधा",
      "न"
    ],
    [
      "गो",
      "ल"
    ],
    [
      "राज",
      "</w>"
    ],
    [
      "भ",
      "्र"
    ],
    [
      "पत्",
      "ति</w>"
    ],
    [
      "ग",
      "ौ"
    ],
    [
      "न",
      "ो</w>"
    ],
    [
      "सुरक्ष",
      "ा</w>"
    ],
    [
      "सा",
      "न</w>"
    ],
    [
      "ङ्",
      "क</w>"
    ],
    [
      "ता",
      "ह।</w>"
    ],
    [
      "पा",
      "थ"
    ],
    [
      "र्",
      "ना"
    ],
    [
      "विश्",
      "वास</w>"
    ],
    [
      "ओ",
      "तय</w>"
    ],
    [
      "सै",
      "न्य</w>"
    ],
    [
      "रि",
      "ली"
    ],
    [
      "ड",
      "ु"
    ],
    [
      "पा",
      "इ"
    ],
    [
      "द",
      "िक</w>"
    ],
    [
      "क",
      "ब्"
    ],
    [
      "के",
      "वल</w>"
    ],
    [
      "मा",
      "मे</w>"
    ],
    [
      "इ",
      "ंड"
    ],
    [
      "क",
      "िय"
    ],
    [
      "क",
      "ीक</w>"
    ],
    [
      "पड़",
      "ैत</w>"
    ],
    [
      "रे",
      "टि"
    ],
    [
      "को",
      "न</w>"
    ],
    [
      "य",
      "ॉर्"
    ],
    [
      "वा",
      "ला</w>"
    ],
    [
      "शा",
      "सक</w>"
    ],
    [
      "घ",
      "रक</w>"
    ],
    [
      "फ",
      "ॉ"
    ],
    [
      "फ",
      "ल</w>"
    ],
    [
      "ह",
      "ल्"
    ],
    [
      "देखा",
      "ओल</w>"
    ],
    [
      "व",
      "ि</w>"
    ],
    [
      "खरा",
      "ब</w>"
    ],
    [
      "ग",
      "ति</w>"
    ],
    [
      "उत्स",
      "व</w>"
    ],
    [
      "वा",
      "ली</w>"
    ],
    [
      "ार",
      "ी"
    ],
    [
      "२०१",
      "३</w>"
    ],
    [
      "कारा",
      "त्मक</w>"
    ],
    [
      "लैंड",
      "क</w>"
    ],
    [
      "थी",
      "क।</w>"
    ],
    [
      "ला",
      "पर</w>"
    ],
    [
      "ै",
      "।</w>"
    ],
    [
      "नि",
      "युक्त</w>"
    ],
    [
      "२",
      "४</w>"
    ],
    [
      "वर",
      "ण</w>"
    ],
    [
      "रो",
      "गक</w>"
    ],
    [
      "०",
      "मे</w>"
    ],
    [
      "काउ",
      "ं"
    ],
    [
      "पा",
      "लन</w>"
    ],
    [
      "न्ह",
      "ि।</w>"
    ],
    [
      "रु",
      "प"
    ],
    [
      "उत्पा",
      "द"
    ],
    [
      "ऑन",
      "लाइन</w>"
    ],
    [
      "संस्",
      "करण</w>"
    ],
    [
      "दृष्",
      "टि"
    ],
    [
      "ह",
      "ृ"
    ],
    [
      "कॉ",
      "ले"
    ],
    [
      "छथ",
      "ि"
    ],
    [
      "सम्",
      "भा"
    ],
    [
      "अप्रै",
      "ल</w>"
    ],
    [
      "पा",
      "ँच"
    ],
    [
      "स्थि",
      "तिमे</w>"
    ],
    [
      "लोक",
      "सभक</w>"
    ],
    [
      "सन्द",
      "र्"
    ],
    [
      "महि",
      "ला"
    ],
    [
      "श्र",
      "ी</w>"
    ],
    [
      "कर",
      "य"
    ],
    [
      "स्",
      "वर्"
    ],
    [
      "प",
      "राज"
    ],
    [
      "आ",
      "लो"
    ],
    [
      "ह",
      "त्य"
    ],
    [
      "के",
      "ँ,</w>"
    ],
    [
      "ङ्ग",
      "्"
    ],
    [
      "१",
      "००</w>"
    ],
    [
      "लो",
      "</w>"
    ],
    [
      "इस्",
      "ला"
    ],
    [
      "नि",
      "का"
    ],
    [
      "ए",
      "क्स"
    ],
    [
      "इ",
      "ंग्"
    ],
    [
      "क",
      "प</w>"
    ],
    [
      "सी",
      ".</w>"
    ],
    [
      "ण",
      "-"
    ],
    [
      "बा",
      "ह"
    ],
    [
      "च",
      "ला</w>"
    ],
    [
      "ह",
      "रि"
    ],
    [
      "दु",
      "इ</w>"
    ],
    [
      "ब",
      "मे</w>"
    ],
    [
      "ल्",
      "स</w>"
    ],
    [
      "सिने",
      "मा</w>"
    ],
    [
      "ृ",
      "ह"
    ],
    [
      "ड",
      "िया</w>"
    ],
    [
      "द",
      "िय"
    ],
    [
      "अ",
      "स्प"
    ],
    [
      "वेब",
      "साइ"
    ],
    [
      "छै",
      ",</w>"
    ],
    [
      "अ",
      "क"
    ],
    [
      "त",
      "ए</w>"
    ],
    [
      "लैण्ड",
      "क</w>"
    ],
    [
      "ज",
      "मी"
    ],
    [
      "फ्",
      "लो"
    ],
    [
      "सक",
      "्र"
    ],
    [
      "अ",
      "ला"
    ],
    [
      "ह",
      "ारक</w>"
    ],
    [
      "सा",
      "लक</w>"
    ],
    [
      "श",
      "तर"
    ],
    [
      "वि",
      "ध"
    ],
    [
      "वर्ण",
      "न</w>"
    ],
    [
      "धा",
      "न</w>"
    ],
    [
      "अन्त",
      "तः</w>"
    ],
    [
      "फिल्",
      "म"
    ],
    [
      "ट",
      "्यू"
    ],
    [
      "जा",
      "नव"
    ],
    [
      "बाद",
      "क</w>"
    ],
    [
      "ी",
      "सँ</w>"
    ],
    [
      "ख",
      "र"
    ],
    [
      "प्रतिनिधि",
      "त्व</w>"
    ],
    [
      "कर",
      "ी</w>"
    ],
    [
      "उत्त",
      "रा"
    ],
    [
      "शा",
      "ह</w>"
    ],
    [
      "पु",
      "ष्"
    ],
    [
      "आक्रम",
      "ण</w>"
    ],
    [
      "धार",
      "ण</w>"
    ],
    [
      "ची",
      "नी</w>"
    ],
    [
      "उद",
      "्या"
    ],
    [
      "प्रणा",
      "ली</w>"
    ],
    [
      "हो",
      "।</w>"
    ],
    [
      "निर्",
      "मित</w>"
    ],
    [
      "हार",
      "ि</w>"
    ],
    [
      "ट",
      "केँ</w>"
    ],
    [
      "ब",
      "रा"
    ],
    [
      "हृ",
      "द"
    ],
    [
      "प",
      "सरल</w>"
    ],
    [
      "दी",
      "र्"
    ],
    [
      "खर्",
      "च</w>"
    ],
    [
      "स्था",
      "नक</w>"
    ],
    [
      "छ",
      "न्हि</w>"
    ],
    [
      "हवा",
      "इ</w>"
    ],
    [
      "देश",
      "ी</w>"
    ],
    [
      "मरा",
      "ठा</w>"
    ],
    [
      "द",
      "स</w>"
    ],
    [
      "सम्बन्ध",
      "मे</w>"
    ],
    [
      "स",
      "िय"
    ],
    [
      "ज",
      "खन"
    ],
    [
      "ह",
      "ेल"
    ],
    [
      "प्रतिस्पर्",
      "धा</w>"
    ],
    [
      "प",
      "वि"
    ],
    [
      "दो",
      "सर"
    ],
    [
      "शु",
      "रुआ"
    ],
    [
      "प्र",
      "देश</w>"
    ],
    [
      "मन्",
      "त्र"
    ],
    [
      "२०१",
      "२</w>"
    ],
    [
      "स्थान",
      "पर</w>"
    ],
    [
      "थ",
      "े"
    ],
    [
      "वा",
      "द"
    ],
    [
      "ं",
      "क</w>"
    ],
    [
      "र्",
      "त"
    ],
    [
      "प",
      "ठा"
    ],
    [
      "भू",
      "मि</w>"
    ],
    [
      "ड",
      "्रा"
    ],
    [
      "वास्त",
      "वमे</w>"
    ],
    [
      "ओ",
      "डि"
    ],
    [
      "ज",
      "नि"
    ],
    [
      "न",
      "हि"
    ],
    [
      "यूरो",
      "पीय</w>"
    ],
    [
      "शे",
      "ष</w>"
    ],
    [
      "प्र",
      "सार"
    ],
    [
      "कम्प्यू",
      "टर</w>"
    ],
    [
      "खा",
      "न</w>"
    ],
    [
      "ङ्ग",
      "क</w>"
    ],
    [
      "ल",
      "ड़ा"
    ],
    [
      "लाग",
      "ि</w>"
    ],
    [
      "ङ्",
      "क"
    ],
    [
      "हॉ",
      "की</w>"
    ],
    [
      "२०१",
      "१</w>"
    ],
    [
      "लगा",
      "तार</w>"
    ],
    [
      "ज",
      "मा</w>"
    ],
    [
      "स्",
      "ना"
    ],
    [
      "द्",
      "दा"
    ],
    [
      "व्याव",
      "सा"
    ],
    [
      "सर",
      "कारी</w>"
    ],
    [
      "मार",
      "ल</w>"
    ],
    [
      "ग्रा",
      "हक</w>"
    ],
    [
      "ध",
      "र्म"
    ],
    [
      "िय",
      "र</w>"
    ],
    [
      "ल",
      "क"
    ],
    [
      "शी",
      "र्ष</w>"
    ],
    [
      "निया",
      "मे</w>"
    ],
    [
      "नेतृ",
      "त्व</w>"
    ],
    [
      "स्टे",
      "शन</w>"
    ],
    [
      "देख",
      "ैत</w>"
    ],
    [
      "रि",
      "पोर्"
    ],
    [
      "प्रभा",
      "वी</w>"
    ],
    [
      "सु",
      "धार</w>"
    ],
    [
      "ख",
      "ू"
    ],
    [
      "टे",
      "क्"
    ],
    [
      "कम्प",
      "नीक</w>"
    ],
    [
      "वै",
      "ज्ञा"
    ],
    [
      "म",
      "ना</w>"
    ],
    [
      "बे",
      "टा</w>"
    ],
    [
      "पा",
      "ब"
    ],
    [
      "अस्प",
      "ता"
    ],
    [
      "आ",
      "गा"
    ],
    [
      "बेसी",
      "काल</w>"
    ],
    [
      "स्थि",
      "तिक</w>"
    ],
    [
      "कर",
      "ै"
    ],
    [
      "कृ",
      "ष्"
    ],
    [
      "ट",
      "ो</w>"
    ],
    [
      "अधी",
      "न</w>"
    ],
    [
      "फ",
      "ार"
    ],
    [
      "१९",
      "२"
    ],
    [
      "त",
      "न्त्र"
    ],
    [
      "खेला",
      "ड़ी"
    ],
    [
      "िया",
      ",</w>"
    ],
    [
      "ह्",
      "म"
    ],
    [
      "ज",
      "केँ</w>"
    ],
    [
      "फिल्",
      "ममे</w>"
    ],
    [
      "अध्य",
      "क्ष</w>"
    ],
    [
      "गे",
      "न्द"
    ],
    [
      "अ",
      "त्य"
    ],
    [
      "दुन",
      "ू"
    ],
    [
      "मान",
      "ैत</w>"
    ],
    [
      "ली",
      ",</w>"
    ],
    [
      "श",
      "नक</w>"
    ],
    [
      "ओलम्प",
      "िक</w>"
    ],
    [
      "ं",
      "ख"
    ],
    [
      "राख",
      "ि</w>"
    ],
    [
      "क",
      "टि"
    ],
    [
      "मार्",
      "ग"
    ],
    [
      "जा",
      "हि"
    ],
    [
      "भ",
      "र</w>"
    ],
    [
      "सप्ता",
      "ह</w>"
    ],
    [
      "दु",
      "निया</w>"
    ],
    [
      "टेली",
      "वि"
    ],
    [
      "शा",
      "ली</w>"
    ],
    [
      "व्यक्",
      "तिक</w>"
    ],
    [
      "ई",
      "सा</w>"
    ],
    [
      "रा",
      "म</w>"
    ],
    [
      "ब",
      "ल्"
    ],
    [
      "ध",
      "्व"
    ],
    [
      "ब",
      "ेल"
    ],
    [
      "श्",
      "व"
    ],
    [
      "प्रथ",
      "म</w>"
    ],
    [
      "रक्ष",
      "ा</w>"
    ],
    [
      "ब",
      "चा"
    ],
    [
      "शास्त्र",
      "ीय</w>"
    ],
    [
      "तरह",
      "ेँ</w>"
    ],
    [
      "लग",
      "ा</w>"
    ],
    [
      "सम",
      "्रा"
    ],
    [
      "सङ्",
      "ख्या"
    ],
    [
      "आँ",
      "ख"
    ],
    [
      "त्",
      "त</w>"
    ],
    [
      "श",
      "िक</w>"
    ],
    [
      "ट्र",
      "ॉ"
    ],
    [
      "बरख",
      "</w>"
    ],
    [
      "सम्",
      "भवतः</w>"
    ],
    [
      "चारि",
      "म</w>"
    ],
    [
      "ं",
      "द्र"
    ],
    [
      "क",
      "मसँ</w>"
    ],
    [
      "द",
      "ै"
    ],
    [
      "लाग",
      "ू</w>"
    ],
    [
      "उ",
      "चित</w>"
    ],
    [
      "य",
      "त</w>"
    ],
    [
      "समुदा",
      "य</w>"
    ],
    [
      "बहु",
      "धा</w>"
    ],
    [
      "मिन",
      "ट</w>"
    ],
    [
      "परि",
      "ष"
    ],
    [
      "ण्ड",
      "क</w>"
    ],
    [
      "द्वि",
      "तीय</w>"
    ],
    [
      "मुदा",
      ",</w>"
    ],
    [
      "पू",
      "जा</w>"
    ],
    [
      "२०१",
      "८</w>"
    ],
    [
      "जि",
      "न"
    ],
    [
      "र",
      "ण</w>"
    ],
    [
      "श्",
      "मी"
    ],
    [
      "दा",
      "वा</w>"
    ],
    [
      "जीव",
      "नक</w>"
    ],
    [
      "ऊ",
      "ँच</w>"
    ],
    [
      "एल्",
      "ब"
    ],
    [
      "पवि",
      "त्र</w>"
    ],
    [
      "ए",
      "व"
    ],
    [
      "प",
      "छा"
    ],
    [
      "व्यावसा",
      "यिक</w>"
    ],
    [
      "लै",
      "ंड</w>"
    ],
    [
      "का",
      "त</w>"
    ],
    [
      "विष",
      "य</w>"
    ],
    [
      "ी",
      "ह।</w>"
    ],
    [
      "ने",
      "ट</w>"
    ],
    [
      "बह",
      "ैत</w>"
    ],
    [
      "वा",
      "र्"
    ],
    [
      "ते",
      "ज</w>"
    ],
    [
      "श",
      "ु</w>"
    ],
    [
      "त्",
      "ता</w>"
    ],
    [
      "्",
      "स</w>"
    ],
    [
      "नी",
      "केँ</w>"
    ],
    [
      "सामान्यत",
      "या</w>"
    ],
    [
      "आ",
      "उ"
    ],
    [
      "न",
      "म"
    ],
    [
      "४",
      "०</w>"
    ],
    [
      "नि",
      "ग"
    ],
    [
      ".ए",
      "ल"
    ],
    [
      "शिक्ष",
      "ा</w>"
    ],
    [
      "मान",
      "व</w>"
    ],
    [
      "जी",
      "सँ</w>"
    ],
    [
      "दी",
      "मे</w>"
    ],
    [
      "ना",
      "त्मक</w>"
    ],
    [
      "म",
      "हो"
    ],
    [
      "नीचा",
      "ँ</w>"
    ],
    [
      "स्",
      "लि"
    ],
    [
      "िल",
      "े"
    ],
    [
      "बद",
      "ला</w>"
    ],
    [
      "र",
      "क्त"
    ],
    [
      "र",
      "न</w>"
    ],
    [
      "च",
      "ढ़"
    ],
    [
      "ण्",
      "टर"
    ],
    [
      "कां",
      "ग्रे"
    ],
    [
      "स्था",
      "यी</w>"
    ],
    [
      "रा",
      "नी</w>"
    ],
    [
      "स्वय",
      "ं</w>"
    ],
    [
      "अभ",
      "्या"
    ],
    [
      "मन्दि",
      "रक</w>"
    ],
    [
      "पा",
      "त</w>"
    ],
    [
      "ए",
      ".</w>"
    ],
    [
      ".",
      "पी"
    ],
    [
      "जन",
      "सङ्ख्या</w>"
    ],
    [
      "सम्",
      "भव</w>"
    ],
    [
      "२०१",
      "७</w>"
    ],
    [
      "छै",
      "क"
    ],
    [
      "गु",
      "ण"
    ],
    [
      "अ",
      "न्त</w>"
    ],
    [
      "नी",
      ",</w>"
    ],
    [
      "जखन",
      "कि</w>"
    ],
    [
      "साम",
      "ना</w>"
    ],
    [
      "मु",
      "क्त</w>"
    ],
    [
      "डि",
      "जाइ"
    ],
    [
      "निर्",
      "भर</w>"
    ],
    [
      "पुन",
      "ः</w>"
    ],
    [
      "अभिने",
      "ता</w>"
    ],
    [
      "भ",
      "विष"
    ],
    [
      "लिख",
      "ित</w>"
    ],
    [
      "त",
      "त्"
    ],
    [
      "क",
      "पड़"
    ],
    [
      "शी",
      "ल</w>"
    ],
    [
      "यु",
      "वा</w>"
    ],
    [
      "न्यू",
      "यॉर्"
    ],
    [
      "सूच",
      "ना</w>"
    ],
    [
      "्य",
      "मे</w>"
    ],
    [
      "प्रभा",
      "व"
    ],
    [
      "ग",
      "ा</w>"
    ],
    [
      "ति",
      ",</w>"
    ],
    [
      "अड्ड",
      "ा</w>"
    ],
    [
      "मि",
      "श्र"
    ],
    [
      "क",
      "लाक</w>"
    ],
    [
      "मामि",
      "लामे</w>"
    ],
    [
      "वृ",
      "द्धि</w>"
    ],
    [
      "२०१",
      "०</w>"
    ],
    [
      "प्रकाश",
      "ित</w>"
    ],
    [
      "काउ",
      "ण्"
    ],
    [
      "र",
      "ो</w>"
    ],
    [
      "द",
      "वा"
    ],
    [
      "मि",
      "न</w>"
    ],
    [
      "डि",
      "ग्री</w>"
    ],
    [
      "गा",
      "छ"
    ],
    [
      "चाल",
      "ित</w>"
    ],
    [
      "ह",
      "जार</w>"
    ],
    [
      "को",
      "र्"
    ],
    [
      "त्व",
      "मे</w>"
    ],
    [
      "हि",
      "ना</w>"
    ],
    [
      "घट",
      "ना</w>"
    ],
    [
      "वि",
      "जे"
    ],
    [
      ".",
      "बी"
    ],
    [
      "अ",
      "म्"
    ],
    [
      "ना",
      "य</w>"
    ],
    [
      "क",
      "श्मी"
    ],
    [
      "अनु",
      "मान</w>"
    ],
    [
      "डॉ",
      "लर</w>"
    ],
    [
      "प्रा",
      "कृतिक</w>"
    ],
    [
      "क्ष",
      "म</w>"
    ],
    [
      "अप",
      "रा"
    ],
    [
      "सम्पर्",
      "क</w>"
    ],
    [
      "कॉ",
      "र्"
    ],
    [
      "चैम्पियनशि",
      "प</w>"
    ],
    [
      "ग",
      "ढ़</w>"
    ],
    [
      "लगा",
      "ओल</w>"
    ],
    [
      "वी",
      "डियो</w>"
    ],
    [
      "ह",
      "टा</w>"
    ],
    [
      "प्र",
      "शास"
    ],
    [
      "योग",
      "्य</w>"
    ],
    [
      "वि",
      "कि"
    ],
    [
      "टू",
      "र्ना"
    ],
    [
      "सदस्",
      "य"
    ],
    [
      "आ",
      "दि"
    ],
    [
      "पा",
      "निक</w>"
    ],
    [
      "च्छ",
      "ि"
    ],
    [
      "स्वत",
      "न्त्र"
    ],
    [
      "च",
      "ू"
    ],
    [
      "ज",
      "ॉर्"
    ],
    [
      "गो",
      "ट</w>"
    ],
    [
      "टूर्ना",
      "मे"
    ],
    [
      "ँ",
      "ट</w>"
    ],
    [
      "लै",
      "क</w>"
    ],
    [
      "ए",
      "तय</w>"
    ],
    [
      "सी",
      "मित</w>"
    ],
    [
      "शै",
      "ली</w>"
    ],
    [
      "नह",
      "ि।</w>"
    ],
    [
      "ह",
      "थ"
    ],
    [
      "बि",
      "क्र"
    ],
    [
      "ब",
      "िल"
    ],
    [
      "त",
      "ल"
    ],
    [
      "ज",
      "ार"
    ],
    [
      "ई",
      ".</w>"
    ],
    [
      "क",
      "था"
    ],
    [
      "मा",
      "मिला</w>"
    ],
    [
      "२",
      "२</w>"
    ],
    [
      "पर्या",
      "प्त</w>"
    ],
    [
      "उत्त",
      "र-"
    ],
    [
      "छ",
      "िय"
    ],
    [
      "म",
      "र</w>"
    ],
    [
      "जे",
      "ना"
    ],
    [
      "प्र",
      "देशक</w>"
    ],
    [
      "सम्",
      "पूर्ण</w>"
    ],
    [
      "हो",
      "इ"
    ],
    [
      "विकल्",
      "प</w>"
    ],
    [
      "कब्",
      "जा</w>"
    ],
    [
      "सङ्",
      "केत</w>"
    ],
    [
      "चा",
      "र्"
    ],
    [
      "शास",
      "न"
    ],
    [
      ".",
      "टी"
    ],
    [
      "सम्",
      "भावना</w>"
    ],
    [
      "समू",
      "हक</w>"
    ],
    [
      "स्थ",
      "</w>"
    ],
    [
      "दे",
      "व</w>"
    ],
    [
      "सु",
      "न"
    ],
    [
      "रेल",
      "वे</w>"
    ],
    [
      "क्",
      "ति</w>"
    ],
    [
      "सुरक्ष",
      "ित</w>"
    ],
    [
      "जित",
      "लनि।</w>"
    ],
    [
      "स्",
      "य</w>"
    ],
    [
      "ध",
      "ो"
    ],
    [
      "तु",
      "र"
    ],
    [
      "परिणा",
      "म</w>"
    ],
    [
      "व्यव",
      "हार</w>"
    ],
    [
      "म",
      "ना"
    ],
    [
      "ए",
      "ना</w>"
    ],
    [
      "वि",
      "ष्ण"
    ],
    [
      "उप",
      "स्थित</w>"
    ],
    [
      "हा",
      "र्"
    ],
    [
      "औ",
      "सत</w>"
    ],
    [
      "प्र",
      "स"
    ],
    [
      "कै",
      "ं"
    ],
    [
      "वे",
      "द"
    ],
    [
      "यो",
      "जन"
    ],
    [
      "त",
      "े</w>"
    ],
    [
      "सै",
      "निक</w>"
    ],
    [
      "ष्ण",
      "कटि"
    ],
    [
      "बू",
      "झ"
    ],
    [
      "आन",
      "न्द</w>"
    ],
    [
      "निर्",
      "देशक</w>"
    ],
    [
      "ती",
      "र्थ"
    ],
    [
      "कै",
      "लि"
    ],
    [
      "ला",
      "केँ</w>"
    ],
    [
      "प्र",
      "ी"
    ],
    [
      "न्य",
      "ू</w>"
    ],
    [
      "नृ",
      "त्य"
    ],
    [
      "क",
      "द"
    ],
    [
      "न",
      "ब</w>"
    ],
    [
      "मु",
      "म्ब"
    ],
    [
      "सर",
      "कारक</w>"
    ],
    [
      "भ",
      "रल</w>"
    ],
    [
      "गा",
      "य"
    ],
    [
      "वि",
      "शा"
    ],
    [
      "ल",
      "न्द"
    ],
    [
      "च",
      ",</w>"
    ],
    [
      "ट्र",
      "ो"
    ],
    [
      "भग",
      "वान</w>"
    ],
    [
      "स्",
      "क</w>"
    ],
    [
      "वार्ष",
      "िक</w>"
    ],
    [
      "सक्र",
      "िय</w>"
    ],
    [
      "वास्त",
      "विक</w>"
    ],
    [
      "ए",
      "स</w>"
    ],
    [
      "ष",
      "ि</w>"
    ],
    [
      "दोका",
      "न</w>"
    ],
    [
      "बढ़",
      "ैत</w>"
    ],
    [
      "१",
      ","
    ],
    [
      "आरम्भ",
      "मे</w>"
    ],
    [
      "एक",
      "हि</w>"
    ],
    [
      "महो",
      "त्स"
    ],
    [
      "क्",
      "ला"
    ],
    [
      "रा",
      "ति</w>"
    ],
    [
      "की",
      "र्"
    ],
    [
      "स्",
      "वि"
    ],
    [
      "जाय",
      "।</w>"
    ],
    [
      "वि",
      "जय</w>"
    ],
    [
      "य",
      "ार"
    ],
    [
      "चुना",
      "व</w>"
    ],
    [
      "गेल",
      "ैक</w>"
    ],
    [
      "माइ",
      "क्रो"
    ],
    [
      "परीक्ष",
      "ण</w>"
    ],
    [
      "स्टे",
      "डिय"
    ],
    [
      "प",
      "द</w>"
    ],
    [
      "स",
      "ड़क</w>"
    ],
    [
      "२",
      "३</w>"
    ],
    [
      "घोष",
      "ित</w>"
    ],
    [
      "सी",
      "मा"
    ],
    [
      "ू",
      ",</w>"
    ],
    [
      "५",
      "०"
    ],
    [
      "पीड़",
      "ित</w>"
    ],
    [
      "ग्र",
      "ह"
    ],
    [
      "वि",
      "स्ता"
    ],
    [
      "किछ",
      "ु"
    ],
    [
      "को",
      "ल"
    ],
    [
      "हिस्",
      "सा"
    ],
    [
      "प्राय",
      ":</w>"
    ],
    [
      "६",
      "०</w>"
    ],
    [
      "रिय",
      "ाक</w>"
    ],
    [
      "प",
      "ह"
    ],
    [
      "त्",
      "सा"
    ],
    [
      "ज",
      "र्"
    ],
    [
      "ट",
      "ॉ"
    ],
    [
      "विश्व",
      "विद्यालय</w>"
    ],
    [
      "उ",
      "ज्"
    ],
    [
      "सम्",
      "मानित</w>"
    ],
    [
      "के",
      "ल"
    ],
    [
      "के",
      "ने</w>"
    ],
    [
      "वि",
      "टा"
    ],
    [
      "-",
      "सङ्ग</w>"
    ],
    [
      "अर",
      "ब</w>"
    ],
    [
      "भाग",
      "क</w>"
    ],
    [
      "जा",
      "ए"
    ],
    [
      "ण्ड",
      "ा</w>"
    ],
    [
      "विरो",
      "ध</w>"
    ],
    [
      "लु",
      "क</w>"
    ],
    [
      "२०",
      "१९</w>"
    ],
    [
      "ू",
      "त</w>"
    ],
    [
      "कर",
      "त।</w>"
    ],
    [
      "स्था",
      "ना"
    ],
    [
      "शतर",
      "ञ्"
    ],
    [
      "व",
      "य"
    ],
    [
      "क",
      "ना"
    ],
    [
      "विस्ता",
      "र</w>"
    ],
    [
      "पा",
      "ठ"
    ],
    [
      "ण",
      "िक</w>"
    ],
    [
      "प्रा",
      "न्तक</w>"
    ],
    [
      "तु",
      "र्"
    ],
    [
      "शा",
      "न्"
    ],
    [
      ".",
      "आर"
    ],
    [
      "स्",
      "कॉ"
    ],
    [
      "यू",
      "ना"
    ],
    [
      "दा",
      "म</w>"
    ],
    [
      "जन",
      "जा"
    ],
    [
      "आ",
      "शं"
    ],
    [
      "न",
      "र"
    ],
    [
      "दे",
      "वी</w>"
    ],
    [
      "प्रस्ता",
      "व</w>"
    ],
    [
      "२",
      "१</w>"
    ],
    [
      "स",
      "दि"
    ],
    [
      "मह",
      "त्"
    ],
    [
      "व",
      "ेल"
    ],
    [
      "२०",
      "१९"
    ],
    [
      "स",
      "न"
    ],
    [
      "शक्",
      "ति</w>"
    ],
    [
      "क",
      "्यू"
    ],
    [
      "तू",
      "फा"
    ],
    [
      "आ",
      "ं"
    ],
    [
      "स",
      "क्षम</w>"
    ],
    [
      "उप",
      "करण</w>"
    ],
    [
      "के",
      "लनि।</w>"
    ],
    [
      "सो",
      "झ"
    ],
    [
      ".ए",
      ".</w>"
    ],
    [
      "नि",
      "वा"
    ],
    [
      "ख",
      "क</w>"
    ],
    [
      "सा",
      "मान</w>"
    ],
    [
      "प",
      "त्र"
    ],
    [
      "ए",
      "न्"
    ],
    [
      "त",
      "कालीन</w>"
    ],
    [
      "च",
      "र</w>"
    ],
    [
      "आ",
      "पूर्"
    ],
    [
      "पा",
      "ल"
    ],
    [
      "ण",
      "ु</w>"
    ],
    [
      "पहुँच",
      "ि</w>"
    ],
    [
      "म",
      "स्ति"
    ],
    [
      "य",
      "रक</w>"
    ],
    [
      "ख",
      "त"
    ],
    [
      "ते",
      "जीसँ</w>"
    ],
    [
      "त",
      "ार"
    ],
    [
      "लि",
      "न</w>"
    ],
    [
      "श",
      "ाक</w>"
    ],
    [
      "नाग",
      "रिक</w>"
    ],
    [
      "अध्य",
      "य"
    ],
    [
      "प्रे",
      "म</w>"
    ],
    [
      "गु",
      "प्त</w>"
    ],
    [
      "च",
      "न</w>"
    ],
    [
      "वा",
      "स्तु"
    ],
    [
      "प्र",
      "ि"
    ],
    [
      "पर",
      ",</w>"
    ],
    [
      "नो",
      "इ"
    ],
    [
      "क",
      "नाड"
    ],
    [
      "ओ",
      "हिमे</w>"
    ],
    [
      "ब",
      "स</w>"
    ],
    [
      "कह",
      "ब</w>"
    ],
    [
      "जन्",
      "म"
    ],
    [
      "त",
      "था"
    ],
    [
      "उद्देश",
      "्य</w>"
    ],
    [
      "क्ष",
      "क</w>"
    ],
    [
      "पा",
      "व"
    ],
    [
      "जनगण",
      "नाक</w>"
    ],
    [
      "सि",
      "स</w>"
    ],
    [
      "मस्ति",
      "ष्"
    ],
    [
      "कर",
      "क</w>"
    ],
    [
      "सम्बन्ध",
      "ी</w>"
    ],
    [
      "को",
      "ड</w>"
    ],
    [
      "अव",
      "स्थामे</w>"
    ],
    [
      "रङ्ग",
      "क</w>"
    ],
    [
      "न्य",
      "ु"
    ],
    [
      "अ",
      "सम"
    ],
    [
      "दक्षि",
      "ण-"
    ],
    [
      "परम्प",
      "रा"
    ],
    [
      "ए",
      "यर"
    ],
    [
      "शताब्",
      "दी</w>"
    ],
    [
      "बन",
      "लाह।</w>"
    ],
    [
      "आ",
      "देश</w>"
    ],
    [
      "समर्प",
      "ित</w>"
    ],
    [
      "नी",
      "सँ</w>"
    ],
    [
      "सि",
      "द्धा"
    ],
    [
      "च",
      "म"
    ],
    [
      "पा",
      "छा"
    ],
    [
      "तरी",
      "का</w>"
    ],
    [
      "भि",
      "न्न"
    ],
    [
      "।",
      "\"</w>"
    ],
    [
      "ग",
      "वर्"
    ],
    [
      "२०१",
      "५</w>"
    ],
    [
      "सदि",
      "खन</w>"
    ],
    [
      "प्रति",
      "क्रिया</w>"
    ],
    [
      "कैलि",
      "फोर्"
    ],
    [
      "पे",
      "शे"
    ],
    [
      ".",
      "क</w>"
    ],
    [
      "स्वीड",
      "नक</w>"
    ],
    [
      "झी",
      "ल</w>"
    ],
    [
      "स्",
      "ता</w>"
    ],
    [
      "सं",
      "ख्या</w>"
    ],
    [
      "ा",
      ",</w>"
    ],
    [
      "सङ्गी",
      "त"
    ],
    [
      "कार्",
      "ड</w>"
    ],
    [
      "कयल",
      "ाक</w>"
    ],
    [
      "आ",
      "ठ</w>"
    ],
    [
      "ध",
      "नक</w>"
    ],
    [
      "रिली",
      "ज</w>"
    ],
    [
      "जॉ",
      "न</w>"
    ],
    [
      "त्व",
      "क</w>"
    ],
    [
      "च",
      "ल</w>"
    ],
    [
      "परिवर्त",
      "न</w>"
    ],
    [
      "न",
      "ै</w>"
    ],
    [
      "लेख",
      "क</w>"
    ],
    [
      "नि",
      "जी</w>"
    ],
    [
      "री",
      "मे</w>"
    ],
    [
      "अ",
      "शो"
    ],
    [
      "वि",
      "परी"
    ],
    [
      "कला",
      "कार</w>"
    ],
    [
      "दश",
      "कक</w>"
    ],
    [
      "सि",
      "ल</w>"
    ],
    [
      "आलो",
      "च"
    ],
    [
      "ङ्",
      "कन</w>"
    ],
    [
      "छोट-",
      "छोट</w>"
    ],
    [
      "प",
      "रे"
    ],
    [
      "मा",
      "उ"
    ],
    [
      "मि",
      "त्र</w>"
    ],
    [
      "औ",
      "प"
    ],
    [
      "्य",
      "ु"
    ],
    [
      "ड",
      "े</w>"
    ],
    [
      "स",
      "रा"
    ],
    [
      "मि",
      "ला"
    ],
    [
      "घु",
      "र"
    ],
    [
      "त",
      "ं"
    ],
    [
      "उत्पा",
      "द</w>"
    ],
    [
      "इ",
      "न</w>"
    ],
    [
      "सु",
      "न्द"
    ],
    [
      "साहि",
      "त्य"
    ],
    [
      "यू",
      "नाइ"
    ],
    [
      "डी",
      ".</w>"
    ],
    [
      "पुष्",
      "टि</w>"
    ],
    [
      "ड़",
      "ाक</w>"
    ],
    [
      "सम",
      "ि"
    ],
    [
      "इला",
      "का</w>"
    ],
    [
      "के",
      "लनि</w>"
    ],
    [
      "सङ्ग",
      "-सङ्ग</w>"
    ],
    [
      "स",
      "ड़"
    ],
    [
      "आगा",
      "ँ</w>"
    ],
    [
      "अ",
      "ल"
    ],
    [
      "सु",
      "ल्"
    ],
    [
      "पृ",
      "थ"
    ],
    [
      "मान",
      "्यता</w>"
    ],
    [
      "प्राथ",
      "मिक</w>"
    ],
    [
      "भेट",
      "ल।</w>"
    ],
    [
      "ँ",
      "चा"
    ],
    [
      "बै",
      "ण्ड"
    ],
    [
      "नि",
      "म्"
    ],
    [
      "थ",
      "ी</w>"
    ],
    [
      "फर",
      "ाक</w>"
    ],
    [
      "प",
      "त"
    ],
    [
      "क्र",
      "म</w>"
    ],
    [
      "हि",
      "क</w>"
    ],
    [
      "ब",
      "ल"
    ],
    [
      "कमा",
      "इ</w>"
    ],
    [
      "पहा",
      "ड़ी</w>"
    ],
    [
      "स्कू",
      "ल</w>"
    ],
    [
      "ग",
      "न</w>"
    ],
    [
      "ली",
      "ह।</w>"
    ],
    [
      "स",
      "रक</w>"
    ],
    [
      "स",
      "कय"
    ],
    [
      "पहि",
      "चा"
    ],
    [
      "पदा",
      "र्थ"
    ],
    [
      "स्रो",
      "त</w>"
    ],
    [
      "गी",
      "तक</w>"
    ],
    [
      "जी",
      "वित</w>"
    ],
    [
      "रा",
      "जा"
    ],
    [
      "क्",
      "क"
    ],
    [
      "दर्",
      "श"
    ],
    [
      "पूर्",
      "वमे</w>"
    ],
    [
      "अ",
      "ना"
    ],
    [
      "ह",
      "सँ</w>"
    ],
    [
      "सी",
      "सी</w>"
    ],
    [
      "रो",
      "मा"
    ],
    [
      "म",
      "-"
    ],
    [
      "थ",
      "ु"
    ],
    [
      "प्रति",
      "द्व"
    ],
    [
      "निर्देश",
      "ित</w>"
    ],
    [
      "वस्तु",
      "क</w>"
    ],
    [
      "उत्त",
      "र"
    ],
    [
      "का",
      "ल्"
    ],
    [
      "र",
      "क्त</w>"
    ],
    [
      "पराज",
      "ित</w>"
    ],
    [
      "क",
      "ने"
    ],
    [
      "ठ",
      "म</w>"
    ],
    [
      "पश्",
      "चा"
    ],
    [
      "गे",
      "म</w>"
    ],
    [
      "छु",
      "ट्"
    ],
    [
      "सा",
      "त"
    ],
    [
      "आ",
      "शा</w>"
    ],
    [
      "प्रो",
      "ग्रा"
    ],
    [
      "हम",
      "ला</w>"
    ],
    [
      "न",
      "ू</w>"
    ],
    [
      "ग्र",
      "स्त</w>"
    ],
    [
      "केन्द्र",
      "ित</w>"
    ],
    [
      "पृ",
      "ष्ठ"
    ],
    [
      "लाग",
      "ल।</w>"
    ],
    [
      "नेट",
      "वर्"
    ],
    [
      "ना",
      "सँ</w>"
    ],
    [
      "उत्त",
      "रमे</w>"
    ],
    [
      "लेल",
      "क</w>"
    ],
    [
      "२००",
      "७</w>"
    ],
    [
      "कयल",
      "क,</w>"
    ],
    [
      "प्र",
      "क्र"
    ],
    [
      "सन्दर्",
      "भ"
    ],
    [
      "ऊ",
      "र्"
    ],
    [
      "मूल",
      "्य</w>"
    ],
    [
      "म",
      "इ</w>"
    ],
    [
      "कार",
      "सँ</w>"
    ],
    [
      "ओ",
      "ना</w>"
    ],
    [
      "आ",
      "वा"
    ],
    [
      "तक",
      "नी"
    ],
    [
      "प",
      "ल</w>"
    ],
    [
      "स्त",
      "रपर</w>"
    ],
    [
      "युद्ध",
      "मे</w>"
    ],
    [
      "स",
      "ेल्"
    ],
    [
      "ऑ",
      "फि"
    ],
    [
      "प्रे",
      "रित</w>"
    ],
    [
      "ने",
      "ता</w>"
    ],
    [
      "क्षम",
      "ता</w>"
    ],
    [
      "वि",
      "तर"
    ],
    [
      "एं",
      "टी"
    ],
    [
      "बद",
      "ल"
    ],
    [
      "टेलीवि",
      "जन</w>"
    ],
    [
      "का",
      "जक</w>"
    ],
    [
      "ज",
      "ङ्ग"
    ],
    [
      "ब्र",
      "े"
    ],
    [
      "च",
      "ट्टा"
    ],
    [
      "आ",
      "श्"
    ],
    [
      "भेल",
      ",</w>"
    ],
    [
      "पार्",
      "टीक</w>"
    ],
    [
      "ता",
      "-"
    ],
    [
      "न्द",
      "ो"
    ],
    [
      "बॉ",
      "ल</w>"
    ],
    [
      "ट",
      "वे"
    ],
    [
      "विटा",
      "मिन</w>"
    ],
    [
      "द",
      "्य</w>"
    ],
    [
      "य",
      "बामे</w>"
    ],
    [
      "ताप",
      "मान</w>"
    ],
    [
      "का",
      ",</w>"
    ],
    [
      "च",
      "ि</w>"
    ],
    [
      "साम्राज",
      "्य</w>"
    ],
    [
      "मु",
      "स्लि"
    ],
    [
      "न",
      "ष्ट</w>"
    ],
    [
      "सा",
      "उ"
    ],
    [
      "दिय",
      "ौ"
    ],
    [
      ".",
      "आइ"
    ],
    [
      "देख",
      "बैत</w>"
    ],
    [
      "मु",
      "ँ"
    ],
    [
      "नि",
      "वेश"
    ],
    [
      "विभा",
      "जित</w>"
    ],
    [
      "ण्ड",
      "ो"
    ],
    [
      "मणि",
      "पु"
    ],
    [
      "स",
      "्रा"
    ],
    [
      "ल",
      ")</w>"
    ],
    [
      "ज",
      ",</w>"
    ],
    [
      "गेल",
      "ैक।</w>"
    ],
    [
      "शा",
      "ही</w>"
    ],
    [
      "या",
      "लय</w>"
    ],
    [
      "ड",
      "मे</w>"
    ],
    [
      "२०१",
      "६</w>"
    ],
    [
      "र",
      "ङ्ग</w>"
    ],
    [
      "एखन",
      "हु</w>"
    ],
    [
      "२००",
      "८</w>"
    ],
    [
      "२००",
      "०</w>"
    ],
    [
      "र्",
      "क</w>"
    ],
    [
      "का",
      "ँ"
    ],
    [
      "ई",
      "सा"
    ],
    [
      "ल",
      "म्बा</w>"
    ],
    [
      "ष्",
      "ट"
    ],
    [
      "नि",
      "मे</w>"
    ],
    [
      "ई",
      ",</w>"
    ],
    [
      "ब्रा",
      "जी"
    ],
    [
      "श्रे",
      "णी</w>"
    ],
    [
      "अ",
      "फ"
    ],
    [
      "कर्",
      "नाटक</w>"
    ],
    [
      "ल",
      "म</w>"
    ],
    [
      "0",
      "</w>"
    ],
    [
      "सम्भा",
      "वित</w>"
    ],
    [
      "ली",
      "केँ</w>"
    ],
    [
      "े",
      "ं</w>"
    ],
    [
      "मुख",
      "्य"
    ],
    [
      "प",
      "ा</w>"
    ],
    [
      "आ",
      "द"
    ],
    [
      "डिय",
      "ो"
    ],
    [
      "तो",
      "क</w>"
    ],
    [
      "बा",
      "जी</w>"
    ],
    [
      "म",
      "्यू"
    ],
    [
      "ब",
      "य"
    ],
    [
      "ध",
      "ू"
    ],
    [
      "बच",
      "त</w>"
    ],
    [
      "सु",
      "झा"
    ],
    [
      "भे",
      "ँट</w>"
    ],
    [
      "कि",
      "ल</w>"
    ],
    [
      "ण्ड",
      "ा"
    ],
    [
      "वि",
      "जय"
    ],
    [
      "२०",
      "०</w>"
    ],
    [
      "श",
      "र्"
    ],
    [
      "क्",
      "त,</w>"
    ],
    [
      "२०",
      "२०</w>"
    ],
    [
      "व",
      "केँ</w>"
    ],
    [
      "उप",
      "रा"
    ],
    [
      "शि",
      "का"
    ],
    [
      "गि",
      "र"
    ],
    [
      "स",
      "न्यु"
    ],
    [
      "ेेेे",
      "ेेेे"
    ],
    [
      "एक",
      "ल</w>"
    ],
    [
      "हि",
      "साब"
    ],
    [
      "स्थ",
      "ाक</w>"
    ],
    [
      "उ",
      "ष्णकटि"
    ],
    [
      "सह",
      "योग"
    ],
    [
      "ग्री",
      "ष्"
    ],
    [
      "सङ्",
      "ग्र"
    ],
    [
      "नियन्त्र",
      "ण</w>"
    ],
    [
      "स्",
      "कृतिक</w>"
    ],
    [
      "श",
      "ल"
    ],
    [
      "ज",
      "वा"
    ],
    [
      "हा",
      "थ</w>"
    ],
    [
      "इ",
      "ण्टर"
    ],
    [
      "पा",
      "बनि</w>"
    ],
    [
      "व्यक्ति",
      "केँ</w>"
    ],
    [
      "सन्यु",
      "क्त</w>"
    ],
    [
      "समा",
      "चार</w>"
    ],
    [
      "पछा",
      "ति</w>"
    ],
    [
      "य",
      "ि"
    ],
    [
      "शब्",
      "दक</w>"
    ],
    [
      "कार",
      "मे</w>"
    ],
    [
      "के",
      "रल</w>"
    ],
    [
      "उत्पा",
      "दन</w>"
    ],
    [
      "स्वय",
      "ं"
    ],
    [
      "ओ",
      "हिसँ</w>"
    ],
    [
      "ब्रि",
      "टे"
    ],
    [
      "प्र",
      "भ"
    ],
    [
      "ब",
      "हा"
    ],
    [
      "गै",
      "र-"
    ],
    [
      "सेवा",
      "नि"
    ],
    [
      "छ",
      "ओ</w>"
    ],
    [
      "प्रो",
      "त्सा"
    ],
    [
      "मै",
      "क"
    ],
    [
      "हा",
      "उ"
    ],
    [
      "दी",
      "न</w>"
    ],
    [
      "ठ",
      "ी</w>"
    ],
    [
      "बन",
      "ैत</w>"
    ],
    [
      "ं",
      "सक</w>"
    ],
    [
      "स",
      "ेल"
    ],
    [
      "क्र",
      "ी"
    ],
    [
      "ट्",
      "ट"
    ],
    [
      "आ",
      "न्दो"
    ],
    [
      "चो",
      "ट</w>"
    ],
    [
      "सि",
      "स्ट"
    ],
    [
      "२",
      "८</w>"
    ],
    [
      "कार्यक्र",
      "मक</w>"
    ],
    [
      "व्यवसा",
      "य</w>"
    ],
    [
      "प",
      "च्छि"
    ],
    [
      "स",
      "ल्"
    ],
    [
      "क",
      "ीय</w>"
    ],
    [
      ".ए",
      "म"
    ],
    [
      "खो",
      "ल"
    ],
    [
      "सं",
      "स"
    ],
    [
      "२",
      "६</w>"
    ],
    [
      "च",
      "रि"
    ],
    [
      "ग्रा",
      "ह"
    ],
    [
      "वि",
      "द्य"
    ],
    [
      "टी",
      ",</w>"
    ],
    [
      "मै",
      "दान</w>"
    ],
    [
      "पेशे",
      "वर</w>"
    ],
    [
      "द्वी",
      "पक</w>"
    ],
    [
      "मा",
      "सक</w>"
    ],
    [
      "आधार",
      "पर</w>"
    ],
    [
      "इ",
      "मे</w>"
    ],
    [
      "मनो",
      "र"
    ],
    [
      "ह",
      "म्म"
    ],
    [
      "सु",
      "रु"
    ],
    [
      "स्वर्",
      "ण</w>"
    ],
    [
      "अन्तर्",
      "गत</w>"
    ],
    [
      "पा",
      "सक</w>"
    ],
    [
      "ख्य",
      "ाक</w>"
    ],
    [
      "ज",
      "िय"
    ],
    [
      "दिव",
      "स</w>"
    ],
    [
      "ब",
      "त"
    ],
    [
      "मुसल",
      "मान</w>"
    ],
    [
      ".सी",
      ".</w>"
    ],
    [
      "बं",
      "गा"
    ],
    [
      "सॉफ्",
      "टवे"
    ],
    [
      "शक्",
      "ति"
    ],
    [
      "ए",
      "ह"
    ],
    [
      "मध",
      "ु"
    ],
    [
      "वर्",
      "गी"
    ],
    [
      "ओ",
      "करा"
    ],
    [
      "ज",
      "तए</w>"
    ],
    [
      "विष",
      "ा"
    ],
    [
      "अं",
      "ग्रे"
    ],
    [
      "यूनाइ",
      "टेड</w>"
    ],
    [
      "ब",
      "ेल्"
    ],
    [
      "जान",
      "कारी</w>"
    ],
    [
      "ण्",
      "ट"
    ],
    [
      "पार",
      "ि"
    ],
    [
      "इ",
      "लि"
    ],
    [
      "सकय",
      "।</w>"
    ],
    [
      "पसि",
      "न्न</w>"
    ],
    [
      "ना",
      "थ</w>"
    ],
    [
      "२",
      "७</w>"
    ],
    [
      "त",
      "हु</w>"
    ],
    [
      "लेल",
      "नि</w>"
    ],
    [
      "वा",
      "दक</w>"
    ],
    [
      "१९",
      "०"
    ],
    [
      "दु",
      "नियाक</w>"
    ],
    [
      "बा",
      "ल</w>"
    ],
    [
      "प्रशिक्ष",
      "ण</w>"
    ],
    [
      "गेल",
      "नि</w>"
    ],
    [
      "क्ष",
      "ति</w>"
    ],
    [
      "पं",
      "जा"
    ],
    [
      "ंड",
      "र</w>"
    ],
    [
      "उ",
      "।</w>"
    ],
    [
      "रो",
      "कि</w>"
    ],
    [
      "क",
      "तोक</w>"
    ],
    [
      "लक्ष",
      "्य</w>"
    ],
    [
      "ओ",
      "त"
    ],
    [
      "पत्",
      "नी</w>"
    ],
    [
      "मुस्लि",
      "म</w>"
    ],
    [
      "वि",
      "धा</w>"
    ],
    [
      "मै",
      "चमे</w>"
    ],
    [
      "चर्",
      "चा</w>"
    ],
    [
      "कार्",
      "य</w>"
    ],
    [
      "आ",
      "स"
    ],
    [
      "ओ",
      "ही</w>"
    ],
    [
      "दृश",
      "्य</w>"
    ],
    [
      "क",
      "हि</w>"
    ],
    [
      "ह",
      "ा</w>"
    ],
    [
      "देख",
      "भा"
    ],
    [
      "ग्रीष्",
      "म"
    ],
    [
      "से",
      "ना"
    ],
    [
      "प्रशं",
      "सा</w>"
    ],
    [
      "द",
      "शक</w>"
    ],
    [
      "श",
      "ारी"
    ],
    [
      "पाछा",
      "ँ</w>"
    ],
    [
      "ल",
      "हुँ</w>"
    ],
    [
      "टि",
      "ल</w>"
    ],
    [
      "खा",
      "द्य</w>"
    ],
    [
      "व्या",
      "पार"
    ],
    [
      "सा",
      "ग"
    ],
    [
      "त",
      "ल</w>"
    ],
    [
      "बरख",
      "ा</w>"
    ],
    [
      "ले",
      "खन"
    ],
    [
      "विशेष",
      "ता</w>"
    ],
    [
      "का",
      "केँ</w>"
    ],
    [
      "ए",
      "म्"
    ],
    [
      "्य",
      "केँ</w>"
    ],
    [
      "सि",
      "ख"
    ],
    [
      "रा",
      "न</w>"
    ],
    [
      "द",
      "ित</w>"
    ],
    [
      "बा",
      "ढ़"
    ],
    [
      "सां",
      "स्कृतिक</w>"
    ],
    [
      "क्षेत्र",
      "ीय</w>"
    ],
    [
      "चु",
      "न"
    ],
    [
      "खो",
      "ज</w>"
    ],
    [
      "भूमि",
      "कामे</w>"
    ],
    [
      "व",
      "्र"
    ],
    [
      "ना",
      "मा"
    ],
    [
      "चा",
      "लन</w>"
    ],
    [
      "शह",
      "री</w>"
    ],
    [
      "आ",
      "म</w>"
    ],
    [
      "कि",
      "शो"
    ],
    [
      "स्वत",
      "न्त्र</w>"
    ],
    [
      "सित",
      "म्ब"
    ],
    [
      "हुनका",
      "सँ</w>"
    ],
    [
      "वैज्ञा",
      "निक</w>"
    ],
    [
      "अ",
      "ख"
    ],
    [
      "त्",
      "तर</w>"
    ],
    [
      "म",
      "य</w>"
    ],
    [
      "वि",
      "स्"
    ],
    [
      "आ",
      "कि</w>"
    ],
    [
      "पड़",
      "ो"
    ],
    [
      "स",
      "न्त"
    ],
    [
      "अधि",
      "क"
    ],
    [
      "प्रदर्श",
      "नक</w>"
    ],
    [
      "तेल",
      "ु"
    ],
    [
      "काल",
      "िक</w>"
    ],
    [
      "महा",
      "न</w>"
    ],
    [
      "प",
      "क्ष</w>"
    ],
    [
      "क",
      "सभक</w>"
    ],
    [
      "कर",
      "बा"
    ],
    [
      "क",
      "पू"
    ],
    [
      ".",
      "आई"
    ],
    [
      "झ",
      "र"
    ],
    [
      "लैण्ड",
      "मे</w>"
    ],
    [
      "मो",
      "न</w>"
    ],
    [
      "ग",
      "ङ्ग"
    ],
    [
      "ग्र",
      "</w>"
    ],
    [
      "सङ्गी",
      "तक</w>"
    ],
    [
      "सर्व",
      "ो"
    ],
    [
      "ह",
      "स्ता"
    ],
    [
      "ँ",
      "क</w>"
    ],
    [
      "घ",
      "रेल"
    ],
    [
      "निर्मा",
      "ता</w>"
    ],
    [
      ".",
      ")</w>"
    ],
    [
      "चार",
      "िक</w>"
    ],
    [
      "अ",
      "ली</w>"
    ],
    [
      "हवा",
      "ई</w>"
    ],
    [
      "म",
      "ेल</w>"
    ],
    [
      "नि",
      "चला</w>"
    ],
    [
      "अतिरि",
      "क्त,</w>"
    ],
    [
      "ष्",
      "ठा"
    ],
    [
      "स",
      "हम"
    ],
    [
      "अधिकार",
      "ी"
    ],
    [
      "ली",
      "वु"
    ],
    [
      "गा",
      "ड़ी</w>"
    ],
    [
      "स",
      "त्र"
    ],
    [
      "स",
      "चि"
    ],
    [
      "विजे",
      "ता</w>"
    ],
    [
      "बि",
      "न्द"
    ],
    [
      "स",
      "ि</w>"
    ],
    [
      "शै",
      "लीक</w>"
    ],
    [
      "घरेल",
      "ू</w>"
    ],
    [
      "य",
      "बा</w>"
    ],
    [
      "सं",
      "घ"
    ],
    [
      "फ",
      "़"
    ],
    [
      "म",
      "ङ्ग"
    ],
    [
      "क्रा",
      "न्"
    ],
    [
      "मिन",
      "टक</w>"
    ],
    [
      "अन",
      "े"
    ],
    [
      "द्वी",
      "प"
    ],
    [
      "न्",
      "ह</w>"
    ],
    [
      "स्",
      "मार"
    ],
    [
      "न",
      "वा"
    ],
    [
      "बन्ध",
      "ीय</w>"
    ],
    [
      "ल",
      "S</w>"
    ],
    [
      "सब",
      "पर</w>"
    ],
    [
      "से",
      "ं"
    ],
    [
      "चे",
      "न्न"
    ],
    [
      "चा",
      "लक</w>"
    ],
    [
      "अव",
      "धि</w>"
    ],
    [
      "फाइ",
      "न"
    ],
    [
      "सह",
      "ज</w>"
    ],
    [
      "शा",
      "स्"
    ],
    [
      "कृ",
      "षि</w>"
    ],
    [
      "ब",
      "ने"
    ],
    [
      "मै",
      "न</w>"
    ],
    [
      "न",
      "ार"
    ],
    [
      "क्ष",
      "ण</w>"
    ],
    [
      "ष",
      "ा"
    ],
    [
      "म",
      "ल</w>"
    ],
    [
      "ध",
      "रिक</w>"
    ],
    [
      "लोक",
      "सभकेँ</w>"
    ],
    [
      "२",
      "९</w>"
    ],
    [
      "फ",
      "र्"
    ],
    [
      "पार्",
      "टी</w>"
    ],
    [
      "ज",
      "सँ</w>"
    ],
    [
      "स",
      "लाह"
    ],
    [
      "प्रजा",
      "ति</w>"
    ],
    [
      "बिज",
      "ली</w>"
    ],
    [
      "वर्त",
      "मानमे</w>"
    ],
    [
      "सङ्",
      "घ</w>"
    ],
    [
      "ता",
      "कि</w>"
    ],
    [
      "सम्रा",
      "ट</w>"
    ],
    [
      "वि",
      "चार"
    ],
    [
      "अभ",
      "्य"
    ],
    [
      "बच्",
      "चाक</w>"
    ],
    [
      "योज",
      "न</w>"
    ],
    [
      "ग्रा",
      "मी"
    ],
    [
      "’",
      "</w>"
    ],
    [
      "सम",
      "झ"
    ],
    [
      "समी",
      "क्षा</w>"
    ],
    [
      "शारी",
      "रिक</w>"
    ],
    [
      "सूची",
      "बद्ध</w>"
    ],
    [
      "सम",
      "ृ"
    ],
    [
      "सम्",
      "मान</w>"
    ],
    [
      "ड",
      "र</w>"
    ],
    [
      "रा",
      "श"
    ],
    [
      "छ",
      "े"
    ],
    [
      "अ",
      "ट"
    ],
    [
      "कखन",
      "हु</w>"
    ],
    [
      "छ",
      "ू</w>"
    ],
    [
      "ग",
      "ार"
    ],
    [
      "विशा",
      "ल</w>"
    ],
    [
      "स्ट",
      "ॉ"
    ],
    [
      "बन्द",
      "ी</w>"
    ],
    [
      "सा",
      "क्ष"
    ],
    [
      "म",
      "ज"
    ],
    [
      "बॉ",
      "क्स</w>"
    ],
    [
      "ो",
      "र</w>"
    ],
    [
      "ड़",
      "ा</w>"
    ],
    [
      "ऑस्ट्रेल",
      "िया"
    ],
    [
      "ल",
      "द्दा"
    ],
    [
      "शुरुआ",
      "त</w>"
    ],
    [
      "पा",
      "ँ"
    ],
    [
      "टि",
      "ङ्ग</w>"
    ],
    [
      "शी",
      "घ"
    ],
    [
      "नी",
      "ति</w>"
    ],
    [
      "्य",
      "सँ</w>"
    ],
    [
      "प्र",
      "चल"
    ],
    [
      "फ",
      "ल"
    ],
    [
      "प",
      "द्"
    ],
    [
      "अ",
      "ध"
    ],
    [
      "प्र",
      "योग"
    ],
    [
      "झ",
      "ु"
    ],
    [
      "प्रधान",
      "मन्त्री</w>"
    ],
    [
      "ला",
      "भ"
    ],
    [
      "भेट",
      "लनि।</w>"
    ],
    [
      "ब",
      "रक</w>"
    ],
    [
      "प्रा",
      "न्त"
    ],
    [
      "त",
      "ख"
    ],
    [
      "म",
      "र्"
    ],
    [
      "ट्र",
      "ै"
    ],
    [
      "रिकॉ",
      "र्ड</w>"
    ],
    [
      "ढ",
      "ा"
    ],
    [
      "से",
      "न</w>"
    ],
    [
      "म",
      "जग"
    ],
    [
      "पि",
      "ताक</w>"
    ],
    [
      "ल",
      "पर</w>"
    ],
    [
      "जन",
      "व"
    ],
    [
      "विशेष",
      "ज्ञ"
    ],
    [
      "क्र",
      "ॉ"
    ],
    [
      "छल",
      "हुँ</w>"
    ],
    [
      "आप",
      "स</w>"
    ],
    [
      "उपा",
      "धि</w>"
    ],
    [
      "बे",
      "स</w>"
    ],
    [
      "ब",
      "िया"
    ],
    [
      "हत्य",
      "ा</w>"
    ],
    [
      "संस्",
      "कृ"
    ],
    [
      "उ",
      "न</w>"
    ],
    [
      "व्या",
      "पार</w>"
    ],
    [
      "ब",
      "र,</w>"
    ],
    [
      ".ए",
      "न"
    ],
    [
      "मा",
      "य</w>"
    ],
    [
      "श",
      "ङ्"
    ],
    [
      "प्र",
      "दा"
    ],
    [
      "ड",
      "ा</w>"
    ],
    [
      "ह",
      "स्त"
    ],
    [
      "देव",
      "ता</w>"
    ],
    [
      "वाय",
      "ु</w>"
    ],
    [
      "व्य",
      "क्त</w>"
    ],
    [
      "सम",
      "य"
    ],
    [
      "दर्",
      "ज</w>"
    ],
    [
      "उ",
      "ड़ा"
    ],
    [
      "सै",
      "न</w>"
    ],
    [
      "वा",
      "ह"
    ],
    [
      "ि",
      "का</w>"
    ],
    [
      "सह",
      "योग</w>"
    ],
    [
      "आकर्",
      "षित</w>"
    ],
    [
      "बो",
      "र्ड</w>"
    ],
    [
      "१",
      "."
    ],
    [
      "एक",
      "-"
    ],
    [
      "शृ",
      "ङ्ख"
    ],
    [
      "इ",
      "ट"
    ],
    [
      "खत",
      "रा</w>"
    ],
    [
      "स",
      "नक</w>"
    ],
    [
      "दक्षि",
      "णमे</w>"
    ],
    [
      "दू",
      "र"
    ],
    [
      "प",
      "स"
    ],
    [
      "इतिहा",
      "स</w>"
    ],
    [
      "द",
      "म</w>"
    ],
    [
      "क",
      "एक</w>"
    ],
    [
      "अ",
      "क्ष"
    ],
    [
      "मी",
      "डिया</w>"
    ],
    [
      "ओलम्प",
      "ि"
    ],
    [
      "सभ",
      "ा</w>"
    ],
    [
      "योजन",
      "ाक</w>"
    ],
    [
      "प्रणा",
      "लीक</w>"
    ],
    [
      "प्रस्तु",
      "ति</w>"
    ],
    [
      "अ",
      "ङ्ग"
    ],
    [
      "फिल्",
      "मकेँ</w>"
    ],
    [
      "अभ्या",
      "स</w>"
    ],
    [
      "ौ",
      "लनि।</w>"
    ],
    [
      ")",
      "क</w>"
    ],
    [
      "यू",
      "नि"
    ],
    [
      "न",
      "ज"
    ],
    [
      "अङ्ग्रे",
      "जी</w>"
    ],
    [
      "नियन्त्र",
      "ित</w>"
    ],
    [
      "घण्",
      "टा</w>"
    ],
    [
      "शताब्",
      "दीमे</w>"
    ],
    [
      "स",
      "जा"
    ],
    [
      "ल",
      "भ</w>"
    ],
    [
      "वि",
      "द्"
    ],
    [
      "न्यूयॉर्",
      "क</w>"
    ],
    [
      "पी",
      ".</w>"
    ],
    [
      "समुद्र",
      "</w>"
    ],
    [
      "घट",
      "नाक</w>"
    ],
    [
      "क",
      "न्न"
    ],
    [
      "ब",
      "ता"
    ],
    [
      "सि",
      "ए"
    ],
    [
      "विवा",
      "हित</w>"
    ],
    [
      "ज",
      "ला"
    ],
    [
      "स्थाना",
      "न्त"
    ],
    [
      "चल",
      "चित्र"
    ],
    [
      "मु",
      "क्"
    ],
    [
      "मनु",
      "ष"
    ],
    [
      "इलि",
      "नोइ"
    ],
    [
      "श्रृ",
      "ङ्ख"
    ],
    [
      "एव",
      "ं</w>"
    ],
    [
      "कना",
      "डा"
    ],
    [
      "मौ",
      "सि"
    ],
    [
      "के",
      "ंद्र"
    ],
    [
      "म",
      "स</w>"
    ],
    [
      "प्रतिनि",
      "धि</w>"
    ],
    [
      "सूची",
      "मे</w>"
    ],
    [
      "कानू",
      "नी</w>"
    ],
    [
      "क",
      "न्"
    ],
    [
      "बे",
      "टी</w>"
    ],
    [
      "ग्रीष्म",
      "कालीन</w>"
    ],
    [
      "चारि",
      "टा</w>"
    ],
    [
      "व",
      "रक</w>"
    ],
    [
      "३",
      "०"
    ],
    [
      "न",
      "तम</w>"
    ],
    [
      "यौ",
      "न</w>"
    ],
    [
      "चढ़",
      "ा"
    ],
    [
      "हे",
      "बाक</w>"
    ],
    [
      "समारो",
      "ह</w>"
    ],
    [
      "जनि",
      "का</w>"
    ],
    [
      "स्व",
      "र</w>"
    ],
    [
      "वि",
      "देशी</w>"
    ],
    [
      "ज",
      "्य"
    ],
    [
      "आश्",
      "चर्"
    ],
    [
      "गा",
      "छ</w>"
    ],
    [
      "अभ",
      "िले"
    ],
    [
      "स",
      "ीय</w>"
    ],
    [
      "निय",
      "मक</w>"
    ],
    [
      "ग्रामी",
      "ण</w>"
    ],
    [
      "विज्ञा",
      "न</w>"
    ],
    [
      "न्द्र",
      "</w>"
    ],
    [
      "निय",
      "ंत्र"
    ],
    [
      "जर्म",
      "न</w>"
    ],
    [
      "दि",
      "नमे</w>"
    ],
    [
      "सब",
      "टा</w>"
    ],
    [
      "मान",
      "सू"
    ],
    [
      "क्रि",
      "केट</w>"
    ],
    [
      "गेल",
      "ीह।</w>"
    ],
    [
      "आ",
      "बा"
    ],
    [
      "ढ़",
      "</w>"
    ],
    [
      "अ",
      "ग्र"
    ],
    [
      "कानू",
      "न</w>"
    ],
    [
      "प्र",
      "श्"
    ],
    [
      "८",
      "०</w>"
    ],
    [
      "प्र",
      "तीक</w>"
    ],
    [
      "फ",
      "ॉर्"
    ],
    [
      "र",
      "ंग"
    ],
    [
      "सेवानि",
      "वृत्"
    ],
    [
      "ए",
      "सो"
    ],
    [
      "ऋ",
      "ण</w>"
    ],
    [
      "ए",
      "थ"
    ],
    [
      "प्र",
      "कार</w>"
    ],
    [
      "केर",
      "लक</w>"
    ],
    [
      "-",
      "भिन्न</w>"
    ],
    [
      "आशं",
      "का</w>"
    ],
    [
      "सभ",
      "पर</w>"
    ],
    [
      "वि",
      "क्रे"
    ],
    [
      "व",
      ",</w>"
    ],
    [
      "आत्",
      "म"
    ],
    [
      "दिल्",
      "लीमे</w>"
    ],
    [
      "क्",
      "सक</w>"
    ],
    [
      "ज",
      "तेक</w>"
    ],
    [
      "शा",
      "मे</w>"
    ],
    [
      "उप",
      "चारक</w>"
    ],
    [
      "आ",
      "धा</w>"
    ],
    [
      "चर",
      "ण</w>"
    ],
    [
      "जर्म",
      "नीक</w>"
    ],
    [
      "वि",
      "वरण</w>"
    ],
    [
      "आरो",
      "प</w>"
    ],
    [
      "पड़",
      "ैत</w>"
    ],
    [
      "डॉल",
      "रक</w>"
    ],
    [
      "इ",
      "का"
    ],
    [
      "खेल",
      "केँ</w>"
    ],
    [
      "सुरु",
      "ह</w>"
    ],
    [
      "इं",
      "टर"
    ],
    [
      "किन",
      "बाक</w>"
    ],
    [
      "या",
      "त्री</w>"
    ],
    [
      "पहिचा",
      "न</w>"
    ],
    [
      "क",
      "कर"
    ],
    [
      "गा",
      "ं"
    ],
    [
      "रा",
      "व</w>"
    ],
    [
      "श्",
      "वर</w>"
    ],
    [
      "सु",
      "विधा</w>"
    ],
    [
      "जी",
      "व</w>"
    ],
    [
      "म",
      "ीक</w>"
    ],
    [
      "चि",
      "न्त"
    ],
    [
      "योग",
      "दान</w>"
    ],
    [
      "उल्",
      "लेखन"
    ],
    [
      "उल्लेखन",
      "ीय</w>"
    ],
    [
      "त्",
      "ती"
    ],
    [
      "प",
      "ित</w>"
    ],
    [
      "द",
      "लक</w>"
    ],
    [
      "जन",
      "मे</w>"
    ],
    [
      "स्थि",
      "ति"
    ],
    [
      "ट्र",
      "ि"
    ],
    [
      "महत्",
      "त्वपूर्ण</w>"
    ],
    [
      "श",
      "हर"
    ],
    [
      "विश्वविद्याल",
      "यमे</w>"
    ],
    [
      "ध",
      "म"
    ],
    [
      "फिलि",
      "म</w>"
    ],
    [
      "लि",
      "अ"
    ],
    [
      "च",
      "ी</w>"
    ],
    [
      "गु",
      "फा</w>"
    ],
    [
      "\"",
      "।</w>"
    ],
    [
      "ग",
      "ू"
    ],
    [
      "जो",
      "ड़ल</w>"
    ],
    [
      "मजग",
      "ूत</w>"
    ],
    [
      "गा",
      "यक</w>"
    ],
    [
      "ञ्",
      "जन</w>"
    ],
    [
      "अपे",
      "क्षा</w>"
    ],
    [
      "कर्मचार",
      "ी</w>"
    ],
    [
      "५",
      "००</w>"
    ],
    [
      "समुद्र",
      "ी</w>"
    ],
    [
      "ब्",
      "ब"
    ],
    [
      "ट",
      "पर</w>"
    ],
    [
      "ड़",
      "ा"
    ],
    [
      "प्रा",
      "र्थ"
    ],
    [
      "पूर्",
      "ण"
    ],
    [
      "स",
      "कारात्मक</w>"
    ],
    [
      "अग",
      "स्त"
    ],
    [
      "क्",
      "टर</w>"
    ],
    [
      "सब",
      "र्"
    ],
    [
      "पक",
      "ड़"
    ],
    [
      "क्रा",
      "मक</w>"
    ],
    [
      "नी",
      "चा</w>"
    ],
    [
      "र",
      "म</w>"
    ],
    [
      "अ",
      "धिक</w>"
    ],
    [
      "गुण",
      "व"
    ],
    [
      "अफ",
      "गा"
    ],
    [
      "मुख",
      "्या"
    ],
    [
      "झ",
      "ा</w>"
    ],
    [
      "टेक्",
      "सा"
    ],
    [
      "म",
      "ई</w>"
    ],
    [
      "पदा",
      "र्थ</w>"
    ],
    [
      "डे",
      "वि"
    ],
    [
      "सङ्घ",
      "क</w>"
    ],
    [
      "हा",
      "ल"
    ],
    [
      "परम्प",
      "रा</w>"
    ],
    [
      "ग",
      "री"
    ],
    [
      "व्या",
      "प"
    ],
    [
      "ऊ",
      "ँचा"
    ],
    [
      "सु",
      "धार"
    ],
    [
      "े",
      "बाक</w>"
    ],
    [
      "मा",
      "छ</w>"
    ],
    [
      "ग",
      "ी</w>"
    ],
    [
      "भा",
      "व</w>"
    ],
    [
      "छल",
      "ै"
    ],
    [
      "२००",
      "६</w>"
    ],
    [
      "चो",
      "ल</w>"
    ],
    [
      "जापा",
      "नी</w>"
    ],
    [
      "जग",
      "ह</w>"
    ],
    [
      "वर्",
      "त्त"
    ],
    [
      "सि",
      "ख</w>"
    ],
    [
      "सह",
      "ी</w>"
    ],
    [
      "न",
      "र्"
    ],
    [
      "खा",
      "ली</w>"
    ],
    [
      "राश",
      "ि</w>"
    ],
    [
      "दिल्",
      "लीक</w>"
    ],
    [
      "मह",
      "ी"
    ],
    [
      "न",
      "ारा"
    ],
    [
      "बा",
      "र्"
    ],
    [
      "कि",
      "ंग</w>"
    ],
    [
      "तथा",
      "पि</w>"
    ],
    [
      "शी",
      "र्ष"
    ],
    [
      "ब",
      "ृह"
    ],
    [
      "फ्रां",
      "सीसी</w>"
    ],
    [
      "सिक्",
      "कि"
    ],
    [
      "रि",
      "यन</w>"
    ],
    [
      "कांग्रे",
      "स</w>"
    ],
    [
      "गा",
      "मक</w>"
    ],
    [
      "आ",
      "श्र"
    ],
    [
      "घ",
      "र"
    ],
    [
      "पड़",
      "ि</w>"
    ],
    [
      "'",
      "क</w>"
    ],
    [
      "प",
      "ल्ल"
    ],
    [
      "ट",
      "का</w>"
    ],
    [
      "भव",
      "न</w>"
    ],
    [
      "बढ़",
      "ा"
    ],
    [
      "त",
      "ना"
    ],
    [
      "क्षेत्र",
      "केँ</w>"
    ],
    [
      "ज",
      "ो</w>"
    ],
    [
      "त",
      ":</w>"
    ],
    [
      "उत्",
      "सा"
    ],
    [
      "ता",
      "ल"
    ],
    [
      "प्",
      "ला"
    ],
    [
      "अ",
      "ङ्ग</w>"
    ],
    [
      "ए",
      "का"
    ],
    [
      "ऑस्ट्रेल",
      "ियाक</w>"
    ],
    [
      "खेला",
      "इत</w>"
    ],
    [
      "०",
      "सँ</w>"
    ],
    [
      "१",
      "केँ</w>"
    ],
    [
      "अ",
      "सफल</w>"
    ],
    [
      "द",
      "मे</w>"
    ],
    [
      "छ",
      "ि"
    ],
    [
      "उष्णकटि",
      "बन्धीय</w>"
    ],
    [
      "सम्",
      "हार"
    ],
    [
      "आ",
      "पा"
    ],
    [
      ".एस",
      ".</w>"
    ],
    [
      "पुरु",
      "ष"
    ],
    [
      "न",
      "क"
    ],
    [
      "स्वा",
      "मि"
    ],
    [
      "ऑ",
      "क्"
    ],
    [
      "स्",
      "पोर्"
    ],
    [
      "प्रतिद्व",
      "न्"
    ],
    [
      "समस्",
      "या"
    ],
    [
      "अप",
      "ि"
    ],
    [
      "२०२०",
      "केँ</w>"
    ],
    [
      "ओल",
      "ंप"
    ],
    [
      "ब",
      "व"
    ],
    [
      "नि",
      "वासी</w>"
    ],
    [
      "७",
      "०</w>"
    ],
    [
      "मा",
      "दक</w>"
    ],
    [
      "ल",
      "ङ्"
    ],
    [
      "परिव",
      "ार"
    ],
    [
      "फिल्",
      "मा"
    ],
    [
      "डिजाइ",
      "न</w>"
    ],
    [
      "पे",
      "रि"
    ],
    [
      "समझ",
      "ौ"
    ],
    [
      "व",
      "्य</w>"
    ],
    [
      ")",
      "।</w>"
    ],
    [
      "उ",
      "मे"
    ],
    [
      "क",
      "ं"
    ],
    [
      "वे",
      "स्ट"
    ],
    [
      "माइक्रो",
      "सॉफ्"
    ],
    [
      "वि",
      "ण्डो"
    ],
    [
      "कि",
      "रा"
    ],
    [
      "आ",
      "दि</w>"
    ],
    [
      "पश्चि",
      "ममे</w>"
    ],
    [
      "द्वि",
      "ती"
    ],
    [
      "ग",
      "ु</w>"
    ],
    [
      "आ",
      "कार</w>"
    ],
    [
      "हम्म",
      "द</w>"
    ],
    [
      "प",
      "रा"
    ],
    [
      "त",
      "-"
    ],
    [
      "अछि",
      ";</w>"
    ],
    [
      "खेला",
      "यल</w>"
    ],
    [
      "भूमि",
      "काक</w>"
    ],
    [
      "शि",
      "व"
    ],
    [
      "शि",
      "वा"
    ],
    [
      "भे",
      "लाह।</w>"
    ],
    [
      "गु",
      "रु</w>"
    ],
    [
      "चिकित्",
      "सक</w>"
    ],
    [
      "३",
      "१</w>"
    ],
    [
      "फु",
      "टबॉ"
    ],
    [
      "इ",
      "च्छ"
    ],
    [
      "स",
      "पर</w>"
    ],
    [
      "म",
      "ले"
    ],
    [
      "२००",
      "९</w>"
    ],
    [
      "पु",
      "र्त"
    ],
    [
      "पुर्त",
      "गा"
    ],
    [
      "ं",
      "श</w>"
    ],
    [
      "मा",
      "ता-"
    ],
    [
      "हम",
      "रा"
    ],
    [
      "निर्वा",
      "चित</w>"
    ],
    [
      "क",
      "सभ</w>"
    ],
    [
      "भाष",
      "ामे</w>"
    ],
    [
      "यूना",
      "नी</w>"
    ],
    [
      "वर्",
      "ती</w>"
    ],
    [
      "अत्य",
      "धिक</w>"
    ],
    [
      "उज्",
      "जर</w>"
    ],
    [
      "य",
      "।</w>"
    ],
    [
      "छो",
      "ड़ि</w>"
    ],
    [
      "८",
      "केँ</w>"
    ],
    [
      "ब",
      "ड़"
    ],
    [
      "भे",
      "ंट</w>"
    ],
    [
      "बनौ",
      "ने</w>"
    ],
    [
      "शास",
      "ित</w>"
    ],
    [
      "लोक",
      "सब</w>"
    ],
    [
      "सभ",
      "टा</w>"
    ],
    [
      "द",
      "रा"
    ],
    [
      "बाद",
      "सँ</w>"
    ],
    [
      "गो",
      "टे"
    ],
    [
      "ज",
      "ेल"
    ],
    [
      "टु",
      "क"
    ],
    [
      "देख",
      "बाक</w>"
    ],
    [
      "देखा",
      "इत</w>"
    ],
    [
      "गो",
      "ली</w>"
    ],
    [
      "निर्देश",
      "न</w>"
    ],
    [
      "बै",
      "ङ्क</w>"
    ],
    [
      "एल्ब",
      "म</w>"
    ],
    [
      "कम",
      "जोर</w>"
    ],
    [
      "मि",
      "त्र"
    ],
    [
      "खरी",
      "दारी</w>"
    ],
    [
      "सि",
      "टी</w>"
    ],
    [
      "वेबसाइ",
      "ट</w>"
    ],
    [
      "क",
      "लेल</w>"
    ],
    [
      "स्",
      "मर"
    ],
    [
      "सा",
      "धारण</w>"
    ],
    [
      "न",
      "म</w>"
    ],
    [
      "निक",
      "ट</w>"
    ],
    [
      "जल्",
      "दी</w>"
    ],
    [
      "पृथ",
      "्"
    ],
    [
      "शो",
      "ध</w>"
    ],
    [
      "छा",
      "त्र"
    ],
    [
      "प",
      "न्"
    ],
    [
      "वे",
      "शक</w>"
    ],
    [
      "कार",
      ",</w>"
    ],
    [
      "तुर",
      "न्त</w>"
    ],
    [
      "वे",
      "क</w>"
    ],
    [
      "टि",
      "प्प"
    ],
    [
      "जुला",
      "इ</w>"
    ],
    [
      "राजवं",
      "शक</w>"
    ],
    [
      "खे",
      "ती</w>"
    ],
    [
      "र",
      "ेल</w>"
    ],
    [
      "उद्यो",
      "ग</w>"
    ],
    [
      "मौ",
      "सम"
    ],
    [
      "त",
      "ट</w>"
    ],
    [
      "आपूर्",
      "ति</w>"
    ],
    [
      "जे",
      "ं"
    ],
    [
      "रो",
      "ध</w>"
    ],
    [
      "कै",
      "रो"
    ],
    [
      "आघा",
      "त</w>"
    ],
    [
      "अ",
      "म"
    ],
    [
      "दै",
      "निक</w>"
    ],
    [
      "केन्द्र",
      "ीय</w>"
    ],
    [
      "इ",
      "ल</w>"
    ],
    [
      "अभिने",
      "त्री</w>"
    ],
    [
      "गे",
      "न</w>"
    ],
    [
      "९",
      "०</w>"
    ],
    [
      "घा",
      "टी</w>"
    ],
    [
      "तमिलनाड",
      "ु</w>"
    ],
    [
      "किल",
      "ाक</w>"
    ],
    [
      "ध",
      "मे</w>"
    ],
    [
      "न्",
      "ट</w>"
    ],
    [
      "बद",
      "लामे</w>"
    ],
    [
      "क्ष",
      "्"
    ],
    [
      "वि",
      "ल"
    ],
    [
      "ली",
      "सँ</w>"
    ],
    [
      "लिख",
      "ने</w>"
    ],
    [
      "प्",
      "प</w>"
    ],
    [
      "क",
      "्य</w>"
    ],
    [
      "कंप",
      "नी</w>"
    ],
    [
      "टि",
      "न</w>"
    ],
    [
      "प्र",
      "क्रिया</w>"
    ],
    [
      "अन्त",
      "र</w>"
    ],
    [
      "ने",
      "ह"
    ],
    [
      "ंड",
      "्रो"
    ],
    [
      "हिसाब",
      "सँ</w>"
    ],
    [
      "ति",
      "रु"
    ],
    [
      "सो",
      "झा"
    ],
    [
      "ग्रह",
      "ण</w>"
    ],
    [
      "ला",
      "य"
    ],
    [
      "क्",
      "ता</w>"
    ],
    [
      "ग",
      "लक</w>"
    ],
    [
      "मार",
      "ी</w>"
    ],
    [
      "हस्ता",
      "क्ष"
    ],
    [
      "अभ",
      "यार"
    ],
    [
      "सा",
      "धन</w>"
    ],
    [
      "ना",
      "थ"
    ],
    [
      "भाष",
      "ा"
    ],
    [
      "औ",
      "र</w>"
    ],
    [
      "नी",
      "ल</w>"
    ],
    [
      "र",
      "वि"
    ],
    [
      "भा",
      "य</w>"
    ],
    [
      "स्थि",
      "र</w>"
    ],
    [
      "साइ",
      "किल</w>"
    ],
    [
      "प्रतियोगि",
      "तामे</w>"
    ],
    [
      "दो",
      "ष"
    ],
    [
      "कर",
      "ै</w>"
    ],
    [
      "पै",
      "रा"
    ],
    [
      "उत्तर",
      "दा"
    ],
    [
      "अ",
      "दा"
    ],
    [
      "स",
      "िया"
    ],
    [
      "समू",
      "हमे</w>"
    ],
    [
      "प्रमा",
      "ण</w>"
    ],
    [
      "पा",
      "छू</w>"
    ],
    [
      "निकल",
      "ैत</w>"
    ],
    [
      "ड",
      ",</w>"
    ],
    [
      "अभयार",
      "ण"
    ],
    [
      "अं",
      "त"
    ],
    [
      "आ",
      "ई</w>"
    ],
    [
      "री",
      "केँ</w>"
    ],
    [
      "स",
      "त्र</w>"
    ],
    [
      "क",
      "पर</w>"
    ],
    [
      "सङ्गठ",
      "न</w>"
    ],
    [
      "अपि",
      "तु</w>"
    ],
    [
      "ब्",
      "लि"
    ],
    [
      "ड्रा",
      "इ"
    ],
    [
      "जे",
      "हन</w>"
    ],
    [
      "रा",
      "ग</w>"
    ],
    [
      "सङ्",
      "क्रम"
    ],
    [
      "म्",
      "मा</w>"
    ],
    [
      "परिव",
      "हन</w>"
    ],
    [
      "निर्मा",
      "णक</w>"
    ],
    [
      "न्",
      "सक</w>"
    ],
    [
      "क",
      "वि"
    ],
    [
      "२०२",
      "१</w>"
    ],
    [
      "इतिहा",
      "समे</w>"
    ],
    [
      "से",
      "वाक</w>"
    ],
    [
      "टी",
      ".</w>"
    ],
    [
      "क",
      "मी"
    ],
    [
      "प्रो",
      "टी"
    ],
    [
      "र",
      "गा"
    ],
    [
      "वा",
      "हन</w>"
    ],
    [
      "ड़ी",
      "मे</w>"
    ],
    [
      "इ",
      "लेक्"
    ],
    [
      "हि",
      ",</w>"
    ],
    [
      "साम",
      "ग्री</w>"
    ],
    [
      "वा",
      "यु"
    ],
    [
      "विस्त",
      "ृत</w>"
    ],
    [
      "सर्वो",
      "च्"
    ],
    [
      "वन",
      "स्प"
    ],
    [
      "ं",
      "च</w>"
    ],
    [
      "ठा",
      "ढ़</w>"
    ],
    [
      "ओ",
      ".</w>"
    ],
    [
      "खा",
      "ता</w>"
    ],
    [
      "मा",
      "म"
    ],
    [
      "प्रोत्सा",
      "हित</w>"
    ],
    [
      "मॉड",
      "ल</w>"
    ],
    [
      "फ्रां",
      "सक</w>"
    ],
    [
      "े",
      "मे</w>"
    ],
    [
      "गर",
      "म</w>"
    ],
    [
      "नारा",
      "य"
    ],
    [
      "रे",
      "-"
    ],
    [
      "अभिया",
      "न</w>"
    ],
    [
      "ब",
      "ड़</w>"
    ],
    [
      "सुल्",
      "तान</w>"
    ],
    [
      "म",
      "त</w>"
    ],
    [
      "कोशि",
      "का</w>"
    ],
    [
      ".",
      "वी"
    ],
    [
      "बी",
      "मा</w>"
    ],
    [
      "म्",
      "बा"
    ],
    [
      "र",
      "ता</w>"
    ],
    [
      "क",
      "ताक</w>"
    ],
    [
      "पश्चा",
      "त</w>"
    ],
    [
      "नो",
      "क"
    ],
    [
      "पा",
      "उ"
    ],
    [
      "समृ",
      "द्ध</w>"
    ],
    [
      "धी",
      "रे</w>"
    ],
    [
      "गिर",
      "फ्"
    ],
    [
      "हो",
      "बयवला</w>"
    ],
    [
      "छ",
      "न्हि।</w>"
    ],
    [
      "गु",
      "ना</w>"
    ],
    [
      "न",
      "सभ</w>"
    ],
    [
      "घे",
      "रा"
    ],
    [
      "कु",
      "कु"
    ],
    [
      "श",
      "य</w>"
    ],
    [
      "स",
      "िया</w>"
    ],
    [
      "ग",
      ",</w>"
    ],
    [
      "दुर्",
      "लभ</w>"
    ],
    [
      "प्",
      "त"
    ],
    [
      "भ",
      "s</w>"
    ],
    [
      "सङ्ख्या",
      "मे</w>"
    ],
    [
      "अ",
      "का"
    ],
    [
      "न",
      "सभक</w>"
    ],
    [
      "ता",
      "पूर्वक</w>"
    ],
    [
      "ख",
      "ी</w>"
    ],
    [
      "जा",
      "त</w>"
    ],
    [
      "नव",
      "म्ब"
    ],
    [
      "पूर्",
      "वो"
    ],
    [
      "लैंड",
      "मे</w>"
    ],
    [
      "नदी",
      "मे</w>"
    ],
    [
      "प्रचल",
      "ित</w>"
    ],
    [
      "ब",
      "े</w>"
    ],
    [
      "मन्दि",
      "रमे</w>"
    ],
    [
      "स",
      "-"
    ],
    [
      "फाइन",
      "लमे</w>"
    ],
    [
      "प्रत्य",
      "क्ष</w>"
    ],
    [
      "गु",
      "ला"
    ],
    [
      "उत्तरा",
      "धि"
    ],
    [
      "अ",
      "ल</w>"
    ],
    [
      "प्रा",
      "न्त</w>"
    ],
    [
      "ह",
      "जार"
    ],
    [
      "पड़",
      "ल</w>"
    ],
    [
      "ग",
      "ृ"
    ],
    [
      "रह",
      "थि</w>"
    ],
    [
      "संरक्ष",
      "ित</w>"
    ],
    [
      "ना",
      "गा"
    ],
    [
      "स्टा",
      "र</w>"
    ],
    [
      "ति",
      "थि</w>"
    ],
    [
      "२",
      "-"
    ],
    [
      "ज",
      "ना"
    ],
    [
      "पाकिस्ता",
      "नक</w>"
    ],
    [
      "छा",
      "त्र</w>"
    ],
    [
      "ड",
      "ेल्"
    ],
    [
      "थ",
      "ि,</w>"
    ],
    [
      "क्रे",
      "डि"
    ],
    [
      "े",
      "श</w>"
    ],
    [
      "ना",
      "मित</w>"
    ],
    [
      "य",
      "ी"
    ],
    [
      "वर्",
      "ड</w>"
    ],
    [
      "ओ",
      "लोकनि</w>"
    ],
    [
      "कपड़",
      "ा</w>"
    ],
    [
      "ब्रा",
      "ह्म"
    ],
    [
      "१",
      "-"
    ],
    [
      "ई",
      "स्ट</w>"
    ],
    [
      "स",
      "लाह</w>"
    ],
    [
      "बा",
      "ज</w>"
    ],
    [
      "ई",
      "क</w>"
    ],
    [
      "इतिहा",
      "स"
    ],
    [
      "प",
      "ल"
    ],
    [
      "म",
      "त"
    ],
    [
      "रोक",
      "बाक</w>"
    ],
    [
      "पो",
      "लो</w>"
    ],
    [
      "ल्",
      "टी</w>"
    ],
    [
      "य",
      "हू"
    ],
    [
      "ग",
      "म</w>"
    ],
    [
      "वस्",
      "त्र</w>"
    ],
    [
      "जिन",
      "का</w>"
    ],
    [
      "दवा",
      "इ</w>"
    ],
    [
      "उप",
      "महा"
    ],
    [
      "बाह",
      "री</w>"
    ],
    [
      "मुख्या",
      "लय</w>"
    ],
    [
      "रो",
      "क</w>"
    ],
    [
      "संक्रम",
      "ण</w>"
    ],
    [
      "मूर्",
      "ति</w>"
    ],
    [
      "लक्ष",
      "्"
    ],
    [
      "उ",
      "र्"
    ],
    [
      "पा",
      "लक</w>"
    ],
    [
      "उपरा",
      "न्त</w>"
    ],
    [
      "सि",
      "न्ध"
    ],
    [
      "राज",
      "मार्ग</w>"
    ],
    [
      "रह",
      "त।</w>"
    ],
    [
      "थ",
      "्र"
    ],
    [
      "सर्वोच्",
      "च</w>"
    ],
    [
      "बहि",
      "न</w>"
    ],
    [
      "खर",
      "चा</w>"
    ],
    [
      "बङ्गा",
      "लक</w>"
    ],
    [
      "क",
      "प्ता"
    ],
    [
      "सङ्ग",
      ",</w>"
    ],
    [
      "ए",
      "ंड"
    ],
    [
      "ि",
      "कऽ</w>"
    ],
    [
      "प्रबन्ध",
      "न</w>"
    ],
    [
      "ली",
      "गक</w>"
    ],
    [
      "न्द",
      "ा</w>"
    ],
    [
      "भिन्न",
      "-भिन्न</w>"
    ],
    [
      "वि",
      "ष्"
    ],
    [
      "ञ्",
      "च"
    ],
    [
      "गेल",
      "ाक</w>"
    ],
    [
      "चल",
      "ल</w>"
    ],
    [
      "दौ",
      "ड़"
    ],
    [
      "ला",
      "ख"
    ],
    [
      "पठा",
      "ओल</w>"
    ],
    [
      "श",
      "ौ"
    ],
    [
      "सु",
      "ग्"
    ],
    [
      "२",
      ","
    ],
    [
      "शरी",
      "रक</w>"
    ],
    [
      "माइक्रोसॉफ्",
      "ट</w>"
    ],
    [
      "विण्डो",
      "ज</w>"
    ],
    [
      "१९",
      "म</w>"
    ],
    [
      "अदा",
      "ल"
    ],
    [
      "फ",
      "क</w>"
    ],
    [
      "ह",
      "रिया"
    ],
    [
      "श",
      "िय"
    ],
    [
      "२",
      "केँ</w>"
    ],
    [
      "ग",
      "प्प</w>"
    ],
    [
      "व",
      "ेल्"
    ],
    [
      "कार",
      "केँ</w>"
    ],
    [
      "कठ",
      "ोर</w>"
    ],
    [
      "द्र",
      "</w>"
    ],
    [
      "पाँच",
      "म</w>"
    ],
    [
      "आर",
      ".</w>"
    ],
    [
      "स्",
      "क्"
    ],
    [
      "श",
      "रा"
    ],
    [
      "शतरञ्",
      "ज</w>"
    ],
    [
      "सू",
      "र्"
    ],
    [
      "एखन",
      "ो</w>"
    ],
    [
      "२०१",
      "७"
    ],
    [
      "गल",
      "त</w>"
    ],
    [
      "परम्प",
      "राक</w>"
    ],
    [
      "अशो",
      "क</w>"
    ],
    [
      "ं",
      "क"
    ],
    [
      "संरक्ष",
      "ण</w>"
    ],
    [
      "जहा",
      "ज</w>"
    ],
    [
      "मा",
      ",</w>"
    ],
    [
      "स्ता",
      "न</w>"
    ],
    [
      "बा",
      "तक</w>"
    ],
    [
      "वि",
      "लिय"
    ],
    [
      "आँख",
      "ि</w>"
    ],
    [
      "टा",
      "का</w>"
    ],
    [
      "द",
      "ाक</w>"
    ],
    [
      "प",
      ",</w>"
    ],
    [
      "आय",
      "ल।</w>"
    ],
    [
      "स",
      "िलि"
    ],
    [
      "विपरी",
      "त</w>"
    ],
    [
      "घट",
      "ना"
    ],
    [
      "बा",
      "त"
    ],
    [
      "ठ",
      "े"
    ],
    [
      "बे",
      "ड"
    ],
    [
      "सम्",
      "मेल"
    ],
    [
      "गोल",
      "की"
    ],
    [
      "मे",
      "घा"
    ],
    [
      "बद",
      "ला"
    ],
    [
      "श्रृ",
      "ंख"
    ],
    [
      "टि",
      "स</w>"
    ],
    [
      "ओलंप",
      "िक</w>"
    ],
    [
      "ता",
      "ल</w>"
    ],
    [
      "पड़",
      "त।</w>"
    ],
    [
      "खि",
      "न</w>"
    ],
    [
      "एशिया",
      "इ</w>"
    ],
    [
      "प्र",
      "देशमे</w>"
    ],
    [
      "१९८",
      "०</w>"
    ],
    [
      "बी",
      "चक</w>"
    ],
    [
      "नि",
      "शा"
    ],
    [
      "सा",
      "ह"
    ],
    [
      "बै",
      "क्"
    ],
    [
      "बिक्र",
      "ी</w>"
    ],
    [
      "कै",
      "ले"
    ],
    [
      "सुझा",
      "व</w>"
    ],
    [
      "ड",
      "्"
    ],
    [
      "िल",
      "ी"
    ],
    [
      "प्रभ",
      "ृत</w>"
    ],
    [
      "ब",
      "रि</w>"
    ],
    [
      "घ",
      "न</w>"
    ],
    [
      "सक",
      "य</w>"
    ],
    [
      "स्ट",
      "ू"
    ],
    [
      "आ",
      "यर"
    ],
    [
      "प्रसार",
      "ित</w>"
    ],
    [
      "अने",
      "को</w>"
    ],
    [
      "डा",
      "य"
    ],
    [
      "जी",
      "वा"
    ],
    [
      "उ",
      "म्"
    ],
    [
      "प",
      "तिक</w>"
    ],
    [
      "ता",
      "क"
    ],
    [
      "पू",
      "छ"
    ],
    [
      "म",
      "ल्"
    ],
    [
      "ंड",
      "क</w>"
    ],
    [
      "जा",
      "धरि</w>"
    ],
    [
      "अप",
      "नाकेँ</w>"
    ],
    [
      "उप",
      "हार</w>"
    ],
    [
      "हि",
      "ं"
    ],
    [
      "खू",
      "ब</w>"
    ],
    [
      "जुला",
      "ई</w>"
    ],
    [
      "सम",
      "ग्र</w>"
    ],
    [
      "व",
      "श</w>"
    ],
    [
      "2",
      "0"
    ],
    [
      "न",
      "वी"
    ],
    [
      "खस",
      "ि</w>"
    ],
    [
      "मे",
      "ं"
    ],
    [
      "च",
      "ण्ड"
    ],
    [
      "अनु",
      "प"
    ],
    [
      "हा",
      "नि</w>"
    ],
    [
      "टी",
      "का"
    ],
    [
      "गु",
      "रु"
    ],
    [
      "मान",
      "ब</w>"
    ],
    [
      "ा",
      "त्मक</w>"
    ],
    [
      ".",
      "५</w>"
    ],
    [
      "ू",
      "क</w>"
    ],
    [
      "वा",
      "मे</w>"
    ],
    [
      "जीत",
      "ल</w>"
    ],
    [
      "ग",
      "प</w>"
    ],
    [
      "भेल",
      "नि।</w>"
    ],
    [
      "वै",
      "दिक</w>"
    ],
    [
      "ख",
      "ण्ड</w>"
    ],
    [
      "पर्व",
      "त"
    ],
    [
      "प",
      "द्ध"
    ],
    [
      "ध",
      "िया"
    ],
    [
      "रिपोर्",
      "ट</w>"
    ],
    [
      "गे",
      "न्द</w>"
    ],
    [
      "बन्द",
      "रगा"
    ],
    [
      "कॉले",
      "ज</w>"
    ],
    [
      "खिला",
      "ड़ी</w>"
    ],
    [
      "मा",
      "ंस"
    ],
    [
      "स्ट्र",
      "ो"
    ],
    [
      "मन",
      "बैत</w>"
    ],
    [
      "कै",
      "न्"
    ],
    [
      "गा",
      "ममे</w>"
    ],
    [
      "मी",
      "ल</w>"
    ],
    [
      "मात्र",
      "ामे</w>"
    ],
    [
      "घु",
      "रि</w>"
    ],
    [
      "स्",
      "तक</w>"
    ],
    [
      "सं",
      "रच"
    ],
    [
      "सप्ता",
      "हक</w>"
    ],
    [
      "निर",
      "न्तर</w>"
    ],
    [
      "यात्र",
      "ाक</w>"
    ],
    [
      "घु",
      "म"
    ],
    [
      "१८",
      "५"
    ],
    [
      "के",
      "लक</w>"
    ],
    [
      "क्",
      "लि"
    ],
    [
      "करै",
      "वला</w>"
    ],
    [
      "नेतृ",
      "त्वमे</w>"
    ],
    [
      "को",
      "ठ"
    ],
    [
      "४",
      "०"
    ],
    [
      "ने",
      "स</w>"
    ],
    [
      "रह",
      "य</w>"
    ],
    [
      "विस्",
      "फो"
    ],
    [
      "सी",
      "ट</w>"
    ],
    [
      "सॉफ्टवे",
      "यर</w>"
    ],
    [
      "डे",
      "मो"
    ],
    [
      "संक्रम",
      "ित</w>"
    ],
    [
      "ं",
      "त</w>"
    ],
    [
      "खेला",
      "ड़ीक</w>"
    ],
    [
      "बो",
      "र्ड"
    ],
    [
      "टा",
      "केँ</w>"
    ],
    [
      "झ",
      "ो"
    ],
    [
      "गी",
      "त"
    ],
    [
      "पर्य",
      "टन</w>"
    ],
    [
      "वि",
      "विध"
    ],
    [
      "डि",
      "स्"
    ],
    [
      "ं",
      "गा"
    ],
    [
      "पो",
      "षण</w>"
    ],
    [
      "ब्र",
      "ो"
    ],
    [
      "ख",
      "र</w>"
    ],
    [
      "सफल",
      "ता</w>"
    ],
    [
      "आलोच",
      "ना</w>"
    ],
    [
      "टे",
      "स्ट</w>"
    ],
    [
      "त्र",
      "ु"
    ],
    [
      "टी",
      "वी</w>"
    ],
    [
      "चर",
      "णमे</w>"
    ],
    [
      "अला",
      "उद्"
    ],
    [
      "बी",
      ".</w>"
    ],
    [
      "चै",
      "ंप"
    ],
    [
      "सि",
      "ंड्रो"
    ],
    [
      "त",
      "त्व</w>"
    ],
    [
      "िय",
      "ो</w>"
    ],
    [
      "ञ्",
      "ज"
    ],
    [
      "कथ",
      "ाक</w>"
    ],
    [
      "हस्ताक्ष",
      "र</w>"
    ],
    [
      "प्रशास",
      "निक</w>"
    ],
    [
      "मिल",
      "ि</w>"
    ],
    [
      "है",
      "दरा"
    ],
    [
      "देखभा",
      "ल</w>"
    ],
    [
      "कह",
      "ल"
    ],
    [
      "सभ",
      "ाक</w>"
    ],
    [
      "तुल",
      "ना</w>"
    ],
    [
      "चा",
      "लु"
    ],
    [
      "फ",
      "ेल"
    ],
    [
      "द",
      ",</w>"
    ],
    [
      "मै",
      "सू"
    ],
    [
      "सर",
      "सँ</w>"
    ],
    [
      "कृष्",
      "ण</w>"
    ],
    [
      "दर्",
      "शन</w>"
    ],
    [
      "बत",
      "बैत</w>"
    ],
    [
      "क",
      "क्ष"
    ],
    [
      "उद्या",
      "न</w>"
    ],
    [
      "के",
      "श</w>"
    ],
    [
      "न",
      "स</w>"
    ],
    [
      "द",
      "स्ता"
    ],
    [
      "ड",
      "ो</w>"
    ],
    [
      "ली",
      "गमे</w>"
    ],
    [
      "घ",
      "ु</w>"
    ],
    [
      "कारण",
      "सँ</w>"
    ],
    [
      "मांस",
      "पे"
    ],
    [
      "आन",
      "न्द"
    ],
    [
      "टि",
      "ंग</w>"
    ],
    [
      "च",
      "ला"
    ],
    [
      "गतिवि",
      "धि</w>"
    ],
    [
      "लै",
      "क।</w>"
    ],
    [
      "नाम",
      "पर</w>"
    ],
    [
      "ग",
      "केँ</w>"
    ],
    [
      "त्",
      "ता"
    ],
    [
      "वि",
      "वि"
    ],
    [
      "वास्त",
      "े</w>"
    ],
    [
      "बनौ",
      "लनि।</w>"
    ],
    [
      "लक्ष",
      "ण"
    ],
    [
      "कै",
      "</w>"
    ],
    [
      "अहाँ",
      "के</w>"
    ],
    [
      "कु",
      "श्"
    ],
    [
      "ट",
      "नक</w>"
    ],
    [
      "ब",
      "्या"
    ],
    [
      "हे",
      "म"
    ],
    [
      "भ",
      "ण्ड"
    ],
    [
      "अर्",
      "जित</w>"
    ],
    [
      "हि",
      "माल"
    ],
    [
      "री",
      "सँ</w>"
    ],
    [
      "क्",
      "वी"
    ],
    [
      "य",
      "े"
    ],
    [
      "सक",
      "ल</w>"
    ],
    [
      "दीर्",
      "घ"
    ],
    [
      "म",
      "शी"
    ],
    [
      "शक्ति",
      "शाली</w>"
    ],
    [
      "ह",
      "ट"
    ],
    [
      "मो",
      "बाइ"
    ],
    [
      "वं",
      "श"
    ],
    [
      "सं",
      "बं"
    ],
    [
      "बचा",
      "व</w>"
    ],
    [
      "गवर्",
      "नर</w>"
    ],
    [
      "वं",
      "शक</w>"
    ],
    [
      "रह",
      "लाह</w>"
    ],
    [
      "बॉ",
      "लीवु"
    ],
    [
      "कम",
      "ीक</w>"
    ],
    [
      "राज",
      "पू"
    ],
    [
      "दर्",
      "शक</w>"
    ],
    [
      "रे",
      "ख"
    ],
    [
      "उत्",
      "पत्ति</w>"
    ],
    [
      "२०१",
      "६"
    ],
    [
      "\"",
      "क</w>"
    ],
    [
      "श्",
      "वे"
    ],
    [
      "फिल्म",
      "फे"
    ],
    [
      "दर",
      "ब"
    ],
    [
      "टा",
      "मे</w>"
    ],
    [
      "स्त",
      "रक</w>"
    ],
    [
      "ठ",
      "ो"
    ],
    [
      "प्रति",
      "क्र"
    ],
    [
      "सा",
      "फ</w>"
    ],
    [
      "फी",
      "ट</w>"
    ],
    [
      "च",
      "यन</w>"
    ],
    [
      "ता",
      "हि</w>"
    ],
    [
      "रि",
      "प"
    ],
    [
      "डेमो",
      "क्रे"
    ],
    [
      "वा",
      "प"
    ],
    [
      "ती",
      "मे</w>"
    ],
    [
      "शास",
      "नक</w>"
    ],
    [
      "द",
      "ल"
    ],
    [
      "श",
      "न"
    ],
    [
      "मल",
      "याल"
    ],
    [
      "ड़",
      "ल</w>"
    ],
    [
      "रा",
      "व"
    ],
    [
      "प्रका",
      "श</w>"
    ],
    [
      "ट",
      "िल"
    ],
    [
      "पूर्वो",
      "त्तर</w>"
    ],
    [
      "फा",
      "उ"
    ],
    [
      "सा",
      "य"
    ],
    [
      "सन्दर्भ",
      "ित</w>"
    ],
    [
      "सं",
      "शो"
    ],
    [
      "शा",
      "सक"
    ],
    [
      "सर्",
      "वे"
    ],
    [
      "एश",
      "ियाक</w>"
    ],
    [
      "कि",
      "मी</w>"
    ],
    [
      "वि",
      "रा"
    ],
    [
      "त्या",
      "ग"
    ],
    [
      "ग्र",
      "ीक</w>"
    ],
    [
      "चार",
      "ू</w>"
    ],
    [
      "न",
      "ीय</w>"
    ],
    [
      "तूफा",
      "न</w>"
    ],
    [
      "उदाहर",
      "णक</w>"
    ],
    [
      "ई",
      "मे</w>"
    ],
    [
      "सं",
      "गीत</w>"
    ],
    [
      "क्ष",
      "ति"
    ],
    [
      "त",
      "खन"
    ],
    [
      "सम",
      "यसँ</w>"
    ],
    [
      "प्रार्थ",
      "ना</w>"
    ],
    [
      "१",
      "१"
    ],
    [
      "एन",
      ".</w>"
    ],
    [
      "कर",
      "ण"
    ],
    [
      "सेल्",
      "सिय"
    ],
    [
      "ब्",
      "लॉ"
    ],
    [
      "१९९",
      "०</w>"
    ],
    [
      "बन",
      "बाक</w>"
    ],
    [
      "पु",
      "स्त"
    ],
    [
      "्य",
      "ा</w>"
    ],
    [
      "शिला",
      "लेख"
    ],
    [
      "मा",
      "सिक</w>"
    ],
    [
      "खि",
      "स्"
    ],
    [
      "वा",
      "ल</w>"
    ],
    [
      "२००",
      "५</w>"
    ],
    [
      "अनु",
      "ष्ठा"
    ],
    [
      "जे",
      "बाक</w>"
    ],
    [
      "च",
      "ेक</w>"
    ],
    [
      "क्ष",
      "य</w>"
    ],
    [
      "राज",
      "ाक</w>"
    ],
    [
      "क्रेडि",
      "ट</w>"
    ],
    [
      "ु",
      "मे</w>"
    ],
    [
      "उपयोग",
      "क</w>"
    ],
    [
      "जा",
      "न</w>"
    ],
    [
      "व्यव",
      "स्थित</w>"
    ],
    [
      "मि",
      "स"
    ],
    [
      "मा",
      "समे</w>"
    ],
    [
      "उत्पा",
      "दक</w>"
    ],
    [
      "दे",
      "त।</w>"
    ],
    [
      "भाग",
      "ि</w>"
    ],
    [
      "विवा",
      "हक</w>"
    ],
    [
      "अं",
      "तर"
    ],
    [
      "अ",
      "स्ति"
    ],
    [
      "मण्ड",
      "ल</w>"
    ],
    [
      "प्री",
      "म"
    ],
    [
      "बा",
      "यो"
    ],
    [
      "द",
      "केँ</w>"
    ],
    [
      "सं",
      "स्थाप"
    ],
    [
      "मूल",
      "्या"
    ],
    [
      "निरा",
      "श</w>"
    ],
    [
      "पहिर",
      "ैत</w>"
    ],
    [
      "औप",
      "चारिक</w>"
    ],
    [
      "चुना",
      "वमे</w>"
    ],
    [
      "ज",
      "रू"
    ],
    [
      "बै",
      "ंक</w>"
    ],
    [
      "एम",
      ".</w>"
    ],
    [
      "बै",
      "ं"
    ],
    [
      "फे",
      "फ"
    ],
    [
      "पु",
      "रमे</w>"
    ],
    [
      "मिल",
      "ाक</w>"
    ],
    [
      "उ",
      "न्"
    ],
    [
      "जौ",
      "ं</w>"
    ],
    [
      "जु",
      "क</w>"
    ],
    [
      "पस",
      "रि</w>"
    ],
    [
      "स",
      "न्त</w>"
    ],
    [
      "अव",
      "धिक</w>"
    ],
    [
      "तेलु",
      "गु</w>"
    ],
    [
      "स्वयं",
      "केँ</w>"
    ],
    [
      "आउ",
      "ट</w>"
    ],
    [
      "क्",
      "टो"
    ],
    [
      "पहिने",
      "सँ</w>"
    ],
    [
      "सङ्",
      "ख्याक</w>"
    ],
    [
      "गुजरा",
      "त</w>"
    ],
    [
      "पा",
      "त्र</w>"
    ],
    [
      "है",
      "दर</w>"
    ],
    [
      "गु",
      "फा"
    ],
    [
      "च्छ",
      "</w>"
    ],
    [
      "लि",
      "का</w>"
    ],
    [
      "ट्र",
      "ैक</w>"
    ],
    [
      "ओलम्पि",
      "कमे</w>"
    ],
    [
      "पे",
      "न"
    ],
    [
      "छ",
      "ठम</w>"
    ],
    [
      "न्यू",
      "जी"
    ],
    [
      "घा",
      "तक</w>"
    ],
    [
      "हृद",
      "य</w>"
    ],
    [
      "रक्त",
      "स्रा"
    ],
    [
      "खु",
      "जल</w>"
    ],
    [
      "अनु",
      "कू"
    ],
    [
      "श्रे",
      "य</w>"
    ],
    [
      "क्",
      "शन</w>"
    ],
    [
      "च",
      "तु"
    ],
    [
      "ती",
      "व"
    ],
    [
      "तीव",
      "्र</w>"
    ],
    [
      "्र",
      "ु"
    ],
    [
      "आग",
      "ि</w>"
    ],
    [
      "ता",
      "त्"
    ],
    [
      "रा",
      "मे</w>"
    ],
    [
      "त",
      "न"
    ],
    [
      "व",
      "ती</w>"
    ],
    [
      "नि",
      "वास</w>"
    ],
    [
      "अ",
      "हम"
    ],
    [
      "अका",
      "द"
    ],
    [
      "ल",
      "ू</w>"
    ],
    [
      "अध",
      "लाह</w>"
    ],
    [
      "बूझ",
      "ल</w>"
    ],
    [
      "रो",
      "मन</w>"
    ],
    [
      "र",
      "त</w>"
    ],
    [
      "२",
      "५"
    ],
    [
      "से",
      "नाकेँ</w>"
    ],
    [
      "टि",
      "कट</w>"
    ],
    [
      "ता",
      "सभक</w>"
    ],
    [
      "सु",
      "रू"
    ],
    [
      "बि",
      "न</w>"
    ],
    [
      "२००",
      "१</w>"
    ],
    [
      "बैण्ड",
      "ी</w>"
    ],
    [
      "फी",
      "ल्ड</w>"
    ],
    [
      "बच",
      "बाक</w>"
    ],
    [
      "मि",
      "जो"
    ],
    [
      "घ",
      "ू"
    ],
    [
      "न",
      "रक</w>"
    ],
    [
      "१",
      "क</w>"
    ],
    [
      "सं",
      "रचना</w>"
    ],
    [
      "किछु",
      "ए</w>"
    ],
    [
      "कार्",
      "यालय</w>"
    ],
    [
      "जे",
      ",</w>"
    ],
    [
      "८",
      "क</w>"
    ],
    [
      "अर्",
      "ध"
    ],
    [
      "ग्र",
      "ै"
    ],
    [
      "क्र",
      "ू"
    ],
    [
      "बै",
      "स"
    ],
    [
      "जोड़",
      "ैत</w>"
    ],
    [
      "उ",
      "म"
    ],
    [
      "ठ",
      "ी"
    ],
    [
      "वि",
      "भाग</w>"
    ],
    [
      "नि",
      "दान</w>"
    ],
    [
      ".",
      "के"
    ],
    [
      "उपयोग",
      "ी</w>"
    ],
    [
      "चिकित्",
      "सा"
    ],
    [
      "पु",
      "ण"
    ],
    [
      "लि",
      "ङ्ग</w>"
    ],
    [
      "मा",
      "लिक</w>"
    ],
    [
      "आ",
      "न्ध"
    ],
    [
      "करो",
      "ड़</w>"
    ],
    [
      "आरम्भ",
      "िक</w>"
    ],
    [
      "ता",
      "ब</w>"
    ],
    [
      "आन्दो",
      "ल"
    ],
    [
      "च्",
      "छा"
    ],
    [
      "ण",
      "ित</w>"
    ],
    [
      "जापा",
      "नक</w>"
    ],
    [
      "ता",
      "ह</w>"
    ],
    [
      "पदार्थ",
      "क</w>"
    ],
    [
      "कानू",
      "नक</w>"
    ],
    [
      "जमी",
      "न</w>"
    ],
    [
      "जापा",
      "न</w>"
    ],
    [
      "र",
      "सभक</w>"
    ],
    [
      "जल",
      "वायु</w>"
    ],
    [
      "क्",
      "का</w>"
    ],
    [
      "छल",
      "ै।</w>"
    ],
    [
      "रे",
      "खा</w>"
    ],
    [
      "बज",
      "ट</w>"
    ],
    [
      "अपे",
      "क्षा"
    ],
    [
      "पू",
      "</w>"
    ],
    [
      "ध",
      "ीय</w>"
    ],
    [
      "पा",
      "द"
    ],
    [
      "य",
      "-"
    ],
    [
      "वेद",
      "न"
    ],
    [
      "वायर",
      "स</w>"
    ],
    [
      "न",
      "कारात्मक</w>"
    ],
    [
      "का",
      "ज"
    ],
    [
      ".ए",
      "च"
    ],
    [
      "२००",
      "४</w>"
    ],
    [
      "म",
      "िया</w>"
    ],
    [
      "शे",
      "यर</w>"
    ],
    [
      "यू",
      ".</w>"
    ],
    [
      "ज",
      "तऽ</w>"
    ],
    [
      "व",
      "रि"
    ],
    [
      "आ",
      "नु"
    ],
    [
      "शासन",
      "कालमे</w>"
    ],
    [
      "ंग",
      ",</w>"
    ],
    [
      "मा",
      "मिलाक</w>"
    ],
    [
      "प्रती",
      "क्षा</w>"
    ],
    [
      "मे",
      "।</w>"
    ],
    [
      "ठ",
      "क</w>"
    ],
    [
      "समुदा",
      "यक</w>"
    ],
    [
      "सिने",
      "मा"
    ],
    [
      "इण्ड",
      "िया</w>"
    ],
    [
      "काल्",
      "हि</w>"
    ],
    [
      "रे",
      "डियो</w>"
    ],
    [
      "भो",
      "जनक</w>"
    ],
    [
      "जे",
      "ना,</w>"
    ],
    [
      "कि",
      "न</w>"
    ],
    [
      "२०१",
      "४"
    ],
    [
      "अ",
      "ग्"
    ],
    [
      "क",
      "ैत</w>"
    ],
    [
      "चिन्",
      "ता</w>"
    ],
    [
      "वे",
      "स्ट</w>"
    ],
    [
      "ब",
      "ि</w>"
    ],
    [
      "कह",
      "लक</w>"
    ],
    [
      "चि",
      "न्ह"
    ],
    [
      "ऑफि",
      "स</w>"
    ],
    [
      "बा",
      "जल</w>"
    ],
    [
      "शु",
      "ष्"
    ],
    [
      "दे",
      "ह</w>"
    ],
    [
      "ष",
      "णक</w>"
    ],
    [
      "न",
      "ॉर्"
    ],
    [
      "एसो",
      "सिए"
    ],
    [
      "ए",
      "लि"
    ],
    [
      "उत्स",
      "वक</w>"
    ],
    [
      "तरी",
      "कासँ</w>"
    ],
    [
      "संस्",
      "कार</w>"
    ],
    [
      "प्रती",
      "त</w>"
    ],
    [
      "रह",
      "ी</w>"
    ],
    [
      "रा",
      "त्र"
    ],
    [
      "१",
      "सँ</w>"
    ],
    [
      "बाद",
      "ो</w>"
    ],
    [
      "ब्र",
      "ह्म"
    ],
    [
      "रा",
      "य"
    ],
    [
      "हिस्सा",
      "मे</w>"
    ],
    [
      "अक",
      "बर</w>"
    ],
    [
      "र",
      "ज"
    ],
    [
      "शी",
      "तकालीन</w>"
    ],
    [
      "फ्लो",
      "रि"
    ],
    [
      "छल",
      "हुँ।</w>"
    ],
    [
      "क",
      "s</w>"
    ],
    [
      "रो",
      "गी"
    ],
    [
      "गेल",
      "हुँ</w>"
    ],
    [
      "घ",
      "ृ"
    ],
    [
      "या",
      "न</w>"
    ],
    [
      "स",
      "त्रक</w>"
    ],
    [
      "सञ्",
      "चालन</w>"
    ],
    [
      "धार",
      "ी</w>"
    ],
    [
      "ग",
      "िक</w>"
    ],
    [
      "पु",
      "ल"
    ],
    [
      "जन",
      "रल</w>"
    ],
    [
      "१८",
      "६"
    ],
    [
      "दीर्",
      "घ</w>"
    ],
    [
      "कृ",
      "ष्ण"
    ],
    [
      "औ",
      "ष"
    ],
    [
      "पू",
      "ब</w>"
    ],
    [
      "शु",
      "रू"
    ],
    [
      "ार",
      ",</w>"
    ],
    [
      "ौ",
      "ने</w>"
    ],
    [
      "ऊर्",
      "जा</w>"
    ],
    [
      "च",
      "य</w>"
    ],
    [
      "दा",
      "नक</w>"
    ],
    [
      "पहिने",
      ",</w>"
    ],
    [
      "धी",
      "रे-"
    ],
    [
      "सिने",
      "मामे</w>"
    ],
    [
      "म",
      "सा"
    ],
    [
      "ध्या",
      "त्"
    ],
    [
      "उत्त",
      "राख"
    ],
    [
      "योज",
      "ित</w>"
    ],
    [
      "प्रस",
      "न्न</w>"
    ],
    [
      "ँ",
      "ग"
    ],
    [
      "वै",
      "ष्ण"
    ],
    [
      "लोकप्र",
      "िय"
    ],
    [
      "च",
      "केँ</w>"
    ],
    [
      "य",
      "क्ष"
    ],
    [
      "टी",
      "मकेँ</w>"
    ],
    [
      "शि",
      "व</w>"
    ],
    [
      "पौ",
      "रा"
    ],
    [
      "संस्",
      "कृति</w>"
    ],
    [
      "चि",
      "ड़"
    ],
    [
      "नि",
      "को"
    ],
    [
      "मै",
      "चक</w>"
    ],
    [
      "र्",
      "न</w>"
    ],
    [
      "अर्थ",
      "ा"
    ],
    [
      "इ",
      "ड</w>"
    ],
    [
      "पार्",
      "क</w>"
    ],
    [
      "इला",
      "ज</w>"
    ],
    [
      "सी",
      "ने"
    ],
    [
      "पू",
      "र"
    ],
    [
      "कनाड",
      "ाक</w>"
    ],
    [
      "अ",
      "स्थायी</w>"
    ],
    [
      "छल",
      "ै</w>"
    ],
    [
      "रे",
      "खा"
    ],
    [
      "गा",
      "ओल</w>"
    ],
    [
      "गङ्ग",
      "ा</w>"
    ],
    [
      "न्या",
      "याल"
    ],
    [
      "मी",
      "र</w>"
    ],
    [
      "न्",
      "दा"
    ],
    [
      "प",
      "केँ</w>"
    ],
    [
      "स्",
      "मृ"
    ],
    [
      "दू",
      "नू</w>"
    ],
    [
      "से",
      "ट</w>"
    ],
    [
      "श्",
      "विक</w>"
    ],
    [
      "पा",
      "ठ</w>"
    ],
    [
      "बु",
      "झा"
    ],
    [
      "चु",
      "नौ"
    ],
    [
      "ड",
      "च</w>"
    ],
    [
      "क्",
      "ट</w>"
    ],
    [
      "ज",
      "ंग"
    ],
    [
      "फर",
      "व"
    ],
    [
      "मृत्य",
      "ु"
    ],
    [
      ".",
      "मी"
    ],
    [
      "त्रि",
      "का</w>"
    ],
    [
      "रे",
      "क</w>"
    ],
    [
      "महाराष्ट्र",
      "</w>"
    ],
    [
      "कथ",
      "ित</w>"
    ],
    [
      "मै",
      "न"
    ],
    [
      "दा",
      "स</w>"
    ],
    [
      "सं",
      "स्थान</w>"
    ],
    [
      "सी",
      "मे</w>"
    ],
    [
      "बढ़",
      "ि</w>"
    ],
    [
      "पौरा",
      "णिक</w>"
    ],
    [
      "कीर्",
      "ति"
    ],
    [
      "क्षेत्र",
      "सँ</w>"
    ],
    [
      "वे",
      "दन</w>"
    ],
    [
      "निर्",
      "देश</w>"
    ],
    [
      "स्ट",
      "क</w>"
    ],
    [
      "व्या",
      "ख्या</w>"
    ],
    [
      "अनु",
      "शं"
    ],
    [
      "ड",
      "केँ</w>"
    ],
    [
      "बार",
      "मे</w>"
    ],
    [
      "संक्रम",
      "णक</w>"
    ],
    [
      "आ",
      "मद"
    ],
    [
      "ज",
      "टिल</w>"
    ],
    [
      "ना",
      "यक</w>"
    ],
    [
      "देल",
      "क,</w>"
    ],
    [
      "परि",
      "योजना</w>"
    ],
    [
      "मौ",
      "सम</w>"
    ],
    [
      "कर",
      "ी"
    ],
    [
      "प",
      "न"
    ],
    [
      "करा",
      "ओल</w>"
    ],
    [
      "४",
      "५</w>"
    ],
    [
      "छ",
      "वि</w>"
    ],
    [
      "बच",
      "ल</w>"
    ],
    [
      "बेल्",
      "जिय"
    ],
    [
      "न",
      "मू"
    ],
    [
      "दृष्टि",
      "को"
    ],
    [
      "मह",
      "ग</w>"
    ],
    [
      "कि",
      "क</w>"
    ],
    [
      "मो",
      "टा"
    ],
    [
      "स्थानान्त",
      "रित</w>"
    ],
    [
      "ट",
      ")</w>"
    ],
    [
      "ध",
      "रो"
    ],
    [
      "विधा",
      "न</w>"
    ],
    [
      "फ",
      "र</w>"
    ],
    [
      "चर्",
      "च</w>"
    ],
    [
      "ड",
      "ै"
    ],
    [
      "क",
      "बड्ड"
    ],
    [
      "िया",
      "केँ</w>"
    ],
    [
      "ण्ड",
      "र</w>"
    ],
    [
      "ग्रन्",
      "थ</w>"
    ],
    [
      "धीरे-",
      "धीरे</w>"
    ],
    [
      "मान",
      "सिक</w>"
    ],
    [
      "साम",
      "ने</w>"
    ],
    [
      "आघा",
      "तक</w>"
    ],
    [
      "नेटवर्",
      "क</w>"
    ],
    [
      "तट",
      "ीय</w>"
    ],
    [
      "-",
      "जेना</w>"
    ],
    [
      "ड्ड",
      "ी</w>"
    ],
    [
      "कल",
      "्या"
    ],
    [
      "सोझा",
      "ँ</w>"
    ],
    [
      "घण्",
      "टाक</w>"
    ],
    [
      "होय",
      "बासँ</w>"
    ],
    [
      "आ",
      "जुक</w>"
    ],
    [
      "मौ",
      "र्य</w>"
    ],
    [
      "मी",
      "मे</w>"
    ],
    [
      "सम्",
      "पत्"
    ],
    [
      "श",
      "िल्"
    ],
    [
      "२०२",
      "२</w>"
    ],
    [
      "दबा",
      "व</w>"
    ],
    [
      "स",
      "िल्"
    ],
    [
      "३",
      "५</w>"
    ],
    [
      "प",
      "ठा</w>"
    ],
    [
      "क्रम",
      "श"
    ],
    [
      "ची",
      "नक</w>"
    ],
    [
      "डि",
      "जि"
    ],
    [
      "दे",
      "बय</w>"
    ],
    [
      "ौ",
      "</w>"
    ],
    [
      "श",
      "मे</w>"
    ],
    [
      "फ्र",
      "ै"
    ],
    [
      "आ",
      "ध्यात्"
    ],
    [
      "बल्",
      "ले"
    ],
    [
      "म",
      "क"
    ],
    [
      "शिला",
      "लेख</w>"
    ],
    [
      "रे",
      "ड</w>"
    ],
    [
      "इ",
      "न"
    ],
    [
      "टी",
      "म"
    ],
    [
      "टी",
      "ममे</w>"
    ],
    [
      "वि",
      "फल</w>"
    ],
    [
      "समि",
      "ति</w>"
    ],
    [
      "वय",
      "स्क</w>"
    ],
    [
      "योज",
      "ना"
    ],
    [
      "वा",
      "शि"
    ],
    [
      "सी",
      "जन</w>"
    ],
    [
      "ड",
      "्रो"
    ],
    [
      "के",
      "लक।</w>"
    ],
    [
      "सह",
      "रक</w>"
    ],
    [
      "कृ",
      "ष्ट</w>"
    ],
    [
      "निम्",
      "न"
    ],
    [
      "स्ट",
      "ै"
    ],
    [
      "वर्ण",
      "ित</w>"
    ],
    [
      "सद",
      "ीक</w>"
    ],
    [
      "रि",
      "यल</w>"
    ],
    [
      "दौ",
      "रा</w>"
    ],
    [
      "ड़ी",
      "केँ</w>"
    ],
    [
      "औ",
      "सत"
    ],
    [
      "रु",
      "चि</w>"
    ],
    [
      "पाकिस्ता",
      "न</w>"
    ],
    [
      "गा",
      "न</w>"
    ],
    [
      "पे",
      "ं"
    ],
    [
      "फिल्मफे",
      "यर</w>"
    ],
    [
      "च",
      "कित</w>"
    ],
    [
      "६",
      "०"
    ],
    [
      "कर्",
      "नाट"
    ],
    [
      "बर्",
      "फ</w>"
    ],
    [
      "२०",
      "म</w>"
    ],
    [
      "सञ्",
      "चालित</w>"
    ],
    [
      "काउण्",
      "टीमे</w>"
    ],
    [
      "लै",
      "क्रो"
    ],
    [
      "भा",
      "र</w>"
    ],
    [
      "बा",
      "मा</w>"
    ],
    [
      "स्वतन्त्र",
      "ता</w>"
    ],
    [
      ".",
      "मे</w>"
    ],
    [
      "बढ़",
      "ल</w>"
    ],
    [
      "कए",
      "ने</w>"
    ],
    [
      "विद्रो",
      "ह</w>"
    ],
    [
      "ट्",
      "सक</w>"
    ],
    [
      "चो",
      "टक</w>"
    ],
    [
      "बर्",
      "ग</w>"
    ],
    [
      "आबा",
      "दी</w>"
    ],
    [
      "द",
      "रा</w>"
    ],
    [
      "व",
      "सँ</w>"
    ],
    [
      "प",
      "शु</w>"
    ],
    [
      "की",
      "नि</w>"
    ],
    [
      "ऊ",
      "प"
    ],
    [
      "श",
      "तीक</w>"
    ],
    [
      "३",
      "-"
    ],
    [
      "किय",
      "ैक</w>"
    ],
    [
      "होए",
      "बाक</w>"
    ],
    [
      "इ",
      ",</w>"
    ],
    [
      "वा",
      "हक</w>"
    ],
    [
      "झी",
      "लक</w>"
    ],
    [
      "वर्ष",
      "मे</w>"
    ],
    [
      "सी",
      "केँ</w>"
    ],
    [
      "ए",
      "ण्ड</w>"
    ],
    [
      "शिक्ष",
      "क</w>"
    ],
    [
      "वा",
      "णि"
    ],
    [
      "दौ",
      "रान</w>"
    ],
    [
      "य",
      "ू</w>"
    ],
    [
      "जि",
      "म्"
    ],
    [
      "औ",
      "द्यो"
    ],
    [
      "बन",
      "ओ"
    ],
    [
      "रू",
      "सी</w>"
    ],
    [
      "ल",
      "घु</w>"
    ],
    [
      "फी",
      "ल्ड"
    ],
    [
      "ग",
      "ृह"
    ],
    [
      "मुद्र",
      "ा</w>"
    ],
    [
      "खु",
      "ज"
    ],
    [
      "पदा",
      "र्प"
    ],
    [
      "ता",
      "नक</w>"
    ],
    [
      "ी",
      "सभक</w>"
    ],
    [
      "ज",
      "लक</w>"
    ],
    [
      "सू",
      "क्ष्"
    ],
    [
      "मह",
      "त्व</w>"
    ],
    [
      "परिष",
      "द</w>"
    ],
    [
      "फो",
      "र्ड</w>"
    ],
    [
      "शा",
      "ह"
    ],
    [
      "सिने",
      "माक</w>"
    ],
    [
      "अ",
      "सामान्य</w>"
    ],
    [
      "नी",
      "दर"
    ],
    [
      "श",
      "ो</w>"
    ],
    [
      "मिश्र",
      "ित</w>"
    ],
    [
      "अ",
      "वा"
    ],
    [
      "त्र",
      "ा"
    ],
    [
      "न",
      ")</w>"
    ],
    [
      "िया",
      "र</w>"
    ],
    [
      "बि",
      "ल</w>"
    ],
    [
      "नो",
      "-"
    ],
    [
      "सु",
      "पर"
    ],
    [
      "तक",
      "नीक</w>"
    ],
    [
      "समस्",
      "याक</w>"
    ],
    [
      "मे",
      "ंट</w>"
    ],
    [
      "२००",
      "२</w>"
    ],
    [
      "उम्",
      "मी"
    ],
    [
      "ै",
      "वला</w>"
    ],
    [
      "शि",
      "वि"
    ],
    [
      "आँख",
      "िक</w>"
    ],
    [
      "रिप",
      "ब्लि"
    ],
    [
      "गेल",
      "हुँ।</w>"
    ],
    [
      "एल",
      ".</w>"
    ],
    [
      "शृ",
      "ंख"
    ],
    [
      "लग",
      "यबाक</w>"
    ],
    [
      "विधा",
      "न"
    ],
    [
      "स",
      "टीक</w>"
    ],
    [
      "ँ",
      "ट"
    ],
    [
      "लाग",
      "त</w>"
    ],
    [
      "हो",
      "ब"
    ],
    [
      "तट",
      "पर</w>"
    ],
    [
      "ति",
      "ब्ब"
    ],
    [
      "ँ",
      "कि</w>"
    ],
    [
      "प्र",
      "को"
    ],
    [
      "विका",
      "सक</w>"
    ],
    [
      "सहम",
      "त</w>"
    ],
    [
      "खा",
      "नक</w>"
    ],
    [
      "हिस्",
      "साक</w>"
    ],
    [
      "लग",
      "पासक</w>"
    ],
    [
      "त्व",
      "चा</w>"
    ],
    [
      "शु",
      "द्ध</w>"
    ],
    [
      "भाग",
      "केँ</w>"
    ],
    [
      "बा",
      "उ"
    ],
    [
      "कि",
      "एक"
    ],
    [
      "भू",
      "त</w>"
    ],
    [
      "तै",
      "क।</w>"
    ],
    [
      "बै",
      "</w>"
    ],
    [
      "कै",
      "थो"
    ],
    [
      "मी",
      "टरक</w>"
    ],
    [
      "मेल",
      "ा</w>"
    ],
    [
      "ब",
      "जा"
    ],
    [
      "कद",
      "मा</w>"
    ],
    [
      "१९७",
      "०</w>"
    ],
    [
      "श",
      "िया</w>"
    ],
    [
      "रक्ष",
      "क</w>"
    ],
    [
      "ऑस्ट्रेल",
      "िया</w>"
    ],
    [
      "यहू",
      "दी</w>"
    ],
    [
      "खरी",
      "दार"
    ],
    [
      "पढ़",
      "ा"
    ],
    [
      "द",
      "ण्ड</w>"
    ],
    [
      "३",
      "००</w>"
    ],
    [
      "चिन्त",
      "ित</w>"
    ],
    [
      "ब",
      "ड़</w>"
    ],
    [
      "स्",
      "को</w>"
    ],
    [
      "जी",
      "मे</w>"
    ],
    [
      "बा",
      "स्के"
    ],
    [
      "पी",
      "यर</w>"
    ],
    [
      "खेलय",
      "लनि।</w>"
    ],
    [
      "कैं",
      "सर</w>"
    ],
    [
      "हम",
      "सभ</w>"
    ],
    [
      "उच्",
      "च"
    ],
    [
      "मोबाइ",
      "ल</w>"
    ],
    [
      "पड़ो",
      "सी</w>"
    ],
    [
      "शीघ",
      "्र"
    ],
    [
      "अधिक",
      "तम</w>"
    ],
    [
      "सिन्ध",
      "ु</w>"
    ],
    [
      "रूप",
      "क</w>"
    ],
    [
      "आ",
      "ग्रह</w>"
    ],
    [
      "ण",
      "ु"
    ],
    [
      "हॉ",
      "ल</w>"
    ],
    [
      "त",
      "ैक</w>"
    ],
    [
      "द",
      "हिना</w>"
    ],
    [
      "सुन्द",
      "र</w>"
    ],
    [
      "ब",
      "केँ</w>"
    ],
    [
      "ग्र",
      "ु"
    ],
    [
      "छुट्",
      "टी</w>"
    ],
    [
      "ऑ",
      "र्ड"
    ],
    [
      "मा",
      "टिक</w>"
    ],
    [
      "गेन्द",
      "केँ</w>"
    ],
    [
      "सभ",
      ",</w>"
    ],
    [
      "शॉ",
      "ट</w>"
    ],
    [
      "खा",
      "इत</w>"
    ],
    [
      "गो",
      "लक</w>"
    ],
    [
      "ट",
      "न,</w>"
    ],
    [
      "ग्",
      "लो"
    ],
    [
      "२",
      "क</w>"
    ],
    [
      "ं",
      "गे"
    ],
    [
      "काउं",
      "टीक</w>"
    ],
    [
      "पर्व",
      "त</w>"
    ],
    [
      ".",
      "ई"
    ],
    [
      "क्",
      "वा"
    ],
    [
      "यु",
      "गक</w>"
    ],
    [
      "भेट",
      "त।</w>"
    ],
    [
      "देख",
      "ू</w>"
    ],
    [
      "विवि",
      "ध</w>"
    ],
    [
      "उ",
      "न"
    ],
    [
      "मार",
      "ीक</w>"
    ],
    [
      "घ",
      "ि"
    ],
    [
      "सा",
      "लसँ</w>"
    ],
    [
      "छ",
      "ह</w>"
    ],
    [
      "गर्",
      "भ"
    ],
    [
      "अछि",
      "?</w>"
    ],
    [
      "थ",
      "ीक</w>"
    ],
    [
      "ड",
      "न</w>"
    ],
    [
      "इस्ला",
      "मी</w>"
    ],
    [
      "सह",
      "-"
    ],
    [
      "इ",
      "सक"
    ],
    [
      "त",
      "ेल</w>"
    ],
    [
      "ौ",
      "लनि</w>"
    ],
    [
      "ब",
      "ीक</w>"
    ],
    [
      "छू",
      "ट</w>"
    ],
    [
      "ड",
      "र्"
    ],
    [
      "ड",
      "ाक</w>"
    ],
    [
      "रॉ",
      "क</w>"
    ],
    [
      "दोष",
      "ी</w>"
    ],
    [
      "साँ",
      "झ"
    ],
    [
      "थ",
      "ै"
    ],
    [
      "राख",
      "ू</w>"
    ],
    [
      "उप",
      "चार"
    ],
    [
      "गिरफ्",
      "तार</w>"
    ],
    [
      "गा",
      "वस्"
    ],
    [
      "से",
      "वन</w>"
    ],
    [
      "२",
      "४"
    ],
    [
      "जेना",
      "-जेना</w>"
    ],
    [
      "मार",
      "बाक</w>"
    ],
    [
      "पहि",
      "नहि</w>"
    ],
    [
      "म",
      "स्"
    ],
    [
      "पु",
      "रक</w>"
    ],
    [
      "ए",
      "त"
    ],
    [
      "ऑ",
      "र्"
    ],
    [
      "वर्गी",
      "कृत</w>"
    ],
    [
      "ङ्",
      "कित</w>"
    ],
    [
      "ती",
      "सँ</w>"
    ],
    [
      "बङ्गा",
      "ल</w>"
    ],
    [
      "वै",
      "श्विक</w>"
    ],
    [
      "भा",
      "गी"
    ],
    [
      "र",
      "स्"
    ],
    [
      "तु",
      "क</w>"
    ],
    [
      "दोका",
      "न"
    ],
    [
      "चिकित्",
      "सक"
    ],
    [
      "डिजि",
      "टल</w>"
    ],
    [
      "र",
      "क्"
    ],
    [
      "ग",
      "ं"
    ],
    [
      "मे",
      "क्सि"
    ],
    [
      "धा",
      "नक</w>"
    ],
    [
      "भ",
      "रिक</w>"
    ],
    [
      "स्",
      "कै"
    ],
    [
      "ङ्ग",
      ",</w>"
    ],
    [
      "शुष्",
      "क</w>"
    ],
    [
      "न्या",
      "स</w>"
    ],
    [
      "उत्तरदा",
      "यी</w>"
    ],
    [
      ".एल",
      ".</w>"
    ],
    [
      "प्रबन्ध",
      "क</w>"
    ],
    [
      "२०१",
      "३"
    ],
    [
      "नी",
      "तिक</w>"
    ],
    [
      "वर्",
      "ल्ड</w>"
    ],
    [
      "छ",
      "त्ती"
    ],
    [
      "कने",
      "क</w>"
    ]
  ],
  "merge_stats": [
    {
      "step": 1,
      "pair": [
        "क",
        "</w>"
      ],
      "frequency": 186803,
      "new_token": "क</w>"
    },
    {
      "step": 2,
      "pair": [
        "ा",
        "</w>"
      ],
      "frequency": 118500,
      "new_token": "ा</w>"
    },
    {
      "step": 3,
      "pair": [
        "े",
        "</w>"
      ],
      "frequency": 103635,
      "new_token": "े</w>"
    },
    {
      "step": 4,
      "pair": [
        "।",
        "</w>"
      ],
      "frequency": 98629,
      "new_token": "।</w>"
    },
    {
      "step": 5,
      "pair": [
        "ल",
        "</w>"
      ],
      "frequency": 97466,
      "new_token": "ल</w>"
    },
    {
      "step": 6,
      "pair": [
        "त",
        "</w>"
      ],
      "frequency": 96448,
      "new_token": "त</w>"
    },
    {
      "step": 7,
      "pair": [
        "्",
        "र"
      ],
      "frequency": 89701,
      "new_token": "्र"
    },
    {
      "step": 8,
      "pair": [
        "ँ",
        "</w>"
      ],
      "frequency": 80745,
      "new_token": "ँ</w>"
    },
    {
      "step": 9,
      "pair": [
        "ि",
        "</w>"
      ],
      "frequency": 79848,
      "new_token": "ि</w>"
    },
    {
      "step": 10,
      "pair": [
        "र",
        "</w>"
      ],
      "frequency": 78047,
      "new_token": "र</w>"
    },
    {
      "step": 11,
      "pair": [
        "म",
        "े</w>"
      ],
      "frequency": 69725,
      "new_token": "मे</w>"
    },
    {
      "step": 12,
      "pair": [
        "न",
        "</w>"
      ],
      "frequency": 65542,
      "new_token": "न</w>"
    },
    {
      "step": 13,
      "pair": [
        "र",
        "्"
      ],
      "frequency": 56227,
      "new_token": "र्"
    },
    {
      "step": 14,
      "pair": [
        "ी",
        "</w>"
      ],
      "frequency": 55589,
      "new_token": "ी</w>"
    },
    {
      "step": 15,
      "pair": [
        "अ",
        "छ"
      ],
      "frequency": 52282,
      "new_token": "अछ"
    },
    {
      "step": 16,
      "pair": [
        "स",
        "्"
      ],
      "frequency": 47079,
      "new_token": "स्"
    },
    {
      "step": 17,
      "pair": [
        "ि",
        "।</w>"
      ],
      "frequency": 46680,
      "new_token": "ि।</w>"
    },
    {
      "step": 18,
      "pair": [
        ",",
        "</w>"
      ],
      "frequency": 44975,
      "new_token": ",</w>"
    },
    {
      "step": 19,
      "pair": [
        "्",
        "य"
      ],
      "frequency": 43771,
      "new_token": "्य"
    },
    {
      "step": 20,
      "pair": [
        "क",
        "े"
      ],
      "frequency": 42118,
      "new_token": "के"
    },
    {
      "step": 21,
      "pair": [
        "ा",
        "र"
      ],
      "frequency": 41290,
      "new_token": "ार"
    },
    {
      "step": 22,
      "pair": [
        "स",
        "ँ</w>"
      ],
      "frequency": 39344,
      "new_token": "सँ</w>"
    },
    {
      "step": 23,
      "pair": [
        "आ",
        "</w>"
      ],
      "frequency": 38946,
      "new_token": "आ</w>"
    },
    {
      "step": 24,
      "pair": [
        "े",
        "ल</w>"
      ],
      "frequency": 36881,
      "new_token": "ेल</w>"
    },
    {
      "step": 25,
      "pair": [
        "प",
        "्र"
      ],
      "frequency": 35933,
      "new_token": "प्र"
    },
    {
      "step": 26,
      "pair": [
        "न",
        "्"
      ],
      "frequency": 32780,
      "new_token": "न्"
    },
    {
      "step": 27,
      "pair": [
        "अछ",
        "ि।</w>"
      ],
      "frequency": 31725,
      "new_token": "अछि।</w>"
    },
    {
      "step": 28,
      "pair": [
        "क",
        "्"
      ],
      "frequency": 31247,
      "new_token": "क्"
    },
    {
      "step": 29,
      "pair": [
        "ा",
        "क</w>"
      ],
      "frequency": 30694,
      "new_token": "ाक</w>"
    },
    {
      "step": 30,
      "pair": [
        "ै",
        "त</w>"
      ],
      "frequency": 30001,
      "new_token": "ैत</w>"
    },
    {
      "step": 31,
      "pair": [
        "क",
        "र"
      ],
      "frequency": 29818,
      "new_token": "कर"
    },
    {
      "step": 32,
      "pair": [
        "व",
        "ि"
      ],
      "frequency": 29458,
      "new_token": "वि"
    },
    {
      "step": 33,
      "pair": [
        "के",
        "ँ</w>"
      ],
      "frequency": 28666,
      "new_token": "केँ</w>"
    },
    {
      "step": 34,
      "pair": [
        "म",
        "ा"
      ],
      "frequency": 28400,
      "new_token": "मा"
    },
    {
      "step": 35,
      "pair": [
        "ज",
        "ा"
      ],
      "frequency": 27130,
      "new_token": "जा"
    },
    {
      "step": 36,
      "pair": [
        "न",
        "ि"
      ],
      "frequency": 26463,
      "new_token": "नि"
    },
    {
      "step": 37,
      "pair": [
        "क",
        "ा"
      ],
      "frequency": 26255,
      "new_token": "का"
    },
    {
      "step": 38,
      "pair": [
        "ल",
        "ा"
      ],
      "frequency": 26088,
      "new_token": "ला"
    },
    {
      "step": 39,
      "pair": [
        "र",
        "ा"
      ],
      "frequency": 25373,
      "new_token": "रा"
    },
    {
      "step": 40,
      "pair": [
        "य",
        "</w>"
      ],
      "frequency": 24643,
      "new_token": "य</w>"
    },
    {
      "step": 41,
      "pair": [
        "म",
        "</w>"
      ],
      "frequency": 23828,
      "new_token": "म</w>"
    },
    {
      "step": 42,
      "pair": [
        "ह",
        "ि"
      ],
      "frequency": 21889,
      "new_token": "हि"
    },
    {
      "step": 43,
      "pair": [
        "े",
        "ल"
      ],
      "frequency": 21256,
      "new_token": "ेल"
    },
    {
      "step": 44,
      "pair": [
        "ग",
        "</w>"
      ],
      "frequency": 21116,
      "new_token": "ग</w>"
    },
    {
      "step": 45,
      "pair": [
        "ह",
        "ि</w>"
      ],
      "frequency": 20735,
      "new_token": "हि</w>"
    },
    {
      "step": 46,
      "pair": [
        "ट",
        "ा</w>"
      ],
      "frequency": 20505,
      "new_token": "टा</w>"
    },
    {
      "step": 47,
      "pair": [
        "म",
        "्"
      ],
      "frequency": 19687,
      "new_token": "म्"
    },
    {
      "step": 48,
      "pair": [
        "ङ",
        "्"
      ],
      "frequency": 19480,
      "new_token": "ङ्"
    },
    {
      "step": 49,
      "pair": [
        "ह",
        "ो"
      ],
      "frequency": 19078,
      "new_token": "हो"
    },
    {
      "step": 50,
      "pair": [
        "ह",
        "ु"
      ],
      "frequency": 18761,
      "new_token": "हु"
    },
    {
      "step": 51,
      "pair": [
        "न",
        "ा"
      ],
      "frequency": 18516,
      "new_token": "ना"
    },
    {
      "step": 52,
      "pair": [
        "स",
        "भ"
      ],
      "frequency": 18365,
      "new_token": "सभ"
    },
    {
      "step": 53,
      "pair": [
        "ि",
        "त</w>"
      ],
      "frequency": 18326,
      "new_token": "ित</w>"
    },
    {
      "step": 54,
      "pair": [
        "ब",
        "ा"
      ],
      "frequency": 17471,
      "new_token": "बा"
    },
    {
      "step": 55,
      "pair": [
        "इ",
        "त</w>"
      ],
      "frequency": 17363,
      "new_token": "इत</w>"
    },
    {
      "step": 56,
      "pair": [
        "ए",
        "क"
      ],
      "frequency": 17134,
      "new_token": "एक"
    },
    {
      "step": 57,
      "pair": [
        "क",
        "य"
      ],
      "frequency": 17078,
      "new_token": "कय"
    },
    {
      "step": 58,
      "pair": [
        "स",
        "ा"
      ],
      "frequency": 16906,
      "new_token": "सा"
    },
    {
      "step": 59,
      "pair": [
        "ह",
        "ा"
      ],
      "frequency": 16802,
      "new_token": "हा"
    },
    {
      "step": 60,
      "pair": [
        "ज",
        "े</w>"
      ],
      "frequency": 16741,
      "new_token": "जे</w>"
    },
    {
      "step": 61,
      "pair": [
        "त",
        "्र"
      ],
      "frequency": 16704,
      "new_token": "त्र"
    },
    {
      "step": 62,
      "pair": [
        "स",
        "</w>"
      ],
      "frequency": 16669,
      "new_token": "स</w>"
    },
    {
      "step": 63,
      "pair": [
        "छ",
        "ल"
      ],
      "frequency": 16598,
      "new_token": "छल"
    },
    {
      "step": 64,
      "pair": [
        "व",
        "ा"
      ],
      "frequency": 16576,
      "new_token": "वा"
    },
    {
      "step": 65,
      "pair": [
        "त",
[...]
