{
  "vocab_size": 5000,
  "num_merges": 5000,
  "actual_merges": 5000,
  "min_frequency": 2,
  "merges": [
    [
      "ന",
      "്"
    ],
    [
      "ക",
      "്"
    ],
    [
      "ത",
      "്"
    ],
    [
      "ം",
      "</w>"
    ],
    [
      "ക്",
      "ക"
    ],
    [
      "െ",
      "</w>"
    ],
    [
      "ന്",
      "ന"
    ],
    [
      ".",
      "</w>"
    ],
    [
      "പ",
      "്"
    ],
    [
      "ത",
      "ി"
    ],
    [
      "്",
      "</w>"
    ],
    [
      "്",
      "ട"
    ],
    [
      "ു",
      "ം</w>"
    ],
    [
      "യ",
      "ി"
    ],
    [
      "്",
      "റ"
    ],
    [
      "ു",
      "ന്ന"
    ],
    [
      "മ",
      "ാ"
    ],
    [
      "ങ",
      "്"
    ],
    [
      "ൽ",
      "</w>"
    ],
    [
      "ന",
      "ി"
    ],
    [
      "്",
      "യ"
    ],
    [
      "ു",
      "ക"
    ],
    [
      "ങ്",
      "ങ"
    ],
    [
      "്",
      "ച"
    ],
    [
      "പ്",
      "പ"
    ],
    [
      "ി",
      "ക്ക"
    ],
    [
      "സ",
      "്"
    ],
    [
      "ത്",
      "തി"
    ],
    [
      "ി",
      "ല"
    ],
    [
      "ച",
      "്ച"
    ],
    [
      ",",
      "</w>"
    ],
    [
      "ു",
      ".</w>"
    ],
    [
      "ട",
      "്ട"
    ],
    [
      "ത്",
      "ത"
    ],
    [
      "ര",
      "ു"
    ],
    [
      "വ",
      "ി"
    ],
    [
      "റ",
      "്റ"
    ],
    [
      "ി",
      "യ"
    ],
    [
      "ണ",
      "്ട"
    ],
    [
      "ൾ",
      "</w>"
    ],
    [
      "ള",
      "്"
    ],
    [
      "പ്",
      "ര"
    ],
    [
      "െ",
      "യ"
    ],
    [
      "ൻ",
      "</w>"
    ],
    [
      "ന്",
      "</w>"
    ],
    [
      "ു",
      "ട"
    ],
    [
      "്",
      "ര"
    ],
    [
      "ി",
      "ച്ച"
    ],
    [
      "ള്",
      "ള"
    ],
    [
      "ി",
      "</w>"
    ],
    [
      "ാ",
      "ണ"
    ],
    [
      "ാ",
      "ര"
    ],
    [
      "രു",
      "</w>"
    ],
    [
      "ക്",
      "</w>"
    ],
    [
      "്",
      "‍"
    ],
    [
      "യ",
      "</w>"
    ],
    [
      "്",
      "ല"
    ],
    [
      "ാ",
      "യി"
    ],
    [
      "ു",
      "ള്ള"
    ],
    [
      "ി",
      "ൽ</w>"
    ],
    [
      "ങ്ങ",
      "ള"
    ],
    [
      "ുന്ന",
      "ു.</w>"
    ],
    [
      "ഒ",
      "രു</w>"
    ],
    [
      "ന്",
      "‍"
    ],
    [
      "ർ",
      "</w>"
    ],
    [
      "ാ",
      "ന"
    ],
    [
      "മ",
      "്"
    ],
    [
      "ക്",
      "ക്</w>"
    ],
    [
      "യ",
      "ും</w>"
    ],
    [
      "ി",
      "ക"
    ],
    [
      "ത്",
      "ര"
    ],
    [
      "ദ",
      "്"
    ],
    [
      "പ്പ",
      "െ"
    ],
    [
      "ദ",
      "േ"
    ],
    [
      "ത്",
      "</w>"
    ],
    [
      "ുള്ള",
      "</w>"
    ],
    [
      "ുട",
      "െ</w>"
    ],
    [
      "ച",
      "െയ"
    ],
    [
      "ര",
      "ാ"
    ],
    [
      "അ",
      "വ"
    ],
    [
      "സ",
      "ി"
    ],
    [
      "്",
      ".</w>"
    ],
    [
      "യി",
      "ല"
    ],
    [
      "ന്‍",
      "റ"
    ],
    [
      "എ",
      "ന്ന"
    ],
    [
      "വ",
      "ാ"
    ],
    [
      "ട",
      "ു"
    ],
    [
      "ന്",
      "ന്</w>"
    ],
    [
      "മ",
      "ു"
    ],
    [
      "ൻ",
      "്റ"
    ],
    [
      "ാ",
      "ല"
    ],
    [
      "ുക",
      "യും</w>"
    ],
    [
      "ുന്ന",
      "</w>"
    ],
    [
      "സ",
      "്</w>"
    ],
    [
      "സ്",
      "ഥ"
    ],
    [
      "ക്",
      "ഷ"
    ],
    [
      "ാണ",
      "്</w>"
    ],
    [
      "സ",
      "ം"
    ],
    [
      "മാ",
      "യി"
    ],
    [
      "ോ",
      "</w>"
    ],
    [
      "ര",
      "ിക്ക"
    ],
    [
      "ങ്",
      "ക"
    ],
    [
      "സ",
      "ാ"
    ],
    [
      "ൻ്റ",
      "െ</w>"
    ],
    [
      "ന്‍റ",
      "െ</w>"
    ],
    [
      "ങ്ങ",
      "ൾ</w>"
    ],
    [
      "ാ",
      "ൻ</w>"
    ],
    [
      "്‍",
      "</w>"
    ],
    [
      "വ",
      "ര"
    ],
    [
      "ന",
      "ാ"
    ],
    [
      "ുക",
      "ള"
    ],
    [
      "ല",
      "്ല"
    ],
    [
      "ം",
      "ഗ"
    ],
    [
      "ക",
      "ള"
    ],
    [
      "ായി",
      "</w>"
    ],
    [
      "പ",
      "ോ"
    ],
    [
      "്റ",
      "്റ"
    ],
    [
      "ത്",
      "യ"
    ],
    [
      "ര",
      "ി"
    ],
    [
      "മാ",
      "യ</w>"
    ],
    [
      "ക",
      "ു"
    ],
    [
      "ത്",
      ".</w>"
    ],
    [
      "മാ",
      "ണ"
    ],
    [
      "ു",
      "</w>"
    ],
    [
      "ം",
      ".</w>"
    ],
    [
      "സ",
      "്റ്റ"
    ],
    [
      "ചെയ",
      "്യ"
    ],
    [
      "ോ",
      "ഗ"
    ],
    [
      "ദ്",
      "ദേ"
    ],
    [
      "2",
      "0"
    ],
    [
      "ത്തി",
      "ല"
    ],
    [
      "ത",
      "ാ"
    ],
    [
      "വ",
      "ും</w>"
    ],
    [
      "ി",
      "വ"
    ],
    [
      "മായി",
      "</w>"
    ],
    [
      "പ",
      "ു"
    ],
    [
      "ഈ",
      "</w>"
    ],
    [
      "യി",
      "ൽ</w>"
    ],
    [
      "ദ്ദേ",
      "ഹ"
    ],
    [
      "ട",
      "െ</w>"
    ],
    [
      "അ",
      "ദ്ദേഹ"
    ],
    [
      "േ",
      "ഷ"
    ],
    [
      "പ",
      "ി"
    ],
    [
      "്",
      "ഞ"
    ],
    [
      "ി",
      "ന"
    ],
    [
      "പ",
      "ാ"
    ],
    [
      "മ",
      "െ"
    ],
    [
      "ത",
      "ു"
    ],
    [
      "പ്പെ",
      "ട"
    ],
    [
      "വ",
      "ർ"
    ],
    [
      "ു",
      "ണ്ട"
    ],
    [
      "ഞ",
      "്ഞ"
    ],
    [
      "ത്തി",
      "ൽ</w>"
    ],
    [
      "ിയ",
      "</w>"
    ],
    [
      "ത്ത",
      "െ</w>"
    ],
    [
      "ില",
      "െ</w>"
    ],
    [
      "1",
      "9"
    ],
    [
      "ക",
      "ര"
    ],
    [
      "യ",
      "്"
    ],
    [
      "ക",
      "ാ"
    ],
    [
      "വ",
      "െ"
    ],
    [
      "ുക",
      "ൾ</w>"
    ],
    [
      "ക",
      "ോ"
    ],
    [
      "ര",
      "ുന്ന"
    ],
    [
      "ചെയ",
      "്"
    ],
    [
      "ം",
      ",</w>"
    ],
    [
      "യില",
      "െ</w>"
    ],
    [
      "വ",
      "േ"
    ],
    [
      "ഭ",
      "ാ"
    ],
    [
      "മ",
      "ി"
    ],
    [
      "ദേ",
      "ശ"
    ],
    [
      "ന",
      "ു"
    ],
    [
      "ദ",
      "്യ"
    ],
    [
      "യ",
      "ാ"
    ],
    [
      "റ",
      "ി"
    ],
    [
      "ക",
      "ാര"
    ],
    [
      "ഡ",
      "്</w>"
    ],
    [
      "ഉ",
      "പ"
    ],
    [
      "ന",
      "േ"
    ],
    [
      "പ്പെ",
      "ട്ട"
    ],
    [
      "ക",
      "ൂ"
    ],
    [
      "ള്",
      "‍"
    ],
    [
      "യ",
      "ുടെ</w>"
    ],
    [
      "മ",
      "േ"
    ],
    [
      "ില",
      "്ല"
    ],
    [
      "െയ",
      "ും</w>"
    ],
    [
      "മ്",
      "പ"
    ],
    [
      "ദ്",
      "ധ"
    ],
    [
      "ര",
      "ുന്നു.</w>"
    ],
    [
      "യ",
      "ു"
    ],
    [
      "റ്റ",
      "്</w>"
    ],
    [
      "ബ",
      "ാ"
    ],
    [
      "ട",
      "ി"
    ],
    [
      "ില",
      "ും</w>"
    ],
    [
      "െ",
      "ങ്ക"
    ],
    [
      "ചെയ്",
      "ത"
    ],
    [
      "ിച്ച",
      "ു.</w>"
    ],
    [
      "ര",
      "്‍"
    ],
    [
      "പ്പ",
      "ോ"
    ],
    [
      "ക്ക",
      "ാ"
    ],
    [
      "സ്ഥ",
      "ാന"
    ],
    [
      "ങ്ങ",
      "ൾ"
    ],
    [
      "ന്",
      "ദ"
    ],
    [
      "വ",
      "്യ"
    ],
    [
      "ുന്ന",
      "തി"
    ],
    [
      "രാ",
      "ജ"
    ],
    [
      "ഇ",
      "ന്"
    ],
    [
      "ക്ക",
      "ു"
    ],
    [
      "വ",
      "ീ"
    ],
    [
      "ല",
      "ാ"
    ],
    [
      "മ്",
      "മ"
    ],
    [
      "ല",
      "ി"
    ],
    [
      "ച",
      "ി"
    ],
    [
      "യ",
      "ോഗ"
    ],
    [
      "ഡ",
      "ി"
    ],
    [
      "ണ്ട",
      "്</w>"
    ],
    [
      "ന്",
      "ത"
    ],
    [
      "്",
      "‌"
    ],
    [
      "ക്",
      "ര"
    ],
    [
      "ന",
      "ട"
    ],
    [
      "ഗ",
      "്ര"
    ],
    [
      "ക",
      "ൊ"
    ],
    [
      "ങ്ങള",
      "ുടെ</w>"
    ],
    [
      "0",
      "</w>"
    ],
    [
      "അദ്ദേഹ",
      "ം</w>"
    ],
    [
      "ണ",
      "ം</w>"
    ],
    [
      "തി",
      "ര"
    ],
    [
      "ഇന്",
      "ത്യ"
    ],
    [
      "സ",
      "െ"
    ],
    [
      "ാണ",
      "്.</w>"
    ],
    [
      "മ",
      "ൂ"
    ],
    [
      "നി",
      "ർ"
    ],
    [
      "ഇ",
      "ത്</w>"
    ],
    [
      "നി",
      "ല"
    ],
    [
      "മാണ",
      "്</w>"
    ],
    [
      "ണ",
      "്"
    ],
    [
      "ക",
      "ാല"
    ],
    [
      "ത്",
      "ത്</w>"
    ],
    [
      "ടു",
      "ത്ത"
    ],
    [
      "ത",
      "ുട"
    ],
    [
      "ധ",
      "ാന"
    ],
    [
      "പ്പ",
      "ിക്ക"
    ],
    [
      "പ",
      "ര"
    ],
    [
      "ുണ്ട",
      "്.</w>"
    ],
    [
      "ഷ",
      "്ട"
    ],
    [
      "ൽ",
      ",</w>"
    ],
    [
      "ഉപ",
      "യോഗ"
    ],
    [
      "ചെയ്ത",
      "ു.</w>"
    ],
    [
      "പ",
      "േ"
    ],
    [
      "േ",
      "ക്ക്</w>"
    ],
    [
      "ക",
      "ഴ"
    ],
    [
      "ള്‍",
      "</w>"
    ],
    [
      "എന്ന",
      "ിവ"
    ],
    [
      "ത",
      "</w>"
    ],
    [
      "ശ",
      "േഷ"
    ],
    [
      "ഭാ",
      "ഗ"
    ],
    [
      "അ",
      "തി"
    ],
    [
      "ത",
      "െ"
    ],
    [
      "നി",
      "ന്ന്</w>"
    ],
    [
      "ബ",
      "ോ"
    ],
    [
      "ോ",
      "ട"
    ],
    [
      "ത",
      "ൽ</w>"
    ],
    [
      "ഞ",
      "്ച"
    ],
    [
      "ിക",
      "ള"
    ],
    [
      "ഹ",
      "ി"
    ],
    [
      "ുന്ന",
      "ത്.</w>"
    ],
    [
      "സാ",
      "ധ"
    ],
    [
      "ാ",
      "മ"
    ],
    [
      "ഉ",
      "ണ്ട"
    ],
    [
      "പ",
      "രി"
    ],
    [
      "ക്ക",
      "ി"
    ],
    [
      "ാ",
      "</w>"
    ],
    [
      "ി",
      "ട്ട"
    ],
    [
      "യ",
      "ൂ"
    ],
    [
      "ക",
      "</w>"
    ],
    [
      "റ",
      "ിയ"
    ],
    [
      "ന്",
      "ധ"
    ],
    [
      "സ",
      "മ"
    ],
    [
      "ിച്ച",
      "്</w>"
    ],
    [
      "ാ",
      "യ"
    ],
    [
      "ത്തി",
      "ന്‍റെ</w>"
    ],
    [
      "നി",
      "ര"
    ],
    [
      "ത്തി",
      "ൻ്റെ</w>"
    ],
    [
      "ല",
      "ോ"
    ],
    [
      "രു",
      "ടെ</w>"
    ],
    [
      "ബ",
      "ി"
    ],
    [
      "ഏ",
      "റ്റ"
    ],
    [
      "ത്",
      "സ"
    ],
    [
      "ച",
      "െ"
    ],
    [
      "ര",
      "ണ"
    ],
    [
      "പ്",
      "</w>"
    ],
    [
      "നി",
      "യ"
    ],
    [
      "20",
      "1"
    ],
    [
      "ാ",
      "ം</w>"
    ],
    [
      "ോ",
      "ള"
    ],
    [
      "ാ",
      "പ"
    ],
    [
      "ന",
      "െ</w>"
    ],
    [
      "ന",
      "ം</w>"
    ],
    [
      "ആ",
      "ദ്യ"
    ],
    [
      "ക",
      "േ"
    ],
    [
      "ശ",
      "്ര"
    ],
    [
      "ചി",
      "ത്ര"
    ],
    [
      "ത്തി",
      "ന്</w>"
    ],
    [
      "ങ്ങള",
      "ിൽ</w>"
    ],
    [
      "മാണ",
      "്.</w>"
    ],
    [
      "ന",
      "ൽ"
    ],
    [
      "ബ",
      "്ര"
    ],
    [
      "ാ",
      "ർ"
    ],
    [
      "ത",
      "ീ"
    ],
    [
      "ാ",
      "വ"
    ],
    [
      "റ",
      "ോ"
    ],
    [
      "ന്‍",
      "</w>"
    ],
    [
      "ൺ",
      "</w>"
    ],
    [
      "കു",
      "റ"
    ],
    [
      "തി",
      "</w>"
    ],
    [
      "്",
      ",</w>"
    ],
    [
      "ട",
      "്ര"
    ],
    [
      "ത",
      "ല"
    ],
    [
      "ക",
      "ൾ</w>"
    ],
    [
      "ന",
      "ീ"
    ],
    [
      "പ്ര",
      "ധാന"
    ],
    [
      "ഏറ്റ",
      "വും</w>"
    ],
    [
      "ന",
      "</w>"
    ],
    [
      "പ",
      "ൂ"
    ],
    [
      "ക",
      "ി"
    ],
    [
      "ം",
      "ബ"
    ],
    [
      "ട്ട",
      "്</w>"
    ],
    [
      "വ",
      "ല"
    ],
    [
      "പ്ര",
      "ദേശ"
    ],
    [
      "ില",
      "്‍</w>"
    ],
    [
      "ാ",
      "ക്ക"
    ],
    [
      "ൻ",
      "ഡ"
    ],
    [
      "സ",
      "ു"
    ],
    [
      "റ്റ",
      "ി"
    ],
    [
      "ിക്ക",
      "ുന്നു.</w>"
    ],
    [
      "ജ",
      "ന"
    ],
    [
      "എന്ന",
      "</w>"
    ],
    [
      "ന്ന",
      "</w>"
    ],
    [
      "മ",
      "ോ"
    ],
    [
      "ല",
      "െ</w>"
    ],
    [
      "സ",
      "ൈ"
    ],
    [
      "ച",
      "ില"
    ],
    [
      ":",
      "</w>"
    ],
    [
      "ശ",
      "്"
    ],
    [
      "ന",
      "ോ"
    ],
    [
      "ക്ക",
      "ും</w>"
    ],
    [
      "ത്തില",
      "െ</w>"
    ],
    [
      "പ",
      "റ"
    ],
    [
      "ന",
      "ും</w>"
    ],
    [
      "ിക്ക",
      "ുകയും</w>"
    ],
    [
      "മ",
      "ുള്ള</w>"
    ],
    [
      "നി",
      "ന്ന"
    ],
    [
      "ജ",
      "ീ"
    ],
    [
      "ാ",
      "യ</w>"
    ],
    [
      "വ",
      "ള"
    ],
    [
      "ആ",
      "</w>"
    ],
    [
      "ാര",
      "ണ"
    ],
    [
      "ങ്ങള",
      "ും</w>"
    ],
    [
      "പ",
      "െ"
    ],
    [
      "ായി",
      "രുന്ന"
    ],
    [
      "ബ",
      "ന്ധ"
    ],
    [
      "ുക",
      "ൾ"
    ],
    [
      "കൂ",
      "ടു"
    ],
    [
      "യ",
      "ോ"
    ],
    [
      "വര",
      "െ</w>"
    ],
    [
      "20",
      "0"
    ],
    [
      "ന്",
      "ത്ര"
    ],
    [
      "ങ്ങൾ",
      "ക്ക്</w>"
    ],
    [
      "ന",
      "െ"
    ],
    [
      "ിക",
      "</w>"
    ],
    [
      "ിച്ച",
      "</w>"
    ],
    [
      "ണ്",
      "ണ"
    ],
    [
      "സ",
      "ോ"
    ],
    [
      "ര",
      "െ</w>"
    ],
    [
      "വ",
      "ു"
    ],
    [
      "ംഗ",
      "്</w>"
    ],
    [
      ")",
      "</w>"
    ],
    [
      "റ",
      "ാ"
    ],
    [
      "സ്",
      "വ"
    ],
    [
      "സ്",
      "‌"
    ],
    [
      "മ",
      "ീ"
    ],
    [
      "സ",
      "ഹ"
    ],
    [
      "വ",
      "ധ"
    ],
    [
      "ൂ",
      "പ"
    ],
    [
      "നി",
      "ങ്ങളുടെ</w>"
    ],
    [
      "ായി",
      "രുന്നു.</w>"
    ],
    [
      "ക",
      "ണ്ട"
    ],
    [
      "ചെയ്യ",
      "ുന്നു.</w>"
    ],
    [
      "പ്പെട",
      "ുന്നു.</w>"
    ],
    [
      "അവ",
      "ർ</w>"
    ],
    [
      "െ",
      "ടു"
    ],
    [
      "ച്ച",
      "്</w>"
    ],
    [
      "വ",
      "ൈ"
    ],
    [
      "ിക്ക",
      "ുന്ന</w>"
    ],
    [
      "ക",
      "ട"
    ],
    [
      "ശ",
      "്യ"
    ],
    [
      "ഗ",
      "ു"
    ],
    [
      "ഉ",
      "ൾ"
    ],
    [
      "ന",
      "ഗ"
    ],
    [
      "ിച്ച",
      "ി"
    ],
    [
      "ധ",
      "ിക"
    ],
    [
      "ഹ",
      "ാ"
    ],
    [
      "ത",
      "ോ"
    ],
    [
      "െ",
      "ന്ന്</w>"
    ],
    [
      "ക്ഷ",
      "േ"
    ],
    [
      "സാധ",
      "ാരണ"
    ],
    [
      "മാ",
      "ന"
    ],
    [
      "ത്",
      "ഥ"
    ],
    [
      "ിക്ക",
      "ുന്ന"
    ],
    [
      "ുക",
      "യ"
    ],
    [
      "പു",
      "റ"
    ],
    [
      "സം",
      "സ്ഥാന"
    ],
    [
      "ര",
      "ോഗ"
    ],
    [
      "ക",
      "ാണ"
    ],
    [
      "അ",
      "ത്</w>"
    ],
    [
      "ട്ട",
      "ി"
    ],
    [
      "െങ്ക",
      "ിൽ</w>"
    ],
    [
      "അവ",
      "രുടെ</w>"
    ],
    [
      "ഷ",
      "്യ"
    ],
    [
      "ക്ക",
      "ുകയും</w>"
    ],
    [
      "സ",
      "ർ"
    ],
    [
      "ള",
      "ി"
    ],
    [
      "ഗ",
      "ോ"
    ],
    [
      "ിയ",
      "ുടെ</w>"
    ],
    [
      "നൽ",
      "ക"
    ],
    [
      "ല",
      "ഭ"
    ],
    [
      "യ",
      "ം</w>"
    ],
    [
      "ഗ",
      "്"
    ],
    [
      "മ്",
      "പോ"
    ],
    [
      "അ",
      "നു"
    ],
    [
      "ഷ",
      "്"
    ],
    [
      ".",
      "എ"
    ],
    [
      "പ്ര",
      "തി"
    ],
    [
      "മാ",
      "ർ"
    ],
    [
      "മു",
      "തൽ</w>"
    ],
    [
      "വ",
      "്</w>"
    ],
    [
      "സ്",
      "ത്ര"
    ],
    [
      "െങ്ക",
      "ിലും</w>"
    ],
    [
      "5",
      "</w>"
    ],
    [
      "സ",
      "ൂ"
    ],
    [
      "ല",
      "ീ"
    ],
    [
      "േ",
      "റ്റ"
    ],
    [
      "ു",
      "ം,</w>"
    ],
    [
      "വർ",
      "ഷ"
    ],
    [
      "ജ",
      "ി"
    ],
    [
      "ല",
      "ൈ"
    ],
    [
      "യ",
      "െ</w>"
    ],
    [
      "വധ",
      "ി</w>"
    ],
    [
      "ഫ",
      "ോ"
    ],
    [
      "എന്ന",
      "ി"
    ],
    [
      "നഗ",
      "ര"
    ],
    [
      "മ",
      "ത്സ"
    ],
    [
      "ര",
      "ൂപ"
    ],
    [
      "ശേഷ",
      "ം</w>"
    ],
    [
      "ു",
      "വ"
    ],
    [
      "ര",
      "്‍</w>"
    ],
    [
      "ക്കു",
      "റ"
    ],
    [
      "ുക",
      ".</w>"
    ],
    [
      "ു",
      "ം.</w>"
    ],
    [
      "പ",
      "ല"
    ],
    [
      "ട",
      "െ"
    ],
    [
      "യ്",
      "ക്ക"
    ],
    [
      "വി",
      "ധ"
    ],
    [
      "ത്ത",
      "</w>"
    ],
    [
      "ം",
      "ഭ"
    ],
    [
      "മാ",
      "ത്ര"
    ],
    [
      "എ",
      "ല്ല"
    ],
    [
      "ന്ദ",
      "്ര"
    ],
    [
      "ക",
      "ൃ"
    ],
    [
      "പ്പോ",
      "ൾ</w>"
    ],
    [
      "പ്",
      "പ്</w>"
    ],
    [
      "െ",
      "യി"
    ],
    [
      "നി",
      "ങ്ങൾ</w>"
    ],
    [
      "ിക്ക",
      "ാ"
    ],
    [
      "്ര",
      "ാ"
    ],
    [
      "സ്ഥ",
      "ി"
    ],
    [
      "ത്തി",
      "ന"
    ],
    [
      "2",
      "</w>"
    ],
    [
      "നിര",
      "വധി</w>"
    ],
    [
      "അ",
      "ല്ല"
    ],
    [
      "ിക്ക",
      "ാൻ</w>"
    ],
    [
      "യ",
      "ാണ്</w>"
    ],
    [
      "സ്",
      "സ"
    ],
    [
      "ര",
      "ീ"
    ],
    [
      "പ",
      "ൊ"
    ],
    [
      "ര",
      "ണ്ട"
    ],
    [
      "ചില",
      "</w>"
    ],
    [
      "അ",
      "ഭ"
    ],
    [
      "ആ",
      "ര"
    ],
    [
      "ുകള",
      "ും</w>"
    ],
    [
      "്യ",
      "ൂ"
    ],
    [
      "കഴ",
      "ിയ"
    ],
    [
      "സ്",
      "ത"
    ],
    [
      "ില്ല",
      ".</w>"
    ],
    [
      "ബ",
      "്"
    ],
    [
      "ക്ക",
      "ാര"
    ],
    [
      "എ",
      "ന്ന്</w>"
    ],
    [
      "പ്ര",
      "ത്യ"
    ],
    [
      "യ്",
      "ക്ക്</w>"
    ],
    [
      "ക",
      "രിക്ക"
    ],
    [
      "്യ",
      "ം</w>"
    ],
    [
      "മ",
      "റ്റ്</w>"
    ],
    [
      "ര",
      "ണ്ട്</w>"
    ],
    [
      "ഫ",
      "്</w>"
    ],
    [
      "ക",
      "ർ"
    ],
    [
      "വ",
      "ില"
    ],
    [
      "ണ",
      "ി"
    ],
    [
      "1",
      "</w>"
    ],
    [
      "ട",
      "ീ"
    ],
    [
      "ിക",
      "ൾ</w>"
    ],
    [
      "ഹ",
      "ോ"
    ],
    [
      "മ",
      "റ്റ"
    ],
    [
      "ച്ച",
      "</w>"
    ],
    [
      "ീ",
      "ഷ"
    ],
    [
      "ആ",
      "ള"
    ],
    [
      "ഭ",
      "ൂ"
    ],
    [
      "\"",
      "</w>"
    ],
    [
      "പ്രധാന",
      "</w>"
    ],
    [
      "അ",
      "ട"
    ],
    [
      "ജ",
      "ോ"
    ],
    [
      "പ്പോ",
      "ഴ"
    ],
    [
      "ല",
      "ക്ഷ"
    ],
    [
      "ഭ",
      "വ"
    ],
    [
      "േ",
      "</w>"
    ],
    [
      "ുകള",
      "ിൽ</w>"
    ],
    [
      "ത",
      "ര"
    ],
    [
      "കൂടു",
      "തൽ</w>"
    ],
    [
      "സ",
      "ീ"
    ],
    [
      "പ്ര",
      "വർ"
    ],
    [
      "ുക",
      "ൊ"
    ],
    [
      "വല",
      "ിയ</w>"
    ],
    [
      "റ്റ",
      "ാ"
    ],
    [
      "തുട",
      "ങ്ങ"
    ],
    [
      "ഇ",
      "തി"
    ],
    [
      "ച",
      "േ"
    ],
    [
      "സ",
      "േ"
    ],
    [
      "-",
      "ൽ</w>"
    ],
    [
      "പ്പെ",
      "ടുത്ത"
    ],
    [
      "ച്ച",
      "ു.</w>"
    ],
    [
      "4",
      "</w>"
    ],
    [
      "0",
      "0</w>"
    ],
    [
      "ണ",
      "</w>"
    ],
    [
      "ട",
      "ാ"
    ],
    [
      "യ",
      "ായി</w>"
    ],
    [
      "ക്",
      "ത"
    ],
    [
      "ന്",
      "മാ"
    ],
    [
      "ുന്ന",
      "ത്</w>"
    ],
    [
      "ു",
      "വെ"
    ],
    [
      "ഇ",
      "ട"
    ],
    [
      "ന്ന",
      "ും</w>"
    ],
    [
      "ന",
      "ദ"
    ],
    [
      "രാജ",
      "്യ"
    ],
    [
      "ല",
      "്‍</w>"
    ],
    [
      "ഴ",
      "്"
    ],
    [
      "സ്റ്റ",
      "്</w>"
    ],
    [
      "പ്പെട്ട",
      "</w>"
    ],
    [
      "റ",
      "െ"
    ],
    [
      "പേ",
      "ര"
    ],
    [
      "ഉ",
      "യ"
    ],
    [
      "ോട",
      "്</w>"
    ],
    [
      "ഗ",
      "ീ"
    ],
    [
      "ഖ",
      "്യ"
    ],
    [
      "നേ",
      "ട"
    ],
    [
      "മു",
      "ണ്ട"
    ],
    [
      "മത്സ",
      "ര"
    ],
    [
      "ങ്ങള",
      "ില"
    ],
    [
      "മാ",
      "യ"
    ],
    [
      "ിന",
      "െ</w>"
    ],
    [
      "ായിരുന്ന",
      "ു</w>"
    ],
    [
      "ാന",
      "ും</w>"
    ],
    [
      "ർ",
      "ശ"
    ],
    [
      "പ്പെട്ട",
      "ു.</w>"
    ],
    [
      "പ്പെ",
      "ടു"
    ],
    [
      "ത",
      "ൻ്റെ</w>"
    ],
    [
      "ഡ",
      "്"
    ],
    [
      "ക",
      "ൈ"
    ],
    [
      "പ്ര",
      "ാ"
    ],
    [
      "ബ",
      "ു"
    ],
    [
      "8",
      "</w>"
    ],
    [
      "ുന്നതി",
      "ന"
    ],
    [
      "നി",
      "ങ്ങൾക്ക്</w>"
    ],
    [
      "3",
      "</w>"
    ],
    [
      "ാ",
      "ൽ</w>"
    ],
    [
      "ദ",
      "ിവ"
    ],
    [
      "6",
      "</w>"
    ],
    [
      "ആ",
      "വ"
    ],
    [
      "വി",
      "ള"
    ],
    [
      "ഇന്ത്യ",
      "ൻ</w>"
    ],
    [
      "അല്ല",
      "െങ്കിൽ</w>"
    ],
    [
      "വി",
      "ജ"
    ],
    [
      "പ്പ",
      "ി"
    ],
    [
      "സ",
      "ം</w>"
    ],
    [
      "വ",
      "യ"
    ],
    [
      "ട",
      "്</w>"
    ],
    [
      "പി",
      "ന്ന"
    ],
    [
      "മ",
      "ിക്ക"
    ],
    [
      "ക",
      "ീ"
    ],
    [
      "ക",
      "ണ"
    ],
    [
      "ല",
      "്‍"
    ],
    [
      "ക",
      "ൾ"
    ],
    [
      "അ",
      "മേ"
    ],
    [
      "മെ",
      "ന്ന്</w>"
    ],
    [
      "ക്ക",
      "ാൻ</w>"
    ],
    [
      "െ",
      "ക്കുറ"
    ],
    [
      "ര",
      "ക്ഷ"
    ],
    [
      "വ",
      "ന"
    ],
    [
      "റ",
      "ു"
    ],
    [
      "പ",
      "ട്ട"
    ],
    [
      "പ്പെട",
      "ുന്ന</w>"
    ],
    [
      "ന",
      "ൂ"
    ],
    [
      "പൂ",
      "ർ"
    ],
    [
      "ക്ക",
      "ുന്നു.</w>"
    ],
    [
      "7",
      "</w>"
    ],
    [
      "ധ",
      "്യ"
    ],
    [
      "ഭ",
      "രണ"
    ],
    [
      "ശ",
      "ാ"
    ],
    [
      "അമേ",
      "രിക്ക"
    ],
    [
      "കണ്ട",
      "െ"
    ],
    [
      "ർ",
      "ന്ന"
    ],
    [
      "ഷ്ട",
      "്ര"
    ],
    [
      "ദ",
      "ാ"
    ],
    [
      "ച",
      "ു"
    ],
    [
      "ആവ",
      "ശ്യ"
    ],
    [
      "ഡ",
      "െ"
    ],
    [
      "ആ",
      "യി"
    ],
    [
      "ൊ",
      "രു</w>"
    ],
    [
      "ോ",
      "ധ"
    ],
    [
      "ക്ക",
      "ള"
    ],
    [
      "ന",
      "ാല"
    ],
    [
      "ഴ",
      "്ച"
    ],
    [
      "ഒ",
      "ന്ന"
    ],
    [
      "ക്ര",
      "മ"
    ],
    [
      "ബാ",
      "ധ"
    ],
    [
      "നിയ",
      "മ"
    ],
    [
      "ർ",
      "ട്ട"
    ],
    [
      "സ",
      "്ട"
    ],
    [
      "ത",
      "ും</w>"
    ],
    [
      "ത്തി",
      ".</w>"
    ],
    [
      "ൂ",
      "ടെ</w>"
    ],
    [
      "ൽ",
      "പ്പ"
    ],
    [
      "ര",
      "ുന്ന</w>"
    ],
    [
      "ക്",
      "തി"
    ],
    [
      "ക",
      "ുട"
    ],
    [
      "ക്",
      "ട"
    ],
    [
      "ഡ",
      "ിയ"
    ],
    [
      "ബ",
      "െ"
    ],
    [
      "ാ",
      "റ"
    ],
    [
      "ത",
      "ായി</w>"
    ],
    [
      "ക",
      "ല"
    ],
    [
      "പോ",
      "ല"
    ],
    [
      "സ്ഥ",
      "ാപ"
    ],
    [
      "ര",
      "ിയ"
    ],
    [
      "ആര",
      "ംഭ"
    ],
    [
      "ബ",
      "്ല"
    ],
    [
      "നി",
      "</w>"
    ],
    [
      "19",
      "9"
    ],
    [
      "നിർ",
      "മ്മ"
    ],
    [
      "ില",
      "േക്ക്</w>"
    ],
    [
      "നട",
      "ത്ത"
    ],
    [
      "ണ്ട",
      "ി"
    ],
    [
      "നാ",
      "ൽ</w>"
    ],
    [
      "ഷ",
      "ി"
    ],
    [
      "റ",
      "ി</w>"
    ],
    [
      "ക്",
      "‌"
    ],
    [
      "ക",
      "മ്പ"
    ],
    [
      "ത",
      "യ"
    ],
    [
      "എന്നിവ",
      "</w>"
    ],
    [
      "ുട",
      "െയും</w>"
    ],
    [
      "ീ",
      "കര"
    ],
    [
      "എല്ല",
      "ാ</w>"
    ],
    [
      "ആ",
      "ണ"
    ],
    [
      "ട",
      "ക്ക"
    ],
    [
      "േ",
      "ക്കാ"
    ],
    [
      "ൽ",
      "ക്ക"
    ],
    [
      "പ്രത്യ",
      "േ"
    ],
    [
      "ര",
      "്യ"
    ],
    [
      "ൻ",
      "സ"
    ],
    [
      "പ്പ",
      "ം</w>"
    ],
    [
      "പ്പോഴ",
      "ും</w>"
    ],
    [
      "അ",
      "ംഗ"
    ],
    [
      "സം",
      "ഘ"
    ],
    [
      "അവ",
      "സ"
    ],
    [
      "ഡ",
      "ോ"
    ],
    [
      "വള",
      "രെ</w>"
    ],
    [
      "പ",
      "തി"
    ],
    [
      "ാര",
      "ാ"
    ],
    [
      "മീ",
      "റ്റ"
    ],
    [
      "ർ",
      "ത്ത"
    ],
    [
      "നാ",
      "യ</w>"
    ],
    [
      "ോ",
      "ഷ"
    ],
    [
      "കാര",
      "ണ"
    ],
    [
      "ക",
      "െ"
    ],
    [
      "സ്ട",
      "്ര"
    ],
    [
      "നി",
      "ക്ക്</w>"
    ],
    [
      "ഴ",
      "ു"
    ],
    [
      "ഹി",
      "ന്ദ"
    ],
    [
      "ശ",
      "ി"
    ],
    [
      "മാ",
      "റ്റ"
    ],
    [
      "പറ",
      "യ"
    ],
    [
      "ത",
      "െ</w>"
    ],
    [
      "ു",
      "മായി</w>"
    ],
    [
      "സമ",
      "യ"
    ],
    [
      "സം",
      "ഗീ"
    ],
    [
      "റ",
      "ിയ</w>"
    ],
    [
      "ലോ",
      "ക"
    ],
    [
      "മ",
      "ൈ"
    ],
    [
      "ദ",
      "ി"
    ],
    [
      "ത",
      "ന്ന"
    ],
    [
      "ഫ",
      "െ"
    ],
    [
      "മ്",
      "പ്"
    ],
    [
      "ങ്ങള",
      "െ</w>"
    ],
    [
      "ർ",
      "ക്ക"
    ],
    [
      "വ",
      "ഴ"
    ],
    [
      "വ",
      "</w>"
    ],
    [
      "അ",
      "റിയ"
    ],
    [
      "ു",
      "മ്പോ"
    ],
    [
      "വ്യ",
      "ത്യ"
    ],
    [
      "വാ",
      "ഹ"
    ],
    [
      "സ്ഥ",
      "ല"
    ],
    [
      "ജ",
      "ൂ"
    ],
    [
      "ശ",
      "ു"
    ],
    [
      "ൂ",
      "ട"
    ],
    [
      "കേ",
      "ന്ദ്ര"
    ],
    [
      "ഭാ",
      "ഷ"
    ],
    [
      "ുകള",
      "ുടെ</w>"
    ],
    [
      "ക്ഷേ",
      "ത്ര"
    ],
    [
      "ഫ",
      "്ര"
    ],
    [
      "േ",
      "ഖ"
    ],
    [
      "ല",
      "ിയ"
    ],
    [
      "അ",
      "ന്ത"
    ],
    [
      "തി",
      "യ</w>"
    ],
    [
      "വി",
      "ട"
    ],
    [
      "വേ",
      "ണ്ട"
    ],
    [
      "അ",
      "ടി"
    ],
    [
      "മേ",
      "ഖ"
    ],
    [
      "ഞ്ഞ",
      "</w>"
    ],
    [
      "കഴ",
      "ി"
    ],
    [
      "ി",
      "ൽ,</w>"
    ],
    [
      "ീ",
      "</w>"
    ],
    [
      "ീ",
      "യ</w>"
    ],
    [
      "ത",
      "ട"
    ],
    [
      "കള",
      "ിൽ</w>"
    ],
    [
      "ഫ",
      "ി"
    ],
    [
      "ന്",
      "യൂ"
    ],
    [
      "ഓ",
      "ഫ്</w>"
    ],
    [
      "ങ്ങ",
      "ള്‍</w>"
    ],
    [
      "ഞ",
      "ാൻ</w>"
    ],
    [
      "ജീ",
      "വി"
    ],
    [
      "സ",
      "ിൽ</w>"
    ],
    [
      "കാര",
      "്യ"
    ],
    [
      "െയ",
      "്"
    ],
    [
      "റ",
      "ിൽ</w>"
    ],
    [
      "ത",
      "ം</w>"
    ],
    [
      "ജ",
      "ില്ല"
    ],
    [
      "ൻ",
      ",</w>"
    ],
    [
      "ന്",
      "യ"
    ],
    [
      "പരി",
      "ശ"
    ],
    [
      "ിച്ച",
      "ത്.</w>"
    ],
    [
      "വെ",
      "ള്ള"
    ],
    [
      "ിട്ട",
      "ുണ്ട്.</w>"
    ],
    [
      "ല",
      "ി</w>"
    ],
    [
      "ഓ",
      "ര"
    ],
    [
      "െയ",
      "ുള്ള</w>"
    ],
    [
      "പാ",
      "ട"
    ],
    [
      "ച്ച",
      "ി"
    ],
    [
      "ർ",
      "ക്ക്</w>"
    ],
    [
      "ാന",
      "ുള്ള</w>"
    ],
    [
      "ുന്നതി",
      "ന്</w>"
    ],
    [
      "രിക്ക",
      "ുന്നു.</w>"
    ],
    [
      "നി",
      "മ"
    ],
    [
      "സ",
      "ിയ"
    ],
    [
      "ച",
      "ാ"
    ],
    [
      "വ",
      "േഷ"
    ],
    [
      "ീ",
      "കരിക്ക"
    ],
    [
      "സ്",
      "വാ"
    ],
    [
      "ര",
      "</w>"
    ],
    [
      "മ",
      "ൊ"
    ],
    [
      "മ",
      "ിക"
    ],
    [
      "ൾ",
      ",</w>"
    ],
    [
      "മ്",
      "പ്</w>"
    ],
    [
      "ാ",
      "ക"
    ],
    [
      "പ",
      "ങ്ക"
    ],
    [
      "യില",
      "്‍</w>"
    ],
    [
      "ംഗ",
      "്ല"
    ],
    [
      "ര",
      "ം</w>"
    ],
    [
      "ര",
      "ി</w>"
    ],
    [
      "ഗ",
      "െയി"
    ],
    [
      "കു",
      "ട്ട"
    ],
    [
      "1",
      "8"
    ],
    [
      "ത്ര",
      "</w>"
    ],
    [
      "നൂ",
      "റ്റാ"
    ],
    [
      "പിന്ന",
      "ീ"
    ],
    [
      "ആദ്യ",
      "</w>"
    ],
    [
      "മാ",
      "യും</w>"
    ],
    [
      "സാധാരണ",
      "യായി</w>"
    ],
    [
      "ക്ക",
      "ോ"
    ],
    [
      "വി",
      "ഷ"
    ],
    [
      "ക",
      "ലാ"
    ],
    [
      "വ",
      "രു"
    ],
    [
      "ഫ",
      "ീ"
    ],
    [
      "-",
      "ന്</w>"
    ],
    [
      "ൊ",
      "പ്പം</w>"
    ],
    [
      "ർ",
      "ത്ഥ"
    ],
    [
      "യു",
      "ദ്ധ"
    ],
    [
      "കള",
      "ും</w>"
    ],
    [
      "സ്",
      ".</w>"
    ],
    [
      "വര",
      "്‍"
    ],
    [
      "എ",
      "നിക്ക്</w>"
    ],
    [
      "മാ",
      "ക്ക"
    ],
    [
      "ധിക",
      "ം</w>"
    ],
    [
      "പറ",
      "ഞ്ഞ"
    ],
    [
      "അവസ",
      "ാന"
    ],
    [
      "ഏ",
      "ക"
    ],
    [
      "നാ",
      "ട"
    ],
    [
      "ി",
      ".</w>"
    ],
    [
      "ശ",
      "്ച"
    ],
    [
      "ല്ല",
      "</w>"
    ],
    [
      "ദേശ",
      "ം</w>"
    ],
    [
      "വ",
      "്"
    ],
    [
      "ജ",
      "്യ"
    ],
    [
      "യാ",
      "യ</w>"
    ],
    [
      "കൂ",
      "ട"
    ],
    [
      "വി",
      "ദ്യ"
    ],
    [
      "ഘ",
      "ട്ട"
    ],
    [
      "ദ",
      "ു"
    ],
    [
      "സ",
      "ിക്ക"
    ],
    [
      "പു",
      "തിയ</w>"
    ],
    [
      "റ്റ",
      "്"
    ],
    [
      "സ്",
      ",</w>"
    ],
    [
      "റ",
      "േ"
    ],
    [
      "ത്ത",
      "ു"
    ],
    [
      "ഇ",
      "ൻ"
    ],
    [
      "ത്തി",
      "യ"
    ],
    [
      "ല്ല",
      "ാ"
    ],
    [
      "ക",
      "ഥ"
    ],
    [
      "ത്",
      "വ"
    ],
    [
      "ബ്ര",
      "ിട്ട"
    ],
    [
      "9",
      "</w>"
    ],
    [
      "യി",
      "ട്ട"
    ],
    [
      "സാധ",
      "്യ"
    ],
    [
      "ഉ",
      "ള്ള"
    ],
    [
      "വ്യ",
      "ാപ"
    ],
    [
      "ഇന്ത്യ",
      "യിലെ</w>"
    ],
    [
      "ഫ",
      "ല"
    ],
    [
      "ത",
      "ന്‍റെ</w>"
    ],
    [
      "ഓര",
      "ോ</w>"
    ],
    [
      "ർ",
      "ഡ"
    ],
    [
      "ാർ",
      "ത്ഥ"
    ],
    [
      "ഞ്ഞ",
      "െടു"
    ],
    [
      "ടി",
      ".</w>"
    ],
    [
      "േ",
      "ണ്ട"
    ],
    [
      "പോ",
      "ക"
    ],
    [
      "ക",
      "ൗ"
    ],
    [
      "ജ",
      "്"
    ],
    [
      ",",
      "0"
    ],
    [
      "മായി",
      "രുന്നു.</w>"
    ],
    [
      "ഷ",
      "ോ"
    ],
    [
      "വി",
      "ൽ</w>"
    ],
    [
      "െ",
      ",</w>"
    ],
    [
      "മേഖ",
      "ല"
    ],
    [
      "ഹ",
      "ൈ"
    ],
    [
      "മൂ",
      "ന്ന്</w>"
    ],
    [
      "വാ",
      "ങ്ങ"
    ],
    [
      "രുന്ന",
      "ാല"
    ],
    [
      "പ്പെട",
      "ുകയും</w>"
    ],
    [
      "ോ",
      "ദ"
    ],
    [
      "മ",
      "</w>"
    ],
    [
      "സി",
      "ന"
    ],
    [
      "19",
      "8"
    ],
    [
      "സ",
      "ി</w>"
    ],
    [
      "േ",
      "ക്ക"
    ],
    [
      "മൂ",
      "ല"
    ],
    [
      "ൻ",
      "ഡ്</w>"
    ],
    [
      "സ",
      "ര"
    ],
    [
      "ചെ",
      "ല"
    ],
    [
      "ഷ",
      "ണ"
    ],
    [
      "താ",
      "മ"
    ],
    [
      "എന്നി",
      "രുന്നാല"
    ],
    [
      "ൻ",
      "സ്</w>"
    ],
    [
      "കള",
      "ിക്ക"
    ],
    [
      "തന്ന",
      "െ</w>"
    ],
    [
      "ായി",
      "രിക്ക"
    ],
    [
      "ാമ",
      "ത്തെ</w>"
    ],
    [
      "ള",
      "ം</w>"
    ],
    [
      "നിന്ന",
      "ുള്ള</w>"
    ],
    [
      "മ",
      "ര"
    ],
    [
      "പ്പെട്ട",
      "ി"
    ],
    [
      "ഉ",
      "ത്ത"
    ],
    [
      "ശ്",
      "വ"
    ],
    [
      "കൊ",
      "ണ്ട"
    ],
    [
      "ു",
      ",</w>"
    ],
    [
      "ക്ക",
      "ുന്ന</w>"
    ],
    [
      "ാ",
      "ള"
    ],
    [
      "ുക",
      "ള്‍</w>"
    ],
    [
      "ഞ്ച",
      "്</w>"
    ],
    [
      "ജ",
      "ാ"
    ],
    [
      "ചെയ്യ",
      "ുന്ന</w>"
    ],
    [
      "ർ",
      "ണ"
    ],
    [
      "ത്തി",
      "റ"
    ],
    [
      "മ",
      "ത"
    ],
    [
      "അ",
      "ത"
    ],
    [
      "പ",
      "ഠ"
    ],
    [
      "പിന്നീ",
      "ട്</w>"
    ],
    [
      "നില",
      "െ</w>"
    ],
    [
      "കുട",
      "ു"
    ],
    [
      "പുറ",
      "ത്തിറ"
    ],
    [
      "കള",
      "ുടെ</w>"
    ],
    [
      "ക്കി",
      ".</w>"
    ],
    [
      "സ്",
      "തു"
    ],
    [
      "പ",
      "ാര"
    ],
    [
      "ുകൊ",
      "ണ്ട്</w>"
    ],
    [
      "അദ്ദേഹ",
      "ത്തിൻ്റെ</w>"
    ],
    [
      "ത",
      "ാര"
    ],
    [
      "കര",
      "ണ"
    ],
    [
      "വാ",
      "സ"
    ],
    [
      "ില",
      "ാണ്</w>"
    ],
    [
      "വി",
      "ക"
    ],
    [
      "ഏക",
      "ദേശം</w>"
    ],
    [
      "ആ",
      "ർ"
    ],
    [
      "മു",
      "ഖ"
    ],
    [
      "ഘ",
      "ോഷ"
    ],
    [
      "ദ",
      "്ര"
    ],
    [
      "ജ",
      "്</w>"
    ],
    [
      "ക്",
      "ല"
    ],
    [
      "19",
      "7"
    ],
    [
      "ഹ",
      "െ"
    ],
    [
      "കാ",
      "ശ"
    ],
    [
      "മ",
      "ല"
    ],
    [
      "സാ",
      "മ"
    ],
    [
      "തി",
      "യ"
    ],
    [
      "ം",
      "ശ"
    ],
    [
      "യില",
      "ും</w>"
    ],
    [
      "മു",
      "മ്പ്</w>"
    ],
    [
      "പ്രവർ",
      "ത്ത"
    ],
    [
      "സഹ",
      "ായി"
    ],
    [
      "േഷ",
      "ൻ</w>"
    ],
    [
      "ർ",
      "ന്ന്</w>"
    ],
    [
      "ഗ",
      "ാ"
    ],
    [
      "ല",
      "ും</w>"
    ],
    [
      "ന",
      "ങ്ങൾ</w>"
    ],
    [
      "ച",
      "രി"
    ],
    [
      "ഗ്ര",
      "ഹ"
    ],
    [
      "സ്",
      "വീ"
    ],
    [
      "ഴ",
      "ക്ക"
    ],
    [
      "മായി",
      "രുന്ന"
    ],
    [
      "ഒ",
      "ഴ"
    ],
    [
      "വ്യ",
      "ക്തി"
    ],
    [
      "-",
      "ാം</w>"
    ],
    [
      "ായി",
      ".</w>"
    ],
    [
      "ാല",
      "ി"
    ],
    [
      "ൈ",
      "റ്റ"
    ],
    [
      "പ്ര",
      "ദ"
    ],
    [
      "ില",
      "ി"
    ],
    [
      "മാ",
      "ര"
    ],
    [
      "പ്ര",
      "സി"
    ],
    [
      "മാ",
      "സ"
    ],
    [
      "മീറ്റ",
      "ർ</w>"
    ],
    [
      "ക്",
      "ക്"
    ],
    [
      "ഗ്ര",
      "ാമ"
    ],
    [
      "തി",
      "നാൽ</w>"
    ],
    [
      "ഡ",
      "ി</w>"
    ],
    [
      "ിയ",
      "ും</w>"
    ],
    [
      "'",
      "</w>"
    ],
    [
      "ങ്ങള",
      "ിലും</w>"
    ],
    [
      "ി",
      "ത"
    ],
    [
      "ച",
      "ാര"
    ],
    [
      "ീ",
      "യ"
    ],
    [
      "എ",
      "ഴു"
    ],
    [
      "ക",
      "ം</w>"
    ],
    [
      "അവ",
      "</w>"
    ],
    [
      "തിര",
      "ിച്ച"
    ],
    [
      "ശ്ര",
      "മ"
    ],
    [
      "മ",
      "നു"
    ],
    [
      "പ",
      "രാജ"
    ],
    [
      "ങ്ങൾ",
      ",</w>"
    ],
    [
      "ധിക",
      "ാര"
    ],
    [
      "െയ",
      "ാണ്</w>"
    ],
    [
      "പി",
      "ട"
    ],
    [
      "ണ്",
      "ഡ"
    ],
    [
      "സ",
      "ൃ"
    ],
    [
      "റ",
      "ും</w>"
    ],
    [
      "ി",
      "പ്പിക്ക"
    ],
    [
      "സി",
      "നിമ"
    ],
    [
      ";",
      "</w>"
    ],
    [
      "ർ",
      "ന്ന</w>"
    ],
    [
      "നി",
      "റ"
    ],
    [
      "ടുത്ത",
      "</w>"
    ],
    [
      "ൈ",
      "ന"
    ],
    [
      "അ",
      "യ"
    ],
    [
      "യില",
      "േക്ക്</w>"
    ],
    [
      "ർ",
      ",</w>"
    ],
    [
      "ില",
      "ോ"
    ],
    [
      "ബ",
      "്</w>"
    ],
    [
      "ദ്ദേ",
      "ശ"
    ],
    [
      "വി",
      "ധാന"
    ],
    [
      "െ",
      "ന്ന"
    ],
    [
      "പ്",
      "ല"
    ],
    [
      "യില",
      "്ല"
    ],
    [
      "ത",
      "ൃ"
    ],
    [
      "അടി",
      "സ്ഥാന"
    ],
    [
      "ത",
      "ന്ത്ര"
    ],
    [
      "റ്റ",
      "ി</w>"
    ],
    [
      "ർ",
      "ഡ്</w>"
    ],
    [
      "ുകൾ",
      ",</w>"
    ],
    [
      "ില",
      "ുള്ള</w>"
    ],
    [
      "മ",
      "ോ</w>"
    ],
    [
      "പ",
      "ടി"
    ],
    [
      "മിക",
      "ച്ച</w>"
    ],
    [
      "പ",
      "കര"
    ],
    [
      "മ",
      "ഹ"
    ],
    [
      "കണ്ടെ",
      "ത്ത"
    ],
    [
      "ത്തില",
      "ുള്ള</w>"
    ],
    [
      "ന്",
      "റ"
    ],
    [
      "ൽ",
      "നിന്ന്</w>"
    ],
    [
      "പ",
      "ദ"
    ],
    [
      "ിക",
      "ൾ"
    ],
    [
      "പരാജ",
      "യ"
    ],
    [
      "കോ",
      "ട്ട"
    ],
    [
      "എന്നിരുന്നാല",
      "ും,</w>"
    ],
    [
      "ധ",
      "ി"
    ],
    [
      "സം",
      "വിധാന"
    ],
    [
      "ീഷ",
      "്</w>"
    ],
    [
      "അവ",
      "ത"
    ],
    [
      "ത",
      "ാണ്.</w>"
    ],
    [
      "അ",
      "ല"
    ],
    [
      "പര",
      "മ്പ"
    ],
    [
      "മ",
      "ണ"
    ],
    [
      "പ്ര",
      "ശ"
    ],
    [
      "ങ",
      "്</w>"
    ],
    [
      "നി",
      "ൽ</w>"
    ],
    [
      "ശാ",
      "സ്ത്ര"
    ],
    [
      "ഡ",
      "്ര"
    ],
    [
      "സം",
      "ഭവ"
    ],
    [
      "ത്തില",
      "്‍</w>"
    ],
    [
      "മൂ",
      "ന്ന"
    ],
    [
      "ജ",
      "നി"
    ],
    [
      "്യ",
      "</w>"
    ],
    [
      "ചെ",
      "റിയ</w>"
    ],
    [
      "ഭ",
      "ക്ഷ"
    ],
    [
      "സി",
      "പ്പ"
    ],
    [
      "ുകയ",
      "ോ</w>"
    ],
    [
      "ാ",
      "ം.</w>"
    ],
    [
      "ബ",
      "ർ</w>"
    ],
    [
      "സ്ഥ",
      "ാ"
    ],
    [
      "ശ്ര",
      "ദ്ധ"
    ],
    [
      "സ",
      "ിലെ</w>"
    ],
    [
      "തിര",
      "ഞ്ഞെടു"
    ],
    [
      "വി",
      "ഭാഗ"
    ],
    [
      "സ്റ്റ",
      "ോ"
    ],
    [
      "പ",
      "ീ"
    ],
    [
      "എ",
      "ന്‍റെ</w>"
    ],
    [
      "പ്രവർ",
      "ത്തി"
    ],
    [
      "ർ",
      "മ്മ"
    ],
    [
      "കുടു",
      "ംബ"
    ],
    [
      "ുകൾ",
      "ക്ക്</w>"
    ],
    [
      "ഷ്",
      "ണ"
    ],
    [
      "ഗ",
      "്</w>"
    ],
    [
      "സ",
      "ൗ"
    ],
    [
      "ആ",
      "ഘോഷ"
    ],
    [
      "ുക",
      "</w>"
    ],
    [
      "സ",
      "മ്"
    ],
    [
      "ടീ",
      "മ"
    ],
    [
      "ഉ",
      "റ"
    ],
    [
      "ക",
      "രു"
    ],
    [
      "ഫ",
      "്"
    ],
    [
      "ഘ",
      "ട"
    ],
    [
      "സ",
      "ാര"
    ],
    [
      "ആദ്യ",
      "ത്തെ</w>"
    ],
    [
      "ച",
      "ിക"
    ],
    [
      "ഗ",
      "ി"
    ],
    [
      "മൂ",
      "ഹ"
    ],
    [
      "സംഗീ",
      "ത"
    ],
    [
      "0",
      "-"
    ],
    [
      "ത",
      "ൊ"
    ],
    [
      "കൂടു",
      "തല"
    ],
    [
      "പ്ര",
      "ായ"
    ],
    [
      "നിയ",
      "ന്ത്ര"
    ],
    [
      "ദ",
      "ീ"
    ],
    [
      "കാര",
      "ം</w>"
    ],
    [
      "പു",
      "ര"
    ],
    [
      "പടി",
      "ഞ്ഞ"
    ],
    [
      "േ",
      "യ"
    ],
    [
      "ത്ത",
      "ോ"
    ],
    [
      "ിക്ക",
      "ുന്നത്.</w>"
    ],
    [
      "ർ",
      "ച്ച"
    ],
    [
      "എന്ന",
      "ീ</w>"
    ],
    [
      "്യ",
      "ാ"
    ],
    [
      "20",
      "</w>"
    ],
    [
      "പല",
      "</w>"
    ],
    [
      "െക്കുറ",
      "ിച്ച്</w>"
    ],
    [
      "വി",
      "വര"
    ],
    [
      "മ",
      "ധ്യ"
    ],
    [
      "ീ",
      "ല"
    ],
    [
      "പ",
      "ണം</w>"
    ],
    [
      "ക",
      "ിലോ"
    ],
    [
      "ഗ",
      "ണ"
    ],
    [
      "ട",
      "ങ്ങ"
    ],
    [
      "ഭ",
      "ാര"
    ],
    [
      "ചരി",
      "ത്ര"
    ],
    [
      "ക്കാ",
      "ർ</w>"
    ],
    [
      "ത്",
      ",</w>"
    ],
    [
      "അ",
      "വി"
    ],
    [
      "മ",
      "രണ"
    ],
    [
      "ത",
      "ാണ്</w>"
    ],
    [
      "തോ",
      "ന്ന"
    ],
    [
      "ശ",
      "ാല"
    ],
    [
      "ങ്ങ",
      "നെ</w>"
    ],
    [
      "ദേശ",
      "ീയ</w>"
    ],
    [
      "ജ",
      "ല"
    ],
    [
      "മ",
      "റ"
    ],
    [
      "ഷ",
      "്</w>"
    ],
    [
      "പ",
      "ക്ഷ"
    ],
    [
      "യില",
      "ുള്ള</w>"
    ],
    [
      "ദിവ",
      "സ"
    ],
    [
      "ദ",
      "്</w>"
    ],
    [
      "െക്കുറ",
      "ിച്ച"
    ],
    [
      "ാരാ",
      "ഷ്ട്ര"
    ],
    [
      "ഗ",
      "ാന"
    ],
    [
      "ഴ",
      "്‌"
    ],
    [
      "ദ",
      "ിന"
    ],
    [
      "അവത",
      "രി"
    ],
    [
      "പ്പെട",
      "ുന്ന"
    ],
    [
      "ഇ",
      "ംഗ്ല"
    ],
    [
      "വിജ",
      "യ"
    ],
    [
      "മ",
      "ക"
    ],
    [
      "മ",
      "ന"
    ],
    [
      "പ",
      "ാല"
    ],
    [
      "സൃ",
      "ഷ്ട"
    ],
    [
      "രാ",
      "ഗ"
    ],
    [
      "ർ",
      "ട്ട്</w>"
    ],
    [
      "ചിത്ര",
      "ം</w>"
    ],
    [
      "അഭ",
      "ിന"
    ],
    [
      "വ",
      "ടക്ക"
    ],
    [
      "വി",
      "വാഹ"
    ],
    [
      "അഭ",
      "ി"
    ],
    [
      "മാ",
      "നി"
    ],
    [
      "വീ",
      "ണ്ട"
    ],
    [
      ",0",
      "00</w>"
    ],
    [
      "ത്തില",
      "ും</w>"
    ],
    [
      "ക",
      "ായി"
    ],
    [
      "കണ",
      "ക്കാ"
    ],
    [
      "പൊ",
      "തു"
    ],
    [
      "അമേരിക്ക",
      "ൻ</w>"
    ],
    [
      "ാ",
      "ട"
    ],
    [
      "ക്ക",
      "ുന്ന"
    ],
    [
      "ട്ട",
      "ു"
    ],
    [
      "രാ",
      "ഷ്ട്ര"
    ],
    [
      "സ്ഥി",
      "തി"
    ],
    [
      "ക്",
      "സ്</w>"
    ],
    [
      "മ്",
      "പി"
    ],
    [
      "ങ്ക",
      "ിലും</w>"
    ],
    [
      "ത്സ",
      "വ"
    ],
    [
      "ന്ന",
      "ു.</w>"
    ],
    [
      "പര",
      "മായ</w>"
    ],
    [
      "കാര",
      "ണം</w>"
    ],
    [
      "ബ",
      "ീ"
    ],
    [
      "വ",
      "ഹ"
    ],
    [
      "ബു",
      "ദ്ധ"
    ],
    [
      "ദ്യ",
      "ോഗ"
    ],
    [
      "ക്ര",
      "ോ"
    ],
    [
      "ിയ",
      "ാണ്</w>"
    ],
    [
      "പ്",
      "റ്റ"
    ],
    [
      "അദ്ദേഹ",
      "ത്തിന്‍റെ</w>"
    ],
    [
      "വാ",
      "ദ"
    ],
    [
      "വി",
      "</w>"
    ],
    [
      "വ",
      "ാര"
    ],
    [
      "പ്ര",
      "ോ"
    ],
    [
      "ദ",
      "ശ"
    ],
    [
      "ത്തി",
      "</w>"
    ],
    [
      "രാ",
      "യ</w>"
    ],
    [
      "വ",
      "ംശ"
    ],
    [
      "ഒ",
      "രു"
    ],
    [
      "രിക്ക",
      "ുന്ന</w>"
    ],
    [
      "ല",
      "െ"
    ],
    [
      "എ",
      "ൻ"
    ],
    [
      "വേണ്ട",
      "ി</w>"
    ],
    [
      "19",
      "6"
    ],
    [
      "പ",
      "ണ"
    ],
    [
      "നൂറ്റാ",
      "ണ്ട"
    ],
    [
      "ന്",
      ",</w>"
    ],
    [
      "വര",
      "ി</w>"
    ],
    [
      "ൊ",
      "ന്ന"
    ],
    [
      "ആ",
      "ക്രമ"
    ],
    [
      "തുട",
      "ക്ക"
    ],
    [
      "പോല",
      "ുള്ള</w>"
    ],
    [
      "ുമ്പോ",
      "ൾ</w>"
    ],
    [
      "മ",
      "ന്ത്ര"
    ],
    [
      "ന്",
      "തി"
    ],
    [
      "ആ",
      "ശ"
    ],
    [
      "പോ",
      "യി"
    ],
    [
      "ങ്ങൾ",
      "ക്ക"
    ],
    [
      "പല",
      "പ്പോഴും</w>"
    ],
    [
      "ൃ",
      "ത്ത"
    ],
    [
      "വി",
      "വിധ"
    ],
    [
      "പടിഞ്ഞ",
      "ാറ"
    ],
    [
      "യൂ",
      "ട്ട"
    ],
    [
      "മ",
      "ില്ല"
    ],
    [
      "ചിക",
      "ി"
    ],
    [
      "രാ",
      "ള"
    ],
    [
      "വി",
      "ശേഷ"
    ],
    [
      "പ്രത്യേ",
      "ക"
    ],
    [
      "വേ",
      "ഗ"
    ],
    [
      "സമ",
      "ീ"
    ],
    [
      "ഡ",
      "ാ"
    ],
    [
      "വ",
      "ർ</w>"
    ],
    [
      "തുടങ്ങ",
      "ിയ</w>"
    ],
    [
      "വ്യ",
      "വ"
    ],
    [
      "ഫ",
      "്റ്റ"
    ],
    [
      "പ",
      "ഞ്ച"
    ],
    [
      "െയ",
      "ോ</w>"
    ],
    [
      "മ",
      "ുന്ന"
    ],
    [
      "ഉ",
      "ട"
    ],
    [
      "മ",
      "ുള്ള"
    ],
    [
      "േക്കാ",
      "ം.</w>"
    ],
    [
      "ുന്നതിന",
      "ായി</w>"
    ],
    [
      "ണ",
      "ം.</w>"
    ],
    [
      "ത്തി",
      "നും</w>"
    ],
    [
      "ക്ക",
      "ാല"
    ],
    [
      "എന്ന",
      "ാൽ</w>"
    ],
    [
      "ന്‍റ",
      "്</w>"
    ],
    [
      "ാണ",
      "െന്ന്</w>"
    ],
    [
      "ാ",
      "ത്ത"
    ],
    [
      "മാ",
      "റ"
    ],
    [
      "മറ്റ",
      "ൊരു</w>"
    ],
    [
      "1",
      "7"
    ],
    [
      "്‌",
      "</w>"
    ],
    [
      "സാമ",
      "്രാ"
    ],
    [
      "സ്റ്റ",
      "ി"
    ],
    [
      "നേ",
      "ടി.</w>"
    ],
    [
      "ിയ",
      "െ</w>"
    ],
    [
      "ഹ",
      "ു"
    ],
    [
      "ി",
      "ത്.</w>"
    ],
    [
      "ത",
      "മി"
    ],
    [
      "ഹ",
      "്"
    ],
    [
      "വയ",
      "സ്സ"
    ],
    [
      "ൈറ്റ",
      "ഡ്</w>"
    ],
    [
      "ുകള",
      "െ</w>"
    ],
    [
      "ആള",
      "ുകൾ</w>"
    ],
    [
      "കഴിയ",
      "ും.</w>"
    ],
    [
      "യ",
      "്</w>"
    ],
    [
      "സം",
      "രക്ഷ"
    ],
    [
      "ട",
      "ി</w>"
    ],
    [
      "ജീ",
      "വ"
    ],
    [
      "ംബ",
      "ർ</w>"
    ],
    [
      "ചെയ്ത",
      "</w>"
    ],
    [
      "ക്",
      "രി"
    ],
    [
      "ഉൾ",
      "പ്പെടുന്നു.</w>"
    ],
    [
      "ര",
      "േഖ"
    ],
    [
      "സ്ത്ര",
      "ീ"
    ],
    [
      "ി",
      "പ്പ"
    ],
    [
      "മ്പ",
      "ത്തി"
    ],
    [
      "ന",
      "വ"
    ],
    [
      "മാ",
      "നം</w>"
    ],
    [
      "കമ്പ",
      "നി"
    ],
    [
      "ചെയ്യ",
      "ാൻ</w>"
    ],
    [
      "ക്ക",
      "ൊ"
    ],
    [
      "ഡ",
      "ൽ"
    ],
    [
      "ഉയ",
      "ർന്ന</w>"
    ],
    [
      "ന്‍റ",
      "െയും</w>"
    ],
    [
      "മ",
      "ൃ"
    ],
    [
      "ദിവ",
      "സം</w>"
    ],
    [
      "സി",
      "ൻ്റെ</w>"
    ],
    [
      "ജ",
      "ി</w>"
    ],
    [
      "യാ",
      "ള"
    ],
    [
      "സ്റ്റ",
      "ാ"
    ],
    [
      "ി",
      "യിൽ</w>"
    ],
    [
      "തീ",
      "രു"
    ],
    [
      "സാ",
      "മ്പത്തി"
    ],
    [
      "സം",
      "ഖ്യ"
    ],
    [
      "കീ",
      "ഴ"
    ],
    [
      "ിച്ചി",
      "രുന്നു.</w>"
    ],
    [
      "ന",
      "ഷ്ട"
    ],
    [
      "പരിശ",
      "ോധ"
    ],
    [
      "ൻ്റ",
      "െയും</w>"
    ],
    [
      "ത്",
      "യ</w>"
    ],
    [
      "സമീ",
      "പ"
    ],
    [
      "മ",
      "ി</w>"
    ],
    [
      "ശ",
      "ൈ"
    ],
    [
      "ചെയ്യ",
      "ുന്നത്.</w>"
    ],
    [
      "കഴി",
      "ഞ്ഞ"
    ],
    [
      "പു",
      "ന"
    ],
    [
      "വ",
      "ശ"
    ],
    [
      "യില",
      "ാണ്</w>"
    ],
    [
      "യ്",
      "‌"
    ],
    [
      "ബോ",
      "ൾ</w>"
    ],
    [
      "േ",
      "ക്കും</w>"
    ],
    [
      "ഴ്ച",
      "</w>"
    ],
    [
      "നി",
      "ര്‍"
    ],
    [
      "േ",
      "റ്റ്</w>"
    ],
    [
      "1",
      "0"
    ],
    [
      "ചികി",
      "ത്സ"
    ],
    [
      "ന്",
      "തു"
    ],
    [
      "ജ",
      "്ഞ"
    ],
    [
      "വി",
      "ശ്വ"
    ],
    [
      "നേ",
      "രി"
    ],
    [
      "നു",
      "ശേഷം</w>"
    ],
    [
      "ഭാ",
      "വ"
    ],
    [
      "കൂ",
      "ട്ട"
    ],
    [
      "ഫ",
      "്ല"
    ],
    [
      "ഡ",
      "ോള"
    ],
    [
      "ട",
      "ോ"
    ],
    [
      "ങ്",
      "ക്</w>"
    ],
    [
      "ബ",
      "ംഗ"
    ],
    [
      "!",
      "</w>"
    ],
    [
      "അദ്ദേഹ",
      "ത്തെ</w>"
    ],
    [
      "ഉ",
      "ത്സവ"
    ],
    [
      "ദാ",
      "ഹ"
    ],
    [
      "സ",
      "ില"
    ],
    [
      "ആണ",
      "്</w>"
    ],
    [
      "മാ",
      "റി"
    ],
    [
      "പട്ട",
      "ണ"
    ],
    [
      "നിർ",
      "മ്"
    ],
    [
      "ന",
      "ല്ല</w>"
    ],
    [
      "വ",
      "സ്തു"
    ],
    [
      "ർ",
      "ഷ"
    ],
    [
      "മി",
      "നി"
    ],
    [
      "മു",
      "ട്ട"
    ],
    [
      "വേ",
      "ശ"
    ],
    [
      "വർ",
      "ദ്ധ"
    ],
    [
      "1",
      "5"
    ],
    [
      "ക്",
      "യ"
    ],
    [
      "ികള",
      "ുടെ</w>"
    ],
    [
      "എ",
      "ന്ത"
    ],
    [
      "ഹ",
      "ൃ"
    ],
    [
      "ഷണ",
      "ൽ</w>"
    ],
    [
      "19",
      "5"
    ],
    [
      "ിന",
      "ും</w>"
    ],
    [
      "ത്തി",
      "യ</w>"
    ],
    [
      "നിന്ന",
      "ും</w>"
    ],
    [
      "പ്രത്യേ",
      "ക</w>"
    ],
    [
      "അ",
      "ന"
    ],
    [
      "വീണ്ട",
      "ും</w>"
    ],
    [
      "സ",
      "മ്പ"
    ],
    [
      "ബ്രിട്ട",
      "ീഷ്</w>"
    ],
    [
      "ച",
      "ല"
    ],
    [
      "ു",
      "റ"
    ],
    [
      "റി",
      "പ്പോ"
    ],
    [
      "നൽ",
      "കി"
    ],
    [
      "ദശ",
      "ലക്ഷ"
    ],
    [
      "മിക്ക",
      "</w>"
    ],
    [
      "രാ",
      "മ"
    ],
    [
      "ികള",
      "ും</w>"
    ],
    [
      "യു",
      "ം,</w>"
    ],
    [
      "ചെയ്",
      "തി"
    ],
    [
      "പ",
      "ദ്ധ"
    ],
    [
      "വ",
      "ോ"
    ],
    [
      "ഉ",
      "ദാഹ"
    ],
    [
      "അ",
      "ർ"
    ],
    [
      "മുണ്ട",
      "്.</w>"
    ],
    [
      "ക്ക",
      "ി</w>"
    ],
    [
      "ത്തി",
      "ൽ,</w>"
    ],
    [
      "പ്ര",
      "തീ"
    ],
    [
      "ര",
      "ിച്ചു.</w>"
    ],
    [
      "ണ",
      "ിയ"
    ],
    [
      "യിട്ട",
      "ുണ്ട്.</w>"
    ],
    [
      "െങ്ക",
      "ിൽ,</w>"
    ],
    [
      "താ",
      "ഴ"
    ],
    [
      "പ്രാ",
      "ദേശ"
    ],
    [
      "താമ",
      "സ"
    ],
    [
      "ത",
      "ു</w>"
    ],
    [
      "ഭൂ",
      "രി"
    ],
    [
      "സി",
      "ന്</w>"
    ],
    [
      "ത",
      "മായ</w>"
    ],
    [
      "മായിരുന്ന",
      "ു</w>"
    ],
    [
      "രു",
      "ഷ"
    ],
    [
      "പറഞ്ഞ",
      "ു.</w>"
    ],
    [
      "പ്ര",
      "ശ്"
    ],
    [
      "കോ",
      "ള"
    ],
    [
      "അതി",
      "ൻ്റെ</w>"
    ],
    [
      "കാല",
      "</w>"
    ],
    [
      "വേ",
      "ദ"
    ],
    [
      "മാ",
      "ക"
    ],
    [
      "ുകള",
      "ില"
    ],
    [
      "രീ",
      "തി"
    ],
    [
      "േ",
      "ഴ്"
    ],
    [
      "ല",
      "</w>"
    ],
    [
      "ു",
      "നി"
    ],
    [
      "മ്പ്",
      "യ"
    ],
    [
      "യ",
      "ഥ"
    ],
    [
      "െ",
      "ടുത്ത"
    ],
    [
      "വിവിധ",
      "</w>"
    ],
    [
      "ട",
      "ൈ"
    ],
    [
      "ത്തില",
      "േക്ക്</w>"
    ],
    [
      "സ്ഥി",
      "തി</w>"
    ],
    [
      "മ",
      "ഹാ"
    ],
    [
      "പോ",
      "ലെ</w>"
    ],
    [
      "?",
      "</w>"
    ],
    [
      "അതി",
      "ന്‍റെ</w>"
    ],
    [
      "തെ",
      "ന്ന്</w>"
    ],
    [
      "അവ",
      "ള"
    ],
    [
      "തിര",
      "െ</w>"
    ],
    [
      "സി",
      ".</w>"
    ],
    [
      "ഉദാഹ",
      "രണ"
    ],
    [
      "ചാ",
      "മ്പ്യ"
    ],
    [
      "പാ",
      "ർ"
    ],
    [
      "പുറത്തിറ",
      "ങ്ങ"
    ],
    [
      "ചെയ്യ",
      "ുകയും</w>"
    ],
    [
      "സ",
      "്യ"
    ],
    [
      "ദ",
      "ം</w>"
    ],
    [
      "വർഷ",
      "ം</w>"
    ],
    [
      "അ",
      "പ"
    ],
    [
      "ിച്ച",
      "ു"
    ],
    [
      "പു",
      "രുഷ"
    ],
    [
      "ുക",
      "ി"
    ],
    [
      "ഗ",
      "ോള"
    ],
    [
      "തു",
      "റ"
    ],
    [
      "സ",
      "മ്മ"
    ],
    [
      "വ",
      "ട"
    ],
    [
      "ഉണ്ട",
      "്.</w>"
    ],
    [
      "ായി",
      "രുന്ന</w>"
    ],
    [
      "യ",
      "ുള്ള</w>"
    ],
    [
      "യു",
      "ണ"
    ],
    [
      "ഉ",
      "ത്"
    ],
    [
      "ിച്ച",
      "ിട്ടുണ്ട്.</w>"
    ],
    [
      "മു",
      "നി"
    ],
    [
      "കളിക്ക",
      "ാര"
    ],
    [
      "ആ",
      "ഗ്രഹ"
    ],
    [
      "സ്",
      "കൂ"
    ],
    [
      "ഉ",
      "ൽപ്പ"
    ],
    [
      "ത",
      "മ്മ"
    ],
    [
      "1",
      "6"
    ],
    [
      "ഒ",
      "ളി"
    ],
    [
      "ന്ന",
      "ി"
    ],
    [
      "ഇ",
      "രു"
    ],
    [
      "ാ",
      "ത്ത</w>"
    ],
    [
      "ത്തി",
      "യാ"
    ],
    [
      "ദ്",
      "വീ"
    ],
    [
      "സ",
      "ഭ"
    ],
    [
      "തു",
      "മായ</w>"
    ],
    [
      "വ",
      "ദ"
    ],
    [
      "ിയ",
      "ായ</w>"
    ],
    [
      "അവ",
      "ര്‍</w>"
    ],
    [
      "ക",
      "ർ</w>"
    ],
    [
      "ജീവി",
      "ത"
    ],
    [
      "ത്തിന",
      "ായി</w>"
    ],
    [
      "ജന",
      "പ്ര"
    ],
    [
      "ജ",
      "നു"
    ],
    [
      "സൈ",
      "നി"
    ],
    [
      "പ്ര",
      "തിര"
    ],
    [
      "കാല",
      "ഘട്ട"
    ],
    [
      "ഉപയോഗ",
      "ിച്ച്</w>"
    ],
    [
      "ത്ത",
      "േക്ക്</w>"
    ],
    [
      "പ്ര",
      "േ"
    ],
    [
      "ക്ട",
      "ോ"
    ],
    [
      "ക്ഷേ",
      "പ"
    ],
    [
      "ക്ക",
      "ൾ</w>"
    ],
    [
      "ക്ക",
      "െ"
    ],
    [
      "വ്യ",
      "ാ"
    ],
    [
      "റ",
      "ീ"
    ],
    [
      "വി",
      "നോ"
    ],
    [
      "നാല",
      "്</w>"
    ],
    [
      "സ്റ്റ",
      "േറ്റ"
    ],
    [
      "മുനി",
      "സിപ്പ"
    ],
    [
      "കൊ",
      "ണ്ട്</w>"
    ],
    [
      "ങ്ങ",
      "ള്‍"
    ],
    [
      "്",
      "സ്</w>"
    ],
    [
      "ി",
      "ന്‍റെ</w>"
    ],
    [
      "ശ",
      "ത"
    ],
    [
      "വിജ",
      "യി"
    ],
    [
      "സ",
      "ണ"
    ],
    [
      "സാ",
      "നി"
    ],
    [
      "ിക്കുന്ന",
      "ത്</w>"
    ],
    [
      "കൂ",
      "ടാ"
    ],
    [
      "തുട",
      "ർന്ന്</w>"
    ],
    [
      "തെ",
      "ക്ക"
    ],
    [
      "യുണ",
      "ൈറ്റഡ്</w>"
    ],
    [
      "മാ",
      "ർ</w>"
    ],
    [
      "കോ",
      "ൺ"
    ],
    [
      "ിച്ചി",
      "രുന്ന"
    ],
    [
      "ർ",
      "പ്പ"
    ],
    [
      "ി",
      "ന്</w>"
    ],
    [
      "തി",
      "ന്</w>"
    ],
    [
      "ുക",
      "ാര"
    ],
    [
      "19",
      "4"
    ],
    [
      "െ",
      "ന്നും</w>"
    ],
    [
      "സേ",
      "വന"
    ],
    [
      "സ്",
      "കാര"
    ],
    [
      "ക",
      "യ"
    ],
    [
      "പ്പിക്ക",
      "ുകയും</w>"
    ],
    [
      "ഴക്ക",
      "ൻ</w>"
    ],
    [
      "വു",
      "മായി</w>"
    ],
    [
      "മേ",
      "</w>"
    ],
    [
      "പ്രതിര",
      "ോധ"
    ],
    [
      "വി",
      "മാന"
    ],
    [
      "ാ",
      "ന്‍</w>"
    ],
    [
      "എന്ന",
      "ും</w>"
    ],
    [
      "പി",
      "താ"
    ],
    [
      "റ",
      "ിലെ</w>"
    ],
    [
      "ധ",
      "ാ"
    ],
    [
      "ക്ഷ",
      "ി"
    ],
    [
      "ച്ച",
      "ത്.</w>"
    ],
    [
      "പു",
      "രാ"
    ],
    [
      "സഹ",
      "ോദ"
    ],
    [
      "അവ",
      "സാനി"
    ],
    [
      "ണ",
      "ു"
    ],
    [
      "സ",
      "ന്ദ"
    ],
    [
      "ട",
      "ൂ"
    ],
    [
      "ഒ",
      "ര"
    ],
    [
      "ായ",
      "ക"
    ],
    [
      "പാ",
      "ത്ര"
    ],
    [
      "യൂ",
      "റോ"
    ],
    [
      "കള",
      "െ</w>"
    ],
    [
      "റ",
      "ില"
    ],
    [
      "ജ",
      "െ"
    ],
    [
      "സ്",
      "ത</w>"
    ],
    [
      "ീ",
      "ക്ഷ"
    ],
    [
      "പ്ര",
      "ഖ്യ"
    ],
    [
      "കിലോ",
      "മീറ്റർ</w>"
    ],
    [
      "സമ",
      "യം</w>"
    ],
    [
      "ബ",
      "േ"
    ],
    [
      "ഉപയോഗ",
      "ിക്ക"
    ],
    [
      "മെ",
      "ന്ന"
    ],
    [
      "ക്",
      "യാ"
    ],
    [
      "മു",
      "ൻ"
    ],
    [
      "ഫ",
      "ാ"
    ],
    [
      "ോള",
      "ം</w>"
    ],
    [
      "മനു",
      "ഷ്യ"
    ],
    [
      "ഫ",
      "്രാ"
    ],
    [
      "ക്",
      "സി"
    ],
    [
      "അനു",
      "വദ"
    ],
    [
      "ക്കു",
      "ം.</w>"
    ],
    [
      "വാ",
      "ൻ</w>"
    ],
    [
      "ത്ത",
      "ീ"
    ],
    [
      "മ",
      "ല്ല"
    ],
    [
      "ട്ട",
      "ോ"
    ],
    [
      "ഉപയോഗ",
      "ിക്കുന്നു.</w>"
    ],
    [
      "ുവെ",
      "ന്ന്</w>"
    ],
    [
      "സാ",
      "ഹി"
    ],
    [
      "%",
      "</w>"
    ],
    [
      "മു",
      "ഴ"
    ],
    [
      "ാ",
      "കു"
    ],
    [
      "പ്രഖ്യ",
      "ാപ"
    ],
    [
      "പ്ര",
      "കാരം</w>"
    ],
    [
      "മാത്ര",
      "ം</w>"
    ],
    [
      "ത",
      "വ"
    ],
    [
      "റ",
      "ുകൾ</w>"
    ],
    [
      "ഗ്",
      "ഗ"
    ],
    [
      "വേ",
      "</w>"
    ],
    [
      "ട്ര",
      "ാ"
    ],
    [
      "ന",
      "യി"
    ],
    [
      "വു",
      "മായ</w>"
    ],
    [
      "ഇ",
      "ന"
    ],
    [
      "ജന",
      "സംഖ്യ"
    ],
    [
      "20",
      "2"
    ],
    [
      "രാ",
      "ശ"
    ],
    [
      "സം",
      "സാര"
    ],
    [
      "റ",
      "്</w>"
    ],
    [
      "ഷ്",
      "ഠ"
    ],
    [
      "സൂ",
      "ചി"
    ],
    [
      "പ്ര",
      "ൊ"
    ],
    [
      "ര",
      "ക്ത"
    ],
    [
      "സാമ്രാ",
      "ജ്യ"
    ],
    [
      "ബ",
      "ർ"
    ],
    [
      "റ്റ",
      "്‌"
    ],
    [
      "ി",
      "ൻ്റെ</w>"
    ],
    [
      "അ",
      "റ"
    ],
    [
      "ന്",
      "ത്യ"
    ],
    [
      "നാ",
      "മ"
    ],
    [
      "ങ്ങള",
      "ിലെ</w>"
    ],
    [
      "ല",
      "േ"
    ],
    [
      "ശേഷ",
      "ം,</w>"
    ],
    [
      "ഫ",
      "ിലി"
    ],
    [
      "ദ",
      "ി</w>"
    ],
    [
      "പ്രസി",
      "ഡ"
    ],
    [
      "ഫ",
      "ുട"
    ],
    [
      "ഇ",
      "പ്പോൾ</w>"
    ],
    [
      "ക്",
      "സ"
    ],
    [
      "ത്തോ",
      "ടെ</w>"
    ],
    [
      "മു",
      "ഗ"
    ],
    [
      "സാ",
      "ഹ"
    ],
    [
      "മ്പോ",
      "ൾ</w>"
    ],
    [
      "സാധാരണ",
      "</w>"
    ],
    [
      "ാന",
      "ം</w>"
    ],
    [
      "ഏ",
      "ത"
    ],
    [
      "യാ",
      "ത്ര"
    ],
    [
      "ബ",
      "ി</w>"
    ],
    [
      "സ്",
      "കോ"
    ],
    [
      "അ",
      "ള"
    ],
    [
      "ക്ക",
      "ം</w>"
    ],
    [
      "റ",
      "െ</w>"
    ],
    [
      "മായ",
      "ുള്ള</w>"
    ],
    [
      "െ",
      "ത്ത"
    ],
    [
      "ഭൂരി",
      "ഭാഗ"
    ],
    [
      "ാരാഷ്ട്ര",
      "</w>"
    ],
    [
      "നി",
      "ക്ഷേപ"
    ],
    [
      "ഹ",
      "ാര"
    ],
    [
      "കുറ",
      "ഞ്ഞ</w>"
    ],
    [
      "സി",
      "."
    ],
    [
      "ത്ത",
      "ം</w>"
    ],
    [
      "അവ",
      "രെ</w>"
    ],
    [
      "ഇന്ത്യ",
      "യുടെ</w>"
    ],
    [
      "ധ",
      "ീ"
    ],
    [
      "ഹിന്ദ",
      "ു"
    ],
    [
      "ന",
      "ൃത്ത"
    ],
    [
      "ുകള",
      "ിലെ</w>"
    ],
    [
      "ാ",
      "തെ</w>"
    ],
    [
      "കൊ",
      "ടു"
    ],
    [
      "ര",
      "ോ"
    ],
    [
      "ആ",
      "ൽ"
    ],
    [
      "ിക്ക",
      "ൊ"
    ],
    [
      "പ്രവർത്ത",
      "ന"
    ],
    [
      "സ്",
      "ക"
    ],
    [
      "സ",
      "</w>"
    ],
    [
      "രണ്ട",
      "ാം</w>"
    ],
    [
      "അവി",
      "ടെ</w>"
    ],
    [
      "ച",
      "ോ"
    ],
    [
      "ര",
      "ും</w>"
    ],
    [
      "പ",
      "ത്ര"
    ],
    [
      "വ്യത്യ",
      "സ്ത"
    ],
    [
      "ബി",
      "സിന"
    ],
    [
      "സ",
      "ഞ്ച"
    ],
    [
      "1",
      "0</w>"
    ],
    [
      "തു",
      "വരെ</w>"
    ],
    [
      "ല",
      "ു"
    ],
    [
      "പ്പിക്ക",
      "ുന്നു.</w>"
    ],
    [
      "ഉത്ത",
      "ര"
    ],
    [
      "വിനോ",
      "ദ"
    ],
    [
      "ുക",
      "യും,</w>"
    ],
    [
      "മായി",
      ".</w>"
    ],
    [
      "ത",
      "േ"
    ],
    [
      "പ",
      "ഴ"
    ],
    [
      "പോ",
      "ലീ"
    ],
    [
      "മുനിസിപ്പ",
      "ാലി"
    ],
    [
      "-",
      "</w>"
    ],
    [
      "കണക്കാ",
      "ക്ക"
    ],
    [
      "അവ",
      "ർക്ക്</w>"
    ],
    [
      "ള",
      "ു"
    ],
    [
      "ൂ",
      "ര"
    ],
    [
      "പ്പ",
      "ിച്ചു.</w>"
    ],
    [
      "ട്ര",
      "ോ"
    ],
    [
      "ചെയ്യ",
      "ുന്ന"
    ],
    [
      "ത്ത",
      "ുള്ള</w>"
    ],
    [
      "കാല",
      "ത്ത്</w>"
    ],
    [
      "ച",
      "്"
    ],
    [
      "‌",
      "</w>"
    ],
    [
      "ഉണ്ട",
      "ാക"
    ],
    [
      "സ്",
      "സ്</w>"
    ],
    [
      "തി",
      "രിക്ക"
    ],
    [
      "സമയ",
      "ത്ത്</w>"
    ],
    [
      "ത്ത",
      "െയും</w>"
    ],
    [
      "ികള",
      "ിൽ</w>"
    ],
    [
      "ൻ്റ",
      "്</w>"
    ],
    [
      "അദ്ദേഹ",
      "ത്തിന്</w>"
    ],
    [
      "ന്ന",
      "ു"
    ],
    [
      "പ്പ",
      "ിൽ</w>"
    ],
    [
      "സി",
      "ന്‍റെ</w>"
    ],
    [
      "അ",
      "റി"
    ],
    [
      "വാ",
      "</w>"
    ],
    [
      "എന്ന",
      "റിയ"
    ],
    [
      "ക്കി",
      "ട"
    ],
    [
      "പ്രതി",
      "നി"
    ],
    [
      "വര",
      "ുന്ന</w>"
    ],
    [
      "ണ",
      "്‍"
    ],
    [
      "ക",
      "രാ"
    ],
    [
      "പ്പെ",
      "ടെ</w>"
    ],
    [
      "റെ",
      "ക്കോ"
    ],
    [
      "ഴ",
      "്</w>"
    ],
    [
      "ന്",
      "ത്</w>"
    ],
    [
      "പ്ര",
      "കട"
    ],
    [
      "ആദ്യ",
      "മായി</w>"
    ],
    [
      "രാ",
      "ത്ര"
    ],
    [
      "േ",
      "ലിയ"
    ],
    [
      "പ",
      "ൈ"
    ],
    [
      "റി",
      "ൻ്റെ</w>"
    ],
    [
      "ബ്ര",
      "ാ"
    ],
    [
      "ൂ",
      "ർ</w>"
    ],
    [
      "കൊ",
      "ല്ല"
    ],
    [
      "നിർ",
      "ദ്ദേശ"
    ],
    [
      "എ",
      "തി"
    ],
    [
      "വ",
      "ൃ"
    ],
    [
      "ോട",
      "ൊപ്പം</w>"
    ],
    [
      "ജ",
      "ിയ"
    ],
    [
      "രിക്ക",
      "ുന്നത്.</w>"
    ],
    [
      "മുഴ",
      "ുവ"
    ],
    [
      "ികള",
      "െ</w>"
    ],
    [
      "ഇ",
      "ല്ലാ"
    ],
    [
      "ത",
      "ങ്ങളുടെ</w>"
    ],
    [
      "ര",
      "ച"
    ],
    [
      "യു",
      "മായി</w>"
    ],
    [
      "അദ്ദേഹ",
      "ം.</w>"
    ],
    [
      "പരമ്പ",
      "രാഗ"
    ],
    [
      "പരിശ",
      "ീല"
    ],
    [
      "ഏ",
      "പ്ര"
    ],
    [
      "ുന്നതിന",
      "ുള്ള</w>"
    ],
    [
      "സ",
      "ങ്ക"
    ],
    [
      "സൈ",
      "ന്യ"
    ],
    [
      "കു",
      "റ്റ"
    ],
    [
      "വയസ്സ",
      "ിൽ</w>"
    ],
    [
      "വി",
      "ശ"
    ],
    [
      "19",
      "</w>"
    ],
    [
      "അ",
      "ടുത്ത</w>"
    ],
    [
      "പ്രതീ",
      "ക്ഷ"
    ],
    [
      "കൃ",
      "തി"
    ],
    [
      "പ്പെട",
      "ുന്നത്.</w>"
    ],
    [
      "ുകൊ",
      "ണ്ട"
    ],
    [
      "നേ",
      "ര"
    ],
    [
      "ദേ",
      "വ"
    ],
    [
      "ാണ",
      "്"
    ],
    [
      "റി",
      "ന്</w>"
    ],
    [
      "ിക്ക",
      "ുന്നതി"
    ],
    [
      "ഒളി",
      "മ്പി"
    ],
    [
      "അ",
      "ഞ്ച്</w>"
    ],
    [
      "ലഭ",
      "്യ"
    ],
    [
      "ക്",
      "താ"
    ],
    [
      "അന്ത",
      "രിച്ചു.</w>"
    ],
    [
      "പ്പെടു",
      "ത്തി"
    ],
    [
      "ഗ",
      "്ല"
    ],
    [
      "ി",
      ",</w>"
    ],
    [
      "ണ",
      "ി</w>"
    ],
    [
      "ബ",
      "ൈ"
    ],
    [
      "വെ",
      "ച്ച്</w>"
    ],
    [
      "പ",
      "ശ്ച"
    ],
    [
      "കഥ",
      "ാ"
    ],
    [
      "ർ",
      "ത്തി"
    ],
    [
      "മാറി",
      ".</w>"
    ],
    [
      "വീ",
      "ട്ട"
    ],
    [
      "േക്ക",
      "ുള്ള</w>"
    ],
    [
      "മെ",
      "ഡ"
    ],
    [
      "സൈ",
      "റ്റ"
    ],
    [
      "ഡി",
      "സം"
    ],
    [
      "ഒ",
      "ക്ടോ"
    ],
    [
      "ക്ക",
      "ിയ"
    ],
    [
      "ദശലക്ഷ",
      "ം</w>"
    ],
    [
      "രിക്ക",
      "ുന്ന"
    ],
    [
      "ത്തില",
      "ാണ്</w>"
    ],
    [
      "ആണ",
      "്.</w>"
    ],
    [
      "ാന",
      "ായി</w>"
    ],
    [
      "പരി",
      "പാട"
    ],
    [
      "മു",
      "തല"
    ],
    [
      "ല",
      "ൂ"
    ],
    [
      "ദ",
      "ക്ഷി"
    ],
    [
      "സ",
      "മൂഹ"
    ],
    [
      "നട",
      "ന്ന</w>"
    ],
    [
      "ട്ട",
      "</w>"
    ],
    [
      "ീ",
      "വ്</w>"
    ],
    [
      "ുകയ",
      "ാണ"
    ],
    [
      "ർന്ന",
      "ു.</w>"
    ],
    [
      "സ",
      "മാ"
    ],
    [
      "ഉള്ള",
      "</w>"
    ],
    [
      "ക",
      "ന"
    ],
    [
      "1",
      "2"
    ],
    [
      "താ",
      "</w>"
    ],
    [
      "യഥ",
      "ാർത്ഥ"
    ],
    [
      "കൾ",
      "ക്ക്</w>"
    ],
    [
      "എ",
      "സ്"
    ],
    [
      "തീ",
      "ര"
    ],
    [
      "നിർ",
      "ത്ത"
    ],
    [
      "1",
      "3"
    ],
    [
      "ഇ",
      "ല്ല"
    ],
    [
      "മ",
      "്യൂ"
    ],
    [
      "ഭ",
      "ോ"
    ],
    [
      "രാ",
      "ധ"
    ],
    [
      "ഞ",
      "്"
    ],
    [
      "എ",
      "ം"
    ],
    [
      "വ്യാപ",
      "ാര"
    ],
    [
      "അവ",
      "ാർ"
    ],
    [
      "അന്ത",
      "ാരാഷ്ട്ര</w>"
    ],
    [
      "ഓ",
      "ഫീ"
    ],
    [
      "പ്പ",
      "ാ"
    ],
    [
      "തീരു",
      "മാനി"
    ],
    [
      "സര",
      "ിച്ച്</w>"
    ],
    [
      "പ്രാദേശ",
      "ിക</w>"
    ],
    [
      "പദ്ധ",
      "തി"
    ],
    [
      "എന്നി",
      "വിട"
    ],
    [
      "ക",
      "ുന്ന"
    ],
    [
      "എന്ന",
      "ത്</w>"
    ],
    [
      "മാത്ര",
      "മേ</w>"
    ],
    [
      "മ",
      "തി"
    ],
    [
      "കുറ",
      "ഞ്ഞ"
    ],
    [
      "വാ",
      "യ</w>"
    ],
    [
      "ങ്ങള",
      "ില്‍</w>"
    ],
    [
      "പൂർ",
      "ണ്ണ"
    ],
    [
      "മു",
      "സ്"
    ],
    [
      "സംവിധാന",
      "ം</w>"
    ],
    [
      "അപ",
      "കട"
    ],
    [
      "ഉണ്ട",
      "ാക്ക"
    ],
    [
      "ല",
      "ിൽ</w>"
    ],
    [
      "ക്",
      "ലാ"
    ],
    [
      "എ",
      "യ"
    ],
    [
      "ിക്ക",
      "ൽ</w>"
    ],
    [
      "എന്നിവ",
      "യാണ്</w>"
    ],
    [
      "സ",
      "ര്‍"
    ],
    [
      "ിക്ക",
      "ു"
    ],
    [
      "കൊണ്ട",
      "ു"
    ],
    [
      "ണ്",
      "ണം</w>"
    ],
    [
      "ുവെ",
      "ങ്കിലും</w>"
    ],
    [
      "മാ",
      "താ"
    ],
    [
      "ിക",
      "മായി</w>"
    ],
    [
      "കേ",
      "ര"
    ],
    [
      "പാ",
      "ദ"
    ],
    [
      "ക",
      "മ്പ്"
    ],
    [
      "പി",
      "ന്തു"
    ],
    [
      "ഗ്ര",
      "ൂ"
    ],
    [
      "ത്ത",
      "ും</w>"
    ],
    [
      "-",
      "ലെ</w>"
    ],
    [
      "സ്വ",
      "ന്ത"
    ],
    [
      "െ",
      "ല്ല"
    ],
    [
      "സ",
      "മു"
    ],
    [
      "നി",
      "ശ്ച"
    ],
    [
      "ണ",
      "ങ്ങൾ</w>"
    ],
    [
      "സെ",
      "പ്റ്റ"
    ],
    [
      "വി",
      "യ"
    ],
    [
      "പടിഞ്ഞാറ",
      "ൻ</w>"
    ],
    [
      "സി",
      "സ്റ്റ"
    ],
    [
      "ഹിന്ദ",
      "ു</w>"
    ],
    [
      "പകര",
      "ം</w>"
    ],
    [
      "ഏ",
      "ഷ്യ"
    ],
    [
      "ൻ",
      ".</w>"
    ],
    [
      "എ",
      "ടു"
    ],
    [
      "തല",
      "സ്ഥാന"
    ],
    [
      "റ",
      "ൽ</w>"
    ],
    [
      "യി",
      "ൽ,</w>"
    ],
    [
      "വ",
      "കലാ"
    ],
    [
      "വകലാ",
      "ശാല"
    ],
    [
      "െക്കുറിച്ച",
      "ുള്ള</w>"
    ],
    [
      "ന",
      "ാണ്</w>"
    ],
    [
      "ു",
      "വി"
    ],
    [
      "ജില്ല",
      "യിലെ</w>"
    ],
    [
      "ഇ",
      "ത്.</w>"
    ],
    [
      "അ",
      "ക്ക"
    ],
    [
      "മെ",
      "ന്‍റ"
    ],
    [
      "ഫുട",
      "്"
    ],
    [
      "ിയ",
      "ാ"
    ],
    [
      "കായി",
      "ക</w>"
    ],
    [
      "പ",
      "ട"
    ],
    [
      "കമ്പ്",
      "യൂട്ട"
    ],
    [
      "ുള്ള",
      "ിൽ</w>"
    ],
    [
      "രാ",
      "വ"
    ],
    [
      "സ",
      "മാന"
    ],
    [
      "ജോ",
      "ലി</w>"
    ],
    [
      "ദ",
      "ൈ"
    ],
    [
      "വ്യത്യ",
      "സ്ത</w>"
    ],
    [
      "ൂ",
      "ട്ട"
    ],
    [
      "പ",
      "രാമ"
    ],
    [
      "കഥാ",
      "പാത്ര"
    ],
    [
      "ാര",
      "്‍"
    ],
    [
      "പ്രശ",
      "സ്ത"
    ],
    [
      "അ",
      "ധികാര"
    ],
    [
      "ജൂ",
      "ലൈ"
    ],
    [
      "ംഗ",
      "്"
    ],
    [
      "ന",
      "യ"
    ],
    [
      "പഞ്ച",
      "ാ"
    ],
    [
      "ലോ",
      "ക</w>"
    ],
    [
      "ർ",
      ".</w>"
    ],
    [
      "ങ്ങൾ",
      ".</w>"
    ],
    [
      "ക",
      "ള്‍</w>"
    ],
    [
      "ി",
      "ൽ"
    ],
    [
      "നാ",
      "ഷണൽ</w>"
    ],
    [
      "കു",
      "തി"
    ],
    [
      "ശ",
      "രീ"
    ],
    [
      "ുക",
      "ാ"
    ],
    [
      "മണ",
      "ിക്ക"
    ],
    [
      "ില",
      "ും,</w>"
    ],
    [
      "ത",
      "ടാ"
    ],
    [
      "ുകള",
      "ിലും</w>"
    ],
    [
      "നി",
      "ക്ക"
    ],
    [
      "പ്ര",
      "വി"
    ],
    [
      "വ",
      "ന്ന"
    ],
    [
      "പറയ",
      "ുന്നു.</w>"
    ],
    [
      ")",
      ",</w>"
    ],
    [
      "പ",
      "ക്ഷേ"
    ],
    [
      "പാര",
      "മ്പ"
    ],
    [
      "ന്മാ",
      "ർ</w>"
    ],
    [
      "നീ",
      "ണ്ട"
    ],
    [
      "പ്രവി",
      "ശ്യ"
    ],
    [
      "ശ",
      "ിവ"
    ],
    [
      "റ്റ",
      "ിന"
    ],
    [
      "ന",
      "ല്‍"
    ],
    [
      "സഹ",
      "ായ"
    ],
    [
      "രണ്ട",
      "ാമത്തെ</w>"
    ],
    [
      "മ",
      "റാ"
    ],
    [
      "മു",
      "റ"
    ],
    [
      "ബ്",
      "രു"
    ],
    [
      "യി",
      "ൽ"
    ],
    [
      "അടിസ്ഥാന",
      "മാക്ക"
    ],
    [
      "ിയ",
      "ായി</w>"
    ],
    [
      "ു",
      "മുള്ള</w>"
    ],
    [
      "ർ",
      "ഘ"
    ],
    [
      "പ്",
      "പ്"
    ],
    [
      "കേര",
      "ള"
    ],
    [
      "പ്രത്യ",
      "ക്ഷ"
    ],
    [
      "എ",
      "</w>"
    ],
    [
      "ക",
      "ിട്ട"
    ],
    [
      "ഓ",
      "സ്ട്ര"
    ],
    [
      "ജനി",
      "ച്ചത്.</w>"
    ],
    [
      "ഉറ",
      "പ്പ"
    ],
    [
      "കരു",
      "ത"
    ],
    [
      "ആ",
      "ന"
    ],
    [
      "ാവ",
      "സ്ഥ"
    ],
    [
      "ഗ്ര",
      "ീ"
    ],
    [
      "ഷ",
      "േ"
    ],
    [
      "ഡിയ",
      "ോ</w>"
    ],
    [
      "ാ",
      "ം"
    ],
    [
      "ാ",
      "ഭ"
    ],
    [
      "സർ",
      "ക്കാർ</w>"
    ],
    [
      "ഹി",
      "ത"
    ],
    [
      "ഭ",
      "വി"
    ],
    [
      "പൂർ",
      "ത്തിയാ"
    ],
    [
      "അ",
      "ത്"
    ],
    [
      "ലക്ഷ",
      "്യ"
    ],
    [
      "അവ",
      "കാശ"
    ],
    [
      "നഗര",
      "മാണ്</w>"
    ],
    [
      "അവ",
      "ൾ</w>"
    ],
    [
      "അഭിന",
      "യി"
    ],
    [
      "ല",
      "ുകൾ</w>"
    ],
    [
      "പ്പെടു",
      "ത്തി.</w>"
    ],
    [
      "സ്വാ",
      "ധീ"
    ],
    [
      "ഡ",
      "ീ"
    ],
    [
      "േഷ",
      "്യ"
    ],
    [
      "ദ",
      "</w>"
    ],
    [
      "ഇന്",
      "ത്യ</w>"
    ],
    [
      "പുരാ",
      "ത"
    ],
    [
      "ർ",
      "ബ"
    ],
    [
      "ചെ",
      "റു"
    ],
    [
      "മ",
      "ിയ"
    ],
    [
      "സ",
      "ും</w>"
    ],
    [
      "ശ",
      "ബ്"
    ],
    [
      "അ",
      "ര"
    ],
    [
      "റി",
      "ന്‍റെ</w>"
    ],
    [
      "ിച്ച",
      "ിട്ട"
    ],
    [
      "ഫെ",
      "ബ്രു"
    ],
    [
      "പട്ട",
      "ിക"
    ],
    [
      "നീ",
      "ളം</w>"
    ],
    [
      "ഷ",
      "ാ"
    ],
    [
      "ശ്",
      "വാസ"
    ],
    [
      "ദ്വീ",
      "പ"
    ],
    [
      "ച",
      "ോദ"
    ],
    [
      "വഴ",
      "ി</w>"
    ],
    [
      "സ",
      "വിശേഷ"
    ],
    [
      "ാണ",
      "ിത്.</w>"
    ],
    [
      "ക്കി",
      "ന്</w>"
    ],
    [
      "പു",
      "ല"
    ],
    [
      "ഒഴ",
      "ി"
    ],
    [
      "െയ",
      "്</w>"
    ],
    [
      "സു",
      "രക്ഷ"
    ],
    [
      "ക്ക",
      "ായി</w>"
    ],
    [
      "നിർമ്",
      "മാണ"
    ],
    [
      "ൗ",
      "ണ്ട"
    ],
    [
      "റ്റ",
      "</w>"
    ],
    [
      "ഐ",
      "ക്യ"
    ],
    [
      "മൃ",
      "ഗ"
    ],
    [
      "ിക്കാ",
      "ം.</w>"
    ],
    [
      "പ്രസി",
      "ദ്ധ"
    ],
    [
      "സ",
      "ന്ത"
    ],
    [
      "ൾ",
      "ക്ക്</w>"
    ],
    [
      "മ",
      "ഴ"
    ],
    [
      "ഇ",
      "ഷ്ട"
    ],
    [
      "തി",
      "ൽ</w>"
    ],
    [
      "ച",
      "തു"
    ],
    [
      "ത",
      "ോ</w>"
    ],
    [
      "ഓ",
      "പ്പ"
    ],
    [
      "കര",
      "മായ</w>"
    ],
    [
      "ഔ",
      "ദ്യോഗ"
    ],
    [
      "തര",
      "ം</w>"
    ],
    [
      "പ്ര",
      "വേശ"
    ],
    [
      "തിരഞ്ഞെടു",
      "ക്ക"
    ],
    [
      "കള",
      "ില"
    ],
    [
      "സാധ്യ",
      "തയ"
    ],
    [
      "ഉപ",
      "കരണ"
    ],
    [
      "ച്ച",
      "്"
    ],
    [
      "പരാമ",
      "ർശ"
    ],
    [
      "വര",
      "ും</w>"
    ],
    [
      "വൈ",
      "ദ്യ"
    ],
    [
      "പക്ഷേ",
      "</w>"
    ],
    [
      "കൾ",
      ",</w>"
    ],
    [
      "കുറ",
      "ച്ച്</w>"
    ],
    [
      "സി",
      "നെ</w>"
    ],
    [
      "ത്ത",
      "േ"
    ],
    [
      "സഹോദ",
      "ര"
    ],
    [
      "ആശ",
      "യ"
    ],
    [
      "ജനു",
      "വരി</w>"
    ],
    [
      "സാമ്പത്തി",
      "ക</w>"
    ],
    [
      "വ",
      "സ്ത്ര"
    ],
    [
      "സന്ദ",
      "ർശ"
    ],
    [
      "നേട",
      "ിയ</w>"
    ],
    [
      "റ",
      "ിന"
    ],
    [
      "ാ",
      "ധികാര"
    ],
    [
      "തവ",
      "ണ</w>"
    ],
    [
      "വാ",
      "ക്ക"
    ],
    [
      "കണ",
      "ക്ക"
    ],
    [
      "ചു",
      "റ്റ"
    ],
    [
      "കാര",
      "്യം</w>"
    ],
    [
      "ര",
      "ുകയും</w>"
    ],
    [
      "ഘട",
      "ക"
    ],
    [
      "ശ",
      "ക്ത"
    ],
    [
      "ഭ",
      "ര"
    ],
    [
      "ആ",
      "രാധ"
    ],
    [
      "അ",
      "ഥ"
    ],
    [
      "ൻ",
      "ഷി"
    ],
    [
      "കോ",
      "ശ"
    ],
    [
      "കൃ",
      "ത്യ"
    ],
    [
      "പേര",
      "ിൽ</w>"
    ],
    [
      "മ",
      "യ"
    ],
    [
      "മാ",
      "ൻ</w>"
    ],
    [
      "എ",
      "സ്</w>"
    ],
    [
      "1",
      "4"
    ],
    [
      "ആ",
      "ത്"
    ],
    [
      "ൂ",
      ".</w>"
    ],
    [
      "വ",
      "ിക്ക"
    ],
    [
      "ത്തിന",
      "ുള്ള</w>"
    ],
    [
      "ടീ",
      "ം</w>"
    ],
    [
      "ത്തി",
      "ന്,</w>"
    ],
    [
      "ള",
      "ിവ"
    ],
    [
      "ണ",
      "്‍</w>"
    ],
    [
      "ആയി",
      "</w>"
    ],
    [
      "ഭക്ഷ",
      "ണ"
    ],
    [
      "പ്രധാന",
      "മായും</w>"
    ],
    [
      "ിയ",
      "ുള്ള</w>"
    ],
    [
      "സ്",
      "പോ"
    ],
    [
      "സ്വ",
      "യം</w>"
    ],
    [
      "ത്വ",
      "ം</w>"
    ],
    [
      "ികൾ",
      "ക്ക്</w>"
    ],
    [
      "യില്ല",
      ".</w>"
    ],
    [
      "പ",
      "ർ"
    ],
    [
      "ടെ",
      "ലി"
    ],
    [
      "ാ",
      "കാ"
    ],
    [
      "തെ",
      ",</w>"
    ],
    [
      "ത്",
      "ത്,</w>"
    ],
    [
      "ഷ",
      "ൻ</w>"
    ],
    [
      "പ്രദ",
      "ർശ"
    ],
    [
      "ങ്ങൾ",
      "ക്കും</w>"
    ],
    [
      "പേര",
      "്</w>"
    ],
    [
      "മ",
      "രുന്ന"
    ],
    [
      "ക",
      "ണ്ണ"
    ],
    [
      "കൗ",
      "ണ്ടി"
    ],
    [
      "ഒ",
      "രാള"
    ],
    [
      "ഇ",
      "സ്"
    ],
    [
      "ഉണ്ട",
      "ായിരുന്നു.</w>"
    ],
    [
      "റ്റ",
      "ിൽ</w>"
    ],
    [
      "ഗെയി",
      "ം"
    ],
    [
      "മ",
      "ഞ്ഞ"
    ],
    [
      "സി",
      "ംഗ്</w>"
    ],
    [
      "നൽകി",
      ".</w>"
    ],
    [
      "പോ",
      "രാ"
    ],
    [
      "റ",
      "</w>"
    ],
    [
      "ധ",
      "ന"
    ],
    [
      "ന്",
      "യാ"
    ],
    [
      "അട",
      "ങ്ങ"
    ],
    [
      "വൈ",
      "റ"
    ],
    [
      "വിവാഹ",
      "ം</w>"
    ],
    [
      "ച",
      "ക്ര"
    ],
    [
      "ശ",
      "ക്തി"
    ],
    [
      "വ",
      "നി"
    ],
    [
      "യി",
      "രുന്നു.</w>"
    ],
    [
      "ചാമ്പ്യ",
      "ൻഷി"
    ],
    [
      "ന",
      "ായി</w>"
    ],
    [
      "ൻഡ",
      "ോ"
    ],
    [
      "കേ",
      "സ"
    ],
    [
      "ുന്നതി",
      "ൽ</w>"
    ],
    [
      "ണ",
      "മെന്ന്</w>"
    ],
    [
      "െയ",
      "ർ</w>"
    ],
    [
      "അനു",
      "ഭവ"
    ],
    [
      "കള",
      "ിലും</w>"
    ],
    [
      "ആയി",
      "രുന്നു.</w>"
    ],
    [
      "നീ",
      "സ്</w>"
    ],
    [
      "പി",
      "ൻ"
    ],
    [
      "ചല",
      "ച്ചി"
    ],
    [
      "കമ്പ",
      "നി</w>"
    ],
    [
      "ാ",
      "സ"
    ],
    [
      "ഉപയോഗ",
      "ിക്കുന്ന</w>"
    ],
    [
      "ൻഡ",
      "്ര"
    ],
    [
      "ിക്ക",
      "ുക.</w>"
    ],
    [
      "രിക്ക",
      "ുകയും</w>"
    ],
    [
      "ക",
      "മ്മ"
    ],
    [
      "അ",
      "യാ"
    ],
    [
      "േക്കാ",
      "ൾ</w>"
    ],
    [
      "അഥ",
      "വാ</w>"
    ],
    [
      "പങ്ക",
      "െടു"
    ],
    [
      "പ്രത്യേക",
      "ിച്ച്</w>"
    ],
    [
      "ആ",
      "ശ്ര"
    ],
    [
      "ഡൽ",
      "ഹി"
    ],
    [
      "ന",
      "ു</w>"
    ],
    [
      "ഖ",
      "ണ്ഡ"
    ],
    [
      "ആ",
      "യ</w>"
    ],
    [
      "പാ",
      "ർട്ട"
    ],
    [
      "പാരമ്പ",
      "ര്യ"
    ],
    [
      "ിച്ച",
      "ുകൊണ്ട്</w>"
    ],
    [
      "തട",
      "യ"
    ],
    [
      "ത്ത",
      "ോട"
    ],
    [
      "വ്",
      "വ"
    ],
    [
      "ുള്ള",
      "ത്.</w>"
    ],
    [
      "പ്രതിനി",
      "ധ"
    ],
    [
      "അ",
      "ടുത്ത"
    ],
    [
      "പോ",
      "ള"
    ],
    [
      ".എ",
      "സ്"
    ],
    [
      "ത്തി",
      "നു"
    ],
    [
      "കോള",
      "േ"
    ],
    [
      "ഉദാഹരണ",
      "ത്തിന്,</w>"
    ],
    [
      "ാ",
      "ത"
    ],
    [
      "പ്",
      "യ"
    ],
    [
      "സി",
      "ംഗ"
    ],
    [
      "സാ",
      "മൂഹ"
    ],
    [
      "മ",
      "ിന"
    ],
    [
      "19",
      "3"
    ],
    [
      "ങ്ങള",
      "ുടെയും</w>"
    ],
    [
      "ഗു",
      "ഹ"
    ],
    [
      "മൊ",
      "ത്തം</w>"
    ],
    [
      "ജ",
      "ൈ"
    ],
    [
      "ആ",
      "ധ"
    ],
    [
      "മാണ",
      "െന്ന്</w>"
    ],
    [
      "സോ",
      "ഫ്റ്റ"
    ],
    [
      "വ്യവ",
      "സാ"
    ],
    [
      "െടുത്ത",
      "ു.</w>"
    ],
    [
      "വ",
      "ായി"
    ],
    [
      "നെ",
      "ക്കുറ"
    ],
    [
      "ബി",
      "."
    ],
    [
      "ക്ര",
      "ിയ"
    ],
    [
      "രാജ",
      "വംശ"
    ],
    [
      "സ്റ്റ",
      "േ"
    ],
    [
      "ഗു",
      "രു"
    ],
    [
      "ക്",
      "രാ"
    ],
    [
      "സ്വീ",
      "ഡ"
    ],
    [
      "സർ",
      "വകലാശാല"
    ],
    [
      "മാർ",
      "ച്ച്</w>"
    ],
    [
      "കൊ",
      "ള"
    ],
    [
      "ു",
      "ം"
    ],
    [
      "നാ",
      "യ"
    ],
    [
      "ന",
      "ൈ"
    ],
    [
      "ത",
      "മ"
    ],
    [
      "പ്രൊ",
      "ഫ"
    ],
    [
      "രോഗ",
      "ം</w>"
    ],
    [
      "മന",
      "സ്സ"
    ],
    [
      "ഇന്ത്യ",
      "യിൽ</w>"
    ],
    [
      "20",
      "20</w>"
    ],
    [
      "നീ",
      "ള"
    ],
    [
      "നാ",
      "ഥ"
    ],
    [
      "ആദ്യ",
      "ം</w>"
    ],
    [
      "ഐ",
      "."
    ],
    [
      "ക",
      "െ</w>"
    ],
    [
      "വിശ്വ",
      "സ"
    ],
    [
      "സ",
      "ൺ</w>"
    ],
    [
      "േ",
      "ന്ത്യ"
    ],
    [
      "സംഘ",
      "ടി"
    ],
    [
      "തയ",
      "്യ"
    ],
    [
      "റി",
      "പ്പ"
    ],
    [
      "വ്യ",
      "ക്ത"
    ],
    [
      "തമ്മ",
      "ിലുള്ള</w>"
    ],
    [
      "മ",
      "െയ്</w>"
    ],
    [
      "ക",
      "ാന"
    ],
    [
      "ു",
      "മാണ്</w>"
    ],
    [
      "ുക",
      "ള്‍"
    ],
    [
      "നിന്ന",
      "ാണ്</w>"
    ],
    [
      "ത്ത",
      "ാവ"
    ],
    [
      "ൊ",
      "ക്ക"
    ],
    [
      "ർ",
      "ഭ"
    ],
    [
      "മ",
      "ടങ്ങ"
    ],
    [
      "മെ",
      "ച്ച"
    ],
    [
      "ച്ച",
      "ു"
    ],
    [
      "ദക്ഷി",
      "ണ"
    ],
    [
      "സീ",
      "സണ"
    ],
    [
      "വ",
      "്ര"
    ],
    [
      "മുഴുവ",
      "ൻ</w>"
    ],
    [
      "ഷ",
      "െ"
    ],
    [
      "തുടങ്ങ",
      "ി.</w>"
    ],
    [
      "എല്ല",
      "ാ"
    ],
    [
      "ച",
      "ൈ"
    ],
    [
      "ില",
      "്‍"
    ],
    [
      "സമ്മ",
      "തി"
    ],
    [
      "സ്കൂ",
      "ള"
    ],
    [
      "ട്ട",
      "്"
    ],
    [
      "ഭൂരിഭാഗ",
      "വും</w>"
    ],
    [
      "ശ",
      "രാശ"
    ],
    [
      "പ്പെടുത്ത",
      "ുകയും</w>"
    ],
    [
      "ജ്",
      "ജ"
    ],
    [
      "സംസ്ഥാന",
      "</w>"
    ],
    [
      "ശു",
      "ദ്ധ"
    ],
    [
      "റിപ്പോ",
      "ർട്ട്</w>"
    ],
    [
      "അ",
      "ണു"
    ],
    [
      "തയ്യ",
      "ാറ"
    ],
    [
      "ആധ",
      "ുനി"
    ],
    [
      "എന്ന",
      "ാണ്</w>"
    ],
    [
      "ഉയ",
      "ര"
    ],
    [
      "അ",
      "യോ"
    ],
    [
      "പിട",
      "ിച്ച"
    ],
    [
      "ാ",
      "വി"
    ],
    [
      "തി",
      "ക"
    ],
    [
      "പുറ",
      "ത്ത"
    ],
    [
      "പി",
      "ന്ത"
    ],
    [
      "ബി",
      ".</w>"
    ],
    [
      "ഡ",
      "്‌"
    ],
    [
      "ട്ട",
      "ുണ്ട്.</w>"
    ],
    [
      "ഓ",
      "ഗ"
    ],
    [
      "കോ",
      "ട"
    ],
    [
      "പിന്തു",
      "ണ"
    ],
    [
      "റ്റ",
      "ുകൾ</w>"
    ],
    [
      "ഏ",
      "താ"
    ],
    [
      "വർ",
      "ണ"
    ],
    [
      "എ",
      "സ്.</w>"
    ],
    [
      "രു",
      "ത്ത"
    ],
    [
      "മോ",
      "ശ"
    ],
    [
      "ഒ",
      "രിക്ക"
    ],
    [
      "പ്പിക്ക",
      "ുന്ന</w>"
    ],
    [
      "ച്",
      "ഛ"
    ],
    [
      "യ",
      "േ"
    ],
    [
      "മാ",
      "റ്റി"
    ],
    [
      "-",
      "ല്‍</w>"
    ],
    [
      "ഹ",
      "ോള"
    ],
    [
      "ല",
      "ണ്ട"
    ],
    [
      "ഇതി",
      "ന്</w>"
    ],
    [
      "പിന്ത",
      "ുട"
    ],
    [
      "മറ്റ",
      "ുള്ള"
    ],
    [
      "പ്രശ്",
      "ന"
    ],
    [
      "താ",
      "ഴ്"
    ],
    [
      "ജീ",
      "വന"
    ],
    [
      "വര്‍",
      "ഷ"
    ],
    [
      "ഉ",
      "ദ്യോഗ"
    ],
    [
      "തൊ",
      "ഴ"
    ],
    [
      "അ",
      "റ്റ"
    ],
    [
      "ഡ",
      "</w>"
    ],
    [
      "നി",
      "ങ്ങളെ</w>"
    ],
    [
      "ആ",
      "ദ"
    ],
    [
      "ഗെയി",
      "മ"
    ],
    [
      "താ",
      "പ"
    ],
    [
      "ി",
      "ത</w>"
    ],
    [
      "നൽക",
      "ുകയും</w>"
    ],
    [
      "ഉൽപ്പ",
      "ന്ന"
    ],
    [
      "സ്ഥാന",
      "ം</w>"
    ],
    [
      "ഴ",
      "ി"
    ],
    [
      "ഡ",
      "യ"
    ],
    [
      "ന",
      "ന്ന"
    ],
    [
      "പോലീ",
      "സ്</w>"
    ],
    [
      "ത",
      "ാൻ</w>"
    ],
    [
      "വ",
      "ുകയും</w>"
    ],
    [
      "ബ",
      "ാല"
    ],
    [
      "ൽ",
      "ത്ത"
    ],
    [
      "മായി",
      ",</w>"
    ],
    [
      "ാ",
      "ദ"
    ],
    [
      "പ",
      "രിക്ക"
    ],
    [
      "തടാ",
      "ക"
    ],
    [
      "ല",
      "ിന"
    ],
    [
      "വിക",
      "സ"
    ],
    [
      "ശരീ",
      "ര"
    ],
    [
      "നൽക",
      "ുന്നു.</w>"
    ],
    [
      "ക്",
      "വാ"
    ],
    [
      "ചിത്ര",
      "ീകര"
    ],
    [
      "വ",
      "ാണ"
    ],
    [
      "പ്പ",
      "ു"
    ],
    [
      "സാഹ",
      "ച"
    ],
    [
      "ജ",
      "ന്"
    ],
    [
      "റ",
      "ൂ"
    ],
    [
      "ജൂലൈ",
      "</w>"
    ],
    [
      "ഡി",
      ".</w>"
    ],
    [
      "വി",
      "ര"
    ],
    [
      "ജൂ",
      "ൺ</w>"
    ],
    [
      "ഇ",
      "ല"
    ],
    [
      "ിയ",
      "ത്.</w>"
    ],
    [
      "വിള",
      "ിക്കുന്നു.</w>"
    ],
    [
      "ക",
      "ൺ"
    ],
    [
      "സ്റ്റ",
      "ർ</w>"
    ],
    [
      "ക്ക്",
      ",</w>"
    ],
    [
      "5",
      "0</w>"
    ],
    [
      "ആക്രമ",
      "ണ"
    ],
    [
      "മായി",
      "രിക്ക"
    ],
    [
      "ആശ്ര",
      "യി"
    ],
    [
      "നട",
      "ന്ന"
    ],
    [
      "ചെയ്യ",
      "ുക.</w>"
    ],
    [
      "1",
      "2</w>"
    ],
    [
      "പു",
      "സ്ത"
    ],
    [
      "ർ",
      "ഗ"
    ],
    [
      "േ",
      "ദ"
    ],
    [
      "ലഭ",
      "ിച്ചു.</w>"
    ],
    [
      "സംഘ",
      "ട"
    ],
    [
      "സ",
      "ില്‍</w>"
    ],
    [
      "ഇ",
      "ര"
    ],
    [
      "വർ",
      "ത്തി"
    ],
    [
      "അ",
      "ടു"
    ],
    [
      "ഫെ",
      "ഡ"
    ],
    [
      "ഉണ്ട",
      "ായിരുന്ന"
    ],
    [
      "ങ്ങള",
      "ായി</w>"
    ],
    [
      "ഐക്യ",
      "നാട"
    ],
    [
      "ങ്ങളില",
      "ൊന്ന"
    ],
    [
      "നിർമ്മ",
      "ിച്ച</w>"
    ],
    [
      "എ",
      "ണ്ണ"
    ],
    [
      "റ",
      "െയി"
    ],
    [
      "സ്വാ",
      "തന്ത്ര"
    ],
    [
      "ന",
      "ാണ"
    ],
    [
      "ഹാ",
      "സ"
    ],
    [
      "ഖ",
      "ാ"
    ],
    [
      "പ്",
      "ത"
    ],
    [
      "ക്",
      "ലി"
    ],
    [
      "സര",
      "ിച്ച"
    ],
    [
      "ചെല",
      "വഴ"
    ],
    [
      "ത്ത",
      "ാണ്</w>"
    ],
    [
      "ു",
      "മെന്ന്</w>"
    ],
    [
      "മാ",
      "ല"
    ],
    [
      "ശ",
      "േഖ"
    ],
    [
      "ഗ്ര",
      "ാ"
    ],
    [
      "അത",
      "േ</w>"
    ],
    [
      "ബംഗ",
      "ാള"
    ],
    [
      "പ്പോ",
      "ള്‍</w>"
    ],
    [
      "യ്",
      "ക്കും</w>"
    ],
    [
      "ജ",
      "ർമ്മ"
    ],
    [
      "പാ",
      "ത"
    ],
    [
      "പുരാത",
      "ന</w>"
    ],
    [
      "ഫുട്",
      "ബോൾ</w>"
    ],
    [
      "ബുദ്ധ",
      "ി"
    ],
    [
      "ഹ",
      "ര"
    ],
    [
      "അണു",
      "ബാധ"
    ],
    [
      "തോ",
      "ടെ</w>"
    ],
    [
      "പ്",
      "ലാ"
    ],
    [
      "എ",
      "ക്"
    ],
    [
      "കുറ",
      "യ്ക്ക"
    ],
    [
      "േഷ",
      "ന"
    ],
    [
      "ന്",
      "ഥ"
    ],
    [
      "ാഭ",
      "്യാ"
    ],
    [
      "വി",
      "ഭ"
    ],
    [
      "കെ",
      "ട്ടി"
    ],
    [
      "ശ്ര",
      "ീ"
    ],
    [
      "മുതല",
      "്‍</w>"
    ],
    [
      "ഉ",
      "ള്‍"
    ],
    [
      "കണ്ട",
      "ു"
    ],
    [
      "വിദ്യ",
      "ാഭ്യാ"
    ],
    [
      "ഉദ്യോഗ",
      "സ്ഥ"
    ],
    [
      "ന്മാ",
      "ര"
    ],
    [
      "അഭി",
      "പ്രായ"
    ],
    [
      "201",
      "4</w>"
    ],
    [
      "ാ",
      "ട്ട"
    ],
    [
      "ആ",
      "രോഗ"
    ],
    [
      "ില",
      "ാ"
    ],
    [
      "വള",
      "ര"
    ],
    [
      "എന്നറിയ",
      "പ്പെടുന്ന</w>"
    ],
    [
      "ങ്ങള",
      "ുണ്ട്.</w>"
    ],
    [
      "ത്ര",
      "ി"
    ],
    [
      "ന്ത",
      "ര"
    ],
    [
      "ജ",
      "ു"
    ],
    [
      "ിയ",
      "ോ"
    ],
    [
      "എന്ന",
      "െ</w>"
    ],
    [
      "ഓ",
      "ൺ"
    ],
    [
      "ഒ",
      "ടു"
    ],
    [
      "ഗ്ര",
      "ന്ഥ"
    ],
    [
      "ചു",
      "മ"
    ],
    [
      "ട",
      "്"
    ],
    [
      "അറിയ",
      "പ്പെടുന്ന</w>"
    ],
    [
      "കള",
      "ിക്കാ"
    ],
    [
      "കർ",
      "ഷ"
    ],
    [
      "ൺ",
      ",</w>"
    ],
    [
      "3",
      "0</w>"
    ],
    [
      "ആൽ",
      "ബ"
    ],
    [
      "നേ",
      "തൃ"
    ],
    [
      "ഉൾ",
      "ക്കൊ"
    ],
    [
      "ിയ",
      "ൻ</w>"
    ],
    [
      "20",
      "19</w>"
    ],
    [
      "ഭാഗ",
      "ം</w>"
    ],
    [
      "ി",
      "ക്</w>"
    ],
    [
      "നാ",
      "ഗ"
    ],
    [
      "ുന്നതി",
      "നും</w>"
    ],
    [
      "എന്നിവ",
      "യുടെ</w>"
    ],
    [
      "സാ",
      "ങ്ക"
    ],
    [
      "ഗു",
      "ജ"
    ],
    [
      "ആയി",
      "രുന്ന"
    ],
    [
      "കി",
      "ഴ"
    ],
    [
      "ിക്ക",
      "ും.</w>"
    ],
    [
      "ഇ",
      "വി"
    ],
    [
      "കൈ",
      "കാര്യം</w>"
    ],
    [
      "ഭരണ",
      "ാധികാര"
    ],
    [
      "മു",
      "മ്പ"
    ],
    [
      "അവള",
      "ുടെ</w>"
    ],
    [
      "ഫ",
      "യ"
    ],
    [
      "ക്",
      "യൂ"
    ],
    [
      "വിമാന",
      "ത്താവ"
    ],
    [
      "റ്റി",
      "ംഗ്</w>"
    ],
    [
      "ക്ക",
      "ണ"
    ],
    [
      "സ്ഥി",
      "ര"
    ],
    [
      "യ",
      "ാണ്.</w>"
    ],
    [
      "മേ",
      "ള"
    ],
    [
      "ഏപ്ര",
      "ിൽ</w>"
    ],
    [
      "ഇ",
      "ന്ന"
    ],
    [
      "അ",
      "സോ"
    ],
    [
      "ഒഴ",
      "ുക"
    ],
    [
      "സാ",
      "ം"
    ],
    [
      "ദ്",
      "ദ"
    ],
    [
      "ളു",
      "പ്പ"
    ],
    [
      "വി",
      "റ്റ"
    ],
    [
      "മൂല",
      "ം</w>"
    ],
    [
      "നൂറ്റാ",
      "ണ്ടി"
    ],
    [
      "മര",
      "ിച്ചു.</w>"
    ],
    [
      "ച",
      "ുവ"
    ],
    [
      "ഴ",
      "ല"
    ],
    [
      "ങ്ങള",
      "ാണ്</w>"
    ],
    [
      "ഇ",
      "ന്ന്</w>"
    ],
    [
      "ബാ",
      "ൻഡ"
    ],
    [
      "അതി",
      "ൽ</w>"
    ],
    [
      "കി",
      "ഴക്കൻ</w>"
    ],
    [
      "സ്",
      "വര"
    ],
    [
      "ര",
      "ംഗ"
    ],
    [
      "ജനപ്ര",
      "ിയ"
    ],
    [
      "അവസാന",
      "</w>"
    ],
    [
      "ശ",
      "രിയ"
    ],
    [
      "സാധ്യ",
      "ത</w>"
    ],
    [
      "പ",
      "താ"
    ],
    [
      "ശ്രദ്ധ",
      "</w>"
    ],
    [
      "റെയി",
      "ൽ"
    ],
    [
      "സ",
      "ർ</w>"
    ],
    [
      "ഗോ",
      "ൾ"
    ],
    [
      "ഡ",
      "േ"
    ],
    [
      "പര",
      "്യ"
    ],
    [
      "പെ",
      "ട്ട"
    ],
    [
      "കള",
      "ി</w>"
    ],
    [
      "ഹൃ",
      "ദ"
    ],
    [
      "താര",
      "തമ"
    ],
    [
      "പു",
      "തു"
    ],
    [
      "യി",
      "ക്ക"
    ],
    [
      "മ",
      "ണി"
    ],
    [
      "ടെലി",
      "വിഷ"
    ],
    [
      "രൂപ",
      "ീകര"
    ],
    [
      "നവ",
      "ംബർ</w>"
    ],
    [
      "അ",
      "ഞ്ച"
    ],
    [
      "ത",
      "കർ"
    ],
    [
      "ുക",
      ",</w>"
    ],
    [
      "സ",
      "റ"
    ],
    [
      "ത്തില",
      "ൂടെ</w>"
    ],
    [
      "ബ",
      "ഹു"
    ],
    [
      "ാന",
      "ോ</w>"
    ],
    [
      "ഗുജ",
      "റാ"
    ],
    [
      "ച്ച",
      "േ"
    ],
    [
      "എ",
      "ണ്ണം</w>"
    ],
    [
      "രണ്ട",
      "ാമ"
    ],
    [
      "ത്ത",
      "െക്കുറിച്ച്</w>"
    ],
    [
      "പ്പിക്ക",
      "ാൻ</w>"
    ],
    [
      "ല",
      "ൻഡ"
    ],
    [
      "പ",
      "ന്ത്</w>"
    ],
    [
      "ഉട",
      "മ"
    ],
    [
      "അവ",
      "സ്ഥ"
    ],
    [
      "ഗാ",
      "ന്ധ"
    ],
    [
      "അവ",
      "ര"
    ],
    [
      "ാല",
      "്‍</w>"
    ],
    [
      "അസോ",
      "സിയ"
    ],
    [
      "ാന",
      "</w>"
    ],
    [
      "സെ",
      "ൻസ"
    ],
    [
      "നാ",
      "ട്ട"
    ],
    [
      "സം",
      "ബന്ധ"
    ],
    [
      "എ",
      "ളുപ്പ"
    ],
    [
      "ഉപയോഗ",
      "ിച്ച"
    ],
    [
      "ക",
      "പ്പ"
    ],
    [
      "യ",
      "ള"
    ],
    [
      "സെപ്റ്റ",
      "ംബർ</w>"
    ],
    [
      "ീ",
      "സ്</w>"
    ],
    [
      "പ്ര",
      "ോഗ"
    ],
    [
      "മ",
      "ൗ"
    ],
    [
      "റ",
      "ോ</w>"
    ],
    [
      "മെ",
      "ൻ്റ"
    ],
    [
      "നോ",
      "ർ"
    ],
    [
      "ബംഗ",
      "ാ"
    ],
    [
      "ബന്ധ",
      "പ്പെട്ട</w>"
    ],
    [
      "ി",
      "ട"
    ],
    [
      "കാല",
      "ാവസ്ഥ"
    ],
    [
      "കാരണ",
      "മാക"
    ],
    [
      "കാല",
      "യള"
    ],
    [
      "ുട",
      "നീളം</w>"
    ],
    [
      "ഒക്ടോ",
      "ബർ</w>"
    ],
    [
      "എ",
      "ൽ"
    ],
    [
      "ല",
      "്യ"
    ],
    [
      "പഴ",
      "യ</w>"
    ],
    [
      "വ്യവ",
      "സ്ഥ"
    ],
    [
      "കഴി",
      "ഞ്ഞ</w>"
    ],
    [
      "ഇംഗ്ല",
      "ണ്ട"
    ],
    [
      "പേ",
      "ർ</w>"
    ],
    [
      "ുക",
      "ൂ"
    ],
    [
      "ട്ട",
      "ി</w>"
    ],
    [
      "പൂ",
      "ർ</w>"
    ],
    [
      "പേ",
      "ക്ഷ"
    ],
    [
      "സഞ്ച",
      "ാര"
    ],
    [
      "കഴിയ",
      "ുന്ന</w>"
    ],
    [
      "ഉപ",
      "ഭോ"
    ],
    [
      "സ്",
      ":</w>"
    ],
    [
      "ഡിസം",
      "ബർ</w>"
    ],
    [
      "ആ",
      "ചാര"
    ],
    [
      "ടൂ",
      "ർണ"
    ],
    [
      "മാണ",
      "ിത്.</w>"
    ],
    [
      "മി",
      "ത"
    ],
    [
      "പ്ര",
      "ി"
    ],
    [
      "േ",
      "ാ"
    ],
    [
      "പ്പ",
      "ർ"
    ],
    [
      "വര",
      "െയുള്ള</w>"
    ],
    [
      "സ്‌",
      "ട്ര"
    ],
    [
      "സ്ഥാപ",
      "ന"
    ],
    [
      "രാഷ്ട്ര",
      "ീയ"
    ],
    [
      "വി",
      "ദേശ"
    ],
    [
      "ഒ",
      "രാ"
    ],
    [
      "ഗ",
      "വർണ"
    ],
    [
      "ന്",
      "യം</w>"
    ],
    [
      "ആ",
      "റ്</w>"
    ],
    [
      "ന്",
      "വേഷ"
    ],
    [
      "ചില",
      "പ്പോൾ</w>"
    ],
    [
      "ഓൺ",
      "ലൈ"
    ],
    [
      "ചേ",
      "ർന്ന"
    ],
    [
      "പര",
      "ീക്ഷ"
    ],
    [
      "പരമ്പരാഗ",
      "ത</w>"
    ],
    [
      "ഫെബ്രു",
      "വരി</w>"
    ],
    [
      "മാ",
      "ര്‍"
    ],
    [
      "ലാ",
      "</w>"
    ],
    [
      "1",
      "1"
    ],
    [
      "സു",
      "ഖ"
    ],
    [
      "ക്ക",
      "േ"
    ],
    [
      "പ്പ",
      "ർ</w>"
    ],
    [
      "വര",
      "ിക"
    ],
    [
      "ചെല",
      "വ"
    ],
    [
      "കര",
      "ണം</w>"
    ],
    [
      "അ",
      "മ്മ"
    ],
    [
      "മണിക്ക",
      "ൂ"
    ],
    [
      "പ്പെട്ടി",
      "രിക്കുന്നു.</w>"
    ],
    [
      "കാല",
      "ം</w>"
    ],
    [
      "വ്യവസാ",
      "യ"
    ],
    [
      "ധ",
      "ാരാ"
    ],
    [
      "0",
      "0"
    ],
    [
      "മുഗ",
      "ൾ</w>"
    ],
    [
      "കലാ",
      "പ"
    ],
    [
      "വടക്ക",
      "ൻ</w>"
    ],
    [
      "ത്ത",
      "ോളം</w>"
    ],
    [
      ".എ",
      "സ്.</w>"
    ],
    [
      "ഹ",
      "ി</w>"
    ],
    [
      "ന്മാ",
      "രുടെ</w>"
    ],
    [
      "ക",
      "മായി</w>"
    ],
    [
      "ഭ",
      "ു"
    ],
    [
      "ഓസ്ട്ര",
      "േലിയ"
    ],
    [
      "ഫ്ര",
      "ിക്ക"
    ],
    [
      "ത്തിന",
      "ു</w>"
    ],
    [
      "റ",
      "ൈ"
    ],
    [
      "ഡിയ",
      "ോ"
    ],
    [
      "മ",
      "ല്ല</w>"
    ],
    [
      "നാ",
      "ശ"
    ],
    [
      "ത്ത",
      "രം</w>"
    ],
    [
      "ശത",
      "മാന"
    ],
    [
      "പ്രദേശ",
      "മാണ്</w>"
    ],
    [
      "ഹ",
      "ാർ"
    ],
    [
      "ഐ",
      ".</w>"
    ],
    [
      "വ",
      "ച്ച്</w>"
    ],
    [
      "ം",
      "സ്</w>"
    ],
    [
      "റ്റി",
      "ക്</w>"
    ],
    [
      "വാ",
      "ഗ്"
    ],
    [
      "പ്പ",
      "ിച്ച"
    ],
    [
      "തി",
      "നാല"
    ],
    [
      "ന്റ",
      "്</w>"
    ],
    [
      "എ",
      ".</w>"
    ],
    [
      "മു",
      "ൻ</w>"
    ],
    [
      "എ",
      "ഫ്"
    ],
    [
      "പരമ്പ",
      "ര"
    ],
    [
      "ഹ",
      "മ്മ"
    ],
    [
      "ക്",
      "തി</w>"
    ],
    [
      "പര",
      "സ്"
    ],
    [
      "സു",
      "ൽത്ത"
    ],
    [
      "സ്വ",
      "തന്ത്ര"
    ],
    [
      "അ",
      "ക"
    ],
    [
      "യ",
      "ുടെയും</w>"
    ],
    [
      "വീ",
      "ട"
    ],
    [
      "എന്നിവ",
      "ർ</w>"
    ],
    [
      "ലി",
      "ംഗ"
    ],
    [
      "മുനിസിപ്പാലി",
      "റ്റ"
    ],
    [
      "അ",
      "ധ"
    ],
    [
      "്",
      "പ"
    ],
    [
      "ക്കാ",
      "ൾ</w>"
    ],
    [
      "െയ",
      "്‌"
    ],
    [
      "മ",
      "ൻ</w>"
    ],
    [
      "സാഹച",
      "ര്യ"
    ],
    [
      "കു",
      "ം.</w>"
    ],
    [
      "സ്വന്ത",
      "ം</w>"
    ],
    [
      "ർഷ",
      "ിക</w>"
    ],
    [
      "വ",
      "ില്ല"
    ],
    [
      "മാ",
      "നേ"
    ],
    [
      "മോ",
      "ഡ"
    ],
    [
      "സ്വീഡ",
      "നിലെ</w>"
    ],
    [
      "പ",
      "ൗ"
    ],
    [
      "ത്തി",
      "ൻ്റെയും</w>"
    ],
    [
      "ഫീ",
      "ൽ"
    ],
    [
      "ത്ത",
      "െ"
    ],
    [
      "ോ",
      "ട്ട"
    ],
    [
      "പെ",
      "ൺ"
    ],
    [
      "നാ",
      "ൽ,</w>"
    ],
    [
      "ഇ",
      "പ്പോഴും</w>"
    ],
    [
      "ങ്ങള",
      "െയും</w>"
    ],
    [
      "ൻ",
      "സി"
    ],
    [
      "ആ",
      "ല"
    ],
    [
      "സൂ",
      "ക്ഷ"
    ],
    [
      "201",
      "8</w>"
    ],
    [
      "യ",
      "ോ</w>"
    ],
    [
      "ഏതാ",
      "ണ്ട്</w>"
    ],
    [
      "ച",
      "ര"
    ],
    [
      "വിധ",
      "ം</w>"
    ],
    [
      "യില",
      "ൂടെ</w>"
    ],
    [
      "നില",
      "യിൽ</w>"
    ],
    [
      "സി",
      "ം"
    ],
    [
      "റ",
      "ാവ"
    ],
    [
      "റോ",
      "ഡ"
    ],
    [
      "ിന",
      "ോ"
    ],
    [
      "പശ്ച",
      "ി"
    ],
    [
      "മാത്ര",
      "മാണ്</w>"
    ],
    [
      "ക്",
      "രിക്ക"
    ],
    [
      "വേ",
      "ർ"
    ],
    [
      "ച",
      "ടങ്ങ"
    ],
    [
      "തുടക്ക",
      "ത്തിൽ</w>"
    ],
    [
      "കൂട",
      "ി</w>"
    ],
    [
      "ങ്ങള",
      "ുമായി</w>"
    ],
    [
      "പ്പെട്ടി",
      "രുന്നു.</w>"
    ],
    [
      "ഹ",
      "ീ"
    ],
    [
      "ക്ര",
      "ീ"
    ],
    [
      "മ",
      "രു"
    ],
    [
      "ആരംഭ",
      "ിച്ചു.</w>"
    ],
    [
      "െങ്ക",
      "ിലും,</w>"
    ],
    [
      "േ",
      "താ"
    ],
    [
      "എ",
      "ത്തി"
    ],
    [
      "ഗെയി",
      "ം</w>"
    ],
    [
      "കൂടാ",
      "തെ</w>"
    ],
    [
      "പരസ്",
      "പര"
    ],
    [
      "ധി",
      "പ"
    ],
    [
      "ുന്നതി",
      "നു"
    ],
    [
      "വർ",
      "ത്ത"
    ],
    [
      "ആ",
      "ൻഡ്</w>"
    ],
    [
      "വൈദ്യ",
      "ു"
    ],
    [
      "തിരിച്ച",
      "റിയ"
    ],
    [
      "യഥാർത്ഥ",
      "</w>"
    ],
    [
      "ഇ",
      "വ"
    ],
    [
      "്യ",
      "ു"
    ],
    [
      "ദ",
      "ാനം</w>"
    ],
    [
      "അ",
      "തു"
    ],
    [
      "വി",
      "ദ"
    ],
    [
      "ില",
      "ാക്ക"
    ],
    [
      "ശബ്",
      "ദ"
    ],
    [
      "പോല",
      "ും</w>"
    ],
    [
      "ൂ",
      "</w>"
    ],
    [
      "ഭൂ",
      "മി"
    ],
    [
      "ഗോ",
      "ൾ</w>"
    ],
    [
      "സംസ്ഥാന",
      "ത്തെ</w>"
    ],
    [
      "കൂടാ",
      "തെ,</w>"
    ],
    [
      "പ്പി",
      "ംഗ്</w>"
    ],
    [
      "വ",
      "ായി</w>"
    ],
    [
      "നേട",
      "ുകയും</w>"
    ],
    [
      "മെ",
      "ന്നും</w>"
    ],
    [
      "രു",
      "ട"
    ],
    [
      "ുന്നതി",
      "ല"
    ],
    [
      "ച",
      "ോള"
    ],
    [
      "ബ്",
      "ബ"
    ],
    [
      "കാല",
      "ി"
    ],
    [
      "സ്",
      "പെ"
    ],
    [
      "ക്കാ",
      "ന്‍</w>"
    ],
    [
      "ഭ",
      "യ"
    ],
    [
      "മത്സര",
      "ത്തിൽ</w>"
    ],
    [
      "ില",
      "ൂടെ</w>"
    ],
    [
      "ഭ",
      "ീ"
    ],
    [
      "സം",
      "യോ"
    ],
    [
      "201",
      "3</w>"
    ],
    [
      "ുകയ",
      "ാണ്.</w>"
    ],
    [
      "ല്ല",
      ".</w>"
    ],
    [
      "സം",
      "വിധ"
    ],
    [
      "പ",
      "ത്ത"
    ],
    [
      "വി",
      "ട്ട"
    ],
    [
      "യൂറോ",
      "പ്യ"
    ],
    [
      "ൈ",
      "</w>"
    ],
    [
      "പ്രദേശ",
      "ം</w>"
    ],
    [
      "ആധുനി",
      "ക</w>"
    ],
    [
      "ഗ",
      "വേഷ"
    ],
    [
      "ചെയ്യ",
      "ും.</w>"
    ],
    [
      "ഡോ",
      "ക്ട"
    ],
    [
      "1",
      "5</w>"
    ],
    [
      "കായി",
      "ക"
    ],
    [
      "മ",
      "ർ"
    ],
    [
      "ച",
      "ന"
    ],
    [
      "സ്വീ",
      "കരിക്ക"
    ],
    [
      "ഇട",
      "യിൽ</w>"
    ],
    [
      "എന്നി",
      "വര"
    ],
    [
      "ഷ",
      "്‌"
    ],
    [
      "കുറ",
      "വ"
    ],
    [
      "ചു",
      "ഴല"
    ],
    [
      "മൂന്ന",
      "ാം</w>"
    ],
    [
      "പി",
      ".</w>"
    ],
    [
      "സ്",
      "തി"
    ],
    [
      "ുണ്ട",
      "ായിരുന്നു.</w>"
    ],
    [
      "ആ",
      "സ്ഥാന"
    ],
    [
      "വല",
      "ു"
    ],
    [
      "ായി",
      ",</w>"
    ],
    [
      "ആ",
      "ഴ്ച"
    ],
    [
      "ഇതി",
      "ൽ</w>"
    ],
    [
      "ുണ്ട",
      "െങ്കിലും</w>"
    ],
    [
      "7",
      "ൽ</w>"
    ],
    [
      "ന്ദ",
      "്</w>"
    ],
    [
      "സം",
      "സ്"
    ],
    [
      "കൊ",
      "ള്ള"
    ],
    [
      "ചുഴല",
      "ിക്കാ"
    ],
    [
      "ക്",
      "ക്‌"
    ],
    [
      "ച",
      "ന്ദ്ര"
    ],
    [
      "മെ",
      "ന്ന</w>"
    ],
    [
      "ലീ",
      "ഗ"
    ],
    [
      "ഡ",
      "ബ്ല"
    ],
    [
      "ലക്ഷ",
      "ണ"
    ],
    [
      "വി",
      "ൽ"
    ],
    [
      "ന്",
      "മാർ"
    ],
    [
      "സു",
      "ഹൃ"
    ],
    [
      "201",
      "7</w>"
    ],
    [
      "ഓഗ",
      "സ്റ്റ്</w>"
    ],
    [
      "റിപ്പ",
      "ബ്ല"
    ],
    [
      "ഉൾക്കൊ",
      "ള്ള"
    ],
    [
      "ഫ",
      "ൈന"
    ],
    [
      "ാവ",
      "ുന്ന</w>"
    ],
    [
      "ലോക",
      "ത്തിലെ</w>"
    ],
    [
      "നദ",
      "ി</w>"
    ],
    [
      "കോൺ",
      "ഗ്ര"
    ],
    [
      "കൊ",
      "ട്ട"
    ],
    [
      "കെട്ടി",
      "ട"
    ],
    [
      "ക്കള",
      "ുടെ</w>"
    ],
    [
      "ുണ്ട",
      "െന്ന്</w>"
    ],
    [
      "ാണ്",
      "ഡ"
    ],
    [
      "ബാ",
      "ങ്ക"
    ],
    [
      "മെ",
      "ങ്കിലും</w>"
    ],
    [
      "ത്തി",
      "ന്‍റെയും</w>"
    ],
    [
      "കൗണ്ടി",
      "യിലെ</w>"
    ],
    [
      "ഉൾ",
      "പ്പെടെ</w>"
    ],
    [
      "വർ",
      "ണ്ണ"
    ],
    [
      "വർ",
      "ക്ക്</w>"
    ],
    [
      "മ",
      "തി</w>"
    ],
    [
      "ഉറപ്പ",
      "ാക്ക"
    ],
    [
      "2",
      "5"
    ],
    [
      "റ്റ",
      "ോ"
    ],
    [
      "ക്ക",
      "ുള്ള</w>"
    ],
    [
      "വ്യത്യ",
      "ാസ"
    ],
    [
      "മു",
      "ംബ"
    ],
    [
      "ശ",
      "ൃ"
    ],
    [
      "ക്ഷേത്ര",
      "ം</w>"
    ],
    [
      "പ്രധാന",
      "മന്ത്ര"
    ],
    [
      "ദീ",
      "ർഘ"
    ],
    [
      "ിക",
      "ൾ,</w>"
    ],
    [
      "ഗ",
      "ംഗ"
    ],
    [
      "ങ്ക",
      "ാ"
    ],
    [
      "ന",
      "ത്തിൽ</w>"
    ],
    [
      "ച",
      "ൈന"
    ],
    [
      "ട",
      "ിയ"
    ],
    [
      "നിര",
      "ീക്ഷ"
    ],
    [
      "ഹ",
      "്ര"
    ],
    [
      "ന്യൂ",
      "യോ"
    ],
    [
      "ഇതി",
      "ന"
    ],
    [
      "ഐക്യനാട",
      "ുകളിലെ</w>"
    ],
    [
      "ത",
      "ാണ"
    ],
    [
      "നി",
      "ൽക്ക"
    ],
    [
      "ൾ",
      "ഡ്</w>"
    ],
    [
      "ഡ്ര",
      "ൈ"
    ],
    [
      "പ്ര",
      "ീ"
    ],
    [
      "സംഗീ",
      "തം</w>"
    ],
    [
      "നന്ന",
      "ായി</w>"
    ],
    [
      "തീ",
      "ർത്ഥ"
    ],
    [
      "രുന്ന",
      "ത്.</w>"
    ],
    [
      "മാ",
      "യാണ്</w>"
    ],
    [
      "മത്സര",
      "ം</w>"
    ],
    [
      "നട",
      "ത്തി.</w>"
    ],
    [
      "േ",
      "ഴ്‌"
    ],
    [
      "ിക്ക",
      "പ്പെട്ട"
    ],
    [
      "സ്",
      "രോ"
    ],
    [
      "ബുദ്ധി",
      "മുട്ട"
    ],
    [
      "ിച്ച",
      "ും</w>"
    ],
    [
      "ഇതി",
      "നെ</w>"
    ],
    [
      "നടത്ത",
      "ുകയും</w>"
    ],
    [
      "ങ്ങൾക്ക",
      "ായി</w>"
    ],
    [
      "അ",
      "പേക്ഷ"
    ],
    [
      "െല്ല",
      "ാം</w>"
    ],
    [
      "യു",
      "ധ"
    ],
    [
      "വി",
      "നെ</w>"
    ],
    [
      "നില",
      "</w>"
    ],
    [
      "ചതു",
      "ര"
    ],
    [
      "തീ",
      "വ്ര"
    ],
    [
      "ധ",
      "ു"
    ],
    [
      "ക്കള",
      "ും</w>"
    ],
    [
      "വിദ്യ",
      "ാർത്ഥ"
    ],
    [
      "എ",
      "ത്ത"
    ],
    [
      "ന",
      "ല്ല"
    ],
    [
      "ധാരാ",
      "ളം</w>"
    ],
    [
      "നദ",
      "ിയുടെ</w>"
    ],
    [
      "അ",
      "ർത്ഥ"
    ],
    [
      "അതി",
      "നെ</w>"
    ],
    [
      "ുകള",
      "ില്‍</w>"
    ],
    [
      "ട",
      "്യൂ"
    ],
    [
      "അവ",
      "യുടെ</w>"
    ],
    [
      "ശ്ര",
      "മിക്ക"
    ],
    [
      "ാകു",
      "ം.</w>"
    ],
    [
      "ൻഡ്ര",
      "ോ"
    ],
    [
      "ശു",
      "പത്ര"
    ],
    [
      "നേ",
      "താ"
    ],
    [
      "ഗു",
      "ണ"
    ],
    [
      "ക്കിട",
      "യിൽ</w>"
    ],
    [
      "പെ",
      "രു"
    ],
    [
      "അ",
      "ന്വേഷ"
    ],
    [
      "വാഗ്",
      "ദാനം</w>"
    ],
    [
      "ആ",
      "യ"
    ],
    [
      "എ",
      "ങ്ങനെ</w>"
    ],
    [
      "സാങ്ക",
      "േ"
    ],
    [
      "സ്വ",
      "കാര്യ"
    ],
    [
      "മ",
      "ുട"
    ],
    [
      "പി",
      "."
    ],
    [
      "ുകി",
      "ഴക്കൻ</w>"
    ],
    [
      "സ",
      "സ്യ"
    ],
    [
      "ഡി",
      "."
    ],
    [
      "സൂ",
      "ര്യ"
    ],
    [
      "തമി",
      "ഴ്</w>"
    ],
    [
      "സന്ത",
      "ോഷ"
    ],
    [
      "ഫ",
      "്‌"
    ],
    [
      "പ്പ",
      "ുകൾ</w>"
    ],
    [
      "നേ",
      "കം</w>"
    ],
    [
      "ശി",
      "ക്ഷ"
    ],
    [
      "വി",
      "ത"
    ],
    [
      "സ്ഥാ",
      "പി"
    ],
    [
      "റ",
      "ിനെ</w>"
    ],
    [
      "സേ",
      "ന"
    ],
    [
      "എന്ന",
      "തി"
    ],
    [
      "തീ",
      "യ"
    ],
    [
      "വിശ",
      "ദ"
    ],
    [
      "മെ",
      "മ്"
    ],
    [
      "അവ",
      "ൻ</w>"
    ],
    [
      "താ",
      "യ"
    ],
    [
      "ഇ",
      "റ്റ"
    ],
    [
      "ആള",
      "ുകൾക്ക്</w>"
    ],
    [
      "ഷേ",
      "ധ"
    ],
    [
      "സേ",
      "വ"
    ],
    [
      "സി",
      "റ്റി"
    ],
    [
      "201",
      "2</w>"
    ],
    [
      "1",
      "00</w>"
    ],
    [
      "1",
      ","
    ],
    [
      "േ",
      "ത"
    ],
    [
      "മാത്ര",
      "മല്ല</w>"
    ],
    [
      "സമു",
      "ദ്ര"
    ],
    [
      "മ",
      "നോ"
    ],
    [
      "സ്",
      "പ"
    ],
    [
      "ആ",
      "ശുപത്ര"
    ],
    [
      "മുസ്",
      "ലീ"
    ],
    [
      "െ",
      "ന്ന</w>"
    ],
    [
      "സർ",
      "ക്കാര"
    ],
    [
      "വി",
      "ഭവ"
    ],
    [
      "ണ",
      "ിൽ</w>"
    ],
    [
      "ക്ക",
      "ു</w>"
    ],
    [
      "വി",
      "മ"
    ],
    [
      "ഇ",
      "വ</w>"
    ],
    [
      "പുസ്ത",
      "ക"
    ],
    [
      "ിച്ച",
      "േ"
    ],
    [
      "202",
      "1</w>"
    ],
    [
      "ശ്ര",
      "</w>"
    ],
    [
      "കൂടുതല",
      "്‍</w>"
    ],
    [
      "ദ്",
      "ദീ"
    ],
    [
      "െടു",
      "ക്ക"
    ],
    [
      "ങ്ങള",
      "ിൽ,</w>"
    ],
    [
      "ടീ",
      "മി"
    ],
    [
      "കൃ",
      "ഷ്ണ"
    ],
    [
      "യോഗ",
      "്യ"
    ],
    [
      "ന്ത",
      "ര</w>"
    ],
    [
      "്‍",
      ",</w>"
    ],
    [
      "19",
      "2"
    ],
    [
      "എയ",
      "ർ"
    ],
    [
      "വിവര",
      "ങ്ങൾ</w>"
    ],
    [
      "ബ്ര",
      "ോ"
    ],
    [
      "കിലോ",
      "മീറ്റ"
    ],
    [
      "മ്",
      "മി"
    ],
    [
      "ഷ",
      "ാ</w>"
    ],
    [
      "മാറ്റ",
      "ം</w>"
    ],
    [
      "വിമാനത്താവ",
      "ള"
    ],
    [
      "രാജ",
      "ാവ"
    ],
    [
      "ഗ",
      "ാമ"
    ],
    [
      "ൻ",
      "ഡി"
    ],
    [
      "ിന",
      "ായി</w>"
    ],
    [
      "ാ",
      "ൽ,</w>"
    ],
    [
      "വ",
      "ിലെ</w>"
    ],
    [
      "അ",
      "കല"
    ],
    [
      "പ",
      "ാണ്ഡ"
    ],
    [
      "ഇവി",
      "ടെ</w>"
    ],
    [
      "മി",
      "ൻ</w>"
    ],
    [
      "തെ",
      "ര"
    ],
    [
      "പര",
      "മായി</w>"
    ],
    [
      "അവാർ",
      "ഡ"
    ],
    [
      "മ",
      "ിക</w>"
    ],
    [
      "നോ",
      "ക്ക"
    ],
    [
      "ലോക",
      "മെമ്"
    ],
    [
      "പ്പ",
      "ോ</w>"
    ],
    [
      "ഡോള",
      "ർ</w>"
    ],
    [
      "ന്‍",
      "ഡ"
    ],
    [
      "തെ",
      "ളിവ"
    ],
    [
      "ക",
      "മായ</w>"
    ],
    [
      "ജന്",
      "മ"
    ],
    [
      "ആദ്യ",
      "കാല</w>"
    ],
    [
      "ജ",
      "ൈന"
    ],
    [
      "നില",
      "വാര"
    ],
    [
      "ഇ",
      "ന്‍റ"
    ],
    [
      "റ",
      "ഷ്യ"
    ],
    [
      "തി",
      "രു"
    ],
    [
      "പോയി",
      ".</w>"
    ],
    [
      "പ്",
      "‌"
    ],
    [
      "യൂ",
      "ണ"
    ],
    [
      "ഒന്ന",
      "ാമ"
    ],
    [
      "സമാന",
      "മായ</w>"
    ],
    [
      "ശരാശ",
      "രി</w>"
    ],
    [
      "എ",
      "ത്ര</w>"
    ],
    [
      "ീ",
      "ര"
    ],
    [
      "സർ",
      "വീ"
    ],
    [
      "രാ",
      "ൻ</w>"
    ],
    [
      "പ്ര",
      "വര്‍"
    ],
    [
      "ത",
      "ുക"
    ],
    [
      "സ്ഥിതി",
      "ചെയ്യുന്നത്.</w>"
    ],
    [
      "ഖ",
      "്</w>"
    ],
    [
      "പ്രകട",
      "ന"
    ],
    [
      "പരി",
      "ച"
    ],
    [
      "ത്തി",
      "ൽ"
    ],
    [
      "ഒടു",
      "വിൽ</w>"
    ],
    [
      "മാറ",
      "ുകയും</w>"
    ],
    [
      "ധാ",
      "ന്യ"
    ],
    [
      "എ",
      "ച്ച്"
    ],
    [
      "അറി",
      "യി"
    ],
    [
      "ഇ",
      "റ"
    ],
    [
      "കാണ",
      "ാൻ</w>"
    ],
    [
      "ഷ",
      "ന"
    ],
    [
      "ഹൈ",
      "ദ"
    ],
    [
      "ബോ",
      "ധ"
    ],
    [
      "വളര",
      "െയ"
    ],
    [
      "പ്പ",
      "ുറ"
    ],
    [
      "കോട്ട",
      "</w>"
    ],
    [
      "ത",
      "ൂ"
    ],
    [
      "ഹിന്ദ",
      "ി</w>"
    ],
    [
      "കർ",
      "ണ"
    ],
    [
      "അയോ",
      "വ"
    ],
    [
      "അ",
      "നേകം</w>"
    ],
    [
      "സംവിധ",
      "ായക"
    ],
    [
      "കൊട്ട",
      "ാര"
    ],
    [
      "നേരി",
      "ട"
    ],
    [
      "ം",
      "\"</w>"
    ],
    [
      "നേ",
      "ടി"
    ],
    [
      "ിക",
      "ള്‍</w>"
    ],
    [
      "മ",
      "ദ്യ"
    ],
    [
      "ഗ",
      "ർഭ"
    ],
    [
      "നൂറ്റാണ്ട",
      "ിൽ</w>"
    ],
    [
      "ഞ്",
      "ജ"
    ],
    [
      "നല്‍",
      "ക"
    ],
    [
      "സാമ്പത്തി",
      "ക"
    ],
    [
      "ജൈ",
      "ന</w>"
    ],
    [
      "കു",
      "തി</w>"
    ],
    [
      "തമി",
      "ഴ്"
    ],
    [
      "പ്രോ",
      "ത്"
    ],
    [
      "ഓ",
      "ർഡ"
    ],
    [
      "ൻ",
      "സ്"
    ],
    [
      "ിയ",
      "ുള്ള"
    ],
    [
      "ട",
      "ിക്ക"
    ],
    [
      "നീ",
      "ങ്ങ"
    ],
    [
      "ശ",
      "ോ"
    ],
    [
      "201",
      "6</w>"
    ],
    [
      "സരിച്ച",
      "്,</w>"
    ],
    [
      "നിർ",
      "ബന്ധ"
    ],
    [
      "ക്",
      "ടീ"
    ],
    [
      "െങ്ക",
      "ില്‍</w>"
    ],
    [
      "ഇംഗ്ല",
      "ീഷ്</w>"
    ],
    [
      "റ",
      "േഷൻ</w>"
    ],
    [
      "ുകാ",
      "ർ</w>"
    ],
    [
      "എഴു",
      "ത"
    ],
    [
      "പ്പിക്ക",
      "ുന്ന"
    ],
    [
      "കാലി",
      "ഫോ"
    ],
    [
      "ിച്ച",
      "തി"
    ],
    [
      "201",
      "1</w>"
    ],
    [
      "201",
      "0</w>"
    ],
    [
      "വേ",
      "ള"
    ],
    [
      "കാ",
      "ർ</w>"
    ],
    [
      "ിച്ചി",
      "രുന്ന</w>"
    ],
    [
      "സ്ഥി",
      "രീ"
    ],
    [
      "ില",
      "ോ</w>"
    ],
    [
      "സംസ്ഥാന",
      "മായ</w>"
    ],
    [
      "വേ",
      "നൽ"
    ],
    [
      "സെൻസ",
      "സ്</w>"
    ],
    [
      "ശ്",
      "മീ"
    ],
    [
      "സം",
      "സ്കാര"
    ],
    [
      "ല",
      "ധികം</w>"
    ],
    [
      "അതി",
      "ന്</w>"
    ],
    [
      "ത",
      "യും</w>"
    ],
    [
      "സി",
      "സ്</w>"
    ],
    [
      "ഫ",
      "ൈ"
    ],
    [
      "ക്ഷ",
      "ൻ</w>"
    ],
    [
      "ിക്ക",
      "ുന്നതിന്</w>"
    ],
    [
      "വേനൽ",
      "ക്കാല"
    ],
    [
      "പ",
      "കർ"
    ],
    [
      "ബ്രിട്ട",
      "ീഷ"
    ],
    [
      "ന",
      "ാര"
    ],
    [
      "വിഷ",
      "യ"
    ],
    [
      "കാന",
      "ഡ"
    ],
    [
      "ദ",
      "ൃ"
    ],
    [
      "നൽക",
      "ുന്ന</w>"
    ],
    [
      "തെക്ക",
      "ൻ</w>"
    ],
    [
      "സൂ",
      "ത്ര"
    ],
    [
      "ധ",
      "ി</w>"
    ],
    [
      "ന",
      "മ്പ"
    ],
    [
      "ചെയ്യ",
      "ുന്നത്</w>"
    ],
    [
      "ില്ല",
      "െന്ന്</w>"
    ],
    [
      "ത്തില",
      "ധികം</w>"
    ],
    [
      "വരു",
      "മാനം</w>"
    ],
    [
      "3",
      "0"
    ],
    [
      "ന",
      "മ്മ"
    ],
    [
      "ഭക്ഷ",
      "ണം</w>"
    ],
    [
      "നി",
      "ൽ"
    ],
    [
      "ണ്ട",
      "്.</w>"
    ],
    [
      "െ",
      "തിരെ</w>"
    ],
    [
      "1",
      "-"
    ],
    [
      "ങ്ങള",
      "ുള്ള</w>"
    ],
    [
      "ു",
      ";</w>"
    ],
    [
      "നിർ",
      "ണ്ണ"
    ],
    [
      "തര",
      "ണം</w>"
    ],
    [
      "ണ്ട",
      "</w>"
    ],
    [
      "അ",
      "ക്ഷ"
    ],
    [
      "മാ",
      "തൃ"
    ],
    [
      "ഒരിക്ക",
      "ലും</w>"
    ],
    [
      "അ",
      "ങ്ങനെ</w>"
    ],
    [
      "ലി",
      "ഖ"
    ],
    [
      "വിഭ",
      "ജ"
    ],
    [
      "സ്",
      "വി"
    ],
    [
      "പ്രഖ്യാപ",
      "ിച്ചു.</w>"
    ],
    [
      "ഡി",
      "വിഷ"
    ],
    [
      "രാത്ര",
      "ി</w>"
    ],
    [
      "അയാ",
      "ൾ</w>"
    ],
    [
      "അട",
      "യാള"
    ],
    [
      "നിർ",
      "ണ"
    ],
    [
      "വ",
      "ൽ</w>"
    ],
    [
      "ഒ",
      "റ്റ"
    ],
    [
      "സെ",
      "ർ"
    ],
    [
      "ലീ",
      "ഗ്</w>"
    ],
    [
      "നി",
      "ട"
    ],
    [
      "ൊ",
      "ന്നും</w>"
    ],
    [
      "ഔദ്യോഗ",
      "ിക</w>"
    ],
    [
      "മത്സര",
      "ങ്ങൾ</w>"
    ],
    [
      "ലൈ",
      "ംഗ"
    ],
    [
      "കാ",
      "ഴ്ച"
    ],
    [
      "ാല",
      "യ"
    ],
    [
      "വെള്ള",
      "ച്ച"
    ],
    [
      "ഗ",
      "വ"
    ],
    [
      "വാ",
      "ട"
    ],
    [
      "മറ്റ",
      "ു</w>"
    ],
    [
      "ഉപ",
      "േ"
    ],
    [
      "നു",
      "സരിച്ച്</w>"
    ],
    [
      "മെ",
      "ങ്ക"
    ],
    [
      "ഹോ",
      "ക്കി</w>"
    ],
    [
      "2",
      "ൽ</w>"
    ],
    [
      "യ്ക്ക",
      "ായി</w>"
    ],
    [
      "പ",
      "ി</w>"
    ],
    [
      "നിയന്ത്ര",
      "ണ"
    ],
    [
      "രൂപ",
      "ക"
    ],
    [
      ".എസ്",
      "."
    ],
    [
      "വെ",
      "ബ്"
    ],
    [
      "വെള്ളച്ച",
      "ാട്ട"
    ],
    [
      "പൂ",
      "ര്‍"
    ],
    [
      "ഭ",
      "്യ"
    ],
    [
      "രീ",
      "ട"
    ],
    [
      "പരസ്പര",
      "ം</w>"
    ],
    [
      "5",
      "ൽ</w>"
    ],
    [
      "സാ",
      "ക്ഷ"
    ],
    [
      "ൂട",
      "െയും</w>"
    ],
    [
      "ഗോ",
      "ത്ര"
    ],
    [
      "2",
      "-"
    ],
    [
      "സംഘട",
      "ന"
    ],
    [
      "നില",
      "നിർത്ത"
    ],
    [
      "പ്പെടുത്ത",
      "ുന്നു.</w>"
    ],
    [
      "കല",
      "്യ"
    ],
    [
      "കാ",
      "ർ"
    ],
    [
      "മ",
      "ണ്ണ"
    ],
    [
      "ആ",
      "കെ</w>"
    ],
    [
      "ഉപഭോ",
      "ക്താ"
    ],
    [
      "സ്",
      "താ"
    ],
    [
      "ദ്ധ",
      "്യ"
    ],
    [
      "ിവ",
      "െ"
    ],
    [
      "കി",
      "രീട"
    ],
    [
      "ഉത്",
      "ഭവ"
    ],
    [
      "ി",
      "ൽനിന്ന്</w>"
    ],
    [
      "ആ",
      "ഫ്രിക്ക"
    ],
    [
      "പ്രാ",
      "ഥ"
    ],
    [
      "സ്ട്ര",
      "ോ"
    ],
    [
      "ന്‍റ",
      "ി"
    ],
    [
      "ക്ക",
      "ുന്നത്.</w>"
    ],
    [
      "നീ",
      "ക്കം</w>"
    ],
    [
      "സാഹി",
      "ത്യ"
    ],
    [
      "ത",
      "മായി</w>"
    ],
    [
      "ഐ",
      "</w>"
    ],
    [
      "രിക്ക",
      "ാൻ</w>"
    ],
    [
      "കണ്ടെ",
      "ത്തി.</w>"
    ],
    [
      "വില",
      "</w>"
    ],
    [
      "ല്ലാ",
      "ത്ത</w>"
    ],
    [
      "1",
      "1</w>"
    ],
    [
      "ഏ",
      "ഴ്</w>"
    ],
    [
      "വൈ",
      "വിധ"
    ],
    [
      "പരിശോധ",
      "ന"
    ],
    [
      "മാർ",
      "ക്ക"
    ],
    [
      "ിച്ചി",
      "രിക്കുന്നു.</w>"
    ],
    [
      "എ",
      "."
    ],
    [
      "മെ",
      "ന്‍റ്</w>"
    ],
    [
      "ഉൾ",
      "പ്പെട"
    ],
    [
      "വിള",
      "ിക്ക"
    ],
    [
      "2",
      "5</w>"
    ],
    [
      "ഉപേ",
      "ക്ഷ"
    ],
    [
      "ഗ",
      "ൂ"
    ],
    [
      "ുന്നതി",
      "നാൽ</w>"
    ],
    [
      "വിക",
      "സിപ്പ"
    ],
    [
      "ശ",
      "</w>"
    ],
    [
      "വി",
      "വാ"
    ],
    [
      "കോ",
      "മ"
    ],
    [
      "ിക്ക",
      "ാനും</w>"
    ],
    [
      "താ",
      "ഗ"
    ],
    [
      "ഘ",
      "ാത"
    ],
    [
      "ചൈ",
      "നീസ്</w>"
    ],
    [
      "ംഗ",
      "്,</w>"
    ],
    [
      "ോ",
      ",</w>"
    ],
    [
      "ം",
      ")</w>"
    ],
    [
      "വി",
      "ൽപ്പ"
    ],
    [
      "ഭാര",
      "്യ"
    ],
    [
      "ുക",
      "ൂട"
    ],
    [
      "മു",
      "തി"
    ],
    [
      "വർദ്ധ",
      "ിപ്പിക്ക"
    ],
    [
      "മ്പ്",
      ",</w>"
    ],
    [
      "ഉ",
      "ച്ച"
    ],
    [
      "മ",
      "ില്ല.</w>"
    ],
    [
      "ഗണ",
      "്യ"
    ],
    [
      "4",
      "0</w>"
    ],
    [
      "കോ",
      "ർപ്പ"
    ],
    [
      "ല",
      "ാണ്</w>"
    ],
    [
      "അ",
      "ക്"
    ],
    [
      "അ",
      "ൽ"
    ],
    [
      "പുറത്തിറങ്ങ",
      "ി.</w>"
    ],
    [
      "ർണ",
      "ിയ"
    ],
    [
      "ഫ്ല",
      "ോ"
    ],
    [
      "ർ",
      "ച്ച</w>"
    ],
    [
      "യുദ്ധ",
      "ം</w>"
    ],
    [
      "യ്",
      "ക്കുകയും</w>"
    ],
    [
      "ണ",
      "ാ"
    ],
    [
      "ഒളിമ്പി",
      "ക്</w>"
    ],
    [
      "ക്",
      ",</w>"
    ],
    [
      "വർഷ",
      "വും</w>"
    ],
    [
      "ബ",
      "ജ"
    ],
    [
      "മൈ",
      "ക്രോ"
    ],
    [
      "ക്കാ",
      "ം.</w>"
    ],
    [
      "യൂ",
      "ണി"
    ],
    [
      "വ",
      "െയ"
    ],
    [
      "റ",
      "ായി</w>"
    ],
    [
      "കഴിയ",
      "ുന്ന"
    ],
    [
      "ഷ്യ",
      "ൽ</w>"
    ],
    [
      "റെക്കോ",
      "ർഡ്</w>"
    ],
    [
      "ത്തി",
      "നുശേഷം</w>"
    ],
    [
      "ഏത",
      "െങ്കിലും</w>"
    ],
    [
      "പ്പോ",
      "ൾ,</w>"
    ],
    [
      "യി",
      "ട"
    ],
    [
      "1",
      "ൽ</w>"
    ],
    [
      "പ്രദേശ",
      "ങ്ങളിൽ</w>"
    ],
    [
      "ങ്ങള",
      "ായ</w>"
    ],
    [
      "യൂ",
      "ണിയ"
    ],
    [
      "ചതുര",
      "ശ്ര</w>"
    ],
    [
      "പൂ",
      "ര"
    ],
    [
      "മ",
      "ധു"
    ],
    [
      "8",
      "ൽ</w>"
    ],
    [
      "ഇസ്",
      "ലാ"
    ],
    [
      "ി",
      "ക്ക്</w>"
    ],
    [
      "വ",
      "ലി"
    ],
    [
      "ം",
      "ബാ"
    ],
    [
      "പ്പ",
      "ൂ"
    ],
    [
      "ആള",
      "ുകളെ</w>"
    ],
    [
      "ങ്ങള",
      "ോ</w>"
    ],
    [
      "സെ",
      "ൻ"
    ],
    [
      "മഹ",
      "ാരാഷ്ട്ര"
    ],
    [
      "കര",
      "്യ"
    ],
    [
      "താ",
      "ള"
    ],
    [
      "പ",
      "ന്ന"
    ],
    [
      "പെൺ",
      "കുട്ട"
    ],
    [
      "എന്നിവ",
      "യ"
    ],
    [
      "ഇ",
      "ൻ്റ"
    ],
    [
      "ഡ",
      "്,</w>"
    ],
    [
      "ഡ",
      "ിൽ</w>"
    ],
    [
      "വിശ്വ",
      "സിക്ക"
    ],
    [
      "സെ",
      "ക്ക"
    ],
    [
      "പുന",
      "ർ"
    ],
    [
      "തെ",
      "റ്റ"
    ],
    [
      "ബ",
      "്‌"
    ],
    [
      "സ",
      "ുകൾ</w>"
    ],
    [
      "ിക്കാ",
      "ന്‍</w>"
    ],
    [
      "ച",
      "ൂ"
    ],
    [
      "ണ്",
      "ഡി"
    ],
    [
      "വാ",
      "യ"
    ],
    [
      "ുള്ള",
      "ൂ.</w>"
    ],
    [
      "ക",
      "ൻ</w>"
    ],
    [
      "വി",
      "ൻ്റെ</w>"
    ],
    [
      "ഫോ",
      "ർ"
    ],
    [
      "ബന്ധ",
      "ിപ്പിക്ക"
    ],
    [
      "സ്രോ",
      "ത"
    ],
    [
      "5",
      "0"
    ],
    [
      "മാർ",
      "ഗ"
    ],
    [
      "സ്റ്റ",
      "േറ്റ്</w>"
    ],
    [
      "റെയിൽ",
      "വേ</w>"
    ],
    [
      "സംഗീ",
      "ത</w>"
    ],
    [
      "ഘട",
      "ന"
    ],
    [
      "പ",
      "കുതി"
    ],
    [
      "201",
      "5</w>"
    ],
    [
      "തി",
      "ഥ"
    ],
    [
      "ർ",
      "ണ്ണ"
    ],
    [
      "സി",
      "റ്റി</w>"
    ],
    [
      "ബ്ല",
      "ാ"
    ],
    [
      "സം",
      "ഭവി"
    ],
    [
      "ുകൾ",
      "ക്കും</w>"
    ],
    [
      "സി",
      "ദ്ധ"
    ],
    [
      "നദ",
      "ീ"
    ],
    [
      "സര്‍",
      "ക്കാര"
    ],
    [
      "ോട",
      "ുള്ള</w>"
    ],
    [
      "ടെലിവിഷ",
      "ൻ</w>"
    ],
    [
      "ശക്ത",
      "മായ</w>"
    ],
    [
      "വളരെയ",
      "ധികം</w>"
    ],
    [
      "സേവന",
      "മനു"
    ],
    [
      "ത",
      "ാല"
    ],
    [
      "ദൈ",
      "വ"
    ],
    [
      "ദേശ",
      "ീയ"
    ],
    [
      "ിക",
      "െ</w>"
    ],
    [
      "ി",
      "യി"
    ],
    [
      "റിപ്പോ",
      "ർട്ട"
    ],
    [
      "6",
      "ൽ</w>"
    ],
    [
      "ജോ",
      "ർ"
    ],
    [
      "ഭ",
      "േദ"
    ],
    [
      "മുനിസിപ്പാലി",
      "റ്റി"
    ],
    [
      "സ",
      "ത്യ"
    ],
    [
      "സേവനമനു",
      "ഷ്ഠ"
    ],
    [
      "താരതമ",
      "്യ"
    ],
    [
      "തുട",
      "ർന്ന"
    ],
    [
      "മെ",
      "ൻ"
    ],
    [
      "പ്രോത്",
      "സാഹി"
    ],
    [
      "പുറത്തിറങ്ങ",
      "ിയ</w>"
    ],
    [
      "വി",
      "ഷ്ണ"
    ],
    [
      "ശ",
      "സ്ത്ര"
    ],
    [
      "കൊടു",
      "ങ്കാ"
    ],
    [
      "ഗ",
      "താഗ"
    ],
    [
      "കര",
      "ിച്ചു.</w>"
    ],
    [
      "വാണ",
      "ി"
    ],
    [
      "തിര",
      "ഞ്ഞ"
    ],
    [
      "ധിപ",
      "ത്യ"
    ],
    [
      "അ",
      "ധ്യ"
    ],
    [
      "യ",
      "ു.</w>"
    ],
    [
      "അത",
      "േ"
    ],
    [
      "ന്യൂ",
      "</w>"
    ],
    [
      "സ്റ്റ",
      "ു"
    ],
    [
      "െ",
      "ടുത്ത</w>"
    ],
    [
      "ചോ",
      "ദ്യ"
    ],
    [
      "ഫ്ര",
      "ഞ്ച്</w>"
    ],
    [
      "കീഴ",
      "ിൽ</w>"
    ],
    [
      "ച",
      "ീ"
    ],
    [
      "ബാ",
      "ങ്ക്</w>"
    ],
    [
      "വി",
      "ട്ടു"
    ],
    [
      "ബന്ധ",
      "ം</w>"
    ],
    [
      "വി",
      "വ"
    ],
    [
      "ബ",
      "ൗ"
    ],
    [
      "ഏ",
      "ക</w>"
    ],
    [
      "വിനോദ",
      "സഞ്ചാര"
    ],
    [
      "യൂറോപ്യ",
      "ൻ</w>"
    ],
    [
      "തര",
      "ത്തിലുള്ള</w>"
    ],
    [
      "ിച്ചി",
      "രിക്കുന്ന</w>"
    ],
    [
      "ഇ",
      "റാ"
    ],
    [
      "സ്റ്റോ",
      "റ"
    ],
    [
      "നെ",
      "റ്റ്</w>"
    ],
    [
      "തെര",
      "ഞ്ഞെടു"
    ],
    [
      "ങ്ങള്‍",
      "ക്ക്</w>"
    ],
    [
      "ിച്ചിരുന്ന",
      "ത്.</w>"
    ],
    [
      "കഴ",
      "ിവ"
    ],
    [
      "ോട",
      "ും</w>"
    ],
    [
      "അര",
      "ങ്ങ"
    ],
    [
      "നേര",
      "ത്തെ</w>"
    ],
    [
      "ഗുരു",
      "തര"
    ],
    [
      "എതി",
      "രാള"
    ],
    [
      "കർണ",
      "ാട"
    ],
    [
      "ഒ",
      "ഡ"
    ],
    [
      "കാണ",
      "പ്പെടുന്നു.</w>"
    ],
    [
      "നിര",
      "ക്ക്</w>"
    ],
    [
      "കൂട",
      "ിയ"
    ],
    [
      "കാ",
      "റ്റ"
    ],
    [
      "അവതരി",
      "പ്പിക്ക"
    ],
    [
      "തുട",
      "ര്‍"
    ],
    [
      "ില്ല",
      "</w>"
    ],
    [
      "ൾ",
      "ട്ട"
    ],
    [
      "കു",
      "തിര"
    ],
    [
      "ാവ",
      "ുന്ന"
    ],
    [
      "ഡ",
      "്യൂ"
    ],
    [
      "തൊഴ",
      "ില"
    ],
    [
      "സങ്ക",
      "ീ"
    ],
    [
      "ഉടമ",
      "സ്ഥ"
    ],
    [
      "ങ്ങള",
      "ു"
    ],
    [
      "ഒരു",
      "മ"
    ],
    [
      "ശത",
      "മാനം</w>"
    ],
    [
      "മൂല",
      "്യ"
    ],
    [
      "ബി",
      "ൾ</w>"
    ],
    [
      "വനി",
      "താ</w>"
    ],
    [
      "കട",
      "ന്നു"
    ],
    [
      "യ്",
      "ക്കു"
    ],
    [
      "ആ",
      "ഭ്യ"
    ],
    [
      "ത",
      "ദ്ദേശ"
    ],
    [
      "രാഷ്ട്ര",
      "ീയ</w>"
    ],
    [
      "ഏത",
      "ാനും</w>"
    ],
    [
      "200",
      "8</w>"
    ],
    [
      "കള",
      "ിലെ</w>"
    ],
    [
      "ഒര",
      "േ</w>"
    ],
    [
      "കാര്യ",
      "ങ്ങൾ</w>"
    ],
    [
      "തു",
      "മാണ്.</w>"
    ],
    [
      "ക",
      "ള്‍"
    ],
    [
      "ുവെ",
      "ന്നും</w>"
    ],
    [
      "ം",
      "ഖ"
    ],
    [
      "സം",
      "ശ"
    ],
    [
      "വിധ",
      "േയ"
    ],
    [
      "എന്നി",
      "ങ്ങനെ</w>"
    ],
    [
      "മാ",
      "സം</w>"
    ],
    [
      "ുകള",
      "ോ</w>"
    ],
    [
      "ക്ക",
      "ർ</w>"
    ],
    [
      "നിയമ",
      "ങ്ങൾ</w>"
    ],
    [
      "നില",
      "വില"
    ],
    [
      "വാണി",
      "ജ്യ"
    ],
    [
      "അംഗ",
      "ീകരിക്ക"
    ],
    [
      "നേതൃ",
      "ത്വ"
    ],
    [
      "ം",
      "സ"
    ],
    [
      "നോ",
      "ട്ട"
    ],
    [
      "യൂണ",
      "ിവ"
    ],
    [
      "സം",
      "ഗ"
    ],
    [
      "ചെ",
      "ന്ന"
    ],
    [
      "കമ്പ",
      "നിയ"
    ],
    [
      "ർ",
      "ട"
    ],
    [
      "വി",
      "ന്‍റെ</w>"
    ],
    [
      "ഫ",
      "്.</w>"
    ],
    [
      "ടി",
      "."
    ],
    [
      "കോ",
      "ടി</w>"
    ],
    [
      "ന്റ",
      "െ</w>"
    ],
    [
      "ഭാ",
      "വി"
    ],
    [
      "എന്നിവ",
      "യു"
    ],
    [
      "സ്ഥിതി",
      "ചെയ്യുന്ന</w>"
    ],
    [
      "നേരി",
      "ട്ട"
    ],
    [
      "വി",
      "തരണം</w>"
    ],
    [
      "1",
      "4</w>"
    ],
    [
      "ങ്ങളില",
      "േക്ക്</w>"
    ],
    [
      "ഉണ്ട",
      "ായിരിക്ക"
    ],
    [
      "പ്പെടു",
      "ത്തിയ"
    ],
    [
      "ൂട",
      "െയാണ്</w>"
    ],
    [
      "സ്റ്റ",
      "േഷ"
    ],
    [
      "ബെ",
      "ൽ"
    ],
    [
      "കമ്പ്യൂട്ട",
      "ർ</w>"
    ],
    [
      "വര",
      "ിൽ</w>"
    ],
    [
      "നേട",
      "ിയ"
    ],
    [
      "ഞ്ഞ",
      "ു.</w>"
    ],
    [
      "വി",
      "ന്</w>"
    ],
    [
      "ർ",
      "മ"
    ],
    [
      "നട",
      "ത്തിയ</w>"
    ],
    [
      "4",
      "ൽ</w>"
    ],
    [
      "വരിക",
      "യും</w>"
    ],
    [
      "പ്രധാന",
      "പ്പെട്ട</w>"
    ],
    [
      "പരി",
      "ഗണ"
    ],
    [
      "സാധാരണ",
      "മായ</w>"
    ],
    [
      "പ്രോഗ",
      "്ര"
    ],
    [
      "രു",
      "ദ്ധ"
    ],
    [
      "1",
      "6</w>"
    ],
    [
      "വാ",
      "സ്തു"
    ],
    [
      "തുട",
      "ർച്ച"
    ],
    [
      "1",
      "8</w>"
    ],
    [
      "സമ്പ",
      "ന്ന"
    ],
    [
      "ക്രി",
      "സ്"
    ],
    [
      "ശ്രദ്ധ",
      "േയ"
    ],
    [
      "അ",
      "പൂർ"
    ],
    [
      "മു",
      "ഖ്യ"
    ],
    [
      "രീതി",
      "യിൽ</w>"
    ],
    [
      "സൈ",
      "ന്യം</w>"
    ],
    [
      "ബ്ര",
      "ി"
    ],
    [
      "ആ",
      "തിഥ"
    ],
    [
      "ുമ്പോ",
      "ൾ,</w>"
    ],
    [
      "ൽ",
      ".</w>"
    ],
    [
      "മ",
      "ുകളിൽ</w>"
    ],
    [
      "പ",
      "റ്റ"
    ],
    [
      "ാക",
      "ുന്ന</w>"
    ],
    [
      "പ്ര",
      "ചാര"
    ],
    [
      "സ്റ്റ",
      "ീ"
    ],
    [
      "പ",
      "ലി"
    ],
    [
      "ചലച്ചി",
      "ത്ര"
    ],
    [
      "ടി",
      "പ്പ"
    ],
    [
      "ിക്ക",
      "പ്പെട്ടു.</w>"
    ],
    [
      "അഭ",
      "്യ"
    ],
    [
      "രുട",
      "െയും</w>"
    ],
    [
      "മാ",
      "ധ്യ"
    ],
    [
      "കമ്മ",
      "്യൂ"
    ],
    [
      "ഉണ്ട",
      "ാകാ"
    ],
    [
      "വു",
      "മാണ്.</w>"
    ],
    [
      "ക",
      "ന്ന"
    ],
    [
      "െന്ന",
      "ു</w>"
    ],
    [
      "പൂർണ്ണ",
      "മായും</w>"
    ],
    [
      "ബോ",
      "ംബ"
    ],
    [
      "ജ",
      "യ"
    ],
    [
      "ിച്ച",
      "ുള്ള</w>"
    ],
    [
      "ആശ",
      "ങ്ക"
    ],
    [
      "േഴ്",
      "സ്</w>"
    ],
    [
      "വർഷ",
      "ത്തെ</w>"
    ],
    [
      "ആ",
      "കർഷ"
    ],
    [
      "ക്ര",
      "മീ"
    ],
    [
      "ക്ക",
      "ുകൾ</w>"
    ],
    [
      "ദക്ഷിണ",
      "േന്ത്യ"
    ],
    [
      "വൈവിധ",
      "്യ"
    ],
    [
      "പാ",
      "റ"
    ],
    [
      "കാ",
      "ം.</w>"
    ],
    [
      "അ",
      "ശോ"
    ],
    [
      "വരു",
      "മാന"
    ],
    [
      "സ്ഥാപ",
      "ിച്ചു.</w>"
    ],
    [
      "ഷ",
      "ി</w>"
    ],
    [
      "ുകൊ",
      "ണ്ടി"
    ],
    [
      "ബ",
      "ംഗ്ല"
    ],
    [
      "മധ്യ",
      "പ്രദേശ"
    ],
    [
      "ഹ",
      "രി"
    ],
    [
      "സ്റ്റേറ്റ",
      "്"
    ],
    [
      "ജനസംഖ്യ",
      "</w>"
    ],
    [
      "ുകള",
      "ാണ്</w>"
    ],
    [
      "കര",
      "്‍"
    ],
    [
      "ിക്കൊ",
      "ണ്ട്</w>"
    ],
    [
      "ഒഴി",
      "വാ"
    ],
    [
      "ഭ",
      "ീഷ"
    ],
    [
      "പഞ്ചാ",
      "ബ"
    ],
    [
      "ആയിരുന്ന",
      "ു</w>"
    ],
    [
      "ക",
      "ഠ"
    ],
    [
      "അറിയ",
      "പ്പെടുന്നത്.</w>"
    ],
    [
      "അധ",
      "ിക</w>"
    ],
    [
      "ടെ",
      "ക്"
    ],
    [
      "വെള്ള",
      "പ്പ"
    ],
    [
      "മുനിസിപ്പാലിറ്റി",
      "യിലെ</w>"
    ],
    [
      "ക്രിക്ക",
      "റ്റ്</w>"
    ],
    [
      "പ്രദേശ",
      "ത്ത്</w>"
    ],
    [
      "മുസ്",
      "ലി"
    ],
    [
      "തിനാല",
      "്‍</w>"
    ],
    [
      "യോ",
      "ടെ</w>"
    ],
    [
      "ന",
      "ായിരുന്നു.</w>"
    ],
    [
      "വിമ",
      "ർശ"
    ],
    [
      "ചിത്ര",
      "ത്തിൽ</w>"
    ],
    [
      "2",
      "6"
    ],
    [
      "അ",
      "മ"
    ],
    [
      "എന്ത",
      "െങ്കിലും</w>"
    ],
    [
      "സുഹൃ",
      "ത്തു"
    ],
    [
      "ഒന്ന",
      "ാം</w>"
    ],
    [
      "ത",
      "കൾ</w>"
    ],
    [
      "വാ",
      "യ്"
    ],
    [
      "ൽ",
      ")</w>"
    ],
    [
      "പെ",
      "ട"
    ],
    [
      "ഇ",
      "ള"
    ],
    [
      "ൾ",
      "പ്പെടെ</w>"
    ],
    [
      "റ",
      "േഷ"
    ],
    [
      "ിച്ച",
      "ത്</w>"
    ],
    [
      "വെ",
      "സ്റ്റ്</w>"
    ],
    [
      "മാനേ",
      "ജ"
    ],
    [
      "ുകൾ",
      ".</w>"
    ],
    [
      "മത്സ",
      "്യ"
    ],
    [
      "ിച്ചി",
      "രിക്കുന്നത്.</w>"
    ],
    [
      "പോരാ",
      "ട്ട"
    ],
    [
      "കലാ",
      "കാര"
    ],
    [
      "ൽക്ക",
      "ാല"
    ],
    [
      "ത",
      "ട്ട"
    ],
    [
      "അ",
      "ക്കാ"
    ],
    [
      "പുറത്തിറ",
      "ക്കി.</w>"
    ],
    [
      "എൻ",
      ".</w>"
    ],
    [
      "ഏ",
      "ഴ"
    ],
    [
      "പ്രൊഫ",
      "ഷണൽ</w>"
    ],
    [
      "നീ",
      "ക്ക"
    ],
    [
      "അല",
      "ങ്ക"
    ],
    [
      "കുറ",
      "യ"
    ],
    [
      "ഇന്‍റ",
      "ർ"
    ],
    [
      "സ്റ്റേറ്റ",
      "്‌"
    ],
    [
      "എന്നിവിട",
      "ങ്ങളിൽ</w>"
    ],
    [
      "ന",
      "ോട്</w>"
    ],
    [
      "ുകയാണ",
      "െങ്കിൽ,</w>"
    ],
    [
      "നാണ",
      "യ"
    ],
    [
      "ഗ",
      "ൗ"
    ],
    [
      "സ",
      "ന്ധ"
    ],
    [
      "പാ",
      "ടു"
    ],
    [
      "നാട",
      "ക"
    ],
    [
      "ശ്",
      "വര"
    ],
    [
      "കളിക്കാ",
      "ർ</w>"
    ],
    [
      "ധ",
      "ര"
    ],
    [
      "ുന്ന",
      "ത"
    ],
    [
      "ചു",
      "രു"
    ],
    [
      "സാമൂഹ",
      "ിക</w>"
    ],
    [
      "ിക്ക",
      "ാനുള്ള</w>"
    ],
    [
      "ഹ്ര",
      "സ്വ"
    ],
    [
      "എ",
      "ട്ട്</w>"
    ],
    [
      "പ്രസിദ്ധ",
      "ീകര"
    ],
    [
      "ഇ",
      "ത"
    ],
    [
      "വെ",
      "ളി"
    ],
    [
      "ക്രമ",
      "ം</w>"
    ],
    [
      "ക്കു",
      "മ്പോൾ</w>"
    ],
    [
      "ഇന്",
      "തോ"
    ],
    [
      "അതി",
      "നാൽ</w>"
    ],
    [
      "3",
      "ൽ</w>"
    ],
    [
      "ക്ക",
      "െ</w>"
    ],
    [
      "സൂചി",
      "പ്പിക്കുന്നു.</w>"
    ],
    [
      "തെ",
      "ളി"
    ],
    [
      ".എ",
      "."
    ],
    [
      "ബ്ര",
      "സീ"
    ],
    [
      "പശ്ച",
      "ാത്ത"
    ],
    [
      "ബെ",
      "ർ"
    ],
    [
      "ന",
      "വും</w>"
    ],
    [
      "മേ",
      "യ"
    ],
    [
      "നെക്കുറ",
      "ിച്ച്</w>"
    ],
    [
      "അ",
      "യാള"
    ],
    [
      "ൾ",
      "സ്</w>"
    ],
    [
      "ഏ",
      "ത്</w>"
    ],
    [
      "സമ്",
      "മാന"
    ],
    [
      "ങ്ങള",
      "ാണ്.</w>"
    ],
    [
      "ച",
      "ാർ"
    ],
    [
      "േണ്ട",
      "തു"
    ],
    [
      "പേ",
      "ശ"
    ],
    [
      "ആരോഗ",
      "്യ"
    ],
    [
      "സി",
      "ന്ധ"
    ],
    [
      "െടു",
      "ക്കുകയും</w>"
    ],
    [
      "ത്",
      "മക"
    ],
    [
      "ഡൽ",
      "ഹി</w>"
    ],
    [
      "നാ",
      "</w>"
    ],
    [
      "അ",
      "മ്പ"
    ],
    [
      "െക്കുറിച്ച",
      "ും</w>"
    ],
    [
      "വെള്ള",
      "ം</w>"
    ],
    [
      "ത്ത",
      "ര"
    ],
    [
      "ു",
      "മാണ്.</w>"
    ],
    [
      "മ",
      "ിൽ</w>"
    ],
    [
      "നേ",
      "ക്കാൾ</w>"
    ],
    [
      "ഡയ",
      "റ"
    ],
    [
      "എ",
      "ഞ്ച"
    ],
    [
      "ഇല്ല",
      "ിനോ"
    ],
    [
      "ഹ",
      "ൗ"
    ],
    [
      "കന",
      "ത്ത</w>"
    ],
    [
      "പ്രദ",
      "ായ"
    ],
    [
      "ഫല",
      "പ്രദ"
    ],
    [
      "ിന",
      "ു"
    ],
    [
      "വീ",
      "ഡിയോ</w>"
    ],
    [
      "സൈനി",
      "ക"
    ],
    [
      "അ",
      "ലാ"
    ],
    [
      "യുദ്ധ",
      "ത്തിൽ</w>"
    ],
    [
      "അക്കാ",
      "ദ"
    ],
    [
      "ക്",
      "റ്റ"
    ],
    [
      "തട",
      "സ്സ"
    ],
    [
      "പ്രതിനിധ",
      "ീകരിക്ക"
    ],
    [
      "ല",
      "ളി"
    ],
    [
      "ക്കള",
      "െ</w>"
    ],
    [
      "ുക",
      "ാല"
    ],
    [
      "എന്ന",
      "താണ്</w>"
    ],
    [
      "അതി",
      "നുശേഷം</w>"
    ],
    [
      "പതി",
      "ന"
    ],
    [
      "നു",
      "മായി</w>"
    ],
    [
      "കൊ",
      "ല"
    ],
    [
      "ആ",
      "ര്‍"
    ],
    [
      "നി",
      "ടെ</w>"
    ],
    [
      "സമ്",
      "പ്രദായ"
    ],
    [
      "ഏ",
      "ർ"
    ],
    [
      "നട",
      "പ്പ"
    ],
    [
      "റ",
      "യ"
    ],
    [
      "മറാ",
      "ത്ത"
    ],
    [
      "വ",
      "ച"
    ],
    [
      "ബ",
      "ല"
    ],
    [
      "റ",
      "ാണ"
    ],
    [
      "ബംഗാ",
      "ൾ</w>"
    ],
    [
      "ന",
      "ത്തിന്</w>"
    ],
    [
      "ങ്ങ",
      "ന"
    ],
    [
      "അതി",
      "ർത്തി"
    ],
    [
      "ക",
      "ൌ"
    ],
    [
      "വ",
      "ത"
    ],
    [
      "കണ്ടെ",
      "ത്തി"
    ],
    [
      "ക്",
      "യു"
    ],
    [
      "കേ",
      "ടു"
    ],
    [
      "വ",
      "സ"
    ],
    [
      "2",
      "4"
    ],
    [
      "അ",
      "ര്‍"
    ],
    [
      "സാങ്കേ",
      "തിക"
    ],
    [
      "യാ",
      "ത്ര</w>"
    ],
    [
      "നൂറ്റാണ്ട",
      "ിലെ</w>"
    ],
    [
      "മാർ",
      "ഗ്ഗ"
    ],
    [
      "പ്രദേശ",
      "ത്തെ</w>"
    ],
    [
      "ച",
      "ർമ്മ"
    ],
    [
      "2",
      "4</w>"
    ],
    [
      "ല",
      "േഖ"
    ],
    [
      "ിച്ച",
      "തായി</w>"
    ],
    [
      "സ്ഥ",
      "ാൻ</w>"
    ],
    [
      "മുംബ",
      "ൈ"
    ],
    [
      "മനസ്സ",
      "ിലാക്ക"
    ],
    [
      "ഓ",
      "ട"
    ],
    [
      "ഉപയോഗ",
      "ിക്കുന്ന"
    ],
    [
      "ുകയ",
      "ായിരുന്നു.</w>"
    ],
    [
      "കണ്ടെത്ത",
      "ാൻ</w>"
    ],
    [
      "ഉണ്ട",
      "ാ"
    ],
    [
      "പു",
      "ത്ര"
    ],
    [
      "ആരംഭ",
      "ിച്ചത്.</w>"
    ],
    [
      "കാരണ",
      "മാ"
    ],
    [
      "ഇ",
      ".</w>"
    ],
    [
      "ഭൂ",
      "ഖണ്ഡ"
    ],
    [
      "ഒഡ",
      "ീഷ"
    ],
    [
      "7",
      "-ൽ</w>"
    ],
    [
      "ഭാഗ",
      "ത്ത്</w>"
    ],
    [
      ")",
      ".</w>"
    ],
    [
      "നില",
      "വിൽ</w>"
    ],
    [
      "വൈറ",
      "സ്</w>"
    ],
    [
      "മെ",
      "ൻ്റ്</w>"
    ],
    [
      "സാം",
      "സ്കാര"
    ],
    [
      "കമ്പനി",
      "യുടെ</w>"
    ],
    [
      "ക്ക",
      "ൽ</w>"
    ],
    [
      "ശാസ്ത്ര",
      "ജ്ഞ"
    ],
    [
      "പ",
      "ല്ല"
    ],
    [
      "ബി",
      "രു"
    ],
    [
      "സഹായ",
      "ം</w>"
    ],
    [
      "വൈ",
      "കല്യ"
    ],
    [
      "ഹമ്മ",
      "ദ്</w>"
    ],
    [
      "ന്ദ്ര",
      "</w>"
    ],
    [
      "ിയ",
      "ോ</w>"
    ],
    [
      "സൈനി",
      "ക</w>"
    ],
    [
      "ള",
      "ും</w>"
    ],
    [
      "േ",
      "യും</w>"
    ],
    [
      "ക്ര",
      "മേ"
    ],
    [
      "പാ",
      "കി"
    ],
    [
      "നൽക",
      "ാൻ</w>"
    ],
    [
      "നീണ്ട",
      "ുനി"
    ],
    [
      "മേഖല",
      "യിലെ</w>"
    ],
    [
      "അ",
      "ണ"
    ],
    [
      "ശൃ",
      "ംഖ"
    ],
    [
      "ുകള",
      "ുള്ള</w>"
    ],
    [
      "രൂപക",
      "ൽപ്പ"
    ],
    [
      "പ്പെട്ട",
      "ിട്ടുണ്ട്.</w>"
    ],
    [
      "ുകള",
      "ായി</w>"
    ],
    [
      "പോക",
      "ുന്നു.</w>"
    ],
    [
      "ഷോ",
      "പ്പിംഗ്</w>"
    ],
    [
      "ഇല",
      "ക്"
    ],
    [
      "റ്റ",
      "ൽ</w>"
    ],
    [
      "പ്ര",
      "ിയ"
    ],
    [
      "കോളേ",
      "ജ"
    ],
    [
      "നെ",
      "തിരെ</w>"
    ],
    [
      "വിദ",
      "ഗ്"
    ],
    [
      "ാല",
      "ും</w>"
    ],
    [
      "ക്ക",
      "ിയ</w>"
    ],
    [
      "ഉയ",
      "ർന്ന"
    ],
    [
      "പ്ര",
      "കൃതി"
    ],
    [
      "ച",
      "ൊ"
    ],
    [
      "ട",
      "േ"
    ],
    [
      "ക്",
      "സിൽ</w>"
    ],
    [
      "ന്ന",
      "ു</w>"
    ],
    [
      "അറിയ",
      "പ്പെടുന്നു.</w>"
    ],
    [
      "എ",
      "ത്ര"
    ],
    [
      "കൊ",
      "റിയ"
    ],
    [
      "ട്ര",
      "െ"
    ],
    [
      "പതാ",
      "ം</w>"
    ],
    [
      "സി",
      "ക്</w>"
    ],
    [
      "ഡി",
      "ഗ്ര"
    ],
    [
      "ക്ല",
      "ബ്ബ"
    ],
    [
      "റ",
      "ുടെ</w>"
    ],
    [
      "റിപ്പബ്ല",
      "ിക്ക"
    ],
    [
      "മി",
      "ട"
    ],
    [
      "തി",
      "രായ</w>"
    ],
    [
      "ല",
      "ിലെ</w>"
    ],
    [
      "ഇന്ന",
      "ത്തെ</w>"
    ],
    [
      "അരങ്ങ",
      "േറ്റ"
    ],
    [
      "ി",
      "യിലെ</w>"
    ],
    [
      "ത",
      "ണു"
    ],
    [
      "സ്ഥല",
      "ം</w>"
    ],
    [
      "റ",
      "േറ്റ"
    ],
    [
      "ദ",
      "ാര"
    ],
    [
      "ക",
      "പ്പ്</w>"
    ],
    [
      "പ്ര",
      "ണ"
    ],
    [
      "ുട",
      "ർന്ന്</w>"
    ],
    [
      "അ",
      "ധിക"
    ],
    [
      "പൊ",
      "തു</w>"
    ],
    [
      "അ",
      "ത്തരം</w>"
    ],
    [
      "പോ",
      "യ"
    ],
    [
      "പ്രതിരോധ",
      "</w>"
    ],
    [
      "ാ",
      "നി"
    ],
    [
      "വി",
      "റ്റാ"
    ],
    [
      "ായി",
      "ത്തീ"
    ],
    [
      "സ്വാതന്ത്ര",
      "്യ"
    ],
    [
      "ാക്ക",
      "ി</w>"
    ],
    [
      "നട",
      "പട"
    ],
    [
      "ിച്ച",
      "ു</w>"
    ],
    [
      "ത്",
      "മ"
    ],
    [
      "ക്ക",
      "ട"
    ],
    [
      "കുറ",
      "ച്ച"
    ],
    [
      "ഴ്",
      "സ്</w>"
    ],
    [
      "കൂട",
      "ിയ</w>"
    ],
    [
      "യി",
      "ൽനിന്ന്</w>"
    ],
    [
      "ഞ്ഞ",
      "ു"
    ],
    [
      "200",
      "7</w>"
    ],
    [
      "അവള",
      "െ</w>"
    ],
    [
      "പട്ടണ",
      "മാണ്</w>"
    ],
    [
      "ഉ",
      "രു"
    ],
    [
      "ഷ",
      "ുറ"
    ],
    [
      "മി",
      "സോ"
    ],
    [
      "ഉ",
      "ഷ്ണ"
    ],
    [
      "ബാ",
      "ക്ടീ"
    ],
    [
      "ചലച്ചി",
      "ത്ര</w>"
    ],
    [
      "ഈ",
      "സ്റ്റ്</w>"
    ],
    [
      "പ്രതി",
      "ഷേധ"
    ],
    [
      "സ്റ്റേ",
      "ഡിയ"
    ],
    [
      "േക്ക",
      "ു</w>"
    ],
    [
      "ഉത്ത",
      "ർ"
    ],
    [
      "ഉത്തർ",
      "പ്രദേശ"
    ],
    [
      "നവ",
      "ംബ"
    ],
    [
      "രാജ",
      "സ്ഥാ"
    ],
    [
      "സ്‌ട്ര",
      "േലിയ"
    ],
    [
      "പ",
      "രാ"
    ],
    [
      "പോ",
      "ഷ"
    ],
    [
      "മി",
      "തി"
    ],
    [
      "ശൈ",
      "ത്യ"
    ],
    [
      "മഴ",
      "</w>"
    ],
    [
      "പാ",
      "ക്കി"
    ],
    [
      "ത്",
      "ത്"
    ],
    [
      "പ്രശ്",
      "നങ്ങൾ</w>"
    ],
    [
      "കുട",
      "ിയ"
    ],
    [
      "ചേ",
      "ർന്ന്</w>"
    ],
    [
      "ജോ",
      "ല"
    ],
    [
      "ാക്ക",
      "ുകയും</w>"
    ],
    [
      "പ്ല",
      "േ"
    ],
    [
      "മാധ്യ",
      "മ"
    ],
    [
      "19",
      "0"
    ],
    [
      "ന",
      "ന്ദ"
    ],
    [
      "നടത്ത",
      "ുന്ന</w>"
    ],
    [
      "ഏ",
      "ജ"
    ],
    [
      "ലാ",
      "ഭ"
    ],
    [
      "2",
      "-ൽ</w>"
    ],
    [
      "ആര",
      "ോ"
    ],
    [
      "പ്രതി",
      "കരണ"
    ],
    [
      "അവസ",
      "ര"
    ],
    [
      "വിക",
      "സി"
    ],
    [
      "വ",
      "രുടെ</w>"
    ],
    [
      "എഴു",
      "ത്ത"
    ],
    [
      "ന്മാ",
      "രും</w>"
    ],
    [
      "ശാ",
      "ഖ"
    ],
    [
      "വാസ്തു",
      "വിദ്യ"
    ],
    [
      "വ",
      "ന്നു.</w>"
    ],
    [
      "മാതാ",
      "പിതാ"
    ],
    [
      "അടിസ്ഥാന",
      "</w>"
    ],
    [
      "വി",
      "ശുദ്ധ"
    ],
    [
      "ആയി",
      "രിക്ക"
    ],
    [
      "ഉ",
      "ം</w>"
    ],
    [
      "എന്നിവ",
      "യിൽ</w>"
    ],
    [
      "വാഹ",
      "ന"
    ],
    [
      "ാർ",
      "ക്ക്</w>"
    ],
    [
      "ക്ര",
      "െ"
    ],
    [
      "ുകള",
      "ുടെയും</w>"
    ],
    [
      "ർ",
      ")</w>"
    ],
    [
      "ജ",
      "്യം</w>"
    ],
    [
      "ക്കണ",
      "ക്കിന്</w>"
    ],
    [
      "പര",
      "മാ"
    ],
    [
      "സോഫ്റ്റ",
      "്</w>"
    ],
    [
      "മല്ല",
      ".</w>"
    ],
    [
      "സ്കൂ",
      "ൾ</w>"
    ],
    [
      "കു",
      "മാർ</w>"
    ],
    [
      "പങ്ക",
      "ാള"
    ],
    [
      "ജീവി",
      "തം</w>"
    ],
    [
      "ടുത്ത",
      "ുള്ള</w>"
    ],
    [
      "കള",
      "ിച്ചു.</w>"
    ],
    [
      "നിർമ്",
      "മാതാ"
    ],
    [
      "ഹോ",
      "ട്ട"
    ],
    [
      "ഗവ",
      "ൺ"
    ],
    [
      "വി",
      "രുദ്ധ"
    ],
    [
      "ുന്ന",
      "തും</w>"
    ],
    [
      "ായി",
      "ട്ട"
    ],
    [
      "ത",
      "യുടെ</w>"
    ],
    [
      "പ്ര",
      "കാശ"
    ],
    [
      "തിര",
      "ക്ക"
    ],
    [
      "ല",
      "ുള്ള</w>"
    ],
    [
      "ബന്ധ",
      "പ്പെട്ട"
    ],
    [
      "ഗ",
      "തി"
    ],
    [
      "ബ",
      "റിൽ</w>"
    ],
    [
      "നിര",
      "ോധ"
    ],
    [
      "കാ",
      "ൽ"
    ],
    [
      "വ",
      "കു"
    ],
    [
      "ഡി",
      "റ്റ്</w>"
    ],
    [
      "ിയ",
      "ാണ്.</w>"
    ],
    [
      "ൗ",
      "ണ്ട്</w>"
    ],
    [
      "ഉത്സവ",
      "ം</w>"
    ],
    [
      "റ",
      "ാണ്</w>"
    ],
    [
      "മയ",
      "ക്കു"
    ],
    [
      "പ",
      "ണ്ഡി"
    ],
    [
      "രാജ്യ",
      "ത്തെ</w>"
    ],
    [
      "നട",
      "ത്തി"
    ],
    [
      "ക്ട",
      "ർ</w>"
    ],
    [
      "എഴു",
      "തി"
    ],
    [
      "202",
      "2</w>"
    ],
    [
      "സ്കോ",
      "ർ</w>"
    ],
    [
      "രാജ",
      "്യം</w>"
    ],
    [
      "0",
      "ൽ</w>"
    ],
    [
      "റ",
      "ർ"
    ],
    [
      "ണ",
      "ിലെ</w>"
    ],
    [
      "കുറഞ്ഞ",
      "ത്</w>"
    ],
    [
      "സൗ",
      "കര്യ"
    ],
    [
      "കഴിയ",
      "ു"
    ],
    [
      "സ്റ്റ",
      "െ"
    ],
    [
      "ോ",
      "?</w>"
    ],
    [
      "വിറ്റാ",
      "മിൻ</w>"
    ],
    [
      "്",
      "വ"
    ],
    [
      "വി",
      "ശ്വാസ"
    ],
    [
      "മാന",
      "സ"
    ],
    [
      "അവാർ",
      "ഡ്</w>"
    ],
    [
      "തി",
      "നുശേഷം</w>"
    ],
    [
      "ഗ",
      "ാർ"
    ],
    [
      "കേന്ദ്ര",
      "ീകരിക്ക"
    ],
    [
      "കൊണ്ട",
      "ുവ"
    ],
    [
      "കര",
      "െ</w>"
    ],
    [
      "ബംഗ്ല",
      "ാ"
    ],
    [
      "പ",
      "രു"
    ],
    [
      "പര",
      "സ്യ"
    ],
    [
      "ൊ",
      "ന്ന്</w>"
    ],
    [
      "അട",
      "ി</w>"
    ],
    [
      "ൻസ",
      "ി</w>"
    ],
    [
      "ക്",
      "ലോ"
    ],
    [
      "ര",
      "ിയ</w>"
    ],
    [
      "കാലിഫോ",
      "ർണിയ"
    ],
    [
      "പോ",
      "ളി"
    ],
    [
      "മരു",
      "ന്ന്</w>"
    ],
    [
      "2",
      "3"
    ],
    [
      "മുനിസിപ്പാലിറ്റ",
      "ിയാണ്</w>"
    ],
    [
      "ഫ",
      "ു"
    ],
    [
      "വ്യക്തി",
      "ഗ"
    ],
    [
      "അംഗ",
      "ീ"
    ],
    [
      "സിക്ക",
      "ൽ</w>"
    ],
    [
      "ആർ",
      ".</w>"
    ],
    [
      "തമ്മ",
      "ിൽ</w>"
    ],
    [
      "ചിത്ര",
      "ത്തിന്</w>"
    ],
    [
      "ി",
      "രിക്ക"
    ],
    [
      "മ",
      "ണ്ഡ"
    ],
    [
      "വേഷ",
      "ം</w>"
    ],
    [
      "ക",
      "നായ</w>"
    ],
    [
      "കൗ",
      "ൺ"
    ],
    [
      "2",
      "8"
    ],
    [
      "യാ",
      "ൽ</w>"
    ],
    [
      "ാന",
      "ു"
    ],
    [
      "പ്ര",
      "യോഗ"
    ],
    [
      "അ",
      "ധി"
    ],
    [
      "ില",
      "ധികം</w>"
    ],
    [
      "കൈ",
      "വശ"
    ],
    [
      "സ്രോത",
      "സ്സ"
    ],
    [
      "20",
      "0</w>"
    ],
    [
      "വ",
      "ൽക്ക"
    ],
    [
      "വട",
      "ക്കു"
    ],
    [
      "ഫ",
      "േ"
    ],
    [
      "ചികിത്സ",
      "</w>"
    ],
    [
      "ഏഷ്യ",
      "ൻ</w>"
    ],
    [
      "പ്ര",
      "ക"
    ],
    [
      "ണ്ട",
      "ർ</w>"
    ],
    [
      "ച",
      "ാല"
    ],
    [
      "ലി",
      "ൻ്റെ</w>"
    ],
    [
      "നടന്ന",
      "ത്.</w>"
    ],
    [
      "രാജ",
      "ാക്ക"
    ],
    [
      "അട",
      "യ്ക്ക"
    ],
    [
      "ച്ച",
      "ിട്ടുണ്ട്.</w>"
    ],
    [
      "നീള",
      "മുള്ള</w>"
    ],
    [
      "േണ്ട",
      "</w>"
    ],
    [
      "6",
      "0</w>"
    ],
    [
      "യില",
      "െയും</w>"
    ],
    [
      "ഫ",
      "ി</w>"
    ],
    [
      "രി",
      ",</w>"
    ],
    [
      "മ",
      "ംഗ"
    ],
    [
      "മറ",
      "ിക"
    ],
    [
      "9",
      "ൽ</w>"
    ],
    [
      "5",
      "-"
    ],
    [
      "പാർ",
      "ല"
    ],
    [
      "കണക്കാക്ക",
      "പ്പെടുന്നു.</w>"
    ],
    [
      "ദിന",
      "ം</w>"
    ],
    [
      "ുള്ള",
      "തും</w>"
    ],
    [
      "മി",
      "ക്</w>"
    ],
    [
      "ാവ",
      "ുകയും</w>"
    ],
    [
      "ല",
      "ിവ"
    ],
    [
      "ലി",
      "ന്‍റെ</w>"
    ],
    [
      "മേഖ",
      "ലാ</w>"
    ],
    [
      "ണ",
      "ിക്ക"
    ],
    [
      "വിക്ക",
      "ി"
    ],
    [
      "സാധ",
      "നങ്ങൾ</w>"
    ],
    [
      "ആ",
      "റ"
    ],
    [
      "ുമ്പോ",
      "ഴ"
    ],
    [
      "ഗ",
      "െ"
    ],
    [
      "പ",
      "യോഗ"
    ],
    [
      "താഴ",
      "െ</w>"
    ],
    [
      "വേഗ",
      "ത്തിൽ</w>"
    ],
    [
      "ട്ര",
      "ി"
    ],
    [
      "നേ",
      "ഹ"
    ],
    [
      "മിനി",
      "റ്റ്</w>"
    ],
    [
      "വ",
      "ൻ"
    ],
    [
      "200",
      "9</w>"
    ],
    [
      "ൊ",
      "ഴ"
    ],
    [
      "ല",
      "ോ</w>"
    ],
    [
      "ർ",
      "ത്തി</w>"
    ],
    [
      "അ",
      "പ്പ"
    ],
    [
      "വീട്ട",
      "ിൽ</w>"
    ],
    [
      "ചെയ്യ",
      "പ്പെട്ടു.</w>"
    ],
    [
      "വ",
      "ുന്ന</w>"
    ],
    [
      "സമീപ",
      "ം</w>"
    ],
    [
      "ർ",
      "മാ"
    ],
    [
      "4",
      "-ൽ</w>"
    ],
    [
      "8",
      "-ൽ</w>"
    ],
    [
      "ആ",
      "സൂത്ര"
    ],
    [
      "കാലഘട്ട",
      "ത്തിൽ</w>"
    ],
    [
      "ചി",
      "ന്തി"
    ],
    [
      "പാട",
      "ുകൾ</w>"
    ],
    [
      "ം",
      ":</w>"
    ],
    [
      "രാജ",
      "ാവി"
    ],
    [
      "മക",
      "ൻ</w>"
    ],
    [
      "യ",
      "െ"
    ],
    [
      "ബംഗ്ലാ",
      "ദേശ"
    ],
    [
      "മിക്ക",
      "വാ"
    ],
    [
      "ഒഴി",
      "വാക്ക"
    ],
    [
      "ബ്ര",
      "ഹ്"
    ],
    [
      "മൂന്ന",
      "ാമത്തെ</w>"
    ],
    [
      "നി",
      "രാശ"
    ],
    [
      "ക",
      "ട്ട"
    ],
    [
      "വാ",
      "ർഷിക</w>"
    ],
    [
      "രാജ്യ",
      "ങ്ങളിൽ</w>"
    ],
    [
      "സെ",
      "ൽ"
    ],
    [
      "ഡിഗ്ര",
      "ി</w>"
    ],
    [
      "നട",
      "ന്നു.</w>"
    ],
    [
      "വിജ",
      "യം</w>"
    ],
    [
      "അവ",
      "നെ</w>"
    ],
    [
      "ചക്ര",
      "വർത്തി"
    ],
    [
      "പാര",
      "്‍"
    ],
    [
      "നേ",
      "ട്ട"
    ],
    [
      "പ്ര",
      "മുഖ"
    ],
    [
      "പ്രശസ്ത",
      "മായ</w>"
    ],
    [
      "രു",
      "മായി</w>"
    ],
    [
      "റ്റ",
      "ം</w>"
    ],
    [
      "മ",
      "കള"
    ],
    [
      "കോട",
      "തി"
    ],
    [
      "കൃ",
      "ത</w>"
    ],
    [
      "ചെയ്തി",
      "ട്ടുണ്ട്.</w>"
    ],
    [
      "ഹി",
      "മാല"
    ],
    [
      "വിട",
      "െയ"
    ],
    [
      "ച",
      "ാന"
    ],
    [
      "ഇൻ",
      "ഷുറ"
    ],
    [
      "ൈ",
      "റ്റി"
    ],
    [
      "റേ",
      "റ്റിംഗ്</w>"
    ],
    [
      "ലിഖ",
      "ിത"
    ],
    [
      "അ",
      "ഫ്"
    ],
    [
      "ശ്",
      "വാ"
    ],
    [
      "6",
      "-ൽ</w>"
    ],
    [
      "ര്‍",
      "ക്ക്</w>"
    ],
    [
      "ുന്ന",
      "ു</w>"
    ],
    [
      "1",
      "7</w>"
    ],
    [
      "ക്കെ",
      "തിരെ</w>"
    ],
    [
      "റ",
      "ോള"
    ],
    [
      "ുന്ന",
      "ില്ല.</w>"
    ],
    [
      "ത",
      "ുക</w>"
    ],
    [
      "മാറ്റി",
      ".</w>"
    ],
    [
      "ാണ",
      "്,</w>"
    ],
    [
      "തെ",
      "ലു"
    ],
    [
      "സംസ്ഥാന",
      "ത്തിന്‍റെ</w>"
    ],
    [
      "ബോ",
      "ട്ട"
    ],
    [
      "ച",
      "ൂട"
    ],
    [
      "സി",
      "ൻഡ്രോ"
    ],
    [
      "സാമ്രാ",
      "ജ്യം</w>"
    ],
    [
      "പേ",
      "ർ"
    ],
    [
      "പോല",
      "െ,</w>"
    ],
    [
      "തുടങ്ങ",
      "ിയ"
    ],
    [
      "ചിത്ര",
      "മായ</w>"
    ],
    [
      "കള",
      "ില്‍</w>"
    ],
    [
      "ന്ന",
      "െ</w>"
    ],
    [
      "രാജ",
      "ാ"
    ],
    [
      "പ",
      "ള്ള"
    ],
    [
      "വര",
      "ിയിൽ</w>"
    ],
    [
      "ചെയ്",
      "ത്</w>"
    ],
    [
      "മിക്കവാ",
      "റും</w>"
    ],
    [
      "ത്തി",
      "വ"
    ],
    [
      "ലക്ഷ",
      "ണങ്ങൾ</w>"
    ],
    [
      "ട്ര",
      "െയി"
    ],
    [
      "ഡ",
      "ിയ</w>"
    ],
    [
      "മോ",
      "ട്ടോ"
    ],
    [
      "മാണ",
      "്,</w>"
    ],
    [
      "ഉപ",
      "യോ"
    ],
    [
      "അ",
      "ൾ"
    ],
    [
      "ന",
      "ശി"
    ],
    [
      "ഇന്ത്യ",
      "ാ</w>"
    ],
    [
      "ായ",
      "്</w>"
    ],
    [
      "പരി",
      "പാല"
    ],
    [
      "പ്പി",
      "ൾ</w>"
    ],
    [
      "പ്രാ",
      "ധാന്യ"
    ],
    [
      "പ്പ",
      "ിച്ച</w>"
    ],
    [
      "മെച്ച",
      "പ്പെടുത്ത"
    ],
    [
      "ദ",
      "്രാ"
    ],
    [
      "ന്",
      "ന്"
    ],
    [
      "ഗാന",
      "ം</w>"
    ],
    [
      "ഹൃദ",
      "യ"
    ],
    [
      "തീർത്ഥ",
      "ാട"
    ],
    [
      "രണ്ട",
      "ു</w>"
    ],
    [
      "ം",
      "ഫ"
    ],
    [
      "ള്ള",
      "</w>"
    ],
    [
      "തു",
      "പോലെ</w>"
    ],
    [
      "നട",
      "ക്കുന്ന</w>"
    ],
    [
      "കൂടുതല",
      "ും</w>"
    ],
    [
      "ബ",
      "ിയ"
    ],
    [
      "സ്",
      "പാ"
    ],
    [
      "ഫ്ര",
      "ീ"
    ],
    [
      "ക്ക",
      "ിൽ</w>"
    ],
    [
      "വി",
      "ൻഡോ"
    ],
    [
      "മോശ",
      "ം</w>"
    ],
    [
      "ത്തിന",
      "ുള്ളിൽ</w>"
    ],
    [
      "ക്കാ",
      "രുടെ</w>"
    ],
    [
      "പ",
      "ങ്ക്</w>"
    ],
    [
      "നഗര",
      "ം</w>"
    ],
    [
      "വ",
      "ൻ</w>"
    ],
    [
      "നൽക",
      "ിയ</w>"
    ],
    [
      "മേഖല",
      "യിൽ</w>"
    ],
    [
      "ിക്ക",
      "പ്പെട്ട</w>"
    ],
    [
      "മ്പോ",
      "ഴ"
    ],
    [
      "ങ്ങള",
      "ുണ്ട"
    ],
    [
      "വാങ്ങ",
      "ാൻ</w>"
    ],
    [
      "ജ",
      "പ്പാ"
    ],
    [
      "കാ",
      "ർഡ"
    ],
    [
      "5",
      "-ൽ</w>"
    ],
    [
      "വി",
      ".</w>"
    ],
    [
      "ബോ",
      "ർഡ്</w>"
    ],
    [
      "ഉപയോഗ",
      "ിക്കാം.</w>"
    ],
    [
      "ജ",
      "ാല"
    ],
    [
      "റെ",
      "റ്റിന"
    ],
    [
      "മല്ല",
      ",</w>"
    ],
    [
      "ത്തി",
      "ൽനിന്ന്</w>"
    ],
    [
      "ജ",
      "</w>"
    ],
    [
      "ഇ",
      "</w>"
    ],
    [
      "റ്റ",
      "ു"
    ],
    [
      "പ്ര",
      "സ"
    ],
    [
      "യില",
      "ാണ്.</w>"
    ],
    [
      "2",
      ","
    ],
    [
      "0",
      ",000</w>"
    ],
    [
      "ീ",
      "യോ"
    ],
    [
      "ക്‌",
      "സ്</w>"
    ],
    [
      "ബ്ല",
      "ോ"
    ],
    [
      "കാരണ",
      "മായി.</w>"
    ],
    [
      "ൺ",
      "സ്</w>"
    ],
    [
      "പദ",
      "വി</w>"
    ],
    [
      "ൊ",
      "പ്പ"
    ],
    [
      "സ്വ",
      "യ"
    ],
    [
      "േണ്ട",
      "ിവ"
    ],
    [
      "വാ",
      "ള"
    ],
    [
      "പ്പ്",
      ",</w>"
    ],
    [
      "ആ",
      "യുധ"
    ],
    [
      "എക്",
      "സ്"
    ],
    [
      "സ",
      "ോള"
    ],
    [
      "പ്ര",
      "ക്രിയ"
    ],
    [
      "ക്ക",
      "ോ</w>"
    ],
    [
      "ിക്ക",
      "പ്പെടുന്നു.</w>"
    ],
    [
      "മേ",
      "ഘ"
    ],
    [
      "താപ",
      "നില</w>"
    ],
    [
      "വി",
      "ശാല"
    ],
    [
      "കൃ",
      "ത"
    ],
    [
      "സ്‌",
      "കൂ"
    ],
    [
      "ഗ്രൂ",
      "പ്പ"
    ],
    [
      "രൂപ",
      "ീകരിക്ക"
    ],
    [
      "മാര",
      "ും</w>"
    ],
    [
      "ക്ഷ",
      "മ"
    ],
    [
      "സ്റ്റ",
      "ിൽ</w>"
    ],
    [
      "പ്പെട",
      "ാൻ</w>"
    ],
    [
      "ക്ക",
      "ൊപ്പം</w>"
    ],
    [
      "ആതിഥ",
      "േയ"
    ],
    [
      "ികള",
      "ായ</w>"
    ],
    [
      "ത",
      "ത്"
    ],
    [
      "മാർ",
      "ക്ക്</w>"
    ],
    [
      "ബുദ്ധ",
      "മത"
    ],
    [
      "മ",
      "ുകള"
    ],
    [
      "9",
      "-ൽ</w>"
    ],
    [
      "റ",
      "ുകളും</w>"
    ],
    [
      "1",
      "."
    ],
    [
      "റ",
      "ായ</w>"
    ],
    [
      "ിയ",
      "ു"
    ],
    [
      "ത്ത",
      "െക്കുറിച്ചുള്ള</w>"
    ],
    [
      "റ",
      "ംഗ"
    ],
    [
      "സമാ",
      "ധാന"
    ],
    [
      "വ",
      "രാ"
    ],
    [
      "ാക്ക",
      "ാൻ</w>"
    ],
    [
      "രൂപ",
      "ം</w>"
    ],
    [
      "ഞ",
      "െ"
    ],
    [
      "ശ്ര",
      "ീ</w>"
    ],
    [
      "ഖ",
      "ാൻ</w>"
    ],
    [
      "നി",
      "യുടെ</w>"
    ],
    [
      "ഷ",
      "ൂ"
    ],
    [
      "സംയോ",
      "ജി"
    ],
    [
      "ർ",
      "മാർ</w>"
    ],
    [
      "സിക്ക",
      "ി"
    ],
    [
      "യു",
      ".എസ്.</w>"
    ],
    [
      "നൂറ്റാണ്ടി",
      "ന്‍റെ</w>"
    ],
    [
      "എ",
      "ന്‍"
    ],
    [
      "നി",
      "കുതി"
    ],
    [
      "വി",
      "പണ"
    ],
    [
      "അട",
      "ിയ"
    ],
    [
      "നാട്ട",
      "ിലെ</w>"
    ],
    [
      "ഭ",
      "ർത്ത"
    ],
    [
      "ട്ട",
      "ിക്ക"
    ],
    [
      "1",
      "ന്</w>"
    ],
    [
      "വർത്ത",
      "നം</w>"
    ],
    [
      "യി",
      "</w>"
    ],
    [
      "പഠ",
      "ന"
    ],
    [
      "റ",
      "ൊ"
    ],
    [
      "കോളേ",
      "ജ്</w>"
    ],
    [
      "കഠ",
      "ിന"
    ],
    [
      "ഉൽപ്പ",
      "ാദ"
    ],
    [
      "എ",
      "ട്ട"
    ],
    [
      "സൂചി",
      "പ്പിക്ക"
    ],
    [
      "്ല",
      "ാ"
    ],
    [
      "ദേശ",
      "ീയോ"
    ],
    [
      "മ",
      "ുകളില"
    ],
    [
      ".എ",
      ".</w>"
    ],
    [
      "ആവശ്യ",
      "മാണ്.</w>"
    ],
    [
      "ഭ",
      "ി"
    ],
    [
      "പ്ര",
      "ൈ"
    ],
    [
      "ോ",
      "ട്ട്</w>"
    ],
    [
      "ത",
      "ലാ"
    ],
    [
      "ിക്ക",
      "ുന്നതിനായി</w>"
    ],
    [
      "പുര",
      "ാണ"
    ],
    [
      "ങ്ങള",
      "ാൽ</w>"
    ],
    [
      "വായ്",
      "പ"
    ],
    [
      "ആ",
      "യോ"
    ],
    [
      "ഓ",
      "ട്ടോ"
    ],
    [
      "ബിസിന",
      "സ്സ്</w>"
    ],
    [
      "ഓഫീ",
      "സ്</w>"
    ],
    [
      "ആഘോഷ",
      "ിക്കുന്നു.</w>"
    ],
    [
      "ദേശീയോ",
      "ദ്യ"
    ],
    [
      "ജനപ്ര",
      "ിയ</w>"
    ],
    [
      "ഉപയോ",
      "ക്താ"
    ],
    [
      "സ്റ്റ",
      "്"
    ],
    [
      "വർ",
      "ഗ്ഗ"
    ],
    [
      "നിര",
      "ൂപ"
    ],
    [
      "കൾ",
      "ക്കും</w>"
    ],
    [
      "ഫോ",
      "ൺ</w>"
    ],
    [
      "ശി",
      "ഷ്ട"
    ],
    [
      "ുണ്ട",
      "ായ</w>"
    ],
    [
      "സ്വകാര്യ",
      "</w>"
    ],
    [
      "പദ്ധ",
      "തി</w>"
    ],
    [
      "വാ",
      "ർ"
    ],
    [
      "ദൈ",
      "ർഘ"
    ],
    [
      "കുട്ട",
      "ികള"
    ],
    [
      "പ്പെട്ട",
      "ത്.</w>"
    ],
    [
      "സ്‌",
      "</w>"
    ],
    [
      "ശി",
      "ശു"
    ],
    [
      "ക്ക",
      "ുക.</w>"
    ],
    [
      "അടങ്ങ",
      "ിയി"
    ],
    [
      "വാ",
      "ദി"
    ],
    [
      "ുന്ന",
      "തുവരെ</w>"
    ],
    [
      "പ്പ",
      "ി</w>"
    ],
    [
      "വെ",
      "റു"
    ],
    [
      "ുകള",
      "ുണ്ട്.</w>"
    ],
    [
      "ഇ",
      "തു</w>"
    ],
    [
      "വസ്തു",
      "ക്കൾ</w>"
    ],
    [
      "ചെയ്യ",
      "ാം.</w>"
    ],
    [
      "ഡ",
      "ൗ"
    ],
    [
      "മൈ",
      "ൽ)</w>"
    ],
    [
      "ലഭ",
      "ിച്ച"
    ],
    [
      "പൗ",
      "ര"
    ],
    [
      "അ",
      "ക്കാല"
    ],
    [
      "കര",
      "ും</w>"
    ],
    [
      "ഗ",
      "ായക"
    ],
    [
      "സ്വ",
      "ഭാവ"
    ],
    [
      "ർത്ഥ",
      "ം</w>"
    ],
    [
      "ക്കാര",
      "െ</w>"
    ],
    [
      "അ",
      "മി"
    ],
    [
      "അഭ്യ",
      "ർത്ഥ"
    ],
    [
      "പോക",
      "ാൻ</w>"
    ],
    [
      "സു",
      "ഗ"
    ],
    [
      "ശ",
      "ീ"
    ],
    [
      "1",
      "-ൽ</w>"
    ],
    [
      "സെ",
      "ന"
    ],
    [
      "ഓ",
      "സ്‌ട്രേലിയ"
    ],
    [
      "തെ",
      "ക്കു"
    ],
    [
      "മെഡ",
      "ിക്കൽ</w>"
    ],
    [
      "നി",
      "യിലെ</w>"
    ],
    [
      "തിരിച്ച",
      "ു"
    ],
    [
      "കോൺഗ്ര",
      "സ്</w>"
    ],
    [
      "തീരു",
      "മാന"
    ],
    [
      "ചിത്ര",
      "ത്തിലെ</w>"
    ],
    [
      "ഹ",
      "േ"
    ],
    [
      "ക",
      "ി</w>"
    ],
    [
      "മു",
      "മ്പ്,</w>"
    ],
    [
      "ുക",
      "േ"
    ],
    [
      "തോന്ന",
      "ുന്നു.</w>"
    ],
    [
      "ദൃ",
      "ശ്യ"
    ],
    [
      "വാ",
      "ർത്ത"
    ],
    [
      "ര",
      "്യം</w>"
    ],
    [
      "ഉണ്ട",
      "ായ"
    ],
    [
      "2",
      "7"
    ],
    [
      "അനു",
      "സരിച്ച്</w>"
    ],
    [
      "നില",
      "വിലെ</w>"
    ],
    [
      "മധു",
      "ര"
    ],
    [
      "വ",
      "ക"
    ],
    [
      "പാ",
      "ച"
    ],
    [
      "റ്റ",
      "ീവ്</w>"
    ],
    [
      "അത്",
      "‌</w>"
    ],
    [
      "6",
      "-"
    ],
    [
      "ക്ക",
      "ൾ"
    ],
    [
      "കണ്ടു",
      "മുട്ട"
    ],
    [
      "റ",
      "ുക"
    ],
    [
      "ബാ",
      "ദ"
    ],
    [
      "വ",
      "െ</w>"
    ],
    [
      "േണ്ട",
      "ി</w>"
    ],
    [
      "റ",
      "ിക്ക"
    ],
    [
      "നടത്ത",
      "ാൻ</w>"
    ],
    [
      "ആ",
      "ഴ"
    ],
    [
      "േഷ",
      "്</w>"
    ],
    [
      "പശ്ചാത്ത",
      "ല"
    ],
    [
      "ജോ",
      "ൺ</w>"
    ],
    [
      "രച",
      "ന"
    ],
    [
      "ടെ",
      ",</w>"
    ],
    [
      "സ്",
      "മാര"
    ],
    [
      "5",
      "00</w>"
    ],
    [
      "2",
      "9"
    ],
    [
      "ഡ",
      "ുകൾ</w>"
    ],
    [
      "എന്ന",
      "ാണ്.</w>"
    ],
    [
      "താ",
      "യും</w>"
    ],
    [
      "കൗ",
      "ണ്ട"
    ],
    [
      "ക്ഷ",
      "യ"
    ],
    [
      "റോ",
      "ഡ്</w>"
    ],
    [
      "സൈ",
      "ക്കി"
    ],
    [
      "തിര",
      "യ"
    ],
    [
      "ക്കി",
      "ംഗ്</w>"
    ],
    [
      "ര്‍",
      "ത്ത"
    ],
    [
      "ശ",
      "ാര"
    ],
    [
      "ന്",
      "ന്,</w>"
    ],
    [
      "നിയമ",
      "ം</w>"
    ],
    [
      "ദ",
      "ൂ"
    ],
    [
      "ഹൈദ",
      "രാ"
    ],
    [
      "ിക്ക",
      "ുമ്പോൾ</w>"
    ],
    [
      "വരു",
      "ത്ത"
    ],
    [
      "യി",
      "രുന്ന"
    ],
    [
      "ന",
      "ുള്ള</w>"
    ],
    [
      "വെ",
      "ച്ച"
    ],
    [
      "ചിത്ര",
      "ത്തിൻ്റെ</w>"
    ],
    [
      "ആരംഭ",
      "ിക്കുകയും</w>"
    ],
    [
      "ഇംഗ്ല",
      "ീഷ"
    ],
    [
      "ള",
      "ിൽ</w>"
    ],
    [
      "സുരക്ഷ",
      "ിത"
    ],
    [
      "റ്റി",
      "ന്‍റെ</w>"
    ],
    [
      "സ",
      "ിലി"
    ],
    [
      "ആ",
      "ം</w>"
    ],
    [
      "സംസ്ഥാന",
      "ം</w>"
    ],
    [
      "അണ",
      "ക്കെ"
    ],
    [
      "ള",
      "</w>"
    ],
    [
      "സ",
      "ജീവ"
    ],
    [
      "പ്രക",
      "ടി"
    ],
    [
      "മാ",
      "ക്കി.</w>"
    ],
    [
      "ത",
      "നിക്ക്</w>"
    ],
    [
      "ുവെ",
      "ങ്ക"
    ],
    [
      "ഒ",
      "പ്പ"
    ],
    [
      "വേഗ",
      "ം</w>"
    ],
    [
      "െ",
      "ത്തി.</w>"
    ],
    [
      "കമ്മ",
      "ീഷ"
    ],
    [
      "അസോസിയ",
      "േഷൻ</w>"
    ],
    [
      "െയ",
      "ാണ്.</w>"
    ],
    [
      "തുടങ്ങ",
      "ി</w>"
    ],
    [
      "ട്ട",
      "ിൽ</w>"
    ],
    [
      "ക്ര",
      "ിയ</w>"
    ],
    [
      "വള",
      "ർത്ത"
    ],
    [
      "പശ്ചി",
      "മ</w>"
    ],
    [
      "സ്",
      "ക്രീ"
    ],
    [
      "വാ",
      "ക്"
    ],
    [
      "കള",
      "ുടെയും</w>"
    ],
    [
      "ിന",
      "ു</w>"
    ],
    [
      "വി",
      "നിമ"
    ],
    [
      "രിക്ക",
      "ും</w>"
    ],
    [
      "വിവാ",
      "ഹിത"
    ],
    [
      "ഹിമാല",
      "യ"
    ],
    [
      "ഡ",
      "്.</w>"
    ],
    [
      "ത്തില",
      "ോ</w>"
    ],
    [
      "ന",
      "ര"
    ],
    [
      "ാ",
      "ർ</w>"
    ],
    [
      "നി",
      "കുതി</w>"
    ],
    [
      "ആ",
      "ധിപത്യ"
    ],
    [
      "ം",
      "വിധം</w>"
    ],
    [
      "അരങ്ങേറ്റ",
      "ം</w>"
    ],
    [
      "എ",
      "ക്‌"
    ],
    [
      "ന",
      "ോ</w>"
    ],
    [
      "യില",
      "്‍"
    ],
    [
      "ക്ക",
      "ൾക്ക്</w>"
    ],
    [
      "മാ",
      "ക്കുന്നു.</w>"
    ],
    [
      "ക്ക",
      "ുന്നത്</w>"
    ],
    [
      "ഒന്ന",
      "ിലധികം</w>"
    ],
    [
      "പരി",
      "ഹ"
    ],
    [
      "പോഷ",
      "ക"
    ],
    [
      "ഓ",
      "ർ"
    ],
    [
      ".എ",
      "ം"
    ],
    [
      "ഡബ്ല",
      "്യു"
    ],
    [
      "പ",
      "ഴക്ക"
    ],
    [
      "താഴ്",
      "വര"
    ],
    [
      "ഹോ",
      "മ"
    ],
    [
      "ന്ദ",
      "ി"
    ],
    [
      "പ്പി",
      "ന്</w>"
    ],
    [
      "1",
      "3</w>"
    ],
    [
      "ോ",
      "ടെ</w>"
    ],
    [
      "ാര",
      "ംഭ"
    ],
    [
      "പ്രേ",
      "രി"
    ],
    [
      "ൻ",
      "സാ"
    ],
    [
      "ഇംഗ്ലണ്ട",
      "ിലെ</w>"
    ],
    [
      "ച്ച",
      "ിൽ</w>"
    ],
    [
      "ഉപയോഗ",
      "ിക്കാൻ</w>"
    ],
    [
      "ഞ",
      "ങ്ങളുടെ</w>"
    ],
    [
      "8",
      "-"
    ],
    [
      "ഗ്രീ",
      "ക്ക്</w>"
    ],
    [
      "ുമ്പോ",
      "ള്‍</w>"
    ],
    [
      "സം",
      ",</w>"
    ],
    [
      "കോ",
      "ഡ്</w>"
    ],
    [
      "ചെയ്തി",
      "രുന്നു.</w>"
    ],
    [
      "ബ",
      "യോ"
    ],
    [
      "വര",
      "ുന്നു.</w>"
    ],
    [
      "ജോ",
      "ലി"
    ],
    [
      "രാജ",
      "്</w>"
    ],
    [
      "ആഗ്രഹ",
      "ിക്കുന്ന"
    ],
    [
      "നി",
      "മി"
    ],
    [
      "സമ്മ",
      "ർ"
    ],
    [
      "റ്റ",
      "ർ</w>"
    ],
    [
      "3",
      "-"
    ],
    [
      "ൊക്ക",
      "െ</w>"
    ],
    [
      "സ്റ്റേറ്റ",
      "്സ്</w>"
    ],
    [
      "ബ്ര",
      "ൂ"
    ],
    [
      "പൊ",
      "ട്ടി"
    ],
    [
      "വി",
      "ൽക്ക"
    ],
    [
      "യോ",
      "ജ്യ"
    ],
    [
      "ഒരുമ",
      "ിച്ച്</w>"
    ],
    [
      "െയ്",
      "ൻ</w>"
    ],
    [
      "ക",
      "റ"
    ],
    [
      "കൾ",
      ".</w>"
    ],
    [
      "ചെയ്ത",
      "ത്.</w>"
    ],
    [
      "പ",
      "ിയ"
    ],
    [
      "ശൈ",
      "ല"
    ],
    [
      "സ്ഥാപി",
      "ത"
    ],
    [
      "ക്ഷ",
      "ണ"
    ],
    [
      "ഔ",
      "റംഗ"
    ],
    [
      "ഫല",
      "മായി</w>"
    ],
    [
      "ക്രമേ",
      "ണ</w>"
    ],
    [
      "നേ",
      "രെ</w>"
    ],
    [
      "അഭിനയി",
      "ച്ചു.</w>"
    ],
    [
      "നി",
      ",</w>"
    ],
    [
      "വല",
      "ിയ"
    ],
    [
      "രൂപ",
      "</w>"
    ],
    [
      "ക്കി",
      "ന്‍റെ</w>"
    ],
    [
      "ക",
      "ം"
    ],
    [
      "ഉപയോഗ",
      "ിക്കുന്നത്.</w>"
    ],
    [
      "ഇ",
      "തുവരെ</w>"
    ],
    [
      "യു",
      "ന"
    ],
    [
      "മു",
      "ഹമ്മദ്</w>"
    ],
    [
      "കാലയള",
      "വിൽ</w>"
    ],
    [
      "ത്തിയ",
      "ത്.</w>"
    ],
    [
      "നിയന്ത്ര",
      "ണം</w>"
    ],
    [
      "ജന",
      "ങ്ങൾ</w>"
    ],
    [
      "പിൻ",
      "ഗാമ"
    ],
    [
      "സാങ്കേതിക",
      "വിദ്യ"
    ],
    [
      "തല",
      "</w>"
    ],
    [
      "സി",
      "ൽ"
    ],
    [
      "കഥ",
      "</w>"
    ],
    [
      "നേരി",
      "ട്ട്</w>"
    ],
    [
      "മ",
      "ില"
    ],
    [
      "ക",
      "റു"
    ],
    [
      "അനു",
      "യോജ്യ"
    ],
    [
      "വെള്ളപ്പ",
      "ൊക്ക"
    ],
    [
      "പ്രാഥ",
      "മിക</w>"
    ],
    [
      "ബന്ധ",
      "പ്പെട്ടിരിക്കുന്നു.</w>"
    ],
    [
      "നി",
      "ങ്ങള"
    ],
    [
      "മായ",
      "ോ</w>"
    ],
    [
      "നിർമ്മ",
      "ിച്ചത്.</w>"
    ],
    [
      "വി",
      "പു"
    ],
    [
      "ഹ",
      "്‌"
    ],
    [
      "ത്ത",
      "ോട്</w>"
    ],
    [
      "വി",
      "സമ്മതി"
    ],
    [
      "തു",
      "ല്യ"
    ],
    [
      "ക",
      "ഷ്ട"
    ],
    [
      "അ",
      "ത്.</w>"
    ],
    [
      "ഗ്രാമ",
      "ീ"
    ],
    [
      "െ",
      "പ്പോ"
    ],
    [
      "ഡെ",
      "മോ"
    ],
    [
      "ക",
      "ടു"
    ],
    [
      "വൃ",
      "ത്തി"
    ],
    [
      "ഗ",
      "ർ</w>"
    ],
    [
      "ചേർന്ന",
      "ാണ്</w>"
    ],
    [
      "ക്ക്‌",
      "</w>"
    ],
    [
      "പ്ര",
      "ാർത്ഥ"
    ],
    [
      "പേ",
      "രു"
    ],
    [
      "വില",
      "യി"
    ],
    [
      "ത",
      "ൈ"
    ],
    [
      "കേരള",
      "ത്തിലെ</w>"
    ],
    [
      "എ",
      "ഫ്.</w>"
    ],
    [
      "െടു",
      "ക്കാൻ</w>"
    ],
    [
      "പ്രദേശ",
      "ങ്ങൾ</w>"
    ],
    [
      "ത",
      "ള്ള"
    ],
    [
      "ച",
      "ാരണ"
    ],
    [
      "തുറ",
      "മുഖ"
    ],
    [
      "ുന്ന",
      "തായി</w>"
    ],
    [
      "ഭൂ",
      "മ"
    ],
    [
      "ടുത്ത",
      "ു.</w>"
    ],
    [
      "ുണ്ട",
      "്</w>"
    ],
    [
      "സമ",
      "തല"
    ],
    [
      "ഊ",
      "ർ"
    ],
    [
      "ഭാഗ",
      "ങ്ങൾ</w>"
    ],
    [
      "സഹായി",
      "ക്ക"
    ],
    [
      "പറയ",
      "ുകയും</w>"
    ],
    [
      "പ്രത്യേക",
      "ിച്ചും</w>"
    ],
    [
      "ബോ",
      "ക്സ്</w>"
    ],
    [
      "200",
      "6</w>"
    ],
    [
      "ചില",
      "ർ</w>"
    ],
    [
      "ചിത്ര",
      "ത്തിന്‍റെ</w>"
    ],
    [
      "അഭി",
      "മുഖ"
    ],
    [
      "വു",
      "ം,</w>"
    ],
    [
      "പ്പോഴ",
      "േക്കും</w>"
    ],
    [
      "ബ്രാ",
      "ഹ്"
    ],
    [
      "പാർട്ട",
      "ി</w>"
    ],
    [
      "ല്ല",
      "ു"
    ],
    [
      "വ്യാപ",
      "കമായി</w>"
    ],
    [
      "ന",
      "ർത്ത"
    ],
    [
      "അ",
      "രു"
    ],
    [
      "രിക്ക",
      "ുന്നത്</w>"
    ],
    [
      "പരിച",
      "യ"
    ],
    [
      "മാ",
      "ലി"
    ],
    [
      "ഴി",
      "ഞ്ഞ"
    ],
    [
      "നില",
      "്‍</w>"
    ],
    [
      "തിര",
      "ികെ</w>"
    ],
    [
      "ുകയാണ",
      "െങ്കിൽ</w>"
    ],
    [
      "ഒ",
      "ൻ"
    ],
    [
      "200",
      "0</w>"
    ],
    [
      "സ",
      "ന്യാ"
    ],
    [
      "അടിസ്ഥാനമാക്ക",
      "ിയുള്ള"
    ],
    [
      "രൂപകൽപ്പ",
      "ന</w>"
    ],
    [
      "ഭാഗ",
      "മായി</w>"
    ],
    [
      "സെ",
      "ന്‍റ"
    ],
    [
      "വിൽപ്പ",
      "ന"
    ],
    [
      "ആ",
      "ന്‍റി"
    ],
    [
      "അക്ക",
      "ൗണ്ട"
    ],
    [
      "ജനസംഖ്യ",
      "യുടെ</w>"
    ],
    [
      "പുറ",
      "ത്തു"
    ],
    [
      "ഉൾപ്പെട",
      "െയുള്ള</w>"
    ],
    [
      "ിക്കൊ",
      "ണ്ട"
    ],
    [
      "ി",
      "ംഗ്</w>"
    ],
    [
      "ചെയ്",
      "‌"
    ],
    [
      "അഭിന",
      "േതാ"
    ],
    [
      "പ",
      "ത്</w>"
    ],
    [
      "ഗ",
      "ഢ"
    ],
    [
      "കേ",
      "ൾ"
    ],
    [
      "അതി",
      "ല"
    ],
    [
      "മ്പോ",
      "ൾ,</w>"
    ],
    [
      "സമ",
      "ർപ്പ"
    ],
    [
      "ആ",
      "ഗോള"
    ],
    [
      "വട",
      "ക്ക്</w>"
    ],
    [
      "ഡ",
      "ോ</w>"
    ],
    [
      "കാ",
      "ർഡ്</w>"
    ],
    [
      "ശാര",
      "ീര"
    ],
    [
      "ക്",
      "റ്റ്</w>"
    ],
    [
      "ആയി",
      "ര"
    ],
    [
      "പി",
      "രി"
    ],
    [
      "ഞ",
      "ങ്ങൾ</w>"
    ],
    [
      "തിരക്ക",
      "ഥ"
    ],
    [
      "ഉ",
      "ദ്ദേശ"
    ],
    [
      "200",
      "5</w>"
    ],
    [
      "നു",
      "ശേഷം,</w>"
    ],
    [
      "ശേഷ",
      "മുള്ള</w>"
    ],
    [
      "എ",
      "ഡി"
    ],
    [
      "സമ",
      "ർ"
    ],
    [
      "കാ",
      "ത്തി"
    ],
    [
      "കര",
      "ിയ"
    ],
    [
      "ായിരിക്ക",
      "ും.</w>"
    ],
    [
      "സാധ",
      "ന"
    ],
    [
      "ശൃംഖ",
      "ല"
    ],
    [
      "തെ",
      "ക്ക്</w>"
    ],
    [
      "േണ്ടതു",
      "ണ്ട്.</w>"
    ],
    [
      "വ്യക്തിഗ",
      "ത</w>"
    ],
    [
      "നെ",
      "റ്റ്"
    ],
    [
      "എ",
      "ം.</w>"
    ],
    [
      "ുട",
      "െയോ</w>"
    ],
    [
      "സ്‌",
      "കോ"
    ],
    [
      "ക",
      "മ്മി"
    ],
    [
      "ഡ",
      "ൊ"
    ],
    [
      "ഇല്ലാ",
      "താ"
    ],
    [
      "നീണ്ട",
      "</w>"
    ],
    [
      "ഗ",
      "േ"
    ],
    [
      "പ്രകട",
      "നം</w>"
    ],
    [
      "0",
      "-ൽ</w>"
    ],
    [
      "എന്നിരുന്നാല",
      "ും</w>"
    ],
    [
      "എന്നിവ",
      "യും</w>"
    ],
    [
      "പുര",
      "സ്കാര"
    ],
    [
      "പർ",
      "വ്വ"
    ],
    [
      "സ്വ",
      "സ്ഥ"
    ],
    [
      "പ്രേ",
      "ക്ഷ"
    ],
    [
      "ുകള",
      "ുമായി</w>"
    ],
    [
      "ഇ",
      "ത്ര"
    ],
    [
      "ചാമ്പ്യൻഷി",
      "പ്പ്</w>"
    ],
    [
      "വേദ",
      "ന"
    ],
    [
      "പേ",
      "ജ"
    ],
    [
      "ൽ",
      "സ്</w>"
    ],
    [
      "ഓൺലൈ",
      "ൻ</w>"
    ],
    [
      "ബ",
      "ട്ട"
    ],
    [
      "ട്ട",
      "ീ"
    ],
    [
      "ബാക്ടീ",
      "രിയ"
    ],
    [
      "ായ",
      "ാണ്</w>"
    ],
    [
      "ള്‍",
      ",</w>"
    ],
    [
      "വിപു",
      "ലീ"
    ],
    [
      "ശ",
      "ില"
    ],
    [
      "പ്ര",
      "സ്താ"
    ],
    [
      "തലസ്ഥാന",
      "മായ</w>"
    ],
    [
      "ഡ",
      "ൻ</w>"
    ],
    [
      "ഗ",
      "ോ</w>"
    ],
    [
      "ക്കു",
      "മെന്ന്</w>"
    ],
    [
      "സംസ്ഥാന",
      "ത്ത്</w>"
    ],
    [
      "സ",
      "യ"
    ],
    [
      "ആല",
      "പ"
    ],
    [
      "അ",
      "ഗ്"
    ],
    [
      "പിന്നീ",
      "ട"
    ],
    [
      "റ്റി",
      "ൻ്റെ</w>"
    ],
    [
      "ള",
      "ാ"
    ],
    [
      "ദ്",
      "ദി"
    ],
    [
      "ിക്ക",
      "ും</w>"
    ],
    [
      "പതി",
      "പ്പ"
    ],
    [
      "ഫീൽ",
      "ഡ്</w>"
    ],
    [
      "മറിക",
      "ട"
    ],
    [
      "ഷ",
      "ീ"
    ],
    [
      "റി",
      "യി"
    ],
    [
      "ആ",
      "ന്ധ"
    ],
    [
      "ാന",
      "ാണ്</w>"
    ],
    [
      "നടത്ത",
      "ുന്നു.</w>"
    ],
    [
      "വടക്ക",
      "ുകിഴക്കൻ</w>"
    ],
    [
      "ങ്ക",
      "ോ"
    ],
    [
      "ഭാഗ",
      "ങ്ങളിൽ</w>"
    ],
    [
      "ർട",
      "്സ്</w>"
    ],
    [
      "രു",
      "ത്.</w>"
    ],
    [
      "ക",
      "മാ"
    ],
    [
      "ഭരണ",
      "കാലത്ത്</w>"
    ],
    [
      "ിയ",
      "ായിരുന്നു</w>"
    ],
    [
      "പിതാ",
      "വ്</w>"
    ],
    [
      "അവ",
      "ധ"
    ],
    [
      "നഗര",
      "ത്തിൽ</w>"
    ],
    [
      "ബ",
      "ാര"
    ],
    [
      "മു",
      "ന്‍"
    ],
    [
      "ിച്ച",
      "പ്പോൾ</w>"
    ],
    [
      "സിനിമ",
      "</w>"
    ],
    [
      "യ്ക്ക",
      "ുള്ള</w>"
    ],
    [
      "ന്മാ",
      "രെ</w>"
    ],
    [
      "മ്യൂ",
      "സിയ"
    ],
    [
      "ഗ്രൂ",
      "പ്പ്</w>"
    ],
    [
      "കു",
      "ഴ"
    ],
    [
      "നാ",
      "ൽ"
    ],
    [
      "സ്‌",
      "റ്റ"
    ],
    [
      "രീ",
      "തി</w>"
    ],
    [
      "വെബ്",
      "സൈറ്റ"
    ],
    [
      "കോ",
      "ർ"
    ],
    [
      "ംഗ",
      "്ട"
    ],
    [
      "തെ",
      "റാ"
    ],
    [
      "ഫ",
      "</w>"
    ],
    [
      "സ",
      "ൌ"
    ],
    [
      "ഉൾ",
      "പ്പെടുത്ത"
    ],
    [
      "തീരുമാനി",
      "ച്ചു.</w>"
    ],
    [
      "ബ",
      "ൂ"
    ],
    [
      "സ",
      "ൊ"
    ],
    [
      "ബോ",
      "ർഡ"
    ],
    [
      "സവിശേഷ",
      "ത"
    ],
    [
      "തു",
      "ള"
    ],
    [
      "വ",
      "ൃത്ത"
    ],
    [
      "സ",
      "ന്"
    ],
    [
      "ഉടമസ്ഥ",
      "ത"
    ],
    [
      "ര",
      "ണം</w>"
    ],
    [
      "ലി",
      "ന്</w>"
    ],
    [
      "2",
      "."
    ],
    [
      "കേ",
      "സ്</w>"
    ],
    [
      "പങ്ക",
      "ിട"
    ],
    [
      "ഗ്ര",
      "േ"
    ],
    [
      "മ",
      "ർ</w>"
    ],
    [
      "പ",
      "ച്ച"
    ],
    [
      "ബ",
      "ില്ല"
    ],
    [
      "നദീ",
      "തട"
    ],
    [
      "മാത്ര",
      "മല്ല,</w>"
    ],
    [
      "സേവനമനുഷ്ഠ",
      "ിച്ചു.</w>"
    ],
    [
      "ലി",
      "ൻ</w>"
    ],
    [
      "ഉപ",
      "ഭൂഖണ്ഡ"
    ],
    [
      "അടു",
      "ത്തി"
    ],
    [
      "ഗുരുതര",
      "മായ</w>"
    ],
    [
      "ശരിയ",
      "ായ</w>"
    ],
    [
      "വേ",
      "ൾഡ്</w>"
    ],
    [
      "2",
      "2</w>"
    ],
    [
      "യൂറോ",
      "പ്പ"
    ],
    [
      "നിർദ്ദേശ",
      "ം</w>"
    ],
    [
      "റ്റി",
      "ന്</w>"
    ],
    [
      "സ",
      "ോ</w>"
    ],
    [
      "ചെ",
      "സ്സ്</w>"
    ],
    [
      "പുന",
      "രു"
    ],
    [
      "ങ്ങളില",
      "ൂടെ</w>"
    ],
    [
      "രു",
      "വ"
    ],
    [
      "ഗണ്യ",
      "മായ</w>"
    ],
    [
      "അവ",
      "ർ.</w>"
    ],
    [
      "സിദ്ധ",
      "ാ"
    ],
    [
      "്",
      ":</w>"
    ],
    [
      "റ്റ",
      "്യൂ"
    ],
    [
      "ൂട",
      "െയോ</w>"
    ],
    [
      "ർ",
      "ക്കും</w>"
    ],
    [
      "ച്ചി",
      "രുന്നു.</w>"
    ],
    [
      "ഹ",
      "്റ"
    ],
    [
      "ഒരു",
      "പക്ഷേ</w>"
    ],
    [
      "ചെയ്",
      "തു"
    ],
    [
      "പാ",
      "ട്ട"
    ],
    [
      "ജന",
      "റൽ</w>"
    ],
    [
      "നി",
      "യാ"
    ],
    [
      "ത",
      "െങ്കിലും</w>"
    ],
    [
      "ക",
      "ല്ല"
    ],
    [
      "തുട",
      "ർന്നു.</w>"
    ],
    [
      "കള",
      "ി"
    ],
    [
      "വടക്ക",
      "േ</w>"
    ],
    [
      "നാല",
      "ാം</w>"
    ],
    [
      "സാധ്യ",
      "ത"
    ],
    [
      "അടുത്ത",
      "ുള്ള</w>"
    ],
    [
      "കു",
      "ള"
    ],
    [
      "ില",
      "ാണ്.</w>"
    ],
    [
      "കരാ",
      "ർ</w>"
    ],
    [
      "ബിസിന",
      "സ്</w>"
    ],
    [
      "ഗ്ര",
      "ി"
    ],
    [
      "പോ",
      "ർട്ട"
    ],
    [
      "പലി",
      "ശ</w>"
    ],
    [
      "യ്",
      "ക്കി"
    ],
    [
      "ത",
      "ാന"
    ],
    [
      "മാ",
      "വ"
    ],
    [
      "വിദഗ്",
      "ധ"
    ],
    [
      "പ്പെടു",
      "ത്തിയ</w>"
    ],
    [
      "ഒ",
      "ന്നും</w>"
    ],
    [
      "ുണ്ട",
      "ായി.</w>"
    ],
    [
      "താമ",
      "സിയ"
    ],
    [
      "ഡ്",
      "ജ"
    ],
    [
      "ആ",
      "ദി"
    ],
    [
      "ിക്ക",
      "ാല"
    ],
    [
      "നഗര",
      "ത്തിലെ</w>"
    ],
    [
      "സ",
      "ാല"
    ],
    [
      "ന",
      "മായ</w>"
    ],
    [
      "സാധ്യതയ",
      "ുണ്ട്.</w>"
    ],
    [
      "സൈ",
      "റ്റ്</w>"
    ],
    [
      "കാണ",
      "പ്പെടുന്ന</w>"
    ],
    [
      "മി",
      "റ്റ"
    ],
    [
      "ന",
      "ുകൾ</w>"
    ],
    [
      "ൺ",
      ".</w>"
    ],
    [
      "വിള",
      "ിക്കുന്ന</w>"
    ],
    [
      "മൊ",
      "ബൈ"
    ],
    [
      "കള",
      "െയും</w>"
    ],
    [
      "ക",
      "ത്തി"
    ],
    [
      "പതി",
      "വായി</w>"
    ],
    [
      "ച",
      "ർച്ച</w>"
    ],
    [
      "ഉ",
      "ന്ന"
    ],
    [
      "എന്നിവയു",
      "ൾപ്പെടെ</w>"
    ],
    [
      "കാല",
      "ത്തെ</w>"
    ],
    [
      "സ്",
      "ര"
    ],
    [
      "സൂ",
      "ച"
    ],
    [
      "ഏറ്റ",
      "ു"
    ],
    [
      "അവസാന",
      "ത്തെ</w>"
    ],
    [
      "ലോക",
      "മഹാ"
    ],
    [
      "സംരക്ഷ",
      "ണ"
    ],
    [
      "കർണാട",
      "ക"
    ],
    [
      "ആരംഭ",
      "ിച്ച</w>"
    ],
    [
      "സംഘ",
      "ം</w>"
    ],
    [
      "നിയ",
      "ൻ</w>"
    ],
    [
      "ന്യൂയോ",
      "ർക്ക്</w>"
    ],
    [
      "ബാധ",
      "ിച്ച</w>"
    ],
    [
      "മൊ",
      "ത്ത"
    ],
    [
      "മേ",
      "ൽ</w>"
    ],
    [
      "ശ്വാസ",
      "കോശ"
    ],
    [
      "ൽ",
      "പ"
    ],
    [
      "സ്",
      "വർണ്ണ"
    ],
    [
      "നാ",
      "ള"
    ],
    [
      "ചെല",
      "വ്</w>"
    ],
    [
      "ണ",
      "ൽ</w>"
    ],
    [
      "ുകൂ",
      "ല"
    ],
    [
      "പേർ",
      "ഷ്യ"
    ],
    [
      "േ",
      "റ"
    ],
    [
      "വിത",
      "രണ"
    ],
    [
      "പേ",
      "രി"
    ],
    [
      "റാവ",
      "ു</w>"
    ],
    [
      "നി",
      "വേശ"
    ],
    [
      "അ",
      "ച്ച"
    ],
    [
      "ദ്ദീ",
      "ൻ</w>"
    ],
    [
      "ഹോ",
      "ം</w>"
    ],
    [
      "ില്ല",
      "ാത്ത</w>"
    ],
    [
      "ചേ",
      "ര്‍"
    ],
    [
      "1",
      "ലെ</w>"
    ],
    [
      "ഹ",
      "രിയ"
    ],
    [
      "വി",
      "സ്"
    ],
    [
      "ാന",
      "ാ"
    ],
    [
      "മാ",
      "നു"
    ],
    [
      "ച",
      "ർച്ച"
    ],
    [
      "ക്കാര",
      "ും</w>"
    ],
    [
      "യൂണിവ",
      "േഴ്"
    ],
    [
      "ദേ",
      "ഷ്യ"
    ],
    [
      "അള",
      "വ്</w>"
    ],
    [
      "ക്രെ",
      "ഡിറ്റ്</w>"
    ],
    [
      "ക്രോ",
      "സ്</w>"
    ],
    [
      "മെഡ",
      "ൽ</w>"
    ],
    [
      "പ",
      "ത്ത്</w>"
    ],
    [
      "റി",
      "ംഗ്</w>"
    ],
    [
      "ണി",
      "ക്</w>"
    ],
    [
      "ര",
      "ജി"
    ],
    [
      "ഡെമോ",
      "ക്രാ"
    ],
    [
      "വിൻഡോ",
      "സ്</w>"
    ],
    [
      "സാമൂഹ",
      "ിക"
    ],
    [
      "ധ",
      "ാര"
    ],
    [
      "ദേ",
      "വ്</w>"
    ],
    [
      "പൊ",
      "ട്ട"
    ],
    [
      "അറ",
      "സ്റ്റ്</w>"
    ],
    [
      "സു",
      "മായി</w>"
    ],
    [
      "രാജ",
      "കു"
    ],
    [
      "റി",
      ".</w>"
    ],
    [
      "സൈന്യ",
      "ത്തെ</w>"
    ],
    [
      "പൊതു",
      "വെ</w>"
    ],
    [
      "ശ",
      "ത്"
    ],
    [
      "ഗു",
      "പ്ത"
    ],
    [
      "സി",
      "ങ്ങ"
    ],
    [
      "വ",
      "ില്‍</w>"
    ],
    [
      "രോഗ",
      "ബാധ"
    ],
    [
      "ഖ",
      "ു"
    ],
    [
      "ജ",
      "ിക്കൽ</w>"
    ],
    [
      "ിന",
      "ോട്</w>"
    ],
    [
      "പ്ര",
      "കാര"
    ],
    [
      "പ്പി",
      "ട"
    ],
    [
      "ശ",
      "യ"
    ],
    [
      "പ്പെടുത്തി",
      "യിട്ടുണ്ട്.</w>"
    ],
    [
      "അ",
      "ഭാവ"
    ],
    [
      "ഉത്തര",
      "വാദി"
    ],
    [
      "സമ്പ",
      "ദ്"
    ],
    [
      "ത്തില",
      "ാണ്.</w>"
    ],
    [
      "ന",
      "ാണ്.</w>"
    ],
    [
      "കഴി",
      "യില്ല.</w>"
    ],
    [
      "ചേ",
      "ർ"
    ],
    [
      "ോ",
      "യുടെ</w>"
    ],
    [
      "ുന്ന",
      "ു,</w>"
    ],
    [
      "ഡി",
      "പ്പ"
    ],
    [
      "മേ",
      "റ്റ"
    ],
    [
      "സ്‌",
      "ക"
    ],
    [
      "തി",
      "യുടെ</w>"
    ],
    [
      "പരിശീല",
      "നം</w>"
    ],
    [
      "ഭര",
      "ണം</w>"
    ],
    [
      "വര",
      "െയും</w>"
    ],
    [
      "ത",
      "ായിരുന്നു.</w>"
    ],
    [
      "പ്രവര്‍",
      "ത്ത"
    ],
    [
      "നില",
      "േക്ക്</w>"
    ],
    [
      "കെ",
      ".</w>"
    ],
    [
      "സെപ്റ്റ",
      "ംബ"
    ],
    [
      "ഡ്",
      "സ്</w>"
    ],
    [
      "സംഗീത",
      "ജ്ഞ"
    ],
    [
      "മ്",
      "മു"
    ],
    [
      "പീ",
      "ഠ"
    ],
    [
      "ഉപ",
      "ദേശ"
    ],
    [
      "യ്ക്ക",
      "ാൻ</w>"
    ],
    [
      "ഓര",
      "ോ"
    ],
    [
      "ു",
      ":</w>"
    ],
    [
      "ജാ",
      "പ്പ"
    ],
    [
      "ഇതി",
      "ന്‍റെ</w>"
    ],
    [
      "ട്ട",
      "ോ</w>"
    ],
    [
      "ഐ",
      "ഡ"
    ],
    [
      "പോള",
      "ോ</w>"
    ],
    [
      "സോഫ്റ്റ",
      "്‌"
    ],
    [
      "അ",
      "ലി</w>"
    ],
    [
      "അ",
      "ംബ"
    ],
    [
      "പണ്ഡി",
      "ത"
    ],
    [
      "7",
      "-"
    ],
    [
      "മ",
      "ട"
    ],
    [
      "ലഭ",
      "ിക്കുകയും</w>"
    ],
    [
      "ക",
      "ുകയും</w>"
    ],
    [
      "ബ",
      "്യൂ"
    ],
    [
      "2",
      "2"
    ],
    [
      "വി",
      "കാര"
    ],
    [
      "അ",
      "സ്വസ്ഥ"
    ],
    [
      "മാ",
      "ൻ"
    ],
    [
      "ക",
      "രി"
    ],
    [
      "ഗ",
      "</w>"
    ],
    [
      "രാവ",
      "ിലെ</w>"
    ],
    [
      "വി",
      "സ്ത"
    ],
    [
      "ക",
      "ബ"
    ],
    [
      "പടിഞ്ഞാറ",
      "്</w>"
    ],
    [
      "ദ",
      "യ"
    ],
    [
      "8",
      "0</w>"
    ],
    [
      "റ്റ",
      "്,</w>"
    ],
    [
      "പോ",
      "കു"
    ],
    [
      "ശ",
      "രിക്കും</w>"
    ],
    [
      "പ്രോഗ്ര",
      "ാമ"
    ],
    [
      "വൈദ്യു",
      "തി</w>"
    ],
    [
      "ങ്ങളില",
      "ാണ്</w>"
    ],
    [
      "പാട",
      "ും</w>"
    ],
    [
      "ഉത്ത",
      "രാ"
    ],
    [
      "ഇ",
      "നം</w>"
    ],
    [
      "നെ",
      "റ്റ്‌"
    ],
    [
      "ങ്ങ",
      "ിയ</w>"
    ],
    [
      "ുണ്ട",
      "ായിരുന്ന"
    ],
    [
      "ിക്ക",
      "പ്പെടുകയും</w>"
    ],
    [
      "മണിക്ക",
      "ൂർ</w>"
    ],
    [
      "എഴുത്ത",
      "ുകാര"
    ],
    [
      "വൈ",
      "ദ"
    ],
    [
      "താ",
      "ൽപ്പ"
    ],
    [
      "ബ",
      "ര്‍"
    ],
    [
      "ഫിലി",
      "ം</w>"
    ],
    [
      "പാ",
      "ർശ"
    ],
    [
      "ജ",
      "ിയുടെ</w>"
    ],
    [
      "ഡാ",
      "റ്റ</w>"
    ],
    [
      "ദൈർഘ",
      "്യ"
    ],
    [
      "വെ",
      "ൽ"
    ],
    [
      "ശസ്ത്ര",
      "ക്രിയ"
    ],
    [
      "ല്ലാ",
      "തെ</w>"
    ],
    [
      "നൽക",
      "ിയ"
    ],
    [
      "പറയ",
      "പ്പെടുന്നു.</w>"
    ],
    [
      "ഉപയോഗ",
      "ം</w>"
    ],
    [
      "നില",
      "ും</w>"
    ],
    [
      "റ",
      "ുകളിൽ</w>"
    ],
    [
      "ത",
      ",</w>"
    ],
    [
      "ില്ല",
      ",</w>"
    ],
    [
      "അത്",
      "ഭു"
    ],
    [
      "വാ",
      "ട്ട"
    ],
    [
      "അ",
      "തായ"
    ],
    [
      "ലാ",
      "ൻഡ"
    ],
    [
      "ഓ",
      "പ്"
    ],
    [
      "സംസ്ഥാന",
      "ത്തിൻ്റെ</w>"
    ],
    [
      "രോഗ",
      "നിർണ"
    ],
    [
      "ി",
      "ൻ</w>"
    ],
    [
      "യുന",
      "ൈറ്റഡ്</w>"
    ],
    [
      "നാര",
      "ായ"
    ],
    [
      "ന",
      "ായി.</w>"
    ],
    [
      "ാവ",
      "കാശ"
    ],
    [
      "റിയ",
      "ൻ</w>"
    ],
    [
      "പ്പ",
      "ട"
    ],
    [
      "ാവ",
      "്</w>"
    ],
    [
      "ശു",
      "പാർശ"
    ],
    [
      "ക്ര",
      "ട്ട"
    ],
    [
      "മ",
      "കൾ</w>"
    ],
    [
      "ളിവ",
      "ു"
    ],
    [
      "ലോ",
      "സ്</w>"
    ],
    [
      "ച",
      "നം</w>"
    ],
    [
      "ക",
      "സ്റ്റ"
    ],
    [
      "യഥാർത്ഥ",
      "ത്തിൽ</w>"
    ],
    [
      "സൂ",
      "പ്പർ"
    ],
    [
      "ഡി",
      "ൻ്റെ</w>"
    ],
    [
      "മില്ല",
      "ാത്ത</w>"
    ],
    [
      "ആയോ",
      "ധന"
    ],
    [
      "ചേ",
      "ർന്നു.</w>"
    ],
    [
      "നോർ",
      "ത്ത്</w>"
    ],
    [
      "ക്രിസ്",
      "ത്യ"
    ],
    [
      "ഫയ",
      "ൽ</w>"
    ],
    [
      "സ്വതന്ത്ര",
      "</w>"
    ],
    [
      "സ്",
      "പീ"
    ],
    [
      "ബർ",
      "ഗ"
    ],
    [
      "ര്‍",
      "ശ"
    ],
    [
      "ലി",
      "സ്റ്റ്</w>"
    ],
    [
      "വെ",
      "ങ്ക"
    ],
    [
      "മെ",
      "ന്റ്</w>"
    ],
    [
      "ദേ",
      "വി"
    ],
    [
      "തിരിക്ക",
      "ുകയും</w>"
    ],
    [
      "എ",
      "ടുത്ത"
    ],
    [
      "ആഭ്യ",
      "ന്തര</w>"
    ],
    [
      "രണ്ട",
      "ു"
    ],
    [
      "ാ",
      "ക്കി.</w>"
    ],
    [
      "4",
      "0"
    ],
    [
      "സുൽത്ത",
      "ാന"
    ],
    [
      "ഉൾ",
      "പ്പെടുന്ന</w>"
    ],
    [
      "ഇതി",
      "ൻ്റെ</w>"
    ],
    [
      "ഉത്തര",
      "േന്ത്യ"
    ],
    [
      "ൾ",
      "ട്ടി"
    ],
    [
      "കര",
      "ീ"
    ],
    [
      "ആ",
      "സ്"
    ],
    [
      "ജ",
      "െയി"
    ],
    [
      "മ",
      "തം</w>"
    ],
    [
      "വിലയി",
      "രുത്ത"
    ],
    [
      "ഫ",
      "റ"
    ],
    [
      "സ്റ്റി",
      "റ്റ്യൂ"
    ],
    [
      "എഞ്ച",
      "ിന"
    ],
    [
      "ഫ",
      "ിക്ക"
    ],
    [
      "കു",
      "ത്തിവ"
    ],
    [
      "റോ",
      "ക്ക്</w>"
    ],
    [
      "മാ",
      "</w>"
    ],
    [
      "ഉഷ്ണ",
      "മേഖലാ</w>"
    ],
    [
      "പാ",
      "ർക്ക"
    ],
    [
      "ഭാഷ",
      "</w>"
    ],
    [
      "യു",
      "."
    ],
    [
      "ഉത്",
      "ഭവി"
    ],
    [
      "മ",
      "സ്</w>"
    ],
    [
      "യി",
      "രിക്കുന്നത്.</w>"
    ],
    [
      "ഓർഡ",
      "ർ</w>"
    ],
    [
      "കട",
      "ം</w>"
    ],
    [
      "സഹായി",
      "ക്കുന്നു.</w>"
    ],
    [
      "ഡി",
      "ജി"
    ],
    [
      "തി",
      "നെ</w>"
    ],
    [
      "ിക്ക",
      "ുകയോ</w>"
    ],
    [
      "ഗ",
      "വാ"
    ],
    [
      "ല",
      "ം"
    ],
    [
      "റ",
      "ിലേക്ക്</w>"
    ],
    [
      "ത്ത",
      "െത്ത"
    ],
    [
      "ഭൂ",
      "മി</w>"
    ],
    [
      "ുന്ന",
      "ുണ്ട്.</w>"
    ],
    [
      "മായി",
      "രുന്ന</w>"
    ],
    [
      "സം",
      "ഭരണ"
    ],
    [
      "ബാ",
      "ദ്</w>"
    ],
    [
      "ുണ്ട",
      "ാക്ക"
    ],
    [
      "ബോ",
      "ളിവു"
    ],
    [
      "സാ",
      "ന്നി"
    ],
    [
      "ചി",
      "ഹ്"
    ],
    [
      "ിക",
      "ൂട"
    ],
    [
      "ുക",
      "ു"
    ],
    [
      "സ്",
      "നേഹ"
    ],
    [
      "ഘ",
      "ാ"
    ],
    [
      "വിശ്വസിക്ക",
      "പ്പെടുന്നു.</w>"
    ],
    [
      "18",
      "5"
    ],
    [
      "ില",
      "െയും</w>"
    ],
    [
      "ബാ",
      "ർ</w>"
    ],
    [
      "മൈ",
      "ൽ</w>"
    ],
    [
      "വള",
      "ർച്ച"
    ],
    [
      "ലോകമെമ്",
      "പാടു"
    ],
    [
      "ിക",
      "ോ"
    ],
    [
      "കള",
      "ിക്കുന്ന</w>"
    ],
    [
      "പ്ര",
      "െ"
    ],
    [
      "വില",
      "്‍"
    ],
    [
      "ചിത്ര",
      "ീകരിക്ക"
    ],
    [
      "വര്‍ഷ",
      "ം</w>"
    ],
    [
      "സ്വാധീ",
      "നി"
    ],
    [
      "ടി",
      "യിൽ</w>"
    ],
    [
      "ർച്ച",
      "ു"
    ],
    [
      "ബ",
      "ിൽ</w>"
    ],
    [
      "സ്ഥാപ",
      "ിക്കുകയും</w>"
    ],
    [
      "ചി",
      "ത"
    ],
    [
      "ദ്",
      "വാര"
    ],
    [
      "ിയ",
      "ുമായി</w>"
    ],
    [
      "പിന്ന",
      "െ</w>"
    ],
    [
      "ക്ല",
      "ബ്</w>"
    ],
    [
      "നിർമ്മ",
      "ിച്ചു.</w>"
    ],
    [
      "മി",
      "ശ്ര"
    ],
    [
      "അവ",
      "യിൽ</w>"
    ],
    [
      "പ്പെട്ട",
      "ിട്ട"
    ],
    [
      "ലൈ",
      "ൻ</w>"
    ],
    [
      "ആ",
      "ൻഡ"
    ],
    [
      "ദ",
      "മ്പ"
    ],
    [
      "എന്ത",
      "ാണ്</w>"
    ],
    [
      "സ്‌",
      "പോ"
    ],
    [
      "പ്രോ",
      "ട്ടീ"
    ],
    [
      "ന",
      "സ്</w>"
    ],
    [
      "താര",
      "ം</w>"
    ],
    [
      "°",
      "</w>"
    ],
    [
      "അംഗ",
      "ീകര"
    ],
    [
      "തുടങ്ങ",
      "ുകയും</w>"
    ],
    [
      "കൂട്ട",
      "ിച്ചേ"
    ],
    [
      "ിന",
      "െ"
    ],
    [
      "ർ",
      "-"
    ],
    [
      "നു",
      "മായ</w>"
    ],
    [
      "അലാ",
      "വു"
    ],
    [
      "റു",
      "മായി</w>"
    ],
    [
      "ക",
      "വി"
    ],
    [
      "ന്",
      "തി</w>"
    ],
    [
      "ധ",
      "ാരണ"
    ],
    [
      "അ",
      "ന്ന"
    ],
    [
      "അല്ല",
      "െങ്കില്‍</w>"
    ],
    [
      "ആവശ്യ",
      "മായ</w>"
    ],
    [
      "സ",
      "ിലും</w>"
    ],
    [
      "എം",
      "."
    ],
    [
      "തിയ",
      "േറ്റ"
    ],
    [
      "ആശയ",
      "വിനിമ"
    ],
    [
      "അക്കാദ",
      "മി</w>"
    ],
    [
      "നേടി",
      "യിട്ടുണ്ട്.</w>"
    ],
    [
      "അവ",
      "ലോക"
    ],
    [
      "അടിസ്ഥാനമാക്ക",
      "ിയുള്ള</w>"
    ],
    [
      "യില",
      "ോ</w>"
    ],
    [
      "ജാപ്പ",
      "നീസ്</w>"
    ],
    [
      "ല",
      "ുകളും</w>"
    ],
    [
      "ഡേ",
      "വി"
    ],
    [
      "ണ",
      "ുകൾ</w>"
    ],
    [
      "വ",
      "ന്യ"
    ],
    [
      "ച്ച",
      "ോ"
    ],
    [
      "ഇൻഷുറ",
      "ൻസ്</w>"
    ],
    [
      "നെ",
      "ത്ത"
    ],
    [
      "കര",
      "മായി</w>"
    ],
    [
      "സിനിമ",
      "കളിൽ</w>"
    ],
    [
      "സ്വാതന്ത്ര",
      "്യം</w>"
    ],
    [
      "ജ",
      "യില"
    ],
    [
      "ഡി",
      "സ്"
    ],
    [
      "ഫല",
      "ം</w>"
    ],
    [
      "ച",
      "ൗ"
    ],
    [
      "അശോ",
      "ക"
    ],
    [
      "കേന്ദ്ര",
      "</w>"
    ],
    [
      "ലഭ",
      "ിക്കുന്ന</w>"
    ],
    [
      "പോ",
      "ർച്ചു"
    ],
    [
      "വിശേഷ",
      "ിപ്പ"
    ],
    [
      "പരിപാട",
      "ി</w>"
    ],
    [
      "പോയി",
      "</w>"
    ],
    [
      "ജല",
      "സേ"
    ],
    [
      "ണ",
      "മെന്ന"
    ],
    [
      "ണി",
      "ൻ്റെ</w>"
    ],
    [
      "ട്ട",
      "്‌"
    ],
    [
      "അവ",
      "യെ</w>"
    ],
    [
      "ഐ",
      "തി"
    ],
    [
      "പാ",
      "ൽ</w>"
    ],
    [
      "പ്പ",
      "ും</w>"
    ],
    [
      "പുറ",
      "ത്ത്</w>"
    ],
    [
      "മ",
      "ിച്ച"
    ],
    [
      "ൌ",
      "ണ്ട"
    ],
    [
      "തല",
      "ത്തിൽ</w>"
    ],
    [
      "മെ",
      "ക്"
    ],
    [
      "കേ",
      "ണ്ട"
    ],
    [
      "എ",
      "പ്പി"
    ],
    [
      "കാലിഫോർണിയ",
      "യിലെ</w>"
    ],
    [
      "4",
      "-"
    ],
    [
      "മുസ്ലി",
      "ം</w>"
    ],
    [
      "ൻ",
      "-"
    ],
    [
      "ലക്ഷ",
      "്"
    ],
    [
      "ച്ച",
      "ിട്ട"
    ],
    [
      "സെ",
      "ക്രട്ട"
    ],
    [
      "എളുപ്പ",
      "ത്തിൽ</w>"
    ],
    [
      "തൊഴില",
      "ാള"
    ],
    [
      "ഭൂരിഭാഗ",
      "ം</w>"
    ],
    [
      "വികസിപ്പ",
      "ിച്ച"
    ],
    [
      "ല",
      "ങ്ക"
    ],
    [
      "ഓസ്ട്രേലിയ",
      "ൻ</w>"
    ],
    [
      "ചെലവ",
      "ുകൾ</w>"
    ],
    [
      "അക്ഷ",
      "ര"
    ],
    [
      "പ",
      "ാന"
    ],
    [
      "അ",
      "ഡ്"
    ],
    [
      "ചുറ്റ",
      "ും</w>"
    ],
    [
      "പ്",
      "യൂട്ട"
    ],
    [
      "സിദ്ധാ",
      "ന്ത"
    ],
    [
      "ഉപയോഗ",
      "ിച്ചിരുന്നു.</w>"
    ],
    [
      "ങ്",
      ",</w>"
    ],
    [
      "ലഭ",
      "ിക്കും.</w>"
    ],
    [
      "ഡി",
      "ന്‍റെ</w>"
    ],
    [
      "ദേശീയോദ്യ",
      "ാന"
    ],
    [
      "ബാൻഡ",
      "ി</w>"
    ],
    [
      "മായ",
      "ത്.</w>"
    ],
    [
      "ക്കൊ",
      "ണ്ട്</w>"
    ],
    [
      "യ്ക്കി",
      "ടെ</w>"
    ],
    [
      "മക",
      "നായ</w>"
    ],
    [
      "ചിത്ര",
      "ങ്ങളിൽ</w>"
    ],
    [
      "ചേ",
      "ര"
    ],
    [
      "സി",
      "നി"
    ],
    [
      "ക്ലാ",
      "സിക്കൽ</w>"
    ],
    [
      "േ",
      "ര"
    ],
    [
      "റ",
      "ില്‍</w>"
    ],
    [
      "തി",
      "നാൽ,</w>"
    ],
    [
      "ഡൽഹി",
      "യിലെ</w>"
    ],
    [
      "ശ",
      "ക്തി</w>"
    ],
    [
      "ാമ",
      "ത്</w>"
    ],
    [
      "തീയ",
      "തി"
    ],
    [
      "വിശദ",
      "ീകരിക്ക"
    ],
    [
      "പ്രണ",
      "യ"
    ]
  ],
  "merge_stats": [
    {
      "step": 1,
      "pair": "ന്",
      "pair_chars": [
        "ന",
        "്"
      ],
      "frequency": 207884
    },
    {
      "step": 2,
      "pair": "ക്",
      "pair_chars": [
        "ക",
        "്"
      ],
      "frequency": 198748
    },
    {
      "step": 3,
      "pair": "ത്",
      "pair_chars": [
        "ത",
        "്"
      ],
      "frequency": 162234
    },
    {
      "step": 4,
      "pair": "ം</w>",
      "pair_chars": [
        "ം",
        "</w>"
      ],
      "frequency": 141700
    },
    {
      "step": 5,
      "pair": "ക്ക",
      "pair_chars": [
        "ക്",
        "ക"
      ],
      "frequency": 114120
    },
    {
      "step": 6,
      "pair": "െ</w>",
      "pair_chars": [
        "െ",
        "</w>"
      ],
      "frequency": 106653
    },
    {
      "step": 7,
      "pair": "ന്ന",
      "pair_chars": [
        "ന്",
        "ന"
      ],
      "frequency": 106198
    },
    {
      "step": 8,
      "pair": ".</w>",
      "pair_chars": [
        ".",
        "</w>"
      ],
      "frequency": 102822
    },
    {
      "step": 9,
      "pair": "പ്",
      "pair_chars": [
        "പ",
        "്"
      ],
      "frequency": 94545
    },
    {
      "step": 10,
      "pair": "തി",
      "pair_chars": [
        "ത",
        "ി"
      ],
      "frequency": 89421
    },
    {
      "step": 11,
      "pair": "്</w>",
      "pair_chars": [
        "്",
        "</w>"
      ],
      "frequency": 89357
    },
    {
      "step": 12,
      "pair": "്ട",
      "pair_chars": [
        "്",
        "ട"
      ],
      "frequency": 81247
    },
    {
      "step": 13,
      "pair": "ും</w>",
      "pair_chars": [
        "ു",
        "ം</w>"
      ],
      "frequency": 76904
    },
    {
      "step": 14,
      "pair": "യി",
      "pair_chars": [
        "യ",
        "ി"
      ],
      "frequency": 74443
    },
    {
      "step": 15,
      "pair": "്റ",
      "pair_chars": [
        "്",
        "റ"
      ],
      "frequency": 74395
    },
    {
      "step": 16,
      "pair": "ുന്ന",
      "pair_chars": [
        "ു",
        "ന്ന"
      ],
      "frequency": 65535
    },
    {
      "step": 17,
      "pair": "മാ",
      "pair_chars": [
        "മ",
        "ാ"
      ],
      "frequency": 64745
    },
    {
      "step": 18,
      "pair": "ങ്",
      "pair_chars": [
        "ങ",
        "്"
      ],
      "frequency": 63840
    },
    {
      "step": 19,
      "pair": "ൽ</w>",
      "pair_chars": [
        "ൽ",
        "</w>"
      ],
      "frequency": 63384
    },
    {
      "step": 20,
      "pair": "നി",
      "pair_chars": [
        "ന",
        "ി"
      ],
      "frequency": 53678
    },
    {
      "step": 21,
      "pair": "്യ",
      "pair_chars": [
        "്",
        "യ"
      ],
      "frequency": 52320
    },
    {
      "step": 22,
      "pair": "ുക",
      "pair_chars": [
        "ു",
        "ക"
      ],
      "frequency": 50294
    },
    {
      "step": 23,
      "pair": "ങ്ങ",
      "pair_chars": [
        "ങ്",
        "ങ"
      ],
      "frequency": 49846
    },
    {
      "step": 24,
      "pair": "്ച",
      "pair_chars": [
        "്",
        "ച"
      ],
      "frequency": 49591
    },
    {
      "step": 25,
      "pair": "പ്പ",
      "pair_chars": [
        "പ്",
        "പ"
      ],
      "frequency": 48934
    },
    {
      "step": 26,
      "pair": "ിക്ക",
      "pair_chars": [
        "ി",
        "ക്ക"
      ],
      "frequency": 48660
    },
    {
      "step": 27,
      "pair": "സ്",
      "pair_chars": [
        "സ",
        "്"
      ],
      "frequency": 46819
    },
    {
      "step": 28,
      "pair": "ത്തി",
      "pair_chars": [
        "ത്",
        "തി"
      ],
      "frequency": 46220
    },
    {
      "step": 29,
      "pair": "ില",
      "pair_chars": [
        "ി",
        "ല"
      ],
      "frequency": 43200
    },
    {
      "step": 30,
      "pair": "ച്ച",
      "pair_chars": [
        "ച",
        "്ച"
      ],
      "frequency": 42482
    },
    {
      "step": 31,
      "pair": ",</w>",
      "pair_chars": [
        ",",
        "</w>"
      ],
      "frequency": 40640
    },
    {
      "step": 32,
      "pair": "ു.</w>",
      "pair_chars": [
        "ു",
        ".</w>"
      ],
      "frequency": 40152
    },
    {
      "step": 33,
      "pair": "ട്ട",
      "pair_chars": [
        "ട",
        "്ട"
      ],
      "frequency": 39474
    },
    {
      "step": 34,
      "pair": "ത്ത",
      "pair_chars": [
        "ത്",
        "ത"
      ],
      "frequency": 39160
    },
    {
      "step": 35,
      "pair": "രു",
      "pair_chars": [
        "ര",
        "ു"
      ],
      "frequency": 38771
    },
    {
      "step": 36,
      "pair": "വി",
      "pair_chars": [
        "വ",
        "ി"
      ],
      "frequency": 38493
    },
    {
      "step": 37,
      "pair": "റ്റ",
      "pair_chars": [
        "റ",
        "്റ"
      ],
      "frequency": 37690
    },
    {
      "step": 38,
      "pair": "ിയ",
      "pair_chars": [
        "ി",
        "യ"
      ],
      "frequency": 36863
    },
    {
      "step": 39,
      "pair": "ണ്ട",
      "pair_chars": [
        "ണ",
        "്ട"
      ],
      "frequency": 35463
    },
    {
      "step": 40,
      "pair": "ൾ</w>",
      "pair_chars": [
        "ൾ",
        "</w>"
      ],
      "frequency": 33909
    },
    {
      "step": 41,
      "pair": "ള്",
      "pair_chars": [
        "ള",
        "്"
      ],
      "frequency": 33338
    },
    {
      "step": 42,
      "pair": "പ്ര",
      "pair_chars": [
        "പ്",
        "ര"
      ],
      "frequency": 32583
    },
    {
      "step": 43,
      "pair": "െയ",
      "pair_chars": [
        "െ",
        "യ"
      ],
      "frequency": 31610
    },
    {
      "step": 44,
      "pair": "ൻ</w>",
      "pair_chars": [
        "ൻ",
        "</w>"
      ],
      "frequency": 30720
    },
    {
      "step": 45,
      "pair": "ന്</w>",
      "pair_chars": [
        "ന്",
        "</w>"
      ],
      "frequency": 28771
    },
    {
      "step": 46,
      "pair": "ുട",
      "pair_chars": [
        "ു",
        "ട"
      ],
      "frequency": 28409
    },
    {
      "step": 47,
      "pair": "്ര",
      "pair_chars": [
        "്",
        "ര"
      ],
      "frequency": 27970
    },
    {
      "step": 48,
      "pair": "ിച്ച",
      "pair_chars": [
        "ി",
        "ച്ച"
      ],
      "frequency": 26960
    },
    {
      "step": 49,
      "pair": "ള്ള",
      "pair_chars": [
        "ള്",
        "ള"
      ],
      "frequency": 26671
    },
    {
      "step": 50,
      "pair": "ി</w>",
      "pair_chars": [
        "ി",
        "</w>"
      ],
      "frequency": 25833
    },
    {
      "step": 51,
      "pair": "ാണ",
      "pair_chars": [
        "ാ",
        "ണ"
      ],
      "frequency": 25733
    },
    {
      "step": 52,
      "pair": "ാര",
      "pair_chars": [
        "ാ",
        "ര"
      ],
      "frequency": 24967
    },
    {
      "step": 53,
      "pair": "രു</w>",
      "pair_chars": [
        "രു",
        "</w>"
      ],
      "frequency": 23996
    },
    {
      "step": 54,
      "pair": "ക്</w>",
      "pair_chars": [
        "ക്",
        "</w>"
      ],
      "frequency": 23849
    },
    {
[...]
