{
  "vocab_size": 5000,
  "num_merges": 5000,
  "actual_merges": 5000,
  "min_frequency": 2,
  "merges": [
    [
      "्",
      "य"
    ],
    [
      "ा",
      "</w>"
    ],
    [
      "े",
      "</w>"
    ],
    [
      "ी",
      "</w>"
    ],
    [
      ".",
      "</w>"
    ],
    [
      "्य",
      "ा"
    ],
    [
      "्",
      "र"
    ],
    [
      "्य",
      "ा</w>"
    ],
    [
      "त",
      "</w>"
    ],
    [
      "ा",
      "र"
    ],
    [
      "न",
      "</w>"
    ],
    [
      "ा",
      "ं"
    ],
    [
      "र",
      "्"
    ],
    [
      "च",
      "्या</w>"
    ],
    [
      "क",
      "</w>"
    ],
    [
      "े",
      ".</w>"
    ],
    [
      ",",
      "</w>"
    ],
    [
      "स",
      "्"
    ],
    [
      "र",
      "</w>"
    ],
    [
      "े",
      "ल"
    ],
    [
      "आ",
      "ण"
    ],
    [
      "ल",
      "</w>"
    ],
    [
      "ि",
      "</w>"
    ],
    [
      "आण",
      "ि</w>"
    ],
    [
      "ा",
      "त"
    ],
    [
      "ा",
      "ल"
    ],
    [
      "आ",
      "ह"
    ],
    [
      "प",
      "्र"
    ],
    [
      "स",
      "ा"
    ],
    [
      "व",
      "ा"
    ],
    [
      "म",
      "ध"
    ],
    [
      "क",
      "्"
    ],
    [
      "त",
      "्या"
    ],
    [
      "्",
      "ह"
    ],
    [
      "क",
      "र"
    ],
    [
      "क",
      "ा"
    ],
    [
      "व",
      "ि"
    ],
    [
      "र",
      "ा"
    ],
    [
      "ह",
      "ो"
    ],
    [
      "ी",
      "ल</w>"
    ],
    [
      "म",
      "ा"
    ],
    [
      "मध",
      "्य"
    ],
    [
      "च",
      "ा</w>"
    ],
    [
      "च",
      "े</w>"
    ],
    [
      "ू",
      "न</w>"
    ],
    [
      "ण",
      "्या"
    ],
    [
      "अ",
      "स"
    ],
    [
      "ल",
      "ा</w>"
    ],
    [
      "न",
      "े</w>"
    ],
    [
      "मध्य",
      "े</w>"
    ],
    [
      "च",
      "ी</w>"
    ],
    [
      "न",
      "ा"
    ],
    [
      "न",
      "ि"
    ],
    [
      "स",
      "ं"
    ],
    [
      "आह",
      "े.</w>"
    ],
    [
      "हो",
      "त"
    ],
    [
      "क",
      "ेल"
    ],
    [
      "प",
      "ा"
    ],
    [
      "े",
      "त"
    ],
    [
      "स",
      "</w>"
    ],
    [
      "ल",
      "ा"
    ],
    [
      "त",
      "्"
    ],
    [
      "म",
      "ु"
    ],
    [
      "ह",
      "ी</w>"
    ],
    [
      "प",
      "र"
    ],
    [
      "ि",
      "ं"
    ],
    [
      "क",
      "ार"
    ],
    [
      "ण",
      "</w>"
    ],
    [
      "सा",
      "ठ"
    ],
    [
      "क्",
      "ष"
    ],
    [
      "ं",
      "त"
    ],
    [
      "न",
      "ा</w>"
    ],
    [
      "य",
      "ा"
    ],
    [
      "ी",
      ".</w>"
    ],
    [
      "ू",
      "</w>"
    ],
    [
      "ट",
      "</w>"
    ],
    [
      "य",
      "</w>"
    ],
    [
      "ि",
      "ल"
    ],
    [
      "य",
      "ा</w>"
    ],
    [
      "साठ",
      "ी</w>"
    ],
    [
      "म",
      "्ह"
    ],
    [
      "म",
      "</w>"
    ],
    [
      "त",
      "ि"
    ],
    [
      "ज",
      "ा"
    ],
    [
      "न",
      "ी</w>"
    ],
    [
      "द",
      "े"
    ],
    [
      "त",
      "ा"
    ],
    [
      "त",
      "ी"
    ],
    [
      "म",
      "ि"
    ],
    [
      "त",
      "्र"
    ],
    [
      "त",
      "ो"
    ],
    [
      "ह",
      "े</w>"
    ],
    [
      "व",
      "र</w>"
    ],
    [
      "झ",
      "ाल"
    ],
    [
      "त",
      "े</w>"
    ],
    [
      "व",
      "्ह"
    ],
    [
      "द",
      "्"
    ],
    [
      "त्या",
      "ं"
    ],
    [
      "ए",
      "क</w>"
    ],
    [
      "व",
      "े"
    ],
    [
      "न",
      "े"
    ],
    [
      "भ",
      "ा"
    ],
    [
      "ार",
      "</w>"
    ],
    [
      "ि",
      "त</w>"
    ],
    [
      "ष",
      "्"
    ],
    [
      "२",
      "०"
    ],
    [
      "र",
      "ो"
    ],
    [
      "च",
      "</w>"
    ],
    [
      "ल",
      "े</w>"
    ],
    [
      "े",
      ",</w>"
    ],
    [
      "्य",
      "</w>"
    ],
    [
      "त",
      "ी</w>"
    ],
    [
      "स",
      "ु"
    ],
    [
      "त",
      "ु"
    ],
    [
      "व",
      "</w>"
    ],
    [
      "ि",
      "क</w>"
    ],
    [
      "ग",
      "ा"
    ],
    [
      "ि",
      "क"
    ],
    [
      "त",
      "ात"
    ],
    [
      "ग",
      "</w>"
    ],
    [
      "ल",
      "ेल"
    ],
    [
      "ह",
      "ा</w>"
    ],
    [
      "ं",
      "द"
    ],
    [
      "ार",
      "्"
    ],
    [
      "न",
      "्"
    ],
    [
      "स्",
      "थ"
    ],
    [
      "प",
      "ु"
    ],
    [
      "१",
      "९"
    ],
    [
      "ा",
      ".</w>"
    ],
    [
      "व",
      "ा</w>"
    ],
    [
      "ल",
      "ो"
    ],
    [
      "क",
      "्र"
    ],
    [
      "य",
      "ां"
    ],
    [
      "ह",
      "ा"
    ],
    [
      "ण",
      "ा"
    ],
    [
      "म्ह",
      "ण"
    ],
    [
      "ड",
      "</w>"
    ],
    [
      "कर",
      "ण्या"
    ],
    [
      "स",
      "र्"
    ],
    [
      "क",
      "ो"
    ],
    [
      "्या",
      "ं"
    ],
    [
      "रा",
      "ज"
    ],
    [
      "प",
      "ू"
    ],
    [
      "ज",
      "ात"
    ],
    [
      "च",
      "ि"
    ],
    [
      "श",
      "क"
    ],
    [
      "ळ",
      "</w>"
    ],
    [
      "म",
      "े"
    ],
    [
      "ब",
      "ा"
    ],
    [
      "व",
      "र्"
    ],
    [
      "क",
      "ी</w>"
    ],
    [
      "ह",
      "ि"
    ],
    [
      "ल",
      "्"
    ],
    [
      "द",
      "ा"
    ],
    [
      "श",
      "ा"
    ],
    [
      "स्",
      "ट"
    ],
    [
      "म",
      "ो"
    ],
    [
      "श",
      "ि"
    ],
    [
      "ळ",
      "े</w>"
    ],
    [
      "तात",
      ".</w>"
    ],
    [
      "ण",
      "े</w>"
    ],
    [
      "ी",
      ",</w>"
    ],
    [
      "द",
      "ि"
    ],
    [
      "ख",
      "े"
    ],
    [
      "क",
      "िं"
    ],
    [
      "श",
      "</w>"
    ],
    [
      "र",
      "ु"
    ],
    [
      "त",
      "र</w>"
    ],
    [
      "य",
      "े"
    ],
    [
      "आह",
      "ेत"
    ],
    [
      "ं",
      "ड"
    ],
    [
      "त",
      "े.</w>"
    ],
    [
      "तो",
      "</w>"
    ],
    [
      "क",
      "ां"
    ],
    [
      "ल",
      "ी</w>"
    ],
    [
      "०",
      "</w>"
    ],
    [
      "होत",
      "े.</w>"
    ],
    [
      "ाल",
      "ा</w>"
    ],
    [
      "क",
      "ड"
    ],
    [
      "त",
      "ा</w>"
    ],
    [
      "द्",
      "ध"
    ],
    [
      "श",
      "ी</w>"
    ],
    [
      "त",
      "े"
    ],
    [
      "न",
      "ंत"
    ],
    [
      "ए",
      "क"
    ],
    [
      "ल",
      "ि"
    ],
    [
      "क",
      "े"
    ],
    [
      "व",
      "र"
    ],
    [
      "ं",
      "ग"
    ],
    [
      "ा",
      "त</w>"
    ],
    [
      "मु",
      "ळे</w>"
    ],
    [
      "किं",
      "वा</w>"
    ],
    [
      "मध",
      "ील</w>"
    ],
    [
      "ात",
      "ील</w>"
    ],
    [
      "ल",
      "्या"
    ],
    [
      "आहेत",
      ".</w>"
    ],
    [
      "ष्",
      "ट"
    ],
    [
      "ज",
      "ी</w>"
    ],
    [
      "य",
      "ु"
    ],
    [
      "पू",
      "र्"
    ],
    [
      "म",
      "ी</w>"
    ],
    [
      "स",
      "े"
    ],
    [
      "्र",
      "ा"
    ],
    [
      "भ",
      "ार"
    ],
    [
      "र",
      "े"
    ],
    [
      "र",
      "ी</w>"
    ],
    [
      "र",
      "ि"
    ],
    [
      "द",
      "ु"
    ],
    [
      "मा",
      "न"
    ],
    [
      "ल",
      "े"
    ],
    [
      "ल",
      "े.</w>"
    ],
    [
      "चि",
      "त्र"
    ],
    [
      "ी",
      "य</w>"
    ],
    [
      "स",
      "ि"
    ],
    [
      "खे",
      "ळ"
    ],
    [
      "ग",
      "ो"
    ],
    [
      "व",
      "ार"
    ],
    [
      "श",
      "्"
    ],
    [
      "प",
      "े"
    ],
    [
      "द",
      "</w>"
    ],
    [
      "ग",
      "ेल"
    ],
    [
      "ट",
      "ा"
    ],
    [
      "म्हण",
      "ून</w>"
    ],
    [
      "ह",
      "िल"
    ],
    [
      "ी",
      "च्या</w>"
    ],
    [
      "पा",
      "स"
    ],
    [
      "स्थ",
      "ा"
    ],
    [
      "स्",
      "व"
    ],
    [
      "लेल",
      "्या</w>"
    ],
    [
      "प",
      "्"
    ],
    [
      "य",
      "ो"
    ],
    [
      "ज",
      "</w>"
    ],
    [
      "स",
      "ह"
    ],
    [
      "उ",
      "त्"
    ],
    [
      "ग",
      "ु"
    ],
    [
      "नंत",
      "र</w>"
    ],
    [
      "क",
      "ु"
    ],
    [
      "अ",
      "ध"
    ],
    [
      "क",
      "ि"
    ],
    [
      "थ",
      "े</w>"
    ],
    [
      "२०",
      "१"
    ],
    [
      "ला",
      ".</w>"
    ],
    [
      "आह",
      "े</w>"
    ],
    [
      "ज",
      "े"
    ],
    [
      "ं",
      "ब"
    ],
    [
      "तु",
      "म्ह"
    ],
    [
      "स",
      "ो"
    ],
    [
      "ण",
      "ार"
    ],
    [
      "पर",
      "्य"
    ],
    [
      "स्",
      "प"
    ],
    [
      "तो",
      ".</w>"
    ],
    [
      "र",
      "ी"
    ],
    [
      "वा",
      "त</w>"
    ],
    [
      "द",
      "ो"
    ],
    [
      "मि",
      "ळ"
    ],
    [
      "व",
      "्य"
    ],
    [
      "ल",
      "ी"
    ],
    [
      "प",
      "</w>"
    ],
    [
      "अ",
      "ने"
    ],
    [
      "ो",
      "</w>"
    ],
    [
      "न",
      "ु"
    ],
    [
      "वर्",
      "ष"
    ],
    [
      "स",
      "र"
    ],
    [
      "त",
      "ील</w>"
    ],
    [
      "ट",
      "ी"
    ],
    [
      "चित्र",
      "प"
    ],
    [
      "ज",
      "्या"
    ],
    [
      "त",
      "्य"
    ],
    [
      "ना",
      "ह"
    ],
    [
      "ऱ",
      "्या</w>"
    ],
    [
      "ं",
      "त</w>"
    ],
    [
      "ां",
      "मध्ये</w>"
    ],
    [
      "प",
      "ो"
    ],
    [
      "ग",
      "्"
    ],
    [
      "प",
      "ै"
    ],
    [
      "पास",
      "ून</w>"
    ],
    [
      "ण",
      "ी</w>"
    ],
    [
      ".",
      "ए"
    ],
    [
      "का",
      "ही</w>"
    ],
    [
      "म",
      "्"
    ],
    [
      "स",
      "म"
    ],
    [
      "स",
      "ार"
    ],
    [
      "उ",
      "प"
    ],
    [
      "ख",
      "ा"
    ],
    [
      "१",
      "</w>"
    ],
    [
      "ड",
      "ि"
    ],
    [
      "ऊ",
      "</w>"
    ],
    [
      "ट",
      "े"
    ],
    [
      "ग",
      "्र"
    ],
    [
      "स",
      "ां"
    ],
    [
      "च",
      "्या"
    ],
    [
      "ाल",
      "ी</w>"
    ],
    [
      "मु",
      "ख"
    ],
    [
      "अने",
      "क</w>"
    ],
    [
      "श",
      "े"
    ],
    [
      "ज",
      "े</w>"
    ],
    [
      "व्ह",
      "ा</w>"
    ],
    [
      "ण्या",
      "साठी</w>"
    ],
    [
      "होत",
      "ा.</w>"
    ],
    [
      "स्",
      "त"
    ],
    [
      "केल",
      "े</w>"
    ],
    [
      "ी",
      "त</w>"
    ],
    [
      "ट",
      "्"
    ],
    [
      "५",
      "</w>"
    ],
    [
      "द",
      "र्"
    ],
    [
      "२",
      "</w>"
    ],
    [
      "त",
      "्या</w>"
    ],
    [
      "द",
      "ी</w>"
    ],
    [
      "न",
      "ो"
    ],
    [
      "द",
      "िल"
    ],
    [
      "२०",
      "०"
    ],
    [
      "प्र",
      "ा"
    ],
    [
      "म",
      "ार"
    ],
    [
      "कार",
      "</w>"
    ],
    [
      "सा",
      "म"
    ],
    [
      "ब",
      "्"
    ],
    [
      "ल",
      "्या</w>"
    ],
    [
      "पर्य",
      "ंत</w>"
    ],
    [
      "ी",
      "न</w>"
    ],
    [
      "ां",
      "च्या</w>"
    ],
    [
      "ब",
      "्र"
    ],
    [
      "न",
      "्ह"
    ],
    [
      "रो",
      "जी</w>"
    ],
    [
      "त्या",
      "च्या</w>"
    ],
    [
      "करण्या",
      "त</w>"
    ],
    [
      "क",
      "ा</w>"
    ],
    [
      "व",
      "्या</w>"
    ],
    [
      "पर",
      "ि"
    ],
    [
      "व",
      "ी</w>"
    ],
    [
      "े",
      "त</w>"
    ],
    [
      "होत",
      "ी.</w>"
    ],
    [
      "मो",
      "ठ"
    ],
    [
      "प",
      "ि"
    ],
    [
      "ण्या",
      "त</w>"
    ],
    [
      "स",
      "मा"
    ],
    [
      "म",
      "ी"
    ],
    [
      "सं",
      "घ"
    ],
    [
      "स",
      "ी"
    ],
    [
      "म",
      "ार्"
    ],
    [
      "तु",
      "म"
    ],
    [
      "अस",
      "े</w>"
    ],
    [
      "४",
      "</w>"
    ],
    [
      "श",
      "ह"
    ],
    [
      "ड",
      "ा"
    ],
    [
      "ो",
      ".</w>"
    ],
    [
      "ल",
      "ी.</w>"
    ],
    [
      ")",
      "</w>"
    ],
    [
      "ये",
      "थे</w>"
    ],
    [
      "द्ध",
      "</w>"
    ],
    [
      "्र",
      "</w>"
    ],
    [
      "क",
      "र्"
    ],
    [
      "ध",
      "ा"
    ],
    [
      "त्यां",
      "च्या</w>"
    ],
    [
      "र्",
      "थ"
    ],
    [
      "क",
      "ृ"
    ],
    [
      "क",
      "ॅ"
    ],
    [
      "दे",
      "ख"
    ],
    [
      "द",
      "्या"
    ],
    [
      "भ",
      "ू"
    ],
    [
      "त्या",
      "ने</w>"
    ],
    [
      "८",
      "</w>"
    ],
    [
      "रा",
      "ष्ट"
    ],
    [
      "का",
      "ळ"
    ],
    [
      "व",
      "ड"
    ],
    [
      "दे",
      "श"
    ],
    [
      "६",
      "</w>"
    ],
    [
      "७",
      "</w>"
    ],
    [
      "च",
      "ा"
    ],
    [
      "नि",
      "र्"
    ],
    [
      "ध",
      "</w>"
    ],
    [
      "न",
      "ी"
    ],
    [
      "ह",
      "ु"
    ],
    [
      "३",
      "</w>"
    ],
    [
      "ट",
      "ि"
    ],
    [
      "ज",
      "ि"
    ],
    [
      "र",
      "िक"
    ],
    [
      "एक",
      "ा</w>"
    ],
    [
      "ब",
      "ो"
    ],
    [
      "क्",
      "त</w>"
    ],
    [
      "जात",
      "े.</w>"
    ],
    [
      "वा",
      "पर"
    ],
    [
      "व",
      "्या"
    ],
    [
      "द",
      "र"
    ],
    [
      "केल",
      "े.</w>"
    ],
    [
      "ज",
      "ी"
    ],
    [
      "ब",
      "े"
    ],
    [
      "घ",
      "ेत"
    ],
    [
      "र्",
      "ध"
    ],
    [
      "ता",
      "त</w>"
    ],
    [
      "त्यां",
      "नी</w>"
    ],
    [
      "देख",
      "ील</w>"
    ],
    [
      "त",
      "र"
    ],
    [
      "दर्",
      "श"
    ],
    [
      "न",
      "्या"
    ],
    [
      "लो",
      "कां"
    ],
    [
      "राष्ट",
      "्र"
    ],
    [
      "ज",
      "्"
    ],
    [
      "ट",
      "ी</w>"
    ],
    [
      "सर्",
      "वात</w>"
    ],
    [
      "अ",
      "मे"
    ],
    [
      "अस",
      "लेल्या</w>"
    ],
    [
      "इ",
      "तर</w>"
    ],
    [
      "णा",
      "ऱ्या</w>"
    ],
    [
      "पै",
      "की</w>"
    ],
    [
      "तुम्ह",
      "ी</w>"
    ],
    [
      "केल",
      "ा</w>"
    ],
    [
      "'",
      "</w>"
    ],
    [
      "ेल",
      "्या</w>"
    ],
    [
      "भा",
      "ग</w>"
    ],
    [
      "फ",
      "े"
    ],
    [
      "कड",
      "े</w>"
    ],
    [
      "ज",
      "व"
    ],
    [
      "त",
      "ः"
    ],
    [
      "ष्",
      "ट</w>"
    ],
    [
      "प",
      "हिल"
    ],
    [
      "केल",
      "ी</w>"
    ],
    [
      "प्र",
      "ति"
    ],
    [
      "त्या",
      "ला</w>"
    ],
    [
      "न",
      "व"
    ],
    [
      "आ",
      "य"
    ],
    [
      "ट",
      "ो"
    ],
    [
      "अमे",
      "रिक"
    ],
    [
      "यां",
      "नी</w>"
    ],
    [
      "श",
      "ो"
    ],
    [
      "म",
      "ां"
    ],
    [
      "ात",
      ".</w>"
    ],
    [
      "म",
      "ू"
    ],
    [
      "ज",
      "ो"
    ],
    [
      "य",
      "न</w>"
    ],
    [
      "ी",
      "ं"
    ],
    [
      "झाल",
      "े.</w>"
    ],
    [
      "सु",
      "र"
    ],
    [
      "वे",
      "ग"
    ],
    [
      "ॉ",
      "र्"
    ],
    [
      "प",
      "ी"
    ],
    [
      "ळ",
      "ी</w>"
    ],
    [
      "क्ष",
      "ा</w>"
    ],
    [
      "ला",
      "ग"
    ],
    [
      "स्प",
      "र्ध"
    ],
    [
      "क",
      "ी"
    ],
    [
      "स्",
      "त</w>"
    ],
    [
      "स्",
      "त्र"
    ],
    [
      "न",
      ",</w>"
    ],
    [
      "ां",
      "ना</w>"
    ],
    [
      "ब",
      "ं"
    ],
    [
      "भा",
      "ग"
    ],
    [
      "करण्या",
      "साठी</w>"
    ],
    [
      "न",
      "ग"
    ],
    [
      "आह",
      "े,</w>"
    ],
    [
      "द",
      "ी"
    ],
    [
      "आ",
      "ध"
    ],
    [
      "च",
      "े"
    ],
    [
      "सं",
      "ग"
    ],
    [
      "प",
      "ड"
    ],
    [
      "ह",
      "े"
    ],
    [
      "ठ",
      "े"
    ],
    [
      "आ",
      "प"
    ],
    [
      "दि",
      "व"
    ],
    [
      "ई",
      "</w>"
    ],
    [
      "त्यां",
      "ना</w>"
    ],
    [
      "ब",
      "ॉ"
    ],
    [
      "ग",
      "ि"
    ],
    [
      "दो",
      "न</w>"
    ],
    [
      "च",
      "्"
    ],
    [
      "नि",
      "क</w>"
    ],
    [
      "ार",
      "ा"
    ],
    [
      "या",
      "च्या</w>"
    ],
    [
      "सार",
      "ख"
    ],
    [
      "नाह",
      "ी.</w>"
    ],
    [
      "त",
      "य"
    ],
    [
      "ती",
      "य</w>"
    ],
    [
      "ड",
      "े"
    ],
    [
      "ड",
      "ी"
    ],
    [
      "सह",
      "</w>"
    ],
    [
      "लेल",
      "े</w>"
    ],
    [
      "च",
      "ाल"
    ],
    [
      "ां",
      "नी</w>"
    ],
    [
      "द",
      "ा</w>"
    ],
    [
      "म",
      "हा"
    ],
    [
      "्य",
      "ू"
    ],
    [
      "सु",
      "रु"
    ],
    [
      "स्था",
      "प"
    ],
    [
      "श",
      "्र"
    ],
    [
      "मध्य",
      "े,</w>"
    ],
    [
      "क",
      "मी</w>"
    ],
    [
      "पु",
      "र"
    ],
    [
      "अध",
      "िक</w>"
    ],
    [
      "अ",
      "भ"
    ],
    [
      "वा",
      "ह"
    ],
    [
      "ंत",
      "्र"
    ],
    [
      "लो",
      "क"
    ],
    [
      "झाल",
      "ा.</w>"
    ],
    [
      "व",
      "े</w>"
    ],
    [
      "प्र",
      "मा"
    ],
    [
      "म",
      "ह"
    ],
    [
      "ब",
      "</w>"
    ],
    [
      "राष्ट्र",
      "ीय</w>"
    ],
    [
      "्य",
      "ु"
    ],
    [
      "ेल",
      "</w>"
    ],
    [
      "नि",
      "य"
    ],
    [
      "ब",
      "हु"
    ],
    [
      "न",
      "स"
    ],
    [
      "खेळ",
      "ा"
    ],
    [
      "पूर्",
      "ण</w>"
    ],
    [
      "प",
      "द"
    ],
    [
      "घ",
      "े"
    ],
    [
      "वे",
      "श</w>"
    ],
    [
      "ल",
      "क्ष"
    ],
    [
      "तय",
      "ार</w>"
    ],
    [
      "केल",
      "ी.</w>"
    ],
    [
      "स",
      "ा</w>"
    ],
    [
      "०",
      "०</w>"
    ],
    [
      "ं",
      "ट"
    ],
    [
      "राज",
      "्या"
    ],
    [
      "-",
      "</w>"
    ],
    [
      "का",
      "म</w>"
    ],
    [
      "लो",
      "क</w>"
    ],
    [
      "स",
      "े</w>"
    ],
    [
      "९",
      "</w>"
    ],
    [
      "ज",
      "िं"
    ],
    [
      "च",
      "ार</w>"
    ],
    [
      "स",
      "ू"
    ],
    [
      "ु",
      "</w>"
    ],
    [
      "व",
      "सा"
    ],
    [
      "अस",
      "ल्या"
    ],
    [
      "क",
      "ं"
    ],
    [
      "ां",
      "चा</w>"
    ],
    [
      "ते",
      "व्हा</w>"
    ],
    [
      "ड",
      "ी</w>"
    ],
    [
      "ब",
      "द"
    ],
    [
      "व",
      "ी"
    ],
    [
      "पे",
      "क्षा</w>"
    ],
    [
      "द्",
      "वार"
    ],
    [
      "१९",
      "९"
    ],
    [
      "फ",
      "</w>"
    ],
    [
      "प",
      "णे</w>"
    ],
    [
      "म",
      "ात"
    ],
    [
      "भार",
      "तीय</w>"
    ],
    [
      "िल",
      "्"
    ],
    [
      "म",
      "ला</w>"
    ],
    [
      "वा",
      "प"
    ],
    [
      "वा",
      "ढ"
    ],
    [
      "ळ",
      "ा</w>"
    ],
    [
      "ड",
      "ो"
    ],
    [
      "ा",
      ",</w>"
    ],
    [
      "व",
      "ै"
    ],
    [
      "ेल",
      "ा</w>"
    ],
    [
      "ज",
      "ु"
    ],
    [
      "र",
      ",</w>"
    ],
    [
      "ं",
      "</w>"
    ],
    [
      "फ",
      "ो"
    ],
    [
      "ब",
      "ि"
    ],
    [
      "श",
      "ा</w>"
    ],
    [
      "क",
      "ॉ"
    ],
    [
      "ां",
      "ग"
    ],
    [
      "पर",
      "ंत"
    ],
    [
      "तुम्ह",
      "ाला</w>"
    ],
    [
      "प्र",
      "कार"
    ],
    [
      "न्",
      "स"
    ],
    [
      "द्",
      "द"
    ],
    [
      "वर",
      "ील</w>"
    ],
    [
      "ठे",
      "व"
    ],
    [
      "ी",
      "त"
    ],
    [
      "को",
      "ण"
    ],
    [
      "म",
      "ा</w>"
    ],
    [
      "नि",
      "ध"
    ],
    [
      "रा",
      "ह"
    ],
    [
      "जिं",
      "क"
    ],
    [
      "ज्",
      "ञ"
    ],
    [
      "परंत",
      "ु</w>"
    ],
    [
      "कर",
      "ून</w>"
    ],
    [
      "ां",
      "ची</w>"
    ],
    [
      "म",
      "ाल"
    ],
    [
      "म",
      "्या"
    ],
    [
      "ब",
      "र्"
    ],
    [
      "ू",
      "ं"
    ],
    [
      "प्र",
      "ि"
    ],
    [
      "र",
      "ा</w>"
    ],
    [
      "सा",
      "मान"
    ],
    [
      "स",
      "ाली</w>"
    ],
    [
      "ृ",
      "त्"
    ],
    [
      "ब",
      "ी"
    ],
    [
      "सर्",
      "व"
    ],
    [
      "म",
      "ृ"
    ],
    [
      "फ",
      "ु"
    ],
    [
      "ट",
      "्र"
    ],
    [
      "फ",
      "्"
    ],
    [
      "म",
      "द"
    ],
    [
      "ा",
      "य"
    ],
    [
      "क",
      "ाल"
    ],
    [
      "ण्या",
      "ची</w>"
    ],
    [
      "द्वार",
      "े</w>"
    ],
    [
      "क्",
      "स"
    ],
    [
      "मा",
      "न</w>"
    ],
    [
      "वा",
      "ट"
    ],
    [
      "ंद",
      "</w>"
    ],
    [
      "ार्",
      "थ"
    ],
    [
      "जा",
      "ग"
    ],
    [
      "प्र",
      "त्य"
    ],
    [
      "मा",
      "झ"
    ],
    [
      "ख",
      "</w>"
    ],
    [
      "यो",
      "ज"
    ],
    [
      "ळ",
      "ा"
    ],
    [
      "ू",
      "प</w>"
    ],
    [
      "भा",
      "गा"
    ],
    [
      "ह",
      "िं"
    ],
    [
      "जा",
      "स्त</w>"
    ],
    [
      "िं",
      "ग</w>"
    ],
    [
      "दि",
      "स"
    ],
    [
      "समा",
      "वेश</w>"
    ],
    [
      "क्ष",
      "ि"
    ],
    [
      "चित्रप",
      "ट"
    ],
    [
      "अस",
      "ते.</w>"
    ],
    [
      "ब",
      "ु"
    ],
    [
      "सर्",
      "व</w>"
    ],
    [
      "वार",
      "ी</w>"
    ],
    [
      "आ",
      "ले.</w>"
    ],
    [
      "ां",
      "चे</w>"
    ],
    [
      "ंब",
      "र</w>"
    ],
    [
      "कड",
      "ून</w>"
    ],
    [
      "सुर",
      "ू</w>"
    ],
    [
      "सं",
      "ख"
    ],
    [
      "जा",
      "त</w>"
    ],
    [
      "ओ",
      "ळ"
    ],
    [
      "जे",
      "व्हा</w>"
    ],
    [
      "क्ष",
      "ेत"
    ],
    [
      "ण",
      "ी"
    ],
    [
      "्या",
      "त</w>"
    ],
    [
      "द",
      "्र"
    ],
    [
      "ठ",
      "र"
    ],
    [
      "भा",
      "ष"
    ],
    [
      "कं",
      "प"
    ],
    [
      "तः",
      "</w>"
    ],
    [
      "क्र",
      "ि"
    ],
    [
      "ार",
      "ी</w>"
    ],
    [
      "वाप",
      "र</w>"
    ],
    [
      "ंद",
      "ि"
    ],
    [
      "ल",
      ".</w>"
    ],
    [
      "ट",
      "र</w>"
    ],
    [
      "दर",
      "म्या"
    ],
    [
      "केल",
      "ा.</w>"
    ],
    [
      "आ",
      "ले</w>"
    ],
    [
      "ब",
      "द्द"
    ],
    [
      "तुम",
      "च्या</w>"
    ],
    [
      "ि",
      "का"
    ],
    [
      "ेल",
      "्"
    ],
    [
      "चित्रप",
      "ट</w>"
    ],
    [
      "ये",
      "थ"
    ],
    [
      "कार",
      "्य"
    ],
    [
      "प",
      "ाल"
    ],
    [
      "खेळा",
      "ड"
    ],
    [
      ":",
      "</w>"
    ],
    [
      "ध",
      "ी</w>"
    ],
    [
      "वर्ष",
      "ी</w>"
    ],
    [
      "स्ट",
      "्र"
    ],
    [
      "फ",
      "्र"
    ],
    [
      "म्हण",
      "जे</w>"
    ],
    [
      "व्ह",
      "ि"
    ],
    [
      "क",
      "े</w>"
    ],
    [
      "ल",
      "ां"
    ],
    [
      "ण्या",
      "चा</w>"
    ],
    [
      "शक",
      "तात.</w>"
    ],
    [
      "म",
      "ॅ"
    ],
    [
      "हि",
      "ला</w>"
    ],
    [
      "आ",
      "व"
    ],
    [
      "प",
      "ण</w>"
    ],
    [
      "वि",
      "ष"
    ],
    [
      "य",
      "ेत"
    ],
    [
      "शक",
      "ते.</w>"
    ],
    [
      "फ",
      "ि"
    ],
    [
      "कर",
      "ू</w>"
    ],
    [
      "ज",
      "र</w>"
    ],
    [
      "ह",
      "र"
    ],
    [
      "े",
      "च्या</w>"
    ],
    [
      "वि",
      "द्या"
    ],
    [
      "त्र",
      "</w>"
    ],
    [
      "श",
      "ी"
    ],
    [
      "स्",
      "ट</w>"
    ],
    [
      "द",
      "ू"
    ],
    [
      "अ",
      "ंत"
    ],
    [
      "कर",
      "तात.</w>"
    ],
    [
      "त्या",
      "चा</w>"
    ],
    [
      "द",
      "्य"
    ],
    [
      "ध",
      "ार"
    ],
    [
      "णार",
      "े</w>"
    ],
    [
      "व्य",
      "क्"
    ],
    [
      "े",
      "क</w>"
    ],
    [
      "न",
      "च्या</w>"
    ],
    [
      "ख",
      "ो"
    ],
    [
      "रा",
      "त</w>"
    ],
    [
      "ल",
      "ंड"
    ],
    [
      "न",
      "ेत"
    ],
    [
      "भ",
      "र"
    ],
    [
      "स्थ",
      "ि"
    ],
    [
      "वि",
      "क"
    ],
    [
      "ज",
      "ू"
    ],
    [
      "पु",
      "ढ"
    ],
    [
      "पा",
      "ठ"
    ],
    [
      "ऱ",
      "्या"
    ],
    [
      "श",
      "त"
    ],
    [
      "स",
      "द"
    ],
    [
      "ज",
      "िल"
    ],
    [
      "ष",
      "</w>"
    ],
    [
      "्",
      "म"
    ],
    [
      "बं",
      "ध"
    ],
    [
      "भ",
      "े"
    ],
    [
      "जात",
      "ो.</w>"
    ],
    [
      "ति",
      "क</w>"
    ],
    [
      "शि",
      "क्ष"
    ],
    [
      "व",
      "ात"
    ],
    [
      "त्या",
      "चे</w>"
    ],
    [
      "णार",
      "ा</w>"
    ],
    [
      "ज",
      "न्"
    ],
    [
      "द",
      "क्षि"
    ],
    [
      "ओळ",
      "ख"
    ],
    [
      "येथ",
      "ील</w>"
    ],
    [
      "ां",
      "ध"
    ],
    [
      "त्",
      "त्"
    ],
    [
      "का",
      "य"
    ],
    [
      "तात",
      "ील</w>"
    ],
    [
      "१९",
      "८"
    ],
    [
      "ब",
      "न"
    ],
    [
      "ग",
      "े"
    ],
    [
      "कार",
      "ण</w>"
    ],
    [
      "जिल",
      "्ह"
    ],
    [
      "बद्द",
      "ल</w>"
    ],
    [
      "अभ",
      "ि"
    ],
    [
      "क",
      "ल्"
    ],
    [
      "लेल",
      "ी</w>"
    ],
    [
      "वि",
      "ज"
    ],
    [
      "लेल",
      "ा</w>"
    ],
    [
      "ा",
      "च्या</w>"
    ],
    [
      "क",
      "र</w>"
    ],
    [
      "अ",
      "नु"
    ],
    [
      "मोठ",
      "्या</w>"
    ],
    [
      "ं",
      "ड</w>"
    ],
    [
      "म",
      "ंदि"
    ],
    [
      "िक",
      "ा</w>"
    ],
    [
      "ती",
      "ं"
    ],
    [
      "र",
      "े</w>"
    ],
    [
      "ब्र",
      "ि"
    ],
    [
      "प्र",
      "मुख"
    ],
    [
      "मिळ",
      "व"
    ],
    [
      "स",
      "ी</w>"
    ],
    [
      "ता",
      "ना</w>"
    ],
    [
      "मृ",
      "त्य"
    ],
    [
      "आह",
      "ेत</w>"
    ],
    [
      "ण",
      "ा</w>"
    ],
    [
      "अ",
      "शा</w>"
    ],
    [
      "त्या",
      "ची</w>"
    ],
    [
      "त",
      ",</w>"
    ],
    [
      "जात",
      "ात.</w>"
    ],
    [
      "दे",
      "श</w>"
    ],
    [
      "त",
      "ां"
    ],
    [
      "ब",
      "र</w>"
    ],
    [
      "ं",
      "गा"
    ],
    [
      "थ",
      "ा"
    ],
    [
      "मु",
      "ल"
    ],
    [
      "च",
      "ार"
    ],
    [
      "१",
      "८"
    ],
    [
      "झाल",
      "ी.</w>"
    ],
    [
      "कर",
      "ण</w>"
    ],
    [
      "ात",
      "्र"
    ],
    [
      "म",
      "ै"
    ],
    [
      "त्यां",
      "चे</w>"
    ],
    [
      "ब",
      "त</w>"
    ],
    [
      "ती",
      "न</w>"
    ],
    [
      "जा",
      "ऊ</w>"
    ],
    [
      "प्र",
      "े"
    ],
    [
      "सु",
      "मार"
    ],
    [
      "उ",
      "ं"
    ],
    [
      "ना",
      "य"
    ],
    [
      "ज",
      "ो</w>"
    ],
    [
      "ना",
      "वा"
    ],
    [
      "ेत",
      "ील</w>"
    ],
    [
      "घ",
      "ट"
    ],
    [
      "प्रमुख",
      "</w>"
    ],
    [
      "होत",
      "े</w>"
    ],
    [
      "ात",
      ",</w>"
    ],
    [
      "१९",
      "७"
    ],
    [
      "दे",
      "शा"
    ],
    [
      "ज",
      "ग"
    ],
    [
      "नि",
      "वड"
    ],
    [
      "ग",
      "्रा"
    ],
    [
      "ख",
      "ूप</w>"
    ],
    [
      "व्य",
      "व"
    ],
    [
      "ऊ",
      "न</w>"
    ],
    [
      "कर",
      "णे</w>"
    ],
    [
      "श",
      "्य"
    ],
    [
      "स",
      "ै"
    ],
    [
      "ंद",
      "ा"
    ],
    [
      "कर",
      "त</w>"
    ],
    [
      "२०",
      "</w>"
    ],
    [
      "अस",
      "तात.</w>"
    ],
    [
      "य",
      "त्"
    ],
    [
      "ना",
      "ही</w>"
    ],
    [
      "ळ",
      "्या</w>"
    ],
    [
      "ंद",
      "्र"
    ],
    [
      "द",
      "र</w>"
    ],
    [
      "शह",
      "र</w>"
    ],
    [
      "स",
      "ाल"
    ],
    [
      "्या",
      "ने</w>"
    ],
    [
      "र",
      "च्या</w>"
    ],
    [
      "तात",
      ",</w>"
    ],
    [
      "भार",
      "ता"
    ],
    [
      "प",
      "र्"
    ],
    [
      "प",
      "ट"
    ],
    [
      "वा",
      "द"
    ],
    [
      "शो",
      "ध"
    ],
    [
      "िं",
      "ग"
    ],
    [
      "ध",
      "र्"
    ],
    [
      "अ",
      "व"
    ],
    [
      "ड",
      "ा</w>"
    ],
    [
      "सारख",
      "्या</w>"
    ],
    [
      "ां",
      "त</w>"
    ],
    [
      "झाल",
      "ा</w>"
    ],
    [
      ".ए",
      "स"
    ],
    [
      "व्ह",
      "े"
    ],
    [
      "ब",
      "ांध"
    ],
    [
      "दु",
      "स"
    ],
    [
      "जव",
      "ळ"
    ],
    [
      "ह",
      "</w>"
    ],
    [
      "व",
      "ळ</w>"
    ],
    [
      "मुख",
      "्य</w>"
    ],
    [
      "प",
      "ं"
    ],
    [
      "ह",
      "्या</w>"
    ],
    [
      "ण्या",
      "स</w>"
    ],
    [
      "ण",
      "े"
    ],
    [
      "दरम्या",
      "न</w>"
    ],
    [
      "ब्",
      "ल"
    ],
    [
      "सद",
      "स"
    ],
    [
      "ण",
      "ू"
    ],
    [
      ",",
      "०"
    ],
    [
      "ट",
      "ु"
    ],
    [
      "मिळ",
      "ाल"
    ],
    [
      "च",
      "ित</w>"
    ],
    [
      "मा",
      "ग"
    ],
    [
      "वि",
      "शे"
    ],
    [
      "ज",
      "न"
    ],
    [
      "स्ट",
      "े"
    ],
    [
      "इ",
      "ंग"
    ],
    [
      "क्र",
      "ी"
    ],
    [
      "स",
      "ार</w>"
    ],
    [
      "वि",
      "श्"
    ],
    [
      "भू",
      "मि"
    ],
    [
      "ऑ",
      "फ</w>"
    ],
    [
      "ात",
      "ून</w>"
    ],
    [
      "द",
      "ेत"
    ],
    [
      "ध",
      "ी"
    ],
    [
      "मद",
      "त</w>"
    ],
    [
      "ना",
      "व</w>"
    ],
    [
      "च",
      "ी"
    ],
    [
      "प्रत्य",
      "ेक</w>"
    ],
    [
      "स्व",
      "ी"
    ],
    [
      "र",
      "क्ष"
    ],
    [
      "द",
      "ृ"
    ],
    [
      "न्",
      "स</w>"
    ],
    [
      "परि",
      "णा"
    ],
    [
      "सुमार",
      "े</w>"
    ],
    [
      "ति",
      "च्या</w>"
    ],
    [
      "झाल",
      "े</w>"
    ],
    [
      "प्र",
      "यत्"
    ],
    [
      "अ",
      "ल्"
    ],
    [
      "फ",
      "ा"
    ],
    [
      "ह",
      "ून</w>"
    ],
    [
      "कार",
      "्"
    ],
    [
      "अस",
      "ा</w>"
    ],
    [
      "सुरु",
      "वात</w>"
    ],
    [
      "व",
      "याच्या</w>"
    ],
    [
      "श्",
      "चि"
    ],
    [
      "प",
      "ॅ"
    ],
    [
      "प",
      "ार"
    ],
    [
      "म",
      "न</w>"
    ],
    [
      "होत",
      "ो.</w>"
    ],
    [
      "यो",
      "ग"
    ],
    [
      "केल",
      "्या"
    ],
    [
      "झाल",
      "्या"
    ],
    [
      "यां",
      "चा</w>"
    ],
    [
      "ड",
      "ॉ"
    ],
    [
      "ह",
      "ॉ"
    ],
    [
      "भार",
      "तातील</w>"
    ],
    [
      "म",
      "र"
    ],
    [
      "पूर्",
      "वी</w>"
    ],
    [
      "घ",
      "ड"
    ],
    [
      "मह",
      "त्त्"
    ],
    [
      "नंत",
      "र,</w>"
    ],
    [
      "स्",
      "ता"
    ],
    [
      "आ",
      "र"
    ],
    [
      "र",
      "ॉ"
    ],
    [
      "क",
      "थ"
    ],
    [
      "न्ह",
      "ा</w>"
    ],
    [
      "नव",
      "ीन</w>"
    ],
    [
      "ण्या",
      "च्या</w>"
    ],
    [
      "पा",
      "द"
    ],
    [
      "त्यां",
      "ची</w>"
    ],
    [
      "राज",
      "्य</w>"
    ],
    [
      "ठ",
      "िका"
    ],
    [
      "ेल",
      "ि"
    ],
    [
      "ड",
      "्"
    ],
    [
      "च",
      "ांग"
    ],
    [
      "णार",
      "ी</w>"
    ],
    [
      "क्ष",
      "</w>"
    ],
    [
      "अस",
      "ू</w>"
    ],
    [
      "व",
      "स्त"
    ],
    [
      "यां",
      "च्या</w>"
    ],
    [
      "न",
      "व्ह"
    ],
    [
      "य",
      "ू"
    ],
    [
      "आ",
      "ठ"
    ],
    [
      "णा",
      "त</w>"
    ],
    [
      "का",
      "ढ"
    ],
    [
      "यां",
      "चे</w>"
    ],
    [
      "पूर्",
      "व"
    ],
    [
      "१९",
      "६"
    ],
    [
      "ज",
      "ा</w>"
    ],
    [
      "आ",
      "ढ"
    ],
    [
      "ण",
      "ार</w>"
    ],
    [
      "्यां",
      "नी</w>"
    ],
    [
      "ो",
      "त्"
    ],
    [
      "केल",
      "ेल्या</w>"
    ],
    [
      "ख",
      "ी</w>"
    ],
    [
      "या",
      "त</w>"
    ],
    [
      "शा",
      "स्त्र"
    ],
    [
      "काळ",
      "ात</w>"
    ],
    [
      "निध",
      "न</w>"
    ],
    [
      "च",
      "ौ"
    ],
    [
      "थ",
      "</w>"
    ],
    [
      "हो",
      "ऊ</w>"
    ],
    [
      "स",
      "मु"
    ],
    [
      "आप",
      "ल्या</w>"
    ],
    [
      "श",
      "न</w>"
    ],
    [
      "अ",
      "र्थ"
    ],
    [
      "्या",
      "च्या</w>"
    ],
    [
      "त",
      "े,</w>"
    ],
    [
      "ं",
      "भ"
    ],
    [
      "अ",
      "ति"
    ],
    [
      "ह",
      "ी"
    ],
    [
      "मध",
      "ून</w>"
    ],
    [
      "्यां",
      "च्या</w>"
    ],
    [
      "अध",
      "ि"
    ],
    [
      "ख",
      "रे"
    ],
    [
      "ति",
      "ने</w>"
    ],
    [
      "शे",
      "व"
    ],
    [
      "ल",
      "ढ"
    ],
    [
      "च्",
      "छ"
    ],
    [
      "आव",
      "श्य"
    ],
    [
      "शक",
      "तो.</w>"
    ],
    [
      "ळ",
      "ी"
    ],
    [
      "आढ",
      "ळ"
    ],
    [
      "झाल",
      "ेल्या</w>"
    ],
    [
      "कार",
      "ी</w>"
    ],
    [
      "बॉ",
      "ल</w>"
    ],
    [
      "क",
      "ल"
    ],
    [
      "पु",
      "न्हा</w>"
    ],
    [
      "क",
      "ीय</w>"
    ],
    [
      "श",
      "ु"
    ],
    [
      "स",
      ",</w>"
    ],
    [
      "जो",
      "ड"
    ],
    [
      "मि",
      "क</w>"
    ],
    [
      "उत्",
      "तर</w>"
    ],
    [
      "झ",
      "ा"
    ],
    [
      "अस",
      "तो.</w>"
    ],
    [
      "का",
      "त</w>"
    ],
    [
      "र",
      "च"
    ],
    [
      "दो",
      "न्ह"
    ],
    [
      "के",
      "वळ</w>"
    ],
    [
      "ष्",
      "ठ"
    ],
    [
      "सि",
      "द्ध</w>"
    ],
    [
      "्यां",
      "ना</w>"
    ],
    [
      "घ",
      "ो"
    ],
    [
      "ं",
      "ग</w>"
    ],
    [
      "न",
      "ने</w>"
    ],
    [
      "जी",
      "व"
    ],
    [
      "चित्रप",
      "टा"
    ],
    [
      "क्",
      "स</w>"
    ],
    [
      "पहिल",
      "्या</w>"
    ],
    [
      "खे",
      "ळ</w>"
    ],
    [
      "ए",
      "खा"
    ],
    [
      "जव",
      "ळ</w>"
    ],
    [
      "ेल",
      "े</w>"
    ],
    [
      "ां",
      "वर</w>"
    ],
    [
      "क्",
      "ल"
    ],
    [
      "का",
      "च्या</w>"
    ],
    [
      "सा",
      "य"
    ],
    [
      "नु",
      "सार</w>"
    ],
    [
      "त्या",
      "नंतर</w>"
    ],
    [
      "या",
      "चा</w>"
    ],
    [
      "प्र",
      "दर्श"
    ],
    [
      "ला",
      ",</w>"
    ],
    [
      "क्र",
      "म"
    ],
    [
      "र",
      "ू"
    ],
    [
      "ख",
      "ाली</w>"
    ],
    [
      "बा",
      "हे"
    ],
    [
      "ां",
      "साठी</w>"
    ],
    [
      "द",
      "ू</w>"
    ],
    [
      "प",
      "श्चि"
    ],
    [
      "म्",
      "प"
    ],
    [
      "ति",
      "हा"
    ],
    [
      "न",
      "द"
    ],
    [
      "व",
      "ले</w>"
    ],
    [
      "त्यां",
      "चा</w>"
    ],
    [
      "आ",
      "ंत"
    ],
    [
      "ब",
      "ँ"
    ],
    [
      "घ",
      "ाल"
    ],
    [
      "वर",
      "ून</w>"
    ],
    [
      "आ",
      "ली.</w>"
    ],
    [
      "यु",
      "क्त</w>"
    ],
    [
      "अ",
      "शी</w>"
    ],
    [
      "यां",
      "च्या"
    ],
    [
      "सो",
      "बत</w>"
    ],
    [
      "ब",
      "रो"
    ],
    [
      "सुरु",
      "वात"
    ],
    [
      "वा",
      "य"
    ],
    [
      "घ",
      "ा"
    ],
    [
      "अ",
      "प"
    ],
    [
      "शा",
      "स"
    ],
    [
      "भागा",
      "त</w>"
    ],
    [
      "ना",
      "त</w>"
    ],
    [
      "ए",
      "स"
    ],
    [
      "फु",
      "ट"
    ],
    [
      "लोक",
      "प्रि"
    ],
    [
      "आंत",
      "र"
    ],
    [
      "हा",
      "य"
    ],
    [
      "ल",
      "हा"
    ],
    [
      "ग",
      "र"
    ],
    [
      "ट",
      "न</w>"
    ],
    [
      "स",
      "िं"
    ],
    [
      "कर",
      "ते.</w>"
    ],
    [
      "प्र",
      "भा"
    ],
    [
      "या",
      "ने</w>"
    ],
    [
      "संघ",
      "ा"
    ],
    [
      "ना",
      "च्या</w>"
    ],
    [
      "ात",
      "्म"
    ],
    [
      "दु",
      "सर"
    ],
    [
      "ध",
      "ो"
    ],
    [
      "गि",
      "त"
    ],
    [
      "प",
      "ात"
    ],
    [
      "श",
      "न"
    ],
    [
      "अ",
      "र"
    ],
    [
      "झाल",
      "ी</w>"
    ],
    [
      "सामान",
      "्य</w>"
    ],
    [
      "स्व",
      "तः"
    ],
    [
      "ा",
      "व"
    ],
    [
      "म",
      "हि"
    ],
    [
      "संख",
      "्या</w>"
    ],
    [
      "सा",
      "ध"
    ],
    [
      "अस",
      "लेले</w>"
    ],
    [
      "जन्",
      "म</w>"
    ],
    [
      "अ",
      "र्"
    ],
    [
      "नग",
      "र"
    ],
    [
      "ति",
      "ला</w>"
    ],
    [
      "दा",
      "ख"
    ],
    [
      "गेल",
      "े.</w>"
    ],
    [
      "दक्षि",
      "ण</w>"
    ],
    [
      "बहु",
      "ते"
    ],
    [
      "सो",
      "ड"
    ],
    [
      "प्रयत्",
      "न</w>"
    ],
    [
      "पुर",
      "स्"
    ],
    [
      "बद",
      "ल"
    ],
    [
      "यु",
      "द्ध"
    ],
    [
      "ब",
      "नव"
    ],
    [
      "ू",
      "न"
    ],
    [
      "ध",
      "्य"
    ],
    [
      "ट",
      "र"
    ],
    [
      "ट",
      "ा</w>"
    ],
    [
      "उ",
      "दा"
    ],
    [
      "सां",
      "ग"
    ],
    [
      "मा",
      "हि"
    ],
    [
      "कल्",
      "प"
    ],
    [
      "वि",
      "वि"
    ],
    [
      "सामान",
      "्य"
    ],
    [
      "ट्",
      "स"
    ],
    [
      "प्र",
      "सिद्ध</w>"
    ],
    [
      "सं",
      "बंध"
    ],
    [
      "वर्",
      "ण"
    ],
    [
      "अ",
      "र</w>"
    ],
    [
      "ला",
      "व"
    ],
    [
      "कु",
      "टु"
    ],
    [
      "न",
      "ॉ"
    ],
    [
      "वा",
      "स</w>"
    ],
    [
      "ड",
      "्र"
    ],
    [
      "ब",
      "ी</w>"
    ],
    [
      "उत्",
      "पाद"
    ],
    [
      "व",
      "ं"
    ],
    [
      "आण",
      "खी</w>"
    ],
    [
      "ेल",
      "ी</w>"
    ],
    [
      "लोकां",
      "ना</w>"
    ],
    [
      "यां",
      "ना</w>"
    ],
    [
      ",०",
      "००</w>"
    ],
    [
      "क",
      "म"
    ],
    [
      "दा",
      "न</w>"
    ],
    [
      "सं",
      "पूर्ण</w>"
    ],
    [
      "ल",
      "ै"
    ],
    [
      "१९",
      "५"
    ],
    [
      "गेल",
      "े</w>"
    ],
    [
      "प",
      "हिला</w>"
    ],
    [
      "ड",
      "े</w>"
    ],
    [
      "प्र",
      "का"
    ],
    [
      "िक",
      "े"
    ],
    [
      "पु",
      "न"
    ],
    [
      "पू",
      "र</w>"
    ],
    [
      "ात्म",
      "क</w>"
    ],
    [
      "कर",
      "ण"
    ],
    [
      "अ",
      "‍"
    ],
    [
      "सां",
      "गित"
    ],
    [
      "न",
      "्यू"
    ],
    [
      "सं",
      "स्थ"
    ],
    [
      "आ",
      "ज"
    ],
    [
      "या",
      "ची</w>"
    ],
    [
      "प",
      "ां"
    ],
    [
      "कर",
      "ा"
    ],
    [
      "प",
      "रा"
    ],
    [
      "ल",
      "ु"
    ],
    [
      "य",
      "िक</w>"
    ],
    [
      "अ‍",
      "ॅ"
    ],
    [
      "ए",
      "न"
    ],
    [
      "्या",
      "तील</w>"
    ],
    [
      "ब",
      "ॅ"
    ],
    [
      "आ",
      "ता</w>"
    ],
    [
      "सी",
      "."
    ],
    [
      "दुस",
      "ऱ्या</w>"
    ],
    [
      "ज",
      "र्"
    ],
    [
      "पै",
      "से</w>"
    ],
    [
      "उत्",
      "त"
    ],
    [
      "ज",
      "्या</w>"
    ],
    [
      "वे",
      "ळी</w>"
    ],
    [
      "क",
      "ू"
    ],
    [
      "र",
      "क्"
    ],
    [
      "महत्त्",
      "वा"
    ],
    [
      "प",
      "क्ष"
    ],
    [
      "ग",
      "ा</w>"
    ],
    [
      "प",
      "द्ध"
    ],
    [
      "्यां",
      "मध्ये</w>"
    ],
    [
      "खेळाड",
      "ू</w>"
    ],
    [
      "च्",
      "च</w>"
    ],
    [
      "ख",
      "ाल"
    ],
    [
      "उदा",
      "हर"
    ],
    [
      "नाह",
      "ीत"
    ],
    [
      "लोकप्रि",
      "य</w>"
    ],
    [
      "१९",
      "</w>"
    ],
    [
      "ण्या",
      "ं"
    ],
    [
      "ना",
      "ट"
    ],
    [
      "व",
      "ृत्"
    ],
    [
      "प",
      "त्र"
    ],
    [
      "दोन्ह",
      "ी</w>"
    ],
    [
      "आ",
      "ली</w>"
    ],
    [
      "ख",
      "र्"
    ],
    [
      "उ",
      "द्"
    ],
    [
      "ां",
      "पैकी</w>"
    ],
    [
      "प्र",
      "देश"
    ],
    [
      "इ",
      "ंड"
    ],
    [
      "्",
      "व"
    ],
    [
      "म",
      "े</w>"
    ],
    [
      "ल",
      "ॅ"
    ],
    [
      "व्ह",
      "ा"
    ],
    [
      "आ",
      "योज"
    ],
    [
      "ल",
      "ॉ"
    ],
    [
      "वि",
      "रु"
    ],
    [
      "रा",
      "च्या</w>"
    ],
    [
      "त्",
      "व</w>"
    ],
    [
      "ब",
      "स"
    ],
    [
      "या",
      "चे</w>"
    ],
    [
      "द",
      "श"
    ],
    [
      "ऑ",
      "स्ट्र"
    ],
    [
      "वेग",
      "वेग"
    ],
    [
      "बहुते",
      "क</w>"
    ],
    [
      "त",
      "था"
    ],
    [
      "आ",
      "ला.</w>"
    ],
    [
      "ण्या",
      "चे</w>"
    ],
    [
      "ग्र",
      "े"
    ],
    [
      "अ",
      "ँ"
    ],
    [
      "पी",
      "ठ"
    ],
    [
      "होत",
      "ा</w>"
    ],
    [
      "प",
      "त्"
    ],
    [
      "हिं",
      "दू</w>"
    ],
    [
      "श",
      "ै"
    ],
    [
      "या",
      "मुळे</w>"
    ],
    [
      "स्पर्ध",
      "ा</w>"
    ],
    [
      "च",
      "र्"
    ],
    [
      "असल्या",
      "चे</w>"
    ],
    [
      "ल",
      ",</w>"
    ],
    [
      "ं",
      "ट</w>"
    ],
    [
      "ओ",
      "</w>"
    ],
    [
      "सह",
      "सा</w>"
    ],
    [
      "क्षेत",
      "्र"
    ],
    [
      "न",
      "मधील</w>"
    ],
    [
      "ज",
      "ै"
    ],
    [
      "न",
      "्य"
    ],
    [
      "के",
      "ंद्र"
    ],
    [
      "विवि",
      "ध</w>"
    ],
    [
      "र",
      "्य"
    ],
    [
      "ेल",
      ".</w>"
    ],
    [
      "२०",
      "२"
    ],
    [
      "सर",
      "कार"
    ],
    [
      "वि",
      "क्र"
    ],
    [
      "माझ",
      "्या</w>"
    ],
    [
      "गु",
      "ंत"
    ],
    [
      "र",
      "ंग"
    ],
    [
      "लहा",
      "न</w>"
    ],
    [
      "दिल",
      "े</w>"
    ],
    [
      "ज्या",
      "मुळे</w>"
    ],
    [
      "मार्",
      "ग</w>"
    ],
    [
      "त",
      "्य</w>"
    ],
    [
      "ल",
      "व"
    ],
    [
      "ह",
      "ॅ"
    ],
    [
      "प्र",
      "थ"
    ],
    [
      "आहेत",
      ",</w>"
    ],
    [
      "त्या",
      "मुळे</w>"
    ],
    [
      "रो",
      "ग"
    ],
    [
      "त्या",
      "त</w>"
    ],
    [
      "थ",
      "ो"
    ],
    [
      "स्था",
      "निक</w>"
    ],
    [
      "त्यां",
      "च्या"
    ],
    [
      "दु",
      "का"
    ],
    [
      "आंतर",
      "राष्ट्रीय</w>"
    ],
    [
      "दे",
      "ण्यात</w>"
    ],
    [
      "न",
      "मध्ये</w>"
    ],
    [
      "द",
      "ार"
    ],
    [
      "ल",
      "ँ"
    ],
    [
      "ल",
      "े,</w>"
    ],
    [
      "त",
      "री</w>"
    ],
    [
      "व",
      "ज"
    ],
    [
      "स",
      "ध"
    ],
    [
      "अमेरिक",
      "न</w>"
    ],
    [
      "प",
      "ार्"
    ],
    [
      "प",
      "द</w>"
    ],
    [
      "पु",
      "रु"
    ],
    [
      "ज्ञ",
      "ा"
    ],
    [
      "टे",
      "ड</w>"
    ],
    [
      "ष्",
      "ण"
    ],
    [
      "होत",
      "े,</w>"
    ],
    [
      "भूमि",
      "का</w>"
    ],
    [
      "हो",
      "त</w>"
    ],
    [
      "पुढ",
      "े</w>"
    ],
    [
      "यु",
      "रो"
    ],
    [
      "ब",
      "्रा"
    ],
    [
      "ं",
      "पर"
    ],
    [
      "जा",
      "ने"
    ],
    [
      "सदस",
      "्य</w>"
    ],
    [
      "म",
      "ॉ"
    ],
    [
      "ग",
      "ी"
    ],
    [
      "क",
      "िल्"
    ],
    [
      "भा",
      "व"
    ],
    [
      "गा",
      "य"
    ],
    [
      "श",
      "ब्"
    ],
    [
      "तो",
      ",</w>"
    ],
    [
      "स्",
      "कृ"
    ],
    [
      "ती",
      "च्या</w>"
    ],
    [
      "प्",
      "त</w>"
    ],
    [
      "आ",
      "ला</w>"
    ],
    [
      "बा",
      "जू"
    ],
    [
      "निर्",
      "मि"
    ],
    [
      "टा",
      "क"
    ],
    [
      "साम",
      "्रा"
    ],
    [
      "ऑ",
      "क्"
    ],
    [
      "व्या",
      "प"
    ],
    [
      "ब",
      "र"
    ],
    [
      "संघ",
      "</w>"
    ],
    [
      "कार्य",
      "क्र"
    ],
    [
      "गो",
      "ल</w>"
    ],
    [
      "ज",
      "ून</w>"
    ],
    [
      "निर्",
      "मा"
    ],
    [
      "बाहे",
      "र</w>"
    ],
    [
      "सा",
      "ज"
    ],
    [
      "नगर",
      "पाल"
    ],
    [
      "तथा",
      "पि"
    ],
    [
      "ब",
      "ा</w>"
    ],
    [
      "द",
      "ार</w>"
    ],
    [
      "प्रदर्श",
      "ित</w>"
    ],
    [
      "मू",
      "ल"
    ],
    [
      "तथापि",
      ",</w>"
    ],
    [
      "प्",
      "प"
    ],
    [
      "आध",
      "ार"
    ],
    [
      "ु",
      "क"
    ],
    [
      "आवश्य",
      "क</w>"
    ],
    [
      "ता",
      ".</w>"
    ],
    [
      "सार",
      ",</w>"
    ],
    [
      "दृ",
      "ष्ट"
    ],
    [
      "स्",
      "वर"
    ],
    [
      "त",
      "ार"
    ],
    [
      "संबंध",
      "ित</w>"
    ],
    [
      "ले",
      "ख"
    ],
    [
      "\"",
      "</w>"
    ],
    [
      "अ",
      "ं"
    ],
    [
      "ः",
      "</w>"
    ],
    [
      "म्ह",
      "ट"
    ],
    [
      "१",
      "०</w>"
    ],
    [
      "ह",
      "ात"
    ],
    [
      "निर्मा",
      "ण</w>"
    ],
    [
      "राज्या",
      "तील</w>"
    ],
    [
      "स",
      "न</w>"
    ],
    [
      "सम",
      "स"
    ],
    [
      "ू",
      "न,</w>"
    ],
    [
      "दिल",
      "्"
    ],
    [
      "ती",
      "त</w>"
    ],
    [
      "थ",
      "े"
    ],
    [
      "१९",
      "४"
    ],
    [
      "ह",
      "ंगा"
    ],
    [
      "१",
      "०"
    ],
    [
      "साठ",
      "ी"
    ],
    [
      "य",
      "श"
    ],
    [
      "स",
      "प्"
    ],
    [
      "य",
      "ाला</w>"
    ],
    [
      "नाहीत",
      ".</w>"
    ],
    [
      "प",
      "ट्"
    ],
    [
      "विशे",
      "ष"
    ],
    [
      "वे",
      "ळ"
    ],
    [
      "पो",
      "हो"
    ],
    [
      "व",
      "ून</w>"
    ],
    [
      "न्",
      "न"
    ],
    [
      "फ",
      "क्त</w>"
    ],
    [
      "विद्या",
      "पीठ"
    ],
    [
      "ने",
      ",</w>"
    ],
    [
      "व",
      "त</w>"
    ],
    [
      "कड",
      "ील</w>"
    ],
    [
      "मृत्य",
      "ू</w>"
    ],
    [
      "कर",
      "तो.</w>"
    ],
    [
      "फो",
      "र्"
    ],
    [
      "१",
      "७"
    ],
    [
      "राज",
      "्य"
    ],
    [
      "न",
      "ै"
    ],
    [
      "नु",
      "सार,</w>"
    ],
    [
      "त",
      "ून</w>"
    ],
    [
      "़",
      "्या</w>"
    ],
    [
      "ी",
      "र</w>"
    ],
    [
      "दे",
      "व"
    ],
    [
      "च",
      "ो"
    ],
    [
      "आ",
      "र्"
    ],
    [
      "’",
      "</w>"
    ],
    [
      "आय",
      "."
    ],
    [
      "स्",
      "वा"
    ],
    [
      "क",
      "ला"
    ],
    [
      "स",
      "ार्"
    ],
    [
      "व्या",
      "वसा"
    ],
    [
      "भू",
      "त</w>"
    ],
    [
      "संग",
      "ीत</w>"
    ],
    [
      "एक",
      "मे"
    ],
    [
      "परिणा",
      "म</w>"
    ],
    [
      "म",
      "ंड"
    ],
    [
      "साठ",
      "ी,</w>"
    ],
    [
      "इ",
      "त"
    ],
    [
      "घ",
      "ात"
    ],
    [
      "कां",
      "ना</w>"
    ],
    [
      "मोठ",
      "ा</w>"
    ],
    [
      "रा",
      "हिल"
    ],
    [
      "ब्र",
      "ु"
    ],
    [
      "सं",
      "रक्ष"
    ],
    [
      "पा",
      "ह"
    ],
    [
      "कोण",
      "त्या"
    ],
    [
      "व",
      "ॉ"
    ],
    [
      "ज",
      "पा"
    ],
    [
      "अ",
      "ंदा"
    ],
    [
      "का",
      "म"
    ],
    [
      "ख",
      "ु"
    ],
    [
      "पद",
      "ार्थ"
    ],
    [
      "ंट",
      "र"
    ],
    [
      "स",
      "ॉ"
    ],
    [
      "क",
      "धी"
    ],
    [
      "पोहो",
      "च"
    ],
    [
      "ल",
      "ंब"
    ],
    [
      "अमेरिक",
      "ेच्या</w>"
    ],
    [
      "ए",
      "फ"
    ],
    [
      "ग",
      "त</w>"
    ],
    [
      "जाग",
      "तिक</w>"
    ],
    [
      "पश्चि",
      "म</w>"
    ],
    [
      "ू",
      "ण</w>"
    ],
    [
      "कोणत्या",
      "ही</w>"
    ],
    [
      "क",
      "ौ"
    ],
    [
      "आ",
      "न"
    ],
    [
      "पूर्",
      "व</w>"
    ],
    [
      "प्रमा",
      "णात</w>"
    ],
    [
      "न्",
      "न</w>"
    ],
    [
      "ह",
      "ल्"
    ],
    [
      "आ",
      "र्थ"
    ],
    [
      "जाने",
      "वारी</w>"
    ],
    [
      "विक",
      "स"
    ],
    [
      "स",
      "च्या</w>"
    ],
    [
      "निय",
      "ंत्र"
    ],
    [
      "नो",
      "ंद"
    ],
    [
      "ी",
      "ला</w>"
    ],
    [
      "पर्य",
      "ंत"
    ],
    [
      "ला",
      "इ"
    ],
    [
      "न",
      "्य</w>"
    ],
    [
      "ऑ",
      "लि"
    ],
    [
      "ज",
      "ार"
    ],
    [
      "मोठ",
      "े</w>"
    ],
    [
      "प्र",
      "ो"
    ],
    [
      "क",
      "ी,</w>"
    ],
    [
      "माहि",
      "ती</w>"
    ],
    [
      "हो",
      "ई"
    ],
    [
      "लि",
      "हिल"
    ],
    [
      ".एस",
      "."
    ],
    [
      "ट्",
      "स</w>"
    ],
    [
      "त",
      "से"
    ],
    [
      "वि",
      "ष्ट</w>"
    ],
    [
      "सर्व",
      "ोत्"
    ],
    [
      "शह",
      "र"
    ],
    [
      "यु",
      "नाय"
    ],
    [
      "से",
      "वा</w>"
    ],
    [
      "कार",
      "ा"
    ],
    [
      "ना",
      ",</w>"
    ],
    [
      "दि",
      "ग्"
    ],
    [
      "बहु",
      "तां"
    ],
    [
      "प्र",
      "देशा"
    ],
    [
      "त्र",
      "ि"
    ],
    [
      "स्थाप",
      "ना</w>"
    ],
    [
      "पर",
      "त</w>"
    ],
    [
      "ट",
      "े</w>"
    ],
    [
      "न",
      "ां"
    ],
    [
      "कर",
      "ा.</w>"
    ],
    [
      "भ",
      "ो"
    ],
    [
      "तिहा",
      "स"
    ],
    [
      "खरे",
      "दी</w>"
    ],
    [
      "मु",
      "ळ"
    ],
    [
      "ध",
      "िक</w>"
    ],
    [
      "अस",
      "ताना</w>"
    ],
    [
      "प्र",
      "शिक्ष"
    ],
    [
      "गो",
      "ल"
    ],
    [
      "प्र",
      "कार</w>"
    ],
    [
      "्र",
      "ि"
    ],
    [
      "ज्या",
      "त</w>"
    ],
    [
      "बो",
      "ल"
    ],
    [
      "य",
      "ी</w>"
    ],
    [
      "करण्या",
      "स</w>"
    ],
    [
      "झ",
      "ो"
    ],
    [
      "भारता",
      "च्या</w>"
    ],
    [
      "विरु",
      "द्ध</w>"
    ],
    [
      "वि",
      "रो"
    ],
    [
      "्य",
      "ता</w>"
    ],
    [
      "ऑस्ट्र",
      "ेलि"
    ],
    [
      "ण",
      "ि"
    ],
    [
      "ब",
      "ंग"
    ],
    [
      "ने",
      "ट"
    ],
    [
      "सा",
      "त</w>"
    ],
    [
      "दिव",
      "शी</w>"
    ],
    [
      "म",
      "ंत्र"
    ],
    [
      "मू",
      "ळ</w>"
    ],
    [
      "रो",
      "ख"
    ],
    [
      "ण",
      "े,</w>"
    ],
    [
      "छ",
      "ो"
    ],
    [
      "%",
      "</w>"
    ],
    [
      "मि",
      "नि"
    ],
    [
      "ब",
      "ंद</w>"
    ],
    [
      "प्र",
      "ण"
    ],
    [
      "स",
      "ी.</w>"
    ],
    [
      "का",
      "ळ</w>"
    ],
    [
      "म्हट",
      "ले</w>"
    ],
    [
      "अभ",
      "्या"
    ],
    [
      "एक",
      "ूण</w>"
    ],
    [
      "स",
      "ने</w>"
    ],
    [
      "दु",
      "र्"
    ],
    [
      "्यां",
      "ची</w>"
    ],
    [
      "पा",
      "च</w>"
    ],
    [
      ";",
      "</w>"
    ],
    [
      "कर",
      "णा"
    ],
    [
      "गो",
      "ष्ट"
    ],
    [
      "ना",
      "ग"
    ],
    [
      "स्था",
      "न</w>"
    ],
    [
      "तु",
      "ल"
    ],
    [
      "ख",
      "ंड"
    ],
    [
      "शेव",
      "ट"
    ],
    [
      "वे",
      "ळा</w>"
    ],
    [
      "द",
      "्या</w>"
    ],
    [
      "न",
      "ॅ"
    ],
    [
      "ए",
      "म"
    ],
    [
      "समा",
      "विष्ट</w>"
    ],
    [
      "ब",
      "ंद"
    ],
    [
      "न",
      "ृ"
    ],
    [
      "ऑ",
      "ग"
    ],
    [
      "मार्",
      "च</w>"
    ],
    [
      "प",
      "ृ"
    ],
    [
      "ती",
      "ने</w>"
    ],
    [
      "कर",
      "ता</w>"
    ],
    [
      "ग",
      "ड"
    ],
    [
      "इंग",
      "्"
    ],
    [
      "युनाय",
      "टेड</w>"
    ],
    [
      "मा",
      "य"
    ],
    [
      "र",
      "स्"
    ],
    [
      "ह",
      "वा"
    ],
    [
      "करण्या",
      "चा</w>"
    ],
    [
      "दिव",
      "स</w>"
    ],
    [
      "वि",
      "शि"
    ],
    [
      "नो",
      "व्हे"
    ],
    [
      "साम",
      "ना</w>"
    ],
    [
      "ग",
      "र्"
    ],
    [
      "सामान्य",
      "तः</w>"
    ],
    [
      "न",
      "ला</w>"
    ],
    [
      "स्व",
      "ी</w>"
    ],
    [
      "पहिल",
      "े</w>"
    ],
    [
      "मी",
      "टर</w>"
    ],
    [
      "विकस",
      "ित</w>"
    ],
    [
      "स",
      "र</w>"
    ],
    [
      "!",
      "</w>"
    ],
    [
      "व",
      "ले.</w>"
    ],
    [
      "े",
      "ही</w>"
    ],
    [
      "वस्त",
      "ू</w>"
    ],
    [
      "आ",
      "शि"
    ],
    [
      "रु",
      "ग्"
    ],
    [
      "वेगवेग",
      "ळ्या</w>"
    ],
    [
      "विशि",
      "ष्ट</w>"
    ],
    [
      "उदाहर",
      "ण"
    ],
    [
      "ग",
      "ृ"
    ],
    [
      "०",
      "च्या</w>"
    ],
    [
      "१",
      "५"
    ],
    [
      "औ",
      "ष"
    ],
    [
      "अध",
      "्य"
    ],
    [
      "वा",
      "च"
    ],
    [
      "ऑक्",
      "टो"
    ],
    [
      "आयोज",
      "ित</w>"
    ],
    [
      "श्",
      "च"
    ],
    [
      "सै",
      "न्या"
    ],
    [
      "ल",
      "ग्"
    ],
    [
      "सप्",
      "टे"
    ],
    [
      "हो",
      "त्या"
    ],
    [
      "ब",
      "ार"
    ],
    [
      "मंदि",
      "र</w>"
    ],
    [
      "क्षेत",
      "्र</w>"
    ],
    [
      "वर्ष",
      "ां"
    ],
    [
      "डि",
      "से"
    ],
    [
      "य",
      "ातील</w>"
    ],
    [
      "फुट",
      "बॉल</w>"
    ],
    [
      "न",
      "दी</w>"
    ],
    [
      "विज",
      "ेत"
    ],
    [
      "त्या",
      "च्या"
    ],
    [
      "प",
      "ॉ"
    ],
    [
      "पु",
      "रा"
    ],
    [
      "करण्या",
      "ची</w>"
    ],
    [
      "पो",
      "लि"
    ],
    [
      "होत",
      "ी</w>"
    ],
    [
      "बहुतां",
      "श</w>"
    ],
    [
      "मा",
      "त</w>"
    ],
    [
      "क",
      ",</w>"
    ],
    [
      "प्र",
      "देश</w>"
    ],
    [
      "१",
      "६"
    ],
    [
      "स्थाप",
      "न</w>"
    ],
    [
      "क",
      "दा</w>"
    ],
    [
      "म्हण",
      "तात.</w>"
    ],
    [
      "३",
      "०</w>"
    ],
    [
      "व्ह",
      "</w>"
    ],
    [
      "हि",
      "वा"
    ],
    [
      "फ",
      "्रा"
    ],
    [
      "इ",
      "ं"
    ],
    [
      "व्यावसा",
      "यिक</w>"
    ],
    [
      "रा",
      "वर</w>"
    ],
    [
      "श्र",
      "े"
    ],
    [
      "प्र",
      "ां"
    ],
    [
      "जि",
      "थे</w>"
    ],
    [
      "क्र",
      "मां"
    ],
    [
      "ध",
      "्व"
    ],
    [
      "वे",
      "ळ</w>"
    ],
    [
      "च",
      "ीन</w>"
    ],
    [
      "स",
      "ॅ"
    ],
    [
      "्यां",
      "चा</w>"
    ],
    [
      "कर",
      "ी</w>"
    ],
    [
      "वि",
      "भाग"
    ],
    [
      "उप",
      "चार</w>"
    ],
    [
      "अस",
      "े.</w>"
    ],
    [
      "आर्थ",
      "िक</w>"
    ],
    [
      "अ",
      "सा"
    ],
    [
      "क्र",
      "ो"
    ],
    [
      "मध्य",
      "</w>"
    ],
    [
      "ल",
      "ब्"
    ],
    [
      "यश",
      "स्वी</w>"
    ],
    [
      "उ",
      "ल्"
    ],
    [
      "ल्या",
      "नंतर</w>"
    ],
    [
      "मान",
      "ले</w>"
    ],
    [
      "सर्",
      "वा"
    ],
    [
      "कुटु",
      "ंब"
    ],
    [
      "अर्थ",
      "</w>"
    ],
    [
      "पर",
      "्या"
    ],
    [
      "स",
      "रा"
    ],
    [
      "कर",
      "ाय"
    ],
    [
      "न",
      "चा</w>"
    ],
    [
      "प्रका",
      "श"
    ],
    [
      "उप",
      "लब्"
    ],
    [
      "पुरस्",
      "कार</w>"
    ],
    [
      "सा",
      "मा"
    ],
    [
      "ण",
      "पणे</w>"
    ],
    [
      "कंप",
      "नी"
    ],
    [
      "वा",
      "द</w>"
    ],
    [
      "गु",
      "ण"
    ],
    [
      "छ",
      "ा"
    ],
    [
      "बं",
      "ध</w>"
    ],
    [
      "होत",
      "ा,</w>"
    ],
    [
      "आठ",
      "वड"
    ],
    [
      "दिग्",
      "दर्श"
    ],
    [
      "जात",
      "े</w>"
    ],
    [
      "राज",
      "ा</w>"
    ],
    [
      "सर्वा",
      "धिक</w>"
    ],
    [
      "क",
      "ॉर्"
    ],
    [
      "भ",
      "व</w>"
    ],
    [
      "जु",
      "लै"
    ],
    [
      "जाग",
      "ा</w>"
    ],
    [
      "च",
      "ल"
    ],
    [
      "मात",
      "्र"
    ],
    [
      "ए",
      "का"
    ],
    [
      "अस",
      "ेल</w>"
    ],
    [
      "लक्ष",
      "</w>"
    ],
    [
      "शक",
      "त</w>"
    ],
    [
      "सारख",
      "े</w>"
    ],
    [
      "गेल",
      "ा.</w>"
    ],
    [
      "ह",
      "्या"
    ],
    [
      "ऑलि",
      "म्प"
    ],
    [
      "निर्",
      "ण"
    ],
    [
      "ज",
      "ल"
    ],
    [
      "ेल",
      ",</w>"
    ],
    [
      "सं",
      "स्कृ"
    ],
    [
      "भ",
      "ी"
    ],
    [
      "फे",
      "ब्रु"
    ],
    [
      "प्रति",
      "निध"
    ],
    [
      "धा",
      "न</w>"
    ],
    [
      "आधार",
      "ित</w>"
    ],
    [
      "स",
      "ौ"
    ],
    [
      "का",
      "उं"
    ],
    [
      "वा",
      "न</w>"
    ],
    [
      "ब्रि",
      "टि"
    ],
    [
      "तसे",
      "च</w>"
    ],
    [
      "स",
      "ल्"
    ],
    [
      "्यां",
      "चे</w>"
    ],
    [
      "चे",
      "ंड"
    ],
    [
      "ग्रा",
      "ह"
    ],
    [
      "सं",
      "प"
    ],
    [
      "श",
      "िक"
    ],
    [
      "न्ह",
      "ा"
    ],
    [
      "ग्र",
      "ी"
    ],
    [
      "ि",
      "या</w>"
    ],
    [
      "नोव्हे",
      "ंबर</w>"
    ],
    [
      "अस",
      "लेला</w>"
    ],
    [
      "ात्र",
      "ी</w>"
    ],
    [
      "र्",
      "स</w>"
    ],
    [
      "पा",
      "हि"
    ],
    [
      "ऑग",
      "स्ट</w>"
    ],
    [
      "काल",
      "ाव"
    ],
    [
      "सु",
      "धार"
    ],
    [
      "उदाहरण",
      "ार्थ"
    ],
    [
      "य",
      "क</w>"
    ],
    [
      "व",
      "न"
    ],
    [
      "दू",
      "र"
    ],
    [
      "व",
      "ाल"
    ],
    [
      "न",
      "्या</w>"
    ],
    [
      "योग",
      "्य</w>"
    ],
    [
      "व्य",
      "वसा"
    ],
    [
      "िल",
      "ो"
    ],
    [
      "ए",
      "प्रि"
    ],
    [
      "एप्रि",
      "ल</w>"
    ],
    [
      "द्ध",
      "ा</w>"
    ],
    [
      "इंग",
      "्र"
    ],
    [
      "ध",
      "ि"
    ],
    [
      "च",
      "ु"
    ],
    [
      "१",
      "२</w>"
    ],
    [
      "न्या",
      "य"
    ],
    [
      "होत्या",
      ".</w>"
    ],
    [
      "द्य",
      "ो"
    ],
    [
      "ना",
      "चा</w>"
    ],
    [
      "वि",
      "मान"
    ],
    [
      "फ्र",
      "े"
    ],
    [
      "घो",
      "ष"
    ],
    [
      "म",
      "रा"
    ],
    [
      "म",
      "हिल"
    ],
    [
      "संख",
      "्य"
    ],
    [
      "वापर",
      "ले</w>"
    ],
    [
      "साम्रा",
      "ज्या"
    ],
    [
      "श्र",
      "ी"
    ],
    [
      "स्थ",
      "ित</w>"
    ],
    [
      "स",
      "त्"
    ],
    [
      "ख",
      "ात"
    ],
    [
      "उत्",
      "तर"
    ],
    [
      "सं",
      "सर्"
    ],
    [
      "वा",
      "ई"
    ],
    [
      "शि",
      "वा"
    ],
    [
      "म",
      "च्या</w>"
    ],
    [
      "श",
      "क्"
    ],
    [
      "न",
      "दी"
    ],
    [
      "वर्",
      "त"
    ],
    [
      "अस",
      "लेली</w>"
    ],
    [
      "व्यक्",
      "ती"
    ],
    [
      "व",
      "ार</w>"
    ],
    [
      "श",
      "स्त्र"
    ],
    [
      "ंद",
      "्र</w>"
    ],
    [
      "ां",
      "ब"
    ],
    [
      "नेत",
      "ृत्"
    ],
    [
      "२०",
      "२०</w>"
    ],
    [
      "र्",
      "स"
    ],
    [
      "ल",
      "िं"
    ],
    [
      "ां",
      "त"
    ],
    [
      "्या",
      "चे</w>"
    ],
    [
      "अ",
      "ड"
    ],
    [
      "भ",
      "व"
    ],
    [
      "उपलब्",
      "ध</w>"
    ],
    [
      "मृत्य",
      "ू"
    ],
    [
      "णू",
      "क</w>"
    ],
    [
      "राज",
      "धा"
    ],
    [
      "बरो",
      "बर</w>"
    ],
    [
      "ऑक्टो",
      "बर</w>"
    ],
    [
      "क",
      "धी</w>"
    ],
    [
      "कर",
      "णाऱ्या</w>"
    ],
    [
      "ओळख",
      "ले</w>"
    ],
    [
      "क",
      "ला</w>"
    ],
    [
      "अस",
      "ून</w>"
    ],
    [
      "गा",
      "ने</w>"
    ],
    [
      "डिसे",
      "ंबर</w>"
    ],
    [
      "सा",
      "पड"
    ],
    [
      "सप्टे",
      "ंबर</w>"
    ],
    [
      "मार्",
      "ग"
    ],
    [
      "ब",
      "घ"
    ],
    [
      "रि",
      "क्त</w>"
    ],
    [
      "ड",
      "ब्ल"
    ],
    [
      "क",
      "न</w>"
    ],
    [
      "१",
      "५</w>"
    ],
    [
      "ल",
      "ी,</w>"
    ],
    [
      "अ",
      "ग"
    ],
    [
      "प्रा",
      "चीन</w>"
    ],
    [
      "ं",
      "ज"
    ],
    [
      "चा",
      "च"
    ],
    [
      "?",
      "</w>"
    ],
    [
      "वि",
      "वाह"
    ],
    [
      "साम",
      "न्या"
    ],
    [
      "फ",
      "ार"
    ],
    [
      "श",
      "य</w>"
    ],
    [
      "या",
      "मध्ये</w>"
    ],
    [
      "खर्",
      "च</w>"
    ],
    [
      "स्व",
      "त"
    ],
    [
      "स्थि",
      "ती</w>"
    ],
    [
      "सांगित",
      "ले</w>"
    ],
    [
      "र",
      "ेल्"
    ],
    [
      "ट",
      "िक"
    ],
    [
      "खेळाड",
      "ूं"
    ],
    [
      "जुलै",
      "</w>"
    ],
    [
      "वे",
      "द"
    ],
    [
      "भ",
      "ि"
    ],
    [
      "एखा",
      "द्या</w>"
    ],
    [
      "इ",
      "ंटर"
    ],
    [
      "क",
      "ळ"
    ],
    [
      "शा",
      "ळ"
    ],
    [
      "कंप",
      "नी</w>"
    ],
    [
      "घ",
      "र"
    ],
    [
      "अने",
      "कदा</w>"
    ],
    [
      "पा",
      "य"
    ],
    [
      "व",
      "ली</w>"
    ],
    [
      "ज",
      "री</w>"
    ],
    [
      "त्",
      "व"
    ],
    [
      "साज",
      "रा</w>"
    ],
    [
      "नि",
      "व"
    ],
    [
      "भार",
      "तात</w>"
    ],
    [
      "जै",
      "न</w>"
    ],
    [
      "ख",
      "्रि"
    ],
    [
      "उत्",
      "स"
    ],
    [
      "शक",
      "ता.</w>"
    ],
    [
      "प",
      "ी</w>"
    ],
    [
      "ध",
      "र"
    ],
    [
      "ॉ",
      "न</w>"
    ],
    [
      "उ",
      "च्च</w>"
    ],
    [
      "फेब्रु",
      "वारी</w>"
    ],
    [
      "न",
      "ार"
    ],
    [
      "ठ",
      "ा"
    ],
    [
      "काळ",
      "ा"
    ],
    [
      "कॅ",
      "न"
    ],
    [
      "पहिल",
      "ी</w>"
    ],
    [
      "जिल्ह",
      "्यातील</w>"
    ],
    [
      "संग",
      "ण"
    ],
    [
      "मोठ",
      "ी</w>"
    ],
    [
      "ण",
      "ु"
    ],
    [
      "ब",
      "ाल"
    ],
    [
      "कथ",
      "ा</w>"
    ],
    [
      "भाष",
      "ा</w>"
    ],
    [
      "ती",
      "ल.</w>"
    ],
    [
      "स",
      "मध्ये</w>"
    ],
    [
      "श",
      "ेत"
    ],
    [
      "क",
      "ेत"
    ],
    [
      "पो",
      "र्"
    ],
    [
      "फ",
      "ाय"
    ],
    [
      "मा",
      "ध्य"
    ],
    [
      "मात्र",
      ",</w>"
    ],
    [
      "अध",
      "िक"
    ],
    [
      "ू",
      "क</w>"
    ],
    [
      "‍",
      "या</w>"
    ],
    [
      "लढ",
      "ा"
    ],
    [
      "कर",
      "तात</w>"
    ],
    [
      "डब्ल",
      "्यू"
    ],
    [
      "श",
      "री"
    ],
    [
      "व",
      "ार्"
    ],
    [
      "के",
      "र"
    ],
    [
      "्या",
      "ल"
    ],
    [
      "त्",
      "वा"
    ],
    [
      "क्रि",
      "या</w>"
    ],
    [
      "व्यव",
      "स्थ"
    ],
    [
      "साम",
      "ने</w>"
    ],
    [
      "विशे",
      "ष</w>"
    ],
    [
      "२०१",
      "४</w>"
    ],
    [
      "झ",
      "े"
    ],
    [
      "अभि",
      "नेत"
    ],
    [
      "ो",
      ",</w>"
    ],
    [
      "पु",
      "स्त"
    ],
    [
      "म",
      "हिला</w>"
    ],
    [
      "न",
      "ौ"
    ],
    [
      "ह",
      "ळ"
    ],
    [
      "व्यक्",
      "ती</w>"
    ],
    [
      "वि",
      "चार</w>"
    ],
    [
      "फ",
      "र"
    ],
    [
      "दिल",
      "ी</w>"
    ],
    [
      "इ",
      "ट"
    ],
    [
      "ि",
      "म</w>"
    ],
    [
      "गा",
      "व"
    ],
    [
      "भे",
      "ट"
    ],
    [
      "निर्मि",
      "ती</w>"
    ],
    [
      "लोक",
      "संख्या</w>"
    ],
    [
      "व्ह",
      "र्"
    ],
    [
      "ता",
      ",</w>"
    ],
    [
      "म",
      "मध्ये</w>"
    ],
    [
      "स्",
      "ति"
    ],
    [
      "व्ह",
      "ी"
    ],
    [
      "ृ",
      "त</w>"
    ],
    [
      "अ",
      "खे"
    ],
    [
      "त",
      "म</w>"
    ],
    [
      "न",
      "र</w>"
    ],
    [
      "ल",
      "ष्"
    ],
    [
      "झ",
      "ी"
    ],
    [
      "प्रकार",
      "े</w>"
    ],
    [
      "गेल",
      "ा</w>"
    ],
    [
      "ब",
      "द्ध</w>"
    ],
    [
      "ंद",
      "ा</w>"
    ],
    [
      "२०१",
      "०</w>"
    ],
    [
      "वर्ष",
      "े</w>"
    ],
    [
      "ज्या",
      "मध्ये</w>"
    ],
    [
      "य",
      "े</w>"
    ],
    [
      "व",
      "ृ"
    ],
    [
      "स्वी",
      "ड"
    ],
    [
      "मै",
      "दा"
    ],
    [
      "नावा",
      "च्या</w>"
    ],
    [
      "च",
      "ॅ"
    ],
    [
      "ट",
      "ॅ"
    ],
    [
      "कि",
      "स्ता"
    ],
    [
      "वि",
      "स्त"
    ],
    [
      "दी",
      "र्"
    ],
    [
      "ज्या",
      "ला</w>"
    ],
    [
      "२०",
      "१९</w>"
    ],
    [
      "म",
      "त</w>"
    ],
    [
      "पुर",
      "व"
    ],
    [
      "ग",
      "ट"
    ],
    [
      "स्वी",
      "कार"
    ],
    [
      "केल",
      "्या</w>"
    ],
    [
      "ध",
      "ा</w>"
    ],
    [
      "नु",
      "क"
    ],
    [
      "ना",
      "वर</w>"
    ],
    [
      "अंत",
      "िम</w>"
    ],
    [
      "ठ",
      "ी"
    ],
    [
      "आध",
      "ी</w>"
    ],
    [
      "ला",
      "य"
    ],
    [
      "व",
      "ण्यात</w>"
    ],
    [
      "कर",
      "ो"
    ],
    [
      "वि",
      "क</w>"
    ],
    [
      "ल्या",
      ".</w>"
    ],
    [
      ".ए",
      "फ"
    ],
    [
      "पं",
      "जा"
    ],
    [
      ".ए",
      "."
    ],
    [
      "ठिका",
      "णी</w>"
    ],
    [
      "विष",
      "ा"
    ],
    [
      "श",
      "र्य"
    ],
    [
      "फ",
      "िल्"
    ],
    [
      "विश्",
      "व"
    ],
    [
      "ष",
      "क</w>"
    ],
    [
      "प्र",
      "वा"
    ],
    [
      "का",
      "मा"
    ],
    [
      "य",
      "र</w>"
    ],
    [
      "सु",
      "द्धा</w>"
    ],
    [
      "रुग्",
      "ण"
    ],
    [
      "ट",
      "्या</w>"
    ],
    [
      "फ्",
      "ट"
    ],
    [
      "उ",
      "न्हा"
    ],
    [
      "व",
      "ळ"
    ],
    [
      "कां",
      "नी</w>"
    ],
    [
      "ग",
      "ळ"
    ],
    [
      "तुम",
      "चे</w>"
    ],
    [
      "मुल",
      "गा</w>"
    ],
    [
      "दुसर",
      "ा</w>"
    ],
    [
      "इंग्",
      "लंड"
    ],
    [
      "च",
      ",</w>"
    ],
    [
      "पर",
      "वा"
    ],
    [
      "वा",
      "दी</w>"
    ],
    [
      "पहिल",
      "्या"
    ],
    [
      "म",
      ",</w>"
    ],
    [
      "प्र",
      "शास"
    ],
    [
      "ा",
      "चे</w>"
    ],
    [
      "आ",
      "वड"
    ],
    [
      "अ",
      "जिंक"
    ],
    [
      "ल",
      "ं"
    ],
    [
      "संग",
      "ी"
    ],
    [
      "सा",
      "दर</w>"
    ],
    [
      "तुम",
      "च्या"
    ],
    [
      "स्था",
      "न"
    ],
    [
      "आह",
      "े"
    ],
    [
      "ने",
      "ह"
    ],
    [
      "गुंत",
      "व"
    ],
    [
      ".",
      "सी."
    ],
    [
      "ट",
      "क्"
    ],
    [
      "ह",
      "ाल"
    ],
    [
      "उदाहरणार्थ",
      ",</w>"
    ],
    [
      "विशेष",
      "तः</w>"
    ],
    [
      "स",
      "ात"
    ],
    [
      "दीर्",
      "घ"
    ],
    [
      "ी",
      "चा</w>"
    ],
    [
      "अग",
      "दी</w>"
    ],
    [
      "घे",
      "ऊन</w>"
    ],
    [
      "वि",
      "चार"
    ],
    [
      "१",
      "२"
    ],
    [
      "कृ",
      "ष्ट</w>"
    ],
    [
      "अजिंक",
      "्य"
    ],
    [
      "ब",
      "ौ"
    ],
    [
      "ऐ",
      "व"
    ],
    [
      "झ",
      "</w>"
    ],
    [
      "ग्र",
      "ं"
    ],
    [
      "सार्",
      "वज"
    ],
    [
      "आव",
      "ृत्"
    ],
    [
      "क",
      "मा"
    ],
    [
      "झ",
      "ि"
    ],
    [
      "भ",
      "र</w>"
    ],
    [
      "प्र",
      "वेश</w>"
    ],
    [
      "पू",
      "र"
    ],
    [
      "फ",
      "ू"
    ],
    [
      "कल्प",
      "ना</w>"
    ],
    [
      "्या",
      "वर</w>"
    ],
    [
      "वि",
      "का"
    ],
    [
      "चाल",
      "व"
    ],
    [
      "राह",
      "त</w>"
    ],
    [
      "अस",
      "तात</w>"
    ],
    [
      "ति",
      "चे</w>"
    ],
    [
      "भाग",
      "ी</w>"
    ],
    [
      "होत",
      "ी,</w>"
    ],
    [
      "ल",
      "र</w>"
    ],
    [
      "केल",
      "ेले</w>"
    ],
    [
      "ती",
      "चे</w>"
    ],
    [
      "दि",
      "ला</w>"
    ],
    [
      "५",
      "०</w>"
    ],
    [
      "त",
      ".</w>"
    ],
    [
      "ड",
      "ु"
    ],
    [
      "हा",
      "त</w>"
    ],
    [
      "क",
      "ता</w>"
    ],
    [
      "काल",
      "ीन</w>"
    ],
    [
      "स्पर्ध",
      "ेत</w>"
    ],
    [
      "२०१",
      "३</w>"
    ],
    [
      "ली",
      "ग"
    ],
    [
      "क्ष",
      "म"
    ],
    [
      "कर्",
      "म"
    ],
    [
      "वर्ण",
      "न</w>"
    ],
    [
      "१",
      "४</w>"
    ],
    [
      "पुरु",
      "ष"
    ],
    [
      "प्रकाश",
      "ित</w>"
    ],
    [
      "ल",
      "च्या</w>"
    ],
    [
      "२०१",
      "१</w>"
    ],
    [
      "पा",
      "किस्ता"
    ],
    [
      "दिल",
      "े.</w>"
    ],
    [
      "ण",
      "ने"
    ],
    [
      "रा",
      "ख"
    ],
    [
      "आ",
      "यो"
    ],
    [
      "कि",
      "र्"
    ],
    [
      "शि",
      "ष्ट"
    ],
    [
      "न",
      "ही</w>"
    ],
    [
      "य",
      "ला</w>"
    ],
    [
      "अस",
      "ते</w>"
    ],
    [
      "सा",
      "हि"
    ],
    [
      "कां",
      "च्या</w>"
    ],
    [
      "रच",
      "ना</w>"
    ],
    [
      "प",
      "ौ"
    ],
    [
      "२०१",
      "७</w>"
    ],
    [
      "ना",
      "चे</w>"
    ],
    [
      "यां",
      "ची</w>"
    ],
    [
      "१",
      "१</w>"
    ],
    [
      "र",
      "ात"
    ],
    [
      "णा",
      "च्या</w>"
    ],
    [
      "नाह",
      "ी,</w>"
    ],
    [
      "उ",
      "घड"
    ],
    [
      "मिनि",
      "ट"
    ],
    [
      "र",
      "ण"
    ],
    [
      "लो",
      "</w>"
    ],
    [
      "को",
      "टी</w>"
    ],
    [
      "रक्",
      "त"
    ],
    [
      "स",
      "हा</w>"
    ],
    [
      "ब्रिटि",
      "श</w>"
    ],
    [
      "आध",
      "ु"
    ],
    [
      "भ",
      "</w>"
    ],
    [
      "१",
      "८</w>"
    ],
    [
      "गेल",
      "ी</w>"
    ],
    [
      "ज",
      "नग"
    ],
    [
      "१९",
      "३"
    ],
    [
      "माग",
      "े</w>"
    ],
    [
      "को",
      "</w>"
    ],
    [
      "पर्यंत",
      ",</w>"
    ],
    [
      "पा",
      "णी</w>"
    ],
    [
      "प",
      "दा"
    ],
    [
      "न्याय",
      "ाल"
    ],
    [
      "जर्",
      "म"
    ],
    [
      "मि",
      "त</w>"
    ],
    [
      "जवळ",
      "जवळ</w>"
    ],
    [
      "लग्",
      "न</w>"
    ],
    [
      "ग",
      "ॅ"
    ],
    [
      "का",
      "ँ"
    ],
    [
      "चित्रपट",
      "ात</w>"
    ],
    [
      "ि",
      "यन</w>"
    ],
    [
      "पर",
      "ंपर"
    ],
    [
      "मर",
      "्या"
    ],
    [
      "ी",
      "चे</w>"
    ],
    [
      "ज",
      "ंग"
    ],
    [
      "होत",
      "ात.</w>"
    ],
    [
      "भे",
      "ट</w>"
    ],
    [
      "ी",
      "ची</w>"
    ],
    [
      "ू",
      "च्या</w>"
    ],
    [
      "आ",
      "त्"
    ],
    [
      "री",
      "त</w>"
    ],
    [
      "२",
      "५</w>"
    ],
    [
      "कर्",
      "करो"
    ],
    [
      "स्",
      "लि"
    ],
    [
      "घेत",
      "ला.</w>"
    ],
    [
      "ति",
      "चा</w>"
    ],
    [
      "येत",
      "े.</w>"
    ],
    [
      "२०१",
      "२</w>"
    ],
    [
      "विमान",
      "त"
    ],
    [
      "घ",
      "रा"
    ],
    [
      "आ",
      "क्रम"
    ],
    [
      "मह",
      "ारा"
    ],
    [
      "महि",
      "न्या"
    ],
    [
      "त",
      ":</w>"
    ],
    [
      "ज",
      "न</w>"
    ],
    [
      "ध",
      "ात</w>"
    ],
    [
      "एक",
      "त्र</w>"
    ],
    [
      "का",
      "य</w>"
    ],
    [
      "दिव",
      "सां"
    ],
    [
      "क",
      "ल</w>"
    ],
    [
      "२०१",
      "८</w>"
    ],
    [
      "ता",
      "प"
    ],
    [
      "ब",
      "ऱ्या"
    ],
    [
      "१",
      "६</w>"
    ],
    [
      "म",
      "ल"
    ],
    [
      "ग",
      "ी</w>"
    ],
    [
      "गा",
      "च्या</w>"
    ],
    [
      "घ",
      "्या"
    ],
    [
      "ले",
      "ख</w>"
    ],
    [
      "क",
      "दा"
    ],
    [
      "प्रकार",
      "च्या</w>"
    ],
    [
      "परा",
      "भव</w>"
    ],
    [
      "पुन",
      "र्"
    ],
    [
      "मुळ",
      "े,</w>"
    ],
    [
      "त",
      "पणे</w>"
    ],
    [
      "अंत",
      "र्"
    ],
    [
      "वै",
      "शिष्ट"
    ],
    [
      "राजधा",
      "नी</w>"
    ],
    [
      "वि",
      "त</w>"
    ],
    [
      "स्वर",
      "ू"
    ],
    [
      "ंत",
      "्र</w>"
    ],
    [
      "प्रथ",
      "म</w>"
    ],
    [
      "व",
      "ण्यासाठी</w>"
    ],
    [
      "सार्वज",
      "निक</w>"
    ],
    [
      "क",
      "िलो"
    ],
    [
      "पी",
      "."
    ],
    [
      "उ",
      "ल"
    ],
    [
      "स्थाप",
      "ित</w>"
    ],
    [
      "पा",
      "हिल"
    ],
    [
      "क्ल",
      "ब</w>"
    ],
    [
      "अजिंक्य",
      "पद</w>"
    ],
    [
      "१",
      "७</w>"
    ],
    [
      "थ",
      "ांब"
    ],
    [
      "े",
      "चे</w>"
    ],
    [
      "मरा",
      "ठ"
    ],
    [
      "न",
      "ीच्या</w>"
    ],
    [
      "सं",
      "पर्"
    ],
    [
      "उत्त",
      "रे"
    ],
    [
      "लक्ष",
      "ण"
    ],
    [
      "ना",
      "ड"
    ],
    [
      "को",
      "र"
    ],
    [
      "जा",
      "णाऱ्या</w>"
    ],
    [
      "त",
      "प"
    ],
    [
      "अध्य",
      "क्ष</w>"
    ],
    [
      "म",
      "ार</w>"
    ],
    [
      "टा",
      "ळ"
    ],
    [
      "प्रा",
      "मुख"
    ],
    [
      "आ",
      "रोग"
    ],
    [
      "पा",
      "व"
    ],
    [
      "जा",
      "ण"
    ],
    [
      "प",
      "सर"
    ],
    [
      "ना",
      "ची</w>"
    ],
    [
      "ग",
      "ार"
    ],
    [
      "ं",
      "च</w>"
    ],
    [
      "ए",
      "च"
    ],
    [
      "डि",
      "ओ</w>"
    ],
    [
      "सं",
      "केत"
    ],
    [
      "ती",
      "व"
    ],
    [
      "न",
      "्यां"
    ],
    [
      "आधु",
      "निक</w>"
    ],
    [
      "ं",
      "बा"
    ],
    [
      "बा",
      "ज"
    ],
    [
      "त्या",
      "च</w>"
    ],
    [
      "न",
      "चे</w>"
    ],
    [
      "त्र",
      "ा"
    ],
    [
      "दि",
      "ला.</w>"
    ],
    [
      "समु",
      "दा"
    ],
    [
      "य",
      "ॉर्"
    ],
    [
      "्या",
      "चा</w>"
    ],
    [
      "व",
      "ां"
    ],
    [
      "खेळ",
      "ला.</w>"
    ],
    [
      "त",
      "ाल"
    ],
    [
      "या",
      "वर</w>"
    ],
    [
      "र",
      "ॅ"
    ],
    [
      "मु",
      "घ"
    ],
    [
      "टी",
      "."
    ],
    [
      "जनग",
      "णने"
    ],
    [
      "फ",
      "ॉ"
    ],
    [
      "पाहि",
      "ज"
    ],
    [
      "प्रामुख",
      "्याने</w>"
    ],
    [
      "स",
      "ळ"
    ],
    [
      "बंग",
      "ाल"
    ],
    [
      "इ",
      "स्"
    ],
    [
      "उ",
      "द्यो"
    ],
    [
      "मु",
      "द्र"
    ],
    [
      "ज",
      "िक</w>"
    ],
    [
      "नॅ",
      "शन"
    ],
    [
      "नि",
      "या</w>"
    ],
    [
      "शक",
      "्यता</w>"
    ],
    [
      "नगरपाल",
      "िका</w>"
    ],
    [
      "ी",
      "क्ष"
    ],
    [
      "पा",
      "ल</w>"
    ],
    [
      "र",
      "स</w>"
    ],
    [
      "पा",
      "स</w>"
    ],
    [
      "ये",
      "त</w>"
    ],
    [
      "उ",
      "द्या"
    ],
    [
      "ह",
      "ार"
    ],
    [
      "ई",
      "ल</w>"
    ],
    [
      "शि",
      "यन</w>"
    ],
    [
      "१",
      "३</w>"
    ],
    [
      "ड",
      "र</w>"
    ],
    [
      "कि",
      "ती</w>"
    ],
    [
      "पा",
      "त</w>"
    ],
    [
      "विज",
      "य</w>"
    ],
    [
      "य",
      "ं"
    ],
    [
      "विद्या",
      "ल"
    ],
    [
      "नाह",
      "ी"
    ],
    [
      "संस्थ",
      "ा</w>"
    ],
    [
      "काउं",
      "टी"
    ],
    [
      "बद",
      "ल</w>"
    ],
    [
      "ब",
      "ल"
    ],
    [
      "ऊ",
      "स</w>"
    ],
    [
      "२००",
      "८</w>"
    ],
    [
      "नग",
      "र</w>"
    ],
    [
      "वर",
      "च्या</w>"
    ],
    [
      "समस",
      "्या</w>"
    ],
    [
      "ले",
      "क्"
    ],
    [
      "ज",
      "हा"
    ],
    [
      "सा",
      "ह"
    ],
    [
      "बा",
      "ब"
    ],
    [
      "दू",
      "र</w>"
    ],
    [
      "्र",
      "ो"
    ],
    [
      "ट",
      "िक</w>"
    ],
    [
      "सं",
      "बंध</w>"
    ],
    [
      "स",
      "मो"
    ],
    [
      "प",
      "ती</w>"
    ],
    [
      "दिस",
      "ून</w>"
    ],
    [
      "स्ट",
      "र</w>"
    ],
    [
      "स",
      "व"
    ],
    [
      "म",
      "त"
    ],
    [
      "राज",
      "कीय</w>"
    ],
    [
      "ध",
      "्या"
    ],
    [
      "चि",
      "न्ह"
    ],
    [
      "२०२",
      "१</w>"
    ],
    [
      "जात",
      "े,</w>"
    ],
    [
      "कार",
      "किर्"
    ],
    [
      "स",
      "िंग</w>"
    ],
    [
      "सं",
      "ग्र"
    ],
    [
      "वै",
      "द्य"
    ],
    [
      "निर्ण",
      "य</w>"
    ],
    [
      "इ",
      "न</w>"
    ],
    [
      "ऐव",
      "जी</w>"
    ],
    [
      "ति",
      "ची</w>"
    ],
    [
      "ति",
      "थे</w>"
    ],
    [
      "न",
      "ात"
    ],
    [
      "संघ",
      "ट"
    ],
    [
      "पृ",
      "ष्ठ"
    ],
    [
      "बु",
      "द्ध"
    ],
    [
      "संग",
      "ीत"
    ],
    [
      "व्य",
      "ति"
    ],
    [
      "विद्या",
      "र्थ"
    ],
    [
      "ून",
      "ही</w>"
    ],
    [
      "कदा",
      "चित</w>"
    ],
    [
      "ी",
      "च</w>"
    ],
    [
      "भार",
      "त</w>"
    ],
    [
      "णार",
      "़्या</w>"
    ],
    [
      "ध",
      "ार्"
    ],
    [
      "स्ट",
      "ि"
    ],
    [
      "दिल्",
      "ली"
    ],
    [
      "शिक्ष",
      "ण</w>"
    ],
    [
      "ट",
      "प्प"
    ],
    [
      "ां",
      "मधील</w>"
    ],
    [
      "बी",
      "."
    ],
    [
      "नि",
      "रा"
    ],
    [
      "श्",
      "व"
    ],
    [
      "म्",
      "स</w>"
    ],
    [
      "आ",
      "फ्र"
    ],
    [
      "किल्",
      "ला</w>"
    ],
    [
      "ां",
      "मध्ये,</w>"
    ],
    [
      "ड",
      "्या</w>"
    ],
    [
      "निव",
      "ड</w>"
    ],
    [
      "ब्रि",
      "टी"
    ],
    [
      "२०१",
      "६</w>"
    ],
    [
      "वर",
      ",</w>"
    ],
    [
      "्या",
      "ला</w>"
    ],
    [
      "नि",
      "श्"
    ],
    [
      "यो",
      "ग</w>"
    ],
    [
      "ार",
      "ंभ"
    ],
    [
      "्या",
      "ची</w>"
    ],
    [
      "ती",
      "चा</w>"
    ],
    [
      "अ",
      "ट"
    ],
    [
      "दे",
      "त</w>"
    ],
    [
      "का",
      "ही"
    ],
    [
      "ती",
      "ची</w>"
    ],
    [
      "ाल",
      "े"
    ],
    [
      "केल",
      "ेली</w>"
    ],
    [
      "ल्",
      "स</w>"
    ],
    [
      "े",
      "चा</w>"
    ],
    [
      "व",
      "ढ"
    ],
    [
      "सुरुवात",
      "ीला</w>"
    ],
    [
      "निश्",
      "चित</w>"
    ],
    [
      "प्रमा",
      "णे</w>"
    ],
    [
      "डी",
      "."
    ],
    [
      "सर्वोत्",
      "तम</w>"
    ],
    [
      "प्र",
      "जात"
    ],
    [
      "शब्",
      "द</w>"
    ],
    [
      "ं",
      "ध"
    ],
    [
      "एकमे",
      "व</w>"
    ],
    [
      "लोकां",
      "नी</w>"
    ],
    [
      "य",
      "ीन</w>"
    ],
    [
      "ई",
      "ल.</w>"
    ],
    [
      "स्ट",
      "ो"
    ],
    [
      "य",
      "क्"
    ],
    [
      "यु",
      "क्"
    ],
    [
      "सं",
      "युक्त</w>"
    ],
    [
      "क",
      "ातील</w>"
    ],
    [
      "रि",
      "या"
    ],
    [
      "ल्",
      "ड</w>"
    ],
    [
      "त",
      "ेल"
    ],
    [
      "शो",
      "ध</w>"
    ],
    [
      "गेल",
      "्या</w>"
    ],
    [
      "श",
      "ार"
    ],
    [
      "स्व",
      "ात"
    ],
    [
      "स",
      "ल"
    ],
    [
      "द",
      "े</w>"
    ],
    [
      "िक",
      "ेतील</w>"
    ],
    [
      "म",
      "ी.</w>"
    ],
    [
      "काळ",
      "ी</w>"
    ],
    [
      "क",
      "्या</w>"
    ],
    [
      "समु",
      "द्र"
    ],
    [
      ".ए",
      "म"
    ],
    [
      "रो",
      "ग</w>"
    ],
    [
      "दे",
      "ऊ</w>"
    ],
    [
      "ण्या",
      "पूर्वी</w>"
    ],
    [
      "खेळ",
      "ला</w>"
    ],
    [
      "क्री",
      "डा</w>"
    ],
    [
      "२",
      "४</w>"
    ],
    [
      "मु",
      "स्लि"
    ],
    [
      "कार्यक्र",
      "म</w>"
    ],
    [
      "सर्व",
      "ांत</w>"
    ],
    [
      "भ",
      "ु"
    ],
    [
      "प्रदेशा",
      "त</w>"
    ],
    [
      "खाल",
      "ील</w>"
    ],
    [
      "ब",
      "चा"
    ],
    [
      "कॅ",
      "लि"
    ],
    [
      "अ",
      "जू"
    ],
    [
      "धार्",
      "मिक</w>"
    ],
    [
      "मुख",
      "्य"
    ],
    [
      "सं",
      "शोध"
    ],
    [
      "यु",
      "नि"
    ],
    [
      "ी",
      "करण</w>"
    ],
    [
      "अव",
      "लंब"
    ],
    [
      "प्रा",
      "प्त</w>"
    ],
    [
      "ट",
      "ॉ"
    ],
    [
      "तर",
      "ित</w>"
    ],
    [
      "सम",
      "ू"
    ],
    [
      "प्",
      "ले"
    ],
    [
      "ला",
      "ल</w>"
    ],
    [
      "िल",
      "ि"
    ],
    [
      "ज",
      "ख"
    ],
    [
      "आ",
      "ज</w>"
    ],
    [
      "स्",
      "तु"
    ],
    [
      "ब",
      "ू"
    ],
    [
      "नद",
      "ीच्या</w>"
    ],
    [
      "मा",
      "च्या</w>"
    ],
    [
      "पुढ",
      "ील</w>"
    ],
    [
      "सा",
      "द"
    ],
    [
      ".एस",
      ".</w>"
    ],
    [
      "स",
      "िक</w>"
    ],
    [
      "पर",
      "त"
    ],
    [
      "शै",
      "ली"
    ],
    [
      "क्र",
      "े"
    ],
    [
      "स्ट",
      "ा"
    ],
    [
      "औष",
      "ध"
    ],
    [
      "२०१",
      "५</w>"
    ],
    [
      "जग",
      "ातील</w>"
    ],
    [
      "पूर्",
      "णपणे</w>"
    ],
    [
      "प्र",
      "सार"
    ],
    [
      "नुक",
      "सा"
    ],
    [
      "अति",
      "रिक्त</w>"
    ],
    [
      "अजू",
      "नही</w>"
    ],
    [
      "सध",
      "्या</w>"
    ],
    [
      "स्वात",
      "ंत्र"
    ],
    [
      "श",
      "ं"
    ],
    [
      "रा",
      "म"
    ],
    [
      "ल्या",
      "ने</w>"
    ],
    [
      "फ",
      "ॅ"
    ],
    [
      "्या",
      ",</w>"
    ],
    [
      "इ",
      "च्छ"
    ],
    [
      "सामा",
      "जिक</w>"
    ],
    [
      "कृ",
      "ती</w>"
    ],
    [
      "साम",
      "ील</w>"
    ],
    [
      "ग",
      "ंभ"
    ],
    [
      "उ",
      "र्"
    ],
    [
      "इ",
      "न्"
    ],
    [
      "ग",
      "िक</w>"
    ],
    [
      "तुम",
      "ची</w>"
    ],
    [
      "वै",
      "यक्"
    ],
    [
      "अति",
      "शय</w>"
    ],
    [
      "नॅशन",
      "ल</w>"
    ],
    [
      "झ",
      "ु"
    ],
    [
      "वन",
      "स्प"
    ],
    [
      "ना",
      "साठी</w>"
    ],
    [
      "स्प",
      "ष्ट</w>"
    ],
    [
      "प्रदेश",
      "ातील</w>"
    ],
    [
      "पाठ",
      "व"
    ],
    [
      "पार",
      "ंपर"
    ],
    [
      "गेल",
      "ी.</w>"
    ],
    [
      "जा",
      "व"
    ],
    [
      "क्ष",
      "ित</w>"
    ],
    [
      "संकेत",
      "स्थ"
    ],
    [
      "मि",
      "ळ</w>"
    ],
    [
      "अ",
      "र्ध"
    ],
    [
      "म",
      "्यु"
    ],
    [
      "दश",
      "कात</w>"
    ],
    [
      "ऐ",
      "तिहास"
    ],
    [
      "पा",
      "ड"
    ],
    [
      "अ",
      "स्ति"
    ],
    [
      "फ",
      "र्"
    ],
    [
      ".ए",
      "न"
    ],
    [
      "ष",
      "ण</w>"
    ],
    [
      "ऑ",
      "न"
    ],
    [
      "प्रमा",
      "ण</w>"
    ],
    [
      "ऑ",
      "र्"
    ],
    [
      "अखे",
      "री"
    ],
    [
      "थ",
      "ि"
    ],
    [
      "ा",
      "ने</w>"
    ],
    [
      "का",
      "ह"
    ],
    [
      "शत",
      "कात</w>"
    ],
    [
      "ीं",
      "च्या</w>"
    ],
    [
      "ह",
      "ै"
    ],
    [
      "दे",
      "व</w>"
    ],
    [
      "वा",
      "स"
    ],
    [
      "म",
      "ौ"
    ],
    [
      "म",
      "नो"
    ],
    [
      "न्य",
      "ू</w>"
    ],
    [
      "मु",
      "ंब"
    ],
    [
      "स",
      "री</w>"
    ],
    [
      "वसा",
      "ह"
    ],
    [
      "ओळख",
      "ला</w>"
    ],
    [
      "ना",
      "व"
    ],
    [
      "पदार्थ",
      "</w>"
    ],
    [
      "महा",
      "विद्याल"
    ],
    [
      "हल्",
      "ला</w>"
    ],
    [
      "सर्व",
      "ो"
    ],
    [
      "युरो",
      "प"
    ],
    [
      "संगी",
      "ता"
    ],
    [
      "प",
      "े</w>"
    ],
    [
      "बाजू",
      "ला</w>"
    ],
    [
      "राज्या",
      "च्या</w>"
    ],
    [
      "गा",
      "व</w>"
    ],
    [
      "कधी",
      "कधी</w>"
    ],
    [
      "ड",
      "र"
    ],
    [
      "त",
      "पास"
    ],
    [
      "न",
      "ी,</w>"
    ],
    [
      "स",
      "न्"
    ],
    [
      "का",
      "ने</w>"
    ],
    [
      "ती",
      ",</w>"
    ],
    [
      "ए",
      "ल"
    ],
    [
      "ज",
      "मि"
    ],
    [
      "ग",
      "मा"
    ],
    [
      "ना",
      "म"
    ],
    [
      "बा",
      "बत</w>"
    ],
    [
      "ी",
      "र"
    ],
    [
      "ब्रिटी",
      "श</w>"
    ],
    [
      "क्र",
      "िके"
    ],
    [
      "अ",
      "ली"
    ],
    [
      "०",
      ",०००</w>"
    ],
    [
      "पुरु",
      "ष</w>"
    ],
    [
      "ऑलिम्प",
      "िक</w>"
    ],
    [
      "ण",
      "ू</w>"
    ],
    [
      "ब",
      "रे"
    ],
    [
      "कि",
      "मान</w>"
    ],
    [
      "काढ",
      "ून</w>"
    ],
    [
      "ग्रं",
      "थ"
    ],
    [
      "म",
      "त्"
    ],
    [
      "सर्वो",
      "च्च</w>"
    ],
    [
      "ट",
      ",</w>"
    ],
    [
      "आशि",
      "या"
    ],
    [
      "डो",
      "ंग"
    ],
    [
      "ंड",
      "ो"
    ],
    [
      "१",
      "३"
    ],
    [
      "बौ",
      "द्ध</w>"
    ],
    [
      "ब",
      "ल</w>"
    ],
    [
      "पहिल्या",
      "ंदा</w>"
    ],
    [
      "बॉ",
      "ल"
    ],
    [
      "ह",
      "स्त"
    ],
    [
      "रि",
      "य"
    ],
    [
      "शत",
      "काच्या</w>"
    ],
    [
      "परि",
      "ष"
    ],
    [
      "इ",
      "."
    ],
    [
      "दु",
      "खा"
    ],
    [
      "१",
      "४"
    ],
    [
      "मु",
      "ला"
    ],
    [
      "लक्ष",
      "ात</w>"
    ],
    [
      "परवा",
      "नग"
    ],
    [
      "आ",
      "म्ह"
    ],
    [
      "घ",
      "री</w>"
    ],
    [
      "स",
      "हाय"
    ],
    [
      "क",
      "ठी"
    ],
    [
      "ट",
      "्रा"
    ],
    [
      "च",
      "ढ"
    ],
    [
      "प",
      "ंत"
    ],
    [
      "न",
      "र"
    ],
    [
      "ज्ञ",
      "</w>"
    ],
    [
      "डा",
      "य"
    ],
    [
      "ँ",
      "ड"
    ],
    [
      "इ",
      "तिहा"
    ],
    [
      "त",
      "ला"
    ],
    [
      "स्",
      "के"
    ],
    [
      "धो",
      "का</w>"
    ],
    [
      "वि",
      "ध"
    ],
    [
      "ते",
      "थे</w>"
    ],
    [
      "शह",
      "रात</w>"
    ],
    [
      "च",
      "ारा"
    ],
    [
      "आन",
      "ंद</w>"
    ],
    [
      "शिवा",
      "य</w>"
    ],
    [
      "ड",
      "ॅ"
    ],
    [
      "उ",
      "भ"
    ],
    [
      "उत्",
      "प"
    ],
    [
      "कर",
      "णारे</w>"
    ],
    [
      "ण",
      ",</w>"
    ],
    [
      "पे",
      "श"
    ],
    [
      "पंत",
      "प्र"
    ],
    [
      "वेग",
      "ळे</w>"
    ],
    [
      "आ",
      "यु"
    ],
    [
      "इ",
      "तर"
    ],
    [
      "स",
      "त"
    ],
    [
      "दो",
      "घ"
    ],
    [
      "पा",
      "ळ"
    ],
    [
      "आ",
      "वा"
    ],
    [
      "अधिक",
      "ृत</w>"
    ],
    [
      "दिल",
      "ी.</w>"
    ],
    [
      "ब",
      "ै"
    ],
    [
      "कठी",
      "ण</w>"
    ],
    [
      "उ",
      "द"
    ],
    [
      "ता",
      "ब"
    ],
    [
      "करण्या",
      "च्या</w>"
    ],
    [
      "घेत",
      "ली.</w>"
    ],
    [
      "चेंड",
      "ू</w>"
    ],
    [
      "पर्",
      "व"
    ],
    [
      "भो",
      "व"
    ],
    [
      "इ",
      "रा"
    ],
    [
      "शेव",
      "टी</w>"
    ],
    [
      "वा",
      ".</w>"
    ],
    [
      "वैद्य",
      "कीय</w>"
    ],
    [
      "२००",
      "०</w>"
    ],
    [
      "टे",
      "क्"
    ],
    [
      "ज",
      "ॉर्"
    ],
    [
      "गु",
      "ज"
    ],
    [
      "२००",
      "७</w>"
    ],
    [
      "का",
      "वर</w>"
    ],
    [
      "२",
      "१</w>"
    ],
    [
      "सॉ",
      "फ्ट"
    ],
    [
      "केल",
      "े,</w>"
    ],
    [
      "ग",
      "म</w>"
    ],
    [
      "ां",
      "मुळे</w>"
    ],
    [
      "ने",
      "त</w>"
    ],
    [
      "सा",
      "ग"
    ],
    [
      "ि",
      "त्व</w>"
    ],
    [
      "ल",
      "्य"
    ],
    [
      "शह",
      "रा"
    ],
    [
      "ली",
      "ग</w>"
    ],
    [
      "लष्",
      "करी</w>"
    ],
    [
      "नियंत्र",
      "ण</w>"
    ],
    [
      "व",
      "न</w>"
    ],
    [
      "िं",
      "ग्"
    ],
    [
      "ी",
      "ने</w>"
    ],
    [
      "कुटु",
      "ंबा"
    ],
    [
      "इ",
      "मार"
    ],
    [
      "ला",
      "ई"
    ],
    [
      "म्",
      "पि"
    ],
    [
      "परवानग",
      "ी</w>"
    ],
    [
      "फ",
      "ट"
    ],
    [
      "सह",
      "भागी</w>"
    ],
    [
      "ला",
      "ख</w>"
    ],
    [
      "धर्",
      "म"
    ],
    [
      "े",
      "ने</w>"
    ],
    [
      "कॅलि",
      "फोर्"
    ],
    [
      "ट्",
      "ट"
    ],
    [
      "वार्",
      "ष"
    ],
    [
      "ष्ठ",
      "</w>"
    ],
    [
      "मात",
      "्र</w>"
    ],
    [
      "अ",
      "ला"
    ],
    [
      "व्यव",
      "स्थाप"
    ],
    [
      "कर",
      "णारा</w>"
    ],
    [
      "साद",
      "री"
    ],
    [
      "प्र",
      "करण"
    ],
    [
      "वापर",
      "ली</w>"
    ],
    [
      "काँ",
      "ग्रे"
    ],
    [
      "ति",
      "सर"
    ],
    [
      "सरकार",
      "ने</w>"
    ],
    [
      "देत",
      "ात.</w>"
    ],
    [
      "त्या",
      "वर</w>"
    ],
    [
      "आ",
      "रो"
    ],
    [
      "उल्",
      "लेख</w>"
    ],
    [
      "दरम्या",
      "न,</w>"
    ],
    [
      "ट",
      "र्"
    ],
    [
      "ग",
      "ट</w>"
    ],
    [
      "पद",
      "क</w>"
    ],
    [
      "तुम",
      "चा</w>"
    ],
    [
      "वाई",
      "ट</w>"
    ],
    [
      "युद्ध",
      "ा"
    ],
    [
      "फ्रा",
      "न्स"
    ],
    [
      "पोलि",
      "सां"
    ],
    [
      "सा",
      "धार"
    ],
    [
      "प्रा",
      "ण्यां"
    ],
    [
      "उ",
      "ष्ण"
    ],
    [
      "कर",
      "तो</w>"
    ],
    [
      "ज",
      "ी,</w>"
    ],
    [
      "गृ",
      "ह"
    ],
    [
      "भ",
      "्र"
    ],
    [
      "२००",
      "९</w>"
    ],
    [
      ")",
      ",</w>"
    ],
    [
      "इ",
      "लि"
    ],
    [
      "शक",
      "्य</w>"
    ],
    [
      "सुरुवात",
      "ीच्या</w>"
    ],
    [
      "द",
      "ै"
    ],
    [
      "एक",
      "दा</w>"
    ],
    [
      "ख",
      "ा</w>"
    ],
    [
      "त",
      "रु"
    ],
    [
      "क",
      "ाला</w>"
    ],
    [
      "ह",
      "ार्"
    ],
    [
      "आर",
      "."
    ],
    [
      "व्ह",
      "र"
    ],
    [
      "योज",
      "ना</w>"
    ],
    [
      "वं",
      "शा"
    ],
    [
      "च",
      "षक</w>"
    ],
    [
      "द",
      "ित</w>"
    ],
    [
      "च",
      "ं</w>"
    ],
    [
      ".ए",
      ".</w>"
    ],
    [
      "व्ह",
      "ॅ"
    ],
    [
      "स्",
      "ती</w>"
    ],
    [
      "म",
      "ं"
    ],
    [
      "देश",
      "ीर</w>"
    ],
    [
      "हिं",
      "दी</w>"
    ],
    [
      "स",
      ".</w>"
    ],
    [
      "गंभ",
      "ीर</w>"
    ],
    [
      "२००",
      "६</w>"
    ],
    [
      "फ",
      "ा</w>"
    ],
    [
      "रेल्",
      "वे</w>"
    ],
    [
      "व",
      "ू</w>"
    ],
    [
      "ध",
      "ु"
    ],
    [
      "चांग",
      "ले</w>"
    ],
    [
      "साल",
      "च्या</w>"
    ],
    [
      "द",
      "ीत</w>"
    ],
    [
      "म",
      "ज"
    ],
    [
      "प्र",
      "कल्"
    ],
    [
      "२",
      "२</w>"
    ],
    [
      "अस",
      "ता"
    ],
    [
      "ड",
      ",</w>"
    ],
    [
      "सम",
      "र्थ"
    ],
    [
      "या",
      ",</w>"
    ],
    [
      "ह",
      "ृ"
    ],
    [
      "र",
      "्य</w>"
    ],
    [
      "क",
      "पड"
    ],
    [
      "प्रभा",
      "व</w>"
    ],
    [
      "च",
      "िं"
    ],
    [
      "सा",
      "च्या</w>"
    ],
    [
      "प",
      "ी.</w>"
    ],
    [
      "केर",
      "ळ"
    ],
    [
      "स्ट",
      "ॉ"
    ],
    [
      "२",
      "३</w>"
    ],
    [
      "सि",
      "द्ध"
    ],
    [
      "केल",
      "ेला</w>"
    ],
    [
      "न्यू",
      "यॉर्"
    ],
    [
      "गा",
      "त</w>"
    ],
    [
      "१",
      "००</w>"
    ],
    [
      "निय",
      "म</w>"
    ],
    [
      "स्ट",
      "ी"
    ],
    [
      "जन्",
      "म"
    ],
    [
      "वा",
      "च्या</w>"
    ],
    [
      "ना",
      "ने</w>"
    ],
    [
      "मा",
      "ह"
    ],
    [
      "त",
      "री"
    ],
    [
      "ख",
      "ि"
    ],
    [
      "के",
      "ंद्र</w>"
    ],
    [
      "ट",
      "ल</w>"
    ],
    [
      "संरक्ष",
      "ण</w>"
    ],
    [
      "पद",
      "ार्"
    ],
    [
      "अ",
      "त्य"
    ],
    [
      "वैयक्",
      "तिक</w>"
    ],
    [
      "लाग",
      "ू</w>"
    ],
    [
      "बर्",
      "ग</w>"
    ],
    [
      "भ",
      "ां"
    ],
    [
      "य",
      "न"
    ],
    [
      "भ",
      "रात</w>"
    ],
    [
      "य",
      "म</w>"
    ],
    [
      "लक्ष",
      "णे</w>"
    ],
    [
      "विश्",
      "वास</w>"
    ],
    [
      "मां",
      "ड"
    ],
    [
      "ज",
      "म"
    ],
    [
      "ार्",
      "‍या</w>"
    ],
    [
      "प्रतिनिध",
      "ित्व</w>"
    ],
    [
      "न",
      "ू"
    ],
    [
      "िक",
      "ो"
    ],
    [
      "िक",
      "न</w>"
    ],
    [
      "ंड",
      "ा"
    ],
    [
      "अस",
      "तात,</w>"
    ],
    [
      "ज",
      "ण</w>"
    ],
    [
      "तीव",
      "्र</w>"
    ],
    [
      "परि",
      "स्थि"
    ],
    [
      "होत",
      "ो</w>"
    ],
    [
      "व्यवसा",
      "य</w>"
    ],
    [
      "अवलंब",
      "ून</w>"
    ],
    [
      "वस्त",
      "ूं"
    ],
    [
      "अस",
      "ेल,</w>"
    ],
    [
      "आय",
      ".</w>"
    ],
    [
      "लँ",
      "ड</w>"
    ],
    [
      "राज्या",
      "त</w>"
    ],
    [
      "आ",
      "लेल्या</w>"
    ],
    [
      "ती",
      "ही</w>"
    ],
    [
      "वं",
      "श"
    ],
    [
      "पारंपर",
      "िक</w>"
    ],
    [
      "म्",
      "म"
    ],
    [
      "थे",
      "ट</w>"
    ],
    [
      "प",
      "ात्र"
    ],
    [
      "न",
      "र्"
    ],
    [
      "ब",
      "िं"
    ],
    [
      "ळा",
      "च्या</w>"
    ],
    [
      "या",
      "सारख्या</w>"
    ],
    [
      "गर",
      "ज</w>"
    ],
    [
      "न",
      "का"
    ],
    [
      "वृत्",
      "त</w>"
    ],
    [
      "क",
      "म</w>"
    ],
    [
      "कॉ",
      "न्"
    ],
    [
      "एस",
      ".</w>"
    ],
    [
      "चौ",
      "थ"
    ],
    [
      "कर्",
      "नाट"
    ],
    [
      "इ",
      "तिहास"
    ],
    [
      "पाहिज",
      "े.</w>"
    ],
    [
      "शा",
      "ही</w>"
    ],
    [
      "देश",
      "ांमध्ये</w>"
    ],
    [
      "सं",
      "दर्"
    ],
    [
      "ऱ",
      "्यां"
    ],
    [
      "ध",
      "ब"
    ],
    [
      "कि",
      "नार"
    ],
    [
      "ते",
      "च्या</w>"
    ],
    [
      "श",
      "ील</w>"
    ],
    [
      "म",
      "णि"
    ],
    [
      "हृ",
      "द"
    ],
    [
      "कु",
      "मार"
    ],
    [
      "े",
      "च</w>"
    ],
    [
      "सर्वोत्",
      "कृष्ट</w>"
    ],
    [
      "न",
      "ची</w>"
    ],
    [
      "क्ष",
      "े"
    ],
    [
      "घट",
      "क</w>"
    ],
    [
      "उत्पाद",
      "न</w>"
    ],
    [
      "ख",
      "ड"
    ],
    [
      "मा",
      "ण"
    ],
    [
      "क्र",
      "ॉ"
    ],
    [
      "ज",
      "बा"
    ],
    [
      "ड्",
      "स</w>"
    ],
    [
      "अमेरिक",
      "ेतील</w>"
    ],
    [
      "फो",
      "न</w>"
    ],
    [
      "दृष्ट",
      "्या</w>"
    ],
    [
      "मुघ",
      "ल</w>"
    ],
    [
      "प",
      "िक"
    ],
    [
      "पूर्",
      "वे"
    ],
    [
      "२००",
      "१</w>"
    ],
    [
      "ां",
      "सह</w>"
    ],
    [
      "द",
      "हा</w>"
    ],
    [
      "रा",
      "य"
    ],
    [
      "ज",
      "ॅ"
    ],
    [
      "अध",
      "िका"
    ],
    [
      "महारा",
      "ष्ट"
    ],
    [
      "क्र",
      "ॅ"
    ],
    [
      "प्रण",
      "ाल"
    ],
    [
      "ये",
      "ऊ</w>"
    ],
    [
      "अभि",
      "न"
    ],
    [
      "करण्या",
      "चे</w>"
    ],
    [
      "दर",
      "वर्षी</w>"
    ],
    [
      "डॉ",
      "ल"
    ],
    [
      "स",
      "ण</w>"
    ],
    [
      "आ",
      "ई"
    ],
    [
      "मु",
      "ले</w>"
    ],
    [
      "ह",
      "्म"
    ],
    [
      "त",
      "ि</w>"
    ],
    [
      "लां",
      "ब</w>"
    ],
    [
      "स्",
      "फो"
    ],
    [
      "ीं",
      "मध्ये</w>"
    ],
    [
      "बा",
      "य"
    ],
    [
      "ठ",
      "ो"
    ],
    [
      "एका",
      "च</w>"
    ],
    [
      "ज",
      "य"
    ],
    [
      "उत्तर",
      "ार्"
    ],
    [
      "दक्षि",
      "णे"
    ],
    [
      "दा",
      "यक</w>"
    ],
    [
      "या",
      "साठी</w>"
    ],
    [
      "अस",
      "ेही</w>"
    ],
    [
      "स्टे",
      "ट्स"
    ],
    [
      "बो",
      "र्"
    ],
    [
      "वड",
      "िल"
    ],
    [
      "म",
      "ंग"
    ],
    [
      "गि",
      "री</w>"
    ],
    [
      "केंद्र",
      "ित</w>"
    ],
    [
      "ी",
      "वर</w>"
    ],
    [
      "ग",
      "ां"
    ],
    [
      "फि",
      "र"
    ],
    [
      "शास्त्र",
      "ीय</w>"
    ],
    [
      "अ",
      "ह"
    ],
    [
      "घे",
      "ण्यासाठी</w>"
    ],
    [
      "मार्",
      "गा"
    ],
    [
      "नृ",
      "त्य</w>"
    ],
    [
      "खरे",
      "दी"
    ],
    [
      "ब",
      "रा"
    ],
    [
      "अस",
      "ेल.</w>"
    ],
    [
      "प",
      "वि"
    ],
    [
      "फ्रे",
      "ंच</w>"
    ],
    [
      "जात",
      "ो</w>"
    ],
    [
      "बुद्ध",
      "ि"
    ],
    [
      "न",
      "ीय</w>"
    ],
    [
      "अभ्या",
      "स</w>"
    ],
    [
      "स्व",
      "यं"
    ],
    [
      "मू",
      "र्"
    ],
    [
      "ष",
      "ी</w>"
    ],
    [
      "वि",
      "त्"
    ],
    [
      "स्वत",
      "ंत्र</w>"
    ],
    [
      "क्ल",
      "ब"
    ],
    [
      "समो",
      "र</w>"
    ],
    [
      "काळ",
      "ातील</w>"
    ],
    [
      "धर्",
      "म</w>"
    ],
    [
      "ग",
      "ण"
    ],
    [
      "ज्ञा",
      "न</w>"
    ],
    [
      "ल्",
      "ड"
    ],
    [
      "वा",
      "हि"
    ],
    [
      "शक",
      "तात</w>"
    ],
    [
      "ऐतिहास",
      "िक</w>"
    ],
    [
      "मु",
      "ली"
    ],
    [
      "इस्",
      "ला"
    ],
    [
      "यु",
      "द्ध</w>"
    ],
    [
      "ब",
      "ळ</w>"
    ],
    [
      "नै",
      "सर्"
    ],
    [
      "म",
      "ेल"
    ],
    [
      "ण",
      "्या</w>"
    ],
    [
      "आप",
      "ले</w>"
    ],
    [
      "अत्य",
      "ंत</w>"
    ],
    [
      "काय",
      "द्या"
    ],
    [
      "ल",
      "मध्ये</w>"
    ],
    [
      "न",
      "ातील</w>"
    ],
    [
      "त",
      "ंत्र"
    ],
    [
      "जु",
      "न्या</w>"
    ],
    [
      "१",
      ","
    ],
    [
      "कार",
      "ात्मक</w>"
    ],
    [
      "त",
      "ं"
    ],
    [
      "घ",
      "ु"
    ],
    [
      "सम",
      "्रा"
    ],
    [
      "ह",
      "ार</w>"
    ],
    [
      "ज",
      "्य"
    ],
    [
      "दुसर",
      "े</w>"
    ],
    [
      "नंत",
      "र"
    ],
    [
      "ए",
      "क्स"
    ],
    [
      "कार",
      "क</w>"
    ],
    [
      "गोष्ट",
      "ी</w>"
    ],
    [
      "हो",
      "णाऱ्या</w>"
    ],
    [
      "णु",
      "की"
    ],
    [
      "नुकसा",
      "न</w>"
    ],
    [
      "वाढ",
      "</w>"
    ],
    [
      "का",
      "द"
    ],
    [
      "कृ",
      "त</w>"
    ],
    [
      "कालाव",
      "ध"
    ],
    [
      "पु",
      "रे"
    ],
    [
      "प",
      "णा"
    ],
    [
      "ग",
      "ार</w>"
    ],
    [
      "म्",
      "ब"
    ],
    [
      "रि",
      "या</w>"
    ],
    [
      "ला",
      "गेल"
    ],
    [
      "शक",
      "ते</w>"
    ],
    [
      "ट",
      "ला</w>"
    ],
    [
      "माल",
      "िका</w>"
    ],
    [
      "धा",
      "व"
    ],
    [
      "फ",
      "ी</w>"
    ],
    [
      "कु",
      "ठ"
    ],
    [
      "वा",
      "स्त"
    ],
    [
      "न",
      "ो</w>"
    ],
    [
      "ल्या",
      "वर</w>"
    ],
    [
      "सारख",
      "ी</w>"
    ],
    [
      "भूमि",
      "के"
    ],
    [
      "यो",
      "</w>"
    ],
    [
      "क्षेत",
      "्रा"
    ],
    [
      "ने",
      "म"
    ],
    [
      "बरो",
      "ब"
    ],
    [
      "घेत",
      "ला</w>"
    ],
    [
      "त",
      "ू"
    ],
    [
      "प्रे",
      "र"
    ],
    [
      "आ",
      "त</w>"
    ],
    [
      "स्थ",
      "लां"
    ],
    [
      "च",
      "ार्"
    ],
    [
      "रि",
      "यन</w>"
    ],
    [
      "इ",
      "स"
    ],
    [
      "संगण",
      "क</w>"
    ],
    [
      "नेतृत्",
      "वा"
    ],
    [
      "टक्",
      "के</w>"
    ],
    [
      "ढ",
      "</w>"
    ],
    [
      "पु",
      "ष्ट"
    ],
    [
      "मंदि",
      "र"
    ],
    [
      "ह",
      "ल"
    ],
    [
      "पर",
      "ग"
    ],
    [
      "२",
      "७</w>"
    ],
    [
      "बहु",
      "धा</w>"
    ],
    [
      "२",
      "६</w>"
    ],
    [
      "परि",
      "सर</w>"
    ],
    [
      "गो",
      "</w>"
    ],
    [
      "जबा",
      "बद"
    ],
    [
      "ँ",
      "ड</w>"
    ],
    [
      "आवश्य",
      "कता</w>"
    ],
    [
      "ठिका",
      "ण</w>"
    ],
    [
      "श",
      "िल"
    ],
    [
      "का",
      "प"
    ],
    [
      "दे",
      "ण्यासाठी</w>"
    ],
    [
      "नंत",
      "रच्या</w>"
    ],
    [
      "प्रमा",
      "णे"
    ],
    [
      "न",
      "ॉर्"
    ],
    [
      "जमि",
      "नी"
    ],
    [
      "अधि",
      "कारी</w>"
    ],
    [
      "गु",
      "ण</w>"
    ],
    [
      "क्रि",
      "ये"
    ],
    [
      "केल",
      "ा,</w>"
    ],
    [
      "प",
      "त"
    ],
    [
      "स्",
      "पे"
    ],
    [
      "डॉ",
      "क्"
    ],
    [
      "साल",
      "ा"
    ],
    [
      "अस",
      "तो</w>"
    ],
    [
      "मान",
      "वी</w>"
    ],
    [
      "स",
      "ला</w>"
    ],
    [
      "जा",
      "ही"
    ],
    [
      "पदार्",
      "पण</w>"
    ],
    [
      "धर्",
      "मा"
    ],
    [
      "दाख",
      "व"
    ],
    [
      "टा",
      "इ"
    ],
    [
      "क",
      "ले"
    ],
    [
      "घेत",
      "ले.</w>"
    ],
    [
      "समा",
      "न</w>"
    ],
    [
      "च",
      "िक"
    ],
    [
      "शु",
      "ल्"
    ],
    [
      "ने",
      "ट</w>"
    ],
    [
      "रा",
      "जा"
    ],
    [
      "ल",
      "ंड</w>"
    ],
    [
      "साठ",
      "ीच्या</w>"
    ],
    [
      "आशिया",
      "ई</w>"
    ],
    [
      ".ए",
      "ल"
    ],
    [
      "चि",
      "नी</w>"
    ],
    [
      "पर्य",
      "ट"
    ],
    [
      "जात",
      "ात</w>"
    ],
    [
      "स",
      "चे</w>"
    ],
    [
      "ल्या",
      "मुळे</w>"
    ],
    [
      "पंतप्र",
      "धान</w>"
    ],
    [
      "च्",
      "च"
    ],
    [
      "मंत्र",
      "ी</w>"
    ],
    [
      "बर्",
      "ग"
    ],
    [
      "ल्",
      "ल"
    ],
    [
      "नि",
      "ष्"
    ],
    [
      "युरो",
      "पि"
    ],
    [
      "बा",
      "द</w>"
    ],
    [
      "२",
      "८</w>"
    ],
    [
      "ल",
      "ं</w>"
    ],
    [
      "कर",
      "ताना</w>"
    ],
    [
      "य",
      ".</w>"
    ],
    [
      "मे",
      "ंद"
    ],
    [
      "ताब",
      "्यात</w>"
    ],
    [
      "कार",
      "्य</w>"
    ],
    [
      "क्",
      "ला"
    ],
    [
      "ग्र",
      "ॅ"
    ],
    [
      "ज्या",
      "ने</w>"
    ],
    [
      "ा",
      "चा</w>"
    ],
    [
      "ख",
      "ात्री</w>"
    ],
    [
      "कर",
      "ि"
    ],
    [
      "व्यवस्थ",
      "ा</w>"
    ],
    [
      "आयु",
      "ष"
    ],
    [
      "अस",
      "त.</w>"
    ],
    [
      "क",
      "च्या</w>"
    ],
    [
      "पट्",
      "ट"
    ],
    [
      "व",
      "्य</w>"
    ],
    [
      "स",
      "चा</w>"
    ],
    [
      "बे",
      "ट"
    ],
    [
      "अ",
      "क्ष"
    ],
    [
      "सा",
      "कार"
    ],
    [
      "नो",
      "ंद</w>"
    ],
    [
      "४",
      "०</w>"
    ],
    [
      "प्रभा",
      "वित</w>"
    ],
    [
      "छो",
      "ट्या</w>"
    ],
    [
      "वि",
      "धा"
    ],
    [
      "वा",
      "दा"
    ],
    [
      "वा",
      "णी</w>"
    ],
    [
      "रु",
      "प"
    ],
    [
      "प्रण",
      "ाली</w>"
    ],
    [
      "भ",
      "ौ"
    ],
    [
      "भाग",
      "ातील</w>"
    ],
    [
      "येत",
      "ो.</w>"
    ],
    [
      "प्रत्य",
      "े"
    ],
    [
      "या",
      "दी</w>"
    ],
    [
      ".ए",
      "च"
    ],
    [
      "स्ट",
      "ॅ"
    ],
    [
      "फ्",
      "लो"
    ],
    [
      "ग",
      "ल</w>"
    ],
    [
      "जिंक",
      "ले.</w>"
    ],
    [
      "्र",
      "ी</w>"
    ],
    [
      "इलि",
      "नॉ"
    ],
    [
      "स्ट्र",
      "ो"
    ],
    [
      "अखेरी",
      "स</w>"
    ],
    [
      "लै",
      "ंग"
    ],
    [
      "कु",
      "मार</w>"
    ],
    [
      "ड",
      "च्या</w>"
    ],
    [
      "क",
      "ित</w>"
    ],
    [
      "डो",
      "ळ"
    ],
    [
      "अमेरिक",
      "ेत</w>"
    ],
    [
      "वि",
      "भाग</w>"
    ],
    [
      "महत्त्वा",
      "चे</w>"
    ],
    [
      "सि",
      "ए"
    ],
    [
      "सु",
      "ल"
    ],
    [
      "अ",
      "ल"
    ],
    [
      "त्",
      "वात</w>"
    ],
    [
      "ओ",
      "डि"
    ],
    [
      "मुस्लि",
      "म</w>"
    ],
    [
      "२०२",
      "२</w>"
    ],
    [
      "दुखा",
      "प"
    ],
    [
      "ाल",
      "्"
    ],
    [
      "वार्ष",
      "िक</w>"
    ],
    [
      "कार",
      "्याल"
    ],
    [
      "प्रा",
      "णी</w>"
    ],
    [
      "प्रा",
      "थ"
    ],
    [
      "वे",
      "श"
    ],
    [
      "विजेत",
      "े"
    ],
    [
      "मा",
      "जी</w>"
    ],
    [
      "आठ",
      "</w>"
    ],
    [
      "टा",
      "य"
    ],
    [
      "जिल्ह",
      "ा</w>"
    ],
    [
      "दाख",
      "ल</w>"
    ],
    [
      "विक",
      "त</w>"
    ],
    [
      "फ",
      "ॉर्"
    ],
    [
      "सरा",
      "सरी</w>"
    ],
    [
      "ट्र",
      "ॉ"
    ],
    [
      "आ",
      "घा"
    ],
    [
      "झाल",
      "ेला</w>"
    ],
    [
      "माझ",
      "ा</w>"
    ],
    [
      "शा",
      "ळा</w>"
    ],
    [
      "नि",
      "दान</w>"
    ],
    [
      "नव्ह",
      "ते.</w>"
    ],
    [
      "ख",
      "्"
    ],
    [
      "अस्ति",
      "त्वात</w>"
    ],
    [
      "्यां",
      "वर</w>"
    ],
    [
      "ख",
      "ां"
    ],
    [
      "नैसर्",
      "गिक</w>"
    ],
    [
      "का",
      "श्"
    ],
    [
      "मिळ",
      "नाड"
    ],
    [
      "श",
      "ॉ"
    ],
    [
      "उं",
      "च</w>"
    ],
    [
      "लाइ",
      "न</w>"
    ],
    [
      "काय",
      "देशीर</w>"
    ],
    [
      "कर",
      "ते</w>"
    ],
    [
      "णा",
      "वर</w>"
    ],
    [
      "म्हण",
      "ाल"
    ],
    [
      "प्रति",
      "सा"
    ],
    [
      "संपर्",
      "क</w>"
    ],
    [
      "मध्य",
      "ेही</w>"
    ],
    [
      "प",
      "कड"
    ],
    [
      "मर",
      "ण</w>"
    ],
    [
      "कां",
      "ची</w>"
    ],
    [
      "दे",
      "शी</w>"
    ],
    [
      "सं",
      "चाल"
    ],
    [
      "ट्र",
      "े"
    ],
    [
      "ू",
      "ला</w>"
    ],
    [
      "ट",
      "ी.</w>"
    ],
    [
      "ए",
      ".</w>"
    ],
    [
      "मॉ",
      "ड"
    ],
    [
      "वा",
      "ज"
    ],
    [
      "इंड",
      "ि"
    ],
    [
      "भा",
      "ऊ</w>"
    ],
    [
      "आन",
      "ंद"
    ],
    [
      "ति",
      "च्या"
    ],
    [
      "राज",
      "व"
    ],
    [
      "प",
      "ट</w>"
    ],
    [
      "अस",
      "ते,</w>"
    ],
    [
      "च",
      "क्री"
    ],
    [
      "चक्री",
      "वाद"
    ],
    [
      "मह",
      "त्वा"
    ],
    [
      "चांग",
      "ली</w>"
    ],
    [
      "घेत",
      "ले</w>"
    ],
    [
      "बरे",
      "च</w>"
    ],
    [
      "वर",
      "ित</w>"
    ],
    [
      "ज",
      "ारी</w>"
    ],
    [
      "येत",
      "ात.</w>"
    ],
    [
      "आ",
      "ख"
    ],
    [
      "पट",
      "ू</w>"
    ],
    [
      "ट्र",
      "ि"
    ],
    [
      "आ",
      "कर्"
    ],
    [
      "ीं",
      "चा</w>"
    ],
    [
      "का",
      "ल</w>"
    ],
    [
      "नाग",
      "री</w>"
    ],
    [
      "ती",
      "साठी</w>"
    ],
    [
      "खेळ",
      "ले</w>"
    ],
    [
      "ऐ",
      "क"
    ],
    [
      "ब",
      "ी.</w>"
    ],
    [
      "गु",
      "रु"
    ],
    [
      "पात",
      "्र</w>"
    ],
    [
      "अंदा",
      "जे</w>"
    ],
    [
      "ब्र",
      "े"
    ],
    [
      "स्प",
      "र्"
    ],
    [
      "ी",
      "साठी</w>"
    ],
    [
      "स",
      "िल"
    ],
    [
      "दर्श",
      "व"
    ],
    [
      "मर्या",
      "दित</w>"
    ],
    [
      "२",
      "९</w>"
    ],
    [
      "ता",
      "च्या</w>"
    ],
    [
      "ज्ञ",
      "ात</w>"
    ],
    [
      "प्रकार",
      "चे</w>"
    ],
    [
      "मी",
      "टर"
    ],
    [
      "को",
      "ड</w>"
    ],
    [
      "ठ",
      "ार</w>"
    ],
    [
      "ळ",
      "ून</w>"
    ],
    [
      "ठ",
      "</w>"
    ],
    [
      "श",
      "िल्"
    ],
    [
      "जा",
      "णारे</w>"
    ],
    [
      "य",
      ",</w>"
    ],
    [
      "ी",
      "ल.</w>"
    ],
    [
      "ब",
      "च"
    ],
    [
      "लोक",
      "संख्य"
    ],
    [
      "व्ह",
      "र</w>"
    ],
    [
      "माय",
      "क्रो"
    ],
    [
      "वापर",
      "ून</w>"
    ],
    [
      "कि",
      "र"
    ],
    [
      "ग",
      "ंग"
    ],
    [
      "ग",
      "ौ"
    ],
    [
      "रुग्ण",
      "ाल"
    ],
    [
      "२००",
      "५</w>"
    ],
    [
      "े",
      "वर</w>"
    ],
    [
      "व",
      "ु"
    ],
    [
      "प्र",
      "दान</w>"
    ],
    [
      "कर",
      "ीत</w>"
    ],
    [
      "क्र",
      "ां"
    ],
    [
      "प्राथ",
      "मिक</w>"
    ],
    [
      "स्",
      "को"
    ],
    [
      "घोष",
      "ित</w>"
    ],
    [
      "शिल",
      "ाले"
    ],
    [
      "नि",
      "योज"
    ],
    [
      "ज",
      "्यांना</w>"
    ],
    [
      "द",
      "्रा"
    ],
    [
      "गे",
      "म</w>"
    ],
    [
      "राष्ट",
      "्रा"
    ],
    [
      "रि",
      "क्"
    ],
    [
      "वार",
      "ं"
    ],
    [
      "बा",
      "जार"
    ],
    [
      "हो",
      "ण्याची</w>"
    ],
    [
      "रो",
      "गा"
    ],
    [
      "कर",
      "ा</w>"
    ],
    [
      "ट",
      "िंग</w>"
    ],
    [
      "ड",
      "ी.</w>"
    ],
    [
      "स्वीड",
      "नमधील</w>"
    ],
    [
      "क",
      "ट</w>"
    ],
    [
      "जाही",
      "र</w>"
    ],
    [
      "चित्रपट",
      "ांमध्ये</w>"
    ],
    [
      "प्र",
      "ारंभ"
    ],
    [
      "बो",
      "ध"
    ],
    [
      "व",
      "ू"
    ],
    [
      "वाह",
      "न</w>"
    ],
    [
      "प्रशिक्ष",
      "ण</w>"
    ],
    [
      "अ",
      "न"
    ],
    [
      "दर्श",
      "वि"
    ],
    [
      "म",
      "ला.</w>"
    ],
    [
      "स",
      "्रो"
    ],
    [
      "म",
      "न"
    ],
    [
      "से",
      "न</w>"
    ],
    [
      "ध्व",
      "नि"
    ],
    [
      "हो",
      "ऊन</w>"
    ],
    [
      "हात",
      "ा"
    ],
    [
      "स्",
      "कॉ"
    ],
    [
      "इ",
      "ड</w>"
    ],
    [
      "र्",
      "ष"
    ],
    [
      "ध",
      "ार</w>"
    ],
    [
      "पवि",
      "त्र</w>"
    ],
    [
      "वि",
      "नो"
    ],
    [
      "वे",
      "त</w>"
    ],
    [
      "कोण",
      "तीही</w>"
    ],
    [
      "ां",
      "शी</w>"
    ],
    [
      "क",
      "टि"
    ],
    [
      "कॅन",
      "डा"
    ],
    [
      "का",
      "चे</w>"
    ],
    [
      "फ",
      "ल"
    ],
    [
      "का",
      "चा</w>"
    ],
    [
      "द्",
      "द</w>"
    ],
    [
      "रो",
      "</w>"
    ],
    [
      "पा",
      "वसा"
    ],
    [
      "रो",
      "जी,</w>"
    ],
    [
      "ज",
      "ॉन</w>"
    ],
    [
      "इंग्र",
      "जी</w>"
    ],
    [
      "ज",
      "्यु"
    ],
    [
      "जर्म",
      "नी"
    ],
    [
      "स",
      "मधील</w>"
    ],
    [
      "वा",
      "ळ"
    ],
    [
      "ब",
      "ार्"
    ],
    [
      "स्प",
      "ो"
    ],
    [
      "सम",
      "ज"
    ],
    [
      "त",
      "ी.</w>"
    ],
    [
      "आ",
      "कार"
    ],
    [
      "प्रे",
      "क्ष"
    ],
    [
      "६",
      "०</w>"
    ],
    [
      "प",
      "र</w>"
    ],
    [
      "तरु",
      "ण</w>"
    ],
    [
      "वे",
      "अर</w>"
    ],
    [
      "उन्हा",
      "ळी</w>"
    ],
    [
      "दिल्",
      "ली</w>"
    ],
    [
      "मो",
      "ह"
    ],
    [
      "स",
      "ग"
    ],
    [
      "झाल",
      "ेले</w>"
    ],
    [
      "अंदा",
      "ज</w>"
    ],
    [
      "प्रमा",
      "ण"
    ],
    [
      "जे",
      "थे</w>"
    ],
    [
      "सू",
      "चित</w>"
    ],
    [
      "ीं",
      "ना</w>"
    ],
    [
      "मो",
      "ज"
    ],
    [
      "दा",
      "वा</w>"
    ],
    [
      "अंत",
      "रावर</w>"
    ],
    [
      "व्हि",
      "ए"
    ],
    [
      "आरोग",
      "्य</w>"
    ],
    [
      "व्यक्ती",
      "ला</w>"
    ],
    [
      "ते",
      "ही</w>"
    ],
    [
      "म",
      "ज्"
    ],
    [
      "ट",
      "ो</w>"
    ],
    [
      "युरोपि",
      "यन</w>"
    ],
    [
      "शत",
      "कातील</w>"
    ],
    [
      "सम",
      "र्"
    ],
    [
      "मि",
      "त्र"
    ],
    [
      "स्ट",
      "र"
    ],
    [
      "मु",
      "क्त</w>"
    ],
    [
      "कर",
      "ार</w>"
    ],
    [
      "सत्",
      "ता"
    ],
    [
      "प",
      "ित</w>"
    ],
    [
      "य",
      "ार"
    ],
    [
      "वाट",
      "त</w>"
    ],
    [
      "णा",
      "चा</w>"
    ],
    [
      "परा",
      "भूत</w>"
    ],
    [
      "पद",
      "वी</w>"
    ],
    [
      "म",
      "ती</w>"
    ],
    [
      "नि",
      "घ"
    ],
    [
      "च",
      "दा</w>"
    ],
    [
      "होई",
      "ल.</w>"
    ],
    [
      "ई",
      "शा"
    ],
    [
      "संसर्",
      "ग</w>"
    ],
    [
      "ता",
      "स</w>"
    ],
    [
      "पृ",
      "थ"
    ],
    [
      "रि",
      "त्या</w>"
    ],
    [
      "ंब",
      "र"
    ],
    [
      "कां",
      "चा</w>"
    ],
    [
      "अस",
      "ले</w>"
    ],
    [
      "य",
      "ल</w>"
    ],
    [
      "कमा",
      "ई</w>"
    ],
    [
      "हॉ",
      "की</w>"
    ],
    [
      "उ",
      "ड"
    ],
    [
      "ट",
      "्यू"
    ],
    [
      "शक",
      "तो</w>"
    ],
    [
      "किलो",
      "मीटर</w>"
    ],
    [
      "लढा",
      "ई"
    ],
    [
      "पर्या",
      "य</w>"
    ],
    [
      "२००",
      "४</w>"
    ],
    [
      "पूर्",
      "वी"
    ],
    [
      "गु",
      "ला"
    ],
    [
      "आ",
      "स"
    ],
    [
      "ती",
      "ला</w>"
    ],
    [
      "लि",
      "न</w>"
    ],
    [
      "ति",
      "स"
    ],
    [
      "पा",
      "ऊस</w>"
    ],
    [
      "त्र",
      "िक</w>"
    ],
    [
      "प्र",
      "ती"
    ],
    [
      "सु",
      "वर्ण"
    ],
    [
      "र",
      "ंग</w>"
    ],
    [
      "वर्",
      "गी"
    ],
    [
      "ब",
      "ार</w>"
    ],
    [
      "क्रि",
      "य</w>"
    ],
    [
      "सर",
      "कारी</w>"
    ],
    [
      "चॅ",
      "म्पि"
    ],
    [
      "अ",
      "फ"
    ],
    [
      "च",
      "र"
    ],
    [
      "र",
      "ात्री</w>"
    ],
    [
      "तात",
      "्"
    ],
    [
      "कटि",
      "बंध"
    ],
    [
      "क्री",
      "डा"
    ],
    [
      "ब",
      "जाव"
    ],
    [
      "झाल्या",
      "नंतर</w>"
    ],
    [
      "प",
      "ण"
    ],
    [
      "गा",
      "णी</w>"
    ],
    [
      "से",
      "व"
    ],
    [
      "ख्रि",
      "श्च"
    ],
    [
      "ना",
      "मां"
    ],
    [
      "गर्",
      "भ"
    ],
    [
      "घ",
      "र</w>"
    ],
    [
      "मुंब",
      "ई"
    ],
    [
      "आ",
      "दि"
    ],
    [
      "पां",
      "ढ"
    ],
    [
      "ल",
      "गे"
    ],
    [
      "दिल",
      "ेल्या</w>"
    ],
    [
      "पूर्व",
      "ीच्या</w>"
    ],
    [
      "ू",
      ",</w>"
    ],
    [
      "दूर",
      "चित्र"
    ],
    [
      "चाल",
      "ू</w>"
    ],
    [
      "यु",
      "ग"
    ],
    [
      "पंजा",
      "ब"
    ],
    [
      "ब",
      "ात"
    ],
    [
      "प्र",
      "ोत्"
    ],
    [
      "प्रोत्",
      "साह"
    ],
    [
      "ए",
      "."
    ],
    [
      "व",
      "स"
    ],
    [
      "कां",
      "मध्ये</w>"
    ],
    [
      "अस",
      "ो"
    ],
    [
      "सु",
      "ट्"
    ],
    [
      "जा",
      "णारा</w>"
    ],
    [
      "ट्र",
      "ो"
    ],
    [
      "नेह",
      "मी"
    ],
    [
      "कराय",
      "ला</w>"
    ],
    [
      "सामन्या",
      "त</w>"
    ],
    [
      "क",
      "ै"
    ],
    [
      "नि",
      "युक्त</w>"
    ],
    [
      "वाप",
      "रा"
    ],
    [
      "झ",
      "र्"
    ],
    [
      "उप",
      "चार"
    ],
    [
      "नेतृत्",
      "व</w>"
    ],
    [
      "प",
      "िं"
    ],
    [
      "सम",
      "ीक्ष"
    ],
    [
      "ीं",
      "नी</w>"
    ],
    [
      "झ",
      "ा</w>"
    ],
    [
      "०",
      "०"
    ],
    [
      "परिणा",
      "म"
    ],
    [
      "व",
      "ला</w>"
    ],
    [
      "घेत",
      "ली</w>"
    ],
    [
      "व्यति",
      "रिक्"
    ],
    [
      "े",
      "ची</w>"
    ],
    [
      "कृ",
      "ष्"
    ],
    [
      "ड",
      "ो</w>"
    ],
    [
      "रक्",
      "कम</w>"
    ],
    [
      "‍",
      "या"
    ],
    [
      "कटिबंध",
      "ीय</w>"
    ],
    [
      "सोड",
      "ून</w>"
    ],
    [
      "च",
      "े.</w>"
    ],
    [
      "ण्या",
      "साठी,</w>"
    ],
    [
      "चाच",
      "णी</w>"
    ],
    [
      "ज्या",
      "चा</w>"
    ],
    [
      "चांग",
      "ला</w>"
    ],
    [
      "से",
      "ंट</w>"
    ],
    [
      "सर",
      "कार</w>"
    ],
    [
      "िल",
      "ी"
    ],
    [
      "ब",
      "ेल"
    ],
    [
      "डि",
      "ओ"
    ],
    [
      "कर",
      "णारी</w>"
    ],
    [
      "फ",
      "ार</w>"
    ],
    [
      "अधि",
      "कार"
    ],
    [
      "लोकां",
      "मध्ये</w>"
    ],
    [
      "आप",
      "ली</w>"
    ],
    [
      "य",
      "र"
    ],
    [
      "प्र",
      "वास</w>"
    ],
    [
      "साठी",
      "चे</w>"
    ],
    [
      "कोण",
      "तेही</w>"
    ],
    [
      "चर्",
      "च"
    ],
    [
      "पाठ",
      "िं"
    ],
    [
      "तु",
      "र्"
    ],
    [
      "दिग्दर्श",
      "ित</w>"
    ],
    [
      "भा",
      "ज"
    ],
    [
      "बन",
      "ले.</w>"
    ],
    [
      "ख",
      "र"
    ],
    [
      "वड",
      "ील</w>"
    ],
    [
      "मिळाल",
      "ा.</w>"
    ],
    [
      "निर्",
      "मात"
    ],
    [
      "मॅ",
      "क"
    ],
    [
      "विमानत",
      "ळ</w>"
    ],
    [
      "देत",
      "े.</w>"
    ],
    [
      "विषा",
      "णू"
    ],
    [
      "ऑलिम्प",
      "िक"
    ],
    [
      "नगरपाल",
      "िकेतील</w>"
    ],
    [
      "्या",
      "साठी</w>"
    ],
    [
      "तु",
      "रु"
    ],
    [
      "वर्ष",
      "ा"
    ],
    [
      "लोकां",
      "च्या</w>"
    ],
    [
      "ग",
      "ै"
    ],
    [
      "होई",
      "पर्यंत</w>"
    ],
    [
      "च",
      "ारी</w>"
    ],
    [
      "टी",
      "ं"
    ],
    [
      "ग्री",
      "क</w>"
    ],
    [
      "त",
      "च</w>"
    ],
    [
      "तीं",
      "मध्ये</w>"
    ],
    [
      "मा",
      "ने</w>"
    ],
    [
      "ग्",
      "ने"
    ],
    [
      "व",
      "ेल्"
    ],
    [
      "काउंटी",
      "मधील</w>"
    ],
    [
      "लाग",
      "ले.</w>"
    ],
    [
      "२०",
      "०</w>"
    ],
    [
      "सं",
      "भाव"
    ],
    [
      "र",
      "ंगा"
    ],
    [
      "अंतर्",
      "गत</w>"
    ],
    [
      "ना",
      "थ</w>"
    ],
    [
      "गु",
      "न्ह"
    ],
    [
      "श",
      "ू"
    ],
    [
      "ल्या",
      "चे</w>"
    ],
    [
      "प्रति",
      "स्पर्ध"
    ],
    [
      "१९",
      "०"
    ],
    [
      "व्यतिरिक्",
      "त,</w>"
    ],
    [
      "्",
      "स"
    ],
    [
      "चित्रपट",
      "ाला</w>"
    ],
    [
      "घोष",
      "णा</w>"
    ],
    [
      "ऊ",
      "र्"
    ],
    [
      "पां",
      "ड"
    ],
    [
      "पार्",
      "श्व"
    ],
    [
      "ट",
      "मध्ये</w>"
    ],
    [
      "ण",
      "ुक"
    ],
    [
      "क",
      "शी</w>"
    ],
    [
      "स्",
      "कू"
    ],
    [
      "चित्र",
      "</w>"
    ],
    [
      "ा",
      "ना</w>"
    ],
    [
      "च",
      "न</w>"
    ],
    [
      "किं",
      "ग</w>"
    ],
    [
      "म",
      "ग</w>"
    ],
    [
      "त्व",
      "चे"
    ],
    [
      "दि",
      "शे"
    ],
    [
      "संभाव",
      "्य</w>"
    ],
    [
      "खा",
      "न</w>"
    ],
    [
      "भ",
      "ा</w>"
    ],
    [
      "विक्र",
      "म</w>"
    ],
    [
      "रा",
      "म</w>"
    ],
    [
      "नाह",
      "ीत</w>"
    ],
    [
      "अ",
      "न्न</w>"
    ],
    [
      "र",
      "हिवा"
    ],
    [
      "का",
      "ची</w>"
    ],
    [
      "ब",
      "ेल्"
    ],
    [
      "मि",
      "त्र</w>"
    ],
    [
      "विष",
      "यी</w>"
    ],
    [
      "केल",
      "ी,</w>"
    ],
    [
      "आध",
      "ीच</w>"
    ],
    [
      "माल",
      "मत्"
    ],
    [
      "मान",
      "्यता</w>"
    ],
    [
      "जा",
      "य"
    ],
    [
      "वे",
      "गाने</w>"
    ],
    [
      "सि",
      "स</w>"
    ],
    [
      "व्हि",
      "डिओ</w>"
    ],
    [
      "टे",
      "कड"
    ],
    [
      "ाल",
      ",</w>"
    ],
    [
      "प्र",
      "स्ता"
    ],
    [
      "जे",
      "णे"
    ],
    [
      "म",
      "र</w>"
    ],
    [
      "ता",
      "ही</w>"
    ],
    [
      "र",
      "व"
    ],
    [
      "सह",
      ",</w>"
    ],
    [
      "णा",
      "ची</w>"
    ],
    [
      "ाल",
      "ा"
    ],
    [
      "डि",
      "स्"
    ],
    [
      "खो",
      "र"
    ],
    [
      "व्य",
      "क्त</w>"
    ],
    [
      "र",
      "ात्र"
    ],
    [
      "ए",
      "</w>"
    ],
    [
      "मो",
      "हि"
    ],
    [
      "णा",
      "साठी</w>"
    ],
    [
      "भोव",
      "ती</w>"
    ],
    [
      "देश",
      "ातील</w>"
    ],
    [
      "तुल",
      "नेत</w>"
    ],
    [
      "उत्स",
      "व</w>"
    ],
    [
      "कम",
      "तर"
    ],
    [
      "राह",
      "तात.</w>"
    ],
    [
      "राज",
      "</w>"
    ],
    [
      "शै",
      "ली</w>"
    ],
    [
      "द",
      "ौ"
    ],
    [
      "ग",
      "न</w>"
    ],
    [
      "कां",
      "चे</w>"
    ],
    [
      "काळ",
      "जी</w>"
    ],
    [
      "चांग",
      "ल्या</w>"
    ],
    [
      "दृ",
      "श"
    ],
    [
      "हो",
      "ण्यासाठी</w>"
    ],
    [
      "उद्",
      "भव"
    ],
    [
      "वापर",
      "ला</w>"
    ],
    [
      "ख",
      "रोख"
    ],
    [
      "मिळाल",
      "े.</w>"
    ],
    [
      "अ",
      "क"
    ],
    [
      "कालावध",
      "ीत</w>"
    ],
    [
      "ल",
      "ू"
    ],
    [
      "पा",
      "च"
    ],
    [
      "प",
      "ार</w>"
    ],
    [
      "क",
      "व"
    ],
    [
      "हो",
      "णार</w>"
    ],
    [
      "स्वतः",
      "ला</w>"
    ],
    [
      "्या",
      "नंतर</w>"
    ],
    [
      "ती",
      "र्थ"
    ],
    [
      "ह",
      "ी,</w>"
    ],
    [
      "मूल",
      "्य</w>"
    ],
    [
      "दे",
      "वा"
    ],
    [
      "क्षम",
      "ता</w>"
    ],
    [
      "च",
      "क्र"
    ],
    [
      "्यां",
      "साठी</w>"
    ],
    [
      "ट",
      "ेल"
    ],
    [
      "बा",
      "ह"
    ],
    [
      "प्र",
      "श्"
    ],
    [
      "गुज",
      "रात"
    ],
    [
      "स",
      "िंग"
    ],
    [
      "न",
      "ारा"
    ],
    [
      "विक्र",
      "ी</w>"
    ],
    [
      "स",
      "रो"
    ],
    [
      "गो",
      "ळा</w>"
    ],
    [
      "र",
      "द्द</w>"
    ],
    [
      "ीं",
      "चे</w>"
    ],
    [
      "स",
      "मि"
    ],
    [
      "कला",
      "कार</w>"
    ],
    [
      "इंड",
      "ो"
    ],
    [
      "स्वतः",
      "च्या</w>"
    ],
    [
      "ठर",
      "ला.</w>"
    ],
    [
      "भ",
      "िं"
    ],
    [
      "सुरुवात",
      "ी"
    ],
    [
      "राष्ट्रा",
      "ध्य"
    ],
    [
      "ता",
      "मिळनाड"
    ],
    [
      "व",
      "ण</w>"
    ],
    [
      "जर्",
      "मन</w>"
    ],
    [
      "२००",
      "३</w>"
    ],
    [
      "असल्या",
      "ने</w>"
    ],
    [
      "तिस",
      "ऱ्या</w>"
    ],
    [
      "असता",
      "ना,</w>"
    ],
    [
      "व्ह",
      "ाय"
    ],
    [
      "फे",
      "रीत</w>"
    ],
    [
      "सां",
      "स्कृ"
    ],
    [
      "प",
      "ब्ल"
    ],
    [
      "पूर्व",
      "ी,</w>"
    ],
    [
      "म",
      "चे</w>"
    ],
    [
      "ख",
      "ू"
    ],
    [
      "अल्",
      "ब"
    ],
    [
      "ऑ",
      "लिं"
    ],
    [
      "अधि",
      "कार</w>"
    ],
    [
      "जेणे",
      "करून</w>"
    ],
    [
      "ग",
      "टा"
    ],
    [
      "्य",
      "े</w>"
    ],
    [
      "अ",
      "ब्"
    ],
    [
      ".एल",
      "."
    ],
    [
      "म",
      "्य</w>"
    ],
    [
      "प्र",
      "क्रिया</w>"
    ],
    [
      "ई",
      ".</w>"
    ],
    [
      "जीव",
      "नस"
    ],
    [
      "आप",
      "ला</w>"
    ],
    [
      "ड",
      "्रा"
    ],
    [
      "क",
      "ीच्या</w>"
    ],
    [
      "रा",
      "व</w>"
    ],
    [
      "ण",
      "िक</w>"
    ],
    [
      "ळ",
      "्यात</w>"
    ],
    [
      "पात",
      "ळी"
    ],
    [
      "य",
      "ंत्र"
    ],
    [
      "ला",
      "त</w>"
    ],
    [
      "ता",
      "मी"
    ],
    [
      "जन",
      "्य</w>"
    ],
    [
      "इ",
      "लेक्"
    ],
    [
      "र",
      "शि"
    ],
    [
      "पॅ",
      "रि"
    ],
    [
      "च",
      "ंद"
    ],
    [
      "द",
      "शक"
    ],
    [
      "न",
      "कार</w>"
    ],
    [
      "शा",
      "ह</w>"
    ],
    [
      "वि",
      "भागा"
    ],
    [
      "२००",
      "२</w>"
    ],
    [
      "प",
      "त्र</w>"
    ],
    [
      "माह",
      "ीत</w>"
    ],
    [
      "ीत",
      "री</w>"
    ],
    [
      "आप",
      "ण</w>"
    ],
    [
      "ना",
      "वे</w>"
    ],
    [
      "आवृत्",
      "ती</w>"
    ],
    [
      "प्र",
      "ार्थ"
    ],
    [
      "पा",
      "ण्या"
    ],
    [
      "वापर",
      "ल्या</w>"
    ],
    [
      "स्",
      "नाय"
    ],
    [
      "बंद",
      "ी</w>"
    ],
    [
      "प",
      "चार"
    ],
    [
      "जा",
      "हि"
    ],
    [
      "जो",
      "डी"
    ],
    [
      "विवाह",
      "</w>"
    ],
    [
      "पट",
      "का"
    ],
    [
      "जा",
      "णारी</w>"
    ],
    [
      "बँ",
      "क</w>"
    ],
    [
      "प्",
      "त"
    ],
    [
      "श",
      "ांत"
    ],
    [
      "ने",
      "ने</w>"
    ],
    [
      "शहर",
      "ातील</w>"
    ],
    [
      "ज",
      "ॉ"
    ],
    [
      "निय",
      "मित</w>"
    ],
    [
      "शेवट",
      "च्या</w>"
    ],
    [
      "ण",
      "ीच्या</w>"
    ],
    [
      "्यां",
      "पैकी</w>"
    ],
    [
      "रे",
      "ष"
    ],
    [
      "लैंग",
      "िक</w>"
    ],
    [
      "जी",
      "वा"
    ],
    [
      "एखा",
      "दी</w>"
    ],
    [
      "वापर",
      "कर्"
    ],
    [
      "टेक्",
      "सा"
    ],
    [
      "मिळाल",
      "े</w>"
    ],
    [
      "आ",
      "श्र"
    ],
    [
      "ते",
      "व्हा"
    ],
    [
      "न",
      "-"
    ],
    [
      "नि",
      "या"
    ],
    [
      "सं",
      "त</w>"
    ],
    [
      "सं",
      "बोध"
    ],
    [
      "विद्यापीठ",
      "ात</w>"
    ],
    [
      "त",
      "ळ"
    ],
    [
      "न",
      "ांच्या</w>"
    ],
    [
      "ट",
      "च्या</w>"
    ],
    [
      "ई",
      "."
    ],
    [
      "पृथ",
      "्"
    ],
    [
      "माग",
      "णी</w>"
    ],
    [
      "द",
      "रा"
    ],
    [
      "उ",
      "तर"
    ],
    [
      "गा",
      "णे</w>"
    ],
    [
      "क",
      "सो"
    ],
    [
      "बा",
      "द"
    ],
    [
      "लव",
      "कर"
    ],
    [
      "अ",
      "ंग"
    ],
    [
      "अ",
      "शो"
    ],
    [
      "वाट",
      "ते</w>"
    ],
    [
      "सू",
      "च"
    ],
    [
      "प्रतिसा",
      "द</w>"
    ],
    [
      "पू",
      "जा</w>"
    ],
    [
      "सि",
      "टी</w>"
    ],
    [
      "वि",
      "ंडो"
    ],
    [
      "त",
      "ू</w>"
    ],
    [
      "सै",
      "नि"
    ],
    [
      "क्",
      "की"
    ],
    [
      "व",
      "गळ"
    ],
    [
      "ळा",
      "वर</w>"
    ],
    [
      "स्व",
      "च्छ"
    ],
    [
      "नावा",
      "ने</w>"
    ],
    [
      "केल्या",
      "नंतर</w>"
    ],
    [
      "को",
      "ल"
    ],
    [
      "मि",
      "श"
    ],
    [
      "पत्",
      "नी</w>"
    ],
    [
      "मृ",
      "त"
    ],
    [
      "चल",
      "ित</w>"
    ],
    [
      "न्यूयॉर्",
      "क</w>"
    ],
    [
      "कर",
      "तात,</w>"
    ],
    [
      "उ",
      "भार"
    ],
    [
      "आवा",
      "ज</w>"
    ],
    [
      "भा",
      "व</w>"
    ],
    [
      "द्",
      "वि"
    ],
    [
      "न",
      "ष्ट</w>"
    ],
    [
      "र",
      "ू</w>"
    ],
    [
      "किं",
      "मत</w>"
    ],
    [
      "चौ",
      "रस</w>"
    ],
    [
      "उष्ण",
      "कटिबंधीय</w>"
    ],
    [
      "महत्त्वा",
      "ची</w>"
    ],
    [
      "फ",
      "ी"
    ],
    [
      "ओळ",
      "ख</w>"
    ],
    [
      "जीव",
      "न</w>"
    ],
    [
      "ण",
      "ी,</w>"
    ],
    [
      "क",
      "ने</w>"
    ],
    [
      "फे",
      "ड"
    ],
    [
      "शह",
      "री</w>"
    ],
    [
      "तर",
      "ण</w>"
    ],
    [
      "कां",
      "साठी</w>"
    ],
    [
      "पुरव",
      "ठ"
    ],
    [
      "शा",
      "ह"
    ],
    [
      "करा",
      "वा</w>"
    ],
    [
      "कारकिर्",
      "दी"
    ],
    [
      "प्रा",
      "देश"
    ],
    [
      "द",
      "ल"
    ],
    [
      "ज",
      "्यांनी</w>"
    ],
    [
      "स",
      "हा"
    ],
    [
      "ए",
      "वढ"
    ],
    [
      "मू",
      "द</w>"
    ],
    [
      "वे",
      "स्ट</w>"
    ],
    [
      "च",
      "ेत"
    ],
    [
      "कोण",
      "ताही</w>"
    ],
    [
      "मिळाल",
      "ी.</w>"
    ],
    [
      "छा",
      "या"
    ],
    [
      "मे",
      "क्स"
    ],
    [
      "उद्",
      "दि"
    ],
    [
      "न",
      "ाला</w>"
    ],
    [
      "ंड",
      "ी</w>"
    ],
    [
      "कधी",
      "ही</w>"
    ],
    [
      "सं",
      "धी</w>"
    ],
    [
      "सै",
      "न्य</w>"
    ],
    [
      "ठेव",
      "ण्यात</w>"
    ],
    [
      "बा",
      "ळ"
    ],
    [
      "च",
      "ां"
    ],
    [
      "च",
      "्यु"
    ],
    [
      "एन",
      "."
    ],
    [
      "क्र",
      "म</w>"
    ],
    [
      "शत",
      "का"
    ],
    [
      "यां",
      "मध्ये</w>"
    ],
    [
      "३",
      "१</w>"
    ],
    [
      "ार्थ",
      "</w>"
    ],
    [
      "की",
      "चे</w>"
    ],
    [
      "तरी",
      "ही</w>"
    ],
    [
      "कपड",
      "े</w>"
    ],
    [
      "नेट",
      "वर्"
    ],
    [
      "असो",
      "सिए"
    ],
    [
      "विरो",
      "धात</w>"
    ],
    [
      "दीर्घ",
      "</w>"
    ],
    [
      "च",
      "ळ"
    ],
    [
      "तर",
      "ी,</w>"
    ],
    [
      "ई",
      "ट</w>"
    ],
    [
      "ली",
      "न</w>"
    ],
    [
      "ग्र",
      "स्त</w>"
    ],
    [
      "ब",
      "ांग"
    ],
    [
      "देश",
      "ां"
    ],
    [
      "्य",
      "ू</w>"
    ],
    [
      "लँ",
      "ड"
    ],
    [
      "दे",
      "ऊन</w>"
    ],
    [
      "तु",
      "कड"
    ],
    [
      "स",
      "क्रिय</w>"
    ],
    [
      "सध",
      "्याच्या</w>"
    ],
    [
      "ग",
      "ड</w>"
    ],
    [
      "सार्",
      "व"
    ],
    [
      "च",
      "र</w>"
    ],
    [
      "सहाय",
      "्य"
    ],
    [
      "ं",
      "टि"
    ],
    [
      "मु",
      "लां"
    ],
    [
      "णा",
      "चे</w>"
    ],
    [
      "ऑन",
      "लाइन</w>"
    ],
    [
      "उं",
      "ची"
    ],
    [
      "लव",
      "कर</w>"
    ],
    [
      "राज",
      "कार"
    ],
    [
      "हो",
      "ण्या"
    ],
    [
      "पाठिं",
      "बा</w>"
    ],
    [
      "शक्",
      "ती</w>"
    ],
    [
      "श",
      "ाली</w>"
    ],
    [
      "'",
      ",</w>"
    ],
    [
      "ल",
      "िंग"
    ],
    [
      "मे",
      "ंट</w>"
    ],
    [
      "५",
      "०"
    ],
    [
      "ल",
      "क</w>"
    ],
    [
      "चित्रपटा",
      "चे</w>"
    ],
    [
      "का",
      ",</w>"
    ],
    [
      "जा",
      "ईल.</w>"
    ],
    [
      "प्र",
      "वाह"
    ],
    [
      "ड्र",
      "ो"
    ],
    [
      "सुल",
      "ता"
    ],
    [
      "कर",
      "ी"
    ],
    [
      "मुल",
      "गी</w>"
    ],
    [
      "घे",
      "ऊ</w>"
    ],
    [
      "ध्वनि",
      "मुद्र"
    ],
    [
      "ज",
      "मात"
    ],
    [
      "आ",
      "ग्ने"
    ],
    [
      "शह",
      "राच्या</w>"
    ],
    [
      ".एफ",
      "."
    ],
    [
      "वा",
      "जव"
    ],
    [
      "उत्त",
      "रा"
    ],
    [
      "ए",
      "अर"
    ],
    [
      "सांगित",
      "ले.</w>"
    ],
    [
      "वि",
      "द"
    ],
    [
      "प्रादेश",
      "िक</w>"
    ],
    [
      "र",
      "ने</w>"
    ],
    [
      "प",
      "ल</w>"
    ],
    [
      "वारं",
      "वार</w>"
    ],
    [
      "भर",
      "ातील</w>"
    ],
    [
      "पार",
      "ं"
    ],
    [
      "उ",
      "गम</w>"
    ],
    [
      "प्रां",
      "तातील</w>"
    ],
    [
      "बच",
      "त</w>"
    ],
    [
      "उ",
      "मे"
    ],
    [
      "मराठ",
      "ा</w>"
    ],
    [
      "दिशे",
      "ने</w>"
    ],
    [
      "प्रमाणे",
      "च</w>"
    ],
    [
      "वर्ष",
      "ांच्या</w>"
    ],
    [
      "प",
      "क</w>"
    ],
    [
      "राजव",
      "टी"
    ],
    [
      "त्या",
      "पैकी</w>"
    ],
    [
      "जवळ",
      "च्या</w>"
    ],
    [
      "आम्ह",
      "ी</w>"
    ],
    [
      "सांस्कृ",
      "तिक</w>"
    ],
    [
      "क",
      "से</w>"
    ],
    [
      "बऱ्या",
      "च</w>"
    ],
    [
      "शुल्",
      "क</w>"
    ],
    [
      "व्ह",
      "ी.</w>"
    ],
    [
      "यू",
      "."
    ],
    [
      "जग",
      "भरात</w>"
    ],
    [
      "स्पो",
      "र्"
    ],
    [
      "स",
      "ची</w>"
    ],
    [
      "निवड",
      "ून</w>"
    ],
    [
      "द",
      "्र</w>"
    ],
    [
      "ऑस्ट्रेलि",
      "यन</w>"
    ],
    [
      "ल",
      "ने</w>"
    ],
    [
      "लक्षण",
      "ीय</w>"
    ],
    [
      "पु",
      "री</w>"
    ],
    [
      "प",
      "ा</w>"
    ],
    [
      "ला",
      "च्या</w>"
    ],
    [
      "क",
      "े.</w>"
    ],
    [
      "ए",
      "ड"
    ],
    [
      "क्",
      "व"
    ],
    [
      "र्",
      "गत</w>"
    ],
    [
      "श",
      "ल</w>"
    ],
    [
      "सुधार",
      "णा</w>"
    ],
    [
      "उर्",
      "वरित</w>"
    ],
    [
      "सु",
      "च"
    ],
    [
      "१९९",
      "९</w>"
    ],
    [
      "र",
      "ल</w>"
    ],
    [
      "से",
      "वे"
    ],
    [
      "फू",
      "ट</w>"
    ],
    [
      "लिहिल",
      "े</w>"
    ],
    [
      "इ",
      "ट</w>"
    ],
    [
      "ख",
      "रा"
    ],
    [
      "जपा",
      "नी</w>"
    ],
    [
      "डि",
      "या</w>"
    ],
    [
      "अस",
      "तो,</w>"
    ],
    [
      "ग्राह",
      "क</w>"
    ],
    [
      "थ",
      "ाय"
    ],
    [
      "घ",
      "ेत</w>"
    ],
    [
      "क्रिके",
      "ट</w>"
    ],
    [
      "क्षेत्र",
      "ात</w>"
    ],
    [
      "अस",
      "लेल"
    ],
    [
      "१९८",
      "०</w>"
    ],
    [
      "पट्",
      "टी"
    ],
    [
      "डब्ल्यू",
      ".</w>"
    ],
    [
      "म",
      "मधील</w>"
    ],
    [
      "न",
      "ांमध्ये</w>"
    ],
    [
      "विका",
      "स</w>"
    ],
    [
      "ष",
      "ित</w>"
    ],
    [
      "व्या",
      "या"
    ],
    [
      "क्",
      "लि"
    ],
    [
      "प्रजात",
      "ी</w>"
    ],
    [
      "ट्र",
      "ॅ"
    ],
    [
      "इं",
      "जि"
    ],
    [
      "ब",
      "ंड"
    ],
    [
      "य",
      "श</w>"
    ],
    [
      "झाल",
      "ेली</w>"
    ],
    [
      "प्रशिक्ष",
      "क</w>"
    ],
    [
      "े",
      "साठी</w>"
    ],
    [
      "रेल्",
      "वे"
    ],
    [
      "अट",
      "क</w>"
    ],
    [
      "की",
      "र्"
    ],
    [
      "क",
      "ट"
    ],
    [
      "वर्",
      "ती</w>"
    ],
    [
      "मान",
      "व"
    ],
    [
      "प",
      "न</w>"
    ],
    [
      "ग",
      "ांध"
    ],
    [
      "ह",
      "क्"
    ],
    [
      "ज्या",
      "चे</w>"
    ],
    [
      "भ",
      "विष"
    ],
    [
      "स",
      "न"
    ],
    [
      "द",
      "त्"
    ],
    [
      "कौ",
      "श"
    ],
    [
      "वाढ",
      "व"
    ],
    [
      "मु",
      "क्"
    ],
    [
      "ून",
      "च</w>"
    ],
    [
      "वि",
      "द्य"
    ],
    [
      "भी",
      "ती</w>"
    ],
    [
      "रि",
      "पब्ल"
    ],
    [
      "मुख",
      "्याल"
    ],
    [
      "विद्यार्थ",
      "ी</w>"
    ],
    [
      "आह",
      "ात</w>"
    ],
    [
      "झ",
      "ी</w>"
    ],
    [
      "आर",
      ".</w>"
    ],
    [
      "रे",
      "टि"
    ],
    [
      "झाल",
      "ा,</w>"
    ],
    [
      "न",
      "मूद</w>"
    ],
    [
      "कला",
      "कार"
    ],
    [
      "च",
      "ुक"
    ],
    [
      "व",
      "ंत</w>"
    ],
    [
      "खाल",
      "च्या</w>"
    ],
    [
      "म",
      "र्"
    ],
    [
      ".एम",
      "."
    ],
    [
      "बांग",
      "ला"
    ],
    [
      "का",
      "ठ"
    ],
    [
      "विजेत",
      "ा</w>"
    ],
    [
      "क",
      "्यु"
    ],
    [
      "गि",
      "री"
    ],
    [
      "ू",
      "र</w>"
    ],
    [
      "ाल",
      "ि"
    ],
    [
      "अ",
      "पेक्षा</w>"
    ],
    [
      "सल्",
      "लाग"
    ],
    [
      "व्यक्",
      "ति"
    ],
    [
      "पुरस्",
      "कार"
    ],
    [
      "ती",
      "वर</w>"
    ],
    [
      "न",
      "क</w>"
    ],
    [
      "पर",
      "े"
    ],
    [
      "रा",
      "व"
    ],
    [
      "काश्",
      "मी"
    ],
    [
      "बे",
      "टा"
    ],
    [
      "लि",
      "हि"
    ],
    [
      "म्हण",
      "ूनही</w>"
    ],
    [
      "रू",
      "पां"
    ],
    [
      "फर",
      "क</w>"
    ],
    [
      "कि",
      "मी</w>"
    ],
    [
      "एस",
      "."
    ],
    [
      "स्के",
      "ट"
    ],
    [
      "ड",
      "क"
    ],
    [
      "भू",
      "मी"
    ],
    [
      "चित्रपटा",
      "ची</w>"
    ],
    [
      "विरो",
      "धी</w>"
    ],
    [
      "अ",
      "पे"
    ],
    [
      "त",
      "ृ"
    ],
    [
      "पश्चि",
      "मे"
    ],
    [
      "हंगा",
      "मात</w>"
    ],
    [
      "र",
      "्या"
    ],
    [
      "महत्त्वा",
      "चा</w>"
    ],
    [
      "ठेव",
      "ले</w>"
    ],
    [
      "ी",
      "व</w>"
    ],
    [
      "म",
      "होत"
    ],
    [
      "वा",
      ",</w>"
    ],
    [
      "८",
      "०</w>"
    ],
    [
      "प्र",
      "ौ"
    ],
    [
      "आरो",
      "प</w>"
    ],
    [
      "दुसर",
      "़्या</w>"
    ],
    [
      "देशा",
      "त</w>"
    ],
    [
      "करि",
      "त्या</w>"
    ],
    [
      "नव्ह",
      "ती.</w>"
    ],
    [
      "काळ",
      "ात,</w>"
    ],
    [
      "केल्या",
      ".</w>"
    ],
    [
      "क",
      "ात"
    ],
    [
      "कर्म",
      "चारी</w>"
    ],
    [
      "क्",
      "ले"
    ],
    [
      "स्थ",
      "</w>"
    ],
    [
      "१",
      "."
    ],
    [
      "फ्",
      "ट</w>"
    ],
    [
      "प",
      "थ"
    ],
    [
      "दिस",
      "ते.</w>"
    ],
    [
      "न",
      "ल</w>"
    ],
    [
      "विशेष",
      "त:</w>"
    ],
    [
      "से",
      "ंट"
    ],
    [
      "लागेल",
      ".</w>"
    ],
    [
      "स्प",
      "ॅ"
    ],
    [
      "तुमच्या",
      "कडे</w>"
    ],
    [
      "स्ट",
      "ु"
    ],
    [
      "पू",
      ".</w>"
    ],
    [
      "नद",
      "्या</w>"
    ],
    [
      "ट",
      "ने</w>"
    ],
    [
      "ल",
      "सी"
    ],
    [
      "एफ",
      ".</w>"
    ],
    [
      "पृथ्",
      "वी"
    ],
    [
      "युक्",
      "ती</w>"
    ],
    [
      "१",
      "मध्ये</w>"
    ],
    [
      "किल्",
      "ल्या"
    ],
    [
      "व",
      "ो"
    ],
    [
      "चित्रपटा",
      "च्या</w>"
    ],
    [
      "व",
      "्"
    ],
    [
      "उ",
      "पा"
    ],
    [
      "वि",
      "ना"
    ],
    [
      "बन",
      "ला.</w>"
    ],
    [
      "दे",
      "वी</w>"
    ],
    [
      "ीं",
      "ची</w>"
    ],
    [
      "नाट",
      "्य"
    ],
    [
      "वाह",
      "त"
    ],
    [
      "वाहत",
      "ूक</w>"
    ],
    [
      "जात",
      "ो,</w>"
    ],
    [
      "ह",
      "जार"
    ],
    [
      "भां",
      "ड"
    ],
    [
      "चर्",
      "चा</w>"
    ],
    [
      "ज",
      "ण"
    ],
    [
      "सर्",
      "वसा"
    ],
    [
      "अँ",
      "ड</w>"
    ],
    [
      "संघा",
      "ने</w>"
    ],
    [
      "दुस",
      "री</w>"
    ],
    [
      "इ",
      ".</w>"
    ],
    [
      "आप",
      "त्"
    ],
    [
      "व्यव",
      "स्थापन</w>"
    ],
    [
      "जी",
      "."
    ],
    [
      "सा",
      "ख"
    ],
    [
      "एम",
      "."
    ],
    [
      "र",
      "क्त</w>"
    ],
    [
      "प्र",
      "ी"
    ],
    [
      "ताप",
      "मान</w>"
    ],
    [
      "स्रो",
      "त</w>"
    ],
    [
      "च",
      "ंद्र"
    ],
    [
      "१९९",
      "८</w>"
    ],
    [
      "रक्ष",
      "क</w>"
    ],
    [
      "सु",
      "ंद"
    ],
    [
      "द",
      "ंत"
    ],
    [
      "अभिनेत",
      "ा</w>"
    ],
    [
      "महत्त्वा",
      "च्या</w>"
    ],
    [
      "उत्तरे",
      "कडील</w>"
    ],
    [
      "वा",
      "सी</w>"
    ],
    [
      "ारा",
      "च्या</w>"
    ],
    [
      "हळ",
      "ू</w>"
    ],
    [
      "ां",
      "पेक्षा</w>"
    ],
    [
      "शार",
      "ीर"
    ],
    [
      "शारीर",
      "िक</w>"
    ],
    [
      "पाल",
      "न</w>"
    ],
    [
      "हि",
      "र"
    ],
    [
      "हो",
      "णे</w>"
    ],
    [
      "म्हण",
      "तात</w>"
    ],
    [
      "म",
      "चा</w>"
    ],
    [
      "ा",
      "ची</w>"
    ],
    [
      "प्रभा",
      "वी</w>"
    ],
    [
      "र",
      "वि"
    ],
    [
      "च",
      "ूक</w>"
    ],
    [
      "राज्य",
      "पाल</w>"
    ],
    [
      "स्था",
      "नी</w>"
    ],
    [
      "े",
      "मध्ये</w>"
    ],
    [
      "खा",
      "स</w>"
    ],
    [
      "ी",
      "मध्ये</w>"
    ],
    [
      "अस",
      "णे</w>"
    ],
    [
      "ळ",
      ",</w>"
    ],
    [
      "थ",
      "ु"
    ],
    [
      "गुंतव",
      "णूक</w>"
    ],
    [
      "जु",
      "ळ"
    ],
    [
      "साल",
      "ी,</w>"
    ],
    [
      "सम्रा",
      "ट</w>"
    ],
    [
      "उमे",
      "द"
    ],
    [
      "विस्त",
      "ार</w>"
    ],
    [
      "फ्र",
      "ँ"
    ],
    [
      "ल्या",
      "नंतर,</w>"
    ],
    [
      "चे",
      "न्न"
    ],
    [
      "श्र",
      "ी</w>"
    ],
    [
      "ना",
      "मध्ये</w>"
    ],
    [
      "ग",
      "ॉ"
    ],
    [
      "विद",
      "्यु"
    ],
    [
      "मुख्य",
      "तः</w>"
    ],
    [
      "जनगणने",
      "नुसार,</w>"
    ],
    [
      "प्र",
      "जा"
    ],
    [
      "य",
      "ात्र"
    ],
    [
      "दश",
      "काच्या</w>"
    ],
    [
      "ब्रि",
      "ट"
    ],
    [
      "कर्",
      "ज</w>"
    ],
    [
      "ग्रा",
      "मी"
    ],
    [
      "ए",
      "क्"
    ],
    [
      "प्र",
      "ति</w>"
    ],
    [
      "५",
      "००</w>"
    ],
    [
      "न",
      "साठी</w>"
    ],
    [
      "खर्",
      "चा"
    ],
    [
      "ल",
      "न</w>"
    ],
    [
      "ख्रिश्च",
      "न</w>"
    ],
    [
      "उत्प",
      "न्न</w>"
    ],
    [
      "फु",
      "फ्"
    ],
    [
      "फुफ्",
      "फु"
    ],
    [
      "शक",
      "ता</w>"
    ],
    [
      "समू",
      "ह</w>"
    ],
    [
      "बर्",
      "‍या"
    ],
    [
      "कॅ",
      "रो"
    ],
    [
      "ब्रा",
      "झी"
    ],
    [
      "सु",
      "ट"
    ],
    [
      "ते",
      "चा</w>"
    ],
    [
      "ूं",
      "च्या</w>"
    ],
    [
      "भ",
      "ग"
    ],
    [
      "काय",
      "म</w>"
    ],
    [
      "श",
      "र्"
    ],
    [
      "घट",
      "ना</w>"
    ],
    [
      "जिंक",
      "ली.</w>"
    ],
    [
      "स्ट",
      "र्"
    ],
    [
      "ग्रामी",
      "ण</w>"
    ],
    [
      "बाहे",
      "र"
    ],
    [
      "संग्र",
      "हाल"
    ],
    [
      "हाता",
      "ळ"
    ],
    [
      "श",
      "ी,</w>"
    ],
    [
      "स",
      "."
    ],
    [
      "दर्श",
      "न</w>"
    ],
    [
      "२",
      ","
    ],
    [
      "का",
      "ग"
    ],
    [
      "पा",
      "क"
    ],
    [
      "लीग",
      "मध्ये</w>"
    ],
    [
      "घट",
      "ने"
    ],
    [
      "श",
      "केल"
    ],
    [
      "१९९",
      "०</w>"
    ],
    [
      "प",
      "द्"
    ],
    [
      "वर्",
      "ल्ड</w>"
    ],
    [
      "अ",
      "न्य</w>"
    ],
    [
      "प्र",
      "च"
    ],
    [
      "द",
      "ां"
    ],
    [
      "स",
      "ेल"
    ],
    [
      "च",
      "े,</w>"
    ],
    [
      "दक्षि",
      "ण"
    ],
    [
      "मो",
      "ट"
    ],
    [
      "आ",
      "श्च"
    ],
    [
      "प",
      "ल्"
    ],
    [
      "अध्य",
      "क्ष"
    ],
    [
      "थ",
      "ंड</w>"
    ],
    [
      "डे",
      "मो"
    ],
    [
      "त",
      "ै"
    ],
    [
      "ल",
      "ीच्या</w>"
    ],
    [
      "राज",
      "वंशा"
    ],
    [
      "गमा",
      "व"
    ],
    [
      "यांच्या",
      "तील</w>"
    ],
    [
      "ना",
      "कार"
    ],
    [
      "दि",
      "न"
    ],
    [
      "चित्र",
      "ीकरण</w>"
    ],
    [
      "इच्छ",
      "ा</w>"
    ],
    [
      "या",
      "पैकी</w>"
    ],
    [
      "ठर",
      "व"
    ],
    [
      "श",
      "ां"
    ],
    [
      "जी",
      "व</w>"
    ],
    [
      "जात",
      "ात,</w>"
    ],
    [
      "अ",
      "न्"
    ],
    [
      "शि",
      "फार"
    ],
    [
      "्या",
      ".</w>"
    ],
    [
      "पद्ध",
      "त</w>"
    ],
    [
      "मूल",
      "भूत</w>"
    ],
    [
      "पुष्ट",
      "ी</w>"
    ],
    [
      "स्प",
      "ि"
    ],
    [
      "महा",
      "मार्ग</w>"
    ],
    [
      "घे",
      "णे</w>"
    ],
    [
      "ल",
      "िक</w>"
    ],
    [
      "आयोज",
      "न</w>"
    ],
    [
      "भार",
      "त"
    ],
    [
      "उत्त",
      "म</w>"
    ],
    [
      "हिं",
      "द"
    ],
    [
      "वात",
      "ा"
    ],
    [
      "पाहिल",
      "े</w>"
    ],
    [
      "ी",
      "ही</w>"
    ],
    [
      "ग",
      "र</w>"
    ],
    [
      "न",
      "मु"
    ],
    [
      "दु",
      "रु"
    ],
    [
      "एकमे",
      "कां"
    ],
    [
      "स",
      "पा"
    ],
    [
      "ल",
      ")</w>"
    ],
    [
      "पि",
      "व"
    ],
    [
      "ई",
      "स्ट</w>"
    ],
    [
      "इंड",
      "िया</w>"
    ],
    [
      "रा",
      "हि"
    ],
    [
      "ति",
      "की"
    ],
    [
      "व",
      "ेत"
    ],
    [
      "मान",
      "्य</w>"
    ],
    [
      "तिसर",
      "ा</w>"
    ],
    [
      "राहिल",
      "े.</w>"
    ],
    [
      "र",
      "ां"
    ],
    [
      "सहाय्य",
      "क</w>"
    ],
    [
      "वर्",
      "ग"
    ],
    [
      "स",
      "िक"
    ],
    [
      "पुढ",
      "च्या</w>"
    ],
    [
      "रो",
      "मन</w>"
    ],
    [
      "झाल",
      "े,</w>"
    ],
    [
      "उत्तरार्",
      "धात</w>"
    ],
    [
      "संशोध",
      "न</w>"
    ],
    [
      "ओ",
      "."
    ],
    [
      "७",
      "०</w>"
    ],
    [
      "हवा",
      "मान</w>"
    ],
    [
      "ल",
      "स</w>"
    ],
    [
      "आयो",
      "वा</w>"
    ],
    [
      "वि",
      "कि"
    ],
    [
      "ी",
      "ल,</w>"
    ],
    [
      "ात",
      "्"
    ],
    [
      "प्रजा",
      "सत्ता"
    ],
    [
      "मा",
      "नि"
    ],
    [
      "समर्",
      "पित</w>"
    ],
    [
      "गै",
      "र"
    ],
    [
      "ठिका",
      "ण"
    ],
    [
      "ा",
      "वर</w>"
    ],
    [
      "आ",
      "मच्या</w>"
    ],
    [
      "मो",
      "ड"
    ],
    [
      "ति",
      "त"
    ],
    [
      "खेळा",
      "च्या</w>"
    ],
    [
      "हि",
      "माल"
    ],
    [
      "घ",
      "ात</w>"
    ],
    [
      ".ए",
      "ल.</w>"
    ],
    [
      "श",
      "िक</w>"
    ],
    [
      "व्ही",
      "."
    ],
    [
      "विषा",
      "णू</w>"
    ],
    [
      "हिवा",
      "ळी</w>"
    ],
    [
      "न",
      "ं</w>"
    ],
    [
      "शि",
      "व"
    ],
    [
      "ना",
      "मुळे</w>"
    ],
    [
      "व",
      "ध"
    ],
    [
      "त्या",
      "तील</w>"
    ],
    [
      "अ",
      "ग्"
    ],
    [
      "प्रच",
      "ंड</w>"
    ],
    [
      "अस",
      "णाऱ्या</w>"
    ],
    [
      "आ",
      "देश</w>"
    ],
    [
      "पुर",
      "ात"
    ],
    [
      "इत",
      "के</w>"
    ],
    [
      "सं",
      "स"
    ],
    [
      "२",
      "मध्ये</w>"
    ],
    [
      "शि",
      "क्षा</w>"
    ],
    [
      "ते",
      "चे</w>"
    ],
    [
      "प्रकल्",
      "प</w>"
    ],
    [
      "शि",
      "का"
    ],
    [
      "न",
      "ांची</w>"
    ],
    [
      "सी",
      "मा</w>"
    ],
    [
      "सम",
      "ृ"
    ],
    [
      "स्फो",
      "ट</w>"
    ],
    [
      "पास",
      "ून,</w>"
    ],
    [
      "कि",
      "ना"
    ],
    [
      "दिव",
      "स"
    ],
    [
      "को",
      "ळ</w>"
    ],
    [
      "७",
      "मध्ये</w>"
    ],
    [
      "अफ",
      "गा"
    ],
    [
      "शि",
      "ख"
    ],
    [
      "व",
      "ेल"
    ],
    [
      "रा",
      "ग"
    ],
    [
      "चौथ",
      "्या</w>"
    ],
    [
      "पो",
      "ली"
    ],
    [
      "स",
      "कारात्मक</w>"
    ],
    [
      "लंड",
      "मधील</w>"
    ],
    [
      "वि",
      "ष्"
    ],
    [
      "बेल्",
      "जि"
    ],
    [
      "डे",
      "व्हि"
    ],
    [
      "क",
      "्यू"
    ],
    [
      "प्रशास",
      "कीय</w>"
    ],
    [
      "ट",
      "क"
    ],
    [
      "किर",
      "कोळ</w>"
    ],
    [
      "निवड",
      "णुक"
    ],
    [
      "नियंत्र",
      "ित</w>"
    ],
    [
      "ज",
      "्य</w>"
    ],
    [
      "कंपनी",
      "ने</w>"
    ],
    [
      "शेवट",
      "चा</w>"
    ],
    [
      "राष्ट्राध्य",
      "क्ष</w>"
    ],
    [
      "क",
      "न्न"
    ],
    [
      "लोकां",
      "चा</w>"
    ],
    [
      "म",
      "ची</w>"
    ],
    [
      "वर",
      "ण</w>"
    ],
    [
      "पद्ध",
      "तीने</w>"
    ],
    [
      "ड्",
      "डा"
    ],
    [
      "ल",
      "िंग</w>"
    ],
    [
      "फ्र",
      "ी"
    ],
    [
      "आज",
      "ार</w>"
    ],
    [
      "नेहमी",
      "च</w>"
    ],
    [
      "वि",
      "नंत"
    ],
    [
      "ह",
      "त्"
    ],
    [
      "ओळख",
      "ल्या</w>"
    ],
    [
      "मान",
      "ला</w>"
    ],
    [
      "स्व",
      "तः</w>"
    ],
    [
      "ह",
      "त्या</w>"
    ],
    [
      "खा",
      "जग"
    ],
    [
      "स",
      "्य"
    ],
    [
      "एक",
      "तर</w>"
    ],
    [
      "जाग",
      "ी</w>"
    ],
    [
      "ओळख",
      "ली</w>"
    ],
    [
      "१९७",
      "०</w>"
    ],
    [
      "पोलि",
      "स</w>"
    ],
    [
      "मिळ",
      "ते.</w>"
    ],
    [
      "नृ",
      "त्य"
    ],
    [
      "विधा",
      "नस"
    ],
    [
      "प्रतिनिध",
      "ी</w>"
    ],
    [
      "वे",
      "ढ"
    ],
    [
      "वा",
      "ग"
    ],
    [
      "सि",
      "ने"
    ],
    [
      "प्रोत्साह",
      "न</w>"
    ],
    [
      "मिळव",
      "ून</w>"
    ],
    [
      "भि",
      "न्न</w>"
    ],
    [
      "शक",
      "तात,</w>"
    ],
    [
      "वि",
      "मान</w>"
    ],
    [
      "स",
      "चि"
    ],
    [
      "पोर्",
      "तु"
    ],
    [
      "त्रा",
      "स</w>"
    ],
    [
      "नि",
      "युक्ती</w>"
    ],
    [
      "राज",
      "े"
    ],
    [
      "कॉ",
      "ले"
    ],
    [
      "समर्थ",
      "न</w>"
    ],
    [
      "भाव",
      "ना</w>"
    ],
    [
      "दिग्दर्श",
      "क</w>"
    ],
    [
      "सुर",
      "क्षित</w>"
    ],
    [
      "आ",
      "कार</w>"
    ],
    [
      "मनो",
      "र"
    ],
    [
      "विद्य",
      "मान</w>"
    ],
    [
      "ंड",
      "े"
    ],
    [
      "ती",
      "मध्ये</w>"
    ],
    [
      "जख",
      "मी</w>"
    ],
    [
      "माझ",
      "ी</w>"
    ],
    [
      "वाट",
      "ते.</w>"
    ],
    [
      "ल",
      "डा"
    ],
    [
      "निय",
      "मां"
    ],
    [
      "विंडो",
      "ज</w>"
    ],
    [
      "६",
      "मध्ये</w>"
    ],
    [
      "परंपर",
      "ा</w>"
    ],
    [
      "चा",
      ",</w>"
    ],
    [
      "महा",
      "न</w>"
    ],
    [
      "गा",
      "ड"
    ],
    [
      "ते",
      "ची</w>"
    ],
    [
      "ऱ",
      "्यांनी</w>"
    ],
    [
      "र्थ",
      "</w>"
    ],
    [
      "म",
      "िल"
    ],
    [
      "लवकर",
      "च</w>"
    ],
    [
      "सुरु",
      "</w>"
    ],
    [
      "द्",
      "वी"
    ],
    [
      "आ",
      "कड"
    ],
    [
      "वा",
      "सा"
    ],
    [
      "इत",
      "की</w>"
    ],
    [
      "ऊर्",
      "जा</w>"
    ],
    [
      "नि",
      "श</w>"
    ],
    [
      "कु",
      "त्र"
    ],
    [
      "वापर",
      "तात.</w>"
    ],
    [
      "स",
      "ेल्"
    ],
    [
      "यू",
      ".</w>"
    ],
    [
      "विरु",
      "द्ध"
    ],
    [
      "मा",
      "घ"
    ],
    [
      "तीं",
      "च्या</w>"
    ],
    [
      "ह",
      "्यांनी</w>"
    ],
    [
      "गा",
      "ठ"
    ],
    [
      "आप",
      "ल्या"
    ],
    [
      "धो",
      "र"
    ],
    [
      "ंग",
      "े"
    ],
    [
      "स्ट",
      "न</w>"
    ],
    [
      "ल्या",
      "स</w>"
    ],
    [
      "वे",
      "क्ष"
    ],
    [
      "स्प",
      "ष्ट"
    ],
    [
      "रो",
      "ज</w>"
    ],
    [
      "ना",
      "थ"
    ],
    [
      "काय",
      "दा</w>"
    ],
    [
      "स्त",
      "रावर</w>"
    ],
    [
      "लेख",
      "क</w>"
    ],
    [
      "मि",
      "श्र"
    ],
    [
      "किं",
      "म"
    ],
    [
      "खरा",
      "ब</w>"
    ],
    [
      "प्रकार",
      "ची</w>"
    ],
    [
      "संसर्",
      "गा"
    ],
    [
      "ह",
      "ेल"
    ],
    [
      "सॉफ्ट",
      "वेअर</w>"
    ],
    [
      "नस",
      "ते.</w>"
    ],
    [
      "इंग्र",
      "ज"
    ],
    [
      "घ",
      "ड</w>"
    ],
    [
      "कृ",
      "ष्ण"
    ],
    [
      "सैन्या",
      "ने</w>"
    ],
    [
      "आ",
      "ई</w>"
    ],
    [
      "चॅम्पि",
      "यन"
    ],
    [
      "मॉ",
      "न्"
    ],
    [
      "ज",
      "ित</w>"
    ],
    [
      "भाष",
      "ेतील</w>"
    ],
    [
      "९",
      "०</w>"
    ],
    [
      "ब",
      "हि"
    ],
    [
      "असल्या",
      "मुळे</w>"
    ],
    [
      "सू",
      "त्र"
    ],
    [
      "मंदि",
      "रे</w>"
    ],
    [
      "व",
      "त्"
    ],
    [
      "रा",
      "ग</w>"
    ],
    [
      "भ",
      "रा"
    ],
    [
      "चे",
      "ह"
    ],
    [
      "अमेरिक",
      "ी</w>"
    ],
    [
      "म्हण",
      "ून,</w>"
    ],
    [
      "लाग",
      "ला.</w>"
    ],
    [
      "अड",
      "थ"
    ],
    [
      "ड",
      "मध्ये</w>"
    ],
    [
      "साम",
      "न"
    ],
    [
      "कार",
      "ण"
    ],
    [
      "र",
      "त</w>"
    ],
    [
      "चा",
      "ही</w>"
    ],
    [
      "व्ह",
      "ॉ"
    ],
    [
      "ा",
      "स</w>"
    ],
    [
      "सू",
      "ची"
    ],
    [
      "प्रो",
      "ग्रा"
    ],
    [
      "ओ",
      "क्ला"
    ],
    [
      "ओक्ला",
      "हो"
    ],
    [
      "असल्या",
      "ची</w>"
    ],
    [
      "ग",
      "ार्"
    ],
    [
      "चॅम्पियन",
      "शि"
    ],
    [
      "ज",
      "से</w>"
    ],
    [
      "दु",
      "ष्"
    ],
    [
      "निवड",
      "णूक</w>"
    ],
    [
      "त",
      "ज्"
    ],
    [
      "ह",
      "ित</w>"
    ],
    [
      "त",
      "ंत"
    ],
    [
      "बांध",
      "ण्यात</w>"
    ],
    [
      "इतिहा",
      "स</w>"
    ],
    [
      "चा",
      "य"
    ],
    [
      "ड",
      "ने</w>"
    ],
    [
      "वॉ",
      "श"
    ],
    [
      "सी",
      "मे"
    ],
    [
      "प",
      "क्ष</w>"
    ],
    [
      "कि",
      "शो"
    ],
    [
      "नावा",
      "चा</w>"
    ],
    [
      "भ",
      "ार</w>"
    ],
    [
      "१९९",
      "२</w>"
    ],
    [
      "स्वातंत्र",
      "्य</w>"
    ],
    [
      "स्",
      "मार"
    ],
    [
      "सिं",
      "ध"
    ],
    [
      "ग",
      "ती</w>"
    ],
    [
      "म",
      "ले"
    ],
    [
      "जा",
      "च्या</w>"
    ],
    [
      "असल्या",
      "चा</w>"
    ],
    [
      "अ",
      "काद"
    ],
    [
      "क्ष",
      "म</w>"
    ],
    [
      "साधार",
      "णपणे</w>"
    ],
    [
      "न",
      "ात्मक</w>"
    ],
    [
      "कि",
      "त्य"
    ],
    [
      "कंप",
      "न"
    ],
    [
      "निय",
      "ातील</w>"
    ],
    [
      "एफ",
      "."
    ],
    [
      "°",
      "</w>"
    ],
    [
      "उप",
      "स्थित</w>"
    ],
    [
      "एक",
      "त्र"
    ],
    [
      "सो",
      "ब"
    ],
    [
      "नि",
      "ष"
    ],
    [
      "पा",
      "हून</w>"
    ],
    [
      "को",
      "लंब"
    ],
    [
      "गा",
      "डी</w>"
    ],
    [
      "इ.",
      "स."
    ],
    [
      "दिव",
      "सा"
    ],
    [
      "१९९",
      "६</w>"
    ],
    [
      "जम",
      "ीन</w>"
    ],
    [
      "अल्",
      "प"
    ],
    [
      "जवळ",
      "पास</w>"
    ],
    [
      "स्",
      "वित्"
    ],
    [
      "स्वर",
      "ूप</w>"
    ],
    [
      "ब्ल",
      "ॅ"
    ],
    [
      "सामान्य",
      "त:</w>"
    ],
    [
      "भाग",
      "ांमध्ये</w>"
    ],
    [
      "टा",
      "च्या</w>"
    ],
    [
      "निवडणुक",
      "ीत</w>"
    ],
    [
      "विजेते",
      "पद</w>"
    ],
    [
      "न",
      "वर</w>"
    ],
    [
      "उ",
      "ज"
    ],
    [
      "वर्",
      "ड</w>"
    ],
    [
      "वा",
      "द्य"
    ],
    [
      "खा",
      "द्य"
    ],
    [
      "संदर्",
      "भ</w>"
    ],
    [
      "सि",
      "क्की"
    ],
    [
      "कार्",
      "ड</w>"
    ],
    [
      "फुट",
      "बॉल"
    ],
    [
      "डेमो",
      "क्रॅ"
    ],
    [
      "जनगणने",
      "नुसार</w>"
    ],
    [
      "क",
      "मध्ये</w>"
    ],
    [
      "वि",
      "द्"
    ],
    [
      "नि",
      "र"
    ],
    [
      "गेल",
      "ेल्या</w>"
    ],
    [
      "नव्ह",
      "ता.</w>"
    ],
    [
      "उल्",
      "लेख"
    ],
    [
      "भू",
      "ष"
    ],
    [
      "क्रमां",
      "कावर</w>"
    ],
    [
      "व्याप",
      "ार</w>"
    ],
    [
      "म",
      "य</w>"
    ],
    [
      "गु",
      "प्त</w>"
    ],
    [
      "२",
      "५"
    ],
    [
      "ठेव",
      "ण्यासाठी</w>"
    ],
    [
      "सं",
      "स्थाप"
    ],
    [
      "ू",
      "चा</w>"
    ],
    [
      "दूरचित्र",
      "वाणी</w>"
    ],
    [
      "वनस्प",
      "ती</w>"
    ],
    [
      "टि",
      "न</w>"
    ],
    [
      "आढळ",
      "तात.</w>"
    ],
    [
      "आ",
      "का"
    ],
    [
      "ंग",
      "्"
    ],
    [
      "पुरवठ",
      "ा</w>"
    ],
    [
      "आ",
      "ग"
    ],
    [
      "श्रे",
      "णी</w>"
    ],
    [
      "करा",
      "वे</w>"
    ],
    [
      "र",
      "ूप</w>"
    ],
    [
      "मिळ",
      "ू</w>"
    ],
    [
      "आ",
      "ंध"
    ],
    [
      "जिंक",
      "ला.</w>"
    ],
    [
      "माग",
      "ील</w>"
    ],
    [
      "पर",
      "ीक्ष"
    ],
    [
      "अ",
      "ल</w>"
    ],
    [
      "अभ्या",
      "स"
    ],
    [
      "छाया",
      "चित्र"
    ],
    [
      "पूर्",
      "ण"
    ],
    [
      "हळ",
      "ू"
    ],
    [
      "महोत",
      "्स"
    ],
    [
      "उप",
      "युक्त</w>"
    ],
    [
      "कॅ",
      "थ"
    ],
    [
      "कित्य",
      "ेक</w>"
    ],
    [
      "कार",
      "णी"
    ],
    [
      "कारणी",
      "भूत</w>"
    ],
    [
      "जो",
      "ख"
    ],
    [
      "त",
      "त्त्"
    ],
    [
      "कर",
      "ारा"
    ],
    [
      "विस्त",
      "ार"
    ],
    [
      "व",
      "पूर्ण</w>"
    ],
    [
      "र",
      "ीच्या</w>"
    ],
    [
      "आत्",
      "म"
    ],
    [
      "बुद्धि",
      "बळ</w>"
    ],
    [
      "त",
      "च्या</w>"
    ],
    [
      "री",
      "ने</w>"
    ],
    [
      "भाष",
      "ेत</w>"
    ],
    [
      "ज",
      "च्या</w>"
    ],
    [
      "्या",
      "त्"
    ],
    [
      "म",
      "ते,</w>"
    ],
    [
      "८",
      "मध्ये</w>"
    ],
    [
      "शि",
      "या</w>"
    ],
    [
      "व्ह",
      "ी</w>"
    ],
    [
      "फट",
      "का</w>"
    ],
    [
      "मध",
      "ु"
    ],
    [
      "स्वित्",
      "झर्"
    ],
    [
      "सुर",
      "क्षा</w>"
    ],
    [
      "डो",
      "क"
    ],
    [
      "१९९",
      "५</w>"
    ],
    [
      "उ",
      "ड्डा"
    ],
    [
      "क्रमां",
      "क</w>"
    ],
    [
      "प्रसार",
      "ित</w>"
    ],
    [
      "सि",
      "नेट"
    ],
    [
      "पात",
      "ळी</w>"
    ],
    [
      "मंड",
      "ळा"
    ],
    [
      "व्याप",
      "क</w>"
    ],
    [
      "ब",
      "ळ"
    ],
    [
      "ए",
      "ल</w>"
    ],
    [
      "य",
      "्य"
    ],
    [
      "अ",
      "यशस्वी</w>"
    ],
    [
      "शास्त्र",
      "ज्ञ"
    ],
    [
      "थ",
      "र"
    ],
    [
      "ह",
      "ा.</w>"
    ],
    [
      "आ",
      "त"
    ],
    [
      "ज",
      "मा</w>"
    ],
    [
      "अली",
      "कड"
    ],
    [
      "कि",
      "."
    ],
    [
      "त",
      "न</w>"
    ],
    [
      "स्त्र",
      "ि"
    ],
    [
      "न",
      "ांचे</w>"
    ],
    [
      "िक",
      "ेत</w>"
    ],
    [
      "जि",
      "वंत</w>"
    ],
    [
      "द",
      "ारा"
    ],
    [
      "विनो",
      "दी</w>"
    ],
    [
      "क्र",
      "ा"
    ],
    [
      "रा",
      "ने</w>"
    ],
    [
      "भर",
      "पूर</w>"
    ],
    [
      "नि",
      "यन</w>"
    ],
    [
      "बै",
      "ठ"
    ],
    [
      "अभिनेत",
      "्री</w>"
    ],
    [
      "द",
      "ात"
    ],
    [
      "सो",
      "पे</w>"
    ],
    [
      "स्पर्ध",
      "ांमध्ये</w>"
    ],
    [
      "लोकां",
      "साठी</w>"
    ],
    [
      "ब",
      "हा"
    ],
    [
      "को",
      "र्"
    ],
    [
      "ल",
      "प"
    ],
    [
      "ब",
      "ट"
    ],
    [
      "त",
      "क</w>"
    ],
    [
      "ता",
      "बा</w>"
    ],
    [
      "न",
      "ांचा</w>"
    ],
    [
      "खेळ",
      "ांमध्ये</w>"
    ],
    [
      "ल",
      "ू</w>"
    ],
    [
      "उ",
      "चल"
    ],
    [
      "ग",
      "ू</w>"
    ],
    [
      "सं",
      "ज्ञ"
    ],
    [
      "र",
      "क"
    ],
    [
      "एखा",
      "दा</w>"
    ],
    [
      "ए",
      "स</w>"
    ],
    [
      "माझ",
      "े</w>"
    ],
    [
      "सॅ",
      "न</w>"
    ],
    [
      "अ",
      "नि"
    ],
    [
      "वर्",
      "च"
    ],
    [
      "ं",
      "च्या</w>"
    ],
    [
      "विश्व",
      "चषक</w>"
    ],
    [
      "पा",
      "ट"
    ],
    [
      "रुग्णाल",
      "यात</w>"
    ],
    [
      "नि",
      "वृत्"
    ],
    [
      "ल",
      "चा</w>"
    ],
    [
      "दि",
      "न</w>"
    ],
    [
      "परिष",
      "दे"
    ],
    [
      "ती",
      "ल,</w>"
    ],
    [
      "ब्र",
      "ह्म"
    ],
    [
      "प",
      "ठ"
    ],
    [
      "गो",
      "ष्ट</w>"
    ],
    [
      "हॉ",
      "ल</w>"
    ],
    [
      "मे",
      "ंट"
    ],
    [
      "भ",
      "क्"
    ],
    [
      "सारख",
      "ा</w>"
    ],
    [
      "ध",
      "न</w>"
    ],
    [
      "ां",
      "द्वारे</w>"
    ],
    [
      "शा",
      "च्या</w>"
    ],
    [
      "हाय",
      "ला</w>"
    ],
    [
      "या",
      "बद्दल</w>"
    ],
    [
      "वेळ",
      "े"
    ],
    [
      "होत",
      "ो,</w>"
    ],
    [
      "किना",
      "ऱ्या"
    ],
    [
      "लु",
      "ई"
    ],
    [
      "ाल",
      ".</w>"
    ],
    [
      "क",
      "ब"
    ],
    [
      "ड",
      "च</w>"
    ],
    [
      "वा",
      "ड"
    ],
    [
      "कारकिर्",
      "दीत</w>"
    ],
    [
      "्यां",
      "च्या"
    ],
    [
      "नस",
      "लेल्या</w>"
    ],
    [
      "व्याप",
      "ारी</w>"
    ],
    [
      "कार्यक्र",
      "मा"
    ],
    [
      "वा",
      "ने</w>"
    ],
    [
      "जा",
      "ऊन</w>"
    ],
    [
      "माझ",
      "्या"
    ],
    [
      "कुटुंब",
      "</w>"
    ],
    [
      "साठी",
      "ची</w>"
    ],
    [
      "शब्",
      "दा"
    ],
    [
      "दक्षिणे",
      "कडील</w>"
    ],
    [
      "कर",
      "तो,</w>"
    ],
    [
      "देत",
      "ो.</w>"
    ],
    [
      "झ",
      "ां"
    ],
    [
      "रा",
      "चा</w>"
    ],
    [
      "श्",
      "वर</w>"
    ],
    [
      "तात्",
      "पुर"
    ],
    [
      "डि",
      "य"
    ],
    [
      "वि",
      "ल्य"
    ],
    [
      "ण",
      "े.</w>"
    ],
    [
      "वर",
      "ण"
    ],
    [
      "फेड",
      "रे"
    ],
    [
      "राहि",
      "ला.</w>"
    ],
    [
      "टी",
      "का</w>"
    ],
    [
      "शे",
      "जार"
    ],
    [
      "इंग्लंड",
      "मधील</w>"
    ],
    [
      "वा",
      "चा</w>"
    ],
    [
      "घ",
      "रात</w>"
    ],
    [
      "ां",
      "कडून</w>"
    ],
    [
      "सं",
      "स्था"
    ],
    [
      "राज्या",
      "ची</w>"
    ],
    [
      "का",
      "न"
    ],
    [
      "ध",
      "क्"
    ],
    [
      "शक",
      "ते,</w>"
    ],
    [
      "मुख्याल",
      "य</w>"
    ],
    [
      "घ्या",
      ".</w>"
    ],
    [
      "इ",
      "ल</w>"
    ],
    [
      "समुदा",
      "य</w>"
    ],
    [
      "अस",
      "ाल,</w>"
    ],
    [
      "ूं",
      "नी</w>"
    ],
    [
      "संघ",
      "ात</w>"
    ],
    [
      "ब",
      "ळी</w>"
    ],
    [
      "से",
      "ना"
    ],
    [
      "स्थि",
      "तीत</w>"
    ],
    [
      "खाजग",
      "ी</w>"
    ],
    [
      "र",
      "ला</w>"
    ],
    [
      "१८",
      "५"
    ],
    [
      "वर्ष",
      "</w>"
    ],
    [
      "ते",
      "मुळे</w>"
    ],
    [
      "महिन्या",
      "त</w>"
    ],
    [
      "गुंत",
      "ा"
    ],
    [
      "ता",
      "प</w>"
    ],
    [
      "जो",
      "र"
    ],
    [
      "नै",
      "ऋ"
    ],
    [
      "पे",
      "शी</w>"
    ],
    [
      "चो",
      "ळ</w>"
    ],
    [
      "ह",
      "र्"
    ],
    [
      "हंगा",
      "म</w>"
    ],
    [
      "युद्ध",
      "ात</w>"
    ],
    [
      "श",
      "त्र"
    ],
    [
      "व्यति",
      "रिक्त</w>"
    ],
    [
      "प्रमा",
      "णे,</w>"
    ],
    [
      "त्यांच्या",
      "वर</w>"
    ],
    [
      "व्यवस्थाप",
      "क</w>"
    ],
    [
      "शक्",
      "ति"
    ],
    [
      "वेग",
      "ळ्या</w>"
    ],
    [
      "म",
      "क</w>"
    ],
    [
      "वि",
      "स्"
    ],
    [
      "घे",
      "ण्यात</w>"
    ],
    [
      "त्यांच्या",
      "कडे</w>"
    ],
    [
      "लोकां",
      "ची</w>"
    ],
    [
      "होई",
      "ल</w>"
    ],
    [
      "च",
      "ी,</w>"
    ],
    [
      "परि",
      "स्थिती</w>"
    ],
    [
      "वि",
      "जे"
    ],
    [
      "वि",
      "भागात</w>"
    ],
    [
      "स्थलां",
      "तरित</w>"
    ],
    [
      "मैदा",
      "नी</w>"
    ],
    [
      "वै",
      "द"
    ],
    [
      "नेह",
      "मी</w>"
    ],
    [
      "सादरी",
      "करण</w>"
    ],
    [
      "अभ",
      "यार"
    ],
    [
      "बा",
      "स्केट"
    ],
    [
      "घो",
      "ड"
    ],
    [
      "महत्त्",
      "वपूर्ण</w>"
    ],
    [
      "िक",
      "दृष्ट्या</w>"
    ],
    [
      "कर्",
      "ण"
    ],
    [
      "ऱ",
      "्यांना</w>"
    ],
    [
      "ठेव",
      "ले.</w>"
    ],
    [
      "कालाव",
      "धी"
    ],
    [
      "मात",
      "ून</w>"
    ],
    [
      "गाय",
      "क</w>"
    ],
    [
      "शास्त्र",
      "</w>"
    ],
    [
      "ती",
      "मुळे</w>"
    ],
    [
      "राहिल",
      "े</w>"
    ],
    [
      "व",
      "क"
    ],
    [
      "स्थि",
      "र</w>"
    ],
    [
      "ते",
      "वर</w>"
    ],
    [
      "३",
      "०"
    ],
    [
      "नि",
      "क"
    ],
    [
      "१९४",
      "७</w>"
    ],
    [
      "ज",
      ",</w>"
    ],
    [
      "पद्ध",
      "ती</w>"
    ],
    [
      "श",
      "ांत</w>"
    ],
    [
      "पूर्व",
      "ेला</w>"
    ],
    [
      "वाट",
      "ले</w>"
    ],
    [
      "वि",
      "धी</w>"
    ],
    [
      "अमेरिक",
      "ा</w>"
    ],
    [
      "इ",
      "जि"
    ],
    [
      "सू",
      "क्ष"
    ],
    [
      "रे",
      "ड</w>"
    ],
    [
      "सं",
      "वेद"
    ],
    [
      "अर्",
      "जे"
    ],
    [
      "विद्यापीठ",
      "</w>"
    ],
    [
      "ते",
      "थ"
    ],
    [
      "म",
      "ल्या"
    ],
    [
      "विज",
      "य"
    ],
    [
      "लॉ",
      "स</w>"
    ],
    [
      "३",
      "५</w>"
    ],
    [
      "ं",
      "भा"
    ],
    [
      "त",
      "क्र"
    ],
    [
      "४",
      "०"
    ],
    [
      "जवळ",
      "ील</w>"
    ],
    [
      "इ",
      "थे</w>"
    ],
    [
      "ध",
      "नु"
    ],
    [
      "आ",
      "</w>"
    ],
    [
      "लंड",
      "च्या</w>"
    ],
    [
      "इट",
      "ाल"
    ],
    [
      "अड",
      "च"
    ],
    [
      "न",
      "ऊ</w>"
    ],
    [
      "ने",
      "दर"
    ],
    [
      "९",
      "मध्ये</w>"
    ],
    [
      "कौ",
      "टु"
    ],
    [
      "कौटु",
      "ंब"
    ],
    [
      "तो",
      "ड"
    ],
    [
      "सव",
      "ल"
    ],
    [
      "वाय",
      "ला</w>"
    ],
    [
      "मुल",
      "ांना</w>"
    ],
    [
      "हळू",
      "हळू</w>"
    ],
    [
      "धार",
      "ण</w>"
    ],
    [
      "स्वरू",
      "पात</w>"
    ],
    [
      "१९९",
      "४</w>"
    ],
    [
      "पुन",
      "रु"
    ],
    [
      "आग्ने",
      "य</w>"
    ],
    [
      "मान",
      "सिक</w>"
    ],
    [
      "कार्य",
      "कारी</w>"
    ],
    [
      "शिफार",
      "स</w>"
    ],
    [
      "तला",
      "व</w>"
    ],
    [
      "इंटर",
      "नेट</w>"
    ],
    [
      "डे",
      "टा</w>"
    ],
    [
      "अंदा",
      "ज"
    ],
    [
      "नि",
      "याच्या</w>"
    ],
    [
      "आ",
      "ंब"
    ],
    [
      "पुस्त",
      "क</w>"
    ],
    [
      "जिल्ह",
      "्यात</w>"
    ],
    [
      "अ",
      "ली</w>"
    ],
    [
      "ण",
      "ीत</w>"
    ],
    [
      "दिस",
      "त</w>"
    ],
    [
      "न्यू",
      "झी"
    ],
    [
      "कौटुंब",
      "िक</w>"
    ],
    [
      "आ",
      "ले,</w>"
    ],
    [
      "कार",
      "कीर्"
    ],
    [
      "इतिहास",
      "ातील</w>"
    ],
    [
      "ल",
      "चे</w>"
    ],
    [
      "दे",
      "णे</w>"
    ],
    [
      "केर",
      "ळ</w>"
    ],
    [
      "बे",
      "ड"
    ],
    [
      "प्रति",
      "मा</w>"
    ],
    [
      "काउं",
      "टी</w>"
    ],
    [
      "र",
      "च</w>"
    ],
    [
      "चर्",
      "च</w>"
    ],
    [
      "व",
      "ॅ"
    ],
    [
      "व्हर्",
      "जि"
    ],
    [
      "के",
      "त</w>"
    ],
    [
      "आ",
      "लेले</w>"
    ],
    [
      "हजार",
      "ो</w>"
    ],
    [
      "म्म",
      "द</w>"
    ],
    [
      "साम्राज्या",
      "च्या</w>"
    ],
    [
      "काँग्रे",
      "स</w>"
    ],
    [
      "शास",
      "क</w>"
    ],
    [
      "ण्या",
      "पासून</w>"
    ],
    [
      "पुरस्",
      "कारा"
    ],
    [
      "द",
      "ला"
    ],
    [
      "राज",
      "्यांमध्ये</w>"
    ],
    [
      "अ",
      "</w>"
    ],
    [
      "मनोर",
      "ंज"
    ],
    [
      "राज्या",
      "चा</w>"
    ],
    [
      "ए",
      "ंज"
    ],
    [
      "वा",
      "स्तु"
    ],
    [
      "एक",
      "े"
    ],
    [
      "ेत",
      "ून</w>"
    ],
    [
      "पुरा",
      "वा</w>"
    ],
    [
      "कर",
      "णार</w>"
    ],
    [
      "ग",
      "ू"
    ],
    [
      "काह",
      "ीतरी</w>"
    ],
    [
      "दुर्",
      "मिळ</w>"
    ],
    [
      "आ",
      "ता"
    ],
    [
      "बऱ्या",
      "चदा</w>"
    ],
    [
      "त",
      "न"
    ],
    [
      "विवाह",
      "ित</w>"
    ],
    [
      "प",
      "ळून</w>"
    ],
    [
      "न",
      "ेल"
    ],
    [
      "महि",
      "ने</w>"
    ],
    [
      "ध",
      "म"
    ],
    [
      "महि",
      "न्यां"
    ],
    [
      "ब्रा",
      "ह्म"
    ],
    [
      "ग्रे",
      "ट</w>"
    ],
    [
      "विरो",
      "ध</w>"
    ],
    [
      "पक्ष",
      "ाचे</w>"
    ],
    [
      "करण्या",
      "साठी,</w>"
    ],
    [
      "नि",
      "वृत्त</w>"
    ],
    [
      "पोली",
      "स</w>"
    ],
    [
      "को",
      "प"
    ],
    [
      "जबाबद",
      "ार</w>"
    ],
    [
      "आज",
      "ारा"
    ],
    [
      "खू",
      "प"
    ],
    [
      "लाग",
      "ते.</w>"
    ],
    [
      "रु",
      "ंद</w>"
    ],
    [
      "उदाहर",
      "ण</w>"
    ],
    [
      "फु",
      "ल"
    ],
    [
      "उद्या",
      "न</w>"
    ],
    [
      "लाई",
      "न</w>"
    ],
    [
      "ठर",
      "ू</w>"
    ],
    [
      "फ्लो",
      "रि"
    ],
    [
      "ब्र",
      "ॉ"
    ],
    [
      "िंग्",
      "टन</w>"
    ],
    [
      "ग्",
      "लो"
    ],
    [
      "काम",
      "गिरी</w>"
    ],
    [
      "सं",
      "वाद</w>"
    ],
    [
      "इ",
      "स</w>"
    ],
    [
      "उभ",
      "े</w>"
    ],
    [
      "व",
      "ल"
    ],
    [
      "औ",
      "पचार"
    ],
    [
      "कौ",
      "तु"
    ],
    [
      "की",
      "ची</w>"
    ],
    [
      "आ",
      "व्हा"
    ],
    [
      "उ",
      "ठ"
    ],
    [
      "लगे",
      "च"
    ],
    [
      "संघा",
      "साठी</w>"
    ],
    [
      "शास्त्र",
      "ज्ञ</w>"
    ],
    [
      "ट",
      "ीच्या</w>"
    ],
    [
      "न",
      "ांनी</w>"
    ],
    [
      "दुका",
      "ने</w>"
    ],
    [
      "कां",
      "पैकी</w>"
    ],
    [
      "फे",
      "क"
    ],
    [
      "ता",
      "सां"
    ],
    [
      "ां",
      "पासून</w>"
    ],
    [
      "संचाल",
      "क</w>"
    ],
    [
      "इत",
      "का</w>"
    ],
    [
      "मध्य",
      "वर्ती</w>"
    ],
    [
      "युद्ध",
      "ाच्या</w>"
    ],
    [
      ".",
      "५</w>"
    ],
    [
      "अ",
      "न्न"
    ],
    [
      "हो",
      "णारे</w>"
    ],
    [
      "बांध",
      "ले</w>"
    ],
    [
      "रा",
      "चे</w>"
    ],
    [
      "अनु",
      "भव</w>"
    ],
    [
      "क्र",
      "मित</w>"
    ],
    [
      "डि",
      "यन</w>"
    ],
    [
      "त्",
      "स"
    ],
    [
      "ांत",
      "र्गत</w>"
    ],
    [
      "फाय",
      "दा</w>"
    ],
    [
      "४",
      "मध्ये</w>"
    ],
    [
      "हो",
      "ण्यास</w>"
    ],
    [
      "प्रमा",
      "णावर</w>"
    ],
    [
      "द",
      "ीच्या</w>"
    ],
    [
      "ूं",
      "ना</w>"
    ],
    [
      "सुर",
      "ू"
    ],
    [
      "वी",
      "र</w>"
    ],
    [
      "पोलिसां",
      "नी</w>"
    ],
    [
      "व्यक्",
      "तीं"
    ],
    [
      "स्वतः",
      "चे</w>"
    ],
    [
      "त्याच्या",
      "वर</w>"
    ],
    [
      "बचा",
      "व"
    ],
    [
      "ां",
      "मधून</w>"
    ],
    [
      "राज्या",
      "चे</w>"
    ],
    [
      "समृ",
      "द्ध</w>"
    ],
    [
      "शि",
      "वाय"
    ],
    [
      "अ",
      "द्या"
    ],
    [
      "च",
      "तु"
    ],
    [
      "त",
      "ता</w>"
    ],
    [
      "ओ",
      ".</w>"
    ],
    [
      "प्रार्थ",
      "ना</w>"
    ],
    [
      "औषध",
      "े</w>"
    ],
    [
      "ठे",
      "वा.</w>"
    ],
    [
      "१९९",
      "३</w>"
    ],
    [
      "यो",
      "गा"
    ],
    [
      "सत",
      "त</w>"
    ],
    [
      "धा",
      "वा</w>"
    ],
    [
      "व",
      "य"
    ],
    [
      "जन",
      "क</w>"
    ],
    [
      "प्र",
      "स्थापित</w>"
    ],
    [
      "तुरु",
      "ंगा"
    ],
    [
      "कंप",
      "नीच्या</w>"
    ],
    [
      "व्हि",
      "क्"
    ],
    [
      "शब्",
      "द"
    ],
    [
      "कंप",
      "न्या</w>"
    ],
    [
      "बाजू",
      "ने</w>"
    ],
    [
      "अ",
      "म"
    ],
    [
      "श्रे",
      "णी"
    ],
    [
      "पं",
      "च"
    ],
    [
      "का",
      "?</w>"
    ],
    [
      "परि",
      "धान</w>"
    ],
    [
      "ए",
      "लि"
    ],
    [
      "इलिनॉ",
      "य"
    ],
    [
      "िल",
      "े"
    ],
    [
      "दो",
      "ष</w>"
    ],
    [
      "उद्यो",
      "ग"
    ],
    [
      "प्रे",
      "म</w>"
    ],
    [
      "अ",
      "शा"
    ],
    [
      "ते",
      "ने</w>"
    ],
    [
      "ड",
      "न</w>"
    ],
    [
      "कु",
      "ल"
    ],
    [
      "त्या",
      "मध्ये</w>"
    ],
    [
      "लंड",
      "न</w>"
    ],
    [
      "प्रारंभ",
      "िक</w>"
    ],
    [
      "ग",
      "री"
    ],
    [
      "त",
      "से</w>"
    ],
    [
      "स्",
      "मि"
    ],
    [
      "स",
      "काळी</w>"
    ],
    [
      "कु",
      "ं"
    ],
    [
      "फ",
      "िलि"
    ],
    [
      "असा",
      "ल</w>"
    ],
    [
      "रच",
      "ने"
    ],
    [
      "आढळ",
      "ून</w>"
    ],
    [
      "न्या",
      "या"
    ],
    [
      "आय",
      "र्"
    ],
    [
      "र",
      "शियन</w>"
    ],
    [
      "ं",
      "ना</w>"
    ],
    [
      "औ",
      "रंग"
    ],
    [
      "औरंग",
      "जे"
    ],
    [
      "डा",
      "च्या</w>"
    ],
    [
      "कर्नाट",
      "क</w>"
    ],
    [
      "हृद",
      "य"
    ],
    [
      "भारता",
      "चे</w>"
    ],
    [
      "प्रका",
      "श</w>"
    ],
    [
      "दो",
      "न"
    ],
    [
      "दे",
      "णाऱ्या</w>"
    ],
    [
      "ह",
      "लव"
    ],
    [
      "मिळव",
      "ण्यासाठी</w>"
    ],
    [
      "कर्करो",
      "ग</w>"
    ],
    [
      "जन",
      "रल</w>"
    ],
    [
      "ज्या",
      "पैकी</w>"
    ],
    [
      "भूमिके",
      "त</w>"
    ],
    [
      "गुन्ह",
      "े"
    ],
    [
      "पा",
      "प"
    ],
    [
      "कम",
      "्यु"
    ],
    [
      "हा",
      "च्या</w>"
    ],
    [
      "१९९",
      "७</w>"
    ],
    [
      "पारं",
      "पार"
    ],
    [
      "स्टेट्स",
      "मधील</w>"
    ],
    [
      "वां",
      "शिक</w>"
    ],
    [
      "वि",
      "कार</w>"
    ],
    [
      "से",
      "क"
    ],
    [
      "१८",
      "६"
    ],
    [
      "वी",
      "ज</w>"
    ],
    [
      "खरोख",
      "रच</w>"
    ],
    [
      "स्वीड",
      "नच्या</w>"
    ],
    [
      "तु",
      "ळ"
    ],
    [
      "ेत",
      ",</w>"
    ],
    [
      "म्हण",
      "तात,</w>"
    ],
    [
      "य",
      "ज"
    ],
    [
      "३",
      "मध्ये</w>"
    ],
    [
      "बू",
      "त</w>"
    ],
    [
      "रा",
      "णी</w>"
    ],
    [
      "व",
      "ला.</w>"
    ],
    [
      "पो",
      "लो</w>"
    ],
    [
      "म",
      "ने</w>"
    ],
    [
      "ऱ",
      "्ह"
    ],
    [
      "गा",
      "ल</w>"
    ],
    [
      "धा",
      "न्य</w>"
    ],
    [
      "अह",
      "वाल"
    ],
    [
      "के",
      "ट</w>"
    ],
    [
      "मूर्",
      "ती</w>"
    ],
    [
      "प्रत्य",
      "क्ष"
    ],
    [
      "उ",
      "द्ध"
    ],
    [
      "महाराष्ट",
      "्र"
    ],
    [
      "प्",
      "ला"
    ],
    [
      "स्त्र",
      "ा"
    ],
    [
      "हो",
      "णारा</w>"
    ],
    [
      "आ",
      "कारा"
    ],
    [
      "ऱ्या",
      "च्या</w>"
    ],
    [
      "अ",
      "स्व"
    ],
    [
      "हो",
      "ण्याचा</w>"
    ],
    [
      "देशा",
      "च्या</w>"
    ],
    [
      "कौतु",
      "क</w>"
    ],
    [
      "नारा",
      "य"
    ],
    [
      "फिल्",
      "म"
    ],
    [
      "कुटुंब",
      "ातील</w>"
    ],
    [
      "ं",
      "ज</w>"
    ],
    [
      ".एन",
      "."
    ],
    [
      "प्रत्य",
      "क्ष</w>"
    ],
    [
      "झाल्या",
      "चे</w>"
    ],
    [
      "नावा",
      "ची</w>"
    ],
    [
      "न",
      "ांना</w>"
    ],
    [
      "जा",
      "ळ"
    ],
    [
      "िक",
      "ल</w>"
    ],
    [
      "ला",
      "कड"
    ],
    [
      "बाह",
      "्य</w>"
    ],
    [
      "विका",
      "सा"
    ],
    [
      "पक्ष",
      "ी</w>"
    ],
    [
      "आ",
      "ल्या</w>"
    ],
    [
      "ध्व",
      "नी</w>"
    ],
    [
      "न्",
      "सि"
    ],
    [
      "थ",
      "ॉ"
    ],
    [
      "मिळव",
      "ले.</w>"
    ],
    [
      "पु",
      "ल"
    ],
    [
      "ज्या",
      "ची</w>"
    ],
    [
      "पु",
      "त्र"
    ],
    [
      "द",
      "ंड</w>"
    ],
    [
      "झाल्या",
      ".</w>"
    ],
    [
      "ग",
      "ल"
    ],
    [
      "स्",
      "कर</w>"
    ],
    [
      "दर्",
      "जा</w>"
    ],
    [
      "पंजा",
      "ब</w>"
    ],
    [
      "आ",
      "ल्या.</w>"
    ],
    [
      "ग्र",
      "ँड</w>"
    ],
    [
      "जा",
      "स्"
    ],
    [
      "कु",
      "स्"
    ],
    [
      "ग",
      "व"
    ],
    [
      "के",
      "."
    ],
    [
      "ई",
      "न</w>"
    ],
    [
      "३",
      ","
    ],
    [
      "न",
      "वी</w>"
    ],
    [
      "वर",
      "ि"
    ],
    [
      "फ",
      "र</w>"
    ],
    [
      "शक्ति",
      "शाली</w>"
    ],
    [
      "बरो",
      "बर"
    ],
    [
      "प",
      "णा</w>"
    ],
    [
      "प्रती",
      "क</w>"
    ],
    [
      "साहि",
      "त्य</w>"
    ],
    [
      "पूर्वे",
      "कडील</w>"
    ],
    [
      "साठी",
      "चा</w>"
    ],
    [
      "स्",
      "की</w>"
    ],
    [
      "सू",
      "र्य"
    ],
    [
      "तपास",
      "णी</w>"
    ],
    [
      "वा",
      "चे</w>"
    ],
    [
      "राज",
      "घरा"
    ],
    [
      "खूप",
      "च</w>"
    ],
    [
      "८",
      "च्या</w>"
    ],
    [
      "झा",
      "ड"
    ],
    [
      "नका",
      ".</w>"
    ],
    [
      "वि",
      "क्री"
    ],
    [
      "एम",
      ".</w>"
    ],
    [
      "रॉ",
      "क</w>"
    ],
    [
      "्रा",
      "य"
    ],
    [
      "का",
      "उ"
    ],
    [
      "खेळाडूं",
      "ना</w>"
    ],
    [
      "लिहिल",
      "ी</w>"
    ],
    [
      "उल्लेख",
      "नीय</w>"
    ],
    [
      "संघा",
      "चे</w>"
    ],
    [
      "लढाई",
      "त</w>"
    ],
    [
      "तुल",
      "ना</w>"
    ],
    [
      "दर",
      "बार"
    ],
    [
      "सल्",
      "ला</w>"
    ],
    [
      "दिन",
      "दर्श"
    ],
    [
      "बंग",
      "ाली</w>"
    ],
    [
      "श्री",
      "लं"
    ],
    [
      "सा",
      "क्ष"
    ],
    [
      "चित्रपटा",
      "ने</w>"
    ],
    [
      "नात",
      "े"
    ],
    [
      "पा",
      "च्या</w>"
    ],
    [
      "प्",
      "स</w>"
    ],
    [
      "जु",
      "ने</w>"
    ],
    [
      "२",
      "-"
    ],
    [
      "१९६",
      "०</w>"
    ],
    [
      "द्वी",
      "प"
    ],
    [
      "फ",
      "त</w>"
    ],
    [
      "रा",
      "ळ</w>"
    ],
    [
      "काही",
      "ही</w>"
    ],
    [
      "झाल्या",
      "मुळे</w>"
    ],
    [
      "कोण",
      "त्या</w>"
    ],
    [
      "मै",
      "ल)</w>"
    ],
    [
      "इट",
      "ली"
    ],
    [
      "बा",
      "ॅ"
    ],
    [
      "प",
      "हा"
    ],
    [
      "वार",
      "सा</w>"
    ],
    [
      "उ",
      "घड</w>"
    ],
    [
      "कर्म",
      "चा"
    ],
    [
      "अस",
      "ं"
    ],
    [
      "प्रां",
      "ता"
    ],
    [
      "णा",
      "ने</w>"
    ],
    [
      "शी",
      "ख</w>"
    ],
    [
      "ि",
      "त"
    ],
    [
      "सै",
      "निक</w>"
    ],
    [
      "चित्रपट",
      "ातील</w>"
    ],
    [
      "बदल",
      "ून</w>"
    ],
    [
      "के",
      "स</w>"
    ],
    [
      "नावा",
      "चे</w>"
    ],
    [
      "महा",
      "पौ"
    ],
    [
      "लोकां",
      "चे</w>"
    ],
    [
      "दुखाप",
      "त</w>"
    ],
    [
      "वेग",
      "वान</w>"
    ],
    [
      "ख",
      "ंड</w>"
    ],
    [
      "जग",
      "भरातील</w>"
    ],
    [
      "कॅ",
      "मे"
    ],
    [
      "पू",
      "ल</w>"
    ],
    [
      "ट",
      "ू"
    ],
    [
      "न्",
      "ना"
    ],
    [
      "य",
      "ार्"
    ],
    [
      "परग",
      "ण्या"
    ],
    [
      "रे",
      "कॉर्"
    ],
    [
      "मा",
      "सिक</w>"
    ],
    [
      "हा",
      "ऊस</w>"
    ],
    [
      "ण",
      "ं</w>"
    ],
    [
      "स्वा",
      "क्ष"
    ],
    [
      "प्र",
      "शं"
    ],
    [
      "सं",
      "स्"
    ],
    [
      "र्",
      "ष</w>"
    ],
    [
      "वि",
      "कार"
    ],
    [
      "भारता",
      "ने</w>"
    ],
    [
      "सम",
      "ारंभ"
    ],
    [
      "पर्व",
      "तर"
    ],
    [
      "म",
      "ीच्या</w>"
    ],
    [
      "निघ",
      "ून</w>"
    ],
    [
      "म्हण",
      "जे"
    ],
    [
      "टे",
      "न"
    ],
    [
      "व",
      "लेल्या</w>"
    ],
    [
      "भग",
      "वान</w>"
    ],
    [
      "वैशिष्ट",
      "्य</w>"
    ],
    [
      "कार्य",
      "रत</w>"
    ],
    [
      "ड",
      "र्"
    ],
    [
      "बर्",
      "ट</w>"
    ],
    [
      "वाह",
      "ून</w>"
    ],
    [
      "खेळाड",
      "ू"
    ],
    [
      "प्र",
      "क्रिये"
    ],
    [
      "ब",
      "े</w>"
    ],
    [
      "ी",
      "स</w>"
    ],
    [
      "म",
      "ला"
    ],
    [
      "को",
      "रि"
    ],
    [
      "ए",
      "न्"
    ],
    [
      "स्टे",
      "ट्स</w>"
    ],
    [
      "विनंत",
      "ी</w>"
    ],
    [
      "या",
      "च्या"
    ],
    [
      "धि",
      "कारी</w>"
    ],
    [
      "म्हणाल",
      "े</w>"
    ],
    [
      "िक",
      "ी</w>"
    ],
    [
      "१",
      "-"
    ],
    [
      ".",
      "\"</w>"
    ],
    [
      "मालमत्",
      "ता</w>"
    ],
    [
      "ऑ",
      "परे"
    ],
    [
      "सो",
      "प"
    ],
    [
      "चिं",
      "ता</w>"
    ],
    [
      "ी",
      "करणा"
    ],
    [
      "राज",
      "ी"
    ],
    [
      "ज",
      "य</w>"
    ],
    [
      "सि",
      "टी"
    ],
    [
      "ड",
      "्या"
    ],
    [
      "ब",
      "न</w>"
    ],
    [
      "उप",
      "खंड"
    ],
    [
      "स्त्र",
      "ो"
    ],
    [
      "त",
      "ार</w>"
    ],
    [
      "आ",
      "द"
    ],
    [
      "र",
      "ड"
    ],
    [
      "संस्थाप",
      "क</w>"
    ],
    [
      "येत",
      "े</w>"
    ]
  ],
  "merge_stats": [
    {
      "step": 1,
      "pair": "्य",
      "pair_chars": [
        "्",
        "य"
      ],
      "frequency": 286255
    },
    {
      "step": 2,
      "pair": "ा</w>",
      "pair_chars": [
        "ा",
        "</w>"
      ],
      "frequency": 275659
    },
    {
      "step": 3,
      "pair": "े</w>",
      "pair_chars": [
        "े",
        "</w>"
      ],
      "frequency": 187901
    },
    {
      "step": 4,
      "pair": "ी</w>",
      "pair_chars": [
        "ी",
        "</w>"
      ],
      "frequency": 185242
    },
    {
      "step": 5,
      "pair": ".</w>",
      "pair_chars": [
        ".",
        "</w>"
      ],
      "frequency": 124101
    },
    {
      "step": 6,
      "pair": "्या",
      "pair_chars": [
        "्य",
        "ा"
      ],
      "frequency": 116192
    },
    {
      "step": 7,
      "pair": "्र",
      "pair_chars": [
        "्",
        "र"
      ],
      "frequency": 100962
    },
    {
      "step": 8,
      "pair": "्या</w>",
      "pair_chars": [
        "्य",
        "ा</w>"
      ],
      "frequency": 97967
    },
    {
      "step": 9,
      "pair": "त</w>",
      "pair_chars": [
        "त",
        "</w>"
      ],
      "frequency": 90864
    },
    {
      "step": 10,
      "pair": "ार",
      "pair_chars": [
        "ा",
        "र"
      ],
      "frequency": 80791
    },
    {
      "step": 11,
      "pair": "न</w>",
      "pair_chars": [
        "न",
        "</w>"
      ],
      "frequency": 73255
    },
    {
      "step": 12,
      "pair": "ां",
      "pair_chars": [
        "ा",
        "ं"
      ],
      "frequency": 63664
    },
    {
      "step": 13,
      "pair": "र्",
      "pair_chars": [
        "र",
        "्"
      ],
      "frequency": 63467
    },
    {
      "step": 14,
      "pair": "च्या</w>",
      "pair_chars": [
        "च",
        "्या</w>"
      ],
      "frequency": 59576
    },
    {
      "step": 15,
      "pair": "क</w>",
      "pair_chars": [
        "क",
        "</w>"
      ],
      "frequency": 56004
    },
    {
      "step": 16,
      "pair": "े.</w>",
      "pair_chars": [
        "े",
        ".</w>"
      ],
      "frequency": 55007
    },
    {
      "step": 17,
      "pair": ",</w>",
      "pair_chars": [
        ",",
        "</w>"
      ],
      "frequency": 54427
    },
    {
      "step": 18,
      "pair": "स्",
      "pair_chars": [
        "स",
        "्"
      ],
      "frequency": 52978
    },
    {
      "step": 19,
      "pair": "र</w>",
      "pair_chars": [
        "र",
        "</w>"
      ],
      "frequency": 52809
    },
    {
      "step": 20,
      "pair": "ेल",
      "pair_chars": [
        "े",
        "ल"
      ],
      "frequency": 52751
    },
    {
      "step": 21,
      "pair": "आण",
      "pair_chars": [
        "आ",
        "ण"
      ],
      "frequency": 45925
    },
    {
      "step": 22,
      "pair": "ल</w>",
      "pair_chars": [
        "ल",
        "</w>"
      ],
      "frequency": 45917
    },
    {
      "step": 23,
      "pair": "ि</w>",
      "pair_chars": [
        "ि",
        "</w>"
      ],
      "frequency": 44556
    },
    {
      "step": 24,
      "pair": "आणि</w>",
      "pair_chars": [
        "आण",
        "ि</w>"
      ],
      "frequency": 44071
    },
    {
      "step": 25,
      "pair": "ात",
      "pair_chars": [
        "ा",
        "त"
      ],
      "frequency": 43377
    },
    {
      "step": 26,
      "pair": "ाल",
      "pair_chars": [
        "ा",
        "ल"
      ],
      "frequency": 42354
    },
    {
      "step": 27,
      "pair": "आह",
      "pair_chars": [
        "आ",
        "ह"
      ],
      "frequency": 38616
    },
    {
      "step": 28,
      "pair": "प्र",
      "pair_chars": [
        "प",
        "्र"
      ],
      "frequency": 38503
    },
    {
      "step": 29,
      "pair": "सा",
      "pair_chars": [
        "स",
        "ा"
      ],
      "frequency": 38366
    },
    {
      "step": 30,
      "pair": "वा",
      "pair_chars": [
        "व",
        "ा"
      ],
      "frequency": 38093
    },
    {
      "step": 31,
      "pair": "मध",
      "pair_chars": [
        "म",
        "ध"
      ],
      "frequency": 36382
    },
    {
      "step": 32,
      "pair": "क्",
      "pair_chars": [
        "क",
        "्"
      ],
      "frequency": 35709
    },
    {
      "step": 33,
      "pair": "त्या",
      "pair_chars": [
        "त",
        "्या"
      ],
      "frequency": 34602
    },
    {
      "step": 34,
      "pair": "्ह",
      "pair_chars": [
        "्",
        "ह"
      ],
      "frequency": 33866
    },
    {
      "step": 35,
      "pair": "कर",
      "pair_chars": [
        "क",
        "र"
      ],
      "frequency": 32612
    },
    {
      "step": 36,
      "pair": "का",
      "pair_chars": [
        "क",
        "ा"
      ],
      "frequency": 30696
    },
    {
      "step": 37,
      "pair": "वि",
      "pair_chars": [
        "व",
        "ि"
      ],
      "frequency": 30484
    },
    {
      "step": 38,
      "pair": "रा",
      "pair_chars": [
        "र",
        "ा"
      ],
      "frequency": 30066
    },
    {
      "step": 39,
      "pair": "हो",
      "pair_chars": [
        "ह",
        "ो"
      ],
      "frequency": 29616
    },
    {
      "step": 40,
      "pair": "ील</w>",
      "pair_chars": [
        "ी",
        "ल</w>"
      ],
      "frequency": 29604
    },
    {
      "step": 41,
      "pair": "मा",
      "pair_chars": [
        "म",
        "ा"
      ],
      "frequency": 28874
    },
    {
      "step": 42,
      "pair": "मध्य",
      "pair_chars": [
        "मध",
        "्य"
      ],
      "frequency": 28110
    },
    {
      "step": 43,
      "pair": "चा</w>",
      "pair_chars": [
        "च",
        "ा</w>"
      ],
      "frequency": 27266
    },
    {
      "step": 44,
      "pair": "चे</w>",
      "pair_chars": [
        "च",
        "े</w>"
      ],
      "frequency": 27064
    },
    {
      "step": 45,
      "pair": "ून</w>",
      "pair_chars": [
        "ू",
        "न</w>"
      ],
      "frequency": 26749
    },
    {
      "step": 46,
      "pair": "ण्या",
      "pair_chars": [
        "ण",
        "्या"
      ],
      "frequency": 26532
    },
    {
      "step": 47,
      "pair": "अस",
      "pair_chars": [
        "अ",
        "स"
      ],
      "frequency": 25542
    },
    {
      "step": 48,
      "pair": "ला</w>",
      "pair_chars": [
        "ल",
        "ा</w>"
      ],
      "frequency": 25198
    },
    {
      "step": 49,
      "pair": "ने</w>",
      "pair_chars": [
        "न",
        "े</w>"
      ],
      "frequency": 24621
    },
    {
      "step": 50,
      "pair": "मध्ये</w>",
      "pair_chars": [
        "मध्य",
        "े</w>"
      ],
      "frequency": 24080
    },
    {
      "step": 51,
      "pair": "ची</w>",
      "pair_chars": [
        "च",
        "ी</w>"
      ],
      "frequency": 23994
    },
    {
      "step": 52,
      "pair": "ना",
      "pair_chars": [
        "न",
        "ा"
      ],
      "frequency": 23919
    },
    {
      "step": 53,
      "pair": "नि",
      "pair_chars": [
        "न",
        "ि"
      ],
      "frequency": 22541
    },
    {
      "step": 54,
      "pair": "सं",
      "pair_chars": [
        "स",
        "ं"
      ],
      "frequency": 22004
    },
    {
      "step": 55,
      "pair": "आहे.</w>",
      "pair_chars": [
        "आह",
        "े.</w>"
      ],
      "frequency": 21860
    },
    {
      "step": 56,
      "pair": "होत",
      "pair_chars": [
        "हो",
        "त"
      ],
      "frequency": 21547
    },
    {
      "step": 57,
      "pair": "केल",
      "pair_chars": [
        "क",
        "ेल"
      ],
      "frequency": 21181
    },
    {
      "step": 58,
      "pair": "पा",
      "pair_chars": [
        "प",
        "ा"
      ],
      "frequency": 20509
    },
    {
      "step": 59,
      "pair": "ेत",
      "pair_chars": [
        "े",
        "त"
      ],
      "frequency": 20343
    },
    {
      "step": 60,
      "pair": "स</w>",
      "pair_chars": [
        "स",
        "</w>"
      ],
      "frequency": 19861
    },
    {
      "step": 61,
      "pair": "ला",
      "pair_chars": [
        "ल",
        "ा"
      ],
      "frequency": 19065
    },
    {
      "step": 62,
      "pair": "त्",
      "pair_chars": [
        "त",
[...]
