{
  "vocab_size": 5000,
  "num_merges": 5000,
  "actual_merges": 5000,
  "min_frequency": 2,
  "merges": [
    [
      "ꯤ",
      "</w>"
    ],
    [
      "ꯕ",
      "</w>"
    ],
    [
      "ꯅ",
      "</w>"
    ],
    [
      "ꯒ",
      "ꯤ</w>"
    ],
    [
      "ꯁ",
      "ꯤ"
    ],
    [
      "ꯗ",
      "</w>"
    ],
    [
      "꯫",
      "</w>"
    ],
    [
      "ꯡ",
      "</w>"
    ],
    [
      "ꯑ",
      "ꯃ"
    ],
    [
      "ꯥ",
      "ꯏ"
    ],
    [
      "ꯣ",
      "ꯏ"
    ],
    [
      "ꯁ",
      "ꯨ"
    ],
    [
      "ꯗ",
      "ꯨ"
    ],
    [
      "ꯥ",
      "ꯛ"
    ],
    [
      "꯭",
      "ꯔ"
    ],
    [
      "ꯁ",
      "ꯤ</w>"
    ],
    [
      "ꯑ",
      "ꯣꯏ"
    ],
    [
      ",",
      "</w>"
    ],
    [
      "ꯌ",
      "ꯥ"
    ],
    [
      "ꯤ",
      "꯫</w>"
    ],
    [
      "ꯑ",
      "ꯁꯤ</w>"
    ],
    [
      "ꯑꯃ",
      "ꯁꯨ"
    ],
    [
      "ꯁꯤ",
      "ꯡ"
    ],
    [
      "ꯑꯃꯁꯨ",
      "ꯡ</w>"
    ],
    [
      "ꯦ",
      "ꯟ"
    ],
    [
      "ꯣ",
      "ꯛ"
    ],
    [
      "ꯥ",
      "ꯟ"
    ],
    [
      "ꯝ",
      "</w>"
    ],
    [
      "ꯃ",
      "ꯤ"
    ],
    [
      "ꯑ",
      "ꯗꯨ"
    ],
    [
      "ꯂ",
      "ꯩ"
    ],
    [
      "ꯔ",
      "ꯤ"
    ],
    [
      "ꯛ",
      "</w>"
    ],
    [
      "ꯀ",
      "ꯤ</w>"
    ],
    [
      "ꯥ",
      "</w>"
    ],
    [
      "ꯜ",
      "</w>"
    ],
    [
      "ꯁꯤ",
      "ꯡ</w>"
    ],
    [
      "ꯍ",
      "ꯥꯛ"
    ],
    [
      "ꯥ",
      "ꯡ"
    ],
    [
      "ꯥ",
      "ꯔ"
    ],
    [
      "ꯅ",
      "ꯤ"
    ],
    [
      "ꯃ",
      "ꯇ"
    ],
    [
      "ꯟ",
      "</w>"
    ],
    [
      "ꯠ",
      "</w>"
    ],
    [
      "ꯂ",
      "ꯤ"
    ],
    [
      "ꯔ",
      "</w>"
    ],
    [
      "ꯇ",
      "</w>"
    ],
    [
      "ꯥ",
      "ꯎ"
    ],
    [
      "ꯄ",
      "ꯨ"
    ],
    [
      "ꯈ",
      "ꯤ꯫</w>"
    ],
    [
      "ꯃ",
      "ꯍꯥꯛ"
    ],
    [
      "ꯄ",
      "</w>"
    ],
    [
      "ꯑ",
      "ꯦ"
    ],
    [
      "ꯖ",
      "ꯤ"
    ],
    [
      "ꯅ",
      "ꯨ"
    ],
    [
      "ꯍ",
      "ꯥꯏ"
    ],
    [
      "ꯇ",
      "ꯤ"
    ],
    [
      "ꯅ",
      "ꯕ</w>"
    ],
    [
      "ꯈ",
      "ꯤ</w>"
    ],
    [
      "ꯒ",
      "</w>"
    ],
    [
      "ꯈ",
      "ꯤ"
    ],
    [
      "ꯑ",
      "ꯣ"
    ],
    [
      "ꯨ",
      "ꯝ"
    ],
    [
      "ꯗ",
      "ꯤ"
    ],
    [
      "ꯪ",
      "</w>"
    ],
    [
      "ꯨ",
      "</w>"
    ],
    [
      "ꯁ",
      "ꯦ"
    ],
    [
      "ꯇ",
      "꯭ꯔ"
    ],
    [
      "ꯗ",
      "ꯒꯤ</w>"
    ],
    [
      "ꯁ",
      "</w>"
    ],
    [
      "ꯁ",
      "꯭"
    ],
    [
      "ꯊ",
      "ꯣꯛ"
    ],
    [
      "ꯑ",
      "ꯁꯤ"
    ],
    [
      "ꯄ",
      "ꯤ"
    ],
    [
      "ꯃ",
      "ꯔ"
    ],
    [
      "ꯑꯃ",
      "</w>"
    ],
    [
      "ꯃ",
      "ꯈ"
    ],
    [
      "ꯏ",
      "ꯪ</w>"
    ],
    [
      "ꯑꯗꯨ",
      "</w>"
    ],
    [
      "ꯕ",
      "ꯤ"
    ],
    [
      "ꯣ",
      "ꯡ"
    ],
    [
      "ꯁ",
      "ꯥ"
    ],
    [
      "ꯅ",
      "ꯤ</w>"
    ],
    [
      "ꯇ",
      "ꯦ"
    ],
    [
      "ꯌ",
      "ꯨ"
    ],
    [
      "ꯩ",
      "</w>"
    ],
    [
      "ꯇ",
      "ꯧ"
    ],
    [
      "ꯇ",
      "ꯣ"
    ],
    [
      "ꯍ",
      "ꯟ"
    ],
    [
      "ꯌꯥ",
      "ꯝ"
    ],
    [
      "ꯋ",
      "ꯥ"
    ],
    [
      "ꯔ",
      "ꯦ"
    ],
    [
      "ꯂ",
      "ꯦ"
    ],
    [
      "ꯕ",
      "ꯨ</w>"
    ],
    [
      "ꯕ",
      "ꯒꯤ</w>"
    ],
    [
      "ꯡ",
      "ꯗ</w>"
    ],
    [
      "ꯍ",
      "ꯧ"
    ],
    [
      "ꯂ",
      "ꯥꯏ"
    ],
    [
      "ꯊ",
      "ꯧ"
    ],
    [
      "ꯔ",
      "ꯥ"
    ],
    [
      "ꯗ",
      "ꯦ"
    ],
    [
      "ꯅ",
      "ꯦ"
    ],
    [
      "ꯂ",
      "ꯣ"
    ],
    [
      "ꯀ",
      "ꯣ"
    ],
    [
      "ꯈ",
      "ꯨ"
    ],
    [
      "ꯑꯣꯏ",
      "ꯕ</w>"
    ],
    [
      "ꯅ",
      "ꯤ꯫</w>"
    ],
    [
      "ꯃ",
      "ꯁꯤ"
    ],
    [
      "ꯀ",
      "ꯦ"
    ],
    [
      "ꯆ",
      "ꯥ"
    ],
    [
      "꯲",
      "꯰"
    ],
    [
      "ꯇ",
      "ꯥ"
    ],
    [
      "ꯄ",
      "ꯥ"
    ],
    [
      "ꯅ",
      "ꯥ"
    ],
    [
      "ꯁꯤꯡ",
      "ꯒꯤ</w>"
    ],
    [
      "ꯗ",
      "ꯣꯛ"
    ],
    [
      "ꯌ",
      "ꯦ"
    ],
    [
      "ꯜ",
      "ꯂ"
    ],
    [
      "ꯃꯈ",
      "ꯣꯏ"
    ],
    [
      "ꯑꯣꯏ",
      "ꯅ</w>"
    ],
    [
      "ꯐ",
      "ꯝ</w>"
    ],
    [
      "ꯗ",
      "ꯤ</w>"
    ],
    [
      "꯭ꯔ",
      "ꯤ"
    ],
    [
      "ꯒ",
      "ꯤ"
    ],
    [
      "ꯥꯏ",
      "</w>"
    ],
    [
      "ꯂ",
      "ꯥ"
    ],
    [
      "ꯔꯤ",
      "ꯕ</w>"
    ],
    [
      "ꯁꯤ",
      "ꯟ"
    ],
    [
      "ꯃ",
      "ꯁꯤ</w>"
    ],
    [
      "ꯝ",
      "ꯗ</w>"
    ],
    [
      "ꯍꯥꯏ",
      "ꯅ</w>"
    ],
    [
      "ꯄ",
      "ꯣ"
    ],
    [
      "ꯔ",
      "ꯛ"
    ],
    [
      "ꯏ",
      "ꯟ"
    ],
    [
      "ꯆ",
      "ꯠ"
    ],
    [
      "ꯃ",
      "ꯦ"
    ],
    [
      "ꯃꯇ",
      "ꯨ"
    ],
    [
      "ꯕ",
      "ꯦ"
    ],
    [
      "ꯊ",
      "ꯤ"
    ],
    [
      "ꯑ",
      "ꯍ"
    ],
    [
      "ꯗꯨ",
      "ꯅ</w>"
    ],
    [
      "ꯃ",
      "ꯥ"
    ],
    [
      "ꯔ",
      "ꯨ"
    ],
    [
      "꯱",
      "꯹"
    ],
    [
      "ꯁꯤꯡ",
      "ꯅ</w>"
    ],
    [
      "ꯂꯩ",
      "ꯕ</w>"
    ],
    [
      "ꯌꯥꯝ",
      "ꯅ</w>"
    ],
    [
      "ꯍ",
      "ꯤ"
    ],
    [
      "ꯃ",
      "ꯛ</w>"
    ],
    [
      "া",
      "</w>"
    ],
    [
      "ꯊ",
      "ꯥ"
    ],
    [
      "ꯛ",
      "ꯇ</w>"
    ],
    [
      "ꯂ",
      "ꯣꯏ"
    ],
    [
      "ꯂ",
      "ꯧ"
    ],
    [
      "ꯍ",
      "ꯦꯟ"
    ],
    [
      "ꯕ",
      "ꯗ</w>"
    ],
    [
      "ꯂ",
      "ꯨ"
    ],
    [
      "ꯅ",
      "ꯠ"
    ],
    [
      "ꯃꯍꯥꯛ",
      "ꯀꯤ</w>"
    ],
    [
      "ꯖꯤ",
      "ꯟ"
    ],
    [
      "ꯁꯤꯡ",
      "ꯗ</w>"
    ],
    [
      "ꯅꯤ",
      "ꯡ"
    ],
    [
      "ꯛ",
      "ꯇ"
    ],
    [
      "ꯃꯤ",
      "ꯑꯣꯏ"
    ],
    [
      "ꯅ",
      "ꯍꯥꯛ"
    ],
    [
      ".",
      "</w>"
    ],
    [
      "ꯂ",
      "ꯝ"
    ],
    [
      "ꯔ",
      "ꯝ"
    ],
    [
      "ꯃ",
      "ꯤ</w>"
    ],
    [
      "ꯐ",
      "ꯤ"
    ],
    [
      "ꯃꯍꯥꯛ",
      "ꯅ</w>"
    ],
    [
      "ꯌꯥ",
      "ꯎ"
    ],
    [
      "ꯈꯤ",
      "ꯕ</w>"
    ],
    [
      "ꯐ",
      "ꯥꯎ"
    ],
    [
      "ꯀ",
      "ꯤ"
    ],
    [
      "ꯁꯨ",
      "</w>"
    ],
    [
      "ꯞ",
      "</w>"
    ],
    [
      "꯭",
      "ꯋ"
    ],
    [
      "ꯆ",
      "ꯤ"
    ],
    [
      "ꯇ",
      "ꯨ"
    ],
    [
      "ꯥꯟ",
      "ꯅ"
    ],
    [
      "ꯄ",
      "꯭ꯔ"
    ],
    [
      "ꯁ",
      "ꯦꯟ"
    ],
    [
      "ꯠ",
      "ꯀꯤ</w>"
    ],
    [
      "ꯌꯥ",
      "</w>"
    ],
    [
      "ꯒꯤ",
      "ꯗ"
    ],
    [
      "ꯃ",
      "ꯅꯨ"
    ],
    [
      "ꯅꯠ",
      "ꯇ꯭ꯔ"
    ],
    [
      "ꯐ",
      "ꯪ"
    ],
    [
      "ꯔ",
      "ꯣ"
    ],
    [
      "ꯁꯦ",
      "ꯝ"
    ],
    [
      "ꯁ",
      "ꯟ"
    ],
    [
      "ꯗ",
      ",</w>"
    ],
    [
      "ꯅꯠꯇ꯭ꯔ",
      "ꯒ</w>"
    ],
    [
      "ꯥꯡ",
      "ꯗ</w>"
    ],
    [
      "ꯥꯟ",
      "ꯕ</w>"
    ],
    [
      "ꯗ",
      "꯭ꯔ"
    ],
    [
      "ꯃ",
      "ꯨ"
    ],
    [
      "꯭",
      "ꯌ"
    ],
    [
      "ꯀ",
      "ꯥ"
    ],
    [
      "ꯨꯝ",
      "ꯕ</w>"
    ],
    [
      "ꯥꯛ",
      "</w>"
    ],
    [
      "ꯂ",
      "ꯥꯟ"
    ],
    [
      "ꯚ",
      "ꯥꯔ"
    ],
    [
      "ꯔ",
      "ꯤ</w>"
    ],
    [
      "ꯄ",
      "ꯥꯡ"
    ],
    [
      "꯭",
      "ꯌꯨ"
    ],
    [
      "ꯑ",
      "ꯩ"
    ],
    [
      "ꯆ",
      "ꯦ"
    ],
    [
      "ꯃꯇ",
      "ꯝꯗ</w>"
    ],
    [
      "ꯀ",
      "ꯨꯝ"
    ],
    [
      "ꯃ",
      "ꯥꯏ"
    ],
    [
      "ꯕ",
      "ꯣ"
    ],
    [
      "ꯒ",
      "ꯠ"
    ],
    [
      "ꯈ",
      "ꯪ"
    ],
    [
      "ꯀ",
      "ꯨ"
    ],
    [
      "ꯍ",
      "ꯤ</w>"
    ],
    [
      "ꯆ",
      "ꯥꯎ"
    ],
    [
      "ꯞ",
      "ꯄ</w>"
    ],
    [
      "ꯁ",
      "ꯀꯤ</w>"
    ],
    [
      "ꯠ",
      "ꯇ</w>"
    ],
    [
      "ꯕ",
      "ꯔ"
    ],
    [
      "ꯁ",
      "ꯣ"
    ],
    [
      "ꯃꯅꯨ",
      "ꯡꯗ</w>"
    ],
    [
      "ꯥꯏ",
      "ꯗꯒꯤ</w>"
    ],
    [
      "ꯑꯁꯤ",
      "ꯅ</w>"
    ],
    [
      "ꯗ",
      "ꯕ</w>"
    ],
    [
      "ꯝ",
      "ꯒꯤ</w>"
    ],
    [
      "ꯗ",
      "ꯣ"
    ],
    [
      "ꯈ",
      "꯭ꯋ"
    ],
    [
      "ꯊ",
      "ꯕ"
    ],
    [
      "ꯂ",
      "ꯛ"
    ],
    [
      "ꯒ",
      "ꯨꯝꯕ</w>"
    ],
    [
      "ꯃ",
      "ꯐꯝ</w>"
    ],
    [
      "ꯃꯇꯨ",
      "ꯡꯗ</w>"
    ],
    [
      "ꯁꯤ",
      "ꯖꯤꯟ"
    ],
    [
      "ꯈ꯭ꯋ",
      "ꯥꯏꯗꯒꯤ</w>"
    ],
    [
      "꯭ꯔ",
      "ꯦ"
    ],
    [
      "ꯁ",
      "ꯔꯨ"
    ],
    [
      "ꯍ",
      "ꯥ"
    ],
    [
      "ꯖ",
      "ꯦ"
    ],
    [
      "ꯜ",
      "ꯒꯤ</w>"
    ],
    [
      "ꯆ",
      "ꯍꯤ</w>"
    ],
    [
      "ꯍ",
      "ꯣ"
    ],
    [
      "ꯧ",
      "ꯕ</w>"
    ],
    [
      "ꯂꯩ",
      "ꯕ"
    ],
    [
      "ꯋ",
      "ꯥꯔ"
    ],
    [
      "ꯍꯦꯟ",
      "ꯅ</w>"
    ],
    [
      "ꯏ",
      "</w>"
    ],
    [
      "ꯃꯍꯥꯛ",
      "</w>"
    ],
    [
      "ꯔ",
      "ꯣꯏ"
    ],
    [
      "ꯁ",
      "ꯟ</w>"
    ],
    [
      "ꯏ",
      "꯫</w>"
    ],
    [
      "ꯃꯁꯤ",
      "ꯒꯤ</w>"
    ],
    [
      "ꯑꯁꯤ",
      "ꯒꯤ</w>"
    ],
    [
      "ꯇ",
      "ꯔ"
    ],
    [
      "ꯦꯟ",
      "</w>"
    ],
    [
      "ꯒꯤꯗ",
      "ꯃꯛ</w>"
    ],
    [
      "ꯀꯨꯝ",
      "ꯍ"
    ],
    [
      "ꯒ",
      "ꯣ"
    ],
    [
      "ꯅ",
      "ꯥ</w>"
    ],
    [
      "ꯅ",
      "ꯣ"
    ],
    [
      "ꯇ",
      "ꯔ</w>"
    ],
    [
      "ꯑꯗꯨ",
      "ꯗ</w>"
    ],
    [
      "ꯃꯤꯑꯣꯏ",
      "</w>"
    ],
    [
      "ꯄ",
      "ꯦ"
    ],
    [
      "ꯅ",
      "ꯅ</w>"
    ],
    [
      "ꯔ",
      "ꯕ</w>"
    ],
    [
      "ꯊ",
      "ꯪ"
    ],
    [
      "ꯑꯗꯨ",
      "ꯒꯤ</w>"
    ],
    [
      "ꯗ",
      "ꯥ"
    ],
    [
      "ꯃ",
      "ꯣ"
    ],
    [
      "ꯑ",
      "ꯇꯣ"
    ],
    [
      "ꯁꯨ",
      "ꯕ</w>"
    ],
    [
      "ꯉ",
      "ꯝ"
    ],
    [
      "꯲꯰",
      "꯱"
    ],
    [
      "ꯔꯥ",
      "ꯖ"
    ],
    [
      "ꯃ",
      "ꯃꯤ"
    ],
    [
      "ꯈꯤ",
      ",</w>"
    ],
    [
      "ꯄꯨ",
      "</w>"
    ],
    [
      "ꯃꯇ",
      "ꯝ</w>"
    ],
    [
      "ꯅꯍꯥꯛ",
      "ꯅ</w>"
    ],
    [
      "ꯇ",
      "ꯤ</w>"
    ],
    [
      "ꯅ",
      "ꯣꯡ"
    ],
    [
      "ꯅꯨ",
      "ꯡ"
    ],
    [
      "ꯃ",
      "ꯃ"
    ],
    [
      "꯰",
      "꯰"
    ],
    [
      "ꯥꯟ",
      "</w>"
    ],
    [
      "ꯒ",
      "ꯦ"
    ],
    [
      "ꯃꯔ",
      "ꯨ"
    ],
    [
      "ꯅ",
      ",</w>"
    ],
    [
      "ꯅ",
      "ꯥꯏ"
    ],
    [
      "ꯑꯗꯨ",
      "ꯕꯨ</w>"
    ],
    [
      "ꯌ",
      "ꯣ"
    ],
    [
      "ꯟ",
      "ꯕ</w>"
    ],
    [
      "ꯃ",
      "ꯗꯨ"
    ],
    [
      "ꯅ",
      "ꯕ"
    ],
    [
      "ꯑꯃ",
      "ꯅꯤ꯫</w>"
    ],
    [
      "ꯁ",
      "ꯥꯟꯅ"
    ],
    [
      "ꯑ",
      "ꯅꯤ"
    ],
    [
      ".",
      "ꯑꯦ"
    ],
    [
      "ꯐ",
      "ꯝ"
    ],
    [
      "ꯑꯇꯣ",
      "ꯞꯄ</w>"
    ],
    [
      "ꯑꯁꯤ",
      "ꯗ</w>"
    ],
    [
      "ꯌ",
      "ꯥꯏ</w>"
    ],
    [
      "ꯑꯃ",
      "ꯗ</w>"
    ],
    [
      "ꯌ",
      "ꯥꯏ"
    ],
    [
      "ꯃꯈꯣꯏ",
      "ꯒꯤ</w>"
    ],
    [
      "ꯄꯥꯡ",
      "ꯊꯣꯛ"
    ],
    [
      "ꯂ",
      "ꯕ</w>"
    ],
    [
      "ꯁꯤꯖꯤꯟ",
      "ꯅ"
    ],
    [
      "ꯊꯕ",
      "ꯛ</w>"
    ],
    [
      "ꯟ",
      "ꯒꯤ</w>"
    ],
    [
      "ꯊ",
      "ꯝ"
    ],
    [
      "ꯕ",
      "ꯥ"
    ],
    [
      "ꯉ",
      "ꯥꯛ"
    ],
    [
      "ꯄꯥ",
      "ꯝ"
    ],
    [
      "ꯐ",
      "ꯣ"
    ],
    [
      "ꯐ",
      "ꯦ"
    ],
    [
      "ꯂ",
      "ꯤ</w>"
    ],
    [
      "ꯑꯍ",
      "ꯥꯟꯕ</w>"
    ],
    [
      "ꯑꯗꯨ",
      "ꯅ</w>"
    ],
    [
      "ꯊꯧ",
      "</w>"
    ],
    [
      "ꯌꯦ",
      "ꯡ"
    ],
    [
      "ꯍ",
      "ꯦ"
    ],
    [
      "ꯖ",
      "</w>"
    ],
    [
      "ꯑ",
      "ꯥꯏ"
    ],
    [
      "ꯜ",
      "ꯗ</w>"
    ],
    [
      "ꯋ",
      "ꯦ"
    ],
    [
      "ꯟ",
      "ꯗ</w>"
    ],
    [
      "ꯀ",
      "꯭"
    ],
    [
      "ꯕ",
      "ꯅ</w>"
    ],
    [
      "ꯛ",
      "ꯄ</w>"
    ],
    [
      "ꯐꯥꯎ",
      "ꯕ</w>"
    ],
    [
      "ꯃꯁꯤ",
      "ꯅ</w>"
    ],
    [
      "ꯟ",
      "ꯅ</w>"
    ],
    [
      "ꯛ",
      "ꯀꯤ</w>"
    ],
    [
      "ꯃ",
      "ꯑꯣ"
    ],
    [
      "ꯗꯦ",
      "</w>"
    ],
    [
      "ꯃ",
      "ꯍ"
    ],
    [
      "ꯁ",
      "ꯔ"
    ],
    [
      "ꯍ",
      "ꯜꯂ"
    ],
    [
      "ꯇꯣ",
      "ꯉ"
    ],
    [
      "ꯀꯨꯝꯍ",
      "ꯩ</w>"
    ],
    [
      "ꯃ",
      "ꯦꯟ"
    ],
    [
      "ꯀ",
      "ꯌꯥ</w>"
    ],
    [
      "ꯂꯣꯏ",
      "ꯅꯅ</w>"
    ],
    [
      "ꯀ",
      "ꯔꯤ"
    ],
    [
      "ꯈ",
      "ꯔ"
    ],
    [
      "ꯈ",
      "ꯠ"
    ],
    [
      "ꯐ",
      "</w>"
    ],
    [
      "ꯁꯔꯨ",
      "ꯛ</w>"
    ],
    [
      "ꯚꯥꯔ",
      "ꯠꯀꯤ</w>"
    ],
    [
      "ꯊ",
      "ꯦ"
    ],
    [
      "ꯂꯤ",
      "ꯕ</w>"
    ],
    [
      "ꯃ",
      "ꯁ"
    ],
    [
      "ꯆ",
      "ꯨ"
    ],
    [
      "ꯚ",
      "ꯤ"
    ],
    [
      "ꯅꯨ",
      "ꯃꯤ"
    ],
    [
      ")",
      "</w>"
    ],
    [
      "ꯣꯛ",
      "</w>"
    ],
    [
      "ꯁ",
      "ꯇ</w>"
    ],
    [
      "ꯡ",
      "ꯒꯤ</w>"
    ],
    [
      "ꯗ",
      "ꯅ</w>"
    ],
    [
      "ꯍꯥꯏ",
      "ꯕ"
    ],
    [
      "ꯈꯤ",
      "ꯕ"
    ],
    [
      "ꯏ",
      "ꯁ"
    ],
    [
      "꯰",
      "</w>"
    ],
    [
      "ী",
      "</w>"
    ],
    [
      "ꯄ",
      "ꯒꯤ</w>"
    ],
    [
      "ꯑꯃ",
      "ꯅꯤ</w>"
    ],
    [
      "ꯀ",
      "ꯝ"
    ],
    [
      "ꯌ",
      "ꯟ</w>"
    ],
    [
      "ꯔ",
      "ꯕ"
    ],
    [
      "ꯑ",
      "ꯌꯥꯝ"
    ],
    [
      "ꯇ꯭ꯔ",
      "ꯤ"
    ],
    [
      "ꯂ",
      "ꯥꯛ"
    ],
    [
      "।",
      "</w>"
    ],
    [
      "ꯇ",
      "ꯥꯛ"
    ],
    [
      "ꯝ",
      "ꯅ"
    ],
    [
      "ꯕ",
      "꯭ꯔ"
    ],
    [
      "ꯁ꯭",
      "ꯇꯦ"
    ],
    [
      "ꯀ",
      "ꯥꯡ"
    ],
    [
      "ꯇꯧ",
      "ꯕ</w>"
    ],
    [
      "ꯃꯈꯣꯏ",
      "ꯅ</w>"
    ],
    [
      "ꯁ",
      "ꯍ"
    ],
    [
      "ꯅꯦ",
      "ꯜ</w>"
    ],
    [
      "ꯄ",
      "ꯥꯟ"
    ],
    [
      "ꯃꯇ",
      "ꯥꯡꯗ</w>"
    ],
    [
      "ꯃꯔ",
      "ꯝ</w>"
    ],
    [
      "ꯂ",
      "ꯦꯟ"
    ],
    [
      "ꯌꯥ",
      "ꯒꯤ</w>"
    ],
    [
      "ꯈ",
      "ꯟ"
    ],
    [
      "꯲꯰",
      "꯰"
    ],
    [
      "ꯃ",
      "ꯃꯤ</w>"
    ],
    [
      "ꯑ",
      "ꯦꯟ"
    ],
    [
      "ꯈꯨ",
      "ꯗ"
    ],
    [
      "ꯀ",
      "ꯟ"
    ],
    [
      "ꯒ",
      "ꯨ"
    ],
    [
      "ꯊ",
      "ꯨ"
    ],
    [
      "ꯗ",
      "ꯕ"
    ],
    [
      "ꯆꯥ",
      "ꯡ</w>"
    ],
    [
      "ꯑꯃ",
      "ꯅ</w>"
    ],
    [
      "ꯄ",
      "ꯥꯛ"
    ],
    [
      "ꯀꯔꯤ",
      "ꯒꯨꯝꯕ</w>"
    ],
    [
      "ꯁ",
      "ꯅ</w>"
    ],
    [
      "ꯂꯩ",
      "꯫</w>"
    ],
    [
      "ꯩ",
      "꯫</w>"
    ],
    [
      "ꯃ",
      "ꯤ꯫</w>"
    ],
    [
      "ꯐ",
      "ꯥ"
    ],
    [
      "ꯖ",
      "ꯨ"
    ],
    [
      "ꯖ",
      "ꯥ"
    ],
    [
      "ꯁ",
      "ꯥꯏ"
    ],
    [
      "ꯋ",
      "ꯤ"
    ],
    [
      "ꯀ",
      "ꯥꯔ"
    ],
    [
      "ꯊꯪ",
      "ꯕ</w>"
    ],
    [
      "ꯎ",
      "ꯠ"
    ],
    [
      "ꯗꯨ",
      "</w>"
    ],
    [
      "ꯄ",
      "ꯥꯎ"
    ],
    [
      "ꯑ",
      "ꯥꯔ"
    ],
    [
      "ꯃ",
      "ꯛ"
    ],
    [
      "ꯑ",
      "ꯉ"
    ],
    [
      "ꯄ꯭ꯔ",
      "ꯣ"
    ],
    [
      "ꯔꯥꯖ",
      "꯭ꯌ"
    ],
    [
      "ꯈ",
      "ꯣꯡ"
    ],
    [
      "ꯉ",
      "ꯥꯏ"
    ],
    [
      "ꯍꯧ",
      "ꯖꯤ"
    ],
    [
      "ꯅꯍꯥꯛ",
      "ꯀꯤ</w>"
    ],
    [
      "ꯌꯥꯏ",
      "꯫</w>"
    ],
    [
      "ꯌ",
      "ꯨꯝ"
    ],
    [
      "ꯆꯤ",
      "ꯡ"
    ],
    [
      "ꯁ",
      "ꯇ"
    ],
    [
      "য",
      "়"
    ],
    [
      "ꯑ",
      "ꯆ"
    ],
    [
      "ꯃꯇꯨ",
      "ꯡ</w>"
    ],
    [
      "ꯃ",
      "ꯛꯇ</w>"
    ],
    [
      "ꯁ",
      "ꯪ"
    ],
    [
      "ꯃ",
      "ꯥꯔ"
    ],
    [
      "ꯋ",
      "ꯥꯡ"
    ],
    [
      "ꯔ",
      "ꯒꯤ</w>"
    ],
    [
      "স",
      "ি"
    ],
    [
      "ꯁ",
      "ꯠ</w>"
    ],
    [
      "ꯍ",
      "ꯣꯡ"
    ],
    [
      "ꯒ",
      "꯭ꯔ"
    ],
    [
      "ꯄ",
      "ꯗ</w>"
    ],
    [
      "ꯔ",
      "ꯤ꯫</w>"
    ],
    [
      "ꯇ꯭ꯔ",
      "ꯦ"
    ],
    [
      "ꯂꯩ",
      "</w>"
    ],
    [
      "ꯇ",
      "ꯝ"
    ],
    [
      "ꯕ",
      "ꯨ"
    ],
    [
      "\"",
      "</w>"
    ],
    [
      "ꯁꯤꯡ",
      ",</w>"
    ],
    [
      "ꯁꯦ",
      "ꯡ"
    ],
    [
      "ꯊꯣꯛ",
      "ꯄ</w>"
    ],
    [
      "ꯕ",
      ",</w>"
    ],
    [
      "ꯔ",
      "ꯗ</w>"
    ],
    [
      "ꯈꯨ",
      "ꯠ"
    ],
    [
      "ꯕ",
      "ꯁꯤꯡ</w>"
    ],
    [
      "ꯑꯃ",
      "ꯨ"
    ],
    [
      "ন",
      "া</w>"
    ],
    [
      "ꯑꯃ",
      "ꯒꯤ</w>"
    ],
    [
      "ꯔꯦ",
      "ꯜ</w>"
    ],
    [
      "ꯕ",
      "ꯔ</w>"
    ],
    [
      "ꯄ",
      "ꯥꯔ"
    ],
    [
      "ꯥꯟ",
      "ꯅꯕ</w>"
    ],
    [
      "ꯑ",
      "ꯀ"
    ],
    [
      "ꯖ",
      "ꯣ"
    ],
    [
      "ꯔ",
      "ꯥꯛ"
    ],
    [
      "ꯃ",
      "ꯊ"
    ],
    [
      "ꯃꯃꯤ",
      "ꯡ</w>"
    ],
    [
      "ꯑꯣ",
      "ꯐ</w>"
    ],
    [
      "ꯄꯣ",
      "ꯠ"
    ],
    [
      "ি",
      "।</w>"
    ],
    [
      "ꯃ",
      "ꯍꯧ"
    ],
    [
      "ꯃꯔ",
      "ꯤ</w>"
    ],
    [
      "ꯍ",
      "ꯨ"
    ],
    [
      "ꯄ",
      "꯭"
    ],
    [
      "ꯃꯍꯧ",
      "ꯁꯥ"
    ],
    [
      "ꯅꯨ",
      "ꯄ"
    ],
    [
      "ꯗ",
      "ꯥ</w>"
    ],
    [
      "ꯗꯦ",
      "꯫</w>"
    ],
    [
      "ꯜ",
      "ꯁꯤꯡ</w>"
    ],
    [
      "ꯐ",
      "ꯣꯡ"
    ],
    [
      "ꯥꯟ",
      "ꯅ</w>"
    ],
    [
      "ꯀ",
      "꯭ꯔ"
    ],
    [
      "ꯆ",
      "ꯪ"
    ],
    [
      "ꯠ",
      "ꯇ"
    ],
    [
      "ꯕ",
      "ꯤ</w>"
    ],
    [
      "দ",
      "া</w>"
    ],
    [
      "ꯀ",
      "ꯌꯥ"
    ],
    [
      "ꯄꯨ",
      "ꯝꯅ"
    ],
    [
      "ꯆꯥꯎ",
      "ꯔꯥꯛ"
    ],
    [
      "গ",
      "ী</w>"
    ],
    [
      "ꯂ",
      "ꯤ꯫</w>"
    ],
    [
      "ꯍꯟ",
      "ꯕ</w>"
    ],
    [
      "ꯃꯍꯥꯛ",
      "ꯄꯨ</w>"
    ],
    [
      "ꯂꯩ",
      "ꯉꯥꯛ"
    ],
    [
      "ꯃꯗꯨ",
      "ꯒꯤ</w>"
    ],
    [
      "ꯊꯦ",
      "ꯡ"
    ],
    [
      "ꯃꯔꯨ",
      "ꯑꯣꯏꯕ</w>"
    ],
    [
      "ꯈ",
      "꯭ꯔꯦ"
    ],
    [
      "ꯊ",
      "ꯣ"
    ],
    [
      "ꯃꯔ",
      "ꯛꯇ</w>"
    ],
    [
      "ꯈꯨ",
      "ꯗꯤ"
    ],
    [
      "ꯔ",
      "ꯝ</w>"
    ],
    [
      "ꯕ",
      "꯭"
    ],
    [
      "ꯅꯦ",
      "ꯁ"
    ],
    [
      "ꯆꯥꯎꯔꯥꯛ",
      "ꯅ</w>"
    ],
    [
      "ꯆ",
      "ꯍꯤ"
    ],
    [
      "ꯁ",
      "ꯣꯛ"
    ],
    [
      "ꯂ",
      "ꯥ</w>"
    ],
    [
      "ꯠ",
      "ꯅ"
    ],
    [
      "ꯐ",
      "ꯨ"
    ],
    [
      "ꯇ",
      "ꯥꯏ"
    ],
    [
      "ꯌꯥ",
      "ꯕ</w>"
    ],
    [
      "ব",
      "া</w>"
    ],
    [
      "ꯑꯣꯏ",
      "ꯈꯤ꯫</w>"
    ],
    [
      "ꯂꯩꯕ",
      "ꯥꯛ</w>"
    ],
    [
      "ꯃ",
      "ꯆ"
    ],
    [
      "ꯃ",
      "ꯊꯧ</w>"
    ],
    [
      "্",
      "ত"
    ],
    [
      "ꯂꯣ",
      "ꯟ"
    ],
    [
      "ꯆ",
      "ꯥꯡ"
    ],
    [
      "ꯒ",
      "ꯥ"
    ],
    [
      "ꯑꯣꯏ",
      "ꯔꯝ"
    ],
    [
      "ꯃ",
      "ꯄꯨ"
    ],
    [
      "ꯍ",
      "ꯛ"
    ],
    [
      "ꯋꯥꯔ",
      "ꯤ</w>"
    ],
    [
      "ꯥꯎ",
      "ꯟ"
    ],
    [
      "ꯃꯃ",
      "ꯥꯡꯗ</w>"
    ],
    [
      "ꯑꯃꯨ",
      "ꯛ</w>"
    ],
    [
      "ꯄ",
      "ꯣꯛ"
    ],
    [
      "ꯝ",
      "ꯅ</w>"
    ],
    [
      "ꯑ",
      "ꯅ"
    ],
    [
      "ꯇꯥ",
      "ꯡ</w>"
    ],
    [
      "ꯅꯤ",
      "ꯡ</w>"
    ],
    [
      "ꯃ",
      "ꯅ"
    ],
    [
      "ꯑꯆ",
      "ꯧꯕ</w>"
    ],
    [
      "ꯁꯍ",
      "ꯔ</w>"
    ],
    [
      "ꯑꯣꯏ",
      "ꯅ"
    ],
    [
      "ꯥ",
      "ꯗ</w>"
    ],
    [
      "ꯒ",
      "ꯅꯤ</w>"
    ],
    [
      "ꯑꯣꯏ",
      "ꯔꯤꯕ</w>"
    ],
    [
      "ꯃꯇ",
      "ꯦ"
    ],
    [
      "ꯗꯤ",
      ",</w>"
    ],
    [
      "ꯈ",
      "ꯣ"
    ],
    [
      "ꯆ",
      "</w>"
    ],
    [
      "ꯌ",
      "ꯣꯛ"
    ],
    [
      "ꯃꯥ",
      "ꯂꯦ"
    ],
    [
      "ꯋꯥ",
      "ꯔꯤ"
    ],
    [
      "ং",
      "</w>"
    ],
    [
      "ꯅꯤ",
      ",</w>"
    ],
    [
      "ꯀꯥꯡ",
      "ꯂꯨ"
    ],
    [
      "ꯜ",
      "ꯂꯤ"
    ],
    [
      "ꯁꯤꯡ",
      "ꯕꯨ</w>"
    ],
    [
      "ꯀ",
      "꯭ꯔꯤ"
    ],
    [
      "ꯅꯨꯃꯤ",
      "ꯠ</w>"
    ],
    [
      "ꯂꯣ",
      "ꯟ</w>"
    ],
    [
      "ꯑꯗꯨ",
      "ꯒ</w>"
    ],
    [
      "ꯑ",
      "ꯩ</w>"
    ],
    [
      "ꯡ",
      "ꯒ"
    ],
    [
      "ꯁꯤꯟ",
      "ꯕ</w>"
    ],
    [
      "অ",
      "ম"
    ],
    [
      "ꯊꯤ",
      "ꯕ</w>"
    ],
    [
      "ꯃ",
      "ꯥꯡ"
    ],
    [
      "ꯄꯨ",
      "ꯟ"
    ],
    [
      "ꯑ",
      "ꯋꯥ"
    ],
    [
      "ꯍꯟ",
      "ꯅ</w>"
    ],
    [
      "ꯂꯩꯕ",
      "ꯥꯛ"
    ],
    [
      "ꯑꯣꯏ",
      "ꯈꯤ</w>"
    ],
    [
      "ꯃꯑꯣ",
      "ꯡ</w>"
    ],
    [
      "ꯌ",
      "ꯔ</w>"
    ],
    [
      "ꯆꯠ",
      "ꯅ"
    ],
    [
      "ꯇꯣꯉ",
      "ꯥꯟꯕ</w>"
    ],
    [
      "ꯑꯦ",
      "ꯛ"
    ],
    [
      "ꯇ",
      "ꯥꯔ"
    ],
    [
      "ꯇ",
      "ꯥ</w>"
    ],
    [
      "ꯑꯩ",
      "ꯍꯥꯛ"
    ],
    [
      "ꯃꯇ",
      "ꯝ"
    ],
    [
      "ꯃꯈ",
      "ꯥ</w>"
    ],
    [
      "ꯃ",
      "ꯐꯝ"
    ],
    [
      "ꯍꯧꯖꯤ",
      "ꯛ</w>"
    ],
    [
      "ꯍ",
      "ꯩ"
    ],
    [
      "ꯠ",
      "ꯁꯤꯡ</w>"
    ],
    [
      "ꯃ",
      "꯭ꯌꯨ"
    ],
    [
      "ꯍꯥꯏ",
      "ꯕ</w>"
    ],
    [
      "ꯜꯂ",
      "ꯤ</w>"
    ],
    [
      "ꯇꯤ",
      "ꯛ</w>"
    ],
    [
      "ꯁꯤꯡ",
      "ꯒ</w>"
    ],
    [
      "꯱꯹",
      "꯹"
    ],
    [
      "ꯁꯦ",
      "ꯜ</w>"
    ],
    [
      "ꯑ",
      "ꯅꯤ</w>"
    ],
    [
      "ꯊ",
      "</w>"
    ],
    [
      "ꯏ",
      "ꯪ"
    ],
    [
      "ꯂꯩ",
      "ꯈꯤ"
    ],
    [
      "ꯑꯗꯨ",
      "ꯝ</w>"
    ],
    [
      "ꯗ",
      "꯭ꯔꯤ"
    ],
    [
      "ꯔꯛ",
      "ꯄ</w>"
    ],
    [
      "꯵",
      "</w>"
    ],
    [
      "ꯋꯥ",
      "ꯈ"
    ],
    [
      "ꯑꯣꯏ",
      "ꯗꯨꯅ</w>"
    ],
    [
      "ꯃꯇꯦ",
      "ꯡ</w>"
    ],
    [
      "ꯠ",
      "ꯅ</w>"
    ],
    [
      "ꯣꯏ",
      "</w>"
    ],
    [
      "ꯃ",
      "ꯁꯥ"
    ],
    [
      "ꯃꯤ",
      "ꯇꯔ</w>"
    ],
    [
      "ꯏꯟ",
      "ꯅ</w>"
    ],
    [
      "ꯅꯦꯁ",
      "ꯅꯦꯜ</w>"
    ],
    [
      "ꯔꯣꯏ",
      "</w>"
    ],
    [
      "ꯃ",
      "ꯆꯥ"
    ],
    [
      "ꯍꯤ",
      "ꯟ"
    ],
    [
      "꯱",
      "꯸"
    ],
    [
      "ꯄ",
      "ꯥꯏ"
    ],
    [
      "ꯀꯦ",
      "ꯜ</w>"
    ],
    [
      "ꯅ",
      "ꯝ"
    ],
    [
      "ꯕ",
      "꯭ꯔꯤ"
    ],
    [
      "꯲",
      "</w>"
    ],
    [
      "ꯈ",
      "ꯥꯏ"
    ],
    [
      "ꯑꯅ",
      "ꯧꯕ</w>"
    ],
    [
      "ꯄ",
      "ꯟ"
    ],
    [
      "ꯁ",
      "ꯛꯇ"
    ],
    [
      "সি",
      "</w>"
    ],
    [
      "ꯃ",
      "ꯟ"
    ],
    [
      "꯰",
      "ꯒꯤ</w>"
    ],
    [
      "ꯇꯤ",
      "ꯒꯤ</w>"
    ],
    [
      "ꯀꯣ",
      "ꯔ"
    ],
    [
      "ꯀ",
      "ꯔ"
    ],
    [
      "ꯔꯥꯖ꯭ꯌ",
      "</w>"
    ],
    [
      "ꯇ",
      "ꯔꯥ"
    ],
    [
      "ꯅꯨꯡ",
      "ꯉꯥꯏ"
    ],
    [
      "ꯄ",
      "꯭ꯔꯤ"
    ],
    [
      "ꯀ",
      "</w>"
    ],
    [
      "ꯅꯤꯡ",
      "ꯊꯧ</w>"
    ],
    [
      "ꯀ",
      "ꯥꯏ"
    ],
    [
      "ꯈ",
      "ꯛꯇ"
    ],
    [
      "ꯝ",
      "ꯄꯤ"
    ],
    [
      "ꯃꯈ",
      "ꯥꯗ</w>"
    ],
    [
      "ꯀ",
      "ꯩ"
    ],
    [
      "ꯍꯟ",
      "ꯊ"
    ],
    [
      "ꯁꯤꯡ",
      "ꯗꯒꯤ</w>"
    ],
    [
      "ꯇ",
      "ꯦꯟ"
    ],
    [
      "ꯛ",
      "ꯁꯤꯡ</w>"
    ],
    [
      "ꯅ",
      "ꯕꯒꯤ</w>"
    ],
    [
      "ꯃꯈꯣꯏ",
      "</w>"
    ],
    [
      "ꯃ",
      "ꯁꯤꯡ</w>"
    ],
    [
      "ꯃꯍꯧꯁꯥ",
      "ꯅ</w>"
    ],
    [
      "ꯖ",
      "ꯔ"
    ],
    [
      ".ꯑꯦ",
      "ꯁ"
    ],
    [
      "ꯗꯣꯛ",
      "ꯄ</w>"
    ],
    [
      "ꯄꯣ",
      "ꯔ"
    ],
    [
      "ꯊꯥ",
      "ꯖ"
    ],
    [
      "ꯗ",
      "ꯔ"
    ],
    [
      "ꯉ",
      "ꯩ</w>"
    ],
    [
      "ꯂ",
      "ꯥꯡ"
    ],
    [
      "ꯥꯟ",
      "-"
    ],
    [
      "ꯕ",
      "ꯥꯏ"
    ],
    [
      "ꯑ",
      "ꯔꯣꯏ"
    ],
    [
      "ꯑꯃ",
      "ꯠꯇ</w>"
    ],
    [
      "ꯕ",
      "ꯥ</w>"
    ],
    [
      "ꯐꯣ",
      "ꯔ"
    ],
    [
      "ꯩ",
      "-"
    ],
    [
      ":",
      "</w>"
    ],
    [
      "ꯂ",
      "ꯔ</w>"
    ],
    [
      "ꯣꯏ",
      "ꯅ</w>"
    ],
    [
      "ꯐ",
      "꯭ꯔ"
    ],
    [
      "ꯑꯌꯥꯝ",
      "ꯕ</w>"
    ],
    [
      "ꯌꯨ",
      "ꯅꯤ"
    ],
    [
      "ꯑꯣꯏ",
      "</w>"
    ],
    [
      "ꯐ",
      "ꯖ"
    ],
    [
      "ꯌ",
      "ꯔ"
    ],
    [
      "ꯆꯥ",
      "ꯗ</w>"
    ],
    [
      "ꯄ",
      "ꯔ"
    ],
    [
      "ꯍꯥꯏ",
      "ꯔꯤꯕ</w>"
    ],
    [
      "ꯏꯟ",
      "ꯗꯤ"
    ],
    [
      "ꯗ",
      "ꯦꯟ"
    ],
    [
      "ꯅꯨ",
      "ꯄꯤ"
    ],
    [
      "ꯃ",
      "ꯉ"
    ],
    [
      "ꯅꯤꯡ",
      "ꯊꯧ"
    ],
    [
      "ꯒꯤꯗ",
      "ꯃꯛꯇ</w>"
    ],
    [
      "ꯁ",
      "ꯥ</w>"
    ],
    [
      "ꯕꯣ",
      "ꯜ</w>"
    ],
    [
      "ꯅꯥꯏ",
      "ꯇꯦ"
    ],
    [
      "ꯀ",
      "ꯧ"
    ],
    [
      "ꯅ",
      "ꯩ</w>"
    ],
    [
      "꯱",
      "</w>"
    ],
    [
      "ꯊ",
      "ꯥ</w>"
    ],
    [
      "ꯌꯨ",
      "ꯅꯥꯏꯇꯦ"
    ],
    [
      "ꯀ",
      "ꯥ</w>"
    ],
    [
      "ꯂꯦ",
      "ꯞ"
    ],
    [
      "ꯂꯤ",
      "ꯡ"
    ],
    [
      "ꯀ",
      "ꯥꯎꯟ"
    ],
    [
      "ন",
      "্"
    ],
    [
      "হ",
      "া"
    ],
    [
      "ꯑ",
      "ꯥ"
    ],
    [
      "ꯑꯦ",
      "ꯁ"
    ],
    [
      "ꯃꯤ",
      "ꯌꯥꯝꯅ</w>"
    ],
    [
      "ꯃꯁꯤ",
      "ꯗ</w>"
    ],
    [
      "ꯃꯈ",
      "ꯜ</w>"
    ],
    [
      "ꯑꯃ",
      "ꯗꯤ</w>"
    ],
    [
      "ꯁ",
      "ꯥꯡ"
    ],
    [
      "ꯀꯝ",
      "ꯄ"
    ],
    [
      "ꯁꯤ",
      "ꯜꯂ"
    ],
    [
      "ꯍꯦꯟ",
      "ꯒꯠ"
    ],
    [
      "ꯃꯛ",
      ",</w>"
    ],
    [
      "ꯥꯎ",
      "</w>"
    ],
    [
      "ꯄꯨ",
      "ꯛ"
    ],
    [
      "ꯈ",
      "ꯔ</w>"
    ],
    [
      "ꯅ",
      "ꯩ꯫</w>"
    ],
    [
      "ꯂꯛ",
      "ꯄ</w>"
    ],
    [
      "ꯞ",
      "ꯅ</w>"
    ],
    [
      "ꯇ꯭ꯔ",
      "ꯣ"
    ],
    [
      "ꯇꯣꯉ",
      "ꯥꯟ-"
    ],
    [
      "ꯛ",
      "ꯅꯕ</w>"
    ],
    [
      "ꯒ",
      "ꯅꯤ꯫</w>"
    ],
    [
      "ꯐ",
      "꯭"
    ],
    [
      "ꯀ",
      "ꯦꯟ"
    ],
    [
      "ꯊꯧ",
      "ꯔꯝ</w>"
    ],
    [
      "ꯂꯥꯏ",
      "</w>"
    ],
    [
      "ꯃ",
      "ꯥꯏ</w>"
    ],
    [
      "ꯚ",
      "ꯦ"
    ],
    [
      "খ",
      "ি।</w>"
    ],
    [
      "ꯗ",
      "ꯔ</w>"
    ],
    [
      "꯴",
      "</w>"
    ],
    [
      "ꯗ",
      "ꯝ"
    ],
    [
      "ꯑ",
      "ꯔ"
    ],
    [
      "ꯥ",
      "ꯡ</w>"
    ],
    [
      "ꯇꯣꯉꯥꯟ-",
      "ꯇꯣꯉꯥꯟꯕ</w>"
    ],
    [
      "ꯑ",
      "ꯐ"
    ],
    [
      "ꯂ",
      "ꯥꯎ"
    ],
    [
      "ꯜ",
      "ꯅ</w>"
    ],
    [
      "ꯔ",
      "ꯥ</w>"
    ],
    [
      "ꯑꯃ",
      "ꯥ</w>"
    ],
    [
      "ꯌ",
      "ꯨ</w>"
    ],
    [
      "ꯁꯤ",
      "."
    ],
    [
      "ꯖ",
      "ꯟ</w>"
    ],
    [
      "ꯗ",
      "ꯥꯏ"
    ],
    [
      "ꯖ",
      "ꯦꯟ"
    ],
    [
      "ꯍꯣ",
      "ꯠꯅ"
    ],
    [
      "ꯔ",
      "ꯒ</w>"
    ],
    [
      "ꯔ",
      "ꯦꯟ"
    ],
    [
      "ꯃꯥ",
      "ꯌꯣꯛ"
    ],
    [
      "꯳",
      "</w>"
    ],
    [
      "ꯄꯨ",
      "ꯊꯣꯛ"
    ],
    [
      "ꯅꯨꯡ",
      "ꯁꯤ"
    ],
    [
      "ꯑꯃ",
      "ꯒ</w>"
    ],
    [
      "ꯐ",
      "ꯥꯏ"
    ],
    [
      "ꯇꯨ",
      "ꯅ</w>"
    ],
    [
      "ꯑꯍ",
      "ꯨꯝ"
    ],
    [
      "ꯈ",
      "ꯥ</w>"
    ],
    [
      "ꯩ",
      "ꯒꯤ</w>"
    ],
    [
      "ꯃꯁ",
      "ꯥꯟꯅ</w>"
    ],
    [
      "ꯒ",
      "꯭"
    ],
    [
      "ꯁ",
      "ꯪ</w>"
    ],
    [
      "ꯑꯣ",
      "ꯟ"
    ],
    [
      "ꯡ",
      "-"
    ],
    [
      "ꯇꯦ",
      "ꯛ"
    ],
    [
      "ꯌ",
      "ꯟ"
    ],
    [
      "ꯍꯜꯂ",
      "ꯤ</w>"
    ],
    [
      "ꯡ",
      "ꯅ</w>"
    ],
    [
      "꯱꯹",
      "꯸"
    ],
    [
      "্",
      "র"
    ],
    [
      "ꯁ",
      "ꯇ꯭ꯔ"
    ],
    [
      "ꯑꯣꯏꯅ",
      "ꯃꯛ,</w>"
    ],
    [
      "ꯌꯥꯎ",
      "ꯕ</w>"
    ],
    [
      "ꯥꯛ",
      "ꯇ</w>"
    ],
    [
      "ꯏ",
      "ꯁꯤꯡ</w>"
    ],
    [
      "ꯋ",
      "ꯤ</w>"
    ],
    [
      "ꯂ",
      "ꯝ</w>"
    ],
    [
      "ꯕ",
      "ꯗꯤ</w>"
    ],
    [
      "ꯂꯩ",
      "ꯔꯝ"
    ],
    [
      "꯷",
      "</w>"
    ],
    [
      "ꯍꯟ",
      "ꯈꯤ꯫</w>"
    ],
    [
      "ꯈꯨꯗ",
      "ꯣꯡ"
    ],
    [
      "ꯒ",
      "꯭ꯔꯦ"
    ],
    [
      "ꯂꯥꯟ",
      "ꯃꯤ"
    ],
    [
      "ꯕ",
      "ꯁꯤꯡꯅ</w>"
    ],
    [
      "ꯌꯦ",
      "ꯜ</w>"
    ],
    [
      "ꯕꯤ",
      "ꯌꯨ"
    ],
    [
      "ꯁ꯭ꯇꯦ",
      "ꯠ"
    ],
    [
      "ꯆ",
      "ꯦꯟ"
    ],
    [
      "ꯑꯣꯏ",
      "ꯔꯛ"
    ],
    [
      "ꯑ",
      "ꯣꯛ"
    ],
    [
      "ꯁ",
      "ꯇꯤ"
    ],
    [
      "ꯄ꯭ꯔ",
      "ꯦ"
    ],
    [
      "ꯇꯥ",
      "ꯅ</w>"
    ],
    [
      "শ",
      "ি"
    ],
    [
      "ꯁꯟ",
      "ꯗꯣꯛ"
    ],
    [
      "ꯗ",
      "ꯁꯨ</w>"
    ],
    [
      "ꯏꯟ",
      "ꯇꯔ"
    ],
    [
      "ꯗ",
      "ꯝ</w>"
    ],
    [
      "ꯕꯦ",
      "ꯡ"
    ],
    [
      "꯱",
      "ꯗ</w>"
    ],
    [
      "ꯒꯦ",
      "</w>"
    ],
    [
      "ꯆ",
      "ꯥꯏ"
    ],
    [
      "ꯥꯟ",
      "ꯒꯤ</w>"
    ],
    [
      "ꯆꯤ",
      "ꯟ"
    ],
    [
      "ꯃꯥꯂꯦ",
      "ꯝꯒꯤ</w>"
    ],
    [
      "ꯒ꯭ꯔ",
      "ꯥ"
    ],
    [
      "ꯃꯔ",
      "ꯝ"
    ],
    [
      "ꯁꯦꯟ",
      "</w>"
    ],
    [
      "ꯁ",
      "ꯥꯎ"
    ],
    [
      "ꯌꯨꯅꯥꯏꯇꯦ",
      "ꯗ</w>"
    ],
    [
      "ꯂꯥ",
      "ꯒꯤ</w>"
    ],
    [
      "ꯊꯤ",
      "ꯡ"
    ],
    [
      "꯱꯹",
      "꯷"
    ],
    [
      "ꯋꯥꯡ",
      "ꯕ</w>"
    ],
    [
      "ꯆ",
      "ꯟ"
    ],
    [
      "꯶",
      "</w>"
    ],
    [
      "ꯑꯌꯥꯝ",
      "ꯕꯅ</w>"
    ],
    [
      "ꯍꯧ",
      "ꯔꯛ"
    ],
    [
      "ꯊꯥ",
      "ꯗꯣꯛ"
    ],
    [
      "ꯡ",
      "ꯁꯤꯡ</w>"
    ],
    [
      "ꯈꯨꯗ",
      "ꯝ</w>"
    ],
    [
      "ꯀ꯭ꯔ",
      "ꯣ"
    ],
    [
      "ꯡ",
      "ꯗ,</w>"
    ],
    [
      "ꯃ",
      "ꯥꯟꯅ"
    ],
    [
      "ম",
      "্"
    ],
    [
      "ꯏ",
      "ꯃꯨ"
    ],
    [
      "ꯄ",
      "ꯥ</w>"
    ],
    [
      "ꯃ",
      "ꯔꯤ"
    ],
    [
      "꯭ꯌ",
      "ꯨ</w>"
    ],
    [
      "ꯅꯨꯄ",
      "ꯥ</w>"
    ],
    [
      ",",
      "꯰꯰"
    ],
    [
      "ꯇ",
      "ꯒꯤ</w>"
    ],
    [
      "ꯑꯣꯏ",
      "꯫</w>"
    ],
    [
      "ꯁ",
      "ꯛ"
    ],
    [
      "ক",
      "্"
    ],
    [
      "ꯄꯨꯛ",
      "ꯅꯤꯡ</w>"
    ],
    [
      "অ",
      "সি</w>"
    ],
    [
      "ꯑꯣ",
      "ꯔ"
    ],
    [
      "ꯆꯥ",
      "ꯕ</w>"
    ],
    [
      "ক",
      "</w>"
    ],
    [
      "ꯀꯤ",
      "ꯗ"
    ],
    [
      "ꯑ",
      "ꯔꯤꯕ</w>"
    ],
    [
      "ꯝ",
      "ꯕ</w>"
    ],
    [
      "ꯅꯨꯄ",
      "ꯤ</w>"
    ],
    [
      "ꯃꯥꯏ",
      "ꯄꯥꯛ"
    ],
    [
      "ꯃꯇ",
      "ꯝꯒꯤ</w>"
    ],
    [
      "ꯄ",
      "ꯣꯛ</w>"
    ],
    [
      "ꯃꯄꯨ",
      "ꯡ</w>"
    ],
    [
      "ꯍꯥ",
      "ꯞ"
    ],
    [
      "ꯑꯅꯤ",
      "ꯁꯨꯕ</w>"
    ],
    [
      "ꯇ",
      "ꯕ</w>"
    ],
    [
      "ꯅꯥ",
      "ꯒꯤ</w>"
    ],
    [
      "ꯍꯟ",
      "ꯈꯤ</w>"
    ],
    [
      "ꯃꯤ",
      "ꯅꯤ"
    ],
    [
      "ꯃ",
      "ꯥꯟꯅꯕ</w>"
    ],
    [
      "ꯂꯦ",
      "ꯛ"
    ],
    [
      "ꯅ",
      "ꯩ"
    ],
    [
      "ꯀ",
      "꯭ꯋ"
    ],
    [
      "ꯍꯥꯏꯕ",
      "ꯁꯤ</w>"
    ],
    [
      "ꯏ",
      ",</w>"
    ],
    [
      "ꯍꯟ",
      "ꯅꯕ</w>"
    ],
    [
      "ꯈꯨꯗꯤ",
      "ꯡ"
    ],
    [
      "ꯄꯤ",
      "ꯛꯄ</w>"
    ],
    [
      "ꯑꯃ",
      "ꯦ"
    ],
    [
      "ꯁꯤꯖꯤꯟ",
      "ꯅꯕ</w>"
    ],
    [
      "ꯋ",
      "ꯥꯏ"
    ],
    [
      "ꯑꯩ",
      "ꯈ"
    ],
    [
      "ꯍꯥꯏꯕ",
      "ꯗꯨ</w>"
    ],
    [
      "র",
      "্"
    ],
    [
      "ꯁꯦ",
      "ꯜ"
    ],
    [
      "ꯂꯨ",
      "ꯍꯣꯡ"
    ],
    [
      "ꯚ",
      "ꯥ"
    ],
    [
      "ꯀꯥꯡꯂꯨ",
      "ꯞ</w>"
    ],
    [
      "া",
      "ই"
    ],
    [
      "ꯋ",
      "ꯔ"
    ],
    [
      "ꯄꯣ",
      "ꯠ</w>"
    ],
    [
      "ꯆꯥꯎ",
      "ꯕ</w>"
    ],
    [
      "ꯃ",
      "ꯥ</w>"
    ],
    [
      "ꯃꯤ",
      "ꯌꯥꯝ"
    ],
    [
      "ꯥꯔ",
      "ꯥ"
    ],
    [
      "ꯃꯔꯨ",
      "ꯑꯣꯏꯅ</w>"
    ],
    [
      "ꯥꯔ",
      "</w>"
    ],
    [
      "ꯀ",
      "ꯧꯕ</w>"
    ],
    [
      "ꯁ",
      ",</w>"
    ],
    [
      "ꯕ꯭ꯔꯤ",
      "ꯇꯤ"
    ],
    [
      "ꯃꯦꯟ",
      "ꯠ</w>"
    ],
    [
      "ꯀ",
      "ꯣꯏ"
    ],
    [
      "ꯅꯨ",
      "ꯄꯥ"
    ],
    [
      "ꯂꯤꯡ",
      "ꯈꯠ"
    ],
    [
      "ꯒ",
      "ꯗꯕ"
    ],
    [
      "ꯑꯃꯦ",
      "ꯔꯤ"
    ],
    [
      "ꯄꯨꯝꯅ",
      "ꯃꯛ</w>"
    ],
    [
      "ꯃꯁ",
      "ꯛ</w>"
    ],
    [
      "-",
      "ꯑ"
    ],
    [
      "ꯄꯤ",
      "ꯕ</w>"
    ],
    [
      "ꯑꯦ",
      "ꯝ"
    ],
    [
      "ꯈ꯭ꯔꯦ",
      "꯫</w>"
    ],
    [
      "ꯆꯠ",
      "ꯊ"
    ],
    [
      "ꯁ",
      "ꯠ"
    ],
    [
      "ꯂꯩ",
      "ꯔꯤꯕ</w>"
    ],
    [
      "ꯃꯔ",
      "ꯥ"
    ],
    [
      "ꯅ",
      "ꯁꯨ</w>"
    ],
    [
      "꯸",
      "</w>"
    ],
    [
      "ꯐꯤ",
      "ꯕ"
    ],
    [
      "ꯁꯥ",
      "ꯒꯤ</w>"
    ],
    [
      "ꯅꯣꯡ",
      "ꯄꯣꯛ</w>"
    ],
    [
      "ꯁꯤ",
      "ꯟ</w>"
    ],
    [
      "ꯑ",
      "ꯅꯥ"
    ],
    [
      "ꯔꯛ",
      "ꯄꯗ</w>"
    ],
    [
      "꯲",
      "ꯗ</w>"
    ],
    [
      "ꯣ",
      "ꯟꯗ</w>"
    ],
    [
      "ꯆꯠ",
      "ꯄ</w>"
    ],
    [
      "ꯁꯛꯇ",
      "ꯝ</w>"
    ],
    [
      "ꯁꯟ",
      "ꯅ</w>"
    ],
    [
      "ꯂꯦ",
      "</w>"
    ],
    [
      "ꯅꯣꯡ",
      "ꯆꯨ"
    ],
    [
      "ꯕꯤꯌꯨ",
      "꯫</w>"
    ],
    [
      "ꯈꯤ",
      "ꯗꯦ</w>"
    ],
    [
      "ꯃꯤ",
      "ꯟ"
    ],
    [
      "ꯈ",
      "ꯥ"
    ],
    [
      "ꯊꯦꯡ",
      "ꯅ"
    ],
    [
      "ꯉ",
      "ꯥꯏ</w>"
    ],
    [
      "ꯝ",
      "ꯕꯔ</w>"
    ],
    [
      "ꯃꯍ",
      "ꯨ"
    ],
    [
      "ꯏꯁ",
      "ꯩ</w>"
    ],
    [
      "ꯇ",
      "ꯥꯡ"
    ],
    [
      "ন",
      "</w>"
    ],
    [
      "ꯇ",
      "ꯅ</w>"
    ],
    [
      "ꯚ",
      "ꯔ"
    ],
    [
      "ꯑꯩ",
      "ꯒꯤ</w>"
    ],
    [
      "ꯀꯤ",
      "ꯂꯣ"
    ],
    [
      "ꯍꯜꯂ",
      "ꯤ꯫</w>"
    ],
    [
      "ꯈ",
      "꯭ꯔꯤ"
    ],
    [
      "ꯁ",
      "ꯣꯏ"
    ],
    [
      "ꯖ",
      "ꯥ</w>"
    ],
    [
      "ꯃꯊ",
      "ꯛꯇ</w>"
    ],
    [
      "ꯞ",
      "ꯀꯤ</w>"
    ],
    [
      "ꯖ",
      "ꯤ</w>"
    ],
    [
      "ꯟ",
      "ꯗ"
    ],
    [
      "ꯂꯥꯏ",
      "ꯔꯤ"
    ],
    [
      "ꯂꯨ",
      "ꯆꯤꯡ"
    ],
    [
      "꯱",
      "꯷"
    ],
    [
      "ꯖ",
      "ꯒ"
    ],
    [
      "ꯄ",
      "ꯤ</w>"
    ],
    [
      "ꯅꯤ",
      "ꯒꯤ</w>"
    ],
    [
      "꯵",
      "ꯗ</w>"
    ],
    [
      "ꯠ",
      "ꯄ</w>"
    ],
    [
      "ꯎ",
      "ꯕ</w>"
    ],
    [
      "ꯌꯥ",
      "ꯗ</w>"
    ],
    [
      "ꯈꯨꯗꯤ",
      "ꯡꯒꯤ</w>"
    ],
    [
      "ꯈ",
      "꯭ꯔ"
    ],
    [
      "ꯑꯉ",
      "ꯥꯡ"
    ],
    [
      "ꯝ",
      "ꯁꯤꯡ</w>"
    ],
    [
      "꯱꯹",
      "꯶"
    ],
    [
      "ꯒ",
      "ꯨꯝ"
    ],
    [
      "ꯁꯦꯝ",
      "ꯒꯠ"
    ],
    [
      "ꯁ",
      "ꯇꯦ"
    ],
    [
      "ꯑ",
      "ꯄꯨ"
    ],
    [
      "ꯑꯥꯏ",
      "."
    ],
    [
      "ꯂꯤ",
      "ꯌꯟ</w>"
    ],
    [
      "ꯃ",
      "ꯩ</w>"
    ],
    [
      "ꯑꯦ",
      "ꯁꯤ"
    ],
    [
      "ꯄꯤ",
      "ꯈꯤ꯫</w>"
    ],
    [
      "꯱",
      "ꯒꯤ</w>"
    ],
    [
      "ꯇꯧ",
      "ꯈꯤ꯫</w>"
    ],
    [
      "꯳",
      "ꯗ</w>"
    ],
    [
      "ꯨ",
      "ꯝ</w>"
    ],
    [
      "ꯀꯤꯂꯣ",
      "ꯃꯤꯇꯔ</w>"
    ],
    [
      "ꯀꯥ",
      "ꯒꯤ</w>"
    ],
    [
      "꯴",
      "ꯗ</w>"
    ],
    [
      "ꯑꯗꯨ",
      "ꯗꯒꯤ</w>"
    ],
    [
      "ꯑ",
      "ꯄꯤꯛꯄ</w>"
    ],
    [
      "ꯑꯣ",
      "ꯐꯤ"
    ],
    [
      "ꯇꯤ",
      "ꯕ</w>"
    ],
    [
      "ꯑꯣꯏ",
      "ꯅ,</w>"
    ],
    [
      "ꯃꯃꯤ",
      "-"
    ],
    [
      "ꯌꯦ",
      "ꯛ</w>"
    ],
    [
      "ꯃꯤ",
      "ꯠ"
    ],
    [
      "ꯝ",
      "ꯕꯔ"
    ],
    [
      "ꯊ",
      "ꯣꯏ"
    ],
    [
      "ꯇꯥ",
      "ꯕ</w>"
    ],
    [
      "ꯜꯂ",
      "ꯤ꯫</w>"
    ],
    [
      "ꯃ",
      "ꯊꯪ"
    ],
    [
      "ꯁꯟ",
      "ꯒꯤ</w>"
    ],
    [
      "ꯈ꯭ꯔꯦ",
      "</w>"
    ],
    [
      "ꯜ",
      ",</w>"
    ],
    [
      "ꯃꯆ",
      "ꯥ</w>"
    ],
    [
      "ꯑꯄꯨ",
      "ꯟꯕ</w>"
    ],
    [
      "ꯌꯨꯝ",
      "ꯐꯝ</w>"
    ],
    [
      "ꯈꯨ",
      "ꯡꯒ"
    ],
    [
      "ꯃꯇꯝ",
      "ꯗ,</w>"
    ],
    [
      "ꯃ",
      "ꯀ"
    ],
    [
      "꯶",
      "ꯇ</w>"
    ],
    [
      "স",
      "ু"
    ],
    [
      "ꯑꯍ",
      "ꯥꯟ"
    ],
    [
      "ꯁ",
      "ꯃꯨ"
    ],
    [
      "ꯋꯥ",
      "ꯍ"
    ],
    [
      "ꯀ",
      "꯭ꯌꯨ"
    ],
    [
      "ꯂꯤ",
      "ꯁ</w>"
    ],
    [
      "ꯌꯦ",
      "ꯡ</w>"
    ],
    [
      "ꯃꯤ",
      "ꯍꯨ"
    ],
    [
      "ꯊ",
      "ꯨꯝ"
    ],
    [
      "ꯣꯏ",
      "ꯒꯤ</w>"
    ],
    [
      "ꯑꯋꯥ",
      "ꯡ</w>"
    ],
    [
      "ꯀꯨꯝꯍ",
      "ꯩ"
    ],
    [
      "ꯈꯤꯕ",
      "ꯅꯤ꯫</w>"
    ],
    [
      "ꯀꯣ",
      "ꯟ"
    ],
    [
      "ꯖꯤ",
      "ꯟ</w>"
    ],
    [
      "ꯁ",
      "ꯔ</w>"
    ],
    [
      "ꯌ",
      "ꯧ"
    ],
    [
      "ꯔꯥ",
      "ꯡ</w>"
    ],
    [
      ".ꯑꯦꯁ",
      "."
    ],
    [
      "ꯗꯥ",
      "ꯡ</w>"
    ],
    [
      "ꯚꯥꯔ",
      "ꯠꯇ</w>"
    ],
    [
      "ꯂꯩ",
      "ꯇꯦ"
    ],
    [
      "ꯂꯝ",
      "ꯕꯤ"
    ],
    [
      "ꯃꯇ",
      "ꯧ"
    ],
    [
      "-",
      "ꯏ"
    ],
    [
      "ও",
      "ই"
    ],
    [
      "ꯁꯔꯨ",
      "ꯛꯇ</w>"
    ],
    [
      "ꯔ",
      "ꯅ</w>"
    ],
    [
      "ꯐꯣꯡ",
      "ꯗꯣꯛ"
    ],
    [
      "ꯕ",
      "ꯦꯟ"
    ],
    [
      "ꯇꯤ",
      "ꯝ</w>"
    ],
    [
      "ꯇ",
      "ꯣꯏꯅ</w>"
    ],
    [
      "ꯀ",
      "ꯠ"
    ],
    [
      "ꯆ",
      "ꯞ</w>"
    ],
    [
      "ꯊ",
      "ꯥꯡ"
    ],
    [
      "ꯃ꯭ꯌꯨ",
      "ꯅꯤ"
    ],
    [
      "ꯊꯧ",
      "ꯔꯝ"
    ],
    [
      "ꯑꯍ",
      "ꯨꯝ</w>"
    ],
    [
      "ꯇꯨ",
      "ꯔꯦ"
    ],
    [
      "ꯁꯃꯨ",
      "ꯗ꯭ꯔ"
    ],
    [
      "ꯈꯤ",
      "ꯗꯦ꯫</w>"
    ],
    [
      "ꯗ",
      "ꯧ"
    ],
    [
      "꯲",
      "ꯒꯤ</w>"
    ],
    [
      "ꯊꯣꯛ",
      "</w>"
    ],
    [
      "ꯑꯀ",
      "ꯛꯅꯕ</w>"
    ],
    [
      "ꯊꯧ",
      "ꯗꯣꯛ"
    ],
    [
      "র",
      "ি"
    ],
    [
      "ꯃꯇꯨ",
      "ꯡꯗ,</w>"
    ],
    [
      "ꯃꯅ",
      "ꯥꯛꯇ</w>"
    ],
    [
      "ꯃ",
      "ꯛꯇ"
    ],
    [
      "꯰",
      "ꯗ</w>"
    ],
    [
      "ꯁ",
      "ꯩ"
    ],
    [
      "ꯄ",
      "ꯦꯟ"
    ],
    [
      "ꯒ",
      "ꯜ</w>"
    ],
    [
      "ꯂꯣꯏ",
      "ꯅ"
    ],
    [
      "ꯂ",
      "ꯕ"
    ],
    [
      "ꯃꯥꯌꯣꯛ",
      "ꯇ</w>"
    ],
    [
      "ꯁꯥ",
      "ꯕ</w>"
    ],
    [
      "ꯑꯦ",
      "ꯜ"
    ],
    [
      "ꯑꯔꯣꯏ",
      "ꯕ</w>"
    ],
    [
      "ꯇꯧ",
      "ꯈꯤ</w>"
    ],
    [
      "ꯂꯩ",
      "ꯅꯕ</w>"
    ],
    [
      "ꯙ",
      "ꯤ"
    ],
    [
      "ꯏ",
      "ꯕ</w>"
    ],
    [
      "ꯔꯦ",
      "</w>"
    ],
    [
      ";",
      "</w>"
    ],
    [
      "ꯀ",
      "꯭ꯔꯦ"
    ],
    [
      "ꯅꯕ",
      "ꯒꯤꯗꯃꯛ</w>"
    ],
    [
      "ꯃꯔ",
      "ꯨ</w>"
    ],
    [
      "-",
      "</w>"
    ],
    [
      "ꯕ",
      "ꯗꯒꯤ</w>"
    ],
    [
      "ꯌꯥꯎ",
      "ꯅ</w>"
    ],
    [
      "ꯑꯉ",
      "ꯥꯡ</w>"
    ],
    [
      "ꯜ",
      "ꯂꯤꯕ</w>"
    ],
    [
      "ꯍꯤ",
      "ꯡ"
    ],
    [
      "ꯁꯦꯟ",
      "ꯐꯝ</w>"
    ],
    [
      "ꯋꯥꯈ",
      "ꯜ"
    ],
    [
      "ꯁ꯭",
      "ꯀꯨ"
    ],
    [
      "ꯒ",
      "꯭ꯔꯤ"
    ],
    [
      "ꯅꯣ",
      "ꯔ"
    ],
    [
      "ꯍꯥ",
      "ꯠ"
    ],
    [
      "ꯆ",
      "ꯣ"
    ],
    [
      "ꯊ",
      "ꯣꯡ"
    ],
    [
      "ꯅꯕ",
      "ꯤ</w>"
    ],
    [
      "ꯗ",
      "ꯀꯤ</w>"
    ],
    [
      "ꯅ",
      "꯭ꯌꯨ</w>"
    ],
    [
      "ꯇꯨ",
      "ꯔꯦꯜ</w>"
    ],
    [
      "ꯕ",
      "ꯁꯤꯡꯒꯤ</w>"
    ],
    [
      "ꯒꯣ",
      "ꯜ</w>"
    ],
    [
      "ꯐꯥꯎ",
      "ꯕꯗ</w>"
    ],
    [
      "র",
      "</w>"
    ],
    [
      "꯹",
      "</w>"
    ],
    [
      "ꯁꯨ",
      "ꯔꯛꯄꯗ</w>"
    ],
    [
      "ꯑꯩꯍꯥꯛ",
      "ꯅ</w>"
    ],
    [
      "ꯃꯑꯣ",
      "ꯡꯗ</w>"
    ],
    [
      "ꯃꯃ",
      "ꯜ</w>"
    ],
    [
      "꯴",
      "ꯒꯤ</w>"
    ],
    [
      "ꯐꯪ",
      "ꯈꯤ꯫</w>"
    ],
    [
      "ꯂꯥꯟ",
      "</w>"
    ],
    [
      "ꯁ",
      "ꯕ"
    ],
    [
      "ꯗꯤ",
      "ꯁ"
    ],
    [
      "꯸",
      "ꯒꯤ</w>"
    ],
    [
      "ꯃꯗꯨ",
      "</w>"
    ],
    [
      "ꯆꯠꯅ",
      "ꯕꯤ"
    ],
    [
      "ꯆꯥꯎ",
      "ꯈꯠ"
    ],
    [
      "ꯃꯔꯝ",
      "ꯗꯤ</w>"
    ],
    [
      "ꯐꯖ",
      "ꯅ</w>"
    ],
    [
      "ꯇꯔꯥ",
      "ꯒꯤ</w>"
    ],
    [
      "ꯁ꯭",
      "ꯇ꯭ꯔ"
    ],
    [
      "ম",
      "হা"
    ],
    [
      "ꯂ",
      "ꯪ"
    ],
    [
      "꯱꯹",
      "꯵"
    ],
    [
      "ꯂꯣꯏ",
      "ꯁꯤꯟ"
    ],
    [
      "꯰꯰",
      "</w>"
    ],
    [
      "ꯃꯇ",
      "ꯤ"
    ],
    [
      "ꯅꯤꯡ",
      "ꯉꯥꯏ</w>"
    ],
    [
      "ꯀꯤꯗ",
      "ꯃꯛ</w>"
    ],
    [
      "ꯂꯥꯏ",
      "ꯁꯪ</w>"
    ],
    [
      "ꯂ",
      "ꯦꯟ</w>"
    ],
    [
      "স",
      "্ত"
    ],
    [
      "ꯇ",
      "꯭ꯌꯨ"
    ],
    [
      "ꯀ",
      "ꯌꯥꯒꯤ</w>"
    ],
    [
      "ꯆꯍꯤ",
      "ꯆꯥ"
    ],
    [
      "ꯑꯣ",
      "ꯡ</w>"
    ],
    [
      "ꯔꯝ",
      "ꯃꯤ꯫</w>"
    ],
    [
      "ꯆ",
      "ꯠ</w>"
    ],
    [
      "꯸",
      "ꯗ</w>"
    ],
    [
      "ꯁꯥꯟꯅ",
      "ꯔꯣꯏ</w>"
    ],
    [
      "ꯑ",
      "ꯗꯣ"
    ],
    [
      "ꯃꯃ",
      "ꯥꯡ"
    ],
    [
      "ꯋꯥꯔ",
      "ꯦ"
    ],
    [
      "ꯒ",
      "ꯥ</w>"
    ],
    [
      "ꯁꯦꯡ",
      "ꯅ</w>"
    ],
    [
      "ꯅ",
      "ꯔ</w>"
    ],
    [
      "ꯑ",
      "ꯜ"
    ],
    [
      "ꯇꯥ",
      "ꯃꯤ"
    ],
    [
      "ꯇ",
      "ꯥꯟ"
    ],
    [
      "ꯂꯧ",
      "ꯊꯣꯛ"
    ],
    [
      "ꯀꯦ",
      "ꯠ</w>"
    ],
    [
      "ꯁꯨ",
      ",</w>"
    ],
    [
      "ꯑꯩ",
      "ꯅ</w>"
    ],
    [
      "ꯃꯥꯏ",
      "ꯊꯤꯕ</w>"
    ],
    [
      "ꯃ",
      "ꯄꯥꯟ"
    ],
    [
      "ꯁ",
      "ꯇ꯭ꯔꯦ"
    ],
    [
      "ꯉ",
      "ꯩ"
    ],
    [
      "ꯃꯛ",
      "ꯅ</w>"
    ],
    [
      "ꯅ",
      "-"
    ],
    [
      "ꯛ",
      "ꯄ"
    ],
    [
      "ꯒꯤ",
      ",</w>"
    ],
    [
      "ꯋ",
      "ꯥ</w>"
    ],
    [
      "ꯏꯁ",
      "ꯩ-"
    ],
    [
      "ꯅ",
      "ꯔ"
    ],
    [
      "ꯉ",
      "ꯥꯡ"
    ],
    [
      "꯷",
      "ꯇ</w>"
    ],
    [
      "2",
      "0"
    ],
    [
      "ꯂꯥꯎ",
      "ꯊꯣꯛ"
    ],
    [
      "ꯋꯥ",
      "ꯐꯝ</w>"
    ],
    [
      "ꯕꯤ",
      "ꯌꯨ</w>"
    ],
    [
      "ꯄꯨ",
      "ꯟꯅ</w>"
    ],
    [
      "꯵",
      "ꯒꯤ</w>"
    ],
    [
      "ꯃ",
      "ꯟ</w>"
    ],
    [
      "ি",
      "</w>"
    ],
    [
      "ꯁꯦ",
      "ꯞ"
    ],
    [
      "ꯁ",
      "ꯝ"
    ],
    [
      "ꯇꯤ",
      "."
    ],
    [
      "ꯌꯥ",
      "ꯅ</w>"
    ],
    [
      "ꯐꯤ",
      "ꯜ"
    ],
    [
      "꯹",
      "ꯗ</w>"
    ],
    [
      "꯭ꯌ",
      "</w>"
    ],
    [
      "ꯔ",
      "ꯥꯏ"
    ],
    [
      "ꯕ꯭",
      "ꯂꯤ"
    ],
    [
      "ꯐꯪ",
      "ꯕ</w>"
    ],
    [
      "ꯂ",
      "ꯂꯣꯟ"
    ],
    [
      "ꯈ",
      "ꯦ"
    ],
    [
      "ꯋꯥꯔꯤ",
      "ꯒꯤ</w>"
    ],
    [
      "ꯖ",
      "ꯟ"
    ],
    [
      "ꯍ",
      "ꯥꯟꯅ"
    ],
    [
      "ꯃ",
      "ꯄꯥ"
    ],
    [
      "ম",
      "</w>"
    ],
    [
      "ꯄ",
      "ꯔꯤ"
    ],
    [
      "ꯈꯨ",
      "ꯖꯤ"
    ],
    [
      "অম",
      "সু"
    ],
    [
      "ꯈ",
      "ꯨꯝ"
    ],
    [
      "ꯒ",
      "ꯥꯔ"
    ],
    [
      "ꯐ",
      "ꯝꯗ</w>"
    ],
    [
      "ꯃ",
      "ꯛꯀꯤ</w>"
    ],
    [
      "ꯄ꯭",
      "ꯂꯦ"
    ],
    [
      "ꯁ꯭",
      "ꯠ</w>"
    ],
    [
      "ꯌꯨ",
      "ꯔꯣ"
    ],
    [
      "ꯏꯁꯩ-",
      "ꯅꯣꯡ"
    ],
    [
      "ꯌꯨ",
      "ꯝ</w>"
    ],
    [
      "ꯄ",
      "ꯥꯛ</w>"
    ],
    [
      "ꯖ",
      "ꯕ</w>"
    ],
    [
      "1",
      "9"
    ],
    [
      "ꯈꯤꯕ",
      "ꯅꯤ</w>"
    ],
    [
      "ꯁꯤ",
      "ꯒꯤ</w>"
    ],
    [
      "ꯛ",
      "ꯅ</w>"
    ],
    [
      "ꯗꯤ",
      "ꯡ</w>"
    ],
    [
      "ে",
      "ল"
    ],
    [
      "ꯃꯁꯤ",
      "ꯕꯨ</w>"
    ],
    [
      "ꯍ",
      "ꯔ"
    ],
    [
      "অমসু",
      "ং</w>"
    ],
    [
      "ꯃ",
      "ꯃꯥ"
    ],
    [
      "ꯈꯔ",
      "ꯅ</w>"
    ],
    [
      "ꯕ꯭ꯔ",
      "ꯨ"
    ],
    [
      "ꯊꯧ",
      "ꯗꯥꯡ</w>"
    ],
    [
      "ꯁꯦꯝ",
      "ꯕ</w>"
    ],
    [
      "ꯃ",
      "ꯅꯤ"
    ],
    [
      "ꯃꯍ",
      "ꯩ"
    ],
    [
      "ꯀ꯭",
      "ꯂꯥ"
    ],
    [
      "ꯒꯦ",
      "ꯝ</w>"
    ],
    [
      "ꯑꯣ",
      "ꯂꯤ"
    ],
    [
      "ꯌ",
      "ꯝ</w>"
    ],
    [
      "ꯈꯨ",
      "ꯟ"
    ],
    [
      "ꯁꯤ",
      ".</w>"
    ],
    [
      "ꯆꯦ",
      "ꯝꯄꯤ"
    ],
    [
      "ꯂꯝ",
      "ꯖꯤ"
    ],
    [
      "ꯂꯥ",
      "ꯌꯦꯡ"
    ],
    [
      "ꯂꯩꯕꯥꯛ",
      "ꯀꯤ</w>"
    ],
    [
      "꯱",
      "꯵"
    ],
    [
      "ꯆ",
      "ꯥꯔ"
    ],
    [
      "ꯀ",
      "ꯔꯝ"
    ],
    [
      "ꯊꯨ",
      "ꯅ</w>"
    ],
    [
      "ꯀ",
      "ꯔ</w>"
    ],
    [
      "ꯀ",
      "ꯥꯟ"
    ],
    [
      "ꯊ",
      "ꯥꯡꯗ</w>"
    ],
    [
      "ꯆ",
      "ꯔ"
    ],
    [
      "ꯍꯤꯟ",
      "ꯗꯨ</w>"
    ],
    [
      "ꯑꯃ",
      "ꯍꯦ"
    ],
    [
      "ꯃ",
      "ꯦꯟ</w>"
    ],
    [
      "ꯄꯤ",
      "ꯈꯤ</w>"
    ],
    [
      "ꯅꯣꯡꯆꯨ",
      "ꯞ</w>"
    ],
    [
      "ꯃꯃꯤ-",
      "ꯀꯨꯝꯍꯩ</w>"
    ],
    [
      "ꯚ",
      "ꯣ"
    ],
    [
      "ꯊꯨ",
      "ꯡꯅ</w>"
    ],
    [
      "ꯁ꯭",
      "ꯇ"
    ],
    [
      ".ꯑꯦ",
      "."
    ],
    [
      "ꯃꯁꯥ",
      "ꯒꯤ</w>"
    ],
    [
      "ꯃ",
      "ꯩ"
    ],
    [
      "ꯄ꯭ꯔ",
      "ꯗꯦ"
    ],
    [
      "ꯃꯤ",
      "ꯁꯤꯡ</w>"
    ],
    [
      "ꯂꯣ",
      "ꯖꯤ"
    ],
    [
      "ꯃꯤ",
      "ꯡ"
    ],
    [
      "ꯁꯤꯡ",
      "ꯁꯨ</w>"
    ],
    [
      "꯱꯹",
      "꯴"
    ],
    [
      "ꯃꯤꯌꯥꯝ",
      "ꯒꯤ</w>"
    ],
    [
      "ꯂꯥꯏ",
      "ꯅꯤꯡ"
    ],
    [
      "ꯒ",
      "ꯔ</w>"
    ],
    [
      ",꯰꯰",
      "꯰</w>"
    ],
    [
      "ꯇꯤ",
      "ꯡ</w>"
    ],
    [
      "ꯁꯤ",
      "ꯁꯇꯦ"
    ],
    [
      "ꯂꯣ",
      "ꯟꯒꯤ</w>"
    ],
    [
      "ꯑꯣꯏ",
      "ꯔꯤ"
    ],
    [
      "ꯍꯤ",
      "ꯗ"
    ],
    [
      "ꯍ",
      "ꯥꯔ"
    ],
    [
      "ꯇꯤ",
      "ꯗ</w>"
    ],
    [
      "ꯁꯦꯡ",
      "ꯕ</w>"
    ],
    [
      "ল",
      "ৈ"
    ],
    [
      "ꯄꯤ",
      "."
    ],
    [
      "ꯑꯃ",
      "ꯗꯒꯤ</w>"
    ],
    [
      "ꯁ",
      "ꯧ"
    ],
    [
      "ꯉ",
      "ꯤ</w>"
    ],
    [
      "ꯃ",
      "ꯌꯥꯏ</w>"
    ],
    [
      "ꯄꯥꯡꯊꯣꯛ",
      "ꯄ</w>"
    ],
    [
      "ꯕꯤ",
      "."
    ],
    [
      "꯲꯰",
      "꯲"
    ],
    [
      "꯱",
      "꯶"
    ],
    [
      "ꯞ",
      "ꯇ</w>"
    ],
    [
      "ꯆ",
      "ꯌꯣ"
    ],
    [
      "ꯁ꯭",
      "ꯋꯤ"
    ],
    [
      "ꯂꯩ",
      "ꯉ"
    ],
    [
      "ꯃꯤꯑꯣꯏ",
      "ꯁꯤꯡꯅ</w>"
    ],
    [
      "꯭",
      "ꯌꯥ"
    ],
    [
      "ꯊꯧ",
      "ꯔꯥꯡ</w>"
    ],
    [
      "ꯛ",
      "ꯁ</w>"
    ],
    [
      "ꯕꯤ",
      "ꯟ"
    ],
    [
      "ꯈꯥꯏ",
      "ꯗꯣꯛ"
    ],
    [
      "ꯁꯤꯟ",
      "ꯅꯕ</w>"
    ],
    [
      "ꯁꯤ",
      "ꯇꯤ</w>"
    ],
    [
      "ꯅ",
      "ꯥꯔ"
    ],
    [
      "ꯔꯥꯖ꯭ꯌ",
      "ꯒꯤ</w>"
    ],
    [
      "ꯔꯤ",
      "ꯒꯤ</w>"
    ],
    [
      "ꯞ",
      "ꯄ"
    ],
    [
      "ꯈꯨꯠ",
      "ꯊꯥꯡꯗ</w>"
    ],
    [
      "ꯐꯪ",
      "ꯈꯤ</w>"
    ],
    [
      "ꯀ",
      "ꯥꯟ</w>"
    ],
    [
      "ꯂꯩ",
      "ꯔꯕ</w>"
    ],
    [
      "ꯖ",
      "ꯅꯨ"
    ],
    [
      "ꯑꯁꯤ",
      "ꯕꯨ</w>"
    ],
    [
      "ꯃꯇꯤ",
      "ꯛ</w>"
    ],
    [
      "ꯃ",
      "ꯥꯟ</w>"
    ],
    [
      "ꯀꯝꯄ",
      "ꯅꯤ</w>"
    ],
    [
      "ꯗꯨ",
      "ꯅ,</w>"
    ],
    [
      "ꯇ꯭ꯔ",
      "ꯤ</w>"
    ],
    [
      "ꯆꯦ",
      "ꯛ"
    ],
    [
      "ꯍꯧ",
      "ꯗꯣꯛ"
    ],
    [
      "ꯀ",
      "ꯪ"
    ],
    [
      "ꯑ",
      "ꯈꯟ"
    ],
    [
      "ꯑꯣꯏ",
      "ꯔꯕ"
    ],
    [
      "ꯚ",
      "ꯥꯏ"
    ],
    [
      "ꯗꯣ",
      "ꯂꯔ</w>"
    ],
    [
      "ꯏꯟ",
      "ꯗ"
    ],
    [
      "ꯏꯃꯨ",
      "ꯡ</w>"
    ],
    [
      "ꯐ",
      "ꯕ</w>"
    ],
    [
      "ꯉ",
      "ꯣꯟꯗ</w>"
    ],
    [
      "ꯚꯥꯔ",
      "ꯠ</w>"
    ],
    [
      "ꯒ",
      "ꯗꯕ</w>"
    ],
    [
      "ꯁꯤ",
      "ꯄꯥ"
    ],
    [
      "ꯃꯈꯣꯏ",
      "ꯕꯨ</w>"
    ],
    [
      "ꯊꯥ",
      "ꯒꯤ</w>"
    ],
    [
      "ꯠ",
      "ꯅꯕ</w>"
    ],
    [
      "꯳",
      "ꯒꯤ</w>"
    ],
    [
      "ꯅꯨ",
      "ꯡ</w>"
    ],
    [
      "ꯍꯧ",
      "ꯅ</w>"
    ],
    [
      "ꯁ꯭",
      "ꯀꯣ"
    ],
    [
      "ꯄ",
      "ꯥꯟ</w>"
    ],
    [
      "য়",
      "া"
    ],
    [
      "ꯗꯨ",
      "ꯒꯤ</w>"
    ],
    [
      "ꯗ꯭ꯔ",
      "ꯦ"
    ],
    [
      "ꯑꯀ",
      "ꯣꯏ"
    ],
    [
      "ꯇ",
      "ꯔꯦ"
    ],
    [
      "ꯑꯃꯁꯨ",
      "</w>"
    ],
    [
      "ꯇꯤ",
      "ꯟ"
    ],
    [
      "ꯑꯐ",
      "ꯕ</w>"
    ],
    [
      "ꯗꯤ",
      "."
    ],
    [
      "ে",
      "ন"
    ],
    [
      "ꯆꯤꯟ",
      "ꯖ"
    ],
    [
      "ꯅ",
      "ꯈꯤ꯫</w>"
    ],
    [
      "ꯈꯔ",
      "ꯒꯤ</w>"
    ],
    [
      "ꯠ",
      ",</w>"
    ],
    [
      "ꯔ",
      "ꯥꯡ"
    ],
    [
      "ꯁ",
      "ꯁꯤꯡ</w>"
    ],
    [
      "ꯃꯤꯍꯨ",
      "ꯠ</w>"
    ],
    [
      "ꯖ",
      "ꯔ</w>"
    ],
    [
      "ꯍ",
      "ꯨꯝ"
    ],
    [
      "ꯀ",
      "ꯜ</w>"
    ],
    [
      "ꯏ",
      "ꯊ"
    ],
    [
      "ꯈꯛꯇ",
      "ꯃꯛ</w>"
    ],
    [
      "ꯇꯧ",
      "ꯅꯕ</w>"
    ],
    [
      "ꯄꯥꯎ",
      "</w>"
    ],
    [
      "ꯕ",
      "ꯥꯔ"
    ],
    [
      "ꯐꯨ",
      "ꯠ"
    ],
    [
      "ꯑꯋꯥ",
      "ꯕ</w>"
    ],
    [
      "ꯑꯣ",
      "</w>"
    ],
    [
      "ꯃꯉ",
      "ꯥ"
    ],
    [
      "ꯄꯥꯝ",
      "ꯅꯕ</w>"
    ],
    [
      "ꯅ",
      "꯭ꯌꯨ"
    ],
    [
      "ꯂꯩ",
      ",</w>"
    ],
    [
      "ꯁ",
      "ꯂꯤ"
    ],
    [
      "ꯂꯥꯛ",
      "ꯄ</w>"
    ],
    [
      "ꯅꯣ",
      "</w>"
    ],
    [
      "ꯂꯥꯏ",
      "ꯅꯥ</w>"
    ],
    [
      "꯱",
      "꯰"
    ],
    [
      "ꯙ",
      "ꯔ"
    ],
    [
      "ꯍ",
      "</w>"
    ],
    [
      "ꯈ꯭ꯔ",
      "ꯕ</w>"
    ],
    [
      "ꯐꯤꯕ",
      "ꯝ</w>"
    ],
    [
      "ꯁ",
      "ꯇꯔ"
    ],
    [
      "ꯑꯣꯏꯔꯝ",
      "ꯃꯤ꯫</w>"
    ],
    [
      "ꯅ",
      "ꯧ"
    ],
    [
      "ꯀꯣ",
      "ꯂꯦ"
    ],
    [
      "ꯇꯨ",
      "ꯡ"
    ],
    [
      "ꯖꯦ",
      "ꯜ</w>"
    ],
    [
      "ꯍ",
      "ꯪ"
    ],
    [
      "ꯂꯩꯈꯤ",
      "ꯗꯦ</w>"
    ],
    [
      "ꯄ",
      "ꯔꯦ"
    ],
    [
      "ꯔꯤ",
      "ꯕ"
    ],
    [
      "ꯋꯥꯔꯦ",
      "ꯞ</w>"
    ],
    [
      "ꯅ",
      "ꯔꯤꯕ</w>"
    ],
    [
      "ꯛ",
      "-"
    ],
    [
      "ꯑꯣꯏꯔꯝ",
      "ꯃꯤ</w>"
    ],
    [
      "ꯍ",
      "ꯥꯡ"
    ],
    [
      "ꯁꯤ",
      "ꯗꯦꯟ"
    ],
    [
      "ꯀꯌꯥ",
      "ꯗ</w>"
    ],
    [
      "ꯗ꯭ꯔꯤ",
      "ꯉꯩ</w>"
    ],
    [
      "ꯃ",
      "ꯌꯦꯛ</w>"
    ],
    [
      "ꯂꯣ",
      "</w>"
    ],
    [
      "ꯑꯩ",
      "ꯆ"
    ],
    [
      "ꯀꯌꯥ",
      "ꯅ</w>"
    ],
    [
      "ꯂꯂꯣꯟ",
      "-ꯏ"
    ],
    [
      "꯭",
      "ꯗ</w>"
    ],
    [
      "ꯕ꯭ꯔꯤꯇꯤ",
      "ꯁ</w>"
    ],
    [
      "ꯊꯣꯛ",
      "ꯂꯛ"
    ],
    [
      "ꯒ",
      "ꯥꯏ"
    ],
    [
      "ꯕ",
      "ꯣꯛ"
    ],
    [
      "ꯆꯍꯤꯆꯥ",
      "ꯒꯤ</w>"
    ],
    [
      "ꯁ",
      "ꯛ</w>"
    ],
    [
      "ন",
      "ি।</w>"
    ],
    [
      "ꯊꯤ",
      "ꯅ</w>"
    ],
    [
      "ꯑꯣꯂꯤ",
      "ꯝꯄꯤ"
    ],
    [
      "ꯑꯦ",
      "ꯐ"
    ],
    [
      "ꯇ",
      "ꯟ</w>"
    ],
    [
      "ꯑ",
      "ꯁꯨ"
    ],
    [
      "ꯂꯩ",
      "ꯈꯤ</w>"
    ],
    [
      "ꯃꯤ",
      ",</w>"
    ],
    [
      "ꯃ꯭ꯌꯨꯅꯤ",
      "ꯁꯤꯄꯥ"
    ],
    [
      "ꯅꯨꯃꯤ",
      "ꯠꯇ</w>"
    ],
    [
      "ꯇ",
      "ꯔꯨ"
    ],
    [
      "ꯄꯨ",
      "ꯔꯛ"
    ],
    [
      "-",
      "ꯊꯨꯝ"
    ],
    [
      "ꯑꯁꯤ",
      "ꯒꯨꯝꯕ</w>"
    ],
    [
      "ꯋꯥꯍ",
      "ꯩ</w>"
    ],
    [
      "ꯀ",
      "ꯅꯤ</w>"
    ],
    [
      "ꯇꯧ",
      "ꯕꯒꯤ</w>"
    ],
    [
      "ꯂꯥ",
      "ꯞꯅ</w>"
    ],
    [
      "ꯒꯣ",
      "ꯜ"
    ],
    [
      "ꯃꯤ",
      "ꯂꯤꯌꯟ</w>"
    ],
    [
      "!",
      "</w>"
    ],
    [
      "ꯇꯝ",
      "ꯕ</w>"
    ],
    [
      "ꯃꯇꯧ",
      "</w>"
    ],
    [
      "ꯐ꯭ꯔ",
      "ꯥꯟ"
    ],
    [
      "ꯇꯣ",
      "ꯔ"
    ],
    [
      "ꯒꯦ",
      "ꯝ"
    ],
    [
      "ꯃꯀ",
      "ꯣꯛ</w>"
    ],
    [
      "ꯁꯦꯞ",
      "ꯇꯦ"
    ],
    [
      "ꯁꯔ",
      "ꯕꯤ"
    ],
    [
      "ꯈꯔ",
      "ꯗꯤ</w>"
    ],
    [
      "ꯑ",
      "ꯟ"
    ],
    [
      "ো",
      "ক"
    ],
    [
      "ু",
      "</w>"
    ],
    [
      "꯶",
      "ꯀꯤ</w>"
    ],
    [
      "ꯃ",
      "ꯪ"
    ],
    [
      "-",
      "ꯁꯤꯡ"
    ],
    [
      "?",
      "</w>"
    ],
    [
      "শি",
      "ং"
    ],
    [
      "ꯂꯥ",
      "ꯗ</w>"
    ],
    [
      "ꯁꯤ",
      "ꯁ</w>"
    ],
    [
      "ꯗ",
      "ꯇ</w>"
    ],
    [
      "ꯌꯦ",
      "ꯜ"
    ],
    [
      "ꯆꯦꯝꯄꯤ",
      "ꯌꯟ"
    ],
    [
      "ꯂꯧ",
      "ꯈꯤ꯫</w>"
    ],
    [
      "ꯂꯩ",
      "ꯈꯤ꯫</w>"
    ],
    [
      "ꯂꯥꯏ",
      "ꯁꯪ"
    ],
    [
      "ꯂꯥꯟ",
      "ꯕ"
    ],
    [
      "ꯛꯇ",
      "ꯔ</w>"
    ],
    [
      "ꯦꯟ",
      "ꯕ</w>"
    ],
    [
      "ꯁꯤꯡ",
      "ꯒꯤꯗꯃꯛ</w>"
    ],
    [
      "ꯂꯝ",
      "ꯗꯝ</w>"
    ],
    [
      "ক",
      "ী</w>"
    ],
    [
      "ꯅꯥꯏ",
      "ꯒꯤ</w>"
    ],
    [
      "ꯑꯣꯛ",
      "ꯇꯣ"
    ],
    [
      "ꯥꯟ",
      "ꯗ</w>"
    ],
    [
      "ꯕ",
      "ꯒ</w>"
    ],
    [
      "ꯑꯗꯨ",
      "ꯗꯤ</w>"
    ],
    [
      "ꯁ",
      "ꯇꯔ</w>"
    ],
    [
      "ꯖ",
      "ꯦꯟ</w>"
    ],
    [
      "ꯔꯝ",
      "ꯃꯤ</w>"
    ],
    [
      "ꯃ",
      "</w>"
    ],
    [
      "ꯜꯂꯤ",
      ",</w>"
    ],
    [
      "ꯁꯤꯡ",
      "ꯒꯤꯗꯃꯛꯇ</w>"
    ],
    [
      "ꯂꯧ",
      "ꯁꯤꯟ"
    ],
    [
      "ꯁ",
      "ꯇ꯭ꯔꯤ"
    ],
    [
      "ꯅ",
      "ꯦꯟ"
    ],
    [
      "ꯑ",
      "ꯌꯥꯕ</w>"
    ],
    [
      "ꯀꯨ",
      "ꯏ"
    ],
    [
      "ꯕ",
      "ꯅꯤ꯫</w>"
    ],
    [
      "ꯂꯧ",
      "ꯕ</w>"
    ],
    [
      "ꯑꯦ",
      "ꯄ꯭ꯔꯤ"
    ],
    [
      "ꯊꯧꯗꯣꯛ",
      "</w>"
    ],
    [
      "ꯣ",
      "ꯡ</w>"
    ],
    [
      "ꯃꯤ",
      "ꯈ"
    ],
    [
      "ꯔꯤ",
      ",</w>"
    ],
    [
      "ꯃꯐꯝ",
      "ꯁꯤꯡꯗ</w>"
    ],
    [
      "ꯏ",
      "ꯊꯤ"
    ],
    [
      "ꯁꯤ",
      "ꯗ</w>"
    ],
    [
      "ꯕ",
      "ꯅꯤ</w>"
    ],
    [
      "ꯔ",
      "ꯛ</w>"
    ],
    [
      "ꯂ",
      "ꯒ</w>"
    ],
    [
      "ꯗꯤ",
      "ꯁꯦꯝ"
    ],
    [
      "ꯣ",
      "ꯜ</w>"
    ],
    [
      "ꯌꯥꯏ",
      ",</w>"
    ],
    [
      "ꯊꯥ",
      "ꯒꯠ"
    ],
    [
      "ꯐꯥ",
      "ꯅ</w>"
    ],
    [
      "ꯄꯥꯝ",
      "ꯕ"
    ],
    [
      "ꯅ",
      "ꯕꯦ"
    ],
    [
      "ꯕ",
      "꯭ꯔꯦ"
    ],
    [
      "ꯂꯥꯏꯔꯤ",
      "ꯛ</w>"
    ],
    [
      "ꯈꯪ",
      "ꯅꯕ</w>"
    ],
    [
      "ꯁ",
      "ꯥꯔ"
    ],
    [
      "ꯋꯥꯈ",
      "ꯜ</w>"
    ],
    [
      "ꯠ",
      "-"
    ],
    [
      "ꯃ",
      "ꯆꯨ"
    ],
    [
      "ꯆ",
      "ꯩ"
    ],
    [
      "ꯑꯦꯟ",
      "."
    ],
    [
      "ꯍꯧ",
      "ꯈꯤ꯫</w>"
    ],
    [
      "ꯐꯝ",
      "ꯁꯤꯡ</w>"
    ],
    [
      "ꯂꯝ",
      "ꯕꯤ</w>"
    ],
    [
      "꯲꯰",
      "꯲꯰"
    ],
    [
      "ন",
      "বা</w>"
    ],
    [
      "ꯀ꯭",
      "ꯂꯤ"
    ],
    [
      "ꯌꯥꯎ",
      "ꯔꯤ꯫</w>"
    ],
    [
      "ꯑ",
      "ꯇ"
    ],
    [
      "ꯊꯤ",
      "ꯖꯤꯟ"
    ],
    [
      "ꯅꯤꯡꯊꯧ",
      "ꯔꯦꯜ</w>"
    ],
    [
      "ꯑꯍ",
      "ꯦꯟꯕ</w>"
    ],
    [
      "ꯍꯧ",
      "ꯈꯤ</w>"
    ],
    [
      "ꯃꯈꯣꯏ",
      "ꯁꯤꯡ</w>"
    ],
    [
      "ꯕꯦ",
      "ꯛ"
    ],
    [
      "ꯄꯨ",
      "ꯡ</w>"
    ],
    [
      "ꯁ꯭",
      "ꯄꯦ"
    ],
    [
      "ꯑꯦ",
      "ꯗ"
    ],
    [
      "ꯌꯨ",
      "."
    ],
    [
      "ꯇꯦ",
      "ꯜ</w>"
    ],
    [
      "ꯔꯤ",
      "ꯕꯁꯤꯡ</w>"
    ],
    [
      "ꯃꯁ",
      "ꯥ</w>"
    ],
    [
      "ꯍꯜꯂ",
      "ꯛ"
    ],
    [
      "ꯇꯨ",
      "ꯔ"
    ],
    [
      "ꯔꯤ",
      "ꯌꯥ"
    ],
    [
      "꯷",
      "ꯀꯤ</w>"
    ],
    [
      "ꯂꯤ",
      ",</w>"
    ],
    [
      "ꯀ",
      "ꯜ"
    ],
    [
      "ꯌꯥꯎ",
      "ꯏ꯫</w>"
    ],
    [
      "ꯃ",
      "ꯔ</w>"
    ],
    [
      "ꯊꯣꯛ",
      "ꯍꯟꯕ</w>"
    ],
    [
      "ꯋꯦ",
      "</w>"
    ],
    [
      "ꯑꯦꯁ",
      ".</w>"
    ],
    [
      "দ",
      "</w>"
    ],
    [
      "ꯂꯩꯉ",
      "ꯥꯛ</w>"
    ],
    [
      "ꯅ",
      "ꯅꯕ</w>"
    ],
    [
      "ꯗ꯭ꯔ",
      "ꯕ</w>"
    ],
    [
      "ꯕ꯭ꯔ",
      "ꯥ"
    ],
    [
      "ꯁꯤ",
      "ꯑꯦ"
    ],
    [
      "ꯑ",
      "ꯋꯥꯡꯕ</w>"
    ],
    [
      "ꯟ",
      "ꯁꯤꯡ</w>"
    ],
    [
      "ꯁꯤꯖꯤꯟꯅ",
      "ꯩ꯫</w>"
    ],
    [
      "ꯈꯪ",
      "ꯗꯣꯛ"
    ],
    [
      "ꯊ",
      "ꯥꯛ"
    ],
    [
      "ꯐꯤ",
      "ꯚ"
    ],
    [
      "ꯇꯧ",
      "ꯔꯕ</w>"
    ],
    [
      "ꯃꯤꯑꯣꯏ",
      "ꯁꯤꯡ</w>"
    ],
    [
      "ꯁꯥꯟꯅ",
      "ꯔꯣꯏ"
    ],
    [
      "ꯗ꯭ꯔ",
      "ꯣ"
    ],
    [
      "ꯂꯩꯉꯥꯛ",
      "ꯀꯤ</w>"
    ],
    [
      "ꯃꯥꯏ",
      "ꯀꯩ"
    ],
    [
      "ꯁꯤ",
      "ꯜ"
    ],
    [
      "ꯄꯥꯡꯊꯣꯛ",
      "ꯏ</w>"
    ],
    [
      "ꯁꯧ",
      "ꯒꯠ"
    ],
    [
      "ꯑꯈꯟ",
      "ꯅꯕ</w>"
    ],
    [
      "ꯇꯥꯛ",
      "ꯄ</w>"
    ],
    [
      "ꯑ",
      "ꯁꯦꯡꯕ</w>"
    ],
    [
      "꯲꯰",
      "꯱꯹"
    ],
    [
      "ꯗꯤ",
      ".</w>"
    ],
    [
      "ꯀꯦ",
      "ꯔ"
    ],
    [
      ".ꯑꯦ",
      "ꯐ"
    ],
    [
      "ꯑꯃ",
      "ꯃ"
    ],
    [
      "ꯆꯠ",
      "ꯅꯕꯤ</w>"
    ],
    [
      "ꯍꯦꯟꯒꯠ",
      "ꯂꯛ"
    ],
    [
      "ꯀ꯭",
      "ꯋꯥ"
    ],
    [
      "ꯐꯦ",
      "ꯕ꯭ꯔꯨ"
    ],
    [
      "ꯁꯤꯡ",
      "ꯅꯤ꯫</w>"
    ],
    [
      "ꯕ",
      "ꯗ,</w>"
    ],
    [
      "ꯆꯦꯝꯄꯤꯌꯟ",
      "ꯁꯤ"
    ],
    [
      "ꯔꯛ",
      "ꯄ"
    ],
    [
      "ꯃꯍ",
      "ꯩ-"
    ],
    [
      "ꯌꯣ",
      "ꯟ"
    ],
    [
      "ꯁꯥ",
      "-"
    ],
    [
      "ꯍꯥꯏ",
      "ꯈꯤ꯫</w>"
    ],
    [
      "ꯑꯃꯍꯦ",
      "ꯛꯇ"
    ],
    [
      "ꯗꯦ",
      ",</w>"
    ],
    [
      "ꯂꯥꯟ",
      "ꯃꯤ</w>"
    ],
    [
      "ꯊ",
      "ꯥꯛ</w>"
    ],
    [
      "ꯁ",
      "ꯥꯟꯅꯕ</w>"
    ],
    [
      "ꯑꯩꯍꯥꯛ",
      "</w>"
    ],
    [
      "ꯇ",
      "ꯔꯤ</w>"
    ],
    [
      "ꯉꯥꯛ",
      "ꯊꯣꯛ"
    ],
    [
      "ꯂꯥꯟ",
      "ꯗꯥ"
    ],
    [
      "ꯍꯥꯏ",
      "ꯅꯁꯨ</w>"
    ],
    [
      "ꯖꯤ",
      "ꯂꯥꯒꯤ</w>"
    ],
    [
      "ꯑꯣ",
      "ꯒ"
    ],
    [
      "꯭",
      "ꯁ</w>"
    ],
    [
      "ꯄꯨ",
      "ꯔ"
    ],
    [
      "ꯄꯟ",
      "ꯖꯥ"
    ],
    [
      "ꯞ",
      "ꯁꯤꯡ</w>"
    ],
    [
      "ꯀꯦ",
      "ꯁ</w>"
    ],
    [
      "ꯃ꯭ꯌꯨꯅꯤꯁꯤꯄꯥ",
      "ꯂꯤ"
    ],
    [
      "ꯍꯥꯏ",
      "ꯈꯤ</w>"
    ],
    [
      "ꯑ",
      "ꯋꯥꯡ"
    ],
    [
      "ꯄꯨꯝꯅ",
      "ꯃꯛꯇ</w>"
    ],
    [
      "ꯁ꯭",
      "ꯇꯤ"
    ],
    [
      "ꯁꯇ꯭ꯔꯦ",
      "ꯂꯤ"
    ],
    [
      "ꯃ꯭ꯌꯨ",
      "ꯖꯤ"
    ],
    [
      "ꯁꯤꯖꯤꯟꯅ",
      "ꯩ</w>"
    ],
    [
      "ꯀ",
      "ꯥꯏ</w>"
    ],
    [
      "ꯃ",
      "ꯍꯥ"
    ],
    [
      "ꯈꯨꯡꯒ",
      "ꯪ"
    ],
    [
      "ꯌꯥ",
      "ꯝ</w>"
    ],
    [
      "ꯄ",
      "ꯕ꯭ꯂꯤ"
    ],
    [
      "ꯉꯩ",
      "ꯗ</w>"
    ],
    [
      "ꯂꯧ",
      "ꯈꯤ</w>"
    ],
    [
      "ꯂꯦꯟ",
      "ꯗ</w>"
    ],
    [
      "ꯆ",
      "ꯥꯛ"
    ],
    [
      "ꯑꯅꯥ",
      "ꯕ</w>"
    ],
    [
      "ꯐ",
      "ꯒꯠ"
    ],
    [
      "ꯅꯤ",
      "ꯅ</w>"
    ],
    [
      "ꯔꯤ",
      "ꯖ"
    ],
    [
      "ꯋꯥꯈꯜ",
      "ꯂꯣꯟ</w>"
    ],
    [
      "ꯃꯤ",
      "ꯡ</w>"
    ],
    [
      "ꯌ",
      "ꯦꯟ"
    ],
    [
      "ꯊ",
      "ꯤ</w>"
    ],
    [
      "ꯁ",
      "꯭ꯔ"
    ],
    [
      "ꯂꯥꯏ",
      "ꯟ</w>"
    ],
    [
      "ꯁ",
      "꯭ꯔꯤ"
    ],
    [
      "ꯁꯥ",
      "ꯒ"
    ],
    [
      "ꯀ",
      "ꯟ</w>"
    ],
    [
      "ꯅ",
      "ꯈꯤ</w>"
    ],
    [
      "ꯃꯍ",
      "ꯩ</w>"
    ],
    [
      "ꯇꯦ",
      "ꯂꯤ"
    ],
    [
      "ꯒ",
      "ꯕꯔ"
    ],
    [
      "ꯁ",
      "ꯝꯅ"
    ],
    [
      "ꯥꯎ",
      "ꯟ</w>"
    ],
    [
      "ꯄꯣꯠ",
      "ꯂꯝ"
    ],
    [
      "ꯠ",
      "ꯁꯤꯡꯒꯤ</w>"
    ],
    [
      "ꯑꯣꯏꯔꯝ",
      "ꯕ</w>"
    ],
    [
      "স",
      "</w>"
    ],
    [
      "ꯃꯊꯪ",
      "ꯒꯤ</w>"
    ],
    [
      "ꯄꯥꯎ",
      "ꯗꯝ"
    ],
    [
      "ꯍꯥꯏ",
      "ꯕꯒꯤ</w>"
    ],
    [
      "ꯆ",
      "ꯔ</w>"
    ],
    [
      "ꯛꯇ",
      ",</w>"
    ],
    [
      "ꯂꯦ",
      "ꯡ"
    ],
    [
      "ꯌꯨꯝ",
      "ꯗ</w>"
    ],
    [
      "ꯄꯨ",
      "ꯂꯤ"
    ],
    [
      "ꯌꯥ",
      "ꯟ"
    ],
    [
      "ꯍ",
      "ꯥꯎ"
    ],
    [
      "ꯄꯥꯡ",
      "ꯒꯜ</w>"
    ],
    [
      "ল",
      "ি"
    ],
    [
      "ꯂꯤ",
      "ꯒꯤ</w>"
    ],
    [
      "ꯊꯥꯖ",
      "ꯕ</w>"
    ],
    [
      ".ꯑꯦ",
      "ꯜ"
    ],
    [
      "ꯃꯈꯣꯏ",
      "ꯗ</w>"
    ],
    [
      "ꯊ",
      "ꯥꯏ"
    ],
    [
      "ꯐ",
      "ꯤ</w>"
    ],
    [
      "ꯃꯥꯂꯦ",
      "ꯝ</w>"
    ],
    [
      "ꯏꯊꯤ",
      "ꯜ</w>"
    ],
    [
      "ꯅ",
      "ꯥꯟ"
    ],
    [
      "ꯍꯥꯏ",
      "</w>"
    ],
    [
      "ꯃ",
      "ꯋ"
    ],
    [
      "ক",
      "্ত"
    ],
    [
      "ꯊꯝ",
      "ꯕ</w>"
    ],
    [
      "ꯍꯣꯡ",
      "ꯗꯣꯛ"
    ],
    [
      "ꯕꯤ",
      "ꯖ"
    ],
    [
      "ꯃꯥꯏ",
      "ꯒꯤ</w>"
    ],
    [
      "ꯋ",
      "ꯨ"
    ],
    [
      "ꯇꯦ",
      "</w>"
    ],
    [
      "মহা",
      "ক্"
    ],
    [
      "ꯁ꯭",
      "ꯇꯣ"
    ],
    [
      "ꯇ꯭ꯔ",
      "ꯥ"
    ],
    [
      "ꯀꯨ",
      "ꯃꯥꯔ"
    ],
    [
      "ꯔ",
      "ꯁ</w>"
    ],
    [
      "ꯃꯄꯥꯟ",
      "ꯗ</w>"
    ],
    [
      "ꯏꯟꯗꯤ",
      "ꯌꯟ</w>"
    ],
    [
      "ꯄꯨ",
      "ꯔ</w>"
    ],
    [
      "ꯅꯨꯡꯉꯥꯏ",
      "ꯕ</w>"
    ],
    [
      "ꯆ",
      "ꯥ</w>"
    ],
    [
      "ꯃꯤꯅꯤ",
      "ꯠ</w>"
    ],
    [
      "ꯐ",
      "ꯦꯟ"
    ],
    [
      "ꯁꯤꯡ",
      "ꯅꯤ</w>"
    ],
    [
      "ꯟ",
      ",</w>"
    ],
    [
      "ꯄꯣꯔ",
      "ꯠ</w>"
    ],
    [
      "ꯁꯟ",
      "ꯁꯤꯡ</w>"
    ],
    [
      "ꯕꯔ",
      "ꯒꯤ</w>"
    ],
    [
      "ꯃꯗꯨ",
      "ꯗ</w>"
    ],
    [
      "ꯇꯧ",
      "ꯔꯤꯕ</w>"
    ],
    [
      "ꯛ",
      "ꯁꯟ</w>"
    ],
    [
      "ꯈꯣ",
      "ꯝ"
    ],
    [
      "ꯃꯍ",
      "ꯥꯔꯥ"
    ],
    [
      "ꯇꯥꯃꯤ",
      "ꯜ</w>"
    ],
    [
      "ꯁꯤꯖꯤꯟꯅ",
      "ꯗꯨꯅ</w>"
    ],
    [
      "ꯃ",
      "ꯅꯥ</w>"
    ],
    [
      "ꯍꯧ",
      "ꯈꯤꯕ</w>"
    ],
    [
      "ꯁ",
      "ꯃꯤ"
    ],
    [
      "ꯄ꯭ꯔ",
      "ꯥꯏ"
    ],
    [
      "ꯂꯩ",
      "ꯔꯤ꯫</w>"
    ],
    [
      "ꯁꯤꯡ",
      "ꯗꯤ</w>"
    ],
    [
      "ꯑ",
      "ꯔꯨ"
    ],
    [
      "ꯋ",
      "ꯔ</w>"
    ],
    [
      "ꯖꯒ",
      "ꯣꯏ</w>"
    ],
    [
      "ꯗ",
      "ꯥꯔ"
    ],
    [
      "ꯠ",
      "ꯁ</w>"
    ],
    [
      "ꯕꯣ",
      "ꯔ"
    ],
    [
      "ꯑꯍꯥꯟ",
      "ꯕꯗ</w>"
    ],
    [
      "ꯂꯩ",
      "ꯔꯕ"
    ],
    [
      "ꯁꯍ",
      "ꯔ"
    ],
    [
      "ꯈ",
      "</w>"
    ],
    [
      "ꯒꯗꯕ",
      "ꯅꯤ</w>"
    ],
    [
      "ꯂꯦꯟ",
      "ꯒꯤ</w>"
    ],
    [
      "ꯊꯣꯛ",
      "-"
    ],
    [
      "ꯁ꯭ꯇꯦꯠ",
      "ꯁꯀꯤ</w>"
    ],
    [
      "ꯍꯧ",
      "ꯕ</w>"
    ],
    [
      "ꯑꯉ",
      "ꯟꯕ</w>"
    ],
    [
      "ꯃꯆꯥ",
      "ꯅꯨꯄꯥ</w>"
    ],
    [
      "ꯊꯧ",
      "ꯑꯣꯡ</w>"
    ],
    [
      "ꯂꯦ",
      "꯫</w>"
    ],
    [
      "দ",
      "ি"
    ],
    [
      "ꯀꯥ",
      "ꯗ</w>"
    ],
    [
      "ꯋꯥꯔꯤ",
      "ꯗ</w>"
    ],
    [
      "ꯁꯥꯟꯅ",
      "ꯈꯤ</w>"
    ],
    [
      "ꯊꯣ",
      "ꯟ"
    ],
    [
      "ꯏꯟꯇꯔ",
      "ꯅꯦꯁꯅꯦꯜ</w>"
    ],
    [
      "ꯃꯔꯥ",
      "ꯜ</w>"
    ],
    [
      "ꯜ",
      "ꯁꯤꯡꯒꯤ</w>"
    ],
    [
      "ꯇꯣ",
      "</w>"
    ],
    [
      "ꯈꯪ",
      "ꯅ"
    ],
    [
      "ꯃꯦ",
      "ꯛ"
    ],
    [
      "ꯑꯔꯣꯏ",
      "ꯕꯗ</w>"
    ],
    [
      "ꯗꯤ",
      "ꯜꯂꯤ"
    ],
    [
      "ꯕ",
      "ꯜ</w>"
    ],
    [
      "ꯔꯤ",
      "ꯌꯥ</w>"
    ],
    [
      "ꯍꯦꯟ",
      "ꯗ"
    ],
    [
      "ꯉꯝ",
      "ꯈ"
    ],
    [
      "ꯃꯦ",
      "</w>"
    ],
    [
      "ꯀꯣ",
      "ꯅꯨꯡ</w>"
    ],
    [
      "ꯄꯨ",
      "ꯊꯣꯛꯄ</w>"
    ],
    [
      "ꯛꯇ",
      "ꯒꯤ</w>"
    ],
    [
      "ꯀ",
      "ꯣꯛ"
    ],
    [
      "জ",
      "ি"
    ],
    [
      "ꯄꯥꯡꯊꯣꯛ",
      "ꯈꯤꯕ</w>"
    ],
    [
      "ꯌꯨꯅꯤ",
      "ꯚꯔ"
    ],
    [
      "ꯌ",
      "</w>"
    ],
    [
      "ꯂ",
      "ꯟ"
    ],
    [
      "ꯂꯩꯈꯤ",
      "ꯗꯦ꯫</w>"
    ],
    [
      "ꯆꯌꯣ",
      "ꯜ</w>"
    ],
    [
      "ꯅꯤꯡ",
      "ꯕ</w>"
    ],
    [
      "ꯃꯗꯨ",
      "ꯗꯤ</w>"
    ],
    [
      "ꯗ",
      "꯭"
    ],
    [
      "꯱꯹",
      "꯳"
    ],
    [
      "ꯍꯛ",
      "ꯆꯥꯡ</w>"
    ],
    [
      "ꯐ",
      "ꯝꯒꯤ</w>"
    ],
    [
      "ꯐꯣꯡ",
      "ꯈꯤ꯫</w>"
    ],
    [
      "ꯕ",
      "ꯗꯤ,</w>"
    ],
    [
      "ꯑꯍꯨꯝ",
      "ꯁꯨꯕ</w>"
    ],
    [
      "ꯍꯥꯟꯅ",
      "ꯒꯤ</w>"
    ],
    [
      "ꯄꯨꯟ",
      "ꯁꯤ</w>"
    ],
    [
      "ꯄꯥꯡꯊꯣꯛ",
      "ꯏ꯫</w>"
    ],
    [
      "ꯅꯤ",
      "ꯛ</w>"
    ],
    [
      "ল",
      "্"
    ],
    [
      "ꯖ",
      "ꯥꯏ"
    ],
    [
      "-ꯊꯨꯝ",
      "ꯒꯤ</w>"
    ],
    [
      "ꯇ",
      "ꯁꯦꯡꯅ</w>"
    ],
    [
      "ꯃꯨ",
      "ꯁꯂꯤ"
    ],
    [
      "ꯒꯥꯔ",
      "ꯤ</w>"
    ],
    [
      "ꯐꯨꯠ",
      "ꯕꯣꯜ</w>"
    ],
    [
      "ꯁꯤꯜꯂ",
      "ꯤ꯫</w>"
    ],
    [
      "ꯕ",
      "ꯁꯨ</w>"
    ],
    [
      "ꯗ",
      "ꯁꯤꯡ</w>"
    ],
    [
      "ꯌ",
      "ꯤ"
    ],
    [
      "ꯀ",
      "ꯅꯥ"
    ],
    [
      "ꯁ꯭",
      "ꯀ꯭ꯔꯤ"
    ],
    [
      "ꯑꯦ",
      ".</w>"
    ],
    [
      "ে",
      "ন্"
    ],
    [
      "ꯃꯍꯧꯁꯥ",
      "ꯒꯤ</w>"
    ],
    [
      "ꯑꯀꯣꯏ",
      "ꯕꯗ</w>"
    ],
    [
      "ꯍꯛ",
      "ꯆꯥꯡ"
    ],
    [
      "ꯆꯠꯅꯕꯤ",
      "ꯒꯤ</w>"
    ],
    [
      "ꯐ",
      "ꯥꯔ"
    ],
    [
      "ꯃ",
      "ꯥꯟ"
    ],
    [
      ".ꯑꯦꯁ",
      ".</w>"
    ],
    [
      "ꯌꯦꯡ",
      "ꯁꯤꯟ"
    ],
    [
      "ꯁꯥꯏ",
      "ꯟ"
    ],
    [
      "ꯃꯆ",
      "ꯨ</w>"
    ],
    [
      "ꯌꯥ",
      "ꯟ</w>"
    ],
    [
      "ꯈꯛꯇ",
      "ꯗ</w>"
    ],
    [
      "ꯅꯥ",
      "ꯗ</w>"
    ],
    [
      "ꯄꯣ",
      "ꯂꯤ"
    ],
    [
      "ꯄ",
      "ꯤ꯫</w>"
    ],
    [
      "ꯅꯦ",
      "ꯠ"
    ],
    [
      "ꯌꯨ",
      ".</w>"
    ],
    [
      "ꯂꯣꯏ",
      "</w>"
    ],
    [
      "꯱",
      "꯲"
    ],
    [
      "ꯑꯅꯤ",
      "ꯒꯤ</w>"
    ],
    [
      "ꯇ",
      "ꯥꯏ</w>"
    ],
    [
      "ꯄꯤ",
      "ꯔꯤꯕ</w>"
    ],
    [
      "ꯃꯍꯨ",
      "ꯠꯇ</w>"
    ],
    [
      "ꯀꯥꯔ",
      "</w>"
    ],
    [
      "ꯒꯨꯝ",
      "ꯅ</w>"
    ],
    [
      "ꯐ",
      "ꯠꯇ"
    ],
    [
      "ꯃ",
      "ꯅꯥ"
    ],
    [
      "ꯄ",
      "ꯣꯏ"
    ],
    [
      "ম",
      "সি</w>"
    ],
    [
      "ꯀꯔꯝ",
      "ꯅ</w>"
    ],
    [
      "ꯑꯃ",
      "ꯅꯤ,</w>"
    ],
    [
      "ꯔꯣ",
      "ꯜ</w>"
    ],
    [
      "ꯜ",
      "ꯁ</w>"
    ],
    [
      "ꯊꯣꯛ",
      "ꯍꯟ"
    ],
    [
      "ꯇꯧ",
      "ꯏ꯫</w>"
    ],
    [
      "ꯉꯝ",
      "ꯕ</w>"
    ],
    [
      "꯱",
      "꯳"
    ],
    [
      "ꯃ",
      "ꯗꯨꯅ</w>"
    ],
    [
      "ꯋ",
      "ꯥꯏ</w>"
    ],
    [
      "ꯐ",
      "ꯔ"
    ],
    [
      "ꯑꯦ",
      "ꯔ"
    ],
    [
      "ꯀ",
      "ꯟꯅ</w>"
    ],
    [
      "ꯄꯤ",
      "ꯅꯕ</w>"
    ],
    [
      "ꯑ",
      "ꯝ"
    ],
    [
      "ꯁꯃꯨꯗ꯭ꯔ",
      "</w>"
    ],
    [
      "ꯄ꯭ꯔꯣ",
      "ꯒ꯭ꯔꯥ"
    ],
    [
      "ꯋꯤ",
      "ꯟ"
    ],
    [
      "ꯔꯤ",
      "ꯗ</w>"
    ],
    [
      "ꯒꯗꯕ",
      "ꯅꯤ꯫</w>"
    ],
    [
      "ꯈꯨꯗꯣꯡ",
      "ꯆꯥ"
    ],
    [
      "ꯂꯥꯟꯕ",
      "ꯟ</w>"
    ],
    [
      "ꯁꯥꯡ",
      "ꯕ</w>"
    ],
    [
      "ꯚ",
      "ꯨ"
    ],
    [
      "ꯄ",
      "ꯟ</w>"
    ],
    [
      "ꯁꯨ",
      "ꯔꯨ"
    ],
    [
      "ꯌꯥꯎ",
      "ꯈꯤ꯫</w>"
    ],
    [
      "ꯁ",
      "ꯥꯟ"
    ],
    [
      "ꯀ꯭",
      "ꯂꯕ</w>"
    ],
    [
      "ꯊꯣꯛ",
      "ꯏ</w>"
    ],
    [
      "ꯡ",
      "ꯕ</w>"
    ],
    [
      "ꯁ꯭ꯇꯦ",
      "ꯠ</w>"
    ],
    [
      "꯲꯰꯲꯰",
      "ꯒꯤ</w>"
    ],
    [
      "প",
      "া"
    ],
    [
      "ꯌꯥꯎ",
      "ꯔꯤ</w>"
    ],
    [
      "ꯐꯥꯎ",
      "ꯕꯒꯤ</w>"
    ],
    [
      "ꯖꯦ",
      "ꯅ"
    ],
    [
      "ꯃꯃꯤ",
      "ꯔꯣꯏ</w>"
    ],
    [
      "ꯕ",
      "ꯒꯤꯗꯃꯛ</w>"
    ],
    [
      "ꯂꯤ",
      "ꯕ"
    ],
    [
      "ꯑꯩꯈ",
      "ꯣꯏꯅ</w>"
    ],
    [
      "ꯋ",
      "ꯤ꯫</w>"
    ],
    [
      "ꯩ",
      ",</w>"
    ],
    [
      "ꯅꯥꯏ",
      "ꯅ</w>"
    ],
    [
      "ꯑꯥꯔ",
      "."
    ],
    [
      "ম",
      "ত"
    ],
    [
      "ꯔꯦ",
      "ꯜ"
    ],
    [
      "ꯌꯥ",
      "ꯕꯒꯤ</w>"
    ],
    [
      "ꯑꯦꯛ",
      "ꯁ"
    ],
    [
      "ꯎ",
      "</w>"
    ],
    [
      "ꯋꯥ",
      "ꯌꯦꯜ"
    ],
    [
      "ꯍ",
      "ꯥ</w>"
    ],
    [
      "ꯏꯟ",
      "ꯅ,</w>"
    ],
    [
      "ꯀ",
      "ꯥꯟꯅꯕ</w>"
    ],
    [
      "ꯖ",
      "ꯔꯥ"
    ],
    [
      "ꯆꯍꯤ",
      "ꯒꯤ</w>"
    ],
    [
      "ꯄ",
      ",</w>"
    ],
    [
      "ꯅꯦ",
      "ꯠ</w>"
    ],
    [
      "ꯑꯣ",
      "ꯁꯇ꯭ꯔꯦꯂꯤ"
    ],
    [
      "ꯂꯧ",
      "ꯗꯨꯅ</w>"
    ],
    [
      "ꯂꯤ",
      "ꯒ</w>"
    ],
    [
      "ꯄꯤ",
      ".</w>"
    ],
    [
      "ꯁꯤ",
      "ꯕ</w>"
    ],
    [
      "ꯅꯣ",
      "ꯡ</w>"
    ],
    [
      "ꯃ",
      "ꯄꯨ</w>"
    ],
    [
      "ꯔꯝ",
      "ꯕ</w>"
    ],
    [
      "ꯁꯤ",
      "ꯔꯤ"
    ],
    [
      "ꯇ꯭ꯔ",
      "ꯥꯏ"
    ],
    [
      "ꯗꯨ",
      "ꯗ</w>"
    ],
    [
      "ꯁꯍ",
      "ꯔꯒꯤ</w>"
    ],
    [
      "ꯁꯤ",
      "ꯖꯟ</w>"
    ],
    [
      "ꯁ꯭",
      "ꯇꯥꯔ"
    ],
    [
      ".ꯑꯦ",
      "ꯝ"
    ],
    [
      "ꯞ",
      "-"
    ],
    [
      "ꯑꯦꯟ",
      "ꯇꯤ"
    ],
    [
      "ꯇ꯭ꯔ",
      "ꯥꯟ"
    ],
    [
      "শি",
      "ং</w>"
    ],
    [
      "ꯕꯦꯡ",
      "ꯒꯣ"
    ],
    [
      "ꯩ",
      "ꯁꯤꯡ</w>"
    ],
    [
      "ꯒ",
      "ꯔ"
    ],
    [
      "ꯍꯤꯗ",
      "ꯥꯛ"
    ],
    [
      "ꯊꯥ",
      "ꯗ"
    ],
    [
      "ꯜ",
      "-"
    ],
    [
      "ꯑꯅꯤ",
      "ꯃꯛ</w>"
    ],
    [
      "ꯝ",
      ",</w>"
    ],
    [
      "ꯈꯣꯡ",
      "ꯆꯠ</w>"
    ],
    [
      "꯲꯰",
      "</w>"
    ],
    [
      "ꯀꯦ",
      "ꯝ"
    ],
    [
      "ꯇ",
      "ꯣꯛ"
    ],
    [
      "ꯎ",
      "ꯟ"
    ],
    [
      "ꯑꯩꯈ",
      "ꯣꯏꯒꯤ</w>"
    ],
    [
      "ꯆꯠ",
      "ꯂꯤ꯫</w>"
    ],
    [
      "ক",
      "ো"
    ],
    [
      "ꯃꯨ",
      "ꯘ"
    ],
    [
      "ꯅ",
      "ꯒꯤ</w>"
    ],
    [
      "ꯃꯍꯨ",
      "ꯠ</w>"
    ],
    [
      "ꯆ",
      "ꯨꯝ"
    ],
    [
      "ꯆ",
      "ꯥꯡꯗ</w>"
    ],
    [
      "ꯜꯂ",
      "ꯕ</w>"
    ],
    [
      "ꯇ",
      "ꯛ"
    ],
    [
      "ꯅꯠ",
      "ꯇꯅ</w>"
    ],
    [
      "ꯐꯦ",
      "ꯗ"
    ],
    [
      "ꯃꯤꯑꯣꯏ",
      "ꯁꯤꯡꯒꯤ</w>"
    ],
    [
      "ত",
      "ৌ"
    ],
    [
      "ꯂꯨꯆꯤꯡ",
      "ꯕ</w>"
    ],
    [
      "ꯉ",
      "ꯥ"
    ],
    [
      "ꯃꯥꯏꯀꯩ",
      "ꯗ</w>"
    ],
    [
      "ꯘ",
      "ꯥ"
    ],
    [
      "ꯂꯨ",
      "ꯄꯥ</w>"
    ],
    [
      "ꯂꯥꯏ",
      "ꯑꯣ"
    ],
    [
      "দ",
      "ু"
    ],
    [
      "ꯁꯥ",
      "ꯊꯤꯅ</w>"
    ],
    [
      "ꯂꯥꯏ",
      "ꯒꯤ</w>"
    ],
    [
      "ꯄ꯭ꯔꯣ",
      "ꯐꯦ"
    ],
    [
      "ꯆ",
      "ꯂꯥꯏ"
    ],
    [
      "ꯑꯩ",
      "ꯉꯣꯟꯗ</w>"
    ],
    [
      "ꯗ",
      "ꯥꯡ"
    ],
    [
      "ꯕ",
      "ꯀꯤ</w>"
    ],
    [
      "ꯏ",
      "ꯀꯥꯏ"
    ],
    [
      "ꯉ",
      "ꯛ"
    ],
    [
      "ꯌꯥ",
      "ꯅ"
    ],
    [
      "ꯑꯥꯏ",
      ".</w>"
    ],
    [
      "ꯁꯤꯁꯇꯦ",
      "ꯝ</w>"
    ],
    [
      "ꯒ",
      "ꯥꯟ"
    ],
    [
      "ꯄ꯭ꯔꯣ",
      "ꯕꯤꯟ"
    ],
    [
      "ꯄꯨꯟ",
      "ꯁꯤꯟ"
    ],
    [
      "ꯐꯥ",
      "ꯕ</w>"
    ],
    [
      "ꯈꯔ",
      "ꯗ</w>"
    ],
    [
      "ꯁꯣꯏ",
      "ꯗꯅ</w>"
    ],
    [
      "ꯖꯤ",
      "ꯂꯥ</w>"
    ],
    [
      "ꯗ",
      "ꯜ</w>"
    ],
    [
      "ꯚ",
      "ꯦꯟ"
    ],
    [
      "꯭",
      "ꯠ</w>"
    ],
    [
      "ꯇꯤ",
      "ꯛꯀꯤ</w>"
    ],
    [
      "ꯕꯤ",
      ".</w>"
    ],
    [
      "ꯜꯂ",
      "ꯛ"
    ],
    [
      "ꯃꯤꯠ",
      "ꯌꯦꯡ</w>"
    ],
    [
      "ꯁꯦꯟ",
      "ꯇ꯭ꯔꯦ"
    ],
    [
      "ꯗ꯭ꯔ",
      "</w>"
    ],
    [
      "ꯔ",
      "ꯨꯝ"
    ],
    [
      "ꯃ",
      "ꯄꯥꯡꯒꯜ</w>"
    ],
    [
      "ꯀ",
      "ꯥꯟꯅ"
    ],
    [
      "ꯂꯤ",
      "ꯁꯠ</w>"
    ],
    [
      "ꯑꯦꯁ",
      "."
    ],
    [
      "ꯁꯤꯡ",
      "ꯗ,</w>"
    ],
    [
      "ꯇꯤ",
      "ꯝ"
    ],
    [
      "ꯊ",
      "ꯥꯔ"
    ],
    [
      "ꯋꯦ",
      "ꯁꯠ</w>"
    ],
    [
      "꯱",
      "꯰</w>"
    ],
    [
      "ꯀ",
      "ꯛ"
    ],
    [
      "ꯕꯦ",
      "ꯜ</w>"
    ],
    [
      "ম",
      "া"
    ],
    [
      "দ",
      "গী</w>"
    ],
    [
      "ꯄ",
      "ꯅ</w>"
    ],
    [
      "ꯑꯃ",
      "ꯠꯇ"
    ],
    [
      "ꯋꯔ",
      "ꯜꯗ</w>"
    ],
    [
      "ꯚ",
      "</w>"
    ],
    [
      "ꯂꯤ",
      "ꯒ"
    ],
    [
      "ꯇꯤ",
      "ꯅ</w>"
    ],
    [
      "ꯌ",
      "ꯟꯒꯤ</w>"
    ],
    [
      "ꯊꯥ",
      "ꯕ</w>"
    ],
    [
      "0",
      "</w>"
    ],
    [
      "ꯈꯣꯡ",
      "ꯖ"
    ],
    [
      "ꯁꯤ",
      "ꯜꯂꯤ</w>"
    ],
    [
      "ꯕꯤ",
      "ꯁ"
    ],
    [
      "ꯑꯣ",
      "ꯗꯤ"
    ],
    [
      "ꯌꯨꯅꯤ",
      "ꯕꯔ"
    ],
    [
      "ꯂ",
      "ꯔ"
    ],
    [
      "ꯆꯥ",
      "ꯅ</w>"
    ],
    [
      "ꯅꯕ",
      ",</w>"
    ],
    [
      "ꯍꯟ",
      "ꯕꯗ</w>"
    ],
    [
      "ꯂꯝꯖꯤ",
      "ꯡ-"
    ],
    [
      "ꯍꯧꯖꯤ",
      "ꯛ"
    ],
    [
      "ꯃ",
      "ꯄꯥꯟ</w>"
    ],
    [
      "ꯂꯣꯟ",
      "ꯁꯤꯡ</w>"
    ],
    [
      "ꯛꯇ",
      "ꯤ</w>"
    ],
    [
      "ꯎ",
      "ꯃꯪ"
    ],
    [
      "ꯆ",
      "ꯀꯤ</w>"
    ],
    [
      "ꯁꯥ",
      "ꯊꯤꯕ</w>"
    ],
    [
      "ꯗ꯭ꯔ",
      "ꯥ"
    ],
    [
      "ꯄ",
      "ꯔ</w>"
    ],
    [
      "ꯒꯨ",
      "ꯖꯔꯥ"
    ],
    [
      "ꯆꯦ",
      "ꯛ</w>"
    ],
    [
      "ꯈꯨꯡꯒ",
      "ꯪ</w>"
    ],
    [
      "ꯃ",
      "ꯐꯝꯗ</w>"
    ],
    [
      "ꯇꯧ",
      "ꯕꯗ</w>"
    ],
    [
      "-",
      "ꯂꯥꯡ"
    ],
    [
      "ꯏ",
      "ꯂꯦꯛ"
    ],
    [
      "ꯇ",
      "ꯣꯡ"
    ],
    [
      "꯹",
      "ꯒꯤ</w>"
    ],
    [
      "꯱",
      "꯴"
    ],
    [
      "ꯂ",
      "ꯟꯗ"
    ],
    [
      "ꯄꯣꯛ",
      "ꯈꯤ꯫</w>"
    ],
    [
      "ꯄꯨ",
      "ꯝ"
    ],
    [
      "ꯅ",
      "ꯪ"
    ],
    [
      "ꯗꯨ",
      "ꯀꯥꯟ</w>"
    ],
    [
      "ꯕ꯭ꯔ",
      "ꯣ"
    ],
    [
      "ꯈꯪ",
      "ꯕ</w>"
    ],
    [
      "ো",
      "য়"
    ],
    [
      "ꯄꯨ",
      "ꯋꯥꯔꯤꯒꯤ</w>"
    ],
    [
      "ꯃꯥꯏꯄꯥꯛ",
      "ꯄ</w>"
    ],
    [
      "ꯆꯥ",
      "ꯗꯤꯡ</w>"
    ],
    [
      "ম",
      "ি"
    ],
    [
      "ꯃꯉ",
      "ꯥ</w>"
    ],
    [
      "ꯕ꯭",
      "ꯂꯦ"
    ],
    [
      "ꯊꯝ",
      "ꯈꯤ꯫</w>"
    ],
    [
      "ꯍꯥꯏ",
      "ꯖ"
    ],
    [
      "ꯑꯦ",
      "ꯁꯣ"
    ],
    [
      "ꯁ꯭ꯀꯨ",
      "ꯜ</w>"
    ],
    [
      "ꯈꯥ",
      "-"
    ],
    [
      "ꯂꯝꯖꯤꯡ-",
      "ꯂꯝ"
    ],
    [
      "ꯃꯦ",
      "ꯗꯤ"
    ],
    [
      "ꯃ",
      "ꯁꯥꯟꯅ"
    ],
    [
      "ꯄ",
      "ꯁꯤꯡ</w>"
    ],
    [
      "ꯇꯤ",
      "ꯁ</w>"
    ],
    [
      "ꯃꯥꯏ",
      "ꯜ</w>"
    ],
    [
      "ৱ",
      "া"
    ],
    [
      "ꯁꯔ",
      "ꯀꯥꯔ"
    ],
    [
      "ꯂꯩꯉꯥꯛ",
      "ꯅ</w>"
    ],
    [
      "ꯜ",
      "ꯁꯤꯡꯗ</w>"
    ],
    [
      "ꯊꯣꯛ",
      "ꯄꯒꯤ</w>"
    ],
    [
      "ꯔꯦ",
      "꯫</w>"
    ],
    [
      "ꯄꯥ",
      "ꯀꯤ"
    ],
    [
      "ꯃ",
      "ꯗ</w>"
    ],
    [
      "ꯏꯟ",
      "ꯗꯣ"
    ],
    [
      "ꯊꯧꯔꯝ",
      "ꯁꯤꯡ</w>"
    ],
    [
      "ꯅꯍꯥꯛ",
      "</w>"
    ],
    [
      "ꯁꯤꯗꯦꯟ",
      "ꯠ</w>"
    ],
    [
      "ꯊꯣꯛ",
      "ꯈꯤ꯫</w>"
    ],
    [
      "ꯃꯅꯨ",
      "ꯡ</w>"
    ],
    [
      "ꯏ",
      "ꯔ"
    ],
    [
      "ꯐꯥꯎ",
      "ꯗꯨꯅ</w>"
    ],
    [
      "ꯅꯤ",
      "ꯁ</w>"
    ],
    [
      "ꯖꯣ",
      "ꯟ</w>"
    ],
    [
      "꯭ꯌ",
      "ꯣ"
    ],
    [
      "ꯏ",
      "."
    ],
    [
      "ꯊꯤꯡ",
      "ꯕ</w>"
    ],
    [
      "ꯃꯥ",
      "ꯒꯤ</w>"
    ],
    [
      "ꯑꯔꯨ",
      "ꯕ</w>"
    ],
    [
      "ꯑꯦ",
      "."
    ],
    [
      "ꯄ꯭ꯔꯣ",
      "ꯖꯦ"
    ],
    [
      "ꯐ꯭",
      "ꯂꯣ"
    ],
    [
      "ꯀꯥꯡꯂꯨ",
      "ꯞ"
    ],
    [
      "ꯊꯕ",
      "ꯛ"
    ],
    [
      "ꯑꯃꯦꯔꯤ",
      "ꯀꯥꯒꯤ</w>"
    ],
    [
      "ꯉꯥꯏ",
      "ꯔꯕ</w>"
    ],
    [
      "ꯁꯟ",
      "ꯗ</w>"
    ],
    [
      "ꯕꯦ",
      "ꯜ"
    ],
    [
      "ম",
      "খ"
    ],
    [
      "ꯕ",
      "ꯁꯤꯡꯗ</w>"
    ],
    [
      "ꯀꯨꯝꯍ",
      "ꯩꯒꯤ</w>"
    ],
    [
      "ꯁꯪ",
      "ꯗ</w>"
    ],
    [
      "ꯄꯣ",
      "ꯖꯤ"
    ],
    [
      "ꯐ",
      "꯭ꯔꯤ"
    ],
    [
      "ꯁ",
      "ꯀ</w>"
    ],
    [
      "ꯍꯥꯏ",
      "ꯔꯤꯕꯁꯤꯡ</w>"
    ],
    [
      "ꯃꯅꯨ",
      "ꯡꯒꯤ</w>"
    ],
    [
      "ꯑꯥꯔ",
      "ꯇꯤ"
    ],
    [
      "ꯇ",
      "ꯥꯛ</w>"
    ],
    [
      "ꯑꯦ",
      "ꯋꯥꯔ"
    ],
    [
      "ꯔꯦ",
      "ꯗꯤ"
    ],
    [
      "ꯀꯝꯄ",
      "꯭ꯌꯨ"
    ],
    [
      "ꯖ",
      "ꯝ</w>"
    ],
    [
      "ꯃꯤ",
      "ꯠ</w>"
    ],
    [
      "ꯃꯐꯝ",
      "ꯁꯤꯡ</w>"
    ],
    [
      "ꯇꯤ",
      ".</w>"
    ],
    [
      "ꯀ",
      "ꯦꯟ</w>"
    ],
    [
      "ꯖꯨ",
      "ꯟ</w>"
    ],
    [
      "ꯉ",
      "ꯤ꯫</w>"
    ],
    [
      "ꯆꯤꯟꯖ",
      "ꯥꯛ</w>"
    ],
    [
      "ꯋꯥꯡ",
      "ꯅ</w>"
    ],
    [
      "ꯄꯣꯏ",
      "ꯟ"
    ],
    [
      "ꯑꯇ",
      "ꯩ</w>"
    ],
    [
      "ꯇ",
      ",</w>"
    ],
    [
      "ꯈꯪ",
      "ꯅꯩ꯫</w>"
    ],
    [
      "ꯃꯥꯏ",
      "ꯊꯤ"
    ],
    [
      "ꯇꯤ",
      "ꯟ</w>"
    ],
    [
      "ꯕ꯭",
      "ꯂ"
    ],
    [
      "ꯔꯦ",
      "ꯁꯟ</w>"
    ],
    [
      "ꯁ",
      "ꯅꯦꯜ</w>"
    ],
    [
      "ꯐꯪ",
      "ꯏ꯫</w>"
    ],
    [
      "ꯇꯥꯔ",
      "ꯛꯄ</w>"
    ],
    [
      "ꯑ",
      "ꯀꯨ"
    ],
    [
      "ꯑ",
      "ꯁꯣꯛ"
    ],
    [
      "ꯝ",
      "-"
    ],
    [
      "ꯀꯣ",
      "ꯔꯗ</w>"
    ],
    [
      "ꯄꯣꯛ",
      "ꯈꯤ</w>"
    ],
    [
      "ꯁꯇ",
      "ꯒꯤ</w>"
    ],
    [
      "ꯁꯤ",
      "ꯜ</w>"
    ],
    [
      "ꯇ",
      "ꯃꯤ"
    ],
    [
      "ꯈꯨꯝ",
      "ꯅꯕ</w>"
    ],
    [
      "ꯂꯧ",
      "ꯎ"
    ],
    [
      "ꯔꯛ",
      "ꯈꯤ</w>"
    ],
    [
      "ꯇꯥꯏ",
      "꯫</w>"
    ],
    [
      "ꯌꯥ",
      "ꯗꯕ</w>"
    ],
    [
      "ꯆꯦ",
      "</w>"
    ],
    [
      "ꯄ",
      "ꯒ</w>"
    ],
    [
      "ꯁ",
      "ꯠꯀꯤ</w>"
    ],
    [
      "ꯇꯦ",
      "ꯔꯤ"
    ],
    [
      "ꯀꯦ",
      "ꯅ"
    ],
    [
      "ꯇꯧ",
      "ꯋꯤ</w>"
    ],
    [
      "ꯃꯣ",
      "ꯟ"
    ],
    [
      "ꯖꯤꯟ",
      "ꯕ</w>"
    ],
    [
      "ꯑꯐ",
      "꯭ꯔꯤ"
    ],
    [
      "ꯂꯂꯣꯟ-ꯏ",
      "ꯇꯤꯛ</w>"
    ],
    [
      "ꯁꯥꯡ",
      "ꯅ</w>"
    ],
    [
      "ꯌꯥꯝ",
      "ꯂꯕ</w>"
    ],
    [
      "ꯋꯦ",
      "ꯕ"
    ],
    [
      "ꯅꯤ",
      "ꯌꯥꯒꯤ</w>"
    ],
    [
      "ꯏ",
      "ꯁꯤꯡꯒꯤ</w>"
    ],
    [
      "ꯆꯠ",
      "ꯈꯤ꯫</w>"
    ],
    [
      "ꯊꯣꯛ",
      "ꯈꯤ</w>"
    ],
    [
      "ꯂꯩꯔꯝ",
      "ꯃꯤ꯫</w>"
    ],
    [
      "ꯁ꯭",
      "ꯋ"
    ],
    [
      "ꯛ",
      "ꯁ"
    ],
    [
      "ত",
      "া</w>"
    ],
    [
      "ꯅꯥꯏ",
      "ꯕ</w>"
    ],
    [
      "ꯑꯦ",
      "ꯌꯔ"
    ],
    [
      "ꯑꯩꯍꯥꯛ",
      "ꯀꯤ</w>"
    ],
    [
      "ꯠꯇ",
      "ꯒꯤ</w>"
    ],
    [
      "ꯔꯛ",
      "ꯈꯤ꯫</w>"
    ],
    [
      "ꯅꯤꯡ",
      "ꯁꯤꯡ"
    ],
    [
      "ꯀꯦ",
      "ꯂꯤ"
    ],
    [
      "অম",
      "নি।</w>"
    ],
    [
      "ꯔꯤ",
      "ꯄꯕ꯭ꯂꯤ"
    ],
    [
      "ꯀꯥ",
      "ꯞ"
    ],
    [
      "ꯄꯔꯤ",
      "ꯡ</w>"
    ],
    [
      "ꯑꯁꯤ",
      "ꯅꯤ</w>"
    ],
    [
      "ꯁꯦ",
      "ꯠ"
    ],
    [
      "ꯁꯥ",
      "ꯍꯤ"
    ],
    [
      "ꯍꯥꯡ",
      "ꯗꯣꯛ"
    ],
    [
      "ꯅꯦ",
      "ꯝꯕ</w>"
    ],
    [
      "ꯗ꯭ꯔꯤ",
      "ꯕ</w>"
    ],
    [
      "ꯟ",
      "ꯁ</w>"
    ],
    [
      "ꯔꯤ",
      "ꯌꯥꯒꯤ</w>"
    ],
    [
      "ꯝꯕꯔ",
      "ꯒꯤ</w>"
    ],
    [
      "ꯏꯁꯩ-ꯅꯣꯡ",
      "ꯃꯥꯏꯒꯤ</w>"
    ],
    [
      "ꯅꯤꯡ",
      "ꯇꯝꯕ</w>"
    ],
    [
      "ꯌꯥ",
      ",</w>"
    ],
    [
      "ꯁꯤ",
      "ꯕꯒꯤ</w>"
    ],
    [
      "ꯍ",
      "ꯜ"
    ],
    [
      "ꯑꯣꯏ",
      "ꯊꯣꯛꯄ</w>"
    ],
    [
      "ল",
      "</w>"
    ],
    [
      "ꯁꯦꯝ",
      "ꯈꯤ꯫</w>"
    ],
    [
      "ꯑꯣꯏꯔꯛ",
      "ꯈꯤ꯫</w>"
    ],
    [
      "ꯆꯥꯡ",
      "ꯆꯠ"
    ],
    [
      "ꯄꯦ",
      "ꯔꯤ"
    ],
    [
      "ꯁ꯭ꯋꯤ",
      "ꯗꯦꯟ"
    ],
    [
      "ꯗꯣꯛ",
      "-"
    ],
    [
      "ꯂꯧꯎ",
      "-ꯁꯤꯡ"
    ],
    [
      "ꯑꯣ",
      "."
    ],
    [
      "ꯅꯥ",
      "ꯠꯀꯤ</w>"
    ],
    [
      "ꯃꯤꯑꯣꯏ",
      "ꯁꯤꯡꯗ</w>"
    ],
    [
      "ꯂꯩꯔꯝ",
      "ꯃꯤ</w>"
    ],
    [
      "ꯑꯋꯥꯡ",
      "-"
    ],
    [
      "ꯁꯦꯟꯇ꯭ꯔꯦ",
      "ꯜ</w>"
    ],
    [
      "ꯑ",
      "ꯏꯕ</w>"
    ],
    [
      "ꯃꯟ",
      "ꯇ꯭ꯔꯤ</w>"
    ],
    [
      "ꯖꯅꯨ",
      "ꯋꯥꯔꯤ</w>"
    ],
    [
      "ꯌꯥꯎ",
      "ꯗꯅ</w>"
    ],
    [
      "ꯀ",
      "ꯁꯇ"
    ],
    [
      "ꯁꯟꯗꯣꯛ",
      "ꯅ</w>"
    ],
    [
      "ꯐ",
      "꯭ꯔꯦ"
    ],
    [
      "ꯠ",
      "ꯁꯤꯡꯅ</w>"
    ],
    [
      "ꯀꯔ",
      "ꯅꯥ"
    ],
    [
      "ꯃ",
      "ꯙ"
    ],
    [
      "ꯇ",
      "ꯜ</w>"
    ],
    [
      "ꯁꯣ",
      "ꯐ"
    ],
    [
      "ꯃꯤ",
      "ꯛ</w>"
    ],
    [
      "ꯒꯤꯗ",
      "ꯃꯛꯇ"
    ],
    [
      "েল",
      "</w>"
    ],
    [
      "অম",
      "া</w>"
    ],
    [
      "হা",
      "য়"
    ],
    [
      "ꯐꯣ",
      "ꯟ</w>"
    ],
    [
      "ꯇꯧ",
      "ꯈꯤꯕ</w>"
    ],
    [
      "ꯑꯇꯣ",
      "ꯞꯄ"
    ],
    [
      "ꯊꯣꯡ",
      "ꯕ</w>"
    ],
    [
      "ꯃꯅꯨ",
      "ꯡ"
    ],
    [
      "ꯂꯥꯏꯅꯤꯡ",
      "ꯒꯤ</w>"
    ],
    [
      "ꯃ",
      "ꯨꯝ"
    ],
    [
      "ꯃꯅ",
      "ꯥꯎ</w>"
    ],
    [
      "ꯖꯔ",
      "ꯃ"
    ],
    [
      "ꯄꯥꯎ",
      "ꯇꯥꯛ</w>"
    ],
    [
      "ꯀ",
      "ꯩ</w>"
    ],
    [
      "ꯔꯣ",
      "</w>"
    ],
    [
      "ꯃꯈ",
      "ꯜꯒꯤ</w>"
    ],
    [
      "ꯀꯣ",
      "</w>"
    ],
    [
      "ꯑꯩꯆ",
      "."
    ],
    [
      "ꯂꯥꯏ",
      "ꯅꯤꯡ</w>"
    ],
    [
      "ꯃꯦ",
      "ꯆ</w>"
    ],
    [
      "ꯃꯊ",
      "ꯛꯇ,</w>"
    ],
    [
      "ꯐꯤꯚ",
      "ꯝ</w>"
    ],
    [
      "ꯃꯑꯣ",
      "ꯡ"
    ],
    [
      "ꯑꯣꯏ",
      "ꯔꯤ꯫</w>"
    ],
    [
      "ꯇꯨ",
      "ꯡꯗ</w>"
    ],
    [
      "꯱꯹",
      "꯲"
    ],
    [
      "ꯔꯦ",
      "ꯁ"
    ],
    [
      "ꯑꯣꯏꯔꯤ",
      "ꯕ,</w>"
    ],
    [
      "ꯗ꯭ꯔ",
      "ꯕꯗ</w>"
    ],
    [
      "ꯆ",
      "ꯤ</w>"
    ],
    [
      "ন",
      "ি"
    ],
    [
      "ꯊ",
      "꯭ꯔ"
    ],
    [
      "ꯁ",
      "ꯇꯥ"
    ],
    [
      "ꯗꯥ",
      "ꯒꯤ</w>"
    ],
    [
      "ꯑꯀ",
      "ꯥꯏ"
    ],
    [
      "ꯀ",
      "ꯔꯤ</w>"
    ],
    [
      "ꯀꯣ",
      "ꯗ</w>"
    ],
    [
      "ꯗ",
      "ꯕꯒꯤ</w>"
    ],
    [
      "ꯑ",
      "ꯥꯎ"
    ],
    [
      "꯱",
      "꯲</w>"
    ],
    [
      "ꯏꯟꯗꯤ",
      "ꯌꯥ</w>"
    ],
    [
      "ꯃꯦ",
      "ꯝꯕꯔ</w>"
    ],
    [
      "꯰꯰",
      "ꯒꯤ</w>"
    ],
    [
      "ꯍꯦ",
      "ꯛ</w>"
    ],
    [
      "ꯍꯛꯆꯥꯡ",
      "ꯒꯤ</w>"
    ],
    [
      "ꯔ",
      "ꯗꯨꯅ</w>"
    ],
    [
      "ꯑ",
      "ꯏꯪ"
    ],
    [
      "ম",
      "ী"
    ],
    [
      "ল",
      "ে"
    ],
    [
      "ꯌ",
      "ꯩ"
    ],
    [
      "ꯄꯤ",
      "ꯛ"
    ],
    [
      "ꯌꯥꯎ",
      "ꯈꯤ</w>"
    ],
    [
      "꯲꯰꯱",
      "꯰ꯒꯤ</w>"
    ],
    [
      "ꯄꯣꯠꯂꯝ",
      "ꯁꯤꯡ</w>"
    ],
    [
      "ꯀꯦ",
      "ꯠ"
    ],
    [
      "ꯃꯣ",
      "ꯗꯦ"
    ],
    [
      "ꯅ",
      "ꯥꯏ</w>"
    ],
    [
      "ꯔꯦ",
      "ꯀꯣꯔ"
    ],
    [
      "ꯀꯪ",
      "ꯒ꯭ꯔꯦ"
    ],
    [
      "ꯃꯈ",
      "ꯣ"
    ],
    [
      "ꯟ",
      "ꯇ</w>"
    ],
    [
      "ꯅꯥ",
      "ꯅ</w>"
    ],
    [
      "ꯈꯨ",
      "ꯗꯣ"
    ],
    [
      "ꯑꯁꯨ",
      "ꯝꯅ</w>"
    ],
    [
      "র",
      "ে"
    ],
    [
      "ꯃ",
      "ꯒꯤ</w>"
    ],
    [
      "ꯀ꯭ꯂꯥ",
      "ꯁꯤ"
    ],
    [
      "ꯃꯉ",
      "ꯣꯟꯗ</w>"
    ],
    [
      "ꯍ",
      "ꯜꯂꯤꯕ</w>"
    ],
    [
      "ꯂꯦ",
      "ꯝ"
    ],
    [
      "ꯁ꯭",
      "ꯄꯤ"
    ],
    [
      "ꯑꯣꯏꯅ",
      "ꯃꯛ</w>"
    ],
    [
      "ꯁ꯭",
      "ꯇꯦꯟ"
    ],
    [
      "ꯊꯣꯛ",
      "ꯏ꯫</w>"
    ],
    [
      "ক",
      "া"
    ],
    [
      "ꯧ",
      "ꯔ"
    ],
    [
      "ꯂꯤ",
      "ꯌꯥ"
    ],
    [
      "ꯗ",
      "ꯅꯕ</w>"
    ],
    [
      "꯲꯰꯱",
      "꯴ꯒꯤ</w>"
    ],
    [
      "’",
      "</w>"
    ],
    [
      "20",
      "1"
    ],
    [
      "ꯑꯀꯨ",
      "ꯞꯄ</w>"
    ],
    [
      "ꯄ꯭ꯔ",
      "ꯥ"
    ],
    [
      "ꯂ",
      "ꯕꯗꯤ</w>"
    ],
    [
      "ꯅꯨ",
      "ꯡꯗ</w>"
    ],
    [
      ".ꯑꯦꯜ",
      "."
    ],
    [
      "ꯁꯔꯨ",
      "ꯛ"
    ],
    [
      "ফ",
      "ি"
    ],
    [
      "ন",
      "ু"
    ],
    [
      "ꯈꯨꯠ",
      "ꯂꯥꯏ"
    ],
    [
      "ꯁꯛꯇ",
      "ꯤ</w>"
    ],
    [
      "ꯇꯧ",
      "ꯗꯨꯅ</w>"
    ],
    [
      "ꯃꯔ",
      "ꯝꯅ</w>"
    ],
    [
      "ꯇꯥꯡ",
      "ꯀ"
    ],
    [
      "ꯙ",
      "ꯥ"
    ],
    [
      "ꯕꯨ",
      "ꯗ"
    ],
    [
      "ꯃꯦ",
      "ꯅꯦ"
    ],
    [
      "ꯃꯆꯨ",
      "ꯒꯤ</w>"
    ],
    [
      ")",
      ",</w>"
    ],
    [
      "দ",
      "া"
    ],
    [
      "ꯇ",
      "ꯦꯟ</w>"
    ],
    [
      "ꯔ",
      "ꯁꯤ"
    ],
    [
      "ꯅꯨꯡꯉꯥꯏ",
      "ꯇꯕ</w>"
    ],
    [
      "ꯂꯩ",
      "ꯔꯤ</w>"
    ],
    [
      "꯱",
      ","
    ],
    [
      "ꯆꯨ",
      "ꯞ"
    ],
    [
      "ꯖ",
      "ꯅ</w>"
    ],
    [
      "ꯑꯗꯣ",
      "ꯝꯅ</w>"
    ],
    [
      "ꯌꯨ",
      ".ꯑꯦꯁ."
    ],
    [
      "ꯅ",
      "ꯔꯤ</w>"
    ],
    [
      "ꯅꯦ",
      "ꯁ</w>"
    ],
    [
      "ꯈꯟ",
      "ꯈꯤ</w>"
    ],
    [
      "ꯁꯦ",
      "ꯜꯒꯤ</w>"
    ],
    [
      "ꯏꯟꯗ",
      "ꯁꯇ꯭ꯔꯤ"
    ],
    [
      "ꯈ",
      "ꯛ</w>"
    ],
    [
      "-",
      "ꯍꯨꯝ"
    ],
    [
      "ꯃꯥꯡ",
      "ꯍꯟ"
    ],
    [
      "ꯋꯥ",
      "ꯠ"
    ],
    [
      "ꯀꯝ",
      "ꯄꯦ"
    ],
    [
      "ꯑꯍ",
      "ꯣꯡ"
    ],
    [
      "ꯁꯤ",
      "ꯇꯤ"
    ],
    [
      "ꯖ",
      "ꯄꯥꯟ"
    ],
    [
      "ꯅꯨꯡꯁꯤ",
      "ꯠ</w>"
    ],
    [
      "ꯑꯃ",
      "ꯒꯤꯗꯃꯛ</w>"
    ],
    [
      "ꯕ",
      "ꯒꯦ</w>"
    ],
    [
      "ꯗꯕ",
      "ꯜ"
    ],
    [
      "ꯁꯨ",
      "ꯜ"
    ],
    [
      "ꯈꯤ",
      "ꯕꯒꯤ</w>"
    ],
    [
      "ꯀ꯭ꯋ",
      "ꯤ"
    ],
    [
      "ꯈꯨꯗꯣꯡ",
      "ꯆꯥꯕ</w>"
    ],
    [
      "ꯆꯥꯎꯈꯠ",
      "ꯂꯛ"
    ],
    [
      "ꯔꯦ",
      "ꯀꯣꯔꯗ</w>"
    ],
    [
      "প",
      "া</w>"
    ],
    [
      "ꯒ꯭ꯔ",
      "ꯨ"
    ],
    [
      "ꯨ",
      "ꯅ</w>"
    ],
    [
      "ꯍ",
      "ꯥꯟꯅ</w>"
    ],
    [
      "ꯍꯤꯟ",
      "ꯗꯨ"
    ],
    [
      "ꯋꯥ",
      "ꯍꯩ"
    ],
    [
      "ꯗꯣ",
      "</w>"
    ],
    [
      "ꯂꯥꯟ",
      "ꯒꯤ</w>"
    ],
    [
      "ꯁꯤꯡ",
      "ꯗꯁꯨ</w>"
    ],
    [
      "ꯇꯨꯔꯦ",
      "ꯜꯒꯤ</w>"
    ],
    [
      "ꯄꯨ",
      "ꯋꯥꯔꯤ</w>"
    ],
    [
      "ꯒ",
      "ꯗ"
    ],
    [
      "ꯈꯨꯖꯤ",
      "ꯡꯒꯤ</w>"
    ],
    [
      "ꯅꯤ",
      "ꯌ"
    ],
    [
      "ꯑ",
      "ꯦꯟ</w>"
    ],
    [
      "ꯗ",
      "ꯒꯤ"
    ],
    [
      "ꯂꯤ",
      "ꯁꯤꯡ</w>"
    ],
    [
      "ꯊꯕ",
      "ꯛꯁꯤꯡ</w>"
    ],
    [
      "ꯄꯣꯠ",
      "ꯁꯤꯡ</w>"
    ],
    [
      "ꯅꯍꯥꯛ",
      "ꯄꯨ</w>"
    ],
    [
      "ꯄꯤ",
      "ꯌꯨ"
    ],
    [
      "ꯃꯥꯏ",
      "ꯀ꯭ꯔꯣ"
    ],
    [
      "ꯃꯇ",
      "ꯥꯡ"
    ],
    [
      "ꯅ",
      "ꯗꯨꯅ</w>"
    ],
    [
      "ꯅ",
      "ꯕꯗ</w>"
    ],
    [
      "ꯁꯤ",
      "ꯅ</w>"
    ],
    [
      "ꯂꯥ",
      "ꯜ"
    ],
    [
      "ꯇꯦ",
      "ꯡ"
    ],
    [
      "ꯄ",
      "ꯜ</w>"
    ],
    [
      "ꯠ",
      "ꯁꯤꯡꯗ</w>"
    ],
    [
      "ꯃꯑꯣ",
      "ꯡ-"
    ],
    [
      "ꯌꯥꯝ",
      "ꯗ꯭ꯔꯕꯗ</w>"
    ],
    [
      "ꯌꯥꯎ",
      "ꯋꯤ</w>"
    ],
    [
      "-",
      "ꯃ"
    ],
    [
      "ꯔ",
      "ꯟ</w>"
    ],
    [
      "ꯃꯃꯥꯡ",
      "ꯒꯤ</w>"
    ],
    [
      "ꯊꯨ",
      "ꯝ</w>"
    ],
    [
      "ꯑꯣꯏꯔꯛ",
      "ꯈꯤ</w>"
    ],
    [
      "ꯗꯤꯁꯦꯝ",
      "ꯕꯔ</w>"
    ],
    [
      "ꯃꯤ",
      "ꯁꯤꯡꯒꯤ</w>"
    ],
    [
      "꯲꯰꯱꯹",
      "ꯒꯤ</w>"
    ],
    [
      "ꯂꯝ",
      "ꯀꯣꯏ"
    ],
    [
      "ꯎꯠ",
      "ꯂꯤ꯫</w>"
    ],
    [
      "ꯃ",
      "ꯌꯥꯏ"
    ],
    [
      "ꯔ",
      "ꯟ"
    ],
    [
      "ꯕꯔ",
      "ꯗ</w>"
    ],
    [
      "ꯗ",
      "ꯗꯤ</w>"
    ],
    [
      "ꯄꯥꯡꯊꯣꯛ",
      "ꯈꯤ꯫</w>"
    ],
    [
      "ꯕꯤ",
      "ꯗ</w>"
    ],
    [
      "ꯑ",
      "ꯌꯨ"
    ],
    [
      "ꯉ",
      "ꯩꯒꯤ</w>"
    ],
    [
      "ꯆꯦꯛ",
      "ꯁꯤꯟ"
    ],
    [
      "ꯁ꯭",
      "ꯀ꯭ꯋ"
    ],
    [
      "ꯄꯥꯔ",
      "ꯛ</w>"
    ],
    [
      "ꯆꯍꯤ",
      "ꯆꯥꯗ</w>"
    ],
    [
      "ꯕ",
      "-"
    ],
    [
      "ꯆꯠ",
      "ꯈꯤ</w>"
    ],
    [
      "꯵",
      "꯰</w>"
    ],
    [
      "꯭ꯋ",
      "ꯦ"
    ],
    [
      "ꯛ",
      ",</w>"
    ],
    [
      "ꯀ",
      "ꯣꯛ</w>"
    ],
    [
      "ꯛ",
      "ꯁꯇ</w>"
    ],
    [
      "ꯊꯧ",
      "ꯒꯠ"
    ],
    [
      "ꯊ",
      "ꯠ"
    ],
    [
      "ꯊꯣꯛ",
      "ꯈꯤꯕ</w>"
    ],
    [
      "ꯃꯤ",
      "ꯂꯤ"
    ],
    [
      "ꯜ",
      "ꯗꯒꯤ</w>"
    ],
    [
      "ꯀ",
      "ꯥꯎ"
    ],
    [
      "ꯎꯠ",
      "ꯄ</w>"
    ],
    [
      "ꯊꯥ",
      "ꯡ</w>"
    ],
    [
      "ꯑꯀ",
      "ꯟꯕ</w>"
    ],
    [
      "ꯈꯦ",
      "ꯠꯅ"
    ],
    [
      "ꯁ꯭",
      "ꯄꯣꯔ"
    ],
    [
      "ꯗꯤ",
      "ꯄꯥꯔ"
    ],
    [
      "য়",
      "ু"
    ],
    [
      "ꯍꯛ",
      "ꯊꯦꯡ"
    ],
    [
      "ꯇꯔꯨ",
      "ꯛ</w>"
    ],
    [
      "ꯑ",
      "ꯁꯣꯏ"
    ],
    [
      "ꯂꯣꯏ",
      "ꯁꯪ"
    ],
    [
      "ꯒ",
      "ꯪ"
    ],
    [
      "ꯅꯩ",
      ",</w>"
    ],
    [
      "ꯖ",
      "ꯝ"
    ],
    [
      "ꯂꯥꯟ",
      "ꯊꯦꯡꯅ"
    ],
    [
      "ꯑꯦꯝ",
      "."
    ],
    [
      "ꯑꯗꯨ",
      "ꯒꯤꯗꯃꯛ</w>"
    ],
    [
      "ꯂꯥꯏ",
      "ꯅ</w>"
    ],
    [
      "ꯗ",
      "꯭ꯌꯨ"
    ],
    [
      "ꯁꯤ",
      "ꯝ"
    ],
    [
      "ꯁꯥꯏ",
      "ꯠ</w>"
    ],
    [
      "ꯄꯥꯟ",
      "ꯖ"
    ],
    [
      "ꯑꯅꯤ",
      "ꯃꯛꯅ</w>"
    ],
    [
      "ꯃꯔ",
      "ꯥꯡ</w>"
    ],
    [
      "ꯔꯤ",
      "ꯅ</w>"
    ],
    [
      "ꯇ",
      "ꯪ"
    ],
    [
      "ꯚꯤ",
      ".</w>"
    ],
    [
      "ꯑꯗꯣ",
      "ꯝꯒꯤ</w>"
    ],
    [
      "ꯀ",
      "ꯟꯕ</w>"
    ],
    [
      "ꯇ",
      "ꯞꯅ</w>"
    ],
    [
      "ꯁ꯭ꯇꯦ",
      "ꯁꯟ</w>"
    ],
    [
      "ꯀꯤ",
      "ꯡ</w>"
    ],
    [
      "স",
      "্"
    ],
    [
      "ꯁꯩ",
      "ꯔꯥꯡ"
    ],
    [
      "ꯚꯤ",
      "."
    ],
    [
      "ꯅ",
      "ꯟ"
    ],
    [
      "ꯕꯦ",
      "</w>"
    ],
    [
      "ꯄ",
      "ꯗꯒꯤ</w>"
    ],
    [
      "ꯊꯥ",
      "ꯗ</w>"
    ],
    [
      "ꯁꯥ",
      "ꯗ</w>"
    ],
    [
      "ꯌꯣ",
      "</w>"
    ],
    [
      "ꯑꯣꯔ",
      "ꯗꯔ</w>"
    ],
    [
      "ꯒ꯭",
      "ꯂꯥ"
    ],
    [
      "ꯈꯟ",
      "ꯒꯠ"
    ],
    [
      "ꯌꯦꯡ",
      "ꯕ</w>"
    ],
    [
      "ꯁꯤ",
      "ꯌꯦꯜ</w>"
    ],
    [
      "꯲꯰꯱",
      "꯸ꯒꯤ</w>"
    ],
    [
      "ꯉꯝ",
      "ꯗꯕ</w>"
    ],
    [
      "ꯂꯤ",
      "ꯗ</w>"
    ],
    [
      "ꯊ",
      "ꯕ</w>"
    ],
    [
      "ꯀꯤ",
      "ꯡ"
    ],
    [
      "ꯅꯨꯡ",
      "ꯒꯤ</w>"
    ],
    [
      "ꯁꯇꯤ",
      "ꯇ꯭ꯌꯨ"
    ],
    [
      "ꯏ",
      "ꯀꯥꯏ</w>"
    ],
    [
      "ꯔ",
      "ꯥꯎ"
    ],
    [
      "ꯍꯤꯟ",
      "ꯗꯤ</w>"
    ],
    [
      "ꯌꯥ",
      "ꯅꯕ</w>"
    ],
    [
      ".ꯑꯦꯐ",
      "."
    ],
    [
      "ꯑꯁꯤ",
      "ꯁꯨ</w>"
    ],
    [
      "ꯂꯕ",
      "ꯗꯤ,</w>"
    ],
    [
      "ꯍꯧꯖꯤ",
      "ꯛꯇꯤ</w>"
    ],
    [
      "ꯅꯣꯔ",
      "ꯊ</w>"
    ],
    [
      "ল",
      "া"
    ],
    [
      "ꯏꯪ",
      "ꯂꯤꯁ</w>"
    ],
    [
      "ꯜꯂ",
      "ꯨ"
    ],
    [
      "ꯁꯤꯜꯂ",
      "ꯛ"
    ],
    [
      "ꯄꯥꯛ",
      "ꯄ</w>"
    ],
    [
      "ꯖꯣ",
      "ꯔ"
    ],
    [
      "ꯣꯏ",
      "ꯗ</w>"
    ],
    [
      "ꯆꯠ",
      "ꯂꯤ</w>"
    ],
    [
      "ব",
      "ি"
    ],
    [
      "ꯕ",
      "ꯝ</w>"
    ],
    [
      "ꯔꯥ",
      "ꯁꯇ꯭ꯔ"
    ],
    [
      "ꯇꯥ",
      "ꯒꯤ</w>"
    ],
    [
      "ꯑꯁꯤ",
      ",</w>"
    ],
    [
      ".ꯑꯦ",
      ".</w>"
    ],
    [
      "ꯆꯤꯡ",
      "ꯁꯤꯟ"
    ],
    [
      "ꯆꯥꯎ",
      "ꯅ</w>"
    ],
    [
      "-",
      "ꯁꯥ"
    ],
    [
      "ꯃꯤ",
      "ꯗꯤ"
    ],
    [
      "ꯌꯣ",
      "ꯟꯕ</w>"
    ],
    [
      "ꯊꯨ",
      "ꯒꯥꯏ"
    ],
    [
      "ꯂꯝꯕꯤ",
      "ꯗ</w>"
    ],
    [
      "ꯔꯣ",
      "ꯟ"
    ],
    [
      "ꯍꯧꯔꯛ",
      "ꯐꯝ</w>"
    ],
    [
      "ꯁꯦꯡ",
      "ꯂꯕ</w>"
    ],
    [
      "ꯉ",
      "ꯥ</w>"
    ],
    [
      "ꯀꯣ",
      "ꯂꯣ"
    ],
    [
      "ꯃꯆ",
      "ꯥꯛ"
    ],
    [
      "ꯍꯧꯖꯤꯛ",
      "ꯁꯨ</w>"
    ],
    [
      "ꯁ꯭ꯇꯦꯠ",
      "ꯁꯇ</w>"
    ],
    [
      "ꯑꯣꯏ",
      ",</w>"
    ],
    [
      "ꯃꯊ",
      "ꯟꯇ</w>"
    ],
    [
      "ꯀꯣ",
      "ꯜ"
    ],
    [
      "ꯂꯤ",
      "ꯅ</w>"
    ],
    [
      "꯭ꯋ",
      "ꯤ"
    ],
    [
      "ꯈꯨ",
      "ꯔꯨꯝ"
    ],
    [
      "ꯊꯧ",
      "ꯑꯣ"
    ],
    [
      "ꯂꯥꯟꯃꯤ",
      "ꯁꯤꯡꯅ</w>"
    ],
    [
      "ꯁ",
      "ꯄꯨ</w>"
    ],
    [
      "ꯋꯥ",
      "ꯌꯦꯜ</w>"
    ],
    [
      "ꯊ",
      "ꯥꯛꯇ</w>"
    ],
    [
      "ꯈꯨꯗꯣꯡ",
      "ꯊꯤ"
    ],
    [
      "ꯂꯝ",
      "ꯒꯤ</w>"
    ],
    [
      "ꯁ꯭ꯔ",
      "ꯤ</w>"
    ],
    [
      "ꯈꯨꯗꯤꯡ",
      "ꯃꯛꯇ</w>"
    ],
    [
      "ꯠꯇ",
      ",</w>"
    ],
    [
      "ꯄꯦ",
      "ꯔꯥ"
    ],
    [
      "ꯇ꯭ꯔꯦ",
      "ꯛ</w>"
    ],
    [
      "ꯇꯨꯔ",
      "ꯦꯟ</w>"
    ],
    [
      "ꯈ",
      "ꯡ"
    ],
    [
      "ꯃꯇꯨ",
      "ꯡ"
    ],
    [
      "ꯃꯥꯔ",
      "ꯆ</w>"
    ],
    [
      "ꯁꯤ",
      "ꯌ"
    ],
    [
      "ꯂꯩꯇꯦ",
      "</w>"
    ],
    [
      "ꯂꯤ",
      "ꯟ</w>"
    ],
    [
      "ꯁꯥꯎ",
      "ꯊ</w>"
    ],
    [
      "ꯏꯁꯩ-ꯅꯣꯡ",
      "ꯃꯥꯏ</w>"
    ],
    [
      "ꯊꯝ",
      "ꯈꯤ</w>"
    ],
    [
      "ꯐꯠꯇ",
      "ꯕ</w>"
    ],
    [
      "ꯊꯨ",
      "ꯡ"
    ],
    [
      "ꯌꯥꯎ",
      "ꯏ</w>"
    ],
    [
      "ꯍꯔ",
      "ꯥꯎ"
    ],
    [
      "ꯅꯤ",
      "ꯌꯥ</w>"
    ],
    [
      "ꯃꯦ",
      "ꯜ</w>"
    ],
    [
      "ꯁ꯭ꯀ꯭ꯋ",
      "ꯥꯔ</w>"
    ],
    [
      "ꯂ",
      "ꯝꯗ</w>"
    ],
    [
      "ꯌꯦ",
      "ꯠ"
    ],
    [
      "ꯁꯦꯞꯇꯦ",
      "ꯝꯕꯔ</w>"
    ],
    [
      "ꯂꯤ",
      "ꯛ</w>"
    ],
    [
      "ꯌꯦ",
      "ꯛ"
    ],
    [
      "ꯇ꯭ꯔ",
      "</w>"
    ],
    [
      "ꯕ",
      "ꯟ"
    ],
    [
      "ꯖ",
      "ꯩ"
    ],
    [
      "ꯠ",
      "ꯃꯦꯟ"
    ],
    [
      "ꯖꯤ",
      "ꯂꯥꯗ</w>"
    ],
    [
      "ꯍꯛꯊꯦꯡ",
      "ꯅꯅ</w>"
    ],
    [
      "ꯄ꯭ꯔꯗꯦ",
      "ꯁꯀꯤ</w>"
    ],
    [
      "ꯒ",
      "ꯟ"
    ],
    [
      "ꯌꯥ",
      "ꯅꯤꯡ"
    ],
    [
      "ꯀ",
      "ꯨꯝꯕ</w>"
    ],
    [
      "ꯅ",
      "ꯆꯤꯡ"
    ],
    [
      "ꯑꯦꯄ꯭ꯔꯤ",
      "ꯜ</w>"
    ],
    [
      "ꯈꯪ",
      "ꯅꯩ</w>"
    ],
    [
      "ꯔꯤ",
      "ꯉꯩ</w>"
    ],
    [
      "ꯄꯥ",
      "ꯠ</w>"
    ],
    [
      "ꯃꯔꯨ",
      "ꯞ</w>"
    ],
    [
      "ꯌꯦ",
      "ꯠ</w>"
    ],
    [
      "ꯈꯪ",
      "ꯍꯧ"
    ],
    [
      "ꯃꯄꯨ",
      "ꯡ"
    ],
    [
      "ꯃ",
      "ꯍꯤ"
    ],
    [
      "ꯒꯥꯟ",
      "ꯙꯤ"
    ],
    [
      "ꯅꯨ",
      "</w>"
    ],
    [
      "ꯖ",
      "ꯒꯤ</w>"
    ],
    [
      "ꯁꯦ",
      "ꯛ"
    ],
    [
      "ꯇꯝ",
      "ꯕꯤ"
    ],
    [
      "ꯄꯤ",
      "ꯔꯤ꯫</w>"
    ],
    [
      "ꯍꯥꯏꯕ",
      "ꯗꯤ</w>"
    ],
    [
      "ꯗꯦ",
      "ꯜ"
    ],
    [
      "ꯑꯦ",
      "ꯀꯥꯎꯟ"
    ],
    [
      "ꯂꯥꯏꯑꯣ",
      "ꯡꯁꯤꯡ</w>"
    ],
    [
      "ꯑꯦꯐ",
      ".</w>"
    ],
    [
      "র",
      "ো"
    ],
    [
      "ꯑꯣꯛꯇꯣ",
      "ꯕꯔ</w>"
    ],
    [
      "ꯇ",
      "꯭ꯌ"
    ],
    [
      "ꯁꯥꯟꯅ",
      "ꯈꯤ꯫</w>"
    ],
    [
      "ꯑꯃ",
      "ꯕꯨ</w>"
    ],
    [
      "ꯔꯕ",
      "ꯗꯤ,</w>"
    ],
    [
      "ꯄꯥꯝ",
      "ꯕꯤ"
    ],
    [
      "ꯔꯦ",
      "ꯗ</w>"
    ],
    [
      "ꯄꯥꯡꯊꯣꯛ",
      "ꯈꯤ</w>"
    ],
    [
      "ꯆꯥꯡ",
      "ꯗ"
    ],
    [
      "ꯖꯨ",
      "ꯂꯥꯏ</w>"
    ],
    [
      "ꯖꯤ",
      "."
    ],
    [
      "ꯒ꯭ꯔ",
      "ꯤ</w>"
    ],
    [
      "ꯄꯨ",
      "ꯔꯒꯤ</w>"
    ],
    [
      "ꯂꯦ",
      "ꯠ</w>"
    ],
    [
      "ꯄꯥꯟ",
      "ꯗꯝ</w>"
    ],
    [
      "ꯊ",
      "ꯪ</w>"
    ],
    [
      "ꯂꯨ",
      "ꯞ"
    ],
    [
      "ꯕ",
      "꯭ꯌꯨ"
    ],
    [
      "ꯊ",
      "ꯋꯥꯏ</w>"
    ],
    [
      "ꯋꯥ",
      "ꯀ"
    ],
    [
      "ꯍꯦ",
      "ꯜ"
    ],
    [
      "ꯀꯦ",
      "ꯁ"
    ],
    [
      "ꯁ꯭",
      "ꯀꯦ"
    ],
    [
      "ꯑꯏꯪ",
      "-ꯑ"
    ],
    [
      "ꯀꯔ",
      "ꯅ</w>"
    ],
    [
      "ꯝ",
      "ꯁꯤꯡꯒꯤ</w>"
    ],
    [
      "ꯄꯥꯝꯕ",
      "ꯩ</w>"
    ],
    [
      "ꯑ",
      "ꯊꯣꯏ"
    ],
    [
      "ꯕꯦ",
      "ꯗ"
    ],
    [
      "ꯑꯌꯥꯝ",
      "ꯕꯗꯤ</w>"
    ],
    [
      "ꯆꯤ",
      "ꯡ</w>"
    ],
    [
      "ꯈꯣ",
      "ꯟ"
    ],
    [
      "ꯃꯋ",
      "ꯣꯡ</w>"
    ],
    [
      "ꯐꯦꯕ꯭ꯔꯨ",
      "ꯋꯥꯔꯤ</w>"
    ],
    [
      "ꯇꯧ",
      "ꯏ</w>"
    ],
    [
      "ꯃꯃꯥ",
      "ꯡ</w>"
    ],
    [
      "ꯂꯥꯏ",
      "ꯑꯣꯡ</w>"
    ],
    [
      "মখ",
      "োয়"
    ],
    [
      "ꯈꯨꯡꯒꯪ",
      "ꯒꯤ</w>"
    ],
    [
      "ꯃꯅ",
      "ꯥꯎ"
    ],
    [
      "ꯅ",
      "ꯍꯥ</w>"
    ],
    [
      "ꯌ",
      "ꯔꯒꯤ</w>"
    ],
    [
      "ꯀꯝ",
      "ꯃꯤ"
    ],
    [
      "ꯑꯣꯏ",
      "ꯔꯒ</w>"
    ],
    [
      "ꯁꯤ",
      "ꯅꯦ"
    ],
    [
      "ꯀꯨ",
      "ꯟ"
    ],
    [
      "ꯂ",
      "ꯗꯨꯅ</w>"
    ],
    [
      "ꯁꯦꯟ",
      "ꯃꯤꯠ"
    ],
    [
      "ꯂꯤꯡꯈꯠ",
      "ꯈꯤ꯫</w>"
    ],
    [
      "ꯄꯤ",
      "ꯗꯨꯅ</w>"
    ],
    [
      "ꯃꯤꯡ",
      "ꯊꯣ"
    ],
    [
      "ꯐ꯭ꯔ",
      "ꯦꯟ"
    ],
    [
      "ꯃ",
      "ꯨ</w>"
    ],
    [
      "ꯇ꯭ꯔꯤ",
      "ꯛ</w>"
    ],
    [
      "ꯂꯩ",
      "ꯕꯒꯤ</w>"
    ],
    [
      "ꯐꯦ",
      "ꯛ"
    ],
    [
      "ꯆꯦꯝꯄꯤꯌꯟꯁꯤ",
      "ꯞ</w>"
    ],
    [
      "ꯁꯦꯜ",
      "-ꯊꯨꯝꯒꯤ</w>"
    ],
    [
      "ꯒꯨ",
      "ꯝ</w>"
    ],
    [
      "ꯥꯡ",
      "ꯕ</w>"
    ],
    [
      "ꯁꯃꯨꯗ꯭ꯔ",
      "ꯒꯤ</w>"
    ],
    [
      "ꯃꯈ",
      "ꯥ"
    ],
    [
      "ꯉ",
      "ꯁꯤ</w>"
    ],
    [
      "অ",
      "সি"
    ],
    [
      "প",
      "ু"
    ],
    [
      "ꯑꯣꯏ",
      "ꯈꯤ,</w>"
    ],
    [
      "ꯁ",
      "ꯛꯄ</w>"
    ],
    [
      "ꯂꯥꯟꯃꯤ",
      "ꯒꯤ</w>"
    ],
    [
      "ꯖꯦꯅ",
      "ꯔꯦꯜ</w>"
    ],
    [
      "ꯍꯥꯏ",
      "ꯔꯤ</w>"
    ],
    [
      "ꯍꯤ",
      "ꯃꯥ"
    ],
    [
      "ꯂꯣ",
      "ꯝꯗ</w>"
    ],
    [
      "ꯁ꯭ꯋꯤꯗꯦꯟ",
      "ꯒꯤ</w>"
    ],
    [
      "ꯆ",
      "ꯩ</w>"
    ],
    [
      "ꯁ꯭",
      "ꯌꯦꯜ</w>"
    ],
    [
      "꯳",
      "꯰</w>"
    ],
    [
      "ꯑꯆ",
      "ꯨꯝꯕ</w>"
    ],
    [
      "ꯀꯦꯂꯤ",
      "ꯐꯣꯔ"
    ],
    [
      "ꯍꯣ",
      "ꯀꯤ</w>"
    ],
    [
      "ꯑꯍ",
      "ꯤ"
    ],
    [
      "ꯎꯠ",
      "ꯂꯤ</w>"
    ],
    [
      "꯱",
      "꯱"
    ],
    [
      "ꯇ",
      "ꯥꯟꯅ"
    ],
    [
      "ꯇ꯭ꯔꯣ",
      "ꯄꯤ"
    ],
    [
      "ꯏ",
      "ꯂꯤ"
    ],
    [
      "ব",
      "ে"
    ],
    [
      "ꯍꯟ",
      "ꯗꯣꯛ"
    ],
    [
      "ꯆꯪ",
      "ꯕ</w>"
    ],
    [
      "ꯚꯥꯔ",
      "ꯠꯅ</w>"
    ],
    [
      "ꯆꯥꯡꯗ",
      "ꯝꯅ"
    ],
    [
      "ꯁꯣ",
      "ꯟ"
    ],
    [
      "ꯊꯥꯛ",
      "ꯀꯤ</w>"
    ],
    [
      "ꯅꯕꯦ",
      "ꯝꯕꯔ</w>"
    ],
    [
      "ꯖꯤ",
      "ꯡ</w>"
    ],
    [
      "ꯈꯪ",
      "ꯂꯛ"
    ],
    [
      "ꯀ",
      "ꯅꯤ꯫</w>"
    ],
    [
      "ꯃꯥꯟꯅ",
      "ꯅ</w>"
    ],
    [
      "ꯀꯥꯡ",
      "ꯂꯣꯟ</w>"
    ],
    [
      "ꯇ",
      "ꯩ"
    ],
    [
      "ꯄ꯭",
      "ꯂꯤ"
    ],
    [
      "ꯈꯟ",
      "ꯈꯤ꯫</w>"
    ],
    [
      "ꯐꯪ",
      "ꯈꯤꯕ</w>"
    ],
    [
      "ꯂꯦꯟ",
      "ꯗ"
    ],
    [
      "ꯍꯩ",
      "ꯁꯤꯡ"
    ],
    [
      "ꯂꯥꯎꯊꯣꯛ",
      "ꯈꯤ꯫</w>"
    ],
    [
      "ꯀ꯭ꯔꯤ",
      "ꯁ"
    ],
    [
      "ꯕ",
      "ꯪ"
    ],
    [
      "ꯆꯤꯟꯖ",
      "ꯥꯛ"
    ],
    [
      "ꯔ",
      "ꯒ"
    ],
    [
      "ꯃꯍꯥꯔꯥ",
      "ꯁꯇ꯭ꯔ"
    ],
    [
      "꯲꯰꯱",
      "꯳ꯒꯤ</w>"
    ],
    [
      "ꯅꯥ",
      ",</w>"
    ],
    [
      "ꯙ",
      "ꯥꯟ</w>"
    ],
    [
      "ꯈꯨ",
      "ꯝ</w>"
    ],
    [
      "ꯅꯧ",
      "ꯅ</w>"
    ],
    [
      "ꯚꯥꯔ",
      "ꯠ"
    ],
    [
      "ꯅꯦ",
      "ꯝ"
    ],
    [
      "ꯇꯤ",
      "ꯝꯒꯤ</w>"
    ],
    [
      "ꯁ꯭",
      "ꯇꯨ"
    ],
    [
      "ꯑꯥꯔ",
      ".</w>"
    ],
    [
      "ꯃ꯭ꯌꯨꯅꯤꯁꯤꯄꯥꯂꯤ",
      "ꯇꯤ</w>"
    ],
    [
      "ꯁꯤꯟ",
      "ꯈꯤ꯫</w>"
    ],
    [
      "ꯁꯤ",
      "ꯖ"
    ],
    [
      "ꯕꯤ",
      "ꯜ"
    ],
    [
      "ꯑꯣ",
      "ꯄꯔꯦ"
    ],
    [
      "ꯊꯤꯖꯤꯟ",
      "-ꯍꯨꯝ"
    ],
    [
      "ꯑꯦꯟ",
      ".</w>"
    ],
    [
      "ꯑ",
      "ꯁ"
    ],
    [
      "ꯗꯤ",
      "ꯒ꯭ꯔꯤ</w>"
    ],
    [
      "ꯑꯣꯏ",
      "ꯔꯕ</w>"
    ],
    [
      "ꯁꯔꯕꯤ",
      "ꯁ</w>"
    ],
    [
      "ꯅ",
      "ꯁ</w>"
    ],
    [
      "ꯑꯍꯨꯝ",
      "ꯒꯤ</w>"
    ],
    [
      "ꯂꯣꯏꯅ",
      "ꯅ,</w>"
    ],
    [
      "ꯈ",
      "ꯟꯕ</w>"
    ],
    [
      "ꯁꯤ",
      "ꯂꯤ"
    ],
    [
      "ꯁꯦꯟ",
      "ꯗꯣ"
    ],
    [
      "ম",
      "সি"
    ],
    [
      "গ",
      "া</w>"
    ],
    [
      "ꯑꯁꯤ",
      "ꯗ,</w>"
    ],
    [
      "ꯇꯥꯛ",
      "ꯄ"
    ],
    [
      "ꯉ",
      "ꯁꯤ"
    ],
    [
      "ꯁ꯭ꯇꯥꯔ",
      "</w>"
    ],
    [
      "ꯍꯟ",
      "ꯗꯨꯅ</w>"
    ],
    [
      "ꯀ",
      "ꯔꯣ"
    ],
    [
      "ꯆꯥꯡ",
      "ꯌꯦꯡ</w>"
    ],
    [
      "ꯑꯦ",
      "ꯀꯥ"
    ],
    [
      "ꯇꯦ",
      "ꯛ</w>"
    ],
    [
      "ꯀꯥꯎꯟ",
      "ꯇꯤꯒꯤ</w>"
    ],
    [
      "ম",
      "ে"
    ],
    [
      "ꯄꯥꯝ",
      "ꯕ</w>"
    ],
    [
      "ꯃꯍꯩ-",
      "ꯃꯔ"
    ],
    [
      "ꯁꯣ",
      "ꯔ"
    ],
    [
      "ꯄꯥꯀꯤ",
      "ꯁꯇ"
    ],
    [
      "ꯈꯨꯟ",
      "ꯅꯥꯏꯒꯤ</w>"
    ],
    [
      "ꯃ",
      "ꯒꯨ"
    ],
    [
      "ꯄꯨꯝꯅ",
      "ꯃꯛꯀꯤ</w>"
    ],
    [
      "ꯆꯥꯏ",
      "ꯅꯥꯒꯤ</w>"
    ],
    [
      "ꯑꯁꯤ",
      "ꯗꯒꯤ</w>"
    ],
    [
      "ꯐ꯭ꯔꯥꯟ",
      "ꯁꯀꯤ</w>"
    ],
    [
      "ꯂꯩꯕ",
      "ꯅ</w>"
    ],
    [
      "ꯅꯣ",
      "ꯃꯤ"
    ],
    [
      "ꯃꯙ",
      "꯭ꯌ</w>"
    ],
    [
      "ꯁꯦꯝ",
      "ꯈꯤ</w>"
    ],
    [
      "ꯈꯨꯠ",
      "ꯂꯥꯏ</w>"
    ],
    [
      "ꯖꯤꯟ",
      "ꯕꯒꯤ</w>"
    ],
    [
      "꯲꯰꯱",
      "꯱ꯒꯤ</w>"
    ],
    [
      "ꯏꯁ",
      "ꯠ</w>"
    ],
    [
      "ꯑꯣꯏ",
      "ꯔꯤ</w>"
    ],
    [
      "ং",
      "দা</w>"
    ],
    [
      "হ",
      "ৌ"
    ],
    [
      "ꯈꯨꯗꯤꯡ",
      "ꯃꯛ</w>"
    ],
    [
      "ꯁꯨ",
      "ꯝ"
    ],
    [
      "ꯃꯆꯥ",
      "ꯅꯨꯄꯥ"
    ],
    [
      "ꯔ",
      "ꯨ</w>"
    ],
    [
      "ꯏ",
      "-"
    ],
    [
      "ꯕ",
      "ꯩ"
    ],
    [
      "ꯂꯩ",
      "ꯐꯝ</w>"
    ],
    [
      "ꯁꯦꯟ",
      "ꯁ"
    ],
    [
      "꯲꯰꯲",
      "꯱ꯒꯤ</w>"
    ],
    [
      "মহাক্",
      "না</w>"
    ],
    [
      "ꯑ",
      "ꯔꯥ"
    ],
    [
      "ꯃꯍꯥꯛ",
      "ꯀ</w>"
    ],
    [
      "ꯍ",
      "ꯝ"
    ],
    [
      "ꯏ",
      ".</w>"
    ],
    [
      "ꯁꯤ",
      "ꯈꯤ</w>"
    ],
    [
      "ꯐꯪ",
      "ꯅꯕ</w>"
    ],
    [
      "ꯋꯥ",
      "ꯍꯟ"
    ],
    [
      "ꯁ꯭",
      "ꯇ꯭ꯔꯤ"
    ],
    [
      "ꯇꯣ",
      "ꯞꯄ</w>"
    ],
    [
      "ꯈꯦ",
      "ꯠꯅꯕ</w>"
    ],
    [
      "ꯕ꯭ꯔ",
      "ꯥ</w>"
    ],
    [
      "ꯇ꯭ꯔꯥꯟ",
      "ꯁ"
    ],
    [
      "ꯒꯣ",
      "</w>"
    ],
    [
      "ꯄꯥꯟꯖ",
      "ꯜ</w>"
    ],
    [
      "ꯋꯦ",
      "ꯜ"
    ],
    [
      "ꯛꯇ",
      "ꯥ</w>"
    ],
    [
      "-",
      "ꯇꯥꯛ"
    ],
    [
      "ꯅꯨꯄꯤ",
      "ꯁꯤꯡꯒꯤ</w>"
    ],
    [
      "ꯁꯤꯑꯦ",
      "ꯜ</w>"
    ],
    [
      "ꯃꯦ",
      "ꯔꯤ"
    ],
    [
      "꯱",
      "꯰꯰"
    ],
    [
      "ꯁ",
      "ꯅꯥꯒꯤ</w>"
    ],
    [
      "ꯈꯨ",
      "ꯠ</w>"
    ],
    [
      "ꯈꯪꯍꯧ",
      "ꯗꯅ</w>"
    ],
    [
      "ত",
      "ে"
    ],
    [
      "ꯗꯧ",
      "ꯔꯤꯕ</w>"
    ],
    [
      "ꯐꯥꯏ",
      "ꯅꯦ"
    ],
    [
      "ꯁꯦ",
      "ꯝ</w>"
    ],
    [
      "ꯐꯪ",
      "ꯂꯕ</w>"
    ],
    [
      "ꯇꯦ",
      "ꯗ</w>"
    ],
    [
      "ꯊꯤ",
      "ꯕꯒꯤ</w>"
    ],
    [
      "ꯏ",
      "ꯁꯤꯡ"
    ],
    [
      "ꯍ",
      "ꯔꯤ"
    ],
    [
      "ꯀꯦ",
      "ꯁꯟ</w>"
    ],
    [
      "ꯂꯩ",
      "ꯇꯕ</w>"
    ],
    [
      "ꯔ",
      "ꯥꯛ</w>"
    ],
    [
      "ꯅꯨꯄꯤ",
      "ꯒꯤ</w>"
    ],
    [
      "ꯔꯥ",
      "ꯒꯤ</w>"
    ],
    [
      "꯱",
      "꯵</w>"
    ],
    [
      "ꯀ",
      "ꯞ</w>"
    ],
    [
      "ꯏꯃꯨ",
      "ꯡ-"
    ],
    [
      "ꯕ",
      "ꯇ</w>"
    ],
    [
      "ꯋꯦ",
      "ꯁꯇꯔ"
    ],
    [
      "মহা",
      "ক</w>"
    ],
    [
      "ꯕꯣ",
      "ꯝ"
    ],
    [
      "ꯑꯣꯂꯤꯝꯄꯤ",
      "ꯛ</w>"
    ],
    [
      "ꯊꯣꯛ",
      "ꯂꯛꯄ</w>"
    ],
    [
      "ꯔꯦ",
      "ꯇꯤ"
    ],
    [
      "ত",
      "ো"
    ],
    [
      "ꯗ",
      "ꯝꯗ</w>"
    ],
    [
      "ꯀꯦꯟ",
      "ꯁꯔ"
    ],
    [
      "ꯅꯥꯏ",
      "ꯖꯦ"
    ],
    [
      "ꯀ꯭",
      "ꯂꯥꯏ"
    ],
    [
      "ꯀ꯭",
      "ꯂꯦ"
    ],
    [
      "ꯂ",
      "ꯥꯔ"
    ],
    [
      "ꯐꯤ",
      "ꯔꯣ"
    ],
    [
      "ꯍꯤꯗ",
      "ꯥꯛ</w>"
    ],
    [
      "ꯂꯥꯎꯊꯣꯛ",
      "ꯈꯤ</w>"
    ],
    [
      "ꯇ꯭ꯔꯤ",
      "ꯉꯩ</w>"
    ],
    [
      "ꯀꯔꯣ",
      "ꯔ</w>"
    ],
    [
      "ꯁꯤꯟ",
      "ꯗꯨꯅ</w>"
    ],
    [
      "ꯄꯥꯟ",
      "ꯗꯝ"
    ],
    [
      "ꯛꯇ",
      "ꯨꯅ</w>"
    ],
    [
      "ꯡ",
      ",</w>"
    ],
    [
      "ꯇꯦꯟ",
      "ꯕ</w>"
    ],
    [
      "ꯇꯤ",
      "ꯅꯦꯟ"
    ],
    [
      "꯵",
      "꯰"
    ],
    [
      "ꯍꯣ",
      "ꯟ"
    ],
    [
      "ব",
      "া"
    ],
    [
      "ꯖ",
      "ꯍꯥ"
    ],
    [
      "ꯅ",
      "ꯛ"
    ],
    [
      "ꯕꯤ",
      "ꯒꯤ</w>"
    ],
    [
      "ꯃꯨꯁꯂꯤ",
      "ꯝ</w>"
    ],
    [
      "ꯄꯥꯏ",
      "ꯕ</w>"
    ],
    [
      "ꯍꯟ",
      "ꯗ"
    ],
    [
      "ꯔ",
      ",</w>"
    ],
    [
      "ꯐꯤꯜ",
      "ꯝ</w>"
    ],
    [
      "ꯖꯤ",
      "ꯜ</w>"
    ],
    [
      "ꯁ꯭ꯀꯣ",
      "ꯔ</w>"
    ],
    [
      "ꯇꯤ",
      ",</w>"
    ],
    [
      "ꯑꯗꯨ",
      "ꯁꯨ</w>"
    ],
    [
      "ꯀꯅꯥ",
      "ꯒꯨꯝꯕ</w>"
    ],
    [
      "ꯔꯦ",
      "ꯝ"
    ],
    [
      "ꯁꯤꯖꯤꯟꯅ",
      "ꯔꯤꯕ</w>"
    ],
    [
      "ꯔꯦꯟ",
      "ꯁ</w>"
    ],
    [
      "য",
      "ু"
    ],
    [
      "ꯍ",
      "ꯜꯂꯤ,</w>"
    ],
    [
      "ꯀ꯭ꯔꯤ",
      "ꯀꯦꯠ</w>"
    ],
    [
      "ꯁꯥ",
      "ꯍ</w>"
    ],
    [
      "ꯕ꯭ꯔ",
      "ꯍ"
    ],
    [
      "ꯋꯥꯔ",
      "ꯣꯜ</w>"
    ],
    [
      "ꯀꯤ",
      ",</w>"
    ],
    [
      "ꯇꯥꯛ",
      "ꯂꯤ</w>"
    ],
    [
      "ꯄꯨꯂꯤ",
      "ꯁꯅ</w>"
    ],
    [
      "ꯄ",
      "ꯥꯟꯕ</w>"
    ],
    [
      "ꯕ",
      "ꯖꯦ"
    ],
    [
      "ꯕꯔ",
      "ꯒ"
    ],
    [
      "ꯄ",
      "ꯇꯤ</w>"
    ],
    [
      "ꯂꯦ",
      "ꯞꯄ</w>"
    ],
    [
      "ꯍ",
      "꯭ꯌꯨ"
    ],
    [
      "ꯂꯩꯈꯤ",
      "ꯗ꯭ꯔꯕ</w>"
    ],
    [
      "ꯗ꯭ꯔꯦ",
      "</w>"
    ],
    [
      "ꯂꯩꯔꯝ",
      "ꯕ</w>"
    ],
    [
      "ꯂꯣꯏꯁꯤꯟ",
      "ꯈꯤ꯫</w>"
    ],
    [
      "ꯁ꯭",
      "ꯇꯥ"
    ],
    [
      "ꯇꯧ",
      "ꯕ"
    ],
    [
      "ꯇꯔ",
      "ꯒꯤ</w>"
    ],
    [
      "ꯌꯨꯅꯥꯏꯇꯦ",
      "ꯠ</w>"
    ],
    [
      "ꯂꯝ",
      "ꯗꯝ"
    ],
    [
      "ꯏꯁ",
      "ꯂꯥ"
    ],
    [
      "ꯁ꯭",
      "ꯋꯥ"
    ],
    [
      "ꯆꯤ",
      "ꯟ</w>"
    ],
    [
      "ꯈꯠ",
      "ꯂꯛ"
    ],
    [
      "ꯁꯥ",
      "ꯅꯕ</w>"
    ],
    [
      "ꯃꯨ",
      "ꯔ"
    ],
    [
      "ꯄꯣꯛ",
      "ꯄ</w>"
    ],
    [
      "ꯜꯂ",
      "ꯝ"
    ],
    [
      "ꯇꯔ",
      "ꯗ</w>"
    ],
    [
      "ꯗ",
      "ꯕꯅ</w>"
    ],
    [
      "ꯊꯧ",
      "ꯔꯥꯡ"
    ],
    [
      "ꯅꯠ",
      "ꯇ"
    ],
    [
      "ꯆꯥꯡꯆꯠ",
      "ꯇ</w>"
    ],
    [
      "ꯗꯤ",
      "ꯐꯦꯟ"
    ],
    [
      "ꯃꯤ",
      "ꯁꯤꯡꯅ</w>"
    ],
    [
      "ꯆꯠ",
      "ꯅꯕ</w>"
    ],
    [
      "ꯂꯝ",
      "ꯃꯤ꯫</w>"
    ],
    [
      "-",
      "ꯈꯣ"
    ],
    [
      "ꯑꯦꯁꯣ",
      "ꯁꯤꯑꯦ"
    ],
    [
      "ꯑꯣ",
      "ꯇꯣ"
    ],
    [
      "ꯑꯅꯤ",
      "ꯃꯛꯇ</w>"
    ],
    [
      "ꯃꯤ",
      "ꯌꯥꯝ</w>"
    ],
    [
      "ꯕꯤ",
      "ꯜ</w>"
    ],
    [
      "ꯆꯦꯟ",
      "ꯕ</w>"
    ],
    [
      "ꯍꯧ",
      "ꯒꯠ"
    ],
    [
      "ꯁꯤ",
      "ꯛ"
    ],
    [
      "ꯌꯨꯔꯣ",
      "ꯄꯤ"
    ],
    [
      "হ",
      "ো"
    ],
    [
      "ব",
      "ু</w>"
    ],
    [
      "ꯑ",
      "ꯛ"
    ],
    [
      "ꯂꯧ",
      "ꯈꯤꯕ</w>"
    ],
    [
      "ꯌꯥ",
      "ꯊꯪ</w>"
    ],
    [
      "ꯆ",
      "ꯇ</w>"
    ],
    [
      "ꯠꯇ",
      "ꯥ</w>"
    ],
    [
      "ꯠ",
      "ꯁ"
    ],
    [
      "ꯕꯣ",
      "ꯂꯤ"
    ],
    [
      "ꯇꯦ",
      "ꯂꯪ"
    ],
    [
      "ꯁꯟ",
      "ꯗꯣꯛꯄ</w>"
    ],
    [
      "ꯁꯣ",
      "ꯔ</w>"
    ],
    [
      "ꯗꯣꯛ",
      "</w>"
    ],
    [
      "ꯇ",
      "ꯨꯝ"
    ],
    [
      "ꯀ",
      "ꯗꯕ</w>"
    ],
    [
      "ꯜ",
      "ꯁꯤꯡꯅ</w>"
    ],
    [
      "ꯁꯦꯟ",
      "ꯗ"
    ],
    [
      "ꯂꯨ",
      "ꯞ</w>"
    ],
    [
      "ꯇꯔꯦ",
      "ꯠ</w>"
    ],
    [
      "ꯁꯦꯟ",
      "ꯠ</w>"
    ],
    [
      "ꯇ",
      "ꯉꯥꯏ"
    ],
    [
      "ꯄꯥꯛ",
      "-"
    ],
    [
      ".ꯑꯦꯝ",
      "."
    ],
    [
      "ꯑꯏꯪ-ꯑ",
      "ꯁꯥꯒꯤ</w>"
    ],
    [
      "ꯑꯦ",
      "ꯅꯤ"
    ],
    [
      "ꯗꯦ",
      "ꯃꯣ"
    ],
    [
      "ꯅ",
      "ꯉꯣꯟꯗ</w>"
    ],
    [
      "অ",
      "দু"
    ],
    [
      "খ",
      "ি"
    ],
    [
      "ꯁꯨ",
      "ꯔ"
    ],
    [
      "ꯄꯣꯠ",
      "-"
    ],
    [
      "ꯇ",
      "ꯟ"
    ],
    [
      "ꯂꯧꯎ-ꯁꯤꯡ",
      "ꯎ"
    ],
    [
      "ꯑ",
      "ꯁꯥ"
    ],
    [
      "ꯆꯤ",
      "ꯟꯕ</w>"
    ],
    [
      "ꯈꯨꯗꯤꯡ",
      "ꯃꯛꯀꯤ</w>"
    ],
    [
      "ꯕꯦꯡ",
      "ꯛ</w>"
    ],
    [
      "ꯗꯨ",
      "ꯀꯥꯟ"
    ],
    [
      "ꯌꯨ",
      ".ꯑꯦꯁ.</w>"
    ],
    [
      "ন",
      "া"
    ],
    [
      "ꯂꯦꯟ",
      "ꯗꯒꯤ</w>"
    ],
    [
      "ꯄꯤ",
      "ꯈꯤꯕ</w>"
    ],
    [
      "ꯁꯤ",
      "ꯇꯤꯗ</w>"
    ],
    [
      "ꯄꯥꯝ",
      "ꯖꯕ</w>"
    ],
    [
      "ꯐ",
      "ꯨ</w>"
    ],
    [
      "ꯕꯣꯛ",
      "ꯁ</w>"
    ],
    [
      "ꯑꯣ",
      "ꯔꯤ"
    ],
    [
      "ꯙ",
      "꯭ꯔ"
    ],
    [
      "ꯄꯤ",
      "ꯕꯒꯤ</w>"
    ],
    [
      "ꯈꯠ",
      "ꯄ</w>"
    ],
    [
      "ꯑꯀꯥꯏ",
      "ꯕ</w>"
    ],
    [
      "ꯃꯁꯤ",
      "ꯒ</w>"
    ],
    [
      "ꯀ",
      "ꯁꯃꯤ"
    ],
    [
      "ꯎꯠ",
      "ꯇꯔ</w>"
    ],
    [
      "ꯕꯣ",
      "ꯜꯒꯤ</w>"
    ],
    [
      "ꯀꯧ",
      "ꯏ꯫</w>"
    ],
    [
      "ꯊꯦ",
      "ꯔꯥ"
    ],
    [
      "ꯗꯦ",
      "ꯇꯥ</w>"
    ],
    [
      "ই",
      "ং</w>"
    ],
    [
      "ꯇꯣꯉ",
      "ꯥꯟ</w>"
    ],
    [
      "ꯄꯥꯎ",
      "ꯈꯨꯝ</w>"
    ],
    [
      "ꯈꯣ",
      "ꯡ</w>"
    ],
    [
      "ꯄꯨꯟ",
      "ꯁꯤꯒꯤ</w>"
    ],
    [
      "ꯂꯧ",
      "ꯅꯕ</w>"
    ],
    [
      "ꯃꯛ",
      "ꯄꯨ</w>"
    ],
    [
      "ꯐ꯭",
      "ꯂꯦ"
    ],
    [
      "ꯅꯥ",
      "ꯊ"
    ],
    [
      "ꯗꯥ",
      ",</w>"
    ],
    [
      "ꯔꯦ",
      "ꯖꯤ"
    ],
    [
      "ꯕꯥ",
      "ꯁ"
    ],
    [
      "্র",
      "ি"
    ],
    [
      "ꯈ",
      "ꯣꯏ"
    ],
    [
      "ꯖꯤ",
      "ꯅ</w>"
    ],
    [
      "ꯂ",
      "ꯣꯛ</w>"
    ],
    [
      "ꯂꯣ",
      "ꯜ</w>"
    ],
    [
      "ꯂꯝ",
      "ꯕ</w>"
    ],
    [
      "꯱",
      "ꯗꯒꯤ</w>"
    ],
    [
      "ꯍꯦꯟꯗ",
      "ꯥꯟꯅ"
    ],
    [
      "্র",
      "ে"
    ],
    [
      "ꯂꯩꯉꯥꯛ",
      "ꯂꯣꯟꯒꯤ</w>"
    ],
    [
      "ꯑꯦ",
      "ꯁꯦꯝ"
    ],
    [
      "ꯃꯆꯥ",
      "ꯅꯨꯄꯤ</w>"
    ],
    [
      "ꯅꯕ",
      "ꯁꯤꯡ</w>"
    ],
    [
      "ꯀꯦ",
      "ꯃꯤ"
    ],
    [
      "ꯂꯣꯖꯤ",
      "ꯀꯦꯜ</w>"
    ],
    [
      "ꯕ",
      ")</w>"
    ],
    [
      "ꯏ",
      "ꯝ"
    ],
    [
      "ꯑꯦꯐ",
      "."
    ],
    [
      "য়",
      "া</w>"
    ],
    [
      "থ",
      "োক"
    ],
    [
      "ꯍꯜꯂ",
      "ꯛꯄ</w>"
    ],
    [
      "ꯆꯩ",
      "ꯔꯥꯛ</w>"
    ],
    [
      "ꯕꯦ",
      "ꯡꯒ"
    ],
    [
      "ꯀꯦ",
      "."
    ],
    [
      "ꯕꯦ",
      "ꯂ"
    ],
    [
      "ꯒ",
      "ꯒꯤ</w>"
    ],
    [
      "ꯂꯧ",
      "ꯅꯩ꯫</w>"
    ],
    [
      "ꯁꯦꯝ",
      "ꯅꯕ</w>"
    ],
    [
      "ꯆꯍꯤ",
      "ꯆꯥ</w>"
    ],
    [
      "ꯃꯥꯏ",
      "ꯀꯩ</w>"
    ],
    [
      "ꯝ",
      "ꯁ</w>"
    ],
    [
      "ꯇꯤ",
      "ꯛ"
    ],
    [
      "ꯌꯥꯎ",
      "ꯗꯕ</w>"
    ],
    [
      "ꯊ",
      "ꯛ"
    ],
    [
      "ꯐꯣꯡꯗꯣꯛ",
      "ꯈꯤ꯫</w>"
    ],
    [
      "ꯂ",
      "ꯅꯥꯏꯒꯤ</w>"
    ],
    [
      "ꯄꯣ",
      "ꯟ"
    ],
    [
      "ꯇꯤ",
      "ꯁ"
    ],
    [
      "ꯙ",
      "</w>"
    ],
    [
      "ꯄ꯭ꯔꯤ",
      "ꯟ"
    ],
    [
      "ꯀꯨꯏ",
      "ꯅ</w>"
    ],
    [
      "ꯑꯦ",
      "ꯖꯦꯟ"
    ],
    [
      "ꯀꯝꯄ꯭ꯌꯨ",
      "ꯇꯔ</w>"
    ],
    [
      "মহাক্",
      "কী</w>"
    ],
    [
      "ꯃꯨꯘ",
      "ꯜ</w>"
    ],
    [
      "ꯈꯣꯡꯖ",
      "ꯪ</w>"
    ],
    [
      "ꯄꯤ",
      "ꯔꯤ</w>"
    ],
    [
      "ꯇꯦꯂꯤ",
      "ꯚꯤ"
    ],
    [
      "ꯐ",
      "ꯔ</w>"
    ],
    [
      "ꯄꯥꯡ",
      "ꯅꯕ</w>"
    ],
    [
      "ꯁꯥ",
      "ꯍ"
    ],
    [
      "ꯑꯍꯣꯡ",
      "ꯕ</w>"
    ],
    [
      "ꯑꯗꯨ",
      "ꯃꯛꯇ"
    ],
    [
      "ꯇ",
      "ꯞ"
    ],
    [
      "ꯁꯤꯟ",
      "ꯐꯝ</w>"
    ],
    [
      "ꯕ",
      "ꯥꯛ</w>"
    ],
    [
      "ꯀ",
      "ꯗꯕ"
    ],
    [
      "ꯏ",
      "ꯀꯣ"
    ],
    [
      "ꯇꯉꯥꯏ",
      "ꯐ"
    ],
    [
      "ꯂꯥꯏ",
      "ꯁꯣ"
    ],
    [
      "ꯀꯟ",
      "ꯇꯤꯅꯦꯟ"
    ],
    [
      "ꯂꯂꯣꯟ-ꯏ",
      "ꯇꯤꯛꯀꯤ</w>"
    ],
    [
      "ꯄꯣꯠ",
      "ꯂꯝ</w>"
    ],
    [
      "ম্",
      "ব"
    ],
    [
      "জ",
      "</w>"
    ],
    [
      "মী",
      "ওই"
    ],
    [
      "ꯗꯤ",
      "ꯒꯤ</w>"
    ],
    [
      "ꯃꯅꯨ",
      "ꯡꯗ,</w>"
    ],
    [
      "ꯁꯥ",
      "ꯒꯠ"
    ],
    [
      "ꯗꯨ",
      "ꯔ"
    ],
    [
      "ꯑꯁꯤ",
      "ꯒ</w>"
    ],
    [
      "ꯇꯧ",
      "ꯃꯤꯟ"
    ],
    [
      "ꯃꯣ",
      "ꯔ"
    ],
    [
      "ꯝꯕꯔ",
      "ꯗ</w>"
    ],
    [
      "ꯝ",
      "ꯄ"
    ],
    [
      "ꯗ꯭ꯔ",
      "ꯤ</w>"
    ],
    [
      "ꯏ",
      "ꯇꯥ"
    ],
    [
      "ꯊꯣ",
      "ꯡ</w>"
    ],
    [
      "ꯀ꯭",
      "ꯂꯣ"
    ],
    [
      "ꯌꯨꯅꯤ",
      "ꯌꯟ</w>"
    ],
    [
      "ꯏꯟ",
      "ꯁꯨ"
    ],
    [
      "ꯑ",
      "ꯁꯣ"
    ],
    [
      "-",
      "ꯊꯨꯝ</w>"
    ],
    [
      "꯳",
      "꯰"
    ],
    [
      "ꯄ",
      "ꯗ"
    ],
    [
      "ꯊꯤꯡ",
      "ꯖꯤꯟ"
    ],
    [
      "ꯁꯥ",
      "ꯅ</w>"
    ],
    [
      "ꯂꯩꯕꯥꯛ",
      "ꯁꯤꯡꯗ</w>"
    ],
    [
      "ꯑꯦ",
      "</w>"
    ],
    [
      "ꯄꯥ",
      "ꯜ</w>"
    ],
    [
      "ꯅꯤ",
      "ꯗ</w>"
    ],
    [
      "ꯅꯥ",
      "ꯕ</w>"
    ],
    [
      "ꯗꯤ",
      "ꯠ</w>"
    ],
    [
      "ꯅꯦ",
      "</w>"
    ],
    [
      "ꯑꯥꯏ",
      "ꯟꯒꯤ</w>"
    ],
    [
      "ꯠ",
      "ꯆ</w>"
    ],
    [
      "ꯖꯤ",
      "ꯂꯥ"
    ],
    [
      "ꯅꯤꯡ",
      "ꯊꯝ"
    ],
    [
      "ꯄꯥꯔ",
      "ꯂꯤꯌꯥ"
    ],
    [
      "ꯌꯥ",
      "ꯡ"
    ],
    [
      "ꯈ",
      "ꯥꯟ"
    ],
    [
      "ꯃꯨꯝ",
      "ꯕꯥꯏ"
    ],
    [
      "ꯐꯣꯔ",
      "ꯠ</w>"
    ],
    [
      "ꯉꯝ",
      "ꯕꯒꯤ</w>"
    ],
    [
      "ꯑ",
      "ꯊꯤꯡꯕ</w>"
    ],
    [
      "ꯔꯕ",
      "ꯗꯤ</w>"
    ],
    [
      "ꯜ",
      "ꯒ</w>"
    ],
    [
      "ꯂꯥꯛ",
      "ꯈꯤ꯫</w>"
    ],
    [
      "ꯒꯕꯔ",
      "ꯅꯔ</w>"
    ],
    [
      "ꯒ꯭ꯔꯥ",
      "ꯐꯤ"
    ],
    [
      "ꯗꯤꯜꯂꯤ",
      "ꯗ</w>"
    ],
    [
      "ꯇ",
      "ꯝ</w>"
    ],
    [
      "ꯈꯤ",
      "ꯗꯦ,</w>"
    ],
    [
      "ꯗꯤ",
      "ꯟ</w>"
    ],
    [
      "ꯇꯥꯡꯀ",
      "ꯛ</w>"
    ],
    [
      "ꯅꯣꯡ",
      "ꯃꯩ</w>"
    ],
    [
      "ꯆꯠ",
      "ꯊꯣꯛ-"
    ],
    [
      "ꯃꯦꯟ",
      "ꯠꯀꯤ</w>"
    ],
    [
      "ꯅꯦ",
      "ꯁ꯭"
    ],
    [
      "ꯄꯨ",
      "ꯔꯗ</w>"
    ],
    [
      "ꯍꯜꯂ",
      "ꯕ</w>"
    ],
    [
      "ꯗꯤ",
      "ꯑꯣ</w>"
    ],
    [
      "ꯂꯩ",
      "-"
    ],
    [
      "ꯌꯥꯝ",
      "ꯕ</w>"
    ],
    [
      "ꯂꯥꯟ",
      "ꯅ</w>"
    ],
    [
      "ꯗ",
      "-"
    ],
    [
      "ꯇꯥꯡ",
      "ꯅ</w>"
    ],
    [
      "ꯕꯥ",
      "ꯗ</w>"
    ],
    [
      "ꯆ",
      "ꯥꯟ"
    ],
    [
      "ꯆꯠꯊꯣꯛ-",
      "ꯆꯠ"
    ],
    [
      "ꯖꯤ",
      "ꯒꯤ</w>"
    ],
    [
      "ꯐ꯭",
      "ꯂꯥꯏ"
    ],
    [
      "ꯖ",
      "ꯩ</w>"
    ],
    [
      "ꯄ꯭",
      "ꯂꯥ"
    ],
    [
      "ꯑꯃ",
      ",</w>"
    ],
    [
      "꯲꯰꯱",
      "꯲ꯒꯤ</w>"
    ],
    [
      "ꯀꯣꯔ",
      "ꯄꯣ"
    ],
    [
      "ল",
      "াই"
    ],
    [
      "প",
      "্"
    ],
    [
      "ꯁꯤꯟ",
      "ꯒꯤ</w>"
    ],
    [
      "꯭",
      "ꯁ"
    ],
    [
      "ꯗꯦ",
      "ꯕ"
    ],
    [
      "ꯔꯥꯖ",
      "ꯅꯤ"
    ],
    [
      "ꯜꯂ",
      "ꯛꯄ</w>"
    ],
    [
      "ꯃꯋ",
      "ꯣꯡ"
    ],
    [
      "ꯐꯥꯎ",
      "ꯈꯤ</w>"
    ],
    [
      "ꯇ",
      "꯭ꯌ</w>"
    ],
    [
      "ꯀꯣꯂꯦ",
      "ꯖ</w>"
    ],
    [
      "ꯁꯤ",
      "ꯌꯥ</w>"
    ],
    [
      "ꯇꯣ",
      "ꯔꯕ"
    ],
    [
      "ꯀꯣ",
      "ꯝ"
    ],
    [
      "ꯃꯍꯩ",
      "ꯔꯣꯏ"
    ],
    [
      "ꯇꯣ",
      "ꯞ-"
    ],
    [
      "ꯗꯤ",
      "ꯕꯤ"
    ],
    [
      "ভ",
      "ি"
    ],
    [
      "ꯂꯥꯏꯔꯤ",
      "ꯛ"
    ],
    [
      "ꯂꯣ",
      "ꯟꯗ</w>"
    ],
    [
      "ꯍꯣ",
      "ꯔ"
    ],
    [
      "ꯕꯨꯗ",
      "ꯙꯤ"
    ],
    [
      "'",
      "</w>"
    ],
    [
      "ꯁꯦꯝ",
      "ꯈꯤꯕ</w>"
    ],
    [
      "ꯂꯩ",
      "ꯅꯩ</w>"
    ],
    [
      "চ",
      "া"
    ],
    [
      "20",
      "0"
    ],
    [
      "ꯊꯥ",
      "ꯈꯤ꯫</w>"
    ],
    [
      "ꯀꯥꯎꯟ",
      "ꯇꯤ</w>"
    ],
    [
      "ꯎꯠ",
      "ꯈꯤ꯫</w>"
    ],
    [
      "ꯀꯤ",
      "ꯒꯤ</w>"
    ],
    [
      "ꯜꯂ",
      "ꯥ"
    ],
    [
      "ꯃꯈ",
      "ꯨ"
    ],
    [
      "ꯂꯣꯏ",
      "ꯅꯕꯤ</w>"
    ],
    [
      "ꯇꯥꯔ",
      "ꯛ"
    ],
    [
      "-",
      "ꯑꯍ"
    ],
    [
      "ꯄꯨ",
      "ꯂꯤꯁ</w>"
    ],
    [
      "ꯋꯤ",
      ",</w>"
    ],
    [
      "ꯔꯦ",
      "ꯠ</w>"
    ],
    [
      "ꯑꯦꯝ",
      ".</w>"
    ],
    [
      "ꯃꯔ",
      "ꯣ"
    ],
    [
      "ꯊꯣꯛ",
      "ꯂꯕ</w>"
    ],
    [
      "ꯃꯁꯥ",
      "ꯅ</w>"
    ],
    [
      "ꯈꯤꯕ",
      ",</w>"
    ],
    [
      "ꯗꯨ",
      "ꯝ</w>"
    ],
    [
      "ꯁ꯭ꯇꯦꯠ",
      "ꯁ</w>"
    ],
    [
      "ꯁꯤꯟ",
      "ꯈꯤ</w>"
    ],
    [
      "ꯅꯣꯡ",
      "ꯄꯣꯛ"
    ],
    [
      "ꯔꯦ",
      "ꯛꯇꯔ</w>"
    ],
    [
      "ꯈ",
      "ꯛꯇ</w>"
    ],
    [
      "ꯒ꯭",
      "ꯌꯥ"
    ],
    [
      "ꯀꯥꯔ",
      "ꯗ</w>"
    ],
    [
      "ꯖꯒ",
      "ꯣꯏꯒꯤ</w>"
    ],
    [
      "র",
      "ু"
    ],
    [
      "ম",
      "দা</w>"
    ],
    [
      "ꯅ",
      "ꯔꯕ</w>"
    ],
    [
      "ꯑ",
      "ꯀꯤ"
    ],
    [
      "ꯁ",
      "ꯝ</w>"
    ],
    [
      "ꯃꯤ",
      "ꯔ"
    ],
    [
      "꯲꯰꯱",
      "꯵ꯒꯤ</w>"
    ],
    [
      "ꯁ",
      "ꯠꯇ</w>"
    ],
    [
      ",꯰꯰",
      "꯰"
    ],
    [
      "ꯃꯔꯤ",
      "ꯁꯨꯕ</w>"
    ],
    [
      "ꯇꯦ",
      "ꯁꯠ</w>"
    ],
    [
      "ꯍꯥꯏ",
      "꯫</w>"
    ],
    [
      "ꯕ",
      "ꯜ"
    ],
    [
      "ꯐꯨ",
      "ꯔꯨ"
    ],
    [
      "ꯉꯝ",
      "ꯃꯤ</w>"
    ],
    [
      "ꯑꯣ",
      "ꯞ"
    ],
    [
      "ꯁꯤ",
      "ꯐꯤ"
    ],
    [
      "ꯒ꯭ꯔ",
      "ꯣ"
    ],
    [
      "ꯇꯥ",
      "ꯈꯤ꯫</w>"
    ],
    [
      "ꯍꯧ",
      "</w>"
    ],
    [
      "ꯈꯤ",
      "ꯕꯅ</w>"
    ],
    [
      "ꯁꯤ",
      "ꯌꯥꯒꯤ</w>"
    ],
    [
      "ꯁꯤ",
      "ꯞ</w>"
    ],
    [
      "ꯍꯥꯎ",
      "ꯁ</w>"
    ],
    [
      "ꯆ",
      "ꯧ"
    ],
    [
      "ꯆꯥ",
      "ꯗꯤ"
    ],
    [
      "ꯀꯩ",
      "ꯗꯧ"
    ],
    [
      "ꯂꯥꯟ",
      "ꯖ"
    ],
    [
      "ꯁꯟ",
      ",</w>"
    ],
    [
      "ꯇꯥ",
      "ꯈꯤ</w>"
    ],
    [
      "ꯋꯦꯁꯇꯔ",
      "ꯟ</w>"
    ],
    [
      "ꯍꯤꯟ",
      "ꯗꯨꯒꯤ</w>"
    ],
    [
      "ꯀꯦ",
      "</w>"
    ],
    [
      "ꯊꯣꯛ",
      "ꯅꯕ</w>"
    ],
    [
      "ꯍꯧ",
      "ꯔꯛꯄ</w>"
    ],
    [
      "ꯃ꯭ꯌꯨꯖꯤ",
      "ꯛ</w>"
    ],
    [
      "ꯈꯥ-",
      "ꯅꯣꯡꯄꯣꯛ</w>"
    ],
    [
      "ꯊꯥ",
      "ꯈꯤ</w>"
    ],
    [
      "ꯃꯇꯝ",
      "ꯗꯒꯤ</w>"
    ],
    [
      "ꯄꯨ",
      "ꯋꯥꯔꯤꯗ</w>"
    ],
    [
      "ꯃꯥ",
      "ꯅ</w>"
    ],
    [
      "ꯀꯥ",
      "ꯕ</w>"
    ],
    [
      "ꯒ꯭",
      "ꯂꯣ"
    ],
    [
      "ꯄ꯭ꯔꯦ",
      "ꯁꯤꯗꯦꯟꯠ</w>"
    ],
    [
      "ꯗꯦꯃꯣ",
      "ꯀ꯭ꯔꯦ"
    ],
    [
      "ꯁꯥꯎ",
      "ꯅꯤꯡ"
    ],
    [
      "ꯋꯤ",
      "ꯀꯤ"
    ],
    [
      "ꯈꯨꯠ",
      "ꯌꯦꯛ</w>"
    ],
    [
      "ꯃꯤ",
      "ꯆ"
    ],
    [
      "ꯁꯤꯡ",
      "ꯍ"
    ],
    [
      "꯭",
      "ꯌꯥ</w>"
    ],
    [
      "ꯄ꯭ꯔ",
      "ꯙꯥꯟ</w>"
    ],
    [
      "ꯃ",
      "ꯄꯥ</w>"
    ],
    [
      "ꯃꯊ",
      "ꯛ</w>"
    ],
    [
      "ꯍꯤ",
      "ꯊꯥꯡ"
    ],
    [
      "ꯊ",
      "ꯔꯛ"
    ],
    [
      "ꯕꯦ",
      "ꯁꯠ</w>"
    ],
    [
      "ꯐꯤ",
      "ꯜꯗ</w>"
    ],
    [
      "ꯑꯣꯔ",
      "ꯒ"
    ],
    [
      "ꯔꯤ",
      "ꯇꯤ</w>"
    ],
    [
      "ꯉꯥꯛꯊꯣꯛ",
      "ꯅꯕ</w>"
    ],
    [
      "ꯗꯣ",
      "ꯁ</w>"
    ],
    [
      "ꯍꯧ",
      "ꯔꯤꯕ</w>"
    ],
    [
      "ꯀꯥꯏ",
      "ꯅ</w>"
    ],
    [
      "ꯈꯪ",
      "ꯗꯣꯛꯄ</w>"
    ],
    [
      "ꯔꯦꯜ",
      "ꯋꯦ</w>"
    ],
    [
      "ꯃꯄꯨꯡ",
      "ꯐꯥꯅ</w>"
    ],
    [
      "ন",
      "্ত"
    ],
    [
      "স",
      "ে"
    ],
    [
      "ꯑꯅꯤ",
      "ꯁꯨ"
    ],
    [
      "ꯋꯥ",
      "ꯒꯤ</w>"
    ],
    [
      "ꯑꯦꯜ",
      "ꯕꯝ</w>"
    ],
    [
      "ꯃꯤꯑꯣꯏ",
      "ꯕꯒꯤ</w>"
    ],
    [
      "ꯈ",
      "ꯥꯏ</w>"
    ],
    [
      "ꯀ꯭ꯋꯥ",
      "ꯂꯤ"
    ],
    [
      "ꯖꯣ",
      "ꯟ"
    ],
    [
      "ꯆꯥ",
      "ꯅꯕ</w>"
    ],
    [
      "ꯕ",
      "ꯁ</w>"
    ],
    [
      "ꯁ꯭ꯇꯦ",
      "ꯗꯤ"
    ],
    [
      "ꯂꯝ",
      "ꯖꯦꯜ</w>"
    ],
    [
      "ল",
      "ো"
    ],
    [
      "দ",
      "ে"
    ],
    [
      "ꯂꯩ",
      "ꯔꯛ"
    ],
    [
      "ꯍꯟ",
      "ꯕꯒꯤ</w>"
    ],
    [
      "ꯅ",
      "ꯔꯤ꯫</w>"
    ],
    [
      "ꯅꯤꯡꯊꯧ",
      "ꯒꯤ</w>"
    ],
    [
      "ꯁꯦꯟ",
      "ꯊꯣꯛ</w>"
    ],
    [
      "ꯂꯧ",
      "ꯅꯩ</w>"
    ],
    [
      "ꯁ꯭ꯇ꯭ꯔ",
      "ꯣꯛ</w>"
    ],
    [
      "꯲꯰꯰",
      "꯸ꯒꯤ</w>"
    ],
    [
      "ꯑꯦ",
      "ꯂꯤ"
    ],
    [
      "ꯊꯧ",
      "ꯕ</w>"
    ],
    [
      "ꯁꯥꯟꯅꯔꯣꯏ",
      "ꯁꯤꯡꯅ</w>"
    ],
    [
      "ꯑ",
      "ꯁꯥꯡꯕ</w>"
    ],
    [
      "ফি",
      "ল্"
    ],
    [
      "ꯉꯥꯛ",
      "-"
    ],
    [
      "ꯃꯥ",
      "ꯗ</w>"
    ],
    [
      "꯴",
      "꯰</w>"
    ],
    [
      "ꯖ",
      "ꯇ</w>"
    ],
    [
      "꯲꯰꯱",
      "꯷ꯀꯤ</w>"
    ],
    [
      "ꯑ",
      "ꯏ"
    ],
    [
      "ꯑꯁꯤ",
      "ꯅꯤ꯫</w>"
    ],
    [
      "ꯒ",
      "ꯨ</w>"
    ],
    [
      "ꯆꯨꯞ",
      "ꯄꯒꯤ</w>"
    ],
    [
      "꯲",
      "꯵"
    ],
    [
      "ꯔ",
      "ꯥꯟ"
    ],
    [
      "ꯗꯥ",
      "ꯗ</w>"
    ],
    [
      "ꯖ",
      "ꯀꯤ</w>"
    ],
    [
      "ꯍꯥꯞ",
      "ꯆꯤꯟ"
    ],
    [
      "ꯕ꯭ꯔ",
      "ꯦꯟ"
    ],
    [
      "ꯀꯥꯡꯂꯨ",
      "ꯞꯀꯤ</w>"
    ],
    [
      "ꯌꯨꯝ",
      "ꯒꯤ</w>"
    ],
    [
      "ꯅꯠ",
      "ꯇꯕ</w>"
    ],
    [
      "ꯄꯥꯔ",
      "ꯇꯤ</w>"
    ],
    [
      "ꯊꯕ",
      "ꯛꯇꯒꯤ</w>"
    ],
    [
      "ꯇꯦ",
      "ꯂꯨ"
    ],
    [
      "ꯇꯥ",
      "ꯗ</w>"
    ],
    [
      "ꯍꯟ",
      "ꯈꯤꯕ</w>"
    ],
    [
      "ꯃꯦꯛ",
      "ꯁꯤ"
    ],
    [
      "ꯅꯥ",
      "ꯜ"
    ],
    [
      "ꯗꯤ",
      "ꯖꯥꯏ"
    ],
    [
      "ꯃꯤ",
      "ꯖꯣ"
    ],
    [
      "ꯃꯑꯣ",
      "ꯡꯁꯤꯡ</w>"
    ],
    [
      "꯱",
      "."
    ],
    [
      "প",
      "ো"
    ],
    [
      "꯭",
      "ꯇ</w>"
    ],
    [
      "ꯕꯥꯏ",
      "ꯑꯣ"
    ],
    [
      "ꯅ",
      "ꯗꯕ</w>"
    ],
    [
      "ꯂꯥꯏ",
      "ꯌꯦꯡ"
    ],
    [
      "ꯖꯦ",
      "</w>"
    ],
    [
      "ꯌꯨꯅꯤꯚꯔ",
      "ꯁꯤꯇꯤ</w>"
    ],
    [
      "ꯑꯃ",
      "ꯥꯡ"
    ],
    [
      "ꯂ",
      "ꯣꯛ"
    ],
    [
      "ꯔꯤ",
      "ꯌ"
    ],
    [
      "ꯍꯣ",
      "ꯁ"
    ],
    [
      "ꯁꯤꯖꯤꯟ",
      "ꯅꯕ"
    ],
    [
      "ꯊꯣꯛ",
      "ꯍꯜꯂꯤ</w>"
    ],
    [
      "ꯑꯦꯜ",
      ".</w>"
    ],
    [
      "2",
      "</w>"
    ],
    [
      "ক",
      "ে"
    ],
    [
      "দ",
      "ম"
    ],
    [
      "ꯂꯩ",
      "ꯇꯅ</w>"
    ],
    [
      "ꯃꯤꯈ",
      "ꯜꯗ</w>"
    ],
    [
      "ꯇꯝ",
      "ꯕꯒꯤ</w>"
    ],
    [
      "ꯐꯖ",
      "ꯕ</w>"
    ],
    [
      "ꯃ",
      "ꯜ"
    ],
    [
      "ꯃꯤꯌꯥꯝ",
      "ꯗ</w>"
    ],
    [
      "ꯕ",
      "ꯗꯨ</w>"
    ],
    [
      "ꯂꯥ",
      "ꯅ</w>"
    ],
    [
      "ꯗꯤ",
      "ꯜꯂꯤ</w>"
    ],
    [
      "ꯃ",
      "ꯂ"
    ],
    [
      "ꯁꯤ",
      "ꯈꯤ꯫</w>"
    ],
    [
      "ꯁꯥꯟꯅ",
      "ꯕꯒꯤ</w>"
    ],
    [
      "ꯂꯝ",
      "ꯕꯥ</w>"
    ],
    [
      "ꯀꯔꯅꯥ",
      "ꯇ"
    ],
    [
      "ꯋ",
      "ꯥꯟ</w>"
    ],
    [
      "ꯑ",
      "ꯇꯦꯟꯕ</w>"
    ],
    [
      "ꯁꯤꯔꯤ",
      "ꯖ</w>"
    ],
    [
      "ꯍꯤꯗꯥꯛ",
      "-ꯂꯥꯡ"
    ],
    [
      "ꯂꯥꯏ",
      "ꯟꯗ</w>"
    ],
    [
      "ꯄ꯭ꯔꯣꯐꯦ",
      "ꯁꯅꯦꯜ</w>"
    ],
    [
      "ꯅꯣꯡꯆꯨ",
      "ꯞ"
    ],
    [
      "ꯄꯥꯡ",
      "ꯕ</w>"
    ],
    [
      "ꯇꯤ",
      "ꯁꯤꯡ</w>"
    ],
    [
      "ꯇꯥꯛ",
      "ꯏ꯫</w>"
    ],
    [
      "ꯁꯦ",
      "ꯅꯦ"
    ],
    [
      "ꯅꯣꯡ",
      "ꯂꯩ-"
    ],
    [
      "ফ",
      "া"
    ],
    [
      "শ",
      "া"
    ],
    [
      "েন",
      "্ত"
    ],
    [
      "ꯙꯔ",
      "ꯃꯒꯤ</w>"
    ],
    [
      "ꯖ",
      "ꯁꯤꯡ</w>"
    ],
    [
      "ꯑꯍ",
      "ꯛꯄ</w>"
    ],
    [
      "ꯑ",
      "ꯊꯨ"
    ],
    [
      "ꯔꯦ",
      "ꯜꯒꯤ</w>"
    ],
    [
      "ꯀꯣ",
      "ꯟꯅ</w>"
    ],
    [
      "ꯖ",
      "ꯧ"
    ],
    [
      "ꯏꯪ",
      "ꯂꯤ"
    ],
    [
      "ꯡ",
      "ꯁꯤꯡꯒꯤ</w>"
    ],
    [
      "ꯁ",
      "ꯜ"
    ],
    [
      "ꯃꯉꯥ",
      "ꯒꯤ</w>"
    ],
    [
      "ꯀꯣ",
      "ꯜ</w>"
    ],
    [
      "ꯀꯔꯝ",
      "ꯕ</w>"
    ],
    [
      "ꯀꯥꯡ",
      "ꯂꯣꯟꯁꯤꯡ</w>"
    ],
    [
      "ꯇꯤ",
      "ꯔ"
    ],
    [
      "ꯐꯤ",
      "ꯖꯤ"
    ],
    [
      "ꯂꯤ",
      "ꯡ</w>"
    ],
    [
      "ꯈꯣꯡ",
      "ꯊꯥꯡ</w>"
    ],
    [
      "ꯊꯧ",
      "ꯗꯥꯡ"
    ],
    [
      "꯲",
      "꯵</w>"
    ],
    [
      "ꯒ",
      "ꯅꯤ,</w>"
    ],
    [
      "ꯕ",
      "ꯦꯟ</w>"
    ],
    [
      "ꯔꯤ",
      "ꯡ</w>"
    ],
    [
      "ꯑꯁꯤ",
      "ꯒꯤꯗꯃꯛ</w>"
    ],
    [
      "ꯁꯇ꯭ꯔ",
      "ꯤ</w>"
    ],
    [
      "ꯌꯨꯅꯤꯕꯔ",
      "ꯁꯤꯇꯤ</w>"
    ],
    [
      "স্ত",
      "ে"
    ],
    [
      "ꯊꯣꯛ",
      "ꯅ</w>"
    ],
    [
      "ꯁ",
      "ꯇꯤꯛ</w>"
    ],
    [
      "ꯊꯝ",
      "ꯅꯕ</w>"
    ],
    [
      "ꯪ",
      "ꯒ"
    ],
    [
      "ꯀ꯭ꯂꯥꯁꯤ",
      "ꯀꯦꯜ</w>"
    ],
    [
      "ꯌꯥ",
      "ꯈꯤ꯫</w>"
    ],
    [
      "ꯀꯦ",
      "ꯞ"
    ],
    [
      "ꯅꯕ",
      "ꯒꯤꯗꯃꯛꯇ</w>"
    ],
    [
      "ꯁꯔꯨ",
      "ꯛꯁꯤꯡ</w>"
    ],
    [
      "ꯃꯥꯡ",
      "ꯖꯤꯜ</w>"
    ],
    [
      "ꯑꯣꯏ",
      "ꯗꯕ</w>"
    ],
    [
      "ꯁꯨ",
      "ꯔꯕ</w>"
    ],
    [
      "ꯏꯊ",
      "ꯠ</w>"
    ],
    [
      "ꯃ",
      "ꯥꯎꯟ"
    ],
    [
      "ꯑꯦ",
      "ꯜ</w>"
    ],
    [
      "ꯕꯤ",
      "ꯕ</w>"
    ],
    [
      "ꯕꯤ",
      "ꯟ</w>"
    ],
    [
      "ꯃꯔꯤ",
      "ꯒꯤ</w>"
    ],
    [
      "ꯃꯃ",
      "ꯥ</w>"
    ],
    [
      "ꯕ꯭ꯔꯤꯇꯤ",
      "ꯁꯀꯤ</w>"
    ],
    [
      "꯱꯹",
      "꯰"
    ],
    [
      "ꯗ",
      "ꯟ</w>"
    ],
    [
      "ꯊ",
      "ꯅ</w>"
    ],
    [
      "ꯁꯤ",
      "ꯌꯥ"
    ],
    [
      "ꯂ",
      "ꯂꯣꯟ</w>"
    ],
    [
      "ꯃꯤꯑꯣꯏ",
      "ꯁꯤꯡꯕꯨ</w>"
    ],
    [
      "ꯍꯣꯡ",
      "ꯂꯛ"
    ],
    [
      "ꯇꯣꯞ-",
      "ꯇꯣꯞꯄ</w>"
    ],
    [
      "ꯗꯤ",
      "ꯖꯤ"
    ],
    [
      "ꯈ꯭ꯔꯦ",
      ",</w>"
    ],
    [
      "র",
      "ক"
    ],
    [
      "ꯁꯤꯖꯤꯟꯅ",
      "ꯈꯤ꯫</w>"
    ],
    [
      "ꯆꯟ",
      "ꯗ꯭ꯔ"
    ],
    [
      "ꯌꯥ",
      "ꯈꯤ</w>"
    ],
    [
      "ꯌ",
      "ꯒꯤ</w>"
    ],
    [
      "ꯃꯨ",
      "ꯠ"
    ],
    [
      "ꯍꯤ",
      "ꯔꯝ</w>"
    ],
    [
      "ꯅꯨꯄꯤ",
      "ꯁꯤꯡꯅ</w>"
    ],
    [
      "ꯃꯥꯏ",
      "ꯗ</w>"
    ],
    [
      "ꯑꯣꯏ",
      "ꯒꯅꯤ</w>"
    ],
    [
      "ꯍꯟ",
      "ꯖꯤꯟ"
    ],
    [
      "ꯉꯝꯈ",
      "ꯩ</w>"
    ],
    [
      "꯱",
      "꯰꯰</w>"
    ],
    [
      "ꯁꯇ",
      "ꯦꯟ"
    ],
    [
      "ꯊꯤꯖꯤꯟ-ꯍꯨꯝ",
      "ꯖꯤꯟꯕꯒꯤ</w>"
    ],
    [
      "ꯑꯣꯏꯔꯕ",
      "ꯗꯤ,</w>"
    ],
    [
      "ꯂꯥꯛ",
      "ꯂꯤ</w>"
    ],
    [
      "ꯄꯤ",
      "ꯡ</w>"
    ],
    [
      "ꯄꯣꯏꯟ",
      "ꯠ</w>"
    ],
    [
      "ꯇꯤ",
      "ꯡ"
    ],
    [
      "ꯃꯊ",
      "ꯪ</w>"
    ],
    [
      "ꯑꯣꯏ",
      "ꯕꯒꯤ</w>"
    ],
    [
      "ꯂꯣꯏꯅ",
      "ꯅꯥ</w>"
    ],
    [
      "ꯖ",
      "ꯥꯔ"
    ],
    [
      "ꯍꯧꯗꯣꯛ",
      "ꯈꯤ꯫</w>"
    ],
    [
      "ꯁꯩ",
      "ꯔꯦ"
    ],
    [
      "ꯇ",
      "ꯥꯟ</w>"
    ],
    [
      "ꯑꯅꯥ",
      "-"
    ],
    [
      "ꯈ",
      "ꯦꯟ"
    ],
    [
      "ꯑꯥꯏ",
      "ꯟꯅ</w>"
    ],
    [
      "ꯗ꯭ꯔ",
      "ꯥꯏ"
    ],
    [
      "ꯔꯤ",
      "ꯂꯤꯁ</w>"
    ],
    [
      "ন",
      "ে"
    ],
    [
      "ৎ",
      "</w>"
    ],
    [
      "ꯋꯥ",
      "ꯐꯝꯁꯤꯡ</w>"
    ],
    [
      "꯱",
      "꯶</w>"
    ],
    [
      "ꯕ",
      "ꯁꯤꯡꯕꯨ</w>"
    ],
    [
      "ꯕ",
      "ꯣꯏ"
    ],
    [
      "ꯄꯨ",
      "ꯔꯥ"
    ],
    [
      "ꯑꯅꯤ",
      "ꯗ</w>"
    ],
    [
      "ꯍꯤꯃꯥ",
      "ꯂ"
    ],
    [
      "ꯒꯥ",
      "ꯒꯤ</w>"
    ],
    [
      "ꯗꯣꯛ",
      "ꯇꯔ</w>"
    ],
    [
      "ꯇ",
      "ꯨ</w>"
    ],
    [
      "ꯅꯨꯄꯥ",
      "ꯒꯤ</w>"
    ],
    [
      "ꯂꯩ",
      "ꯇ"
    ],
    [
      "ꯈꯨꯗꯣꯡ",
      "ꯊꯤꯕ</w>"
    ],
    [
      "꯱",
      "꯷</w>"
    ],
    [
      "ꯆ",
      "ꯔꯥ</w>"
    ],
    [
      "ꯀꯩ",
      "ꯊꯦ"
    ],
    [
      "ꯇꯥꯛ",
      "ꯏ</w>"
    ],
    [
      "ো",
      "র্"
    ],
    [
      "ꯔꯥꯖ",
      "</w>"
    ],
    [
      "ꯃꯤ",
      "ꯁꯛ</w>"
    ],
    [
      "ꯔꯤ",
      "ꯕꯁꯤꯡꯅ</w>"
    ],
    [
      "ꯁ",
      "ꯂꯦ"
    ],
    [
      "ꯐ",
      "ꯛ"
    ],
    [
      "ꯁꯤꯖꯤꯟꯅ",
      "ꯈꯤ</w>"
    ],
    [
      "ꯁ",
      "ꯊ"
    ],
    [
      "ꯅ",
      "ꯣꯛ"
    ],
    [
      "ꯈꯨꯗꯣꯡꯊꯤ",
      "ꯅꯤꯡꯉꯥꯏ</w>"
    ],
    [
      "ꯌꯨꯔꯣꯄꯤ",
      "ꯌꯟ</w>"
    ],
    [
      "ꯁꯤ",
      "ꯠ</w>"
    ],
    [
      "ꯔꯤ",
      "ꯇꯦ"
    ],
    [
      "ꯁ꯭",
      "ꯀꯤ"
    ],
    [
      "ꯑꯁꯤ",
      "ꯅꯆꯤꯡ"
    ],
    [
      "ꯜ",
      "ꯗ"
    ],
    [
      "ꯀꯩ",
      "ꯁꯨꯝ"
    ],
    [
      "ꯇꯦ",
      "꯫</w>"
    ],
    [
      "ꯋꯥ",
      "ꯕ</w>"
    ],
    [
      "ꯂꯥꯏ",
      "ꯟ"
    ],
    [
      "ꯄꯨ",
      "ꯕ</w>"
    ],
    [
      "ꯁꯤ",
      "ꯗ"
    ],
    [
      "ꯅꯩ",
      "ꯅꯕ</w>"
    ],
    [
      "ꯌꯦ",
      "ꯛꯁꯤꯡ</w>"
    ],
    [
      "ꯍꯦꯟꯒꯠ",
      "ꯂꯛꯄ</w>"
    ],
    [
      "ꯎ",
      "ꯟ</w>"
    ],
    [
      "ꯃꯤ",
      "ꯀꯣꯛ</w>"
    ],
    [
      "ꯀ꯭ꯔ",
      "ꯥ"
    ],
    [
      "ꯁꯦ",
      "ꯁ</w>"
    ],
    [
      "ꯁꯦꯝ",
      "ꯃꯤ</w>"
    ],
    [
      "ꯂꯝꯖꯤꯡ-ꯂꯝ",
      "ꯇꯥꯛꯄ</w>"
    ],
    [
      ")",
      "ꯒꯤ</w>"
    ],
    [
      "ꯈꯨꯠꯂꯥꯏ",
      "ꯁꯤꯡ</w>"
    ],
    [
      "ꯁꯍ",
      "ꯔꯗ</w>"
    ],
    [
      "ꯆꯤ",
      "ꯡꯒꯤ</w>"
    ],
    [
      "ꯃ",
      "ꯂꯦ"
    ],
    [
      "ꯅ",
      "ꯝ</w>"
    ],
    [
      "ꯒ",
      "ꯜ"
    ],
    [
      "ꯈꯤ",
      ";</w>"
    ],
    [
      "ꯍꯟ",
      "ꯈꯤ,</w>"
    ],
    [
      "ꯆ",
      "ꯟꯕ</w>"
    ],
    [
      "ꯁꯤꯖꯤꯟꯅ",
      "ꯕꯒꯤ</w>"
    ],
    [
      "ꯍꯤꯗꯥꯛ-ꯂꯥꯡ",
      "ꯊ"
    ],
    [
      "ꯂꯥꯏ",
      "ꯔꯦꯝ"
    ],
    [
      "ꯐꯥꯎ",
      "ꯕꯗ,</w>"
    ],
    [
      "ꯁ",
      "ꯇꯣ"
    ],
    [
      "ꯑꯦ",
      "ꯗꯤ"
    ],
    [
      "ꯑꯥꯔ",
      "ꯀꯤ"
    ],
    [
      "ꯀꯨ",
      "ꯞ"
    ],
    [
      "ন",
      "াই"
    ],
    [
      "ঙ",
      "্"
    ],
    [
      "ꯄ",
      "ꯩ"
    ],
    [
      "ꯅꯦ",
      "ꯛ"
    ],
    [
      "ꯁꯥꯟꯅ",
      "-ꯈꯣ"
    ],
    [
      "ꯃꯃꯥꯡ",
      "ꯗ,</w>"
    ],
    [
      "ꯇꯣꯔ",
      "ꯅꯥ"
    ],
    [
      "ꯅꯤ",
      "ꯌꯔ</w>"
    ],
    [
      "ꯐ꯭ꯔ",
      "ꯤ</w>"
    ],
    [
      "ꯊꯤ",
      "ꯌꯦ"
    ],
    [
      "ꯃꯥꯡꯍꯟ",
      "-ꯇꯥꯛ"
    ],
    [
      "0",
      "0"
    ],
    [
      "ত",
      "ি"
    ],
    [
      "গ",
      "ী"
    ],
    [
      "ꯒ",
      "ꯟꯕ</w>"
    ],
    [
      "ꯐꯣ",
      "ꯔ</w>"
    ],
    [
      "ꯏ",
      "ꯆ"
    ],
    [
      "ꯂꯝ",
      "ꯃꯤ</w>"
    ],
    [
      "ꯕꯦ",
      "ꯠ</w>"
    ],
    [
      "ꯕꯦ",
      "ꯛ</w>"
    ],
    [
      "ꯔꯥ",
      "ꯝ"
    ],
    [
      "ꯅꯨꯃꯤ",
      "ꯠꯀꯤ</w>"
    ],
    [
      "ꯕ",
      "ꯁꯨ,</w>"
    ],
    [
      "ꯃ",
      "ꯆꯦ"
    ],
    [
      "ꯔꯤ",
      "ꯁ</w>"
    ],
    [
      "ꯍꯣꯁ",
      "ꯄꯤ"
    ],
    [
      "ꯔꯥ",
      "ꯒ"
    ],
    [
      "ꯁꯦ",
      "ꯀꯦꯟ"
    ],
    [
      "ꯖꯨ",
      "ꯟꯒꯤ</w>"
    ],
    [
      "ꯏꯟ",
      "ꯁꯇꯤꯇ꯭ꯌꯨ"
    ],
    [
      "লৈ",
      "বা</w>"
    ],
    [
      "ꯋꯥ",
      "ꯊꯣꯛ</w>"
    ],
    [
      "ꯀ",
      "ꯂꯥ"
    ],
    [
      "꯱",
      "꯴</w>"
    ],
    [
      "ꯁꯥ",
      "ꯁꯟ</w>"
    ],
    [
      "ꯂꯤꯡꯈꯠ",
      "ꯈꯤꯕ</w>"
    ],
    [
      "ꯇꯣ",
      "ꯈꯥꯏ"
    ],
    [
      "ꯁꯥꯏꯟ",
      "ꯇꯤ"
    ],
    [
      "-",
      "ꯆꯦ"
    ],
    [
      "ꯀꯝꯄ",
      "ꯅꯤ"
    ],
    [
      "ꯈꯣꯡ",
      "ꯕꯥ"
    ],
    [
      "ꯋꯥꯀ",
      "ꯠ</w>"
    ],
    [
      "ꯑꯣꯁꯇ꯭ꯔꯦꯂꯤ",
      "ꯌꯥꯒꯤ</w>"
    ],
    [
      "ꯈꯛꯇ",
      "ꯅ</w>"
    ],
    [
      "ꯑꯔ",
      "ꯥꯟꯕ</w>"
    ],
    [
      "ꯄ꯭ꯔꯣꯖꯦ",
      "ꯛ</w>"
    ],
    [
      "ꯀꯦꯔ",
      "ꯂꯥꯒꯤ</w>"
    ],
    [
      "ꯃꯦ",
      "ꯒꯤ</w>"
    ],
    [
      "ꯃꯦ",
      "ꯠ</w>"
    ],
    [
      "ꯉꯝ",
      "ꯗꯦ</w>"
    ],
    [
      "স",
      "ন</w>"
    ],
    [
      "ꯇꯥꯛ",
      "ꯂꯤ꯫</w>"
    ],
    [
      "ꯀꯥ",
      "ꯅ</w>"
    ],
    [
      "ꯂꯥꯟꯃꯤ",
      "ꯁꯤꯡ</w>"
    ],
    [
      "ꯔꯥ",
      "ꯝ</w>"
    ],
    [
      "ꯑ",
      "ꯂꯥ"
    ],
    [
      "ꯈꯨꯗ",
      "ꯛꯇ</w>"
    ],
    [
      "꯱",
      "꯱</w>"
    ],
    [
      "ꯖꯥ",
      "ꯒꯤ</w>"
    ],
    [
      "ꯖꯔꯃ",
      "ꯅꯤꯒꯤ</w>"
    ],
    [
      "ꯋꯥꯔ",
      "ꯜꯗ</w>"
    ],
    [
      "ꯑꯗꯨꯃꯛꯇ",
      "ꯗ</w>"
    ],
    [
      "ꯑ",
      "ꯋ"
    ],
    [
      "ꯄ꯭ꯔꯗꯦ",
      "ꯁ</w>"
    ],
    [
      "ꯀꯦ",
      "ꯔꯤ"
    ],
    [
      "ꯆꯨ",
      "ꯞꯄ</w>"
    ],
    [
      "ꯐꯨ",
      "ꯠ</w>"
    ],
    [
      "ꯃꯥꯂꯦ",
      "ꯝꯗ</w>"
    ],
    [
      "ꯀꯟ",
      "ꯐ"
    ],
    [
      "ꯃꯣꯗꯦ",
      "ꯜ</w>"
    ],
    [
      "ꯄ꯭ꯔꯣꯒ꯭ꯔꯥ",
      "ꯝ</w>"
    ],
    [
      "ꯊ",
      "ꯛꯅꯕ</w>"
    ],
    [
      "ꯁ꯭",
      "ꯠ"
    ],
    [
      "ꯁꯦꯡ",
      "ꯗꯣꯛ"
    ],
    [
      "ꯇꯤ",
      "ꯀꯥ</w>"
    ],
    [
      "ꯁꯦꯟ",
      "ꯇꯔ</w>"
    ],
    [
      "ꯄ",
      "ꯅꯤ꯫</w>"
    ],
    [
      "ꯂꯥ",
      "ꯈ</w>"
    ],
    [
      "ꯄꯨ",
      "ꯔꯥ</w>"
    ],
    [
      "ꯐ",
      "ꯅ</w>"
    ],
    [
      "ꯊꯝ",
      "ꯃꯤ꯫</w>"
    ],
    [
      "ꯚ",
      "ꯔ</w>"
    ],
    [
      "ꯅ",
      "ꯣꯏ"
    ],
    [
      "ꯇꯦ",
      "ꯁꯟ</w>"
    ],
    [
      "ꯇꯥꯛꯄ",
      "ꯗꯤ</w>"
    ],
    [
      "ꯀꯨꯝꯍꯩ",
      "ꯁꯤꯡ</w>"
    ],
    [
      "ꯔꯤ",
      "ꯛ</w>"
    ],
    [
      "꯶",
      "꯰</w>"
    ],
    [
      "ꯑꯩꯆ",
      ".</w>"
    ],
    [
      "ꯐ",
      "ꯥꯏ</w>"
    ],
    [
      "ꯎ",
      "ꯕꯗ</w>"
    ],
    [
      "ꯅ",
      "ꯛꯄ</w>"
    ],
    [
      "ꯄꯥ",
      "ꯋꯔ</w>"
    ],
    [
      "ꯇ꯭ꯔꯣꯄꯤ",
      "ꯀꯦꯜ</w>"
    ],
    [
      "ꯁꯥꯏ",
      "ꯀꯜ</w>"
    ],
    [
      "ꯒ꯭ꯔꯦ",
      "ꯠ</w>"
    ],
    [
      "ꯄꯤ",
      "ꯔꯛ"
    ],
    [
      "ꯅ",
      "ꯥꯎ"
    ],
    [
      "ꯁꯥ",
      "ꯝ"
    ],
    [
      "ꯃꯀ",
      "ꯣꯛ"
    ],
    [
      "ꯃꯒꯨ",
      "ꯟ</w>"
    ],
    [
      "ꯚ",
      "ꯒ"
    ],
    [
      "ꯁꯤ",
      "ꯌꯦ"
    ],
    [
      "ꯐ",
      "ꯡ"
    ],
    [
      "ꯂꯥꯛ",
      "ꯂꯤ꯫</w>"
    ],
    [
      "ꯀꯣ",
      "ꯔꯤ"
    ],
    [
      "꯵",
      "ꯗꯒꯤ</w>"
    ],
    [
      "ꯁꯦꯝ",
      "ꯃꯤ꯫</w>"
    ],
    [
      "ই",
      "।</w>"
    ],
    [
      "ꯑꯣ",
      "ꯢ"
    ],
    [
      "ꯡ",
      "꯭"
    ],
    [
      "ꯃꯍꯩ-",
      "ꯃꯁꯤꯡ</w>"
    ],
    [
      "ꯍꯣ",
      "ꯜ</w>"
    ],
    [
      "ꯑꯦꯁꯤ",
      "ꯌꯥꯒꯤ</w>"
    ],
    [
      "ꯔꯤ",
      "ꯁꯤꯡ</w>"
    ],
    [
      "ꯍꯣ",
      "ꯜ"
    ],
    [
      "ꯄꯥ",
      "ꯕ</w>"
    ],
    [
      "ꯂꯤ",
      "ꯟ"
    ],
    [
      "ꯃꯅ",
      "ꯥꯛ</w>"
    ],
    [
      "ꯀꯦ",
      "ꯔꯣ"
    ],
    [
      "ꯕ꯭ꯔꯥ",
      "ꯖꯤ"
    ],
    [
      "ক",
      "ম্"
    ],
    [
      "”",
      "</w>"
    ],
    [
      "ꯅ",
      "ꯈꯤꯕ</w>"
    ],
    [
      "ꯃꯤ",
      "ꯒꯤ</w>"
    ],
    [
      "ꯆꯥꯎ",
      "ꯔꯕ</w>"
    ],
    [
      "ꯕ",
      "ꯕꯨ</w>"
    ],
    [
      "ꯒꯨ",
      "ꯞ"
    ],
    [
      "ꯅꯤ",
      "ꯟ"
    ],
    [
      "ꯒ",
      "ꯧ"
    ],
    [
      "ꯅꯝ",
      "ꯕ</w>"
    ],
    [
      "ꯇꯦꯛ",
      "ꯅꯣ"
    ],
    [
      "ꯆꯠꯅ",
      "ꯔꯤꯕ</w>"
    ],
    [
      "ꯁ꯭",
      "ꯇ꯭ꯔꯦ"
    ],
    [
      "ꯒꯗ",
      "ꯒꯦ</w>"
    ],
    [
      "ꯗꯕꯜ",
      "ꯌꯨ."
    ],
    [
      "ꯀꯤꯗ",
      "ꯃꯛꯇ</w>"
    ],
    [
      "ꯁꯤꯛ",
      "ꯀꯤ"
    ],
    [
      "ꯐ꯭",
      "ꯂꯨ"
    ],
    [
      "ꯃ꯭ꯌꯨ",
      "ꯟ</w>"
    ],
    [
      "ꯑꯃꯍꯦ",
      "ꯛꯇ</w>"
    ],
    [
      "1",
      "</w>"
    ],
    [
      "ꯀꯧ",
      "ꯋꯤ</w>"
    ],
    [
      "ꯉꯥꯛ-",
      "ꯁꯦꯟ"
    ],
    [
      "ꯈꯣꯝ",
      "ꯒꯠ"
    ],
    [
      "ꯂꯨꯍꯣꯡ",
      "ꯈꯤ꯫</w>"
    ],
    [
      "ꯆꯤꯡ",
      "ꯅꯕ</w>"
    ],
    [
      "ꯐꯨ",
      "ꯗ</w>"
    ],
    [
      "ꯅꯨꯡ",
      "ꯊꯤ"
    ],
    [
      "ꯗꯦ",
      "ꯛ"
    ],
    [
      "ꯅꯕ",
      "ꯥ</w>"
    ],
    [
      "ꯐꯣꯡ",
      "ꯈꯤ</w>"
    ],
    [
      "ꯀꯨꯝꯍꯩ",
      "ꯁꯤꯡꯗ</w>"
    ],
    [
      "ꯂꯣ",
      "ꯖꯤ</w>"
    ],
    [
      "ꯑꯦ",
      "ꯠ"
    ],
    [
      "ꯉꯥꯛ",
      "ꯁꯦꯟ"
    ],
    [
      "ꯐꯪ",
      "ꯒꯅꯤ꯫</w>"
    ],
    [
      "ꯀꯝꯄꯦ",
      "ꯅꯤ</w>"
    ],
    [
      "ꯀꯦ",
      "ꯜꯒꯤ</w>"
    ],
    [
      "ꯂꯩꯔꯕ",
      "ꯗꯤ,</w>"
    ],
    [
      "ꯃꯥꯟꯅ",
      "ꯩ</w>"
    ],
    [
      "ৈ",
      "</w>"
    ],
    [
      "ꯁꯔꯀꯥꯔ",
      "ꯅ</w>"
    ],
    [
      "ꯄꯥꯔ",
      "ꯇꯤ"
    ],
    [
      "꯲꯰꯱",
      "꯶"
    ],
    [
      "ꯅꯠ",
      "ꯇꯦ</w>"
    ],
    [
      "ꯅꯥ",
      "ꯊ</w>"
    ],
    [
      "ꯈꯨ",
      "ꯗꯨꯝ</w>"
    ],
    [
      "ꯕ",
      "ꯔꯥ"
    ],
    [
      "ꯕꯔ",
      "ꯒ</w>"
    ],
    [
      "ꯁꯨ",
      "ꯇꯤ</w>"
    ],
    [
      "ꯑꯃꯍꯦꯛꯇ",
      "ꯗ</w>"
    ],
    [
      "ꯂꯩꯇꯦ",
      "꯫</w>"
    ],
    [
      "ꯃꯔ",
      "ꯣꯜ</w>"
    ],
    [
      "ꯅꯤ",
      "ꯄꯥꯟ"
    ],
    [
      "ꯍꯦꯟ",
      "ꯕ</w>"
    ],
    [
      "ꯃꯆꯥꯛ",
      "ꯁꯤꯡ</w>"
    ],
    [
      "ꯃꯇ",
      "ꯣ"
    ],
    [
      "ꯗ꯭ꯔ",
      "ꯕꯗꯤ,</w>"
    ],
    [
      "ꯚꯥꯏ",
      "ꯔꯁ</w>"
    ],
    [
      "ꯄꯔꯦ",
      "ꯡ</w>"
    ],
    [
      "ꯁꯦ",
      "</w>"
    ],
    [
      "ꯁ",
      "ꯁꯤꯡꯒꯤ</w>"
    ],
    [
      "ꯑꯁꯣꯛ",
      "-ꯑ"
    ],
    [
      "ꯟ",
      "ꯗꯒꯤ</w>"
    ],
    [
      "ꯗ꯭ꯔ",
      "ꯕꯗꯤ</w>"
    ],
    [
      "ꯑꯣꯏ",
      "ꯍꯟꯈꯤ꯫</w>"
    ],
    [
      "ꯁꯤꯜꯂ",
      "ꯛꯄ</w>"
    ],
    [
      "ꯠ",
      "ꯁꯀꯤ</w>"
    ],
    [
      "ꯆꯠꯅ",
      "-"
    ],
    [
      "ꯂ",
      "꯭ꯌꯨ"
    ],
    [
      "ꯈ꯭ꯔꯤ",
      "ꯁꯇ</w>"
    ],
    [
      "ꯕꯦꯟ",
      "ꯗꯤ</w>"
    ],
    [
      "ꯁꯦꯞꯇꯦ",
      "ꯝꯕꯔꯒꯤ</w>"
    ],
    [
      "শ",
      "ে"
    ],
    [
      "ꯄꯣꯔ",
      "ꯇꯨ"
    ],
    [
      "꯷",
      "ꯒꯤ</w>"
    ],
    [
      "ꯃꯥ",
      "ꯜ"
    ],
    [
      "ꯊꯤ",
      "ꯟ"
    ],
    [
      "ꯁꯣꯛ",
      "ꯍꯟꯕ</w>"
    ],
    [
      "ꯒ",
      "ꯅꯤ"
    ],
    [
      "ꯗ꯭ꯔ",
      "ꯥ</w>"
    ],
    [
      "꯱꯸",
      "</w>"
    ],
    [
      "ꯋꯥ",
      "ꯗ</w>"
    ],
    [
      "ꯑꯣꯛꯇꯣ",
      "ꯕꯔꯒꯤ</w>"
    ],
    [
      "ꯋꯥꯔ",
      "ꯗ</w>"
    ],
    [
      "ꯑꯅꯤ",
      "ꯃꯛꯀꯤ</w>"
    ],
    [
      "ꯒ꯭ꯔꯨ",
      "ꯞ</w>"
    ],
    [
      "ꯗꯥ",
      "ꯝ</w>"
    ],
    [
      "ꯌꯣ",
      "ꯔꯛ</w>"
    ],
    [
      "ꯄꯤ",
      "ꯌꯨ</w>"
    ],
    [
      "ꯏ",
      "ꯖ"
    ],
    [
      "ꯋꯦꯕ",
      "ꯁꯥꯏ"
    ],
    [
      "ꯕꯣ",
      "ꯜ"
    ],
    [
      "ꯪ",
      "ꯕ</w>"
    ],
    [
      "ꯇꯔ",
      "ꯁꯤꯡ</w>"
    ],
    [
      "ꯉꯝ",
      "ꯃꯤ꯫</w>"
    ],
    [
      "ꯖꯨ",
      "ꯂꯥꯏꯒꯤ</w>"
    ],
    [
      "꯳",
      "ꯗꯒꯤ</w>"
    ],
    [
      "ꯑꯣꯏ",
      "ꯗꯨꯅ,</w>"
    ],
    [
      "ꯍꯧꯖꯤ",
      "ꯛꯀꯤ</w>"
    ],
    [
      "ꯑ",
      "ꯞ"
    ],
    [
      "ꯁꯇ",
      "ꯥ</w>"
    ],
    [
      "ꯁ",
      "ꯃꯥ"
    ],
    [
      "꯭",
      "ꯁꯀꯤ</w>"
    ],
    [
      "ꯇꯦ",
      "ꯝ"
    ],
    [
      "ꯂ",
      "ꯛ</w>"
    ],
    [
      "ꯄꯥꯝ",
      "ꯕꯤ</w>"
    ],
    [
      "ꯛꯇ",
      "ꯔ"
    ],
    [
      "ꯂꯣꯏ",
      "ꯁꯪ</w>"
    ],
    [
      "ꯋꯥꯔꯤ",
      "ꯁꯤꯡ</w>"
    ],
    [
      "ꯁꯥ",
      "ꯕꯒꯤ</w>"
    ],
    [
      "ꯑꯣꯏ",
      "ꯕꯅ</w>"
    ],
    [
      "ꯁꯥꯒ",
      "ꯩ</w>"
    ],
    [
      "ꯃꯁꯤ",
      "ꯗꯒꯤ</w>"
    ],
    [
      "ꯇꯦꯛ",
      "ꯁ</w>"
    ],
    [
      "ꯃ",
      "ꯌꯣ"
    ],
    [
      "ꯀ꯭ꯔ",
      "ꯨ"
    ],
    [
      "ꯏ",
      "ꯆꯥꯎ"
    ],
    [
      "ꯇꯥ",
      ",</w>"
    ],
    [
      "ꯒ꯭ꯂꯥ",
      "ꯗꯦ"
    ],
    [
      "ꯕꯤ",
      "ꯅ</w>"
    ],
    [
      "ꯁꯤꯡ",
      "ꯅꯁꯨ</w>"
    ],
    [
      "ꯂꯝꯖꯤ",
      "ꯡ</w>"
    ],
    [
      "ꯃꯄꯨ",
      "ꯔꯣꯏ"
    ],
    [
      "ꯑꯅꯤ",
      "ꯅ</w>"
    ],
    [
      "ꯗ",
      "ꯛ"
    ],
    [
      "ꯁꯤꯖꯤꯟꯅ",
      "ꯅꯕ</w>"
    ],
    [
      "ꯔꯕ",
      "ꯤ</w>"
    ],
    [
      "ꯉ",
      "ꯤ"
    ],
    [
      "ꯃꯍꯩ",
      "ꯔꯣꯏ</w>"
    ],
    [
      "ꯑꯦꯄ꯭ꯔꯤ",
      "ꯜꯒꯤ</w>"
    ],
    [
      "꯲꯰꯲",
      "꯲ꯒꯤ</w>"
    ],
    [
      "ꯖꯤ",
      ".</w>"
    ],
    [
      "ক্ত",
      "া</w>"
    ],
    [
      "ꯑ",
      "ꯧꯔ"
    ],
    [
      "ꯆꯟ",
      "ꯈꯤ꯫</w>"
    ],
    [
      "꯲꯰",
      "ꯗ</w>"
    ],
    [
      "ꯉꯝ",
      "ꯈꯤꯗꯦ꯫</w>"
    ],
    [
      "ꯑꯗꯨ",
      "ꯅꯤ꯫</w>"
    ],
    [
      "ꯔꯤ",
      "ꯉꯩꯗ</w>"
    ],
    [
      "ꯖ",
      "ꯗ</w>"
    ],
    [
      "ꯁꯥ",
      "ꯈꯤ</w>"
    ],
    [
      "ꯅꯥ",
      "ꯒ"
    ],
    [
      "ꯍꯩ",
      "ꯕ</w>"
    ],
    [
      "ꯃ",
      "ꯣꯏ</w>"
    ],
    [
      "ꯑꯃꯥꯡ",
      "-ꯑ"
    ],
    [
      "ꯄꯣꯠ",
      "ꯊꯣꯛ"
    ],
    [
      "ꯆꯠ",
      "ꯄꯒꯤ</w>"
    ],
    [
      "ꯂꯦ",
      "ꯛ</w>"
    ],
    [
      "꯲",
      ","
    ],
    [
      "ꯊ",
      "꯭ꯔꯤ"
    ],
    [
      "ꯊꯝ",
      "ꯃꯤ</w>"
    ],
    [
      "ꯀꯝ",
      "ꯄꯤꯌꯨ"
    ],
    [
      "দা",
      ",</w>"
    ],
    [
      "ন্",
      "ন"
    ],
    [
      "ওই",
      "না</w>"
    ],
    [
      "ꯋꯥ",
      "ꯀꯠ"
    ],
    [
      "ꯆꯦ",
      "ꯝꯄ"
    ],
    [
      "ꯈꯨꯖꯤ",
      "ꯡ</w>"
    ],
    [
      "ꯐꯪ",
      "ꯒꯅꯤ</w>"
    ],
    [
      "ꯇꯃꯤ",
      "ꯜ</w>"
    ],
    [
      "ꯄꯥ",
      "ꯁ</w>"
    ],
    [
      "ꯃꯨ",
      "ꯛ</w>"
    ],
    [
      "ꯀ",
      "ꯣꯡ"
    ],
    [
      "ꯗꯤꯄꯥꯔ",
      "ꯠꯃꯦꯟ"
    ],
    [
      "ꯃꯍꯧꯁꯥ",
      "ꯅ,</w>"
    ],
    [
      "ꯍꯥ",
      "ꯌ"
    ],
    [
      "ꯏ",
      "ꯔꯥ"
    ],
    [
      "ꯂꯥꯟꯗꯥ",
      "ꯕ</w>"
    ],
    [
      "ꯁꯥꯡ",
      "ꯂꯕ</w>"
    ],
    [
      "ꯂꯧꯁꯤꯟ",
      "ꯈꯤ꯫</w>"
    ],
    [
      "ꯄ",
      "ꯁꯤꯡꯅ</w>"
    ],
    [
      "ꯃꯤꯅꯤ",
      "ꯁꯇꯔ</w>"
    ],
    [
      "ꯑꯅꯥ-",
      "ꯂꯥꯌꯦꯡ"
    ],
    [
      "ꯇꯔ",
      "ꯥ</w>"
    ],
    [
      "ꯏ",
      "ꯖꯤ"
    ],
    [
      "ꯑꯁꯣꯏ",
      "ꯕ</w>"
    ],
    [
      "꯲",
      "꯴"
    ],
    [
      "ꯐꯪ",
      "ꯂꯤꯕ</w>"
    ],
    [
      "ꯃꯦ",
      "ꯇ꯭ꯔꯣ"
    ],
    [
      "ꯑꯃ",
      "ꯣ"
    ],
    [
      "দ",
      "োক"
    ],
    [
      "ং",
      "খি।</w>"
    ],
    [
      "ꯐꯥ",
      "ꯖꯤꯟ"
    ],
    [
      "ꯄꯨꯝꯅ",
      "ꯃꯛꯅ</w>"
    ],
    [
      "ꯂꯨꯍꯣꯡ",
      "ꯕꯒꯤ</w>"
    ],
    [
      "꯭ꯌꯥ",
      "ꯟ</w>"
    ],
    [
      "ꯁꯤ",
      "ꯕꯥ"
    ],
    [
      "ꯀꯟ",
      "ꯇ꯭ꯔꯣ"
    ],
    [
      "ꯍꯣꯁꯄꯤ",
      "ꯇꯥ"
    ],
    [
      "ꯕꯤꯁ",
      "ꯅꯨ"
    ],
    [
      "ꯕꯣ",
      "ꯔꯗ</w>"
    ],
    [
      "ꯂꯥꯏ",
      "ꯅꯥ"
    ],
    [
      "ꯀꯣ",
      "ꯒꯤ</w>"
    ],
    [
      "ꯃꯦ",
      "ꯝꯕꯔ"
    ],
    [
      "ꯖꯅꯨ",
      "ꯋꯥꯔꯤꯒꯤ</w>"
    ],
    [
      "স",
      "কী</w>"
    ],
    [
      "ন",
      "ি</w>"
    ],
    [
      "ꯋꯦ",
      "ꯒꯤ</w>"
    ],
    [
      "ꯐ",
      "ꯥ</w>"
    ],
    [
      "ꯂꯩꯕꯥꯛ",
      "ꯇ</w>"
    ],
    [
      "ꯍꯥꯏ",
      "ꯗ꯭ꯔ"
    ],
    [
      "ꯑꯣꯒ",
      "ꯁꯠ</w>"
    ],
    [
      "ꯑꯆ",
      "ꯝꯕ</w>"
    ],
    [
      "ꯂꯧ",
      "ꯅ"
    ],
    [
      "꯭",
      "ꯛ</w>"
    ],
    [
      "ꯅꯤ",
      "ꯀꯦꯜ</w>"
    ],
    [
      "ꯔꯣ",
      "ꯝ</w>"
    ],
    [
      "ꯎꯠ",
      "ꯅꯕ</w>"
    ],
    [
      "ꯂ",
      "ꯗꯥ"
    ],
    [
      "ꯀ",
      "ꯗꯧꯔꯤꯕ</w>"
    ],
    [
      "ꯃꯐꯝ",
      "ꯁꯤꯡꯒꯤ</w>"
    ],
    [
      "ꯄꯣ",
      "ꯈꯥꯏ"
    ],
    [
      "ꯁꯠ",
      "ꯁꯤꯡꯅ</w>"
    ],
    [
      "ꯍꯦꯟꯗ",
      "ꯥꯟꯅꯕ</w>"
    ],
    [
      "ꯄꯣꯠ",
      "ꯁꯛ</w>"
    ],
    [
      "ꯊ꯭ꯔ",
      "ꯣ"
    ],
    [
      "ꯇꯦꯛ",
      "ꯁ"
    ],
    [
      "ꯏꯂꯦꯛ",
      "ꯇ꯭ꯔꯣ"
    ],
    [
      "ꯑꯣꯒ",
      "ꯁꯠꯀꯤ</w>"
    ],
    [
      "ত",
      "া"
    ],
    [
      "্র",
      "ো"
    ],
    [
      "ꯂꯩ",
      "ꯅ"
    ],
    [
      "ꯉꯁꯤ",
      "ꯗꯤ</w>"
    ],
    [
      "ꯑꯩ",
      "ꯕꯨ</w>"
    ],
    [
      "ꯂꯥꯡ",
      "ꯈꯤ꯫</w>"
    ],
    [
      "ꯂꯩꯉꯥꯛ",
      "ꯄ</w>"
    ],
    [
      "ꯃꯄꯥꯟ",
      "ꯒꯤ</w>"
    ],
    [
      "ꯆꯦꯝꯄ",
      "꯭ꯌ"
    ],
    [
      "ꯋꯥꯔ",
      "</w>"
    ],
    [
      "ꯁꯦꯝ",
      "ꯈꯤꯕꯅꯤ꯫</w>"
    ],
    [
      "ꯒ",
      "ꯔꯒꯤ</w>"
    ],
    [
      "ꯁꯤ",
      "ꯠ"
    ],
    [
      "ꯗ꯭ꯔꯦ",
      "꯫</w>"
    ],
    [
      "ꯁ꯭",
      "ꯇꯥꯏ"
    ],
    [
      "ꯁꯦ",
      "ꯠ</w>"
    ],
    [
      "ꯈꯨꯖꯤ",
      "ꯡꯗ</w>"
    ],
    [
      "ꯂꯧ",
      "ꯏ꯫</w>"
    ],
    [
      "ꯏꯀꯥꯏ",
      "ꯈꯨꯝꯅꯕ</w>"
    ],
    [
      "ꯅ",
      "ꯗ</w>"
    ],
    [
      "ꯍꯥꯏ",
      "ꯔꯤ꯫</w>"
    ],
    [
      "ꯁꯛ",
      "ꯈꯪ"
    ],
    [
      "ꯂꯥꯟ",
      "ꯗꯥꯔ"
    ],
    [
      "ꯂꯣꯏ",
      "ꯔꯕ</w>"
    ],
    [
      "ꯖꯥ",
      "ꯇꯤꯒꯤ</w>"
    ],
    [
      "ꯎꯠ",
      "ꯈꯤ</w>"
    ],
    [
      "ꯀꯦꯟ",
      "ꯁꯔ</w>"
    ],
    [
      "ꯇꯔ",
      "ꯟ</w>"
    ],
    [
      "ꯑꯦꯀꯥ",
      "ꯗꯦ"
    ],
    [
      "ꯀ꯭ꯔꯦ",
      "ꯗꯤꯠ</w>"
    ],
    [
      "ꯀꯦ",
      "ꯄꯤ"
    ],
    [
      "ꯇꯦꯔꯤ",
      "ꯇꯣ"
    ],
    [
      "ꯂꯥꯛ",
      "ꯈꯤ</w>"
    ],
    [
      "ꯔꯥꯖ",
      "ꯁꯊ"
    ],
    [
      "ꯇ",
      "ꯀ"
    ],
    [
      "ꯅꯣꯡ",
      "ꯖꯨ"
    ],
    [
      "ꯇꯔ",
      "ꯅ</w>"
    ],
    [
      "গী",
      "দম"
    ],
    [
      "ꯖ",
      ",</w>"
    ],
    [
      "ꯂꯦ",
      "ꯖꯤ"
    ],
    [
      "ꯁꯦ",
      "ꯀ꯭ꯔꯦ"
    ],
    [
      "ꯃ",
      "ꯌꯥꯝ"
    ],
    [
      "꯲",
      "ꯗꯒꯤ</w>"
    ],
    [
      "ꯠꯅ",
      "ꯕꯒꯤ</w>"
    ],
    [
      "ꯆ",
      "ꯕ</w>"
    ],
    [
      "ꯃꯤ",
      "ꯅ</w>"
    ],
    [
      "ꯄꯣꯠ",
      "ꯊꯣꯛ</w>"
    ],
    [
      "ꯑꯦꯋꯥꯔ",
      "ꯗ</w>"
    ],
    [
      "ꯑꯍꯥꯟ",
      "ꯕꯒꯤ</w>"
    ],
    [
      "ꯕ",
      "ꯥꯏ</w>"
    ],
    [
      "ꯀꯌꯥ",
      "ꯝ</w>"
    ],
    [
      "꯲꯰",
      "꯰</w>"
    ],
    [
      "ꯅꯦꯁ꯭",
      "ꯅꯦꯜ</w>"
    ],
    [
      "ꯃꯔꯨ",
      "ꯞ"
    ],
    [
      "ꯂꯨ",
      "ꯕ</w>"
    ],
    [
      "ꯃꯤ",
      "ꯌꯥ</w>"
    ],
    [
      "꯱",
      "꯳</w>"
    ],
    [
      "ꯃꯤ",
      "ꯔꯣ"
    ],
    [
      "ꯕꯦ",
      "ꯗꯤ"
    ],
    [
      "ꯑꯋꯥꯡ-",
      "ꯅꯣꯡꯄꯣꯛ</w>"
    ],
    [
      "ꯍꯟꯊ",
      "ꯕ</w>"
    ],
    [
      "ꯂꯦꯞ",
      "ꯇꯅ</w>"
    ],
    [
      "ꯁꯪ",
      "ꯒꯣ"
    ],
    [
      "꯲",
      "."
    ],
    [
      "ꯇꯨ",
      "ꯔꯦꯟ"
    ],
    [
      "ꯄꯣꯠ-",
      "ꯆꯩ</w>"
    ],
    [
      "ꯊꯥꯗꯣꯛ",
      "ꯈꯤ</w>"
    ],
    [
      "ꯄꯥꯛ",
      "ꯅ</w>"
    ],
    [
      "ꯒꯤ",
      "ꯅꯤ</w>"
    ],
    [
      "ꯑꯣꯏ",
      "ꯕ"
    ],
    [
      "꯱",
      "꯴ꯗ</w>"
    ],
    [
      "ꯐꯪ",
      "ꯏ</w>"
    ],
    [
      "ꯈꯥꯏ",
      "ꯗꯣꯛꯄ</w>"
    ],
    [
      "ꯈ꯭ꯔꯤ",
      "ꯁꯇ"
    ],
    [
      "ꯑꯣꯟ",
      "ꯂꯥꯏꯟꯗ</w>"
    ],
    [
      "ꯐꯣ",
      "ꯇꯣ"
    ],
    [
      "ꯁꯨ",
      "ꯄꯔ"
    ],
    [
      "ꯃꯥꯔ",
      "ꯆꯀꯤ</w>"
    ],
    [
      "꯱",
      "꯳ꯗ</w>"
    ],
    [
      "ꯁꯥ",
      "ꯅ"
    ],
    [
      "꯱꯹",
      "</w>"
    ],
    [
      "ꯃꯥꯏꯄꯥꯛ",
      "ꯂꯕ</w>"
    ],
    [
      "ꯄꯥꯟ",
      "ꯖꯟ</w>"
    ],
    [
      "ꯑꯥꯏ",
      "ꯟ</w>"
    ],
    [
      "ꯂꯩꯕ",
      "ꯥ</w>"
    ],
    [
      "ꯁꯦꯝ",
      "ꯕꯒꯤ</w>"
    ],
    [
      "ꯔꯕ",
      "ꯁꯨ,</w>"
    ],
    [
      "ꯊꯝ",
      "ꯂꯤꯕ</w>"
    ],
    [
      "꯰",
      "ꯗꯒꯤ</w>"
    ],
    [
      "ꯝ",
      "ꯁꯤꯡꯅ</w>"
    ],
    [
      "ꯋꯥꯈ",
      "ꯜꯒꯤ</w>"
    ],
    [
      "ꯁ",
      "ꯀꯤꯗꯃꯛ</w>"
    ],
    [
      "ꯀꯥ",
      ",</w>"
    ],
    [
      "ꯑꯉ",
      "ꯧꯕ</w>"
    ],
    [
      "ꯊꯣꯛ",
      "ꯍꯜꯂꯤ꯫</w>"
    ],
    [
      "ꯅꯦ",
      "ꯄꯥ"
    ],
    [
      "র",
      "্ত"
    ],
    [
      "তে",
      "দ</w>"
    ],
    [
      "ম্",
      "ম"
    ],
    [
      "ꯑꯥ",
      "ꯅ"
    ],
    [
      "ꯚ",
      "ꯥ</w>"
    ],
    [
      "ꯑ",
      "ꯂꯥꯎ"
    ],
    [
      "ꯂꯣꯏꯁꯤꯟ",
      "ꯈꯤ</w>"
    ],
    [
      "ꯁ",
      "ꯒꯣꯜ</w>"
    ],
    [
      "ꯅꯤꯡ",
      "ꯒꯤ</w>"
    ],
    [
      "ꯂꯝꯖꯤꯡ-ꯂꯝ",
      "ꯇꯥꯛ"
    ],
    [
      "ꯖꯤ",
      "ꯕ</w>"
    ],
    [
      "ꯀ꯭ꯔꯣ",
      "ꯁ</w>"
    ],
    [
      "ꯆꯦ",
      "ꯁ</w>"
    ],
    [
      "ꯕꯔ",
      "ꯅ</w>"
    ],
    [
      "ꯁ",
      "ꯁꯤꯡꯅ</w>"
    ],
    [
      "꯱꯸",
      "꯵"
    ],
    [
      "ꯍꯥꯟꯅ",
      "ꯅ</w>"
    ],
    [
      "ꯌꯥꯅꯤꯡ",
      "ꯗꯕ</w>"
    ],
    [
      "ꯀꯣ",
      "ꯆ</w>"
    ],
    [
      "꯲꯰",
      "꯰꯰"
    ],
    [
      "ꯠ",
      "ꯇꯨ"
    ],
    [
      "ꯍꯥꯏꯕ",
      "ꯅꯤ</w>"
    ],
    [
      "ꯆ",
      "ꯣꯡ"
    ],
    [
      "ꯀ꯭",
      "ꯂ"
    ],
    [
      "ꯕꯣ",
      "ꯟ</w>"
    ],
    [
      "ꯃ",
      "ꯪ</w>"
    ],
    [
      "ꯌ",
      "ꯜ</w>"
    ],
    [
      "꯸",
      "ꯗꯒꯤ</w>"
    ],
    [
      "ꯕꯦ",
      "ꯔꯤ"
    ],
    [
      "ꯁꯨꯔꯨ",
      "ꯡ</w>"
    ],
    [
      "ꯃꯤꯡ",
      "ꯊꯣꯟ"
    ],
    [
      "ꯃꯊꯪ",
      "-"
    ],
    [
      "꯵",
      "꯰꯰</w>"
    ],
    [
      "ꯊ",
      "ꯩ"
    ],
    [
      "ꯆ",
      "ꯥꯛ</w>"
    ],
    [
      "ꯗ",
      "꯭ꯋ"
    ],
    [
      "ꯑꯃꯦꯔꯤ",
      "ꯀꯥꯗ</w>"
    ],
    [
      "ꯒ",
      "ꯀꯤ</w>"
    ],
    [
      "ꯕꯪ",
      "ꯒ꯭ꯂꯥꯗꯦ"
    ],
    [
      "ꯝ",
      "ꯗꯒꯤ</w>"
    ],
    [
      "ꯂ",
      "ꯨ</w>"
    ],
    [
      "ꯗꯤ",
      "ꯑꯣ"
    ],
    [
      "ꯒꯨꯝ",
      "ꯅ,</w>"
    ],
    [
      "ꯂꯤꯡꯈꯠ",
      "ꯈꯤ</w>"
    ],
    [
      "ꯖꯒ",
      "ꯣꯏ"
    ],
    [
      "–",
      "</w>"
    ],
    [
      "ꯏꯟ",
      "ꯕꯦ"
    ],
    [
      "(",
      "ꯃꯥꯏꯜ</w>"
    ],
    [
      "ꯑꯣꯏ",
      "ꯅꯕ</w>"
    ],
    [
      "ꯝ",
      "ꯒ</w>"
    ],
    [
      "ꯄꯥꯏ",
      "ꯈꯠ"
    ],
    [
      "ꯈ",
      "ꯥꯟꯅ</w>"
    ],
    [
      "ꯇꯣ",
      "ꯞ</w>"
    ],
    [
      "ꯆꯥꯡꯗꯝꯅ",
      "ꯕꯗ</w>"
    ],
    [
      "ꯂꯥꯏ",
      "ꯗ</w>"
    ],
    [
      "ꯂꯣ",
      "ꯁ</w>"
    ],
    [
      "ꯂꯟ",
      "-ꯊꯨꯝ</w>"
    ],
    [
      "ꯍꯧ",
      "ꯔꯒ</w>"
    ],
    [
      "ꯑꯅꯤ",
      "ꯔꯛ</w>"
    ],
    [
      "ꯃꯤꯈ",
      "ꯜ</w>"
    ],
    [
      "ꯁꯔ",
      "ꯖ"
    ],
    [
      "ꯐꯖ",
      "ꯔꯕ</w>"
    ],
    [
      "ꯑꯣ",
      "ꯠ-"
    ],
    [
      "ꯇꯤ",
      "ꯔꯨ"
    ],
    [
      "ꯅꯥ",
      "ꯒꯥ"
    ],
    [
      "ꯒ",
      ",</w>"
    ],
    [
      "ꯐꯣꯡ",
      "ꯕ</w>"
    ],
    [
      "ꯀ꯭ꯋ",
      "ꯦ"
    ],
    [
      "ꯐꯤ",
      "ꯂꯤ"
    ],
    [
      "ꯒꯦꯝ",
      "ꯁꯇ</w>"
    ],
    [
      "ꯑꯣꯏ",
      "ꯗꯦ</w>"
    ],
    [
      "ꯈꯪꯗꯣꯛ",
      "ꯅꯕ</w>"
    ],
    [
      "ꯁꯦꯝ",
      "ꯗꯣꯛ-"
    ],
    [
      "ꯍꯥꯏ",
      "ꯋꯦ</w>"
    ],
    [
      ")",
      "ꯅ</w>"
    ],
    [
      "ꯆꯤꯡꯁꯤꯟ",
      "ꯅꯤꯡꯉꯥꯏ</w>"
    ],
    [
      "ꯁꯔ",
      "ꯆ</w>"
    ],
    [
      "চ",
      "হ"
    ],
    [
      "ꯅ",
      "ꯥꯔꯥ"
    ],
    [
      "ꯕꯥ",
      "ꯜ"
    ],
    [
      "ꯏꯁ",
      "ꯩꯁꯤꯡ</w>"
    ],
    [
      "ꯕꯨ",
      "ꯛ</w>"
    ],
    [
      "ꯊꯥꯗꯣꯛ",
      "ꯈꯤ꯫</w>"
    ],
    [
      "ꯂꯨ",
      "ꯅ</w>"
    ],
    [
      "ꯂꯥꯟ",
      "ꯗ</w>"
    ],
    [
      "ꯇꯧ",
      "ꯈꯤ,</w>"
    ],
    [
      "ꯝ",
      "ꯕꯨ</w>"
    ],
    [
      "ꯏ",
      "ꯈꯤ꯫</w>"
    ],
    [
      "ꯂꯥ",
      "ꯜ</w>"
    ],
    [
      "ꯄꯥꯔ",
      "ꯇꯤꯒꯤ</w>"
    ],
    [
      "ꯌꯨ.ꯑꯦꯁ.",
      "ꯀꯤ</w>"
    ],
    [
      "ꯇ",
      "ꯣꯏ"
    ],
    [
      "্র",
      "া"
    ],
    [
      "ঈ",
      "শ"
    ],
    [
      "ꯀꯥꯎꯟ",
      "ꯁꯤ"
    ],
    [
      "ꯁꯤ",
      "ꯖꯟ"
    ],
    [
      "ꯃꯍꯥꯛ",
      "ꯅꯥ</w>"
    ],
    [
      "ꯆꯍꯤ",
      "ꯗ</w>"
    ],
    [
      "ꯃꯔꯥ",
      "ꯊꯥ</w>"
    ],
    [
      "ꯊꯤꯡ",
      "ꯅꯕ</w>"
    ],
    [
      "ꯔꯥꯖ",
      "ꯄꯨ"
    ],
    [
      "ꯖ",
      "ꯪ"
    ],
    [
      "ꯗꯕ",
      "ꯁꯤꯡ</w>"
    ],
    [
      "ꯉꯝ",
      "ꯈꯤꯗꯦ</w>"
    ],
    [
      "ꯂꯣ",
      "ꯝꯒꯤ</w>"
    ],
    [
      "ꯃꯦꯅꯦ",
      "ꯖꯔ</w>"
    ],
    [
      "ꯇ꯭ꯔꯤ",
      "ꯕ</w>"
    ],
    [
      "ꯑꯉꯥꯡ",
      "ꯁꯤꯡꯒꯤ</w>"
    ],
    [
      "ꯁꯦꯝ",
      "ꯗꯣꯛ"
    ],
    [
      "ꯃꯈ",
      "ꯩ</w>"
    ],
    [
      "ꯗꯣ",
      "ꯔ"
    ],
    [
      "ꯀꯦ",
      "ꯜ"
    ],
    [
      "ꯗ",
      "ꯁ</w>"
    ],
    [
      "ꯋꯥ",
      "ꯠꯄ</w>"
    ],
    [
      "ꯍꯟꯊ",
      "ꯅ</w>"
    ],
    [
      "য়",
      "র"
    ],
    [
      "প",
      "ী"
    ],
    [
      "ꯗ",
      "ꯅ,</w>"
    ],
    [
      "ꯒ",
      "ꯜꯒꯤ</w>"
    ],
    [
      "ꯃꯤ",
      "ꯗ"
    ],
    [
      "꯱",
      "꯵ꯗ</w>"
    ],
    [
      "ꯉꯝ",
      "ꯈꯤ꯫</w>"
    ],
    [
      "꯱",
      "꯰ꯗ</w>"
    ],
    [
      "ꯂꯥ",
      ",</w>"
    ],
    [
      "ꯌꯨꯝ",
      "ꯂꯣꯟ"
    ],
    [
      "ꯆꯥꯡ",
      "ꯗꯝ"
    ],
    [
      "ꯑꯣꯏꯔꯕ",
      "ꯁꯨ,</w>"
    ],
    [
      "ꯃꯁꯥ",
      "ꯕꯨ</w>"
    ],
    [
      "ꯒ",
      "-"
    ],
    [
      "ꯃꯦ",
      "ꯒꯥ"
    ],
    [
      "ꯌꯦꯡ",
      "ꯁꯤꯟꯕ</w>"
    ],
    [
      "ꯈꯨꯗꯤꯡ",
      "ꯃꯛꯅ</w>"
    ],
    [
      "ꯈꯨꯟ",
      "ꯗꯥ"
    ],
    [
      "ꯄ",
      "ꯁꯤꯡꯒꯤ</w>"
    ],
    [
      "ꯂꯤ",
      "ꯉꯩ</w>"
    ],
    [
      "ꯖꯔ",
      "ꯃꯅꯤ"
    ],
    [
      "ꯗꯔ",
      "ꯟ</w>"
    ],
    [
      "ꯣꯛ",
      "ꯀꯤ</w>"
    ],
    [
      "ꯁꯤꯟ",
      "ꯗ꯭ꯔꯣ"
    ],
    [
      "ꯑꯣ",
      ".</w>"
    ],
    [
      "প",
      "ি"
    ],
    [
      "ꯙ",
      "ꯤ</w>"
    ],
    [
      "ꯐꯤ",
      "ꯖꯣ"
    ],
    [
      "ꯗꯤꯜꯂꯤ",
      "ꯒꯤ</w>"
    ],
    [
      "ꯑꯍ",
      "ꯜ</w>"
    ],
    [
      "ꯀꯨꯝ",
      "ꯖꯥ</w>"
    ],
    [
      "ꯂꯨ",
      "ꯄꯥ"
    ],
    [
      "ꯃꯃꯤ",
      "ꯔꯣꯏ"
    ],
    [
      "ꯋꯥꯍꯟ",
      "ꯊꯣꯛ</w>"
    ],
    [
      "ꯃꯤ",
      "ꯗ</w>"
    ],
    [
      "ꯚꯣ",
      "ꯠ</w>"
    ],
    [
      "ꯄꯨꯝ",
      "ꯕꯗ</w>"
    ],
    [
      "ꯃꯦ",
      "ꯗꯜ</w>"
    ],
    [
      "ꯁꯥ",
      "ꯈꯤꯕꯅꯤ꯫</w>"
    ],
    [
      "ꯇꯝ",
      "ꯄꯥꯛ"
    ],
    [
      "ꯎꯠ",
      "ꯇꯔꯥ"
    ],
    [
      "ꯍꯤ",
      "ꯜ"
    ],
    [
      "ꯂꯩ",
      "ꯀꯥꯏ</w>"
    ],
    [
      "ꯌꯦꯡ",
      "ꯕꯗ</w>"
    ],
    [
      "ꯁꯤ",
      "ꯒ"
    ],
    [
      "ꯕ꯭ꯂꯦ",
      "ꯛ</w>"
    ],
    [
      "ꯏ",
      "ꯁꯤꯡꯗ</w>"
    ],
    [
      "ꯅꯝ",
      "ꯕꯔ</w>"
    ],
    [
      "ꯑꯟ",
      "ꯙ꯭ꯔ"
    ],
    [
      "ꯌꯦ",
      "ꯂꯣ</w>"
    ],
    [
      "য়ু",
      "নাই"
    ],
    [
      "য়ুনাই",
      "তেদ</w>"
    ],
    [
      "তৌ",
      "খি।</w>"
    ],
    [
      "ꯍꯛ",
      "ꯁꯦꯜꯒꯤ</w>"
    ],
    [
      "ꯍꯥ",
      "ꯢ"
    ],
    [
      "ꯌꯦ",
      "ꯛꯄ</w>"
    ],
    [
      "ꯃ",
      "ꯣꯡ"
    ],
    [
      "ꯕꯤ",
      "ꯗꯤ"
    ],
    [
      "ꯄ",
      "ꯊꯥ"
    ],
    [
      "ꯊꯦꯡ",
      "ꯅꯕ</w>"
    ],
    [
      "ꯔꯝ",
      "ꯃꯤ,</w>"
    ],
    [
      "ꯍꯣꯠꯅ",
      "ꯕꯗ</w>"
    ],
    [
      "ꯁꯦꯝ",
      "ꯖꯤꯟ</w>"
    ],
    [
      "ꯁꯤ.",
      "ꯒꯤ</w>"
    ],
    [
      "ꯊ",
      "ꯛ</w>"
    ],
    [
      "ꯌꯦ",
      "ꯠꯅꯕ</w>"
    ],
    [
      "ꯀ꯭",
      "ꯂꯕ"
    ],
    [
      "ꯈꯨꯗꯣꯡꯆꯥ",
      "ꯗꯕ</w>"
    ],
    [
      ".ꯑꯦ.",
      "ꯒꯤ</w>"
    ],
    [
      "ꯁꯥꯒ",
      "ꯩꯒꯤ</w>"
    ],
    [
      "ꯗꯥꯏ",
      "ꯗ</w>"
    ],
    [
      "꯴",
      "ꯗꯒꯤ</w>"
    ],
    [
      "ꯅꯥ",
      "ꯠ</w>"
    ],
    [
      "ꯑꯗꯨ",
      "ꯕꯨ"
    ],
    [
      "ꯑꯦ",
      "ꯇꯦꯛ</w>"
    ],
    [
      "ꯁꯣ",
      "ꯠ</w>"
    ],
    [
      "ꯁꯦꯟ",
      "-ꯊꯨꯝꯒꯤ</w>"
    ],
    [
      "ꯄ꯭ꯔꯦ",
      "ꯁꯤꯗꯦꯟ"
    ],
    [
      "ꯄꯦ",
      "ꯅꯥꯜ"
    ],
    [
      "ꯑꯀꯣꯏ",
      "ꯕꯒꯤ</w>"
    ],
    [
      "ꯃꯦ",
      "ꯘꯥ"
    ],
    [
      "ꯑꯣꯂꯤꯝꯄꯤ",
      "ꯛꯁꯇ</w>"
    ],
    [
      "ꯁꯦ",
      "ꯀ꯭ꯌꯨ"
    ],
    [
      "ꯛ",
      "ꯠ</w>"
    ],
    [
      "ꯖꯤ",
      "ꯅꯦ"
    ],
    [
      "ꯍꯛ",
      "ꯇꯤꯟ"
    ],
    [
      "স্ত",
      "</w>"
    ],
    [
      "ব",
      "দা</w>"
    ],
    [
      "ঙ",
      "া"
    ],
    [
      "ꯐꯥꯏꯅꯦ",
      "ꯜꯗ</w>"
    ],
    [
      "ꯁꯣ",
      "</w>"
    ],
    [
      "ꯀꯦ",
      "ꯇ"
    ],
    [
      "ꯐꯣꯡ",
      "ꯈꯤꯕ</w>"
    ],
    [
      "ꯑꯃ",
      "ꯗ,</w>"
    ],
    [
      "ꯗꯦ",
      "ꯕꯤ"
    ],
    [
      "ꯕꯤ",
      "ꯔ</w>"
    ],
    [
      "ꯂꯨ",
      "ꯀ"
    ],
    [
      "ꯃꯍꯩ-ꯃꯔ",
      "ꯣꯡ"
    ],
    [
      "ꯃ",
      "ꯌꯥꯝ</w>"
    ],
    [
      "ꯟ",
      "ꯕꯨ</w>"
    ],
    [
      "ꯍꯥꯠ",
      "ꯈꯤ</w>"
    ],
    [
      "ꯏꯟꯗꯣ",
      "-"
    ],
    [
      "꯱꯸",
      "꯹"
    ],
    [
      "ꯑꯃꯥꯡ-ꯑ",
      "ꯇꯥ</w>"
    ],
    [
      "ꯥꯎ",
      "ꯒꯤ</w>"
    ],
    [
      "ꯅꯥ",
      "ꯗꯨꯒꯤ</w>"
    ],
    [
      "ꯋꯥꯍꯩ",
      "ꯁꯤꯡ</w>"
    ],
    [
      "ꯃ",
      "ꯝ"
    ],
    [
      "꯲",
      "꯶"
    ],
    [
      "ꯐꯝ",
      "ꯁꯤꯡꯒꯤ</w>"
    ],
    [
      "ꯦ",
      "</w>"
    ],
    [
      "ꯄ",
      "ꯅꯤ</w>"
    ],
    [
      "ꯍꯛ",
      "ꯆꯥꯡꯗ</w>"
    ],
    [
      "ꯇ꯭ꯔ",
      "ꯦꯟ</w>"
    ],
    [
      "ꯊꯥ",
      "ꯕꯒꯤ</w>"
    ],
    [
      "ꯀꯁꯇ",
      "ꯃꯔ"
    ],
    [
      "ꯃꯍ",
      "ꯥꯎ</w>"
    ],
    [
      "ꯅꯨꯡꯁꯤ",
      "ꯠꯀꯤ</w>"
    ],
    [
      "ꯌꯥꯎ",
      "ꯔꯤꯕ</w>"
    ],
    [
      "ꯀꯁꯇ",
      "ꯃꯔ</w>"
    ],
    [
      "꯳",
      "."
    ],
    [
      "ব",
      "্"
    ],
    [
      "র",
      "ী</w>"
    ],
    [
      "ꯈꯣꯡꯖ",
      "ꯪ"
    ],
    [
      "ꯋ",
      "ꯣ"
    ],
    [
      "ꯑꯃ",
      "ꯤ"
    ],
    [
      "ꯆꯤ",
      "ꯐ</w>"
    ],
    [
      "ꯀꯨꯃꯥꯔ",
      "</w>"
    ],
    [
      "ꯂꯤ",
      "ꯇꯤ</w>"
    ],
    [
      "ꯔ",
      "ꯣꯛ</w>"
    ],
    [
      "ꯄꯤ",
      "ꯈꯤ,</w>"
    ],
    [
      "ꯎ",
      "ꯀꯤ"
    ],
    [
      "ꯗ",
      "ꯥꯟ"
    ],
    [
      "꯱꯹꯸",
      "꯰ꯒꯤ</w>"
    ],
    [
      "-",
      "ꯄꯨ"
    ],
    [
      "ꯁꯦꯟ",
      "ꯒꯤ</w>"
    ],
    [
      "꯲꯰꯰",
      "꯱ꯗ</w>"
    ],
    [
      "ꯐꯣꯔ",
      "ꯃꯦ"
    ],
    [
      "ꯇꯧ",
      "ꯔꯤ꯫</w>"
    ],
    [
      "ꯌꯨꯝ",
      "ꯁꯥ-"
    ],
    [
      "ꯍꯟꯊ",
      "ꯔꯛ"
    ],
    [
      "ꯅꯤ",
      "ꯌꯥ"
    ],
    [
      "ꯃ",
      "ꯊꯦ"
    ],
    [
      "ꯊꯥ",
      "ꯗꯕ</w>"
    ],
    [
      "ꯒꯣ",
      "ꯔꯤ</w>"
    ],
    [
      "ꯚ",
      "ꯤ</w>"
    ],
    [
      "ꯔꯣ",
      "ꯗ</w>"
    ],
    [
      "ꯁꯥꯟꯅ",
      "ꯩ꯫</w>"
    ],
    [
      "꯱꯸",
      "꯶"
    ],
    [
      "ꯞ",
      ",</w>"
    ],
    [
      "ꯚꯤ",
      "ꯗꯤꯑꯣ</w>"
    ],
    [
      "ꯂꯩꯕ",
      ",</w>"
    ],
    [
      "ꯑꯃꯃ",
      "ꯝ</w>"
    ],
    [
      "꯲꯰꯱",
      "꯶ꯀꯤ</w>"
    ],
    [
      "ꯀꯥꯡ",
      "ꯂꯣꯟ"
    ],
    [
      "খ",
      "ি</w>"
    ],
    [
      "ꯂꯝꯕꯤ",
      "ꯒꯤ</w>"
    ],
    [
      "ꯁꯔ",
      "ꯚꯤ"
    ],
    [
      "ꯛ",
      "ꯇꯣ"
    ],
    [
      "ꯏ",
      "ꯁ꯭"
    ],
    [
      "ꯁꯝ",
      "ꯅꯕ</w>"
    ],
    [
      "ꯕꯣꯂꯤ",
      "ꯋꯨ"
    ],
    [
      "ꯁꯨ",
      "ꯕꯗ</w>"
    ],
    [
      "ꯃꯦꯗꯤ",
      "ꯀꯦꯜ</w>"
    ],
    [
      "ꯁꯤ",
      "ꯠꯅ</w>"
    ],
    [
      "ꯑꯉꯥꯡ",
      "ꯁꯤꯡꯗ</w>"
    ],
    [
      "ꯐꯒꯠ",
      "ꯂꯛ"
    ],
    [
      "ꯌꯨꯝꯁꯥ-",
      "ꯀꯩ"
    ],
    [
      "ꯕ",
      "ꯁꯤ</w>"
    ],
    [
      "ꯂꯧ",
      "ꯊꯣꯛꯄ</w>"
    ],
    [
      "ꯏ",
      "ꯗ</w>"
    ],
    [
      "ꯅꯤ",
      "ꯌꯥꯗ</w>"
    ],
    [
      "ꯍꯟꯊ",
      "ꯔꯛꯄ</w>"
    ],
    [
      "ꯆꯦ",
      "ꯜꯂꯤ꯫</w>"
    ],
    [
      "ꯏ",
      "ꯔꯨ"
    ],
    [
      "ꯁꯪ",
      "ꯕ</w>"
    ],
    [
      "ꯇꯀ",
      "ꯃꯥꯟ</w>"
    ],
    [
      "ꯏꯟ",
      "ꯐꯦ"
    ],
    [
      "ꯁꯦꯟꯗꯣ",
      "ꯟ</w>"
    ],
    [
      "19",
      "9"
    ],
    [
      "ꯆꯦ",
      "ꯜ</w>"
    ],
    [
      "ꯗꯦ",
      "ꯕ</w>"
    ],
    [
      "ꯕ꯭ꯔꯤꯇꯤ",
      "ꯁꯅ</w>"
    ],
    [
      "ꯑ",
      "ꯌꯤ"
    ],
    [
      "ꯄꯥꯡꯊꯣꯛ",
      "ꯅꯕ</w>"
    ],
    [
      "ꯍꯣ",
      "ꯝ</w>"
    ],
    [
      "ꯍ",
      "ꯟ</w>"
    ],
    [
      "ꯐꯝ",
      "ꯕꯥꯛ</w>"
    ],
    [
      "ꯑꯁꯣꯛ-ꯑ",
      "ꯄꯟ</w>"
    ],
    [
      "ꯑꯅꯤ",
      ",</w>"
    ],
    [
      "ꯋ",
      "ꯥꯟ"
    ],
    [
      "ꯍꯤ",
      "ꯔꯝ"
    ],
    [
      "ꯄ",
      "ꯠ"
    ],
    [
      "꯱꯹",
      "ꯁꯨꯕ</w>"
    ],
    [
      "ꯑꯉ",
      "ꯟ"
    ],
    [
      "ꯒ꯭ꯔꯤ",
      "ꯛ</w>"
    ],
    [
      "ꯏ-",
      "ꯄꯥꯎ</w>"
    ],
    [
      "ꯍꯣ",
      "ꯠꯅꯕ</w>"
    ],
    [
      "ꯕ꯭ꯔꯤ",
      "ꯇꯦꯟ"
    ],
    [
      "ꯄꯥꯝ",
      "ꯃꯤ</w>"
    ],
    [
      "ꯂꯩꯇꯦ",
      "ꯡ"
    ],
    [
      "ꯐꯤ",
      "ꯔꯣꯜ</w>"
    ],
    [
      "ꯑꯣꯟ",
      "ꯂꯥꯏꯟ</w>"
    ],
    [
      "ꯃꯦꯘꯥ",
      "ꯂ"
    ],
    [
      "ꯃꯑꯣꯡ-",
      "ꯃꯇꯧ</w>"
    ],
    [
      "ꯃ",
      "ꯍꯤ</w>"
    ],
    [
      "ꯋꯤꯟ",
      "ꯗꯣꯁ</w>"
    ],
    [
      "ম্",
      "না</w>"
    ],
    [
      "খ",
      "ু"
    ],
    [
      "ꯁ꯭",
      "ꯂꯦ"
    ],
    [
      "ꯍꯣ",
      "ꯠ"
    ],
    [
      "꯱꯸",
      "ꯗ</w>"
    ],
    [
      "ꯂꯨꯍꯣꯡ",
      "ꯕ</w>"
    ],
    [
      "ꯑꯊꯣꯏ",
      "ꯕ</w>"
    ],
    [
      "ꯃꯂ",
      "ꯌꯥ"
    ],
    [
      "ꯃꯥ",
      "ꯡ</w>"
    ],
    [
      "ꯇ",
      "ꯥꯟꯕ</w>"
    ],
    [
      "꯲",
      "꯷"
    ],
    [
      "ꯐꯥꯎ",
      "ꯕ,</w>"
    ],
    [
      "ꯗ",
      "ꯦꯟ</w>"
    ],
    [
      "ꯀꯥꯏ",
      "ꯕ</w>"
    ],
    [
      "ꯁꯨ",
      "ꯡ"
    ],
    [
      "ꯃꯤ",
      "ꯅꯦ"
    ],
    [
      "ꯗ",
      "ꯗꯤ,</w>"
    ],
    [
      "ꯅꯕꯦ",
      "ꯝꯕꯔꯒꯤ</w>"
    ],
    [
      "ꯀ",
      "ꯃꯟ</w>"
    ],
    [
      "ꯍꯟꯊ",
      "ꯍꯟꯕ</w>"
    ],
    [
      "ꯑꯃꯦꯔꯤ",
      "ꯀꯟ</w>"
    ],
    [
      "ꯄꯤ",
      "ꯗꯤ"
    ],
    [
      "র",
      "ি।</w>"
    ],
    [
      "ꯃꯤ",
      "ꯐꯝ</w>"
    ],
    [
      "ꯅ",
      "ꯛꯅꯕ</w>"
    ],
    [
      "ꯌꯨꯔꯣ",
      "ꯞꯀꯤ</w>"
    ],
    [
      "ꯑꯦꯁꯦꯝ",
      "ꯕ꯭ꯂꯤ"
    ],
    [
      "ꯈꯤꯕ",
      "ꯁꯤꯡ</w>"
    ],
    [
      "ꯈꯨꯠ",
      "ꯅ</w>"
    ],
    [
      "ꯃꯈ",
      "ꯜꯁꯤꯡ</w>"
    ],
    [
      "ꯕꯤ",
      "ꯍꯥꯔ"
    ],
    [
      "ꯄꯕ꯭ꯂꯤ",
      "ꯛ</w>"
    ],
    [
      "ꯁꯥ",
      "ꯈꯤꯕ</w>"
    ],
    [
      "ꯇꯦꯂꯨ",
      "ꯒꯨ</w>"
    ],
    [
      "꯱",
      "꯲ꯗ</w>"
    ],
    [
      "ꯂꯤ",
      "ꯌ"
    ],
    [
      "ꯑꯣꯔꯒ",
      "ꯅꯥꯏꯖꯦ"
    ],
    [
      "ꯁꯥ",
      "ꯈꯤ꯫</w>"
    ],
    [
      "ꯇꯥ",
      "ꯗꯕ</w>"
    ],
    [
      "ꯖꯄꯥꯟ",
      "ꯒꯤ</w>"
    ],
    [
      "ꯍꯣꯡ",
      "ꯗꯣꯛꯄ</w>"
    ],
    [
      "ꯄꯔꯤ",
      "ꯡꯗ</w>"
    ],
    [
      "ꯏꯁꯤꯡ",
      "ꯆꯥꯏ"
    ],
    [
      "ꯈꯥꯏꯗꯣꯛ",
      "ꯏ꯫</w>"
    ],
    [
      "ꯖꯦꯟ",
      "ꯇꯤ"
    ],
    [
      "ꯂꯝ",
      "ꯖꯦ"
    ],
    [
      "ꯇꯥꯏ",
      "ꯝ</w>"
    ],
    [
      "ꯄ",
      "ꯜ"
    ],
    [
      "ꯄꯣ",
      "ꯂꯣ</w>"
    ],
    [
      "ꯁ꯭",
      "ꯄꯥꯏ"
    ],
    [
      "ꯁ꯭",
      "ꯋꯦ"
    ],
    [
      "ꯐꯤ",
      "ꯠ</w>"
    ],
    [
      "থ",
      "া"
    ],
    [
      "ম্ম",
      "ি।</w>"
    ],
    [
      "ন",
      "ো"
    ],
    [
      "ꯑꯀꯤ",
      "ꯕ</w>"
    ],
    [
      "꯭",
      "ꯇ"
    ],
    [
      "꯹",
      "ꯗꯒꯤ</w>"
    ],
    [
      "ꯏꯁ",
      "ꯩ"
    ],
    [
      "ꯃ",
      "ꯜ</w>"
    ],
    [
      "ꯕꯣ",
      "ꯝ</w>"
    ],
    [
      "ꯂꯝ",
      "ꯗꯝꯗ</w>"
    ],
    [
      "ꯃꯤꯡꯊꯣ",
      "ꯜ</w>"
    ],
    [
      "ꯊꯣꯛ",
      "ꯍꯟꯈꯤ꯫</w>"
    ],
    [
      "ꯆꯤ",
      "ꯊꯤ</w>"
    ],
    [
      "ꯗꯤ",
      "ꯗ</w>"
    ],
    [
      "ꯒꯨ",
      "ꯔꯨ</w>"
    ],
    [
      "ꯃꯦ",
      "ꯒ"
    ],
    [
      "ꯁꯥꯏ",
      "ꯗ</w>"
    ],
    [
      "ꯙꯔ",
      "ꯃ</w>"
    ],
    [
      "ꯁ꯭",
      "ꯄꯦꯟ"
    ],
    [
      "ꯇꯦꯂꯪ",
      "ꯒꯥ"
    ],
    [
      "ꯠ",
      "ꯁꯤꯡ,</w>"
    ],
    [
      "ꯖꯦ",
      "ꯅꯦ"
    ],
    [
      "ꯃꯤ",
      "ꯅ"
    ],
    [
      "ꯅꯨꯃꯤ",
      "ꯠ"
    ],
    [
      "ꯑꯥꯏ",
      "ꯁ</w>"
    ],
    [
      "ꯐ꯭ꯂꯣ",
      "ꯔꯤ"
    ],
    [
      "ꯃꯑꯣꯡ-",
      "ꯃꯇꯧ"
    ],
    [
      "ꯀꯦꯔ",
      "ꯂꯥ</w>"
    ],
    [
      "ꯐꯦꯕ꯭ꯔꯨ",
      "ꯋꯥꯔꯤꯒꯤ</w>"
    ],
    [
      "ꯈꯪꯅ",
      "ꯔꯕ</w>"
    ],
    [
      "ꯄꯤ",
      "ꯟ"
    ],
    [
      "4",
      "</w>"
    ],
    [
      "ꯉꯝ",
      "ꯅꯕ</w>"
    ],
    [
      "ꯌꯔ",
      "ꯅ</w>"
    ],
    [
      "ꯗ",
      "ꯒꯤ,</w>"
    ],
    [
      "ꯕ",
      "ꯥꯡ"
    ],
    [
      "ꯐꯝ",
      "ꯕꯥ"
    ],
    [
      "ꯃꯣ",
      "ꯟ</w>"
    ],
    [
      "ꯑꯗꯨ",
      "ꯗ,</w>"
    ],
    [
      "ꯍꯟ",
      "ꯒꯅꯤ</w>"
    ],
    [
      "ꯄꯨꯟ",
      "ꯁꯤꯗ</w>"
    ],
    [
      "ꯅꯤ",
      "ꯛ"
    ],
    [
      "ꯀꯌꯥ",
      "ꯗꯒꯤ</w>"
    ],
    [
      "ꯋ",
      "ꯔꯗ</w>"
    ],
    [
      "ꯄꯟꯖꯥ",
      "ꯕ</w>"
    ],
    [
      "ꯐꯤꯕ",
      "ꯝꯗ</w>"
    ],
    [
      "ꯈ",
      "ꯜꯂꯨ"
    ],
    [
      "ꯐ",
      "ꯠ</w>"
    ],
    [
      "ꯎ",
      "ꯃꯪ</w>"
    ],
    [
      "ꯊ",
      "ꯥꯎ</w>"
    ],
    [
      "ꯆꯔ",
      "ꯆ</w>"
    ],
    [
      "ꯑꯥꯏ",
      "ꯑꯣ"
    ],
    [
      "ꯂꯤꯒ",
      "ꯇ</w>"
    ],
    [
      "দ",
      "ো"
    ],
    [
      "মীওই",
      "</w>"
    ],
    [
      "অ",
      "হা"
    ],
    [
      "ꯁꯧꯒꯠ",
      "ꯄ</w>"
    ],
    [
      "ꯂꯝꯖꯤ",
      "ꯡ"
    ],
    [
      "ꯂꯧꯁꯤꯟ",
      "ꯈꯤ</w>"
    ],
    [
      "ꯂꯩꯈꯤ",
      "ꯗꯕ</w>"
    ],
    [
      "ꯑ",
      "ꯄꯥꯝꯕ</w>"
    ],
    [
      "ꯇꯦ",
      "ꯔꯣ"
    ],
    [
      "ꯁꯥ",
      "ꯡ</w>"
    ],
    [
      "ꯃꯃꯤ",
      "ꯡ"
    ],
    [
      "ꯅꯥ",
      "ꯀ"
    ],
    [
      "ꯍꯩꯁꯤꯡ",
      "ꯕ</w>"
    ],
    [
      "ꯐꯪ",
      "ꯈꯤ,</w>"
    ],
    [
      "ꯁꯦꯝꯒꯠ",
      "ꯄ</w>"
    ],
    [
      "ꯃ",
      "ꯧꯔ"
    ],
    [
      "ꯏ",
      "ꯟ</w>"
    ],
    [
      "꯴",
      "꯰"
    ],
    [
      "ꯉ",
      "ꯟꯅ</w>"
    ],
    [
      "ꯊꯥꯒꯠ",
      "ꯄ</w>"
    ],
    [
      "ꯁ",
      "ꯅꯥ</w>"
    ],
    [
      "ꯍꯥꯏꯕ",
      "ꯅꯤ꯫</w>"
    ],
    [
      "ꯍꯨ",
      "ꯟ"
    ],
    [
      "ꯎ",
      "ꯒꯤ</w>"
    ],
    [
      "ꯄ꯭",
      "ꯂꯥꯟ"
    ],
    [
      "ꯐꯦꯗ",
      "ꯔꯦꯁꯟ</w>"
    ],
    [
      "ꯍꯧ",
      "ꯏ꯫</w>"
    ],
    [
      "ꯁꯤ",
      "ꯛ</w>"
    ],
    [
      "ꯇ꯭ꯔꯦ",
      "ꯅꯤꯡ</w>"
    ],
    [
      "ꯗꯤꯕꯤ",
      "ꯖꯟ</w>"
    ],
    [
      "ꯁꯦꯟꯁ",
      "ꯁꯀꯤ</w>"
    ],
    [
      "ꯅꯤ",
      "ꯌꯟ</w>"
    ],
    [
      "ব",
      "াই"
    ],
    [
      "হায়",
      "না</w>"
    ],
    [
      "ꯊꯪ",
      "ꯕꯗ</w>"
    ],
    [
      "꯭",
      "ꯁꯇ</w>"
    ],
    [
      "ꯆꯠ",
      "ꯂꯤꯕ</w>"
    ],
    [
      "꯱",
      "꯱ꯗ</w>"
    ],
    [
      "ꯑꯃ",
      "ꯥ"
    ],
    [
      "ꯕꯦꯡꯒꯣ",
      "ꯜꯒꯤ</w>"
    ],
    [
      "ꯂꯦꯞ",
      "ꯈꯤ꯫</w>"
    ],
    [
      "ꯀꯦ",
      ".</w>"
    ],
    [
      "ꯑꯣꯐꯤ",
      "ꯁꯔ</w>"
    ],
    [
      "ꯐꯦ",
      "ꯌꯔ</w>"
    ],
    [
      "ꯂꯦꯖꯤ",
      "ꯁꯂꯦ"
    ],
    [
      "-",
      "ꯃꯄꯥ"
    ],
    [
      "ꯑꯃ",
      "ꯈꯛꯇꯃꯛ</w>"
    ],
    [
      "ꯂ",
      "ꯣꯡ"
    ],
    [
      "ꯗ",
      "ꯝꯒꯤ</w>"
    ],
    [
      "ꯅ-",
      "ꯇꯩ"
    ],
    [
      "ꯂꯥꯏꯔꯦꯝ",
      "ꯕꯤ</w>"
    ],
    [
      "ꯂꯥꯏ",
      "ꯆꯠ</w>"
    ],
    [
      "ꯆꯠꯊ",
      "ꯕ</w>"
    ],
    [
      "ꯑꯣꯏ",
      "ꯔꯛꯄ</w>"
    ],
    [
      "ꯐꯥꯏ",
      "ꯜ</w>"
    ],
    [
      "ꯂꯦꯟ",
      "ꯁ</w>"
    ],
    [
      "ꯂꯥꯏ",
      "ꯕ</w>"
    ],
    [
      "ꯏꯟꯇꯔ",
      "ꯅꯦꯠ</w>"
    ],
    [
      "ꯇ꯭ꯌꯨ",
      "ꯕꯔ"
    ],
    [
      "ꯊ",
      "ꯥꯏ</w>"
    ],
    [
      "ꯁꯤ",
      "ꯁ"
    ],
    [
      "ꯂꯣꯏꯁꯪ",
      "ꯒꯤ</w>"
    ],
    [
      "ꯑꯦ",
      "ꯔꯤ"
    ],
    [
      "19",
      "8"
    ],
    [
      "ꯊꯥ",
      "ꯗꯣꯛꯄ</w>"
    ],
    [
      "ꯔꯥꯁꯇ꯭ꯔ",
      "ꯄꯇꯤ</w>"
    ],
    [
      "ꯑꯣꯐꯤ",
      "ꯁꯇ</w>"
    ],
    [
      "ꯉꯝꯈ",
      "ꯩ"
    ],
    [
      "ꯑꯣꯏꯅ",
      "ꯁꯨ</w>"
    ],
    [
      "ꯁꯤꯟ",
      "ꯕꯒꯤ</w>"
    ],
    [
      "ꯃꯇ",
      "ꯥꯡ</w>"
    ],
    [
      "ꯂꯕ",
      "ꯁꯨ,</w>"
    ],
    [
      "ꯟ",
      "ꯗꯦ"
    ],
    [
      "ꯂꯝꯕꯤ",
      "ꯁꯤꯡ</w>"
    ],
    [
      "ꯑꯥꯎ",
      "ꯠ</w>"
    ],
    [
      "ꯃꯦꯟ",
      "ꯠꯁꯤꯡ</w>"
    ],
    [
      "ꯕ",
      "ꯁꯤꯡ,</w>"
    ],
    [
      "ꯁꯤꯟ",
      "ꯗꯣꯛ"
    ],
    [
      "ꯌꯥꯟ",
      "ꯁꯤꯟꯅꯕ</w>"
    ],
    [
      "ꯆꯂꯥꯏ",
      "ꯕ</w>"
    ],
    [
      "ꯐꯦ",
      "ꯁꯇꯤ"
    ],
    [
      "ꯄ꯭ꯔꯤ",
      "ꯃꯤ"
    ],
    [
      "ꯁꯤ.",
      "ꯅ</w>"
    ],
    [
      "ꯃꯤ",
      "ꯁ</w>"
    ],
    [
      "ꯅꯥꯔ",
      "ꯕ</w>"
    ],
    [
      "ꯇꯔ",
      "ꯁꯤꯡꯅ</w>"
    ],
    [
      "ꯍ",
      "ꯋꯥꯏ"
    ],
    [
      "ꯕꯤꯌꯨ",
      ",</w>"
    ],
    [
      "ꯅꯨ",
      "꯫</w>"
    ],
    [
      "ꯁꯤ",
      "ꯁꯀꯤ</w>"
    ],
    [
      "ꯒꯦꯝ",
      "ꯁ</w>"
    ],
    [
      "ꯀꯦꯂꯤꯐꯣꯔ",
      "ꯅꯤꯌꯥꯒꯤ</w>"
    ],
    [
      "ꯑꯣꯏꯔꯕ",
      "ꯗꯤ</w>"
    ],
    [
      "শ",
      "ু"
    ],
    [
      "ꯁꯥꯍꯤ",
      "ꯇ꯭ꯌ"
    ],
    [
      "꯲",
      "-"
    ],
    [
      "ꯔꯥꯖ",
      "ꯥ</w>"
    ],
    [
      "ꯎ",
      "ꯔ"
    ],
    [
      "ꯍꯥꯞ",
      "ꯈꯤ꯫</w>"
    ],
    [
      "ꯃꯟ",
      "ꯇ꯭ꯔꯤ"
    ],
    [
      "ꯒꯨꯖꯔꯥ",
      "ꯠꯀꯤ</w>"
    ],
    [
      "ꯂꯟꯗ",
      "ꯟꯗ</w>"
    ],
    [
      "꯷",
      "ꯗ</w>"
    ],
    [
      "ꯑꯣ",
      "ꯐ"
    ],
    [
      "ꯑꯦꯟ",
      "ꯖꯦ"
    ],
    [
      "ꯌꯧ",
      "ꯔꯛ"
    ],
    [
      "ꯇꯦꯂꯤꯚꯤ",
      "ꯖꯟ</w>"
    ],
    [
      "ꯂꯨꯍꯣꯡ",
      "ꯈꯤ</w>"
    ],
    [
      "ꯝ",
      "ꯁꯤꯡꯗ</w>"
    ],
    [
      "ꯍ",
      "ꯛꯇꯨꯅ</w>"
    ],
    [
      "ꯕꯦ",
      "ꯗ</w>"
    ],
    [
      "ꯃꯇ",
      "ꯩ-"
    ],
    [
      "ꯃꯃꯥ",
      "-ꯃꯄꯥ"
    ],
    [
      "ꯁꯕ",
      "ꯀꯟꯇꯤꯅꯦꯟ"
    ],
    [
      "ꯎꯠ",
      "ꯂꯤꯕ</w>"
    ],
    [
      "ꯉꯝ",
      "ꯗꯦ꯫</w>"
    ],
    [
      "ꯃꯊꯪ",
      "ꯁꯤꯠꯅ</w>"
    ],
    [
      "ꯊ",
      "ꯔ"
    ],
    [
      "ꯄ꯭",
      "ꯂꯦꯛ"
    ],
    [
      "ꯍꯦ",
      "ꯔꯤꯇꯦ"
    ],
    [
      "ꯕꯖꯦ",
      "ꯠ</w>"
    ],
    [
      "ꯃ",
      "ꯥꯎ"
    ],
    [
      "ꯕ",
      "ꯛ</w>"
    ],
    [
      "ꯔꯕ",
      "ꯁꯨ</w>"
    ],
    [
      "ꯃꯔꯥ",
      "ꯊꯥ"
    ],
    [
      "ꯈꯤ",
      "ꯗꯕ</w>"
    ],
    [
      "ꯁꯥꯟꯅ-ꯈꯣ",
      "ꯠꯅꯕꯒꯤ</w>"
    ],
    [
      "ꯁꯔꯀꯥꯔ",
      "ꯒꯤ</w>"
    ],
    [
      "ꯅ-",
      "ꯇꯞꯅ</w>"
    ],
    [
      "ꯀꯦꯞ",
      "ꯇꯦꯟ</w>"
    ],
    [
      "ꯕꯤ",
      ",</w>"
    ],
    [
      "꯱",
      "꯶ꯇ</w>"
    ],
    [
      "ꯇꯧ",
      "ꯔꯛ"
    ],
    [
      "ꯙ",
      "ꯨ"
    ],
    [
      "ꯐꯤ",
      "ꯟ"
    ],
    [
      "ꯑꯃꯠꯇ",
      "ꯗ</w>"
    ],
    [
      "꯲꯰꯰",
      "꯸ꯗ</w>"
    ],
    [
      "ꯔꯣ",
      "ꯝꯗ</w>"
    ],
    [
      "ꯏꯟꯗꯤ",
      "ꯌꯥꯒꯤ</w>"
    ],
    [
      "ꯑꯥꯔꯇꯤ",
      "ꯀꯜ</w>"
    ],
    [
      "ꯀꯩꯁꯨꯝ",
      "ꯁꯪꯗ</w>"
    ],
    [
      "ꯒ",
      "ꯇ</w>"
    ],
    [
      "ꯕ",
      "ꯥꯔ</w>"
    ],
    [
      "ꯑꯣꯏ",
      "ꯕ,</w>"
    ],
    [
      "ꯇꯧ",
      "ꯔꯒ</w>"
    ],
    [
      "ꯍꯨ",
      "ꯔꯥꯟ"
    ],
    [
      "ꯉꯥꯛ",
      "ꯊꯣꯛꯄ</w>"
    ],
    [
      "ꯁꯤꯡ",
      "ꯒꯨꯝꯕ</w>"
    ],
    [
      "ꯇ",
      "ꯥꯎ"
    ],
    [
      "ꯐꯣ",
      "ꯔꯝ</w>"
    ],
    [
      "ꯂꯥꯌꯦꯡ",
      "ꯕ</w>"
    ],
    [
      "ꯁꯦ",
      "ꯜꯁꯤꯡ</w>"
    ],
    [
      "ꯅꯤ",
      "ꯀꯣ"
    ],
    [
      "ꯕ",
      "\"</w>"
    ],
    [
      "ꯍꯣ",
      "ꯂꯤ</w>"
    ],
    [
      "ꯁ꯭ꯄꯣꯔ",
      "ꯠꯁ</w>"
    ],
    [
      "꯳",
      ","
    ],
    [
      "ꯇꯥꯃꯤ",
      "ꯟ</w>"
    ],
    [
      "ꯁꯤꯡ",
      ")</w>"
    ],
    [
      "5",
      "</w>"
    ],
    [
      "ম্",
      "বা</w>"
    ],
    [
      "প",
      "</w>"
    ],
    [
      "ꯈꯔ",
      "ꯥ</w>"
    ],
    [
      "ꯁ꯭",
      "ꯅꯨ"
    ],
    [
      "ꯁꯣꯛ",
      "ꯄ</w>"
    ],
    [
      "ꯆ",
      "ꯡ"
    ],
    [
      "ꯁꯦꯟ",
      "ꯅ</w>"
    ],
    [
      "꯲꯰꯱",
      "꯴</w>"
    ],
    [
      "ꯃ",
      "ꯩꯒꯤ</w>"
    ],
    [
      "ꯃꯔ",
      "ꯛ</w>"
    ],
    [
      "ꯃ",
      "ꯌꯥꯝꯅ</w>"
    ],
    [
      "ꯜꯂ",
      "ꯒ</w>"
    ],
    [
      "ꯎ",
      "ꯆꯦꯛ</w>"
    ],
    [
      "ꯖꯦꯟ",
      "ꯒꯤ</w>"
    ],
    [
      "ꯙ",
      "ꯣ"
    ],
    [
      "ꯀꯦ",
      "ꯃꯦ"
    ],
    [
      "ꯁ꯭",
      "ꯃꯤ"
    ],
    [
      "ꯂꯣ",
      "ꯠ"
    ],
    [
      "ꯏ",
      "ꯒꯤ</w>"
    ],
    [
      "ꯑꯣꯟ",
      "ꯅ-ꯇꯩ"
    ],
    [
      "ꯂꯩ",
      "ꯅꯩ꯫</w>"
    ],
    [
      "ꯡ",
      "ꯒꯦ"
    ],
    [
      "ꯇꯤ",
      "ꯕꯦ"
    ],
    [
      "ꯈ",
      "ꯩ</w>"
    ],
    [
      "ꯕꯣ",
      "ꯗꯤ"
    ],
    [
      "ꯇꯦ",
      "ꯕꯜ</w>"
    ],
    [
      "꯲꯰꯰",
      "꯹ꯒꯤ</w>"
    ],
    [
      "ꯕꯥꯁ",
      "ꯀꯦꯠ"
    ],
    [
      "ꯃꯆ",
      "ꯥꯛ</w>"
    ],
    [
      "ꯗꯤꯁ",
      "ꯇ꯭ꯔꯤ"
    ],
    [
      "ꯇꯧ",
      "ꯗꯕ</w>"
    ],
    [
      "ꯠ",
      "ꯋꯦ"
    ],
    [
      "ꯑꯣꯏ",
      "ꯍꯜꯂꯤ꯫</w>"
    ],
    [
      "ꯏꯟꯁꯨ",
      "ꯔꯦꯟꯁ</w>"
    ],
    [
      "দ",
      "ি</w>"
    ],
    [
      "শিং",
      "না</w>"
    ],
    [
      "6",
      "</w>"
    ],
    [
      "ꯖꯍꯥ",
      "ꯖ</w>"
    ],
    [
      "ꯋꯤ",
      "ꯜ"
    ],
    [
      "ꯊꯧꯔꯝ",
      "ꯁꯤꯡꯗ</w>"
    ],
    [
      "ꯃꯑꯣ",
      "ꯡꯒꯤ</w>"
    ],
    [
      "ꯈ",
      "ꯥꯟ</w>"
    ],
    [
      "ꯇꯝ",
      "ꯈꯤ</w>"
    ],
    [
      "ꯇꯥꯡ",
      "ꯕ</w>"
    ],
    [
      "ꯃ",
      "ꯁꯤꯡꯒꯤ</w>"
    ],
    [
      "ꯍ",
      "ꯛ</w>"
    ],
    [
      "ꯏꯃꯨ",
      "ꯡꯒꯤ</w>"
    ],
    [
      "ꯌꯣ",
      "ꯔꯛ"
    ],
    [
      "ꯂꯩ",
      "ꯈꯤ,</w>"
    ],
    [
      "ꯋꯥ",
      "ꯌꯦ"
    ],
    [
      "ꯑꯊꯨ",
      "ꯕ</w>"
    ],
    [
      "ꯑꯃꯃ",
      "ꯝꯒꯤ</w>"
    ],
    [
      "ꯍ",
      "ꯨ</w>"
    ],
    [
      "ꯐꯣꯡꯗꯣꯛ",
      "ꯈꯤ</w>"
    ],
    [
      "ꯁꯤꯡ",
      "ꯅꯥ</w>"
    ],
    [
      "ꯊꯣꯛ",
      "ꯍꯟꯈꯤ</w>"
    ],
    [
      "ꯈꯤꯕ",
      "ꯗꯒꯤ</w>"
    ],
    [
      "꯶",
      "ꯇꯒꯤ</w>"
    ],
    [
      "ꯕ",
      "ꯥꯟ</w>"
    ],
    [
      "ꯁꯤ",
      "ꯚꯤ"
    ],
    [
      "ꯑꯣꯏ",
      "ꯔ"
    ],
    [
      "ꯅꯨꯃꯤ",
      "ꯗꯥꯡ"
    ],
    [
      "ꯈꯣꯡ",
      "ꯖꯦꯜ</w>"
    ],
    [
      "ꯁꯦꯝ",
      "ꯖꯤꯟ"
    ],
    [
      "ꯒꯤꯗꯃꯛꯇ",
      "ꯁꯨ</w>"
    ],
    [
      "ꯑꯁꯤ",
      "ꯅ,</w>"
    ],
    [
      "ꯂꯦꯝ",
      "ꯍꯧꯔꯤꯕ</w>"
    ],
    [
      "ꯅꯠꯇ",
      "ꯅ,</w>"
    ],
    [
      "ꯅꯥ",
      "ꯗꯨ</w>"
    ],
    [
      "ꯍꯤꯗꯥꯛ-ꯂꯥꯡꯊ",
      "ꯛꯀꯤ</w>"
    ],
    [
      "ꯆꯦꯝꯄꯤꯌꯟꯁꯤ",
      "ꯞ"
    ],
    [
      "ꯑꯦꯀꯥꯎꯟ",
      "ꯠ</w>"
    ],
    [
      "ꯑꯦ",
      "ꯄꯤ"
    ],
    [
      "ꯃꯣ",
      "ꯕꯥꯏ"
    ],
    [
      "ꯏꯟꯐꯦ",
      "ꯛꯁꯟ</w>"
    ],
    [
      "ত",
      "্ত"
    ],
    [
      "েল",
      "ি"
    ],
    [
      "ফিল্",
      "ম</w>"
    ],
    [
      "ꯃꯆꯥ",
      "ꯅꯨꯄꯤ"
    ],
    [
      "ꯌꯥꯎ",
      "ꯋꯤ꯫</w>"
    ],
    [
      "ꯁꯦ",
      "ꯃꯤ"
    ],
    [
      "ꯀꯨꯃꯥꯔ",
      "ꯅ</w>"
    ],
    [
      "ꯍꯣ",
      "ꯂꯤ"
    ],
    [
      "ꯔꯥꯖꯅꯤ",
      "ꯇꯤꯒꯤ</w>"
    ],
    [
      "ꯂꯥꯏꯁꯪ",
      "ꯒꯤ</w>"
    ],
    [
      "꯸",
      "꯰</w>"
    ],
    [
      "ꯆꯠꯊꯣꯛ-ꯆꯠ",
      "ꯁꯤꯟ</w>"
    ],
    [
      "ꯑ",
      "ꯔꯦ"
    ],
    [
      "ꯍ",
      "ꯥꯟ</w>"
    ],
    [
      "ꯖ",
      "ꯥꯟ"
    ],
    [
      "ꯊꯧꯗꯣꯛ",
      "ꯁꯤꯡ</w>"
    ],
    [
      "ꯗꯤ",
      "ꯔꯦꯛꯇꯔ</w>"
    ],
    [
      "ꯑ",
      "ꯊ"
    ],
    [
      "꯱",
      "꯰ꯒꯤ</w>"
    ],
    [
      "ꯄ꯭ꯔ",
      "ꯃꯥꯟ</w>"
    ],
    [
      "ꯁꯤ",
      "ꯜꯂꯤꯕ</w>"
    ],
    [
      "ꯁꯇ",
      ",</w>"
    ],
    [
      "ꯀꯛ",
      "ꯊꯠ"
    ],
    [
      "ꯍꯤꯡ",
      "ꯒꯠ"
    ],
    [
      "ꯑꯃꯠꯇ",
      "ꯅ</w>"
    ],
    [
      "ꯑꯃꯨ",
      "ꯕ</w>"
    ],
    [
      "ꯁ꯭ꯇ꯭ꯔ",
      "ꯛ"
    ],
    [
      "ꯀꯥꯎꯟ",
      "ꯁꯤꯜ</w>"
    ],
    [
      "ꯕꯤ",
      "ꯖꯤ"
    ],
    [
      "ꯂꯥꯏꯁꯪ",
      "ꯁꯤꯡ</w>"
    ],
    [
      "ꯕꯦꯛ",
      "ꯇꯤ"
    ],
    [
      "ꯅꯣ",
      "?</w>"
    ],
    [
      "ꯅꯣꯡꯂꯩ-",
      "ꯅꯨꯡꯁꯤꯠ</w>"
    ],
    [
      "3",
      "</w>"
    ],
    [
      "লৈ",
      "।</w>"
    ],
    [
      "স",
      "া"
    ],
    [
      "ꯅꯦ",
      "ꯗꯔ"
    ],
    [
      "ꯃꯔ",
      "ꯩ</w>"
    ],
    [
      "ꯂꯩ",
      "ꯇ꯭ꯔ"
    ],
    [
      "꯲",
      "꯴</w>"
    ],
    [
      "ꯃꯣ",
      "ꯔꯤ"
    ],
    [
      "ꯅꯥꯏ",
      "ꯗ</w>"
    ],
    [
      "ꯇꯞ",
      "ꯅ-ꯇꯞꯅ</w>"
    ],
    [
      "ꯂꯝ",
      "ꯁꯤꯡ</w>"
    ],
    [
      "ꯃꯥꯟꯅ",
      "ꯩ꯫</w>"
    ],
    [
      "ꯁꯣ",
      "ꯜ"
    ],
    [
      "ꯊ",
      "ꯔꯛꯄ</w>"
    ],
    [
      "꯲",
      "꯲</w>"
    ],
    [
      "ꯌ",
      "ꯅ</w>"
    ],
    [
      "ꯇꯉꯥꯏꯐ",
      "ꯗꯕ</w>"
    ],
    [
      "ꯀ",
      "ꯗ"
    ],
    [
      "ꯕ",
      "ꯟ</w>"
    ],
    [
      "ꯠ",
      "ꯖꯔ"
    ],
    [
      "ꯐ",
      "꯭ꯌꯨ"
    ],
    [
      "ꯄꯨ",
      "ꯡ"
    ],
    [
      "ꯗꯤꯖꯥꯏ",
      "ꯟ</w>"
    ],
    [
      "ꯑꯣꯔ",
      "ꯗꯔ"
    ],
    [
      "ꯁꯤ",
      "ꯌꯟ</w>"
    ],
    [
      "ꯕꯦꯜ",
      "ꯖꯤ"
    ],
    [
      "ꯀꯦ",
      "ꯅꯥ"
    ],
    [
      "ꯂꯣ",
      "ꯗ</w>"
    ],
    [
      "ম",
      "খি।</w>"
    ],
    [
      "ꯒꯥꯟꯙꯤ",
      "ꯅ</w>"
    ],
    [
      "ꯅ",
      "ꯈꯤ,</w>"
    ],
    [
      "ꯀ",
      "ꯂꯥ</w>"
    ],
    [
      "ꯇꯤꯝ",
      "ꯒꯤꯗꯃꯛ</w>"
    ],
    [
      "ꯕꯤ",
      "ꯁꯤꯡ</w>"
    ],
    [
      "ꯍ",
      "ꯥꯟ"
    ],
    [
      "ꯗ꯭ꯔꯤ",
      "ꯉꯩꯗ</w>"
    ],
    [
      "ꯀ",
      "ꯃꯤ"
    ],
    [
      "ꯈꯨꯗꯣ",
      "ꯜ</w>"
    ],
    [
      "ꯍ",
      "ꯥꯔ</w>"
    ],
    [
      "ꯀꯨ",
      "ꯞꯅ</w>"
    ],
    [
      "ꯇꯨꯔꯦ",
      "ꯜꯗ</w>"
    ],
    [
      "ꯅꯤꯡ",
      "ꯁꯤꯡ</w>"
    ],
    [
      "ꯖ",
      "ꯨ</w>"
    ],
    [
      "ꯃꯦ",
      "ꯜ"
    ],
    [
      "ꯊꯥꯡ",
      "ꯒꯠ"
    ],
    [
      "ꯂꯤꯒ",
      "ꯀꯤ</w>"
    ],
    [
      "ꯇꯧ",
      "ꯕꯤꯌꯨ꯫</w>"
    ],
    [
      "ꯄꯦ",
      "ꯖ</w>"
    ],
    [
      "ꯕꯣ",
      "</w>"
    ],
    [
      "ꯁ",
      "ꯠꯁꯤꯡ</w>"
    ],
    [
      "ꯄ꯭ꯔꯣꯕꯤꯟ",
      "ꯁꯀꯤ</w>"
    ],
    [
      "ꯁ꯭ꯇ",
      "ꯣꯛ</w>"
    ],
    [
      "ꯕꯣ",
      "ꯠ</w>"
    ],
    [
      "ꯄꯥꯏ",
      "ꯔꯤꯕ</w>"
    ],
    [
      "°",
      "</w>"
    ],
    [
      "কম্",
      "প"
    ],
    [
      "ন",
      "খি।</w>"
    ],
    [
      "অহা",
      "নবা</w>"
    ],
    [
      "ল",
      "ি।</w>"
    ],
    [
      "র",
      "া"
    ],
    [
      "ꯅꯤ",
      "ꯌꯣ"
    ],
    [
      "꯲꯰",
      "ꯒꯤ</w>"
    ],
    [
      "ꯑꯉ",
      "ꯛꯄ</w>"
    ],
    [
      "ꯍꯦꯟ",
      "ꯗꯣꯛ"
    ],
    [
      "ꯍꯧ",
      "ꯈꯤ,</w>"
    ],
    [
      "ꯆꯦ",
      "ꯜꯂꯤꯕ</w>"
    ],
    [
      "ꯃꯤ",
      "ꯌ"
    ],
    [
      "ꯜꯂꯛ",
      "ꯄꯗ</w>"
    ],
    [
      "ꯔꯤꯄꯕ꯭ꯂꯤ",
      "ꯛ</w>"
    ],
    [
      "ꯑ",
      "ꯁꯥꯒꯤ</w>"
    ],
    [
      "ꯇꯨꯔ",
      "ꯅꯥ"
    ],
    [
      "ꯄꯤ",
      "ꯔꯕ</w>"
    ],
    [
      "ꯂꯦꯞ",
      "ꯈꯤ</w>"
    ],
    [
      "ꯃꯔ",
      "ꯖꯦꯟ"
    ],
    [
      "ꯃꯔ",
      "ꯝꯗ</w>"
    ],
    [
      "ꯆ",
      "ꯔꯦꯜ</w>"
    ],
    [
      "ꯁꯤ",
      "ꯈ</w>"
    ],
    [
      "ꯑ",
      "ꯕ"
    ],
    [
      "ꯂꯩ",
      "ꯃꯤꯟ"
    ],
    [
      "ꯅꯨꯡꯁꯤ",
      "ꯕ</w>"
    ],
    [
      "ꯧ",
      "</w>"
    ],
    [
      "ꯛ",
      "ꯁꯀꯤ</w>"
    ],
    [
      "ꯃꯥꯡ",
      "ꯖꯧ"
    ],
    [
      "ꯃꯥꯡꯖꯧ",
      "ꯅꯅ</w>"
    ],
    [
      "ꯍꯦ",
      "ꯗ"
    ],
    [
      "ꯌꯥ",
      "ꯔ"
    ],
    [
      "ꯌꯥ",
      "ꯗꯦ</w>"
    ],
    [
      "ꯆ",
      "ꯅ</w>"
    ],
    [
      "ꯀꯨꯝꯍꯩ",
      "ꯁꯤꯡꯒꯤ</w>"
    ],
    [
      "ꯍꯤꯊꯥꯡ",
      "ꯐꯝ</w>"
    ],
    [
      "ꯑꯗꯨ",
      "ꯅꯤ</w>"
    ],
    [
      "ꯛꯄ",
      "ꯗꯒꯤ</w>"
    ],
    [
      "ꯏ",
      "ꯇꯤꯛ</w>"
    ],
    [
      "ꯁꯥꯟꯅ",
      "ꯩ</w>"
    ],
    [
      "ꯃꯅ",
      "ꯝ</w>"
    ],
    [
      "ꯁꯤꯌ",
      "ꯁ</w>"
    ],
    [
      "ꯑ",
      "ꯁꯥꯕ</w>"
    ],
    [
      "ꯑꯃꯦꯔꯤ",
      "ꯀꯥꯟ</w>"
    ],
    [
      "ন",
      "গী</w>"
    ],
    [
      "শিং",
      "গী</w>"
    ],
    [
      "ꯄꯨ",
      "ꯔꯛꯄ</w>"
    ],
    [
      "ꯑꯥꯎ",
      "ꯠ"
    ],
    [
      "ꯄꯥꯡ",
      "ꯈꯤ꯫</w>"
    ],
    [
      "꯱꯹",
      "ꯗ</w>"
    ],
    [
      "ꯆꯠ",
      "ꯈꯤꯕ</w>"
    ],
    [
      "ꯒ",
      "ꯟ</w>"
    ],
    [
      "ꯑꯌꯨ",
      "ꯛ</w>"
    ],
    [
      "ꯄꯥꯝꯕ",
      "ꯩ"
    ],
    [
      "ꯑ",
      "ꯂꯤ</w>"
    ],
    [
      "꯱꯹꯷",
      "꯰ꯒꯤ</w>"
    ],
    [
      "ꯇꯔꯨ",
      "ꯛ"
    ],
    [
      "ꯍꯥꯞ",
      "ꯈꯤ</w>"
    ],
    [
      "ꯃ",
      "ꯅ</w>"
    ],
    [
      "ꯒ",
      "ꯠ</w>"
    ],
    [
      "ꯏꯟ",
      "ꯖꯤ"
    ],
    [
      "ꯌꯥ",
      "ꯔ</w>"
    ],
    [
      "ꯂꯩ",
      "ꯔꯦ</w>"
    ],
    [
      "ꯅꯤ",
      "ꯡꯗ</w>"
    ],
    [
      "ꯕ",
      "ꯥꯛ"
    ],
    [
      "ꯆꯠꯊ",
      "ꯈꯤ</w>"
    ],
    [
      "ꯈꯣꯡ",
      "ꯊꯥꯡ"
    ],
    [
      "ꯈꯪ",
      "-"
    ],
    [
      "ꯗ",
      "ꯔꯤ</w>"
    ],
    [
      "ꯁ",
      "ꯀ꯭ꯔꯤ"
    ],
    [
      "ꯃ",
      "ꯁ</w>"
    ],
    [
      "ꯑꯔ",
      "ꯨꯝꯕ</w>"
    ],
    [
      "ꯋ",
      "ꯦꯟ"
    ],
    [
      "ꯄꯥꯡꯊꯣꯛ",
      "ꯏ,</w>"
    ],
    [
      "ꯁꯦꯝ",
      "ꯈꯤꯕꯅꯤ</w>"
    ],
    [
      "ꯎ",
      "ꯆꯦꯛ"
    ],
    [
      "ꯁꯦꯝꯗꯣꯛ-",
      "ꯁꯦꯝꯖꯤꯟ</w>"
    ],
    [
      "ꯠ",
      "ꯃꯦꯟꯠ</w>"
    ],
    [
      "ꯔꯤ",
      "ꯌꯟ</w>"
    ],
    [
      "ꯑꯣꯛ",
      "ꯁꯤ"
    ],
    [
      "ꯆꯌꯣ",
      "ꯜꯒꯤ</w>"
    ],
    [
      "ꯐꯥꯎ",
      "ꯋꯤ</w>"
    ],
    [
      "রি",
      "বা</w>"
    ],
    [
      "স্তে",
      "ৎ"
    ],
    [
      "চহ",
      "ি</w>"
    ],
    [
      "ꯁꯩ",
      "ꯁꯛꯄ</w>"
    ],
    [
      "ꯆꯥꯡ",
      "ꯌꯦꯡ"
    ],
    [
      "ꯃꯨ",
      "ꯟ"
    ],
    [
      "ꯂꯥꯏꯔꯤ",
      "ꯛꯁꯤꯡ</w>"
    ],
    [
      "ꯄꯥ",
      "ꯜ"
    ],
    [
      "ꯑꯦꯁꯣꯁꯤꯑꯦ",
      "ꯁꯟ</w>"
    ],
    [
      "ꯗꯥ",
      "ꯅ</w>"
    ],
    [
      "ꯃ",
      "ꯆꯤꯟ"
    ],
    [
      "ꯇꯧ",
      "ꯋꯤ꯫</w>"
    ],
    [
      "ꯆꯠꯊ",
      "ꯈꯤ꯫</w>"
    ],
    [
      "ꯐꯤꯜ",
      "ꯝ"
    ],
    [
      "꯲",
      "꯴ꯗ</w>"
    ],
    [
      "ꯑꯣꯏ",
      "ꯒꯅꯤ꯫</w>"
    ],
    [
      "ꯁꯨ",
      "ꯔꯛꯄ"
    ],
    [
      "ꯆꯨꯝ",
      "ꯅ</w>"
    ],
    [
      "ꯉꯝ",
      "ꯒꯅꯤ</w>"
    ],
    [
      "ꯕꯤ",
      "ꯛ</w>"
    ],
    [
      "ꯀꯥꯡꯂꯨ",
      "ꯞꯁꯤꯡ</w>"
    ],
    [
      "ꯁꯟ",
      "ꯁꯤꯡꯒꯤ</w>"
    ],
    [
      "ꯗꯦ",
      "ꯗ</w>"
    ],
    [
      "ꯃꯣ",
      "ꯇꯣ"
    ],
    [
      "ꯅ꯭ꯌꯨ",
      "ꯔꯣ"
    ],
    [
      "ꯇ꯭ꯔ",
      "ꯦꯟ"
    ],
    [
      "ꯁꯦ",
      "ꯐ"
    ],
    [
      "ꯃꯤ",
      "ꯠꯀꯤ</w>"
    ],
    [
      "ꯄ꯭ꯔꯦ",
      "ꯁꯔ</w>"
    ],
    [
      "ꯊꯤ",
      "ꯗꯣꯛ"
    ],
    [
      "ꯋꯥ",
      "ꯁꯤꯡ"
    ],
    [
      "ꯕꯤ",
      "ꯂꯤꯌꯟ</w>"
    ],
    [
      "ꯁꯦ",
      "ꯀꯦꯟ</w>"
    ],
    [
      "ꯇꯃꯤ",
      "ꯟ</w>"
    ],
    [
      "ꯐꯥꯎ",
      "ꯏ꯫</w>"
    ],
    [
      "ম",
      "ো"
    ],
    [
      "ꯗ꯭",
      "ꯗꯤ"
    ],
    [
      "ꯖꯦ",
      "."
    ],
    [
      "ꯁꯤꯡ",
      "ꯍ</w>"
    ],
    [
      "ꯐꯥꯎ",
      "ꯈꯤ꯫</w>"
    ],
    [
      "ꯃꯨ",
      "ꯍꯝ"
    ],
    [
      "ꯄꯨꯊꯣꯛ",
      "ꯈꯤ</w>"
    ],
    [
      "ꯁ",
      "ꯅꯥ"
    ],
    [
      "ꯂ",
      "ꯟ</w>"
    ],
    [
      "꯲",
      "꯳ꯗ</w>"
    ],
    [
      "꯲",
      "꯹"
    ],
    [
      "ꯇꯤ",
      "ꯀꯦꯜ</w>"
    ],
    [
      "ꯑꯣꯏꯔꯕ",
      "ꯁꯨ</w>"
    ],
    [
      "ꯖꯤ",
      "ꯠ</w>"
    ],
    [
      "ꯐꯝ",
      "ꯁꯤꯡꯗ</w>"
    ],
    [
      "ꯋꯥ",
      "ꯅ</w>"
    ],
    [
      "ꯊꯝ",
      "ꯂꯤ꯫</w>"
    ],
    [
      "꯭ꯔ",
      "ꯥ</w>"
    ],
    [
      "ꯗꯕ",
      "ꯅꯤ</w>"
    ],
    [
      "ꯏ",
      "ꯇꯤ"
    ],
    [
      "ꯁ",
      "ꯁꯤꯡꯗ</w>"
    ],
    [
      "꯱꯹꯹",
      "꯰ꯒꯤ</w>"
    ],
    [
      "ꯌ",
      "ꯝꯒꯤ</w>"
    ],
    [
      "ꯈ",
      "ꯜꯂꯤ</w>"
    ],
    [
      "ꯑꯉꯥꯡ",
      "ꯕ</w>"
    ],
    [
      "ꯆꯦ",
      "ꯜꯂꯤ</w>"
    ],
    [
      "ꯑꯟꯙ꯭ꯔ",
      "</w>"
    ],
    [
      "ꯑꯃꯃ",
      "ꯝꯗ</w>"
    ],
    [
      "চ",
      "ৎ"
    ],
    [
      "ফা",
      "ও"
    ],
    [
      "ক",
      "প"
    ],
    [
      "ꯈꯣꯡ",
      "ꯆꯠ"
    ],
    [
      "ꯁꯦꯝ",
      "ꯕꯗ</w>"
    ],
    [
      "ꯌ",
      "ꯅ"
    ],
    [
      "ꯂꯕ",
      "ꯁꯨ</w>"
    ],
    [
      "ꯊꯤ",
      "ꯅꯕ</w>"
    ],
    [
      "ꯜꯂꯤ",
      "ꯉꯩ</w>"
    ],
    [
      "ꯔꯦ",
      "ꯞ</w>"
    ],
    [
      "ꯄꯨꯔ",
      ",</w>"
    ],
    [
      "ꯁꯤ",
      "ꯇꯤꯒꯤ</w>"
    ],
    [
      "ꯂꯣ",
      "ꯟꯅ</w>"
    ],
    [
      "ꯇꯪ",
      "ꯈꯥꯏ</w>"
    ],
    [
      "ꯛꯄ",
      ",</w>"
    ],
    [
      "ꯆꯪ",
      "ꯂꯛ"
    ],
    [
      "ꯄꯣ",
      "ꯊꯥ"
    ],
    [
      "ꯈꯣꯡ",
      "ꯅ</w>"
    ],
    [
      "ꯑ",
      "ꯔꯣ"
    ],
    [
      "ꯂ",
      "ꯁ</w>"
    ],
    [
      "ꯆ",
      "ꯔꯒꯤ</w>"
    ],
    [
      "ꯕ",
      "ꯒꯤꯗꯃꯛꯇ</w>"
    ],
    [
      "ꯇꯔꯥ",
      "ꯅꯤ"
    ],
    [
      "꯳",
      "꯰ꯗ</w>"
    ],
    [
      "ꯂꯥꯎ",
      "ꯕ</w>"
    ],
    [
      "ꯐꯤꯔꯣ",
      "ꯜꯁꯤꯡ</w>"
    ],
    [
      "ꯑꯣꯐꯤ",
      "ꯁꯤꯑꯦꯜ</w>"
    ],
    [
      "ꯋꯦꯕ",
      "ꯁꯥꯏꯠ</w>"
    ],
    [
      "ꯆꯦꯝꯄꯤ",
      "ꯌꯟ</w>"
    ],
    [
      "ꯏꯟ",
      "ꯆꯤ</w>"
    ],
    [
      "ꯑꯣ",
      "ꯂꯦ"
    ],
    [
      "ꯀꯤ",
      "ꯟ"
    ],
    [
      "ꯇꯨꯡ",
      "ꯁꯤꯟꯕ</w>"
    ],
    [
      "ম",
      "র"
    ],
    [
      "ফ",
      "ো"
    ],
    [
      "ꯄꯣꯔꯇꯨ",
      "ꯒꯤ"
    ],
    [
      "ꯋꯥꯌꯦꯜ",
      "ꯁꯪ"
    ],
    [
      "ꯐꯥ",
      "ꯒꯤ"
    ],
    [
      "ꯈꯨꯗꯣꯡꯆꯥ",
      "ꯕꯁꯤꯡ</w>"
    ],
    [
      "ꯀꯣ",
      "ꯅꯨꯡ"
    ],
    [
      "ꯏ",
      "ꯈꯤ</w>"
    ],
    [
      "ꯑꯝ",
      "ꯕꯦꯗ"
    ],
    [
      "ꯂꯥ",
      "ꯁ</w>"
    ],
    [
      "ꯄꯨꯊꯣꯛ",
      "ꯈꯤ꯫</w>"
    ],
    [
      "ꯗꯤ",
      "ꯅ</w>"
    ],
    [
      "ꯑꯍ",
      "ꯥꯡꯕ</w>"
    ],
    [
      "ꯏꯪ",
      "ꯂꯦꯟꯗ</w>"
    ],
    [
      "ꯕꯥ",
      "ꯂꯥ"
    ],
    [
      "ꯗ꯭ꯔ",
      "ꯤ꯫</w>"
    ],
    [
      "ꯄꯟ",
      "ꯈꯤ꯫</w>"
    ],
    [
      "ꯍꯥꯟꯅ",
      "ꯗꯒꯤ</w>"
    ],
    [
      "꯲",
      "꯵ꯗ</w>"
    ],
    [
      "ꯍꯜꯂꯛ",
      "ꯈꯤ</w>"
    ],
    [
      "ꯑꯣ",
      "ꯖꯥ</w>"
    ],
    [
      "ꯑꯉꯟ",
      "ꯕꯗ</w>"
    ],
    [
      "ꯗ꯭ꯔꯣ",
      "</w>"
    ],
    [
      "ꯑꯃ",
      "ꯒ-"
    ],
    [
      "ꯁ",
      "-"
    ],
    [
      "ꯑꯉꯥꯡ",
      "ꯁꯤꯡ</w>"
    ],
    [
      "ꯍꯣꯡ",
      "ꯕ</w>"
    ],
    [
      "ꯉꯤ",
      ",</w>"
    ],
    [
      "ꯅꯣꯡ",
      "ꯃꯥꯏ"
    ],
    [
      "ꯕ꯭ꯔ",
      "ꯦꯟ</w>"
    ],
    [
      "-ꯑꯍ",
      "ꯦꯟ</w>"
    ],
    [
      "ꯗ꯭ꯔ",
      "ꯒ</w>"
    ],
    [
      "ꯍꯥꯏ",
      "ꯄꯔ"
    ],
    [
      "ꯁꯔꯨꯛ",
      "ꯁꯤꯡꯗ</w>"
    ],
    [
      ".ꯑꯦꯜ",
      ".</w>"
    ],
    [
      "ꯐ",
      "ꯠꯇ</w>"
    ],
    [
      "ꯊ",
      "ꯛꯄ</w>"
    ],
    [
      "ꯄꯥꯎ",
      "ꯟ</w>"
    ],
    [
      "ꯄ꯭ꯔ",
      "ꯁꯤꯗꯦꯟꯠ</w>"
    ],
    [
      "ꯃꯦ",
      "ꯌꯔ</w>"
    ],
    [
      "শিং",
      "দা</w>"
    ],
    [
      "মত",
      "ু"
    ],
    [
      "ꯕꯤ",
      "ꯇꯃꯤꯟ</w>"
    ],
    [
      "ꯂꯥ",
      "ꯞ"
    ],
    [
      "ꯁ꯭ꯇꯤ",
      "ꯇ꯭ꯌꯨ"
    ],
    [
      "ꯊꯤ",
      "ꯕꯤ"
    ],
    [
      "ꯅꯝ",
      "ꯐꯨꯗ</w>"
    ],
    [
      "ꯗꯤ",
      "ꯕꯦꯂ"
    ],
    [
      "ꯁꯤꯜꯂ",
      "ꯕ</w>"
    ],
    [
      "꯱",
      "-"
    ],
    [
      "ꯒꯥ",
      "ꯅꯤ"
    ],
    [
      "꯱꯷",
      "ꯇ</w>"
    ],
    [
      "ꯈꯪ",
      "ꯗꯕ</w>"
    ],
    [
      "ꯅꯕꯦ",
      "ꯝꯕꯔꯗ</w>"
    ],
    [
      "ꯄꯨ",
      "ꯔꯤ</w>"
    ],
    [
      "ꯑꯍꯨꯝ",
      "ꯗ</w>"
    ],
    [
      "ꯐꯦꯗ",
      "ꯔꯦ"
    ],
    [
      "ꯐ",
      "ꯠ"
    ],
    [
      "ꯖꯣ",
      "</w>"
    ],
    [
      "ꯗ",
      "ꯥꯡꯗ</w>"
    ],
    [
      "ꯍꯜ",
      "ꯂꯦ꯫</w>"
    ],
    [
      "ꯊꯪ",
      "ꯗ</w>"
    ],
    [
      "ꯕꯣ",
      "ꯔ</w>"
    ],
    [
      "ꯐꯥꯔ",
      "ꯕ</w>"
    ],
    [
      "ꯀꯥ",
      "ꯂꯦꯟ"
    ],
    [
      "ꯑ",
      "ꯪ"
    ],
    [
      "ꯂꯣꯏ",
      "ꯅ</w>"
    ],
    [
      "ꯋꯦ",
      "ꯕ</w>"
    ],
    [
      "ꯄꯦꯅꯥꯜ",
      "ꯇꯤ</w>"
    ],
    [
      "ꯈꯨꯗ",
      "ꯝ"
    ],
    [
      "ꯂꯥ",
      "ꯌꯦꯡ</w>"
    ],
    [
      "ꯑꯊꯣꯏ",
      "-ꯑꯍꯦꯟ</w>"
    ],
    [
      "ꯄ꯭",
      "ꯂꯦꯟ</w>"
    ],
    [
      "ꯐꯤ",
      "ꯛ</w>"
    ],
    [
      "ꯗꯤꯁꯦꯝ",
      "ꯕꯔꯒꯤ</w>"
    ],
    [
      "ং",
      "বা</w>"
    ],
    [
      "প",
      "োক"
    ],
    [
      "ꯀ",
      "ꯔꯒꯤ</w>"
    ],
    [
      "ꯊꯦꯡꯅ",
      "ꯈꯤ꯫</w>"
    ],
    [
      "ꯒꯦ",
      "ꯠ</w>"
    ],
    [
      "ꯄ꯭ꯔꯥꯏ",
      "ꯝ</w>"
    ],
    [
      "ꯑꯣꯏ",
      "ꯍꯟ"
    ],
    [
      "ꯁꯤ",
      "ꯈꯤꯕ</w>"
    ],
    [
      "ꯂꯩꯕꯥꯛ",
      "ꯁꯤꯡꯒꯤ</w>"
    ],
    [
      "ꯃꯥꯡ",
      "ꯈꯤꯕ</w>"
    ],
    [
      "ꯒꯣ",
      "ꯔ"
    ],
    [
      "ꯅꯩ",
      "ꯅꯕ"
    ],
    [
      "ꯉꯝ",
      "ꯈꯤ</w>"
    ],
    [
      "ꯒꯦ",
      "ꯝꯁꯤꯡ</w>"
    ],
    [
      "ꯌ",
      "ꯧꯕ</w>"
    ],
    [
      "ꯍꯤ",
      "ꯠ</w>"
    ],
    [
      "ꯁꯥ",
      "ꯈꯤꯕꯅꯤ</w>"
    ],
    [
      "ꯀꯟꯇ꯭ꯔꯣ",
      "ꯜ</w>"
    ],
    [
      "ꯊꯕ",
      "ꯛ-"
    ],
    [
      "ꯍꯣꯡ",
      "ꯂꯛꯄ</w>"
    ],
    [
      "ꯀ꯭ꯔ",
      "ꯥꯏ"
    ],
    [
      "ꯒꯤꯗ",
      "ꯃꯛ,</w>"
    ],
    [
      "ꯊꯣꯛ",
      "ꯇꯨꯅ</w>"
    ],
    [
      "ꯀꯣ",
      "ꯄꯤ</w>"
    ],
    [
      "ꯐ",
      "ꯇ</w>"
    ],
    [
      "ꯍꯜ",
      "ꯂꯦ</w>"
    ],
    [
      "ꯇꯧ",
      "ꯒꯅꯤ</w>"
    ],
    [
      "ꯑ",
      "ꯅꯦꯝꯕ</w>"
    ],
    [
      "ꯐꯥꯎ",
      "ꯏ</w>"
    ],
    [
      "ꯅꯤꯡꯊꯝ",
      "ꯊꯥꯒꯤ</w>"
    ],
    [
      "ꯂꯤ",
      "ꯃꯤ"
    ],
    [
      "ꯁ꯭ꯇꯦꯗꯤ",
      "ꯌꯝ</w>"
    ],
    [
      "ꯁ꯭ꯇꯣ",
      "ꯔ</w>"
    ],
    [
      "ꯋꯤꯀꯤ",
      "ꯄꯤꯗꯤ"
    ],
    [
      "ঞ",
      "্"
    ],
    [
      "সু",
      "</w>"
    ],
    [
      "ꯈꯤꯕ",
      "ꯒ</w>"
    ],
    [
      "ꯁ꯭",
      "ꯂꯤ"
    ],
    [
      "꯲",
      "꯱</w>"
    ],
    [
      "ꯒ",
      "ꯔꯗ</w>"
    ],
    [
      "ꯇꯨ",
      "ꯡꯒꯤ</w>"
    ],
    [
      "ꯖꯅꯨ",
      "ꯋꯥꯔꯤꯗ</w>"
    ],
    [
      "꯲",
      "꯶ꯇ</w>"
    ],
    [
      "ꯇꯨꯡ",
      "ꯏꯟ"
    ],
    [
      "ꯁꯣꯛ",
      "ꯂꯕ</w>"
    ],
    [
      "ꯁ",
      "ꯅ"
    ],
    [
      "ꯇꯣ",
      "ꯟ</w>"
    ],
    [
      "ꯇꯥꯔꯛ",
      "ꯄꯗ</w>"
    ],
    [
      "ꯆꯥꯎꯈꯠ",
      "ꯄ</w>"
    ],
    [
      "ꯑꯣ",
      "ꯖꯥ"
    ],
    [
      "ꯁꯨ",
      "ꯞ"
    ],
    [
      "ꯑꯣꯏ",
      "ꯍꯟꯈꯤ</w>"
    ],
    [
      "ꯐꯣ",
      "ꯜ"
    ],
    [
      "ꯍ",
      "ꯔꯤꯌꯥ"
    ],
    [
      "ꯁꯤ",
      "ꯈ"
    ],
    [
      "ꯔꯥ",
      "ꯅ</w>"
    ],
    [
      "ꯄꯥꯡ",
      "ꯈꯤ</w>"
    ],
    [
      "ꯐ",
      "ꯀꯤ</w>"
    ],
    [
      "ꯈꯠ",
      "ꯈꯤ</w>"
    ],
    [
      "ꯃꯁꯤ",
      "ꯗꯁꯨ</w>"
    ],
    [
      "ꯀꯥꯔ",
      "ꯥ"
    ],
    [
      "ꯆꯠ",
      "ꯇꯨꯅ</w>"
    ],
    [
      "ꯁꯣꯛ",
      "ꯍꯜꯂꯕ</w>"
    ],
    [
      "ꯊꯣꯛꯂꯛ",
      "ꯈꯤ</w>"
    ],
    [
      "꯲꯰꯰",
      "꯹ꯗ</w>"
    ],
    [
      "ꯍꯥ",
      "ꯞꯄ</w>"
    ],
    [
      "ꯂꯥ",
      "ꯡ</w>"
    ],
    [
      "ꯂꯥꯏ",
      "ꯖꯦ"
    ],
    [
      "꯱꯸",
      "꯷"
    ],
    [
      "ꯊꯦꯔꯥ",
      "ꯄꯤ</w>"
    ],
    [
      "ꯃꯤꯗꯤ",
      "ꯌꯥ</w>"
    ],
    [
      "ꯕ꯭ꯂ",
      "ꯗ</w>"
    ],
    [
      "ꯖꯤ",
      "ꯑꯣ"
    ],
    [
      "ꯇꯔ",
      "ꯅꯔ</w>"
    ],
    [
      "ফ",
      "ম</w>"
    ],
    [
      "ন",
      "না</w>"
    ],
    [
      "আ",
      "ই"
    ],
    [
      "ম",
      "গী</w>"
    ],
    [
      "ল",
      "ু"
    ],
    [
      "ꯇꯥꯏ",
      "ꯐ"
    ],
    [
      "ꯅꯦ",
      "ꯍ"
    ],
    [
      "ꯂꯧꯊꯣꯛ",
      "ꯈꯤ</w>"
    ],
    [
      "ꯈ",
      "꯭"
    ],
    [
      "ꯁꯔ",
      "ꯨ</w>"
    ],
    [
      "ꯒ꯭",
      "ꯋꯥ"
    ],
    [
      "ꯃ",
      "ꯗ"
    ],
    [
      "ꯂ",
      "</w>"
    ],
    [
      "ꯊꯧ",
      "ꯋ"
    ],
    [
      "ꯍꯣꯠꯅ",
      "ꯈꯤ</w>"
    ],
    [
      "ꯈꯨꯡꯒꯪ",
      "ꯗ</w>"
    ],
    [
      "ꯃ",
      "ꯧ"
    ],
    [
      "ꯅꯨ",
      "ꯉꯥꯏ"
    ],
    [
      "ꯈꯛꯇ",
      "ꯒꯤ</w>"
    ],
    [
      "ꯊꯤ",
      "ꯕꯗ</w>"
    ],
    [
      "ꯑꯦꯀꯥꯗꯦ",
      "ꯃꯤ</w>"
    ],
    [
      "ꯁ꯭",
      "ꯋꯥꯔ"
    ],
    [
      "ꯈꯣꯟ",
      "ꯖꯦꯜ</w>"
    ],
    [
      "ꯌꯦꯡ",
      "ꯁꯤꯟꯅꯕ</w>"
    ],
    [
      "ꯄꯥꯀꯤꯁꯇ",
      "ꯥꯟꯒꯤ</w>"
    ],
    [
      "ꯂꯥꯛ",
      "ꯏ꯫</w>"
    ],
    [
      "ꯋꯥꯍ",
      "ꯪ</w>"
    ],
    [
      "ꯌꯨꯅꯤ",
      "ꯠ</w>"
    ],
    [
      "ꯇꯔꯦ",
      "ꯠ"
    ],
    [
      "ꯂꯩꯈꯤ",
      "ꯗ꯭ꯔꯦ꯫</w>"
    ],
    [
      "ꯊꯦꯡꯅ",
      "ꯈꯤ</w>"
    ],
    [
      "ꯅꯣꯡꯆꯨꯞ",
      "ꯂꯣꯝꯒꯤ</w>"
    ],
    [
      "ꯄꯥꯛ",
      "ꯊꯣꯛ-"
    ],
    [
      "ꯄ꯭",
      "ꯂꯦ</w>"
    ],
    [
      "ꯍꯧꯒꯠ",
      "ꯂꯛ"
    ],
    [
      "ꯒꯣꯜ",
      "ꯀꯤ"
    ],
    [
      "ꯈꯟ",
      "ꯅ"
    ],
    [
      "ꯁꯥ",
      "ꯁꯤꯡ</w>"
    ],
    [
      "꯲",
      "꯸ꯗ</w>"
    ],
    [
      "ꯗꯕ",
      ",</w>"
    ],
    [
      "ꯁ꯭ꯀꯨ",
      "ꯜꯒꯤ</w>"
    ],
    [
      "ꯄꯔ",
      "ꯐꯣ"
    ],
    [
      "ꯗꯥꯏ",
      "ꯔꯦ"
    ],
    [
      "ꯕꯦꯟ",
      "ꯗ</w>"
    ],
    [
      "ꯈꯪ",
      "ꯍꯟ"
    ],
    [
      "ꯌꯟ",
      "ꯁꯤꯡꯅ</w>"
    ],
    [
      "ꯐꯦꯗ",
      "ꯔꯦꯜ</w>"
    ],
    [
      "꯲꯰꯰",
      "꯶ꯀꯤ</w>"
    ],
    [
      "ꯒ꯭ꯔꯥ",
      "ꯝ</w>"
    ],
    [
      "ꯃꯦ",
      "ꯂꯥ</w>"
    ],
    [
      "ꯅꯝ",
      "ꯈꯤ꯫</w>"
    ],
    [
      "ꯁꯨꯔꯨ",
      "ꯡꯁꯤꯡ</w>"
    ],
    [
      "থ",
      "ব"
    ],
    [
      "র",
      "ম্মি।</w>"
    ],
    [
      "স",
      "তা</w>"
    ],
    [
      "মত",
      "মদা</w>"
    ],
    [
      "ꯁꯤ",
      "ꯞ"
    ],
    [
      "ꯂꯥꯟꯃꯤ",
      "ꯁꯤꯡꯕꯨ</w>"
    ],
    [
      "꯲",
      "꯲ꯗ</w>"
    ],
    [
      "ꯔꯥꯖ",
      "ꯥ"
    ],
    [
      "ꯆꯦ",
      "ꯜ"
    ],
    [
      "ꯍꯦꯟ",
      "ꯗꯣꯛꯄ</w>"
    ],
    [
      "ꯁꯤ.",
      "ꯏ."
    ],
    [
      "ꯌꯨꯔꯣ",
      "ꯞꯇ</w>"
    ],
    [
      "ꯄꯤ",
      "-"
    ],
    [
      "ꯃꯥꯔ",
      "ꯁꯦꯜ</w>"
    ],
    [
      "ꯄ",
      "ꯪ"
    ],
    [
      "ꯆꯥꯗꯤ",
      "ꯡꯁꯤꯡ</w>"
    ],
    [
      "ꯀꯤ",
      "ꯅ</w>"
    ],
    [
      "ꯂꯩꯕꯥꯛ",
      "ꯁꯤꯡ</w>"
    ],
    [
      "ꯑꯦ",
      "ꯡꯒ"
    ],
    [
      "ꯃꯈꯣꯏ",
      "ꯒ</w>"
    ],
    [
      "ꯃꯇꯩ-",
      "ꯃꯅꯥꯎ</w>"
    ],
    [
      "ꯀꯦ",
      "ꯊꯣ"
    ],
    [
      "ꯃ",
      "ꯐꯝꯒꯤ</w>"
    ],
    [
      "ꯕꯨ",
      "ꯁꯨ</w>"
    ],
    [
      "ꯆꯠ",
      "ꯅ</w>"
    ],
    [
      "ꯟ",
      "-"
    ],
    [
      "꯲꯰꯱",
      "꯲ꯗ</w>"
    ],
    [
      "ꯂꯥꯏ",
      "ꯠ</w>"
    ],
    [
      "ꯃꯜ",
      "ꯇꯤ"
    ],
    [
      "ꯄꯥꯛꯊꯣꯛ-",
      "ꯆꯥꯎ"
    ],
    [
      "ꯖꯝ",
      "ꯃꯨ</w>"
    ],
    [
      "ꯀꯣꯔ",
      "ꯠ</w>"
    ],
    [
      "ꯇꯨꯔꯦ",
      "ꯜ"
    ],
    [
      "ꯑꯔꯣꯏ",
      "ꯕꯗ,</w>"
    ]
  ],
  "merge_stats": [
    {
      "step": 1,
      "pair": "ꯤ</w>",
      "pair_chars": [
        "ꯤ",
        "</w>"
      ],
      "frequency": 282357
    },
    {
      "step": 2,
      "pair": "ꯕ</w>",
      "pair_chars": [
        "ꯕ",
        "</w>"
      ],
      "frequency": 139812
    },
    {
      "step": 3,
      "pair": "ꯅ</w>",
      "pair_chars": [
        "ꯅ",
        "</w>"
      ],
      "frequency": 130674
    },
    {
      "step": 4,
      "pair": "ꯒꯤ</w>",
      "pair_chars": [
        "ꯒ",
        "ꯤ</w>"
      ],
      "frequency": 125868
    },
    {
      "step": 5,
      "pair": "ꯁꯤ",
      "pair_chars": [
        "ꯁ",
        "ꯤ"
      ],
      "frequency": 125220
    },
    {
      "step": 6,
      "pair": "ꯗ</w>",
      "pair_chars": [
        "ꯗ",
        "</w>"
      ],
      "frequency": 95308
    },
    {
      "step": 7,
      "pair": "꯫</w>",
      "pair_chars": [
        "꯫",
        "</w>"
      ],
      "frequency": 95085
    },
    {
      "step": 8,
      "pair": "ꯡ</w>",
      "pair_chars": [
        "ꯡ",
        "</w>"
      ],
      "frequency": 91292
    },
    {
      "step": 9,
      "pair": "ꯑꯃ",
      "pair_chars": [
        "ꯑ",
        "ꯃ"
      ],
      "frequency": 77230
    },
    {
      "step": 10,
      "pair": "ꯥꯏ",
      "pair_chars": [
        "ꯥ",
        "ꯏ"
      ],
      "frequency": 76013
    },
    {
      "step": 11,
      "pair": "ꯣꯏ",
      "pair_chars": [
        "ꯣ",
        "ꯏ"
      ],
      "frequency": 72836
    },
    {
      "step": 12,
      "pair": "ꯁꯨ",
      "pair_chars": [
        "ꯁ",
        "ꯨ"
      ],
      "frequency": 53487
    },
    {
      "step": 13,
      "pair": "ꯗꯨ",
      "pair_chars": [
        "ꯗ",
        "ꯨ"
      ],
      "frequency": 50902
    },
    {
      "step": 14,
      "pair": "ꯥꯛ",
      "pair_chars": [
        "ꯥ",
        "ꯛ"
      ],
      "frequency": 49477
    },
    {
      "step": 15,
      "pair": "꯭ꯔ",
      "pair_chars": [
        "꯭",
        "ꯔ"
      ],
      "frequency": 49261
    },
    {
      "step": 16,
      "pair": "ꯁꯤ</w>",
      "pair_chars": [
        "ꯁ",
        "ꯤ</w>"
      ],
      "frequency": 47805
    },
    {
      "step": 17,
      "pair": "ꯑꯣꯏ",
      "pair_chars": [
        "ꯑ",
        "ꯣꯏ"
      ],
      "frequency": 45005
    },
    {
      "step": 18,
      "pair": ",</w>",
      "pair_chars": [
        ",",
        "</w>"
      ],
      "frequency": 44613
    },
    {
      "step": 19,
      "pair": "ꯌꯥ",
      "pair_chars": [
        "ꯌ",
        "ꯥ"
      ],
      "frequency": 41245
    },
    {
      "step": 20,
      "pair": "ꯤ꯫</w>",
      "pair_chars": [
        "ꯤ",
        "꯫</w>"
      ],
      "frequency": 38942
    },
    {
      "step": 21,
      "pair": "ꯑꯁꯤ</w>",
      "pair_chars": [
        "ꯑ",
        "ꯁꯤ</w>"
      ],
      "frequency": 37057
    },
    {
      "step": 22,
      "pair": "ꯑꯃꯁꯨ",
      "pair_chars": [
        "ꯑꯃ",
        "ꯁꯨ"
      ],
      "frequency": 36654
    },
    {
      "step": 23,
      "pair": "ꯁꯤꯡ",
      "pair_chars": [
        "ꯁꯤ",
        "ꯡ"
      ],
      "frequency": 36409
    },
    {
      "step": 24,
      "pair": "ꯑꯃꯁꯨꯡ</w>",
      "pair_chars": [
        "ꯑꯃꯁꯨ",
        "ꯡ</w>"
      ],
      "frequency": 36048
    },
    {
      "step": 25,
      "pair": "ꯦꯟ",
      "pair_chars": [
        "ꯦ",
        "ꯟ"
      ],
      "frequency": 35964
    },
    {
      "step": 26,
      "pair": "ꯣꯛ",
      "pair_chars": [
        "ꯣ",
        "ꯛ"
      ],
      "frequency": 35212
    },
    {
      "step": 27,
      "pair": "ꯥꯟ",
      "pair_chars": [
        "ꯥ",
        "ꯟ"
      ],
      "frequency": 34526
    },
    {
      "step": 28,
      "pair": "ꯝ</w>",
      "pair_chars": [
        "ꯝ",
        "</w>"
      ],
      "frequency": 34143
    },
    {
      "step": 29,
      "pair": "ꯃꯤ",
      "pair_chars": [
        "ꯃ",
        "ꯤ"
      ],
      "frequency": 33975
    },
    {
      "step": 30,
      "pair": "ꯑꯗꯨ",
      "pair_chars": [
        "ꯑ",
        "ꯗꯨ"
      ],
      "frequency": 33782
    },
    {
      "step": 31,
      "pair": "ꯂꯩ",
      "pair_chars": [
        "ꯂ",
        "ꯩ"
      ],
      "frequency": 31646
    },
    {
      "step": 32,
      "pair": "ꯔꯤ",
      "pair_chars": [
        "ꯔ",
        "ꯤ"
      ],
      "frequency": 30042
    },
    {
      "step": 33,
      "pair": "ꯛ</w>",
      "pair_chars": [
        "ꯛ",
        "</w>"
      ],
      "frequency": 29980
    },
    {
      "step": 34,
      "pair": "ꯀꯤ</w>",
      "pair_chars": [
        "ꯀ",
        "ꯤ</w>"
      ],
      "frequency": 29513
    },
    {
      "step": 35,
      "pair": "ꯥ</w>",
      "pair_chars": [
        "ꯥ",
        "</w>"
      ],
      "frequency": 29079
    },
    {
      "step": 36,
      "pair": "ꯜ</w>",
      "pair_chars": [
        "ꯜ",
        "</w>"
      ],
      "frequency": 28352
    },
    {
      "step": 37,
      "pair": "ꯁꯤꯡ</w>",
      "pair_chars": [
        "ꯁꯤ",
        "ꯡ</w>"
      ],
      "frequency": 27718
    },
    {
      "step": 38,
      "pair": "ꯍꯥꯛ",
      "pair_chars": [
        "ꯍ",
        "ꯥꯛ"
      ],
      "frequency": 27274
    },
    {
      "step": 39,
      "pair": "ꯥꯡ",
      "pair_chars": [
        "ꯥ",
        "ꯡ"
      ],
      "frequency": 26435
    },
    {
      "step": 40,
      "pair": "ꯥꯔ",
      "pair_chars": [
        "ꯥ",
        "ꯔ"
      ],
      "frequency": 26254
    },
    {
      "step": 41,
      "pair": "ꯅꯤ",
      "pair_chars": [
        "ꯅ",
        "ꯤ"
      ],
      "frequency": 25416
    },
    {
      "step": 42,
      "pair": "ꯃꯇ",
      "pair_chars": [
        "ꯃ",
        "ꯇ"
      ],
      "frequency": 24645
    },
    {
      "step": 43,
      "pair": "ꯟ</w>",
      "pair_chars": [
        "ꯟ",
        "</w>"
      ],
      "frequency": 22890
    },
    {
      "step": 44,
      "pair": "ꯠ</w>",
      "pair_chars": [
        "ꯠ",
        "</w>"
      ],
      "frequency": 22421
    },
    {
      "step": 45,
      "pair": "ꯂꯤ",
      "pair_chars": [
        "ꯂ",
        "ꯤ"
      ],
      "frequency": 22197
    },
    {
      "step": 46,
      "pair": "ꯔ</w>",
      "pair_chars": [
        "ꯔ",
        "</w>"
      ],
      "frequency": 21593
    },
    {
      "step": 47,
      "pair": "ꯇ</w>",
      "pair_chars": [
        "ꯇ",
        "</w>"
      ],
      "frequency": 21144
    },
    {
      "step": 48,
      "pair": "ꯥꯎ",
      "pair_chars": [
        "ꯥ",
        "ꯎ"
      ],
      "frequency": 21121
    },
    {
      "step": 49,
      "pair": "ꯄꯨ",
      "pair_chars": [
        "ꯄ",
        "ꯨ"
      ],
      "frequency": 20160
    },
    {
      "step": 50,
      "pair": "ꯈꯤ꯫</w>",
      "pair_chars": [
        "ꯈ",
        "ꯤ꯫</w>"
      ],
      "frequency": 19721
    },
    {
      "step": 51,
      "pair": "ꯃꯍꯥꯛ",
      "pair_chars": [
        "ꯃ",
        "ꯍꯥꯛ"
      ],
      "frequency": 19211
    },
    {
      "step": 52,
      "pair": "ꯄ</w>",
      "pair_chars": [
        "ꯄ",
        "</w>"
      ],
      "frequency": 19009
    },
    {
      "step": 53,
      "pair": "ꯑꯦ",
      "pair_chars": [
        "ꯑ",
        "ꯦ"
      ],
      "frequency": 18916
    },
    {
      "step": 54,
      "pair": "ꯖꯤ",
      "pair_chars": [
        "ꯖ",
        "ꯤ"
      ],
      "frequency": 18771
    },
    {
      "step": 55,
      "pair": "ꯅꯨ",
      "pair_chars": [
        "ꯅ",
        "ꯨ"
      ],
      "frequency": 18548
    },
    {
      "step": 56,
      "pair": "ꯍꯥꯏ",
      "pair_chars": [
        "ꯍ",
        "ꯥꯏ"
      ],
      "frequency": 18537
    },
    {
      "step": 57,
      "pair": "ꯇꯤ",
      "pair_chars": [
        "ꯇ",
        "ꯤ"
      ],
      "frequency": 18472
    },
    {
      "step": 58,
      "pair": "ꯅꯕ</w>",
      "pair_chars": [
        "ꯅ",
        "ꯕ</w>"
      ],
[...]
