{
  "vocab_size": 5000,
  "num_merges": 5000,
  "actual_merges": 5000,
  "min_frequency": 2,
  "merges": [
    [
      "ा",
      "</w>"
    ],
    [
      "ो",
      "</w>"
    ],
    [
      "न",
      "्"
    ],
    [
      "क",
      "ो</w>"
    ],
    [
      "।",
      "</w>"
    ],
    [
      "्",
      "र"
    ],
    [
      "र",
      "्"
    ],
    [
      "म",
      "ा</w>"
    ],
    [
      "े",
      "</w>"
    ],
    [
      "र",
      "</w>"
    ],
    [
      "्",
      "य"
    ],
    [
      "र",
      "ू"
    ],
    [
      "न",
      "</w>"
    ],
    [
      "ी",
      "</w>"
    ],
    [
      "ह",
      "रू"
    ],
    [
      "ल",
      "ा"
    ],
    [
      "स",
      "्"
    ],
    [
      "ि",
      "</w>"
    ],
    [
      "ल",
      "े</w>"
    ],
    [
      ",",
      "</w>"
    ],
    [
      "क",
      "ा</w>"
    ],
    [
      "क",
      "्"
    ],
    [
      "ि",
      "य"
    ],
    [
      "म",
      "ा"
    ],
    [
      "प",
      "्र"
    ],
    [
      "ा",
      "र"
    ],
    [
      "क",
      "</w>"
    ],
    [
      "त",
      "</w>"
    ],
    [
      "ई",
      "</w>"
    ],
    [
      "र",
      "ा"
    ],
    [
      "छ",
      "।</w>"
    ],
    [
      "ो",
      "।</w>"
    ],
    [
      "ला",
      "ई</w>"
    ],
    [
      "ग",
      "र"
    ],
    [
      "व",
      "ि"
    ],
    [
      "क",
      "ा"
    ],
    [
      "ग",
      "र्"
    ],
    [
      "ि",
      "ए"
    ],
    [
      "म",
      "्"
    ],
    [
      "न",
      "ि"
    ],
    [
      "्य",
      "ा"
    ],
    [
      "हरू",
      "</w>"
    ],
    [
      "उ",
      "न"
    ],
    [
      "न",
      "ा"
    ],
    [
      "ै",
      "</w>"
    ],
    [
      "त",
      "ि"
    ],
    [
      "स",
      "ा"
    ],
    [
      "म",
      "</w>"
    ],
    [
      "प",
      "ा"
    ],
    [
      "ल",
      "</w>"
    ],
    [
      "ह",
      "ु"
    ],
    [
      "स",
      "</w>"
    ],
    [
      "ट",
      "</w>"
    ],
    [
      "न्",
      "।</w>"
    ],
    [
      "ब",
      "ा"
    ],
    [
      "ल",
      "्"
    ],
    [
      "न",
      "े</w>"
    ],
    [
      "े",
      "र"
    ],
    [
      "त",
      "्"
    ],
    [
      "ङ",
      "्"
    ],
    [
      "व",
      "ा"
    ],
    [
      "त",
      "्र"
    ],
    [
      "त",
      "ा"
    ],
    [
      "न्",
      "</w>"
    ],
    [
      "ग",
      "</w>"
    ],
    [
      "ह",
      "ि"
    ],
    [
      "स",
      "ि"
    ],
    [
      "न",
      "ु"
    ],
    [
      "य",
      "</w>"
    ],
    [
      "क्",
      "ष"
    ],
    [
      "थ",
      "िय"
    ],
    [
      "न",
      "ि</w>"
    ],
    [
      "न्",
      "द"
    ],
    [
      "ह",
      "ा"
    ],
    [
      "ल",
      "ि"
    ],
    [
      "ट",
      "ा</w>"
    ],
    [
      "न",
      "े"
    ],
    [
      "ला",
      "ग"
    ],
    [
      "छ",
      "न्।</w>"
    ],
    [
      "ण",
      "</w>"
    ],
    [
      "द",
      "्"
    ],
    [
      "य",
      "ो</w>"
    ],
    [
      "द",
      "े"
    ],
    [
      "म",
      "ि"
    ],
    [
      "गर",
      "े"
    ],
    [
      "त",
      "्य"
    ],
    [
      "र",
      "ि"
    ],
    [
      "न",
      "ा</w>"
    ],
    [
      "२",
      "०"
    ],
    [
      "थिय",
      "ो।</w>"
    ],
    [
      "भ",
      "ए"
    ],
    [
      "क",
      "े"
    ],
    [
      "ल",
      "े"
    ],
    [
      "भ",
      "ा"
    ],
    [
      "स",
      "न्</w>"
    ],
    [
      "न्",
      "छ।</w>"
    ],
    [
      "ँ",
      "</w>"
    ],
    [
      "ु",
      "र"
    ],
    [
      "स",
      "म्"
    ],
    [
      "ि",
      "त</w>"
    ],
    [
      "लाग",
      "ि</w>"
    ],
    [
      "स्",
      "थ"
    ],
    [
      "थ",
      "िए"
    ],
    [
      "य",
      "ो"
    ],
    [
      "क",
      "ि"
    ],
    [
      "क",
      "ार"
    ],
    [
      "न",
      "ी"
    ],
    [
      "क",
      "्र"
    ],
    [
      "य",
      "स"
    ],
    [
      "ए",
      "उ"
    ],
    [
      "१",
      "९"
    ],
    [
      "रा",
      "ज"
    ],
    [
      "ग",
      "ा"
    ],
    [
      "स",
      "े"
    ],
    [
      "ह",
      "ो।</w>"
    ],
    [
      "स",
      "म"
    ],
    [
      "स्",
      "त"
    ],
    [
      "िए",
      "को</w>"
    ],
    [
      "रू",
      "प"
    ],
    [
      "एउ",
      "टा</w>"
    ],
    [
      "न्",
      "ड"
    ],
    [
      "द",
      "ि"
    ],
    [
      "हरू",
      "ले</w>"
    ],
    [
      "फ",
      "्"
    ],
    [
      "ष",
      "्"
    ],
    [
      "ख",
      "े"
    ],
    [
      "स्",
      "ट"
    ],
    [
      "ज",
      "ा"
    ],
    [
      "प",
      "नि</w>"
    ],
    [
      "क",
      "ु"
    ],
    [
      "छ",
      "</w>"
    ],
    [
      "च",
      "ि"
    ],
    [
      "व",
      "र्"
    ],
    [
      "ज",
      "ि"
    ],
    [
      "बा",
      "ट</w>"
    ],
    [
      "भ",
      "ि"
    ],
    [
      "य",
      "ा"
    ],
    [
      "ह",
      "े"
    ],
    [
      "द",
      "ा"
    ],
    [
      "च",
      "ा"
    ],
    [
      "ु",
      "</w>"
    ],
    [
      "क",
      "ो"
    ],
    [
      "प",
      "्"
    ],
    [
      "रूप",
      "मा</w>"
    ],
    [
      "प",
      "छ"
    ],
    [
      "०",
      "</w>"
    ],
    [
      "प",
      "ु"
    ],
    [
      "थिए",
      "।</w>"
    ],
    [
      "गर्",
      "न</w>"
    ],
    [
      "व",
      "ा</w>"
    ],
    [
      "म",
      "ु"
    ],
    [
      "्य",
      "</w>"
    ],
    [
      "ब",
      "ि"
    ],
    [
      "ल",
      "ो</w>"
    ],
    [
      "हरू",
      "को</w>"
    ],
    [
      "ट",
      "ि"
    ],
    [
      "आ",
      "फ्"
    ],
    [
      "ङ्",
      "ग"
    ],
    [
      "स",
      "ँ"
    ],
    [
      "दे",
      "ख"
    ],
    [
      "्र",
      "ा"
    ],
    [
      "र",
      "ो"
    ],
    [
      "श",
      "्"
    ],
    [
      "र",
      "े"
    ],
    [
      "ध",
      "ेर"
    ],
    [
      "य",
      "ु"
    ],
    [
      "न",
      "ो</w>"
    ],
    [
      "ट",
      "ा"
    ],
    [
      "अ",
      "न्"
    ],
    [
      "ह",
      "ो"
    ],
    [
      "त",
      "ि</w>"
    ],
    [
      "िय",
      "ा"
    ],
    [
      "म",
      "े"
    ],
    [
      "हरू",
      "मा</w>"
    ],
    [
      "त",
      "पा"
    ],
    [
      "तपा",
      "ई"
    ],
    [
      "त",
      "ा</w>"
    ],
    [
      "भए",
      "को</w>"
    ],
    [
      "प",
      "ू"
    ],
    [
      "स",
      "क्"
    ],
    [
      "ड",
      "</w>"
    ],
    [
      "सँ",
      "ग</w>"
    ],
    [
      "न्द",
      "ा</w>"
    ],
    [
      "स",
      "ं"
    ],
    [
      "व",
      "े"
    ],
    [
      "न",
      "ी</w>"
    ],
    [
      "गर",
      "िएको</w>"
    ],
    [
      "भ",
      "न्दा</w>"
    ],
    [
      "प्र",
      "ा"
    ],
    [
      "स",
      "ब"
    ],
    [
      "ल",
      "ा</w>"
    ],
    [
      "ज",
      "स"
    ],
    [
      "अ",
      "नि</w>"
    ],
    [
      "प",
      "र्"
    ],
    [
      "ध",
      "ि"
    ],
    [
      "स",
      "ु"
    ],
    [
      "ट",
      "्र"
    ],
    [
      "म",
      "ेर"
    ],
    [
      "उन",
      "ले</w>"
    ],
    [
      "व",
      "ार"
    ],
    [
      "स्थ",
      "ा"
    ],
    [
      "धेर",
      "ै</w>"
    ],
    [
      "ल",
      "ो"
    ],
    [
      "ल",
      "ी"
    ],
    [
      "व",
      "</w>"
    ],
    [
      "उ",
      "ँ"
    ],
    [
      "त्र",
      "</w>"
    ],
    [
      "पू",
      "र्"
    ],
    [
      "मा",
      ",</w>"
    ],
    [
      "भ",
      "ार"
    ],
    [
      "न",
      "को</w>"
    ],
    [
      "हरू",
      "लाई</w>"
    ],
    [
      "द",
      "ु"
    ],
    [
      "उ",
      "त्"
    ],
    [
      "पछ",
      "ि</w>"
    ],
    [
      "स",
      "ह"
    ],
    [
      "आफ्",
      "नो</w>"
    ],
    [
      "हु",
      "न्"
    ],
    [
      "प",
      "ि"
    ],
    [
      "र",
      "हे"
    ],
    [
      "उन",
      "ी</w>"
    ],
    [
      "गर",
      "ि"
    ],
    [
      "त",
      "ी"
    ],
    [
      "द्",
      "ध"
    ],
    [
      "ल",
      "ी</w>"
    ],
    [
      "ए",
      "क</w>"
    ],
    [
      "ब",
      "्"
    ],
    [
      "ज",
      "ु"
    ],
    [
      "ड",
      "ि"
    ],
    [
      "न",
      "मा</w>"
    ],
    [
      "क",
      "ी</w>"
    ],
    [
      "फ",
      "ि"
    ],
    [
      "गर्",
      "द"
    ],
    [
      "तपाई",
      "ँ"
    ],
    [
      "ट",
      "ो"
    ],
    [
      "ट",
      "े"
    ],
    [
      "नि",
      "र्"
    ],
    [
      "ट",
      "्"
    ],
    [
      "अ",
      "नु"
    ],
    [
      "र",
      "ी</w>"
    ],
    [
      "प",
      "रि"
    ],
    [
      "श",
      "ा"
    ],
    [
      "ह",
      "ी</w>"
    ],
    [
      "२०",
      "१"
    ],
    [
      "ी",
      "को</w>"
    ],
    [
      "प्र",
      "यो"
    ],
    [
      "य",
      "ो।</w>"
    ],
    [
      "गरे",
      "।</w>"
    ],
    [
      "ड",
      "े"
    ],
    [
      "श",
      "</w>"
    ],
    [
      "ध",
      "्य"
    ],
    [
      "म्",
      "प"
    ],
    [
      "वर्",
      "ष"
    ],
    [
      "सम्",
      "म</w>"
    ],
    [
      "व",
      "्य"
    ],
    [
      "प",
      "हि"
    ],
    [
      "गर्",
      "ने</w>"
    ],
    [
      "न",
      "ै</w>"
    ],
    [
      "१",
      "</w>"
    ],
    [
      "ज",
      "</w>"
    ],
    [
      "ब",
      "े"
    ],
    [
      "च",
      "</w>"
    ],
    [
      "ए",
      "को</w>"
    ],
    [
      "द्",
      "वार"
    ],
    [
      "ज",
      "ना</w>"
    ],
    [
      "स",
      "मा"
    ],
    [
      "ब",
      "</w>"
    ],
    [
      "ख",
      "ा"
    ],
    [
      "२",
      "</w>"
    ],
    [
      "मा",
      "नि"
    ],
    [
      "देख",
      "ि</w>"
    ],
    [
      "स",
      "ङ्"
    ],
    [
      "उ",
      "प"
    ],
    [
      "छ",
      ",</w>"
    ],
    [
      "द्वार",
      "ा</w>"
    ],
    [
      "द",
      "</w>"
    ],
    [
      "ड",
      "ा"
    ],
    [
      "५",
      "</w>"
    ],
    [
      "ब",
      "ना"
    ],
    [
      "क्ष",
      "े"
    ],
    [
      "अ",
      "व"
    ],
    [
      "प्रयो",
      "ग</w>"
    ],
    [
      "ल",
      "्या"
    ],
    [
      "य",
      "स</w>"
    ],
    [
      "ध",
      "ा"
    ],
    [
      "का",
      "र्"
    ],
    [
      "स",
      "ुर"
    ],
    [
      "त",
      "र</w>"
    ],
    [
      "ि",
      "क</w>"
    ],
    [
      "प्र",
      "ति"
    ],
    [
      "अ",
      "र्"
    ],
    [
      "न",
      "ो"
    ],
    [
      "म्",
      "ब"
    ],
    [
      "ग",
      "्र"
    ],
    [
      "ज",
      "न"
    ],
    [
      "च",
      "्"
    ],
    [
      "स",
      "ो"
    ],
    [
      "ग",
      "ो"
    ],
    [
      "म",
      "ो"
    ],
    [
      "ष्",
      "ट्र"
    ],
    [
      "व",
      "टा</w>"
    ],
    [
      "छ",
      "न्</w>"
    ],
    [
      "हु",
      "न्छ।</w>"
    ],
    [
      "मु",
      "ख"
    ],
    [
      "क्",
      "त</w>"
    ],
    [
      "४",
      "</w>"
    ],
    [
      "भ",
      "ने"
    ],
    [
      "उन",
      "ी"
    ],
    [
      "प",
      "</w>"
    ],
    [
      "के",
      "ही</w>"
    ],
    [
      "रहे",
      "को</w>"
    ],
    [
      "दे",
      "श"
    ],
    [
      "२०",
      "०"
    ],
    [
      "थ",
      "ा"
    ],
    [
      "न्",
      "ट"
    ],
    [
      "६",
      "</w>"
    ],
    [
      "प",
      "ो"
    ],
    [
      "७",
      "</w>"
    ],
    [
      "८",
      "</w>"
    ],
    [
      "वि",
      "श्"
    ],
    [
      "प",
      "े"
    ],
    [
      "ज",
      "ो"
    ],
    [
      "सब",
      "ै"
    ],
    [
      "न्",
      "ध"
    ],
    [
      "िय",
      "</w>"
    ],
    [
      "ग",
      "ु"
    ],
    [
      "ग",
      "्"
    ],
    [
      "त",
      "र"
    ],
    [
      "ब",
      "ढ"
    ],
    [
      "३",
      "</w>"
    ],
    [
      "ति",
      "नी"
    ],
    [
      "्र",
      "ो</w>"
    ],
    [
      "क",
      "्या"
    ],
    [
      "मा",
      "न्"
    ],
    [
      "क",
      "ृ"
    ],
    [
      "न",
      "िय"
    ],
    [
      "र",
      "को</w>"
    ],
    [
      "क",
      "र्"
    ],
    [
      "्य",
      "ो।</w>"
    ],
    [
      "उन",
      "को</w>"
    ],
    [
      "उ",
      "न</w>"
    ],
    [
      "ज",
      "े"
    ],
    [
      "गर्",
      "नु"
    ],
    [
      "र",
      "ु"
    ],
    [
      "ज",
      "्"
    ],
    [
      "का",
      "र</w>"
    ],
    [
      "सबै",
      "भन्दा</w>"
    ],
    [
      "ज",
      "स्त"
    ],
    [
      "्र",
      "े"
    ],
    [
      "ए",
      "क"
    ],
    [
      "ह",
      "</w>"
    ],
    [
      "क",
      "र"
    ],
    [
      "प",
      "र"
    ],
    [
      "ङ",
      "</w>"
    ],
    [
      "य",
      "द"
    ],
    [
      "मा",
      "र्"
    ],
    [
      "मेर",
      "ि"
    ],
    [
      "ल",
      "मा</w>"
    ],
    [
      "मानि",
      "स"
    ],
    [
      "हो",
      "स्"
    ],
    [
      "ी",
      "मा</w>"
    ],
    [
      "श",
      "ि"
    ],
    [
      "ँ",
      "द"
    ],
    [
      "ब",
      "ो"
    ],
    [
      "प्",
      "त</w>"
    ],
    [
      "ै",
      "न"
    ],
    [
      "भार",
      "त"
    ],
    [
      "पहि",
      "लो</w>"
    ],
    [
      "क्षे",
      "त्र"
    ],
    [
      "स्",
      "व"
    ],
    [
      "हरू",
      "का</w>"
    ],
    [
      "अ",
      "मेरि"
    ],
    [
      "ल",
      "को</w>"
    ],
    [
      "प",
      "ुर"
    ],
    [
      "स",
      "को</w>"
    ],
    [
      "्य",
      "ु"
    ],
    [
      "जु",
      "न</w>"
    ],
    [
      "फ",
      "े"
    ],
    [
      "ः",
      "</w>"
    ],
    [
      ")",
      "</w>"
    ],
    [
      "द्ध",
      "</w>"
    ],
    [
      "राज",
      "्य"
    ],
    [
      "ृ",
      "त्य"
    ],
    [
      "थ",
      "</w>"
    ],
    [
      "गरे",
      "को</w>"
    ],
    [
      "अन्",
      "य</w>"
    ],
    [
      "भ",
      "न्"
    ],
    [
      "म",
      "ध्य"
    ],
    [
      "न",
      "का</w>"
    ],
    [
      "न",
      "ले</w>"
    ],
    [
      "क्र",
      "म"
    ],
    [
      "हा",
      "ँ</w>"
    ],
    [
      "य",
      "ी</w>"
    ],
    [
      "त",
      "े"
    ],
    [
      "िय",
      "ा</w>"
    ],
    [
      "ब",
      "ार"
    ],
    [
      "यस",
      "को</w>"
    ],
    [
      "सा",
      "मान्"
    ],
    [
      "ह",
      "ो</w>"
    ],
    [
      "फ",
      "ा"
    ],
    [
      "ी",
      "ले</w>"
    ],
    [
      "न्",
      "त्र"
    ],
    [
      "ध",
      "ार"
    ],
    [
      "न्",
      "न</w>"
    ],
    [
      "भ",
      "े"
    ],
    [
      "रा",
      "ष्ट्र"
    ],
    [
      "म",
      "ह"
    ],
    [
      "ब",
      "्र"
    ],
    [
      "स",
      "र"
    ],
    [
      "गरे",
      "का</w>"
    ],
    [
      "ल",
      "गा"
    ],
    [
      "ती",
      "य</w>"
    ],
    [
      "स",
      "न</w>"
    ],
    [
      "ठ",
      "ा"
    ],
    [
      "अ",
      "धि"
    ],
    [
      "पूर्",
      "ण</w>"
    ],
    [
      "ल",
      "ु"
    ],
    [
      "िय",
      "ो"
    ],
    [
      "भ",
      "यो।</w>"
    ],
    [
      "भ",
      "ने</w>"
    ],
    [
      "फ",
      "ो"
    ],
    [
      "ब",
      "न्ध"
    ],
    [
      "र",
      "मा</w>"
    ],
    [
      "९",
      "</w>"
    ],
    [
      "छ",
      "ो"
    ],
    [
      "हु",
      "न</w>"
    ],
    [
      "जस",
      "ले</w>"
    ],
    [
      "स",
      "ी</w>"
    ],
    [
      "सम",
      "य"
    ],
    [
      "न्",
      ",</w>"
    ],
    [
      "त्य",
      "स"
    ],
    [
      "यस",
      "ले</w>"
    ],
    [
      "क्",
      "ति"
    ],
    [
      "ष",
      "</w>"
    ],
    [
      "कु",
      "नै</w>"
    ],
    [
      "त",
      "ी</w>"
    ],
    [
      "र्",
      "थ"
    ],
    [
      "क",
      "ि</w>"
    ],
    [
      "म",
      "ी</w>"
    ],
    [
      "न",
      ",</w>"
    ],
    [
      "फि",
      "ल्"
    ],
    [
      "म",
      "ू"
    ],
    [
      "ग",
      "ि"
    ],
    [
      "हु",
      "न्।</w>"
    ],
    [
      "आ",
      "इ"
    ],
    [
      "ब",
      "ु"
    ],
    [
      "राज",
      "्य</w>"
    ],
    [
      "ट",
      "र</w>"
    ],
    [
      "म",
      "हि"
    ],
    [
      "थ",
      "ि"
    ],
    [
      "ले",
      "ख"
    ],
    [
      "ठ",
      "ु"
    ],
    [
      "ञ",
      "्"
    ],
    [
      "भ",
      "ू"
    ],
    [
      "व",
      "्या"
    ],
    [
      "ण",
      "्"
    ],
    [
      "म",
      "ृत्य"
    ],
    [
      "वि",
      "द"
    ],
    [
      "यस",
      "लाई</w>"
    ],
    [
      "ी",
      "य</w>"
    ],
    [
      "रा",
      "ख"
    ],
    [
      "ब",
      "्या"
    ],
    [
      "सक्",
      "छ।</w>"
    ],
    [
      "यु",
      "क्त</w>"
    ],
    [
      "्र",
      "ो"
    ],
    [
      "फ",
      "</w>"
    ],
    [
      "च",
      "ल"
    ],
    [
      "ज",
      "ी"
    ],
    [
      "िए",
      "का</w>"
    ],
    [
      "स",
      "ङ्ग"
    ],
    [
      "ल्या",
      "न्ड"
    ],
    [
      "ि",
      ",</w>"
    ],
    [
      "स्था",
      "प"
    ],
    [
      "नि",
      "क</w>"
    ],
    [
      "य",
      "ा</w>"
    ],
    [
      "म",
      "मा</w>"
    ],
    [
      "त्",
      "व"
    ],
    [
      "स",
      "ले</w>"
    ],
    [
      "मध्य",
      "े</w>"
    ],
    [
      "पा",
      "र्"
    ],
    [
      "क",
      "को</w>"
    ],
    [
      "च",
      "े"
    ],
    [
      "स",
      "ा</w>"
    ],
    [
      "भा",
      "ग"
    ],
    [
      "रा",
      "म"
    ],
    [
      "०",
      "०</w>"
    ],
    [
      "भन्",
      "ने</w>"
    ],
    [
      "द",
      "ो"
    ],
    [
      "क",
      "म्प"
    ],
    [
      "श",
      "े"
    ],
    [
      "न्",
      "त"
    ],
    [
      "उन",
      "लाई</w>"
    ],
    [
      "ड",
      "्"
    ],
    [
      "म",
      "को</w>"
    ],
    [
      "१९",
      "९"
    ],
    [
      "ला",
      "इ"
    ],
    [
      "उन",
      "े</w>"
    ],
    [
      "थिय",
      "ो</w>"
    ],
    [
      "तपाईँ",
      "ले</w>"
    ],
    [
      "स्",
      "ता"
    ],
    [
      "स",
      "मा</w>"
    ],
    [
      "ल्",
      "ला"
    ],
    [
      "चल",
      "चि"
    ],
    [
      "ख",
      "ो"
    ],
    [
      "भए",
      "का</w>"
    ],
    [
      "म",
      "्या"
    ],
    [
      "न्द",
      "्र"
    ],
    [
      "ड",
      "ी</w>"
    ],
    [
      "सुर",
      "ु</w>"
    ],
    [
      "च",
      "ार"
    ],
    [
      "विश्",
      "व"
    ],
    [
      "द",
      "र्"
    ],
    [
      "ल",
      "ग"
    ],
    [
      "कार",
      "ण</w>"
    ],
    [
      "पूर्",
      "व"
    ],
    [
      "इ",
      "एको</w>"
    ],
    [
      "गरि",
      "न्छ।</w>"
    ],
    [
      "ण",
      "ा"
    ],
    [
      "सं",
      "युक्त</w>"
    ],
    [
      "छ",
      "न्,</w>"
    ],
    [
      "छ",
      "ि"
    ],
    [
      "प्रा",
      "प्त</w>"
    ],
    [
      "सब",
      "ै</w>"
    ],
    [
      "कार्",
      "य"
    ],
    [
      "वे",
      "श</w>"
    ],
    [
      "बढ",
      "ी</w>"
    ],
    [
      "न",
      "द"
    ],
    [
      "प",
      "ट"
    ],
    [
      "स",
      "र्"
    ],
    [
      "हु",
      "ने</w>"
    ],
    [
      "क्ष",
      "ि"
    ],
    [
      "व्य",
      "क्ति"
    ],
    [
      "होस्",
      "।</w>"
    ],
    [
      "इ",
      "न्"
    ],
    [
      "क",
      "मा</w>"
    ],
    [
      "दि",
      "न</w>"
    ],
    [
      "वि",
      "शे"
    ],
    [
      "खे",
      "ल"
    ],
    [
      "ी",
      ",</w>"
    ],
    [
      "च",
      "ित</w>"
    ],
    [
      "मा",
      "न"
    ],
    [
      "ठु",
      "लो</w>"
    ],
    [
      "ग",
      "त</w>"
    ],
    [
      "भार",
      "तीय</w>"
    ],
    [
      "भ",
      "नि"
    ],
    [
      "म",
      "लाई</w>"
    ],
    [
      "का",
      "म</w>"
    ],
    [
      "स",
      "्रो</w>"
    ],
    [
      "यद",
      "ि</w>"
    ],
    [
      "स",
      "कि"
    ],
    [
      "ए",
      "।</w>"
    ],
    [
      "चा",
      "र</w>"
    ],
    [
      "द",
      "क्षि"
    ],
    [
      "ी",
      "हरू</w>"
    ],
    [
      "य",
      "त"
    ],
    [
      "गर्",
      "छन्।</w>"
    ],
    [
      "हुन्",
      "छ</w>"
    ],
    [
      "भने",
      "र</w>"
    ],
    [
      "ए",
      "स"
    ],
    [
      "ै",
      "ले</w>"
    ],
    [
      "र",
      "ण"
    ],
    [
      "सा",
      "इ"
    ],
    [
      "का",
      "को</w>"
    ],
    [
      "अ",
      "भि"
    ],
    [
      "ज्",
      "ञ"
    ],
    [
      "प",
      "ार"
    ],
    [
      "ल",
      "िय"
    ],
    [
      "ध",
      "</w>"
    ],
    [
      "ो",
      ",</w>"
    ],
    [
      "स्थ",
      "ित</w>"
    ],
    [
      "ट",
      "ी</w>"
    ],
    [
      "ज",
      "न्"
    ],
    [
      "म्ब",
      "र</w>"
    ],
    [
      "श",
      "्र"
    ],
    [
      "भा",
      "व"
    ],
    [
      "स",
      "द"
    ],
    [
      "न",
      "लाई</w>"
    ],
    [
      "प्रा",
      "य"
    ],
    [
      "ी",
      "का</w>"
    ],
    [
      "ैन",
      "।</w>"
    ],
    [
      "ष्",
      "ट</w>"
    ],
    [
      "प्र",
      "त्य"
    ],
    [
      "ग",
      "्रा"
    ],
    [
      "गर्द",
      "छ।</w>"
    ],
    [
      "हु",
      "ँद"
    ],
    [
      "म",
      "क</w>"
    ],
    [
      "ब्",
      "द"
    ],
    [
      "या",
      "ँ</w>"
    ],
    [
      "ए",
      "का</w>"
    ],
    [
      "ग",
      "े"
    ],
    [
      "सङ्",
      "ख"
    ],
    [
      "अ",
      "घ"
    ],
    [
      "कि",
      "न"
    ],
    [
      "मृत्य",
      "ु</w>"
    ],
    [
      "निर्",
      "मा"
    ],
    [
      "वर्ष",
      "को</w>"
    ],
    [
      "ज",
      "न</w>"
    ],
    [
      "ण्",
      "ड"
    ],
    [
      "उन",
      "का</w>"
    ],
    [
      "क",
      "म</w>"
    ],
    [
      "द",
      "ा</w>"
    ],
    [
      "ब",
      "ल</w>"
    ],
    [
      "ज",
      "ी</w>"
    ],
    [
      "दु",
      "ई</w>"
    ],
    [
      "व्य",
      "व"
    ],
    [
      "लग",
      "भ"
    ],
    [
      "सह",
      "र</w>"
    ],
    [
      "लगभ",
      "ग</w>"
    ],
    [
      "ल",
      "य"
    ],
    [
      "र्",
      "म"
    ],
    [
      "ज",
      "ना"
    ],
    [
      "विद",
      "्या"
    ],
    [
      "न",
      "हरू</w>"
    ],
    [
      "मा",
      "त्र</w>"
    ],
    [
      "त",
      "ु"
    ],
    [
      "तपाई",
      "ँ</w>"
    ],
    [
      "मा",
      "न</w>"
    ],
    [
      "औ",
      "ँ</w>"
    ],
    [
      "भि",
      "न्न</w>"
    ],
    [
      "प",
      "त्"
    ],
    [
      "दा",
      "न</w>"
    ],
    [
      "सा",
      "म"
    ],
    [
      "ख",
      "ु"
    ],
    [
      "तपाईँ",
      "को</w>"
    ],
    [
      "र",
      "ह"
    ],
    [
      "छ",
      "ु"
    ],
    [
      "वर्",
      "त"
    ],
    [
      "न",
      "याँ</w>"
    ],
    [
      "श्",
      "चि"
    ],
    [
      "ू",
      "</w>"
    ],
    [
      "घ",
      "ा"
    ],
    [
      "ी",
      "त"
    ],
    [
      "ज",
      "ार"
    ],
    [
      "स",
      "ार"
    ],
    [
      "सम्",
      "बन्ध"
    ],
    [
      "्य",
      "ा</w>"
    ],
    [
      "राष्ट्र",
      "िय</w>"
    ],
    [
      "टो",
      "ली"
    ],
    [
      "व",
      "श"
    ],
    [
      "सा",
      "थ"
    ],
    [
      "स",
      "ू"
    ],
    [
      "ङ्",
      "गा"
    ],
    [
      "कार",
      "ी</w>"
    ],
    [
      "खे",
      "ल</w>"
    ],
    [
      "जस्त",
      "ा</w>"
    ],
    [
      "प",
      "श्चि"
    ],
    [
      "ङ्",
      "क"
    ],
    [
      "फ",
      "ु"
    ],
    [
      "समा",
      "वेश</w>"
    ],
    [
      "सामान्",
      "यत"
    ],
    [
      "इ",
      "न्।</w>"
    ],
    [
      "ज",
      "ा</w>"
    ],
    [
      "२०",
      "</w>"
    ],
    [
      "छ",
      "ा"
    ],
    [
      "१९",
      "८"
    ],
    [
      "दर्",
      "श"
    ],
    [
      "हि",
      "न्द"
    ],
    [
      "च",
      "ु"
    ],
    [
      "\"",
      "</w>"
    ],
    [
      "भारत",
      "को</w>"
    ],
    [
      "हुन्",
      "छन्।</w>"
    ],
    [
      "स्त",
      "ु"
    ],
    [
      "ज",
      "ब</w>"
    ],
    [
      "क",
      "ै</w>"
    ],
    [
      "थ",
      "े"
    ],
    [
      "न्द",
      "ि"
    ],
    [
      "पट",
      "क</w>"
    ],
    [
      "स्ट",
      "े"
    ],
    [
      "हु",
      "नु"
    ],
    [
      ":",
      "</w>"
    ],
    [
      "मा",
      "इ"
    ],
    [
      "ड",
      "ो"
    ],
    [
      "आ",
      "यो"
    ],
    [
      "म",
      "हा"
    ],
    [
      "ट",
      "र"
    ],
    [
      "प्रत्य",
      "े"
    ],
    [
      "क्",
      "स"
    ],
    [
      "मुख",
      "</w>"
    ],
    [
      "उँ",
      "छ।</w>"
    ],
    [
      "ब",
      "र्"
    ],
    [
      "व",
      "ै"
    ],
    [
      "विशे",
      "ष</w>"
    ],
    [
      "भा",
      "ष"
    ],
    [
      "स्",
      "ट</w>"
    ],
    [
      "उ",
      "मेर"
    ],
    [
      "स्",
      "वा"
    ],
    [
      "्र",
      "ि"
    ],
    [
      "वि",
      "भिन्न</w>"
    ],
    [
      "ब",
      "ने"
    ],
    [
      "खे",
      "ला"
    ],
    [
      "क",
      "ुर"
    ],
    [
      "ग",
      "ऱ"
    ],
    [
      "व",
      "र"
    ],
    [
      "ना",
      "का</w>"
    ],
    [
      "स",
      "ी"
    ],
    [
      "यद",
      "्य"
    ],
    [
      "१",
      "८"
    ],
    [
      "र",
      "ा</w>"
    ],
    [
      "लो",
      "क"
    ],
    [
      "१९",
      "७"
    ],
    [
      "ति",
      "क</w>"
    ],
    [
      "भ",
      "र"
    ],
    [
      "ट",
      "मा</w>"
    ],
    [
      "ना",
      "मा</w>"
    ],
    [
      "राख",
      "्"
    ],
    [
      "पा",
      "द"
    ],
    [
      "हि",
      "त</w>"
    ],
    [
      "भू",
      "मि"
    ],
    [
      "प्रत्ये",
      "क</w>"
    ],
    [
      "म",
      "न्दि"
    ],
    [
      "सामान्यत",
      "या</w>"
    ],
    [
      "पछ",
      "ि,</w>"
    ],
    [
      "ड",
      "ा</w>"
    ],
    [
      "भ",
      "</w>"
    ],
    [
      "गर",
      "ी</w>"
    ],
    [
      "थिए",
      "</w>"
    ],
    [
      "सद",
      "स"
    ],
    [
      "क्ष",
      "ा</w>"
    ],
    [
      "एक",
      "जना</w>"
    ],
    [
      "रहे",
      "का</w>"
    ],
    [
      "मुख",
      "्य</w>"
    ],
    [
      "वा",
      "र्"
    ],
    [
      "आ",
      "धार"
    ],
    [
      "ना",
      "म</w>"
    ],
    [
      "आ",
      "फ"
    ],
    [
      "के",
      "न्द्र"
    ],
    [
      "द",
      "्र"
    ],
    [
      "ज्ञ",
      "ा"
    ],
    [
      "मह",
      "त्"
    ],
    [
      "वश",
      "्य"
    ],
    [
      "सम",
      "ू"
    ],
    [
      "िय",
      "ो</w>"
    ],
    [
      "प्र",
      "मुख</w>"
    ],
    [
      "क",
      "े</w>"
    ],
    [
      "स",
      "फ"
    ],
    [
      "िय",
      "ो।</w>"
    ],
    [
      "िया",
      "को</w>"
    ],
    [
      "पु",
      "न"
    ],
    [
      "श",
      "ता"
    ],
    [
      "वि",
      "वा"
    ],
    [
      "भ",
      "र्"
    ],
    [
      "अव",
      "स्थित</w>"
    ],
    [
      "शता",
      "ब्द"
    ],
    [
      "े",
      "मा</w>"
    ],
    [
      "बि",
      "च"
    ],
    [
      "च",
      "्या"
    ],
    [
      "त्य",
      "हाँ</w>"
    ],
    [
      "उत्",
      "त"
    ],
    [
      "क्र",
      "ि"
    ],
    [
      "ल",
      "्य"
    ],
    [
      "त्यस",
      "पछि</w>"
    ],
    [
      "न्",
      "छ</w>"
    ],
    [
      "अर्",
      "को</w>"
    ],
    [
      "ी",
      "लाई</w>"
    ],
    [
      "आफ्",
      "ना</w>"
    ],
    [
      "न्",
      "स"
    ],
    [
      "इ",
      "न्छ।</w>"
    ],
    [
      "ता",
      "को</w>"
    ],
    [
      "दो",
      "स्रो</w>"
    ],
    [
      "आ",
      "वश्य"
    ],
    [
      "अघ",
      "ि</w>"
    ],
    [
      "जी",
      "व"
    ],
    [
      "बार",
      "ेमा</w>"
    ],
    [
      "ी",
      "त</w>"
    ],
    [
      "ै",
      "न</w>"
    ],
    [
      "नु",
      "</w>"
    ],
    [
      "हरू",
      "सँग</w>"
    ],
    [
      "अन्",
      "त"
    ],
    [
      "थ",
      "ा</w>"
    ],
    [
      "प",
      "रे"
    ],
    [
      "थ",
      "ि</w>"
    ],
    [
      "मि",
      "त</w>"
    ],
    [
      "निर्मा",
      "ण</w>"
    ],
    [
      "ट",
      "को</w>"
    ],
    [
      "पु",
      "रा"
    ],
    [
      "त्",
      "व</w>"
    ],
    [
      "प्र",
      "ो"
    ],
    [
      "उमेर",
      "मा</w>"
    ],
    [
      "थिय",
      "ो,</w>"
    ],
    [
      "ल",
      ",</w>"
    ],
    [
      "क",
      "हरू</w>"
    ],
    [
      "सामान्",
      "य</w>"
    ],
    [
      "च",
      "ो"
    ],
    [
      "ौ",
      "ँ</w>"
    ],
    [
      "गर्द",
      "ा</w>"
    ],
    [
      "का",
      "मा</w>"
    ],
    [
      "गरे",
      "र</w>"
    ],
    [
      "स्",
      "प"
    ],
    [
      "फ",
      "र्"
    ],
    [
      "गर",
      "े</w>"
    ],
    [
      "त्व",
      "पूर्ण</w>"
    ],
    [
      "ब",
      "ता"
    ],
    [
      "उ",
      "च्"
    ],
    [
      "र",
      "ले</w>"
    ],
    [
      "द",
      "िए"
    ],
    [
      "यो",
      "ग"
    ],
    [
      "न",
      "जि"
    ],
    [
      "समय",
      "मा</w>"
    ],
    [
      "ट",
      "ो</w>"
    ],
    [
      "नी",
      "को</w>"
    ],
    [
      "स",
      "न"
    ],
    [
      "सा",
      "र</w>"
    ],
    [
      "का",
      "उ"
    ],
    [
      "न्",
      "ट</w>"
    ],
    [
      "त्",
      "मक</w>"
    ],
    [
      "प्राय",
      "ः</w>"
    ],
    [
      "राज्य",
      "को</w>"
    ],
    [
      "हरू",
      ",</w>"
    ],
    [
      "प्र",
      "ि"
    ],
    [
      "सा",
      "य"
    ],
    [
      "प",
      "ै"
    ],
    [
      "बा",
      "ँ"
    ],
    [
      "उत्",
      "पाद"
    ],
    [
      "स्",
      "क"
    ],
    [
      "सं",
      "स्"
    ],
    [
      "इ",
      "न"
    ],
    [
      "ार",
      "ा"
    ],
    [
      "नि",
      "म्"
    ],
    [
      "जि",
      "ल्ला"
    ],
    [
      "अ",
      "ध्य"
    ],
    [
      "सि",
      "त</w>"
    ],
    [
      "भा",
      "ग</w>"
    ],
    [
      "सकि",
      "न्छ।</w>"
    ],
    [
      "वा",
      "द"
    ],
    [
      "ब",
      "न्द"
    ],
    [
      ",",
      "०"
    ],
    [
      "न्ड",
      "</w>"
    ],
    [
      "व",
      "ृ"
    ],
    [
      "अ",
      "फ</w>"
    ],
    [
      "ल",
      "न</w>"
    ],
    [
      "सा",
      "थ</w>"
    ],
    [
      "गर्",
      "छ।</w>"
    ],
    [
      "पो",
      "र्"
    ],
    [
      "ी",
      "हरूले</w>"
    ],
    [
      "स्थ",
      "ि"
    ],
    [
      "थि",
      "इन्।</w>"
    ],
    [
      "मेर",
      "ो</w>"
    ],
    [
      "दक्षि",
      "ण"
    ],
    [
      "उनी",
      "हरूले</w>"
    ],
    [
      "म",
      ",</w>"
    ],
    [
      "स",
      "न्"
    ],
    [
      "ग",
      "को</w>"
    ],
    [
      "क्",
      "स</w>"
    ],
    [
      "न्",
      "छन्।</w>"
    ],
    [
      "ं",
      "श</w>"
    ],
    [
      "ग",
      "ण"
    ],
    [
      "घ",
      "ो"
    ],
    [
      "परि",
      "वर्त"
    ],
    [
      "१९",
      "६"
    ],
    [
      "भने",
      ",</w>"
    ],
    [
      "भ",
      "ो"
    ],
    [
      "नी",
      "य</w>"
    ],
    [
      "महत्",
      "त्वपूर्ण</w>"
    ],
    [
      "र",
      ",</w>"
    ],
    [
      "तिनी",
      "हरू</w>"
    ],
    [
      "मा",
      "थि</w>"
    ],
    [
      "मि",
      "क</w>"
    ],
    [
      "कुर",
      "ा</w>"
    ],
    [
      "जस्त",
      "ै</w>"
    ],
    [
      "गऱ",
      "्यो।</w>"
    ],
    [
      "ट",
      "ु"
    ],
    [
      "न",
      "गर"
    ],
    [
      "ब्र",
      "ि"
    ],
    [
      "ए",
      "</w>"
    ],
    [
      "चलचि",
      "त्र"
    ],
    [
      "दे",
      "व"
    ],
    [
      "स",
      "का</w>"
    ],
    [
      "ना",
      "को</w>"
    ],
    [
      "ल",
      "ले</w>"
    ],
    [
      "भा",
      "इ"
    ],
    [
      "धेर",
      "ै"
    ],
    [
      "त",
      "्या"
    ],
    [
      "सक्",
      "छन्।</w>"
    ],
    [
      "क",
      "ला"
    ],
    [
      "भ",
      "ु"
    ],
    [
      "प्र",
      "दर्श"
    ],
    [
      "१९",
      "</w>"
    ],
    [
      "ल",
      "क्ष"
    ],
    [
      "ति",
      "हा"
    ],
    [
      "िय",
      "न</w>"
    ],
    [
      "प्र",
      "कार"
    ],
    [
      "ण",
      "ा</w>"
    ],
    [
      "ब",
      "्रा"
    ],
    [
      "ल",
      "का</w>"
    ],
    [
      "क्",
      "ल"
    ],
    [
      "अन्",
      "तर"
    ],
    [
      "ने",
      "छ।</w>"
    ],
    [
      "खेला",
      "ड"
    ],
    [
      "बा",
      "हि"
    ],
    [
      "ध",
      "ि</w>"
    ],
    [
      "क",
      "म"
    ],
    [
      "फ",
      "्रा"
    ],
    [
      "उ",
      "ल्"
    ],
    [
      "र",
      "ी"
    ],
    [
      "द",
      "ै</w>"
    ],
    [
      "जस",
      "मा</w>"
    ],
    [
      "क",
      ",</w>"
    ],
    [
      "न्",
      "थ"
    ],
    [
      "मि",
      "टर</w>"
    ],
    [
      "मे",
      "ल</w>"
    ],
    [
      "ल",
      "हरू</w>"
    ],
    [
      "यु",
      "द्ध"
    ],
    [
      "प्र",
      "या"
    ],
    [
      "हो",
      ",</w>"
    ],
    [
      "देख",
      "ा"
    ],
    [
      "प्र",
      "े"
    ],
    [
      "य",
      "र</w>"
    ],
    [
      "श",
      "ु"
    ],
    [
      "ज",
      "ो</w>"
    ],
    [
      "ह",
      "ी"
    ],
    [
      "अमेरि",
      "की</w>"
    ],
    [
      "स",
      "ञ्"
    ],
    [
      "क",
      "ल</w>"
    ],
    [
      "सम",
      "ु"
    ],
    [
      "ह",
      "ार"
    ],
    [
      "पि",
      ",</w>"
    ],
    [
      "न्",
      "य"
    ],
    [
      "राम",
      "्रो</w>"
    ],
    [
      "जस",
      "लाई</w>"
    ],
    [
      "ला",
      "म"
    ],
    [
      "अ",
      "झ"
    ],
    [
      "द",
      "श"
    ],
    [
      "स्व",
      "ी"
    ],
    [
      "ल",
      "य</w>"
    ],
    [
      "चलचि",
      "त्र</w>"
    ],
    [
      "ए",
      "र</w>"
    ],
    [
      "प्र",
      "दान</w>"
    ],
    [
      "कर",
      "ण</w>"
    ],
    [
      "वर्ष",
      "</w>"
    ],
    [
      "ह",
      "र"
    ],
    [
      "क्ष",
      "ा"
    ],
    [
      "म",
      "न्त्र"
    ],
    [
      "घ",
      "ट"
    ],
    [
      "ङ्ग",
      "्रे"
    ],
    [
      "अनु",
      "सार</w>"
    ],
    [
      "व",
      "ी"
    ],
    [
      "सा",
      "र्"
    ],
    [
      "निर्",
      "देश"
    ],
    [
      "स",
      "के"
    ],
    [
      "अ",
      "थ"
    ],
    [
      "लोक",
      "प्र"
    ],
    [
      "अमेरि",
      "काको</w>"
    ],
    [
      "ब",
      "र</w>"
    ],
    [
      "क",
      "हि"
    ],
    [
      "ज",
      "हाँ</w>"
    ],
    [
      "लाग",
      "्"
    ],
    [
      "ल",
      "म्"
    ],
    [
      "उच्",
      "च</w>"
    ],
    [
      "ल्",
      "ला</w>"
    ],
    [
      "त",
      "को</w>"
    ],
    [
      "र",
      "का</w>"
    ],
    [
      "कर",
      "ण"
    ],
    [
      "म",
      "ौ"
    ],
    [
      "स",
      "लाई</w>"
    ],
    [
      "उँ",
      "छन्।</w>"
    ],
    [
      "टा",
      "इ"
    ],
    [
      "ए",
      "न"
    ],
    [
      "ब",
      "ी</w>"
    ],
    [
      "क्र",
      "ो"
    ],
    [
      "यस",
      "मा</w>"
    ],
    [
      "क",
      "न्"
    ],
    [
      "सक्",
      "नु"
    ],
    [
      "क्षे",
      "त्र</w>"
    ],
    [
      "अ",
      "भ"
    ],
    [
      "अथ",
      "वा</w>"
    ],
    [
      "प्र",
      "णा"
    ],
    [
      "सू",
      "च"
    ],
    [
      "सुर",
      "ु"
    ],
    [
      "म",
      "न</w>"
    ],
    [
      "पर्",
      "छ।</w>"
    ],
    [
      "फिल्",
      "म</w>"
    ],
    [
      "जि",
      "ते"
    ],
    [
      "वि",
      "रु"
    ],
    [
      "ह",
      "ा</w>"
    ],
    [
      "वा",
      "स</w>"
    ],
    [
      "क",
      "स"
    ],
    [
      "वि",
      "त</w>"
    ],
    [
      "पर",
      "म्प"
    ],
    [
      "आ",
      "क्रम"
    ],
    [
      "या",
      "त्र"
    ],
    [
      "क्षेत्र",
      "मा</w>"
    ],
    [
      "क्ष",
      "</w>"
    ],
    [
      "जन्",
      "म</w>"
    ],
    [
      "थ",
      "ो"
    ],
    [
      "त्य",
      "ो</w>"
    ],
    [
      "हा",
      "र</w>"
    ],
    [
      "आवश्य",
      "क</w>"
    ],
    [
      "हरू",
      "बाट</w>"
    ],
    [
      "त",
      "ियो"
    ],
    [
      "भ",
      "व"
    ],
    [
      "जार",
      "ी</w>"
    ],
    [
      "ष्",
      "ठ"
    ],
    [
      "आ",
      "ँ"
    ],
    [
      "प्र",
      "तियो"
    ],
    [
      "अ",
      "प"
    ],
    [
      "स्",
      "वि"
    ],
    [
      "ड",
      "ु"
    ],
    [
      "गर्द",
      "ै</w>"
    ],
    [
      "सङ्",
      "घ"
    ],
    [
      "सम",
      "य</w>"
    ],
    [
      "स",
      ",</w>"
    ],
    [
      "सङ्ख",
      "्या</w>"
    ],
    [
      "भ",
      "नी</w>"
    ],
    [
      "क",
      "ले</w>"
    ],
    [
      "श",
      "ी"
    ],
    [
      "म",
      "ना"
    ],
    [
      "ज",
      "ित</w>"
    ],
    [
      "तिनी",
      "हरूले</w>"
    ],
    [
      "ुर",
      "ो"
    ],
    [
      "ध",
      "ु"
    ],
    [
      "सर",
      "कार"
    ],
    [
      "ए",
      "फ"
    ],
    [
      "न्",
      "स</w>"
    ],
    [
      "न",
      "िया"
    ],
    [
      "तपाईँ",
      "लाई</w>"
    ],
    [
      "ता",
      "मा</w>"
    ],
    [
      "े",
      "को</w>"
    ],
    [
      "य",
      "न</w>"
    ],
    [
      "काउ",
      "न्ट"
    ],
    [
      "ढ",
      "ा"
    ],
    [
      "१९",
      "५"
    ],
    [
      "र",
      "क</w>"
    ],
    [
      "ँ",
      "।</w>"
    ],
    [
      "उ",
      "दा"
    ],
    [
      "जस",
      "ो</w>"
    ],
    [
      "वि",
      "का"
    ],
    [
      "खे",
      "ल्"
    ],
    [
      "क्र",
      "ा"
    ],
    [
      "क्",
      "ति</w>"
    ],
    [
      "होस्",
      "</w>"
    ],
    [
      "स्थाप",
      "ना</w>"
    ],
    [
      "प",
      "द"
    ],
    [
      "भनि",
      "न्छ।</w>"
    ],
    [
      "न्",
      "छ,</w>"
    ],
    [
      "फो",
      "र्"
    ],
    [
      "कु",
      "रा"
    ],
    [
      "ट्",
      "टा"
    ],
    [
      "मानिस",
      "हरू</w>"
    ],
    [
      ",०",
      "००</w>"
    ],
    [
      "देख",
      "ि"
    ],
    [
      "-",
      "</w>"
    ],
    [
      "ध",
      "्य</w>"
    ],
    [
      "टि",
      "स</w>"
    ],
    [
      "द्",
      "द"
    ],
    [
      "म",
      "ैले</w>"
    ],
    [
      "ग",
      "रा"
    ],
    [
      "न्",
      "या"
    ],
    [
      "य",
      "र"
    ],
    [
      "दु",
      "ई"
    ],
    [
      "प्रतियो",
      "गि"
    ],
    [
      "्य",
      "ार"
    ],
    [
      "२०",
      "२"
    ],
    [
      "हरू",
      "द्वारा</w>"
    ],
    [
      "उनी",
      "हरूको</w>"
    ],
    [
      "छ",
      "े"
    ],
    [
      "ं",
      "श"
    ],
    [
      "१",
      "०</w>"
    ],
    [
      "ख",
      "ि"
    ],
    [
      "लोकप्र",
      "िय</w>"
    ],
    [
      "स्ट",
      "ि"
    ],
    [
      "चा",
      "ह"
    ],
    [
      "ब",
      "स्"
    ],
    [
      "आ",
      "र्"
    ],
    [
      "ह",
      "्"
    ],
    [
      "शा",
      "स"
    ],
    [
      "अ",
      "क्"
    ],
    [
      "गर्नु",
      "होस्।</w>"
    ],
    [
      "ख",
      "</w>"
    ],
    [
      "स्ट",
      "ा"
    ],
    [
      "फु",
      "ट"
    ],
    [
      "क",
      "का</w>"
    ],
    [
      "इ",
      "न्ड"
    ],
    [
      "न",
      "ौ"
    ],
    [
      "पा",
      "ँ"
    ],
    [
      "खे",
      "ले"
    ],
    [
      "'",
      "</w>"
    ],
    [
      "समू",
      "ह"
    ],
    [
      "परम्प",
      "रा"
    ],
    [
      "पूर्व",
      "ी</w>"
    ],
    [
      "थे",
      "।</w>"
    ],
    [
      "श",
      "ो"
    ],
    [
      "उ",
      "</w>"
    ],
    [
      "भए",
      "।</w>"
    ],
    [
      "च्या",
      "म्प"
    ],
    [
      "विद्या",
      "लय"
    ],
    [
      "अ",
      "ल्"
    ],
    [
      "छि",
      "न्।</w>"
    ],
    [
      "ध",
      "्या"
    ],
    [
      "उत्",
      "तर"
    ],
    [
      "स",
      "्या"
    ],
    [
      "त",
      "मा</w>"
    ],
    [
      "न",
      "।</w>"
    ],
    [
      "पा",
      "लि"
    ],
    [
      "लाम",
      "ो</w>"
    ],
    [
      "म",
      "का</w>"
    ],
    [
      "परि",
      "वार"
    ],
    [
      "आ",
      "र"
    ],
    [
      "ग",
      "मा</w>"
    ],
    [
      "ति",
      "को</w>"
    ],
    [
      "ए",
      "न्"
    ],
    [
      "र",
      "हरू</w>"
    ],
    [
      "अन्",
      "ति"
    ],
    [
      "छ",
      "ैन।</w>"
    ],
    [
      "प",
      "ी</w>"
    ],
    [
      "से",
      "वा</w>"
    ],
    [
      "प्र",
      "ार"
    ],
    [
      "नु",
      "होस्।</w>"
    ],
    [
      "प्रार",
      "म्"
    ],
    [
      "म",
      "ी"
    ],
    [
      "अन्तर",
      "्रा"
    ],
    [
      "दु",
      "व"
    ],
    [
      "द",
      "ृ"
    ],
    [
      "अन्तर्रा",
      "ष्ट्र"
    ],
    [
      "ध",
      "ा</w>"
    ],
    [
      "त",
      "ृ"
    ],
    [
      "कम्प",
      "नी"
    ],
    [
      "्य",
      "ो"
    ],
    [
      "मानिस",
      "हरूले</w>"
    ],
    [
      "अधि",
      "का"
    ],
    [
      "हे",
      "र्"
    ],
    [
      "उल्",
      "लेख"
    ],
    [
      "ति",
      "र</w>"
    ],
    [
      "ली",
      "न</w>"
    ],
    [
      "ङ्",
      "ख"
    ],
    [
      "ना",
      "इ"
    ],
    [
      "प",
      "्या"
    ],
    [
      "प्र",
      "भा"
    ],
    [
      "अ",
      "हि"
    ],
    [
      "अन्तर्राष्ट्र",
      "िय</w>"
    ],
    [
      "यद्य",
      "पि,</w>"
    ],
    [
      "स्त",
      "ो</w>"
    ],
    [
      "लि",
      "न</w>"
    ],
    [
      "ला",
      "को</w>"
    ],
    [
      "च",
      "र्"
    ],
    [
      "ट्",
      "ट"
    ],
    [
      "ब",
      "च्"
    ],
    [
      "फा",
      "इ"
    ],
    [
      "ष्",
      "ण"
    ],
    [
      "ल",
      "िए"
    ],
    [
      "स्",
      "त</w>"
    ],
    [
      "अन्ति",
      "म</w>"
    ],
    [
      "उ",
      "द"
    ],
    [
      "१९",
      "४"
    ],
    [
      "कु",
      "ल</w>"
    ],
    [
      "अधिका",
      "ंश</w>"
    ],
    [
      "भाष",
      "ा"
    ],
    [
      "परिवर्त",
      "न</w>"
    ],
    [
      "पुर",
      "ु"
    ],
    [
      "दा",
      "य"
    ],
    [
      "भारत",
      "मा</w>"
    ],
    [
      "पुर",
      "स्"
    ],
    [
      "शि",
      "क्ष"
    ],
    [
      "सि",
      "क</w>"
    ],
    [
      "च",
      "ौ"
    ],
    [
      "न्",
      "त</w>"
    ],
    [
      "घो",
      "ष"
    ],
    [
      "ब्र",
      "ु"
    ],
    [
      "अन्",
      "त्य"
    ],
    [
      "प",
      "ि</w>"
    ],
    [
      "निय",
      "न्त्र"
    ],
    [
      "वि",
      "ष"
    ],
    [
      "विश्",
      "व</w>"
    ],
    [
      "सफ",
      "ल</w>"
    ],
    [
      "ल्",
      "लो</w>"
    ],
    [
      "व",
      "री</w>"
    ],
    [
      "प्रया",
      "स</w>"
    ],
    [
      "ति",
      "मा</w>"
    ],
    [
      "थ",
      "प</w>"
    ],
    [
      "लम्",
      "पि"
    ],
    [
      "म",
      "ै"
    ],
    [
      "पै",
      "सा</w>"
    ],
    [
      "!",
      "</w>"
    ],
    [
      "फ्रा",
      "न्"
    ],
    [
      "भ",
      "र</w>"
    ],
    [
      "क",
      "र</w>"
    ],
    [
      "नगर",
      "पालि"
    ],
    [
      "त",
      "ो</w>"
    ],
    [
      "क",
      "ल्"
    ],
    [
      "से",
      "प्"
    ],
    [
      "स",
      "हित</w>"
    ],
    [
      "नि",
      "श्"
    ],
    [
      "त",
      "ः</w>"
    ],
    [
      "अ",
      "स्ट"
    ],
    [
      "ओ",
      "लम्पि"
    ],
    [
      "ली",
      "को</w>"
    ],
    [
      "स",
      "र</w>"
    ],
    [
      "बा",
      "र</w>"
    ],
    [
      "भि",
      "क</w>"
    ],
    [
      "त",
      "था</w>"
    ],
    [
      "हुन्",
      "छ,</w>"
    ],
    [
      "म",
      "ले</w>"
    ],
    [
      "ड",
      "मा</w>"
    ],
    [
      "कि",
      "लो"
    ],
    [
      "का",
      "लीन</w>"
    ],
    [
      "क",
      "हरूले</w>"
    ],
    [
      "उ",
      "ँ</w>"
    ],
    [
      "हिन्द",
      "ू</w>"
    ],
    [
      "दु",
      "र्"
    ],
    [
      "कार",
      "ण"
    ],
    [
      "्य",
      "ो</w>"
    ],
    [
      "गो",
      "ल</w>"
    ],
    [
      "इ",
      "न</w>"
    ],
    [
      "प",
      "मा</w>"
    ],
    [
      "सार्",
      "व"
    ],
    [
      "थिए",
      ",</w>"
    ],
    [
      "निश्",
      "चित</w>"
    ],
    [
      "भ",
      "यो</w>"
    ],
    [
      "म",
      "द्द"
    ],
    [
      "दे",
      "श</w>"
    ],
    [
      "न्",
      "यु"
    ],
    [
      "का",
      "ले</w>"
    ],
    [
      "दि",
      "न"
    ],
    [
      "भ",
      "ी"
    ],
    [
      "ध",
      "न</w>"
    ],
    [
      "ब",
      "न्"
    ],
    [
      "ल",
      "र</w>"
    ],
    [
      "तिनी",
      "हरूको</w>"
    ],
    [
      "य",
      "ुरो"
    ],
    [
      "ता",
      "हरू</w>"
    ],
    [
      "ड",
      "को</w>"
    ],
    [
      "सम्बन्ध",
      "ित</w>"
    ],
    [
      "जा",
      "पा"
    ],
    [
      ";",
      "</w>"
    ],
    [
      "िय",
      "न"
    ],
    [
      "ृ",
      "ङ्ख"
    ],
    [
      "सँ",
      "ग"
    ],
    [
      "स्ट",
      "ो"
    ],
    [
      "दक्षि",
      "ण</w>"
    ],
    [
      "ै",
      ",</w>"
    ],
    [
      "ति",
      "न"
    ],
    [
      "वा",
      "र</w>"
    ],
    [
      "श",
      "ै"
    ],
    [
      "दि",
      "ल्"
    ],
    [
      "धा",
      "न</w>"
    ],
    [
      "म",
      "हरू</w>"
    ],
    [
      "ला",
      "मा</w>"
    ],
    [
      "कृ",
      "त</w>"
    ],
    [
      "स्व",
      "त"
    ],
    [
      "ण",
      "को</w>"
    ],
    [
      "गर",
      "ियो।</w>"
    ],
    [
      "प",
      "ठा"
    ],
    [
      "वा",
      "स्त"
    ],
    [
      "टि",
      "क</w>"
    ],
    [
      "सि",
      "ं"
    ],
    [
      "त",
      "मि"
    ],
    [
      "न्",
      "न"
    ],
    [
      "से",
      "ना"
    ],
    [
      "सङ्ग",
      "ीत</w>"
    ],
    [
      "स्था",
      "नीय</w>"
    ],
    [
      "उन",
      "ु"
    ],
    [
      "मद्द",
      "त</w>"
    ],
    [
      "था",
      "हा</w>"
    ],
    [
      "ङ्",
      "क</w>"
    ],
    [
      "बाहि",
      "र</w>"
    ],
    [
      "से",
      "वा"
    ],
    [
      "ता",
      "का</w>"
    ],
    [
      "अ",
      "ग"
    ],
    [
      "य",
      "क</w>"
    ],
    [
      "ड",
      "ि</w>"
    ],
    [
      "ना",
      "ट"
    ],
    [
      "अ",
      "फ"
    ],
    [
      "इ",
      "न्ट"
    ],
    [
      "नि",
      "का"
    ],
    [
      "इ",
      "</w>"
    ],
    [
      "%",
      "</w>"
    ],
    [
      "सदस",
      "्य</w>"
    ],
    [
      "ति",
      "न</w>"
    ],
    [
      "ट",
      "न</w>"
    ],
    [
      "किन",
      "भने</w>"
    ],
    [
      "सं",
      "र"
    ],
    [
      "अव",
      "स्था"
    ],
    [
      "पश्चि",
      "मी</w>"
    ],
    [
      "दुव",
      "ै</w>"
    ],
    [
      "गर्नु",
      "</w>"
    ],
    [
      "पर्",
      "ने</w>"
    ],
    [
      "मा",
      "त्र"
    ],
    [
      "त",
      "ो"
    ],
    [
      "सा",
      "नो</w>"
    ],
    [
      "ष्",
      "ट"
    ],
    [
      "ध",
      "र्"
    ],
    [
      "उत्त",
      "री</w>"
    ],
    [
      "क",
      "ले"
    ],
    [
      "आधार",
      "ित</w>"
    ],
    [
      "?",
      "</w>"
    ],
    [
      "व",
      "स्तु"
    ],
    [
      "पूर्",
      "व</w>"
    ],
    [
      "गर",
      "िएका</w>"
    ],
    [
      "हा",
      "म"
    ],
    [
      "विरु",
      "द्ध</w>"
    ],
    [
      "स",
      "ो</w>"
    ],
    [
      "नद",
      "ी</w>"
    ],
    [
      "ज",
      "र्म"
    ],
    [
      "फ",
      "ेर"
    ],
    [
      "मृत्य",
      "ु"
    ],
    [
      "सार्व",
      "ज"
    ],
    [
      "महि",
      "ला"
    ],
    [
      "लि",
      "क</w>"
    ],
    [
      "१",
      "२</w>"
    ],
    [
      "म",
      "नो"
    ],
    [
      "सङ्ग",
      "ीत"
    ],
    [
      "निर्",
      "वा"
    ],
    [
      "ए",
      "म"
    ],
    [
      "मा",
      "र"
    ],
    [
      "नो",
      "भे"
    ],
    [
      "महि",
      "ला</w>"
    ],
    [
      "त्य",
      "स</w>"
    ],
    [
      "वि",
      "क</w>"
    ],
    [
      "१",
      "०"
    ],
    [
      "निर्",
      "ण"
    ],
    [
      "प्रारम्",
      "भिक</w>"
    ],
    [
      "२०१",
      "०</w>"
    ],
    [
      "क्र",
      "म</w>"
    ],
    [
      "क्र",
      "े"
    ],
    [
      "१",
      "७"
    ],
    [
      "सङ्ख",
      "्या"
    ],
    [
      "प्र",
      "भाव"
    ],
    [
      "आ",
      "एको</w>"
    ],
    [
      "साम",
      "्रा"
    ],
    [
      "साम्रा",
      "ज"
    ],
    [
      "यो",
      "ग</w>"
    ],
    [
      "जन",
      "वरी</w>"
    ],
    [
      "ने",
      "ट"
    ],
    [
      "सम",
      "र्थ"
    ],
    [
      "ह",
      "रण"
    ],
    [
      "आफ",
      "ू"
    ],
    [
      "रे",
      "कर्"
    ],
    [
      "िया",
      "मा</w>"
    ],
    [
      "२०",
      "२०</w>"
    ],
    [
      "सार्वज",
      "निक</w>"
    ],
    [
      "ज",
      "र्"
    ],
    [
      "रि",
      "लि"
    ],
    [
      "विवा",
      "ह</w>"
    ],
    [
      "प",
      "ति</w>"
    ],
    [
      "स्वी",
      "कार</w>"
    ],
    [
      "ल",
      "लाई</w>"
    ],
    [
      "ट",
      "हरू</w>"
    ],
    [
      "त",
      "रि"
    ],
    [
      "द",
      "ो</w>"
    ],
    [
      "सदस",
      "्य"
    ],
    [
      "प",
      "क्ष"
    ],
    [
      "झ",
      "ा"
    ],
    [
      "सि",
      "र्"
    ],
    [
      "ख",
      "र्"
    ],
    [
      "३",
      "०</w>"
    ],
    [
      "चि",
      "नि"
    ],
    [
      "फे",
      "ला</w>"
    ],
    [
      "इ",
      "तिहा"
    ],
    [
      "भि",
      "त्र</w>"
    ],
    [
      "प्रति",
      "नि"
    ],
    [
      "वि",
      "धि"
    ],
    [
      "जस",
      "को</w>"
    ],
    [
      "ब्रि",
      "टिस</w>"
    ],
    [
      "ह",
      "ेर"
    ],
    [
      "क",
      "था"
    ],
    [
      "मन्दि",
      "र</w>"
    ],
    [
      "अक्",
      "टो"
    ],
    [
      "सेप्",
      "टे"
    ],
    [
      "म",
      "ति</w>"
    ],
    [
      "चि",
      "न्"
    ],
    [
      "उनी",
      "हरूलाई</w>"
    ],
    [
      "बढ",
      "्"
    ],
    [
      "प्",
      "ले"
    ],
    [
      "व",
      "ल</w>"
    ],
    [
      "पहि",
      "ले</w>"
    ],
    [
      "स्",
      "पर्"
    ],
    [
      "लाग",
      "ि,</w>"
    ],
    [
      "अ",
      "ङ्ग्रे"
    ],
    [
      "स",
      "हा"
    ],
    [
      "उदा",
      "हरण"
    ],
    [
      "गरे",
      ",</w>"
    ],
    [
      "द",
      "र"
    ],
    [
      "फ",
      "रक</w>"
    ],
    [
      "अ",
      "ल"
    ],
    [
      "हा",
      "ँ"
    ],
    [
      "स्",
      "त्र"
    ],
    [
      "राज",
      "नी"
    ],
    [
      "फुट",
      "बल</w>"
    ],
    [
      "ब",
      "ङ्गा"
    ],
    [
      "न",
      "बाट</w>"
    ],
    [
      "विश्",
      "वास</w>"
    ],
    [
      "२०१",
      "४</w>"
    ],
    [
      "घोष",
      "णा</w>"
    ],
    [
      "ी",
      "हरूलाई</w>"
    ],
    [
      "दिए",
      "।</w>"
    ],
    [
      "बिच",
      "मा</w>"
    ],
    [
      "भने",
      "को</w>"
    ],
    [
      "हु",
      "न्</w>"
    ],
    [
      "ल्यान्ड",
      "</w>"
    ],
    [
      "त",
      ",</w>"
    ],
    [
      "अभि",
      "ने"
    ],
    [
      "अ",
      "न"
    ],
    [
      "स",
      "ै"
    ],
    [
      "कार्य",
      "क्रम"
    ],
    [
      "भ",
      "्र"
    ],
    [
      "म",
      "ध्य</w>"
    ],
    [
      "प",
      "ृ"
    ],
    [
      "रा",
      "खे"
    ],
    [
      "रे",
      "ल"
    ],
    [
      "भूमि",
      "का</w>"
    ],
    [
      "पु",
      "ग्"
    ],
    [
      "स",
      "्रो"
    ],
    [
      "ग",
      "र</w>"
    ],
    [
      "च्याम्प",
      "ियन"
    ],
    [
      "तु",
      "ल"
    ],
    [
      "द",
      "ौ"
    ],
    [
      "िया",
      "ली</w>"
    ],
    [
      "प्र",
      "का"
    ],
    [
      "ब",
      "र"
    ],
    [
      "पर",
      "ी"
    ],
    [
      "का",
      "नु"
    ],
    [
      "उ",
      "द्"
    ],
    [
      "अधि",
      "कार"
    ],
    [
      "सि",
      "द्ध</w>"
    ],
    [
      "१",
      "५"
    ],
    [
      "किलो",
      "मिटर</w>"
    ],
    [
      "न्",
      "त्र</w>"
    ],
    [
      "भए",
      "</w>"
    ],
    [
      "यद्य",
      "पि</w>"
    ],
    [
      "प्र",
      "थ"
    ],
    [
      "पा",
      "इ"
    ],
    [
      "सा",
      "मेल</w>"
    ],
    [
      "अभि",
      "न"
    ],
    [
      "सिर्",
      "जना</w>"
    ],
    [
      "प्रदर्श",
      "न</w>"
    ],
    [
      "ठा",
      "उँ"
    ],
    [
      "च्याम्पियन",
      "सि"
    ],
    [
      "वर्",
      "ण"
    ],
    [
      "डि",
      "से"
    ],
    [
      "उत्पाद",
      "न</w>"
    ],
    [
      "ग",
      "ल</w>"
    ],
    [
      "बन्द",
      "</w>"
    ],
    [
      "ते",
      "स्रो</w>"
    ],
    [
      "प",
      "ल्"
    ],
    [
      "पछ",
      "ि"
    ],
    [
      "उत्",
      "तर</w>"
    ],
    [
      "प्रयो",
      "ग"
    ],
    [
      "समा",
      "प्त</w>"
    ],
    [
      "क",
      "ेर"
    ],
    [
      "वि",
      "ज"
    ],
    [
      "ट",
      "र्"
    ],
    [
      "ैन",
      "न्।</w>"
    ],
    [
      "स",
      "िए"
    ],
    [
      "२०",
      "१९</w>"
    ],
    [
      "प",
      "ी"
    ],
    [
      "चि",
      "त्र"
    ],
    [
      "कम्प",
      "्यु"
    ],
    [
      "ल",
      "ब्"
    ],
    [
      "चा",
      "हि"
    ],
    [
      "सँग",
      "ै</w>"
    ],
    [
      "अ",
      "ति"
    ],
    [
      "फ",
      "ै"
    ],
    [
      "कहि",
      "ले"
    ],
    [
      "लिय",
      "न</w>"
    ],
    [
      "ग्र",
      "े"
    ],
    [
      "ल्यान्ड",
      "को</w>"
    ],
    [
      "्",
      "व"
    ],
    [
      "अर्",
      "थ</w>"
    ],
    [
      "मानिस",
      "हरूलाई</w>"
    ],
    [
      "प्र",
      "सिद्ध</w>"
    ],
    [
      "स्था",
      "न</w>"
    ],
    [
      "उ",
      "पा"
    ],
    [
      "सा",
      "ह"
    ],
    [
      "अस्ट",
      "्रे"
    ],
    [
      "स्थाप",
      "ित</w>"
    ],
    [
      "ह",
      "रा"
    ],
    [
      "ग",
      "ठ"
    ],
    [
      "सञ्",
      "चा"
    ],
    [
      "उप",
      "लब्"
    ],
    [
      "सम्",
      "झ"
    ],
    [
      "ए",
      "ल्"
    ],
    [
      "ह",
      "्या"
    ],
    [
      "जिल्ला",
      "को</w>"
    ],
    [
      "गा",
      "उँ"
    ],
    [
      "वि",
      "भा"
    ],
    [
      "ने",
      "तृ"
    ],
    [
      "न",
      "ृत्य"
    ],
    [
      "अन्त",
      "र्"
    ],
    [
      "ज",
      "को</w>"
    ],
    [
      "कहिले",
      "का"
    ],
    [
      "उत्",
      "कृ"
    ],
    [
      "इन्ट",
      "र"
    ],
    [
      "दि",
      "न्छ।</w>"
    ],
    [
      "ता",
      "ले</w>"
    ],
    [
      "क",
      "न</w>"
    ],
    [
      "२०१",
      "१</w>"
    ],
    [
      "क",
      "मा"
    ],
    [
      "ग",
      "ीत"
    ],
    [
      "रिलि",
      "ज</w>"
    ],
    [
      "स",
      "ल</w>"
    ],
    [
      "ज",
      "्या"
    ],
    [
      "अनु",
      "मति</w>"
    ],
    [
      "ख",
      "ा</w>"
    ],
    [
      "व",
      "र</w>"
    ],
    [
      "बना",
      "उन</w>"
    ],
    [
      "१",
      "५</w>"
    ],
    [
      "मार्",
      "च</w>"
    ],
    [
      "जा",
      "न"
    ],
    [
      "धि",
      "कार"
    ],
    [
      "प्रति",
      "स्पर्"
    ],
    [
      "क",
      "ै"
    ],
    [
      "ट",
      "ले</w>"
    ],
    [
      "रूप",
      "</w>"
    ],
    [
      "दि",
      "इएको</w>"
    ],
    [
      "ध",
      "ी"
    ],
    [
      "प",
      "क</w>"
    ],
    [
      "पु",
      "स्त"
    ],
    [
      "पुरा",
      "नो</w>"
    ],
    [
      "दुई",
      "वटा</w>"
    ],
    [
      "स्",
      "को"
    ],
    [
      "छु",
      "।</w>"
    ],
    [
      "ड",
      "र</w>"
    ],
    [
      "ट",
      "्रा"
    ],
    [
      "औ",
      "ष"
    ],
    [
      "ली",
      "मा</w>"
    ],
    [
      "िय",
      "र</w>"
    ],
    [
      "बार",
      "े</w>"
    ],
    [
      "ज",
      "ब"
    ],
    [
      "२०१",
      "३</w>"
    ],
    [
      "ड",
      "ियो</w>"
    ],
    [
      "पा",
      "हा"
    ],
    [
      "१",
      "६"
    ],
    [
      "त्र",
      "ि"
    ],
    [
      "वि",
      "धा"
    ],
    [
      "अव",
      "धि"
    ],
    [
      "२०१",
      "७</w>"
    ],
    [
      "सक्नु",
      "हुन्छ।</w>"
    ],
    [
      "श्र",
      "ी"
    ],
    [
      "पर्",
      "व"
    ],
    [
      "फे",
      "ब्रु"
    ],
    [
      "सि",
      "क्"
    ],
    [
      "बने",
      "को</w>"
    ],
    [
      "म",
      "न"
    ],
    [
      "ण",
      "मा</w>"
    ],
    [
      "जन",
      "सङ्ख्या</w>"
    ],
    [
      "पार्",
      "ट"
    ],
    [
      "यो",
      ",</w>"
    ],
    [
      "प्र",
      "स्तु"
    ],
    [
      "सा",
      "ना</w>"
    ],
    [
      "ब",
      "द्ध</w>"
    ],
    [
      "लि",
      "त</w>"
    ],
    [
      "अ",
      "गा"
    ],
    [
      "भ",
      "इ"
    ],
    [
      "राज",
      "ा</w>"
    ],
    [
      "उत्कृ",
      "ष्ट</w>"
    ],
    [
      "स",
      "ड"
    ],
    [
      "बा",
      "इ"
    ],
    [
      "राज",
      "धा"
    ],
    [
      "उप",
      "चार</w>"
    ],
    [
      "साम्राज",
      "्य"
    ],
    [
      "प्र",
      "शिक्ष"
    ],
    [
      "रो",
      "ग"
    ],
    [
      "र",
      "लाई</w>"
    ],
    [
      "क्ष",
      "ण</w>"
    ],
    [
      "निर्ण",
      "य</w>"
    ],
    [
      "फेर",
      "ि</w>"
    ],
    [
      "क",
      "लाई</w>"
    ],
    [
      "न",
      "र्"
    ],
    [
      "ग्रा",
      "ह"
    ],
    [
      "ट्र",
      "ो"
    ],
    [
      "व",
      "ंश"
    ],
    [
      "शा",
      "स्त्र"
    ],
    [
      "अहि",
      "ले</w>"
    ],
    [
      "के",
      "वल</w>"
    ],
    [
      "टे",
      "लि"
    ],
    [
      "लाइ",
      "न</w>"
    ],
    [
      "ग्र",
      "ि"
    ],
    [
      "मू",
      "ल"
    ],
    [
      "क्",
      "सि"
    ],
    [
      "बो",
      "र्"
    ],
    [
      "भाग",
      "मा</w>"
    ],
    [
      "अस्ट्रे",
      "ल"
    ],
    [
      "२०१",
      "२</w>"
    ],
    [
      "हरू",
      "मध्ये</w>"
    ],
    [
      "हु",
      "नेछ।</w>"
    ],
    [
      "धा",
      "र</w>"
    ],
    [
      "हा",
      "इ"
    ],
    [
      "ल",
      "िएको</w>"
    ],
    [
      "ी",
      "हरूको</w>"
    ],
    [
      "स्थ",
      "ा</w>"
    ],
    [
      "के",
      "ट"
    ],
    [
      "त",
      "र्"
    ],
    [
      "ऱ",
      "्या"
    ],
    [
      "ी",
      "न</w>"
    ],
    [
      "परम्परा",
      "गत</w>"
    ],
    [
      "त",
      "का</w>"
    ],
    [
      "द",
      "र</w>"
    ],
    [
      "प्र",
      "ति</w>"
    ],
    [
      "कु",
      "मा"
    ],
    [
      "ब्",
      "ल"
    ],
    [
      "ड",
      "िए"
    ],
    [
      "र",
      "ो</w>"
    ],
    [
      "उल्लेख",
      "</w>"
    ],
    [
      "हु",
      "ने"
    ],
    [
      "े",
      "।</w>"
    ],
    [
      "विश्व",
      "विद्यालय"
    ],
    [
      "कहिलेका",
      "ही"
    ],
    [
      "प्र",
      "मा"
    ],
    [
      "मन्त्र",
      "ी</w>"
    ],
    [
      "नोभे",
      "म्बर</w>"
    ],
    [
      "शी",
      "र्"
    ],
    [
      "ग",
      "ति"
    ],
    [
      "थ",
      "ु"
    ],
    [
      "ुर",
      "ु"
    ],
    [
      "ण",
      "हरू</w>"
    ],
    [
      "ए",
      "ल"
    ],
    [
      "अझ",
      "ै</w>"
    ],
    [
      "ना",
      "ले</w>"
    ],
    [
      "क्",
      "ता"
    ],
    [
      "घ",
      "र</w>"
    ],
    [
      "स्था",
      "नमा</w>"
    ],
    [
      "सक्",
      "ने</w>"
    ],
    [
      "गर्",
      "नाका</w>"
    ],
    [
      "पत्",
      "ता</w>"
    ],
    [
      "उ",
      "मा</w>"
    ],
    [
      "ङ्ग",
      "ा</w>"
    ],
    [
      "२०१",
      "८</w>"
    ],
    [
      "५",
      "०</w>"
    ],
    [
      "बा",
      "हे"
    ],
    [
      "गर्",
      "ने"
    ],
    [
      "समु",
      "द्र"
    ],
    [
      "कृ",
      "तिक</w>"
    ],
    [
      "राज्य",
      "मा</w>"
    ],
    [
      "देख",
      "ा</w>"
    ],
    [
      "था",
      "ले"
    ],
    [
      "क्र",
      "िया</w>"
    ],
    [
      "प्रतिनि",
      "धि"
    ],
    [
      "ह",
      "प्"
    ],
    [
      "मू",
      "ल</w>"
    ],
    [
      "गरि",
      "न्।</w>"
    ],
    [
      "गर्",
      "‍"
    ],
    [
      "बढ",
      "ा"
    ],
    [
      "य",
      "को</w>"
    ],
    [
      "जा",
      "ति"
    ],
    [
      "विका",
      "स</w>"
    ],
    [
      "ग",
      "ढ"
    ],
    [
      "जि",
      "क</w>"
    ],
    [
      "वृ",
      "त्"
    ],
    [
      "ग",
      "ा</w>"
    ],
    [
      "दे",
      "खे"
    ],
    [
      "जस्त",
      "ो</w>"
    ],
    [
      "ग",
      "्या"
    ],
    [
      "फेब्रु",
      "अ"
    ],
    [
      "पुरस्",
      "कार</w>"
    ],
    [
      "क्ष",
      "ित</w>"
    ],
    [
      "परि",
      "णा"
    ],
    [
      "अक्टो",
      "बर</w>"
    ],
    [
      "वि",
      "ज्ञा"
    ],
    [
      "्",
      "न</w>"
    ],
    [
      "जु",
      "लाई</w>"
    ],
    [
      "आफ्",
      "नै</w>"
    ],
    [
      "ग",
      "ो</w>"
    ],
    [
      "श",
      "ृङ्ख"
    ],
    [
      "न",
      "न्द"
    ],
    [
      "भ",
      "व</w>"
    ],
    [
      "२००",
      "८</w>"
    ],
    [
      "म",
      "बाट</w>"
    ],
    [
      "न",
      "र</w>"
    ],
    [
      "े",
      "र</w>"
    ],
    [
      "ज",
      "रा"
    ],
    [
      "प्रका",
      "श"
    ],
    [
      "्र",
      "</w>"
    ],
    [
      "ज",
      "ैन</w>"
    ],
    [
      "पा",
      "र</w>"
    ],
    [
      "रो",
      "क्"
    ],
    [
      "ज",
      "ल"
    ],
    [
      "प",
      "दा"
    ],
    [
      "ण",
      "ि"
    ],
    [
      "आक्रम",
      "ण</w>"
    ],
    [
      "प्रकार",
      "का</w>"
    ],
    [
      "खे",
      "लमा</w>"
    ],
    [
      "घ",
      "ु"
    ],
    [
      "द",
      "ार"
    ],
    [
      "प्र",
      "देश"
    ],
    [
      "आयो",
      "जना</w>"
    ],
    [
      "तर",
      "ण</w>"
    ],
    [
      "म",
      "रा"
    ],
    [
      "स्",
      "लि"
    ],
    [
      "ट",
      "्या"
    ],
    [
      "कि",
      "स्ता"
    ],
    [
      "उदाहरण",
      "का</w>"
    ],
    [
      "उनी",
      "हरू</w>"
    ],
    [
      "१",
      "६</w>"
    ],
    [
      "मुख",
      "्य"
    ],
    [
      "सेप्टे",
      "म्बर</w>"
    ],
    [
      "क",
      "ी"
    ],
    [
      "प",
      "को</w>"
    ],
    [
      "२०१",
      "६</w>"
    ],
    [
      "१",
      "८</w>"
    ],
    [
      "प्रा",
      "न्त"
    ],
    [
      "को",
      "र्"
    ],
    [
      "प",
      "ेर"
    ],
    [
      "प",
      "राज"
    ],
    [
      "सा",
      "ँ"
    ],
    [
      "यस",
      "का</w>"
    ],
    [
      "न्थ",
      "्यो।</w>"
    ],
    [
      "स्थाप",
      "न</w>"
    ],
    [
      "ज",
      "मा</w>"
    ],
    [
      "ग",
      "ल"
    ],
    [
      "च",
      "ा</w>"
    ],
    [
      "अझ",
      "</w>"
    ],
    [
      "भाइ",
      "र"
    ],
    [
      "ह",
      "को</w>"
    ],
    [
      "त्व",
      "मा</w>"
    ],
    [
      "१",
      "४</w>"
    ],
    [
      "पुन",
      "र्"
    ],
    [
      "बि",
      "च</w>"
    ],
    [
      "व",
      "रि"
    ],
    [
      "स्",
      "पे"
    ],
    [
      "पु",
      "र</w>"
    ],
    [
      "व्य",
      "क्ति</w>"
    ],
    [
      "भार",
      "त</w>"
    ],
    [
      "उपलब्",
      "ध</w>"
    ],
    [
      "खो",
      "ज्"
    ],
    [
      "पर्",
      "द"
    ],
    [
      "बने",
      "।</w>"
    ],
    [
      "अ",
      "प्रि"
    ],
    [
      "नि",
      "कै</w>"
    ],
    [
      "ङ्",
      "ग</w>"
    ],
    [
      "श",
      "री"
    ],
    [
      "ना",
      "हरू</w>"
    ],
    [
      "सह",
      "योग</w>"
    ],
    [
      "आ",
      "त्"
    ],
    [
      "खेल",
      "कु"
    ],
    [
      "१",
      "७</w>"
    ],
    [
      "राज",
      "ा"
    ],
    [
      "२०२",
      "१</w>"
    ],
    [
      "गर्",
      "छन्</w>"
    ],
    [
      "य",
      "ता</w>"
    ],
    [
      "अभिन",
      "य</w>"
    ],
    [
      "क",
      "म्"
    ],
    [
      "साथ",
      "ै</w>"
    ],
    [
      "डा",
      "इ"
    ],
    [
      "रो",
      "ग</w>"
    ],
    [
      "व्या",
      "पार"
    ],
    [
      "ट्",
      "टा</w>"
    ],
    [
      "स्वि",
      "डे"
    ],
    [
      "सा",
      "मा"
    ],
    [
      "२",
      "५</w>"
    ],
    [
      "शताब्द",
      "ीको</w>"
    ],
    [
      "श",
      "क्ति"
    ],
    [
      "उ",
      "सले</w>"
    ],
    [
      "सङ्",
      "क्रम"
    ],
    [
      "समर्थ",
      "न</w>"
    ],
    [
      "न",
      "न्।</w>"
    ],
    [
      "ट",
      ",</w>"
    ],
    [
      "डिसे",
      "म्बर</w>"
    ],
    [
      "विशे",
      "ष"
    ],
    [
      "नद",
      "ीको</w>"
    ],
    [
      "वे",
      "द"
    ],
    [
      "पश्चि",
      "म</w>"
    ],
    [
      "कहिलेकाही",
      "ँ</w>"
    ],
    [
      "म",
      "े</w>"
    ],
    [
      "ठु",
      "ला</w>"
    ],
    [
      "पा",
      "नी</w>"
    ],
    [
      "ग",
      "म्"
    ],
    [
      "सम",
      "स्या"
    ],
    [
      "धार",
      "ण</w>"
    ],
    [
      "बे",
      "ला"
    ],
    [
      "समू",
      "ह</w>"
    ],
    [
      "२०१",
      "५</w>"
    ],
    [
      "पु",
      "गे"
    ],
    [
      "सम्",
      "म,</w>"
    ],
    [
      "आ",
      "र्थ"
    ],
    [
      "क्",
      "ला"
    ],
    [
      "सह",
      "र"
    ],
    [
      "बिच",
      "को</w>"
    ],
    [
      "सङ्",
      "के"
    ],
    [
      "भ",
      "्या"
    ],
    [
      "सह",
      "रको</w>"
    ],
    [
      "ला",
      "का</w>"
    ],
    [
      "कस",
      "री</w>"
    ],
    [
      "नि",
      "धन</w>"
    ],
    [
      "प",
      "न्न</w>"
    ],
    [
      "प्",
      "प"
    ],
    [
      "ए",
      "स</w>"
    ],
    [
      "र",
      "ै</w>"
    ],
    [
      "तिनी",
      "हरूलाई</w>"
    ],
    [
      "हुँद",
      "ा</w>"
    ],
    [
      "टि",
      "ङ</w>"
    ],
    [
      "बच्",
      "चा"
    ],
    [
      "अनु",
      "सन्"
    ],
    [
      "स",
      "त"
    ],
    [
      "जो",
      "खि"
    ],
    [
      "हरू",
      "मा,</w>"
    ],
    [
      "जन",
      "गण"
    ],
    [
      "प्र",
      "स्ता"
    ],
    [
      "श",
      "्रे"
    ],
    [
      "राख",
      "िएको</w>"
    ],
    [
      "चि",
      "कि"
    ],
    [
      "चिकि",
      "त्"
    ],
    [
      "शु",
      "ल्"
    ],
    [
      "कम्प",
      "नी</w>"
    ],
    [
      "ग",
      "ै"
    ],
    [
      "ड",
      "्रा"
    ],
    [
      "भु",
      "क्ता"
    ],
    [
      "त",
      "ले</w>"
    ],
    [
      "बना",
      "इएको</w>"
    ],
    [
      "१",
      "१</w>"
    ],
    [
      "घ",
      "न्"
    ],
    [
      "ए",
      "च"
    ],
    [
      "राष्ट्र",
      "पति</w>"
    ],
    [
      "व्या",
      "पक</w>"
    ],
    [
      "वि",
      "क"
    ],
    [
      "स",
      "फ्"
    ],
    [
      "स्वा",
      "स्थ"
    ],
    [
      "भर",
      "ि</w>"
    ],
    [
      "सक्",
      "छ</w>"
    ],
    [
      "नी",
      "मा</w>"
    ],
    [
      "व",
      "ो"
    ],
    [
      "मा",
      "थि"
    ],
    [
      "धेरै",
      "जसो</w>"
    ],
    [
      "य",
      "स्तो</w>"
    ],
    [
      "प",
      "नि"
    ],
    [
      "वा",
      "न</w>"
    ],
    [
      "आ",
      "रो"
    ],
    [
      "ब",
      "ौ"
    ],
    [
      "रि",
      "क</w>"
    ],
    [
      "ता",
      "लाई</w>"
    ],
    [
      "चु",
      "ना"
    ],
    [
      "पा",
      "किस्ता"
    ],
    [
      "कार्",
      "य</w>"
    ],
    [
      "प",
      "रा"
    ],
    [
      "द्ध",
      "ा"
    ],
    [
      "निम्",
      "त्या"
    ],
    [
      "अ",
      "रू"
    ],
    [
      "हुन्",
      "छन्</w>"
    ],
    [
      "हुँद",
      "ै</w>"
    ],
    [
      "पुर",
      "ा</w>"
    ],
    [
      "धा",
      "न"
    ],
    [
      "फ",
      "ार"
    ],
    [
      "स्",
      "ति"
    ],
    [
      "खर्",
      "च</w>"
    ],
    [
      "ब",
      "साइ"
    ],
    [
      "गम्",
      "भी"
    ],
    [
      "भि",
      "त्र"
    ],
    [
      "रो",
      "ध</w>"
    ],
    [
      "छो",
      "रा</w>"
    ],
    [
      "पराज",
      "ित</w>"
    ],
    [
      "जो",
      "ड"
    ],
    [
      "स्ट",
      "र</w>"
    ],
    [
      "वर्ण",
      "न</w>"
    ],
    [
      "ड",
      "े</w>"
    ],
    [
      "अध्य",
      "यन</w>"
    ],
    [
      "आ",
      "धु"
    ],
    [
      "वा",
      "ह"
    ],
    [
      "यो",
      "र्"
    ],
    [
      "व्या",
      "व"
    ],
    [
      "राजधा",
      "नी</w>"
    ],
    [
      "द्",
      "वि"
    ],
    [
      "के",
      "ट</w>"
    ],
    [
      "१",
      "३</w>"
    ],
    [
      "खा",
      "ना</w>"
    ],
    [
      "मानि",
      "न्छ।</w>"
    ],
    [
      "प",
      "स"
    ],
    [
      "निम्",
      "ति</w>"
    ],
    [
      "म्",
      "मे"
    ],
    [
      "ल्य",
      "ै</w>"
    ],
    [
      "अति",
      "रि"
    ],
    [
      "ठ",
      "</w>"
    ],
    [
      "क्ल",
      "ब</w>"
    ],
    [
      "ध",
      "र्म"
    ],
    [
      "स्",
      "कु"
    ],
    [
      "टा",
      "पु"
    ],
    [
      "पु",
      "लि"
    ],
    [
      "दक्षिण",
      "ी</w>"
    ],
    [
      "पाँ",
      "च</w>"
    ],
    [
      "मू",
      "र्"
    ],
    [
      "ढ",
      "ु"
    ],
    [
      "कार",
      "ा"
    ],
    [
      "स्ट",
      "्रो"
    ],
    [
      "िया",
      "का</w>"
    ],
    [
      "साय",
      "िक</w>"
    ],
    [
      "ए",
      "क्"
    ],
    [
      "ल",
      "ै"
    ],
    [
      "त",
      "ार"
    ],
    [
      "ब्या",
      "न्ड"
    ],
    [
      "का",
      "का</w>"
    ],
    [
      "प्र",
      "श"
    ],
    [
      "वार्",
      "ष"
    ],
    [
      "अ",
      "ब</w>"
    ],
    [
      "ने",
      "ट</w>"
    ],
    [
      "ँद",
      "ा</w>"
    ],
    [
      "क",
      "ब्"
    ],
    [
      "प्रथ",
      "म</w>"
    ],
    [
      "सह",
      "रमा</w>"
    ],
    [
      "ओलम्पि",
      "क</w>"
    ],
    [
      "१९",
      "३"
    ],
    [
      "प्र",
      "वेश</w>"
    ],
    [
      "नियन्त्र",
      "ण</w>"
    ],
    [
      "ले",
      ",</w>"
    ],
    [
      "न्",
      "जा"
    ],
    [
      "दि",
      "ने</w>"
    ],
    [
      "मह",
      "ारा"
    ],
    [
      "चा",
      "र्"
    ],
    [
      "स",
      "ौ"
    ],
    [
      "नु",
      "होस्</w>"
    ],
    [
      "टो",
      "ली</w>"
    ],
    [
      "ग",
      "ीत</w>"
    ],
    [
      "रा",
      "इ"
    ],
    [
      "वा",
      "इ"
    ],
    [
      "स",
      "न्द"
    ],
    [
      "ण",
      "का</w>"
    ],
    [
      "रूप",
      "मा,</w>"
    ],
    [
      "छ",
      "ैन</w>"
    ],
    [
      "नगरपालि",
      "का</w>"
    ],
    [
      "गरे",
      "पछि</w>"
    ],
    [
      "ष",
      "ण</w>"
    ],
    [
      "ढ",
      "ा</w>"
    ],
    [
      "धेरै",
      "वटा</w>"
    ],
    [
      "शा",
      "सन</w>"
    ],
    [
      "क्रम",
      "मा</w>"
    ],
    [
      "को",
      "र"
    ],
    [
      "यु",
      "द्ध</w>"
    ],
    [
      "भ",
      "ी</w>"
    ],
    [
      "अगा",
      "डि</w>"
    ],
    [
      "व",
      "े</w>"
    ],
    [
      "टे",
      "क्"
    ],
    [
      "ट",
      "ेर"
    ],
    [
      "आ",
      "धिकार"
    ],
    [
      "ल",
      "न्ड"
    ],
    [
      "स्",
      "ना"
    ],
    [
      "सम",
      "ी"
    ],
    [
      "पुरु",
      "ष"
    ],
    [
      "इ",
      "स्"
    ],
    [
      "वर्",
      "ग"
    ],
    [
      "त्यस",
      "ैले</w>"
    ],
    [
      "सम्",
      "पूर्ण</w>"
    ],
    [
      "ष्ट",
      "ि</w>"
    ],
    [
      "उत्",
      "स"
    ],
    [
      "आधिकार",
      "िक</w>"
    ],
    [
      "ग्",
      "न</w>"
    ],
    [
      "२००",
      "६</w>"
    ],
    [
      "मा",
      "ध्य"
    ],
    [
      "जब",
      "कि</w>"
    ],
    [
      "जान",
      "कारी</w>"
    ],
    [
      "श",
      "ब्द"
    ],
    [
      "२००",
      "७</w>"
    ],
    [
      "कृ",
      "ति"
    ],
    [
      "त",
      "या</w>"
    ],
    [
      "ल",
      "ना"
    ],
    [
      "कर्",
      "म"
    ],
    [
      "फेब्रुअ",
      "री</w>"
    ],
    [
      "आधु",
      "निक</w>"
    ],
    [
      "यो",
      "जना</w>"
    ],
    [
      "ण्",
      "ड</w>"
    ],
    [
      "दा",
      ",</w>"
    ],
    [
      "च",
      "ला"
    ],
    [
      "घ",
      "र"
    ],
    [
      "अमेरि",
      "कामा</w>"
    ],
    [
      "मि",
      "ल्"
    ],
    [
      "२००",
      "९</w>"
    ],
    [
      "त",
      "म</w>"
    ],
    [
      "ं",
      "स"
    ],
    [
      "ष्ठ",
      "</w>"
    ],
    [
      "धि",
      "क</w>"
    ],
    [
      "पर्",
      "य"
    ],
    [
      "क",
      "ति</w>"
    ],
    [
      "प्रभा",
      "वित</w>"
    ],
    [
      "हा",
      "र्"
    ],
    [
      "क्या",
      "ना"
    ],
    [
      "परि",
      "चित</w>"
    ],
    [
      "ँ",
      "ड"
    ],
    [
      "पार",
      "ि"
    ],
    [
      "ख",
      "रा"
    ],
    [
      "तिन",
      "वटा</w>"
    ],
    [
      "वे",
      "श"
    ],
    [
      "निय",
      "ु"
    ],
    [
      "अभ",
      "्या"
    ],
    [
      "खे",
      "लको</w>"
    ],
    [
      "र",
      "ङ्ग"
    ],
    [
      "ब",
      "ल"
    ],
    [
      "मा",
      "को</w>"
    ],
    [
      "भाष",
      "ा</w>"
    ],
    [
      "ब",
      "जा"
    ],
    [
      "भाव",
      "ना</w>"
    ],
    [
      "श",
      "ब्"
    ],
    [
      "वाद",
      "ी</w>"
    ],
    [
      "उन",
      "ु</w>"
    ],
    [
      "२",
      "४</w>"
    ],
    [
      "ड",
      ",</w>"
    ],
    [
      "ले",
      "क्"
    ],
    [
      "ट",
      "का</w>"
    ],
    [
      "मि",
      "ड"
    ],
    [
      "बि",
      "क्र"
    ],
    [
      "मु",
      "गल</w>"
    ],
    [
      "न्त",
      "ु"
    ],
    [
      "प",
      "ञ्"
    ],
    [
      "जा",
      "ँ"
    ],
    [
      "क",
      "रो"
    ],
    [
      "राजनी",
      "तिक</w>"
    ],
    [
      "च",
      "ना</w>"
    ],
    [
      "ट्र",
      "े"
    ],
    [
      "न्ड",
      "ो"
    ],
    [
      "भनि",
      "ने</w>"
    ],
    [
      "परे",
      "को</w>"
    ],
    [
      "दु",
      "वै"
    ],
    [
      "ब",
      "्रे"
    ],
    [
      "क",
      "ता</w>"
    ],
    [
      "ड",
      "हरू</w>"
    ],
    [
      "ह",
      "ै"
    ],
    [
      "िया",
      ",</w>"
    ],
    [
      "निय",
      "ा</w>"
    ],
    [
      "२००",
      "०</w>"
    ],
    [
      "त",
      "क</w>"
    ],
    [
      "आर्थ",
      "िक</w>"
    ],
    [
      "दश",
      "कमा</w>"
    ],
    [
      "पोर्",
      "ट</w>"
    ],
    [
      "एल्",
      "ब"
    ],
    [
      "प्रकार",
      "को</w>"
    ],
    [
      "ले",
      "खे"
    ],
    [
      "पाँ",
      "च"
    ],
    [
      "टेलि",
      "भि"
    ],
    [
      "सम्",
      "पर्"
    ],
    [
      "भ्र",
      "म"
    ],
    [
      "उँ",
      "छ</w>"
    ],
    [
      "सरकार",
      "ले</w>"
    ],
    [
      "मु",
      "स्लि"
    ],
    [
      "दा",
      "ल"
    ],
    [
      "सामा",
      "जिक</w>"
    ],
    [
      "क्षेत्र",
      "को</w>"
    ],
    [
      "नी",
      "ले</w>"
    ],
    [
      "ज",
      "र"
    ],
    [
      "सुरु",
      "मा</w>"
    ],
    [
      "स",
      "भा"
    ],
    [
      "ङ्क",
      "न</w>"
    ],
    [
      "ड",
      "िय"
    ],
    [
      "नजि",
      "कै</w>"
    ],
    [
      "ड",
      "ले</w>"
    ],
    [
      "स",
      "िय"
    ],
    [
      "प",
      "र</w>"
    ],
    [
      "ज",
      "ङ्ग"
    ],
    [
      "रेकर्",
      "ड</w>"
    ],
    [
      "अफ",
      "्रि"
    ],
    [
      "बे",
      "ला</w>"
    ],
    [
      "पर्",
      "या"
    ],
    [
      "ङ",
      "को</w>"
    ],
    [
      "विद",
      "्रो"
    ],
    [
      "कार्",
      "या"
    ],
    [
      "वा",
      "द</w>"
    ],
    [
      "अधि",
      "क</w>"
    ],
    [
      "फि",
      "र्"
    ],
    [
      "वि",
      "त्"
    ],
    [
      "क",
      "हरूलाई</w>"
    ],
    [
      "सम्",
      "भा"
    ],
    [
      "आ",
      "वा"
    ],
    [
      "घ",
      "रमा</w>"
    ],
    [
      "पछ",
      "ा"
    ],
    [
      "ग्र",
      "ी"
    ],
    [
      "स्त",
      "ा</w>"
    ],
    [
      "ए",
      "का"
    ],
    [
      "फ",
      "्र"
    ],
    [
      "म",
      "र्"
    ],
    [
      "ह",
      "र्"
    ],
    [
      "ना",
      "मक</w>"
    ],
    [
      "निय",
      "मित</w>"
    ],
    [
      "ा",
      "मा</w>"
    ],
    [
      "गा",
      "उँ</w>"
    ],
    [
      "मार्",
      "फ"
    ],
    [
      "ल्",
      "स</w>"
    ],
    [
      "ण",
      "ी</w>"
    ],
    [
      "द",
      "ू"
    ],
    [
      "मूल",
      "्य</w>"
    ],
    [
      "ब",
      "ी"
    ],
    [
      "अप्रि",
      "ल</w>"
    ],
    [
      "म",
      "ृ"
    ],
    [
      "र",
      "क्"
    ],
    [
      "ना",
      "गरि"
    ],
    [
      "सु",
      "स</w>"
    ],
    [
      "द्",
      "वी"
    ],
    [
      "प",
      "त्र"
    ],
    [
      "अ",
      "दाल"
    ],
    [
      "छो",
      "डे"
    ],
    [
      "व्याव",
      "सायिक</w>"
    ],
    [
      "नो",
      "इ"
    ],
    [
      "स्प",
      "ष्ट</w>"
    ],
    [
      "व्यक्ति",
      "गत</w>"
    ],
    [
      "र",
      "-"
    ],
    [
      "स",
      "जि"
    ],
    [
      "क्या",
      "लि"
    ],
    [
      "क",
      "हरूको</w>"
    ],
    [
      "स",
      "ीमा</w>"
    ],
    [
      "ए",
      "यर"
    ],
    [
      "यात्र",
      "ा</w>"
    ],
    [
      "जि",
      "त्"
    ],
    [
      "धा",
      "र्"
    ],
    [
      "का",
      "न्"
    ],
    [
      "रो",
      "ध"
    ],
    [
      "जन्",
      "म"
    ],
    [
      "विद्या",
      "र्थ"
    ],
    [
      "द",
      "ै"
    ],
    [
      "गम्भी",
      "र</w>"
    ],
    [
      "थिए",
      "न।</w>"
    ],
    [
      "वि",
      "चार</w>"
    ],
    [
      "का",
      "हरू</w>"
    ],
    [
      "उद",
      "्यो"
    ],
    [
      "स्वत",
      "न्त्र"
    ],
    [
      "अग",
      "स्ट</w>"
    ],
    [
      "स",
      "हरू</w>"
    ],
    [
      "सार",
      ",</w>"
    ],
    [
      "पत्",
      "ति</w>"
    ],
    [
      "आ",
      "नन्द"
    ],
    [
      "प्रणा",
      "ली</w>"
    ],
    [
      "क",
      "था</w>"
    ],
    [
      "ट",
      "ै</w>"
    ],
    [
      "गरि",
      "ने</w>"
    ],
    [
      "टा",
      "ढा</w>"
    ],
    [
      "सम्झ",
      "ौ"
    ],
    [
      "स",
      "जा"
    ],
    [
      "अ",
      "र"
    ],
    [
      "य",
      "ि"
    ],
    [
      "अर्",
      "थ"
    ],
    [
      "बन्",
      "यो।</w>"
    ],
    [
      "विद्या",
      "लय</w>"
    ],
    [
      "प्र",
      "धान"
    ],
    [
      "त्",
      "</w>"
    ],
    [
      "गु",
      "मा"
    ],
    [
      "ट्",
      "स</w>"
    ],
    [
      "य",
      "ु</w>"
    ],
    [
      "क",
      "्यार"
    ],
    [
      "प",
      "त"
    ],
    [
      "उत्त",
      "रा"
    ],
    [
      "का",
      "लमा</w>"
    ],
    [
      "फ",
      "्रे"
    ],
    [
      "त",
      "हरू</w>"
    ],
    [
      "प्रणा",
      "ली"
    ],
    [
      "स्थ",
      "ल</w>"
    ],
    [
      "सा",
      "झ"
    ],
    [
      "मह",
      "सुस</w>"
    ],
    [
      "टोली",
      "ले</w>"
    ],
    [
      "य",
      "ौ"
    ],
    [
      "कब्",
      "जा</w>"
    ],
    [
      "भारत",
      "का</w>"
    ],
    [
      "सि",
      "ने"
    ],
    [
      "ग्र",
      "ी</w>"
    ],
    [
      "आ",
      "ज</w>"
    ],
    [
      "क",
      "रि"
    ],
    [
      "को",
      "मा</w>"
    ],
    [
      "नि",
      "र"
    ],
    [
      "प्रस्तु",
      "त</w>"
    ],
    [
      "ब",
      "हु"
    ],
    [
      "डि",
      "जा"
    ],
    [
      "ज",
      "म्"
    ],
    [
      "लि",
      "ग</w>"
    ],
    [
      "केन्द्र",
      "</w>"
    ],
    [
      "दृ",
      "श"
    ],
    [
      "प्रतिनिधि",
      "त्व</w>"
    ],
    [
      "लिय",
      "ो</w>"
    ],
    [
      "गा",
      "ह"
    ],
    [
      "प्रभा",
      "व</w>"
    ],
    [
      "काउन्ट",
      "ीको</w>"
    ],
    [
      "ल्",
      "ड</w>"
    ],
    [
      "गरे",
      "की</w>"
    ],
    [
      "ता",
      "ल</w>"
    ],
    [
      "टोली",
      "का</w>"
    ],
    [
      "मु",
      "द्"
    ],
    [
      "लिए",
      "र</w>"
    ],
    [
      "नियु",
      "क्त</w>"
    ],
    [
      "लि",
      "ने</w>"
    ],
    [
      "सहा",
      "यक</w>"
    ],
    [
      "सम",
      "र्"
    ],
    [
      "तिहा",
      "सिक</w>"
    ],
    [
      "य",
      "ति</w>"
    ],
    [
      "इ",
      "टा"
    ],
    [
      "ख",
      "्या"
    ],
    [
      "२००",
      "१</w>"
    ],
    [
      "ढ",
      "ि"
    ],
    [
      "ट",
      "ल</w>"
    ],
    [
      "शब्",
      "द</w>"
    ],
    [
      "गठ",
      "न</w>"
    ],
    [
      "युद्ध",
      "को</w>"
    ],
    [
      "पुरु",
      "ष</w>"
    ],
    [
      "फ",
      "्या"
    ],
    [
      "त",
      "ल</w>"
    ],
    [
      "न",
      "हरूले</w>"
    ],
    [
      "प",
      "न</w>"
    ],
    [
      "क्ष",
      "म"
    ],
    [
      "दि",
      "इ"
    ],
    [
      "ज",
      "र</w>"
    ],
    [
      "अन्तर्",
      "गत</w>"
    ],
    [
      "ल्यान्ड",
      "मा</w>"
    ],
    [
      "न",
      "सँग</w>"
    ],
    [
      "प्रति",
      "श"
    ],
    [
      "क",
      "ल"
    ],
    [
      "सा",
      "त"
    ],
    [
      "जिते",
      "का</w>"
    ],
    [
      "कार्य",
      "क्रम</w>"
    ],
    [
      "इ",
      "सा"
    ],
    [
      "क्यालि",
      "फोर्"
    ],
    [
      "पद",
      "क</w>"
    ],
    [
      "न्",
      "य</w>"
    ],
    [
      "समु",
      "दाय"
    ],
    [
      "विक",
      "सित</w>"
    ],
    [
      "चा",
      "इ"
    ],
    [
      "च",
      "रण"
    ],
    [
      "अतिरि",
      "क्त</w>"
    ],
    [
      "हुनु",
      "हुन्छ</w>"
    ],
    [
      "ज",
      ",</w>"
    ],
    [
      "व",
      "ु"
    ],
    [
      "य",
      "हाँ</w>"
    ],
    [
      "धार्",
      "मिक</w>"
    ],
    [
      "कारण",
      "ले</w>"
    ],
    [
      "ध्या",
      "न</w>"
    ],
    [
      "न्",
      "सि"
    ],
    [
      "ए",
      "ड"
    ],
    [
      "ऐ",
      "तिहासिक</w>"
    ],
    [
      "समा",
      "न</w>"
    ],
    [
      "म",
      "ै</w>"
    ],
    [
      "सङ्ग",
      "ठ"
    ],
    [
      "पर्या",
      "प्त</w>"
    ],
    [
      "स्वास्थ",
      "्य</w>"
    ],
    [
      "थ",
      "्यो।</w>"
    ],
    [
      "त",
      "त्"
    ],
    [
      "फर्",
      "क"
    ],
    [
      "सङ्के",
      "त</w>"
    ],
    [
      "पार्",
      "न</w>"
    ],
    [
      "२०२",
      "२</w>"
    ],
    [
      "सुर",
      "क्षा</w>"
    ],
    [
      "खरा",
      "ब</w>"
    ],
    [
      "तमि",
      "लना"
    ],
    [
      "आ",
      "एका</w>"
    ],
    [
      "बाँ",
      "की</w>"
    ],
    [
      "शुल्",
      "क</w>"
    ],
    [
      "्य",
      "ो,</w>"
    ],
    [
      "खेल",
      "हरू</w>"
    ],
    [
      "वि",
      "मान"
    ],
    [
      "मुख्य",
      "तया</w>"
    ],
    [
      "गर्",
      "छ</w>"
    ],
    [
      "बौ",
      "द्ध</w>"
    ],
    [
      "अ",
      "ग्"
    ],
    [
      "स्",
      "क्रि"
    ],
    [
      "ता",
      ",</w>"
    ],
    [
      "पूर्व",
      "मा</w>"
    ],
    [
      "सं",
      "सार"
    ],
    [
      "बा",
      "स</w>"
    ],
    [
      "शताब्द",
      "ीमा</w>"
    ],
    [
      "अनु",
      "सार,</w>"
    ],
    [
      "ट्र",
      "ि"
    ],
    [
      "अ",
      "स्वीकार</w>"
    ],
    [
      "ब",
      "रा"
    ],
    [
      "२",
      "१</w>"
    ],
    [
      "ले",
      "र</w>"
    ],
    [
      "व",
      "रण"
    ],
    [
      "ेर",
      "ी</w>"
    ],
    [
      "वि",
      "स्त"
    ],
    [
      "उद्",
      "देश"
    ],
    [
      "कि",
      "ल्ला</w>"
    ],
    [
      "ै",
      "ँ</w>"
    ],
    [
      "डा",
      "को</w>"
    ],
    [
      "प्र",
      "शास"
    ],
    [
      "-",
      "को</w>"
    ],
    [
      "मै",
      "दा"
    ],
    [
      "बना",
      "इ"
    ],
    [
      "गर्‍",
      "यो।</w>"
    ],
    [
      "क",
      "ला</w>"
    ],
    [
      "खेले",
      "।</w>"
    ],
    [
      "लाग",
      "ेको</w>"
    ],
    [
      "जीव",
      "न</w>"
    ],
    [
      "सफ",
      "ल"
    ],
    [
      "औ",
      "स"
    ],
    [
      "भए",
      "र</w>"
    ],
    [
      "फा",
      "इन"
    ],
    [
      "राख्",
      "न</w>"
    ],
    [
      "च",
      "र"
    ],
    [
      "ए",
      "क्स"
    ],
    [
      "न्",
      "टि"
    ],
    [
      "न",
      "र"
    ],
    [
      "इ",
      "रा"
    ],
    [
      "२",
      "२</w>"
    ],
    [
      "हि",
      "स्"
    ],
    [
      "स",
      "ल्ला"
    ],
    [
      "आ",
      "मा"
    ],
    [
      "मू",
      "ल्य"
    ],
    [
      "जि",
      "ल्ला</w>"
    ],
    [
      "स्विडे",
      "नको</w>"
    ],
    [
      "छो",
      "टो</w>"
    ],
    [
      "सा",
      "हि"
    ],
    [
      "च",
      "न्द्र"
    ],
    [
      "क्ष",
      "म</w>"
    ],
    [
      "खेला",
      "डी</w>"
    ],
    [
      "क",
      "प"
    ],
    [
      "या",
      "र</w>"
    ],
    [
      "ले",
      "को</w>"
    ],
    [
      "प्र",
      "ेर"
    ],
    [
      "ज",
      "ले</w>"
    ],
    [
      "ल",
      "ै</w>"
    ],
    [
      "१",
      "००</w>"
    ],
    [
      "छि",
      "न्</w>"
    ],
    [
      "क्",
      "लि"
    ],
    [
      "पर्",
      "छ</w>"
    ],
    [
      "हुन्",
      "छन्,</w>"
    ],
    [
      "४",
      "०</w>"
    ],
    [
      "क्",
      "क</w>"
    ],
    [
      "न",
      "हरूमा</w>"
    ],
    [
      "क्ल",
      "ब"
    ],
    [
      "्र",
      "ै</w>"
    ],
    [
      "द",
      "मा</w>"
    ],
    [
      "उ",
      "न्ड"
    ],
    [
      "वर्त",
      "मान</w>"
    ],
    [
      "ब",
      "सो"
    ],
    [
      "सञ्चा",
      "लन</w>"
    ],
    [
      "ठ",
      "ा</w>"
    ],
    [
      "अन्त",
      "तः</w>"
    ],
    [
      "ता",
      "र</w>"
    ],
    [
      "पा",
      "ल</w>"
    ],
    [
      "प्रतिस्पर्",
      "धा</w>"
    ],
    [
      "फ",
      "ी</w>"
    ],
    [
      "द",
      "ी"
    ],
    [
      "स",
      "रे"
    ],
    [
      "ति",
      "र्"
    ],
    [
      "ता",
      "प"
    ],
    [
      "अनु",
      "मान</w>"
    ],
    [
      "ब",
      "ग्"
    ],
    [
      "फ",
      "ा</w>"
    ],
    [
      "सुरु",
      "वा"
    ],
    [
      "ड",
      "का</w>"
    ],
    [
      "तर",
      ",</w>"
    ],
    [
      "ज",
      "हरू</w>"
    ],
    [
      "िया",
      "ले</w>"
    ],
    [
      "बना",
      "उने</w>"
    ],
    [
      "ना",
      ",</w>"
    ],
    [
      "क",
      "ब"
    ],
    [
      "प्र",
      "सार"
    ],
    [
      "ट",
      "ी"
    ],
    [
      "नृत्य",
      "</w>"
    ],
    [
      "मि",
      "न</w>"
    ],
    [
      "फ्",
      "लो"
    ],
    [
      "गर्",
      "थे।</w>"
    ],
    [
      "पुन",
      ":</w>"
    ],
    [
      "ह",
      "रे"
    ],
    [
      "अ",
      "त्य"
    ],
    [
      "सिं",
      "ह"
    ],
    [
      "ह",
      "टा"
    ],
    [
      "कर्म",
      "चार"
    ],
    [
      "कहि",
      "ल्यै</w>"
    ],
    [
      "थाले",
      "।</w>"
    ],
    [
      "किन",
      "कि</w>"
    ],
    [
      "उन",
      "े"
    ],
    [
      "हु",
      "ँ"
    ],
    [
      ")",
      ",</w>"
    ],
    [
      "व",
      "न</w>"
    ],
    [
      "आ",
      "उ"
    ],
    [
      "शा",
      "ली</w>"
    ],
    [
      "झ",
      "ु"
    ],
    [
      "व",
      "मा</w>"
    ],
    [
      "स",
      "क्षम</w>"
    ],
    [
      "वा",
      "को</w>"
    ],
    [
      "्र",
      "ा</w>"
    ],
    [
      "वे",
      "बसाइ"
    ],
    [
      "अध्य",
      "क्ष</w>"
    ],
    [
      "ई",
      "को</w>"
    ],
    [
      "प्रस्ता",
      "व</w>"
    ],
    [
      "कल्",
      "प"
    ],
    [
      "प्रा",
      "च"
    ],
    [
      "फो",
      "न</w>"
    ],
    [
      "वार्ष",
      "िक</w>"
    ],
    [
      "उप",
      "चार"
    ],
    [
      "चा",
      "ँड"
    ],
    [
      "ँद",
      "ै</w>"
    ],
    [
      "बना",
      "उँछ।</w>"
    ],
    [
      "ड",
      "्र"
    ],
    [
      "अनु",
      "भव</w>"
    ],
    [
      "साह",
      "्रै</w>"
    ],
    [
      "भ",
      "ा</w>"
    ],
    [
      "आधार",
      "मा</w>"
    ],
    [
      "शा",
      "सन"
    ],
    [
      "एन्",
      "टि"
    ],
    [
      "ड",
      "ियो"
    ],
    [
      "मान",
      "व</w>"
    ],
    [
      "आ",
      "दि"
    ],
    [
      "स",
      "ीको</w>"
    ],
    [
      "१",
      "२"
    ],
    [
      "ह",
      "मा</w>"
    ],
    [
      "ब",
      "ा</w>"
    ],
    [
      "स्वत",
      "न्त्र</w>"
    ],
    [
      "ेर",
      "ो"
    ],
    [
      "ख",
      "ण्ड"
    ],
    [
      "साम",
      "ना</w>"
    ],
    [
      "२००",
      "५</w>"
    ],
    [
      "कला",
      "कार"
    ],
    [
      "महि",
      "ना</w>"
    ],
    [
      "क्षेत्र",
      "हरूमा</w>"
    ],
    [
      "अङ्ग्रे",
      "जी</w>"
    ],
    [
      "पर",
      "ि</w>"
    ],
    [
      "करो",
      "ड</w>"
    ],
    [
      "ति",
      "का</w>"
    ],
    [
      "उँ",
      "द"
    ],
    [
      "अ",
      "स्प"
    ],
    [
      "पर",
      "ियो"
    ],
    [
      "हुँद",
      "ैन।</w>"
    ],
    [
      "भए",
      "पछि</w>"
    ],
    [
      "सह",
      "योग"
    ],
    [
      "प्",
      "ता"
    ],
    [
      "स",
      "्या</w>"
    ],
    [
      "थो",
      "रै</w>"
    ],
    [
      "टे",
      "ड</w>"
    ],
    [
      "छे",
      "उमा</w>"
    ],
    [
      "न्य",
      "ु</w>"
    ],
    [
      "कृ",
      "ष"
    ],
    [
      "ल",
      "म्ब"
    ],
    [
      "देश",
      "हरूमा</w>"
    ],
    [
      "कर्",
      "ता"
    ],
    [
      "प",
      "िए"
    ],
    [
      "फिर्",
      "ता</w>"
    ],
    [
      "छो",
      "रा"
    ],
    [
      "ग",
      "भर्"
    ],
    [
      "गु",
      "जरा"
    ],
    [
      "सुर",
      "क्षित</w>"
    ],
    [
      "ङ",
      ",</w>"
    ],
    [
      "गरि",
      "रहेको</w>"
    ],
    [
      "वरि",
      "परि</w>"
    ],
    [
      "सा",
      "स</w>"
    ],
    [
      "टे",
      "को</w>"
    ],
    [
      "ड",
      "ी"
    ],
    [
      "दा",
      "र</w>"
    ],
    [
      "१",
      ","
    ],
    [
      "उ",
      "सलाई</w>"
    ],
    [
      "अघ",
      "ि"
    ],
    [
      "गरि",
      "रहेका</w>"
    ],
    [
      "बा",
      "ल"
    ],
    [
      "म",
      "त</w>"
    ],
    [
      "०",
      ",०००</w>"
    ],
    [
      "ार",
      "मा</w>"
    ],
    [
      "२",
      "३</w>"
    ],
    [
      "शि",
      "ष्ट</w>"
    ],
    [
      "ब",
      "च"
    ],
    [
      "मि",
      "ने"
    ],
    [
      "छो",
      "ड्"
    ],
    [
      "छ",
      "ैन"
    ],
    [
      "चौ",
      "थ"
    ],
    [
      "ँ",
      "चा"
    ],
    [
      "ब",
      "िए"
    ],
    [
      "से",
      "ना</w>"
    ],
    [
      "१",
      "३"
    ],
    [
      "स्थि",
      "ति</w>"
    ],
    [
      "द्",
      "व"
    ],
    [
      "सम",
      "स्या</w>"
    ],
    [
      "केन्द्र",
      "ित</w>"
    ],
    [
      "भ",
      "ग"
    ],
    [
      "सं",
      "स्था"
    ],
    [
      "अ",
      "पे"
    ],
    [
      "बि",
      "न्द"
    ],
    [
      "सङ्",
      "क"
    ],
    [
      "त",
      "यार</w>"
    ],
    [
      "प्राच",
      "ीन</w>"
    ],
    [
      "कि",
      "न</w>"
    ],
    [
      "वर्",
      "ग</w>"
    ],
    [
      "बो",
      "ल्"
    ],
    [
      "क",
      "ू"
    ],
    [
      "२००",
      "४</w>"
    ],
    [
      "कर्",
      "ष"
    ],
    [
      "कि",
      "ल्ला"
    ],
    [
      "जा",
      "न</w>"
    ],
    [
      "न्ड",
      "ा</w>"
    ],
    [
      "च्याम्पियनसि",
      "प</w>"
    ],
    [
      "निर्वा",
      "चित</w>"
    ],
    [
      "आफू",
      "लाई</w>"
    ],
    [
      "अ",
      "ला"
    ],
    [
      "आ",
      "न्द"
    ],
    [
      "चाहि",
      "ँ</w>"
    ],
    [
      "मि",
      "ला"
    ],
    [
      "वै",
      "ज्ञा"
    ],
    [
      "गर्द",
      "छ</w>"
    ],
    [
      "ला",
      "ख</w>"
    ],
    [
      "प्रा",
      "थ"
    ],
    [
      "गर्नु",
      "होस्</w>"
    ],
    [
      "कम्प्यु",
      "टर</w>"
    ],
    [
      "बाहे",
      "क</w>"
    ],
    [
      "सम्",
      "भावना</w>"
    ],
    [
      "वे",
      "स</w>"
    ],
    [
      "हा",
      "उ"
    ],
    [
      "चि",
      "निया"
    ],
    [
      "देखि",
      "न्छ।</w>"
    ],
    [
      "भे",
      "ट्"
    ],
    [
      "इ",
      "ङ्"
    ],
    [
      "त",
      "न्त्र"
    ],
    [
      "तपाई",
      "ं"
    ],
    [
      "देश",
      "को</w>"
    ],
    [
      "नेतृ",
      "त्व</w>"
    ],
    [
      "न",
      "भए"
    ],
    [
      "हु",
      "न"
    ],
    [
      "आयो",
      "जित</w>"
    ],
    [
      "ए",
      "ल</w>"
    ],
    [
      "न",
      "गर</w>"
    ],
    [
      "ई",
      "मा</w>"
    ],
    [
      "त्य",
      "ा</w>"
    ],
    [
      "वि",
      "चार"
    ],
    [
      "सु",
      "धार</w>"
    ],
    [
      "अ",
      "वार्"
    ],
    [
      "हिस्",
      "सा</w>"
    ],
    [
      "हाम",
      "्रो</w>"
    ],
    [
      "डा",
      "मा</w>"
    ],
    [
      "ह",
      "स्ता"
    ],
    [
      "६",
      "०</w>"
    ],
    [
      "क",
      "ठ"
    ],
    [
      "ड",
      "ो</w>"
    ],
    [
      "जना",
      "को</w>"
    ],
    [
      "प्रा",
      "कृतिक</w>"
    ],
    [
      "प",
      "ो</w>"
    ],
    [
      "सङ्ग",
      "्र"
    ],
    [
      "य",
      "ार"
    ],
    [
      "क्र",
      "िय</w>"
    ],
    [
      "ब",
      "ै"
    ],
    [
      "फ",
      "्रि"
    ],
    [
      "कृ",
      "ति</w>"
    ],
    [
      "पूर्व",
      "क</w>"
    ],
    [
      "ग",
      "ौ"
    ],
    [
      "म",
      "ल"
    ],
    [
      "वास्त",
      "विक</w>"
    ],
    [
      "ना",
      "त्मक</w>"
    ],
    [
      "मौ",
      "सम"
    ],
    [
      "ड",
      "ब्ल"
    ],
    [
      "गा",
      "न्ध"
    ],
    [
      "कम",
      "जो"
    ],
    [
      "मे",
      "न्ट"
    ],
    [
      "सम्बन्ध",
      "</w>"
    ],
    [
      "सै",
      "न्य</w>"
    ],
    [
      "टेलिभि",
      "जन</w>"
    ],
    [
      "मार्",
      "ग</w>"
    ],
    [
      "देख",
      "्"
    ],
    [
      "यु",
      "नि"
    ],
    [
      "चौथ",
      "ो</w>"
    ],
    [
      "समर्",
      "प"
    ],
    [
      "द्ध",
      "ि</w>"
    ],
    [
      "सो",
      "ध"
    ],
    [
      "'",
      "'"
    ],
    [
      "गो",
      "ल"
    ],
    [
      "नो",
      "ट</w>"
    ],
    [
      "फ्रान्",
      "से"
    ],
    [
      "अभ",
      "िया"
    ],
    [
      "ग",
      "ुर"
    ],
    [
      "र",
      "क्षा</w>"
    ],
    [
      "उँ",
      "दै</w>"
    ],
    [
      "म",
      "द"
    ],
    [
      "करि",
      "ब</w>"
    ],
    [
      "च",
      "क्र"
    ],
    [
      "न्ड",
      "ा"
    ],
    [
      "दि",
      "नको</w>"
    ],
    [
      "नजि",
      "कै"
    ],
    [
      "न्द",
      "ा"
    ],
    [
      "हरे",
      "क</w>"
    ],
    [
      "बसो",
      "बास</w>"
    ],
    [
      "उ",
      "डा"
    ],
    [
      "समा",
      "वेस</w>"
    ],
    [
      "सि",
      "का"
    ],
    [
      "हो",
      "इन"
    ],
    [
      "सफ्",
      "ट"
    ],
    [
      "स्वा",
      "मि"
    ],
    [
      "य",
      "ले</w>"
    ],
    [
      "ता",
      "लि"
    ],
    [
      "पृ",
      "थ"
    ],
    [
      "ष्",
      "टि"
    ],
    [
      "म",
      "णि"
    ],
    [
      "सा",
      "को</w>"
    ],
    [
      "भ",
      "िय"
    ],
    [
      "र्",
      "थ</w>"
    ],
    [
      "ई",
      ",</w>"
    ],
    [
      "बना",
      "एको</w>"
    ],
    [
      "ख",
      "्"
    ],
    [
      "म्",
      "स</w>"
    ],
    [
      "बु",
      "झ"
    ],
    [
      "व्या",
      "पी</w>"
    ],
    [
      "युरो",
      "पे"
    ],
    [
      "क्",
      "क"
    ],
    [
      "सम्",
      "भव"
    ],
    [
      "क",
      "प</w>"
    ],
    [
      "जो",
      "न</w>"
    ],
    [
      "द",
      "ी</w>"
    ],
    [
      "कि",
      "न्"
    ],
    [
      "च",
      "मा</w>"
    ],
    [
      "आ",
      "लो"
    ],
    [
      "म",
      "ण्ड"
    ],
    [
      "२",
      "६</w>"
    ],
    [
      "महारा",
      "ष्ट्र"
    ],
    [
      "गु",
      "फा"
    ],
    [
      "प्र",
      "जाति"
    ],
    [
      "होस्",
      ",</w>"
    ],
    [
      "िए",
      "।</w>"
    ],
    [
      "का",
      "ल"
    ],
    [
      "हिन्द",
      "ी</w>"
    ],
    [
      "प्रश",
      "ं"
    ],
    [
      "प्रमा",
      "ण"
    ],
    [
      "भ",
      "ौ"
    ],
    [
      "सी",
      "मित</w>"
    ],
    [
      "सन",
      "ल</w>"
    ],
    [
      "न्",
      "टे"
    ],
    [
      "रा",
      "व"
    ],
    [
      "१९९",
      "०</w>"
    ],
    [
      "प",
      "न्जा"
    ],
    [
      "प्र",
      "बन्ध"
    ],
    [
      "शताब्द",
      "ी"
    ],
    [
      "वि",
      "शिष्ट</w>"
    ],
    [
      "उत्",
      "पन्न</w>"
    ],
    [
      "थि",
      "इ"
    ],
    [
      "म",
      "र"
    ],
    [
      "न्ड",
      "ि"
    ],
    [
      "द",
      "िएको</w>"
    ],
    [
      "ट्र",
      "्या"
    ],
    [
      "जन",
      "सङ्ख्या"
    ],
    [
      "जनगण",
      "ना"
    ],
    [
      "माइ",
      "क्रो"
    ],
    [
      "मार्फ",
      "त</w>"
    ],
    [
      "प",
      "त्र</w>"
    ],
    [
      "अन",
      "लाइन</w>"
    ],
    [
      "अनुसन्",
      "धान</w>"
    ],
    [
      "तपाईँ",
      "का</w>"
    ],
    [
      "वि",
      "देश"
    ],
    [
      "द्व",
      "न्द"
    ],
    [
      "क्र",
      "िया"
    ],
    [
      "प्राय",
      "जसो</w>"
    ],
    [
      "ओ",
      "</w>"
    ],
    [
      "गरि",
      "न्छ</w>"
    ],
    [
      "ट",
      "्यु"
    ],
    [
      "औस",
      "त</w>"
    ],
    [
      "का",
      "ङ्ग्रे"
    ],
    [
      "ज",
      "नमा</w>"
    ],
    [
      "पा",
      "इन्छ।</w>"
    ],
    [
      "धर्",
      "म</w>"
    ],
    [
      "ली",
      ",</w>"
    ],
    [
      "बता",
      "ए।</w>"
    ],
    [
      "उन",
      "की</w>"
    ],
    [
      "न्यु",
      "योर्"
    ],
    [
      "ज",
      "का</w>"
    ],
    [
      "च",
      "ट्टा"
    ],
    [
      "सक्",
      "छ,</w>"
    ],
    [
      "छ",
      "ु</w>"
    ],
    [
      "२",
      "९</w>"
    ],
    [
      "ल",
      "बाट</w>"
    ],
    [
      "१९८",
      "०</w>"
    ],
    [
      "थु",
      "प्र"
    ],
    [
      "अ",
      "ग्र"
    ],
    [
      "व",
      "न"
    ],
    [
      "मा",
      "उ"
    ],
    [
      "सँ",
      "गको</w>"
    ],
    [
      "न",
      "व"
    ],
    [
      "समय",
      "मा,</w>"
    ],
    [
      "योग",
      "्य</w>"
    ],
    [
      "२",
      "७</w>"
    ],
    [
      "न्ड",
      "र</w>"
    ],
    [
      "ब",
      "हि"
    ],
    [
      "न्",
      "तरण</w>"
    ],
    [
      "मानि",
      "स</w>"
    ],
    [
      "चा",
      "ल"
    ],
    [
      "२",
      "८</w>"
    ],
    [
      "ठाउँ",
      "मा</w>"
    ],
    [
      "नि",
      "रा"
    ],
    [
      "लि",
      "ङ्ग"
    ],
    [
      "द",
      "िएका</w>"
    ],
    [
      "प्रकाश",
      "ित</w>"
    ],
    [
      "इन्",
      "जि"
    ],
    [
      "का",
      ",</w>"
    ],
    [
      "रि",
      "स</w>"
    ],
    [
      "वित्",
      "तीय</w>"
    ],
    [
      "छ",
      "न्"
    ],
    [
      "तुल",
      "नामा</w>"
    ],
    [
      "सु",
      "निश्चित</w>"
    ],
    [
      "समा",
      "रो"
    ],
    [
      "भि",
      "डियो</w>"
    ],
    [
      "ग्री",
      "ष्"
    ],
    [
      "फ",
      "ल</w>"
    ],
    [
      "२००",
      "३</w>"
    ],
    [
      "एउ",
      "टै</w>"
    ],
    [
      "१",
      "४"
    ],
    [
      "कम",
      "्यु"
    ],
    [
      "ङ",
      "मा</w>"
    ],
    [
      "दि",
      "व"
    ],
    [
      "सम्भव",
      "तः</w>"
    ],
    [
      "त",
      "था"
    ],
    [
      "म",
      "्यु"
    ],
    [
      "श",
      "ा</w>"
    ],
    [
      "न्ड",
      "्रो"
    ],
    [
      "भ",
      "यो,</w>"
    ],
    [
      "त्",
      "ती"
    ],
    [
      "घट",
      "ना"
    ],
    [
      "लगा",
      "उन</w>"
    ],
    [
      "घन्",
      "टा"
    ],
    [
      "अधि",
      "कार</w>"
    ],
    [
      "न्",
      "तर</w>"
    ],
    [
      "स्ता",
      "र</w>"
    ],
    [
      "तमि",
      "ल</w>"
    ],
    [
      "अ",
      "फि"
    ],
    [
      "अल",
      "ग</w>"
    ],
    [
      "अ",
      "सर</w>"
    ],
    [
      "बिक्र",
      "ी</w>"
    ],
    [
      "लि",
      "नोइ"
    ],
    [
      "सं",
      "ल"
    ],
    [
      "म",
      "ङ्ग"
    ],
    [
      "त्य",
      "</w>"
    ],
    [
      "मा",
      "मा</w>"
    ],
    [
      "सह",
      "ी</w>"
    ],
    [
      "न",
      "हरूको</w>"
    ],
    [
      "प",
      "वि"
    ],
    [
      "ह",
      "ल्"
    ],
    [
      "म",
      "त"
    ],
    [
      "आँ",
      "ध"
    ],
    [
      "कारा",
      "त्मक</w>"
    ],
    [
      "ल",
      "म</w>"
    ],
    [
      "ब",
      "ङ्ग"
    ],
    [
      "प्रतियोगि",
      "ता</w>"
    ],
    [
      "कु",
      "ञ्"
    ],
    [
      "सूच",
      "ी"
    ],
    [
      "गाह",
      "्रो</w>"
    ],
    [
      "न",
      "ल</w>"
    ],
    [
      "छ",
      "ा</w>"
    ],
    [
      "अन्त्य",
      "मा</w>"
    ],
    [
      "खेले",
      "का</w>"
    ],
    [
      "न्",
      "छन्</w>"
    ],
    [
      "उँ",
      "दा</w>"
    ],
    [
      "स",
      "ध"
    ],
    [
      "फि",
      "लि"
    ],
    [
      "उप",
      "करण"
    ],
    [
      "चिनिया",
      "ँ</w>"
    ],
    [
      "स्था",
      "यी</w>"
    ],
    [
      "ओ",
      "डि"
    ],
    [
      "चाँड",
      "ै</w>"
    ],
    [
      "पृ",
      "ष्ठ"
    ],
    [
      "नी",
      ",</w>"
    ],
    [
      "ना",
      "म"
    ],
    [
      "वि",
      "भाग"
    ],
    [
      "क",
      "्यु"
    ],
    [
      "ल्",
      "न</w>"
    ],
    [
      "इस्",
      "ला"
    ],
    [
      "ए",
      "पछि</w>"
    ],
    [
      "प्र",
      "ती"
    ],
    [
      "क्ष",
      "ति</w>"
    ],
    [
      "खे",
      "लि"
    ],
    [
      "अवस्था",
      "मा</w>"
    ],
    [
      "सि",
      "स</w>"
    ],
    [
      "मुस्लि",
      "म</w>"
    ],
    [
      "शा",
      "न्"
    ],
    [
      "ल",
      "स</w>"
    ],
    [
      "सो",
      "च्"
    ],
    [
      "सा",
      "न</w>"
    ],
    [
      "लगा",
      "नी</w>"
    ],
    [
      "मि",
      "श्र"
    ],
    [
      "पल्",
      "ट</w>"
    ],
    [
      "प्रतिश",
      "त</w>"
    ],
    [
      "टो",
      "र"
    ],
    [
      "ड",
      "र"
    ],
    [
      "राज्य",
      "का</w>"
    ],
    [
      "संस्",
      "करण"
    ],
    [
      "ब्र",
      "ो"
    ],
    [
      "युद्ध",
      "मा</w>"
    ],
    [
      "उँ",
      "छन्</w>"
    ],
    [
      "वि",
      "वि"
    ],
    [
      "क",
      "टि"
    ],
    [
      "ध",
      "्व"
    ],
    [
      "नि",
      "स्क"
    ],
    [
      "डब्ल",
      "्यु"
    ],
    [
      "श",
      "क्ति</w>"
    ],
    [
      "ली",
      "ले</w>"
    ],
    [
      "वि",
      "स्तार</w>"
    ],
    [
      "वा",
      "स"
    ],
    [
      "क्या",
      "न्"
    ],
    [
      "जना",
      "वर"
    ],
    [
      "बना",
      "यो।</w>"
    ],
    [
      "पा",
      "ठ"
    ],
    [
      "२००",
      "२</w>"
    ],
    [
      "पछा",
      "डि</w>"
    ],
    [
      "स",
      "िया"
    ],
    [
      "मु",
      "म्ब"
    ],
    [
      "ख",
      "रि"
    ],
    [
      "सा",
      "ं"
    ],
    [
      "ठा",
      "उँ</w>"
    ],
    [
      "उप",
      "त्य"
    ],
    [
      "मना",
      "इन्छ।</w>"
    ],
    [
      "कि",
      "ङ</w>"
    ],
    [
      "ज",
      "हा"
    ],
    [
      "अ",
      "सफल</w>"
    ],
    [
      "विरु",
      "द्ध"
    ],
    [
      "ज",
      "य"
    ],
    [
      "प",
      "ौ"
    ],
    [
      "इ",
      "ङ्ग"
    ],
    [
      "का",
      "य"
    ],
    [
      "सम्भा",
      "वित</w>"
    ],
    [
      "प",
      "ढ"
    ],
    [
      "गै",
      "र-"
    ],
    [
      "आँ",
      "खा"
    ],
    [
      "ती",
      "र्थ"
    ],
    [
      "प्रधान",
      "मन्त्री</w>"
    ],
    [
      "सम",
      "े"
    ],
    [
      "स",
      "नले</w>"
    ],
    [
      "पनि",
      ",</w>"
    ],
    [
      "ग्र",
      "ह</w>"
    ],
    [
      "ति",
      "हरू</w>"
    ],
    [
      "ै",
      "लाई</w>"
    ],
    [
      "स",
      "ट्टा</w>"
    ],
    [
      "अ",
      "नि"
    ],
    [
      "ए",
      ",</w>"
    ],
    [
      "शीर्",
      "ष</w>"
    ],
    [
      "मार्",
      "ग"
    ],
    [
      "पु",
      "ऱ्या"
    ],
    [
      "सक्",
      "द"
    ],
    [
      "त",
      "े</w>"
    ],
    [
      "स्त",
      "ै</w>"
    ],
    [
      "पू",
      "जा</w>"
    ],
    [
      "परे",
      "का</w>"
    ],
    [
      "फ",
      "ल"
    ],
    [
      "परि",
      "ष"
    ],
    [
      "ग्र",
      "ह"
    ],
    [
      "अवधि",
      "मा</w>"
    ],
    [
      "खेलकु",
      "द</w>"
    ],
    [
      "ेर",
      "े"
    ],
    [
      "गा",
      "र्"
    ],
    [
      "पु",
      "र्"
    ],
    [
      "शि",
      "ला"
    ],
    [
      "को",
      ",</w>"
    ],
    [
      "क",
      "ट"
    ],
    [
      "क्षेत्र",
      "का</w>"
    ],
    [
      "जा",
      "ने</w>"
    ],
    [
      "प्रेर",
      "ित</w>"
    ],
    [
      "बि",
      "ना</w>"
    ],
    [
      "पर्य",
      "ट"
    ],
    [
      "भार",
      "ी</w>"
    ],
    [
      "व्यव",
      "साय"
    ],
    [
      "मि",
      "लियन</w>"
    ],
    [
      "क्",
      "टर"
    ],
    [
      "भ",
      "मा</w>"
    ],
    [
      "क",
      "ट</w>"
    ],
    [
      ".",
      "</w>"
    ],
    [
      "र्",
      "य</w>"
    ],
    [
      "उपा",
      "धि</w>"
    ],
    [
      "स्त",
      "र</w>"
    ],
    [
      "सूच",
      "ी</w>"
    ],
    [
      "ल",
      "ङ्"
    ],
    [
      "कार",
      "को</w>"
    ],
    [
      "थुप्र",
      "ै</w>"
    ],
    [
      "ज",
      "े</w>"
    ],
    [
      "बच",
      "त</w>"
    ],
    [
      "युरोपे",
      "ली</w>"
    ],
    [
      "न",
      "द्वारा</w>"
    ],
    [
      "रा",
      "म</w>"
    ],
    [
      "ग",
      "ल्"
    ],
    [
      "वर्ष",
      "ा</w>"
    ],
    [
      "शास्त्र",
      "ीय</w>"
    ],
    [
      "टा",
      "उ"
    ],
    [
      "वि",
      "कि"
    ],
    [
      "य",
      "मा</w>"
    ],
    [
      "देखे",
      "र</w>"
    ],
    [
      "मेर",
      "ा</w>"
    ],
    [
      "सध",
      "ैँ</w>"
    ],
    [
      "स्",
      "के"
    ],
    [
      "मानिस",
      "हरूको</w>"
    ],
    [
      "नि",
      "जी</w>"
    ],
    [
      "ण",
      "ले</w>"
    ],
    [
      "ज",
      "नको</w>"
    ],
    [
      "जि",
      "म्मे"
    ],
    [
      "े",
      "का</w>"
    ],
    [
      "छु",
      "ट्ट"
    ],
    [
      "द",
      "को</w>"
    ],
    [
      "पा",
      "ल"
    ],
    [
      "अव",
      "स्था</w>"
    ],
    [
      "ट",
      "रको</w>"
    ],
    [
      "पा",
      "नीको</w>"
    ],
    [
      "टि",
      "न</w>"
    ],
    [
      "न",
      "ियाको</w>"
    ],
    [
      "सम",
      "्रा"
    ],
    [
      "बि",
      "हा"
    ],
    [
      "आफ्",
      "नी</w>"
    ],
    [
      "ल्",
      "ड"
    ],
    [
      "परी",
      "क्षण</w>"
    ],
    [
      "महि",
      "ना"
    ],
    [
      "ग",
      "ृ"
    ],
    [
      "च्",
      "च"
    ],
    [
      "क",
      "ीय</w>"
    ],
    [
      "का",
      "ल</w>"
    ],
    [
      "हि",
      "मा"
    ],
    [
      "आन्द",
      "ो"
    ],
    [
      "नि",
      "ष्"
    ],
    [
      "क्",
      "की</w>"
    ],
    [
      "व",
      "ी</w>"
    ],
    [
      "पवि",
      "त्र</w>"
    ],
    [
      "१९७",
      "०</w>"
    ],
    [
      "क",
      "डा</w>"
    ],
    [
      "संस्",
      "करण</w>"
    ],
    [
      "नगरपालि",
      "काको</w>"
    ],
    [
      "ब",
      "जे"
    ],
    [
      "स",
      "नको</w>"
    ],
    [
      "शा",
      "ही</w>"
    ],
    [
      "भ्रम",
      "ण</w>"
    ],
    [
      "स",
      "ीले</w>"
    ],
    [
      "पा",
      "ण्ड"
    ],
    [
      "्य",
      "ु</w>"
    ],
    [
      "अध्य",
      "य"
    ],
    [
      "िय",
      "ल</w>"
    ],
    [
      "म",
      "ि</w>"
    ],
    [
      "त्",
      "त"
    ],
    [
      "बा",
      "ध्य</w>"
    ],
    [
      "ला",
      ",</w>"
    ],
    [
      "दिल्",
      "ली</w>"
    ],
    [
      "स",
      "द्वारा</w>"
    ],
    [
      "वस्तु",
      "हरू</w>"
    ],
    [
      "तपाईँ",
      "सँग</w>"
    ],
    [
      "वि",
      "द्"
    ],
    [
      "१९९",
      "९</w>"
    ],
    [
      "एक",
      "ल</w>"
    ],
    [
      "हा",
      "मी</w>"
    ],
    [
      "जाँ",
      "च</w>"
    ],
    [
      "स",
      "म</w>"
    ],
    [
      "ग्रीष्",
      "म"
    ],
    [
      "अर्",
      "का"
    ],
    [
      "न्य",
      "ू"
    ],
    [
      "जन",
      "क</w>"
    ],
    [
      "स",
      "क्रिय</w>"
    ],
    [
      "व",
      "को</w>"
    ],
    [
      "द",
      "ुर"
    ],
    [
      "फिल्",
      "मको</w>"
    ],
    [
      "व्या",
      "पार</w>"
    ],
    [
      "ौ",
      "ँ"
    ],
    [
      "परि",
      "वार</w>"
    ],
    [
      "यु",
      "वा</w>"
    ],
    [
      "हा",
      "ल</w>"
    ],
    [
      "जोखि",
      "म</w>"
    ],
    [
      "दर",
      "बार"
    ],
    [
      "क",
      "हाँ</w>"
    ],
    [
      "उल्लेख",
      "नीय</w>"
    ],
    [
      "निर्देश",
      "क</w>"
    ],
    [
      "मे",
      "ल"
    ],
    [
      "व",
      "य"
    ],
    [
      "बा",
      "ढ"
    ],
    [
      "वृ",
      "द्धि</w>"
    ],
    [
      "ज",
      "टि"
    ],
    [
      "भि",
      "न्न"
    ],
    [
      "हुन्",
      ",</w>"
    ],
    [
      "स्टे",
      "सन</w>"
    ],
    [
      "फ्रान्से",
      "ली</w>"
    ],
    [
      "ल",
      "िएका</w>"
    ],
    [
      "तर्",
      "फ</w>"
    ],
    [
      "न्ड",
      "े"
    ],
    [
      "सम्",
      "ममा</w>"
    ],
    [
      "से",
      "ट</w>"
    ],
    [
      "प्",
      "ला"
    ],
    [
      "प्रान्त",
      "को</w>"
    ],
    [
      "विश्व",
      "व्यापी</w>"
    ],
    [
      "सके",
      "को</w>"
    ],
    [
      "क",
      "बाट</w>"
    ],
    [
      "सर",
      "कारी</w>"
    ],
    [
      "व्यव",
      "हार</w>"
    ],
    [
      "औष",
      "धि"
    ],
    [
      "र",
      "न</w>"
    ],
    [
      "पु",
      "ष्टि</w>"
    ],
    [
      "गु",
      "ण"
    ],
    [
      "ट",
      "िए"
    ],
    [
      "खु",
      "सी</w>"
    ],
    [
      "ज",
      "ला"
    ],
    [
      "बा",
      "लि"
    ],
    [
      "सम्पर्",
      "क</w>"
    ],
    [
      "मो",
      "ह"
    ],
    [
      "गति",
      "विधि"
    ],
    [
      "सि",
      "द्धा"
    ],
    [
      "का",
      "ँ"
    ],
    [
      "वि",
      "धि</w>"
    ],
    [
      "प्रत्य",
      "क्ष</w>"
    ],
    [
      "घ",
      "रेल"
    ],
    [
      "गा",
      "य"
    ],
    [
      "निर्देश",
      "ित</w>"
    ],
    [
      "८",
      "०</w>"
    ],
    [
      "च",
      "को</w>"
    ],
    [
      "गर्नु",
      "पर्छ।</w>"
    ],
    [
      "ब",
      "से"
    ],
    [
      "भइ",
      "रहेको</w>"
    ],
    [
      "इ",
      "लिनोइ"
    ],
    [
      "किन",
      "मेल</w>"
    ],
    [
      "आ",
      "कर्ष"
    ],
    [
      "सि",
      "जन</w>"
    ],
    [
      "ह्",
      "म"
    ],
    [
      "एस",
      "ियाली</w>"
    ],
    [
      "के",
      "का</w>"
    ],
    [
      "नी",
      "का</w>"
    ],
    [
      "का",
      "ग"
    ],
    [
      "बा",
      "र्"
    ],
    [
      "बे",
      "ल्"
    ],
    [
      "था",
      "ल्"
    ],
    [
      "कर्",
      "ता</w>"
    ],
    [
      "बु",
      "बा"
    ],
    [
      "ब",
      "लि"
    ],
    [
      "पु",
      "ग"
    ],
    [
      "मात्र",
      "ामा</w>"
    ],
    [
      "अप",
      "रा"
    ],
    [
      "प्रति",
      "स्थापन</w>"
    ],
    [
      "नभए",
      "सम्म</w>"
    ],
    [
      "निर्",
      "भर</w>"
    ],
    [
      "य",
      "े"
    ],
    [
      "बाँ",
      "ध"
    ],
    [
      "उ",
      "ठा"
    ],
    [
      "नि",
      "स</w>"
    ],
    [
      "बने",
      "का</w>"
    ],
    [
      "स",
      "िया</w>"
    ],
    [
      "सु",
      "झा"
    ],
    [
      "ज्ञा",
      "त</w>"
    ],
    [
      "ती",
      "व"
    ],
    [
      "से",
      "न्ट</w>"
    ],
    [
      "व",
      "स्त"
    ],
    [
      "क्ष",
      "र</w>"
    ],
    [
      "ल",
      "डाइ"
    ],
    [
      "क",
      "थ"
    ],
    [
      "शिला",
      "लेख"
    ],
    [
      "यो",
      "जना"
    ],
    [
      "पुरस्",
      "कार"
    ],
    [
      "प्रति",
      "क्रिया</w>"
    ],
    [
      "त्",
      "स"
    ],
    [
      "वा",
      "सी</w>"
    ],
    [
      "था",
      "ल"
    ],
    [
      "ह",
      "त"
    ],
    [
      "त",
      "न</w>"
    ],
    [
      "ार",
      "ी"
    ],
    [
      "नजि",
      "क</w>"
    ],
    [
      "२०",
      "०</w>"
    ],
    [
      "१९९",
      "८</w>"
    ],
    [
      "प्र",
      "श्"
    ],
    [
      "स",
      "बाट</w>"
    ],
    [
      "सि",
      "टी</w>"
    ],
    [
      "व्यक्ति",
      "लाई</w>"
    ],
    [
      "विभा",
      "जित</w>"
    ],
    [
      "बना",
      "ए।</w>"
    ],
    [
      "नागरि",
      "क</w>"
    ],
    [
      "नाट",
      "क</w>"
    ],
    [
      "खेल्",
      "न</w>"
    ],
    [
      "ब",
      "लियो</w>"
    ],
    [
      "स्",
      "क</w>"
    ],
    [
      "ह",
      "ृ"
    ],
    [
      "वर्ष",
      "मा</w>"
    ],
    [
      "छि",
      "टो</w>"
    ],
    [
      "न्या",
      "या"
    ],
    [
      "सफ्ट",
      "वे"
    ],
    [
      "ब्रा",
      "जि"
    ],
    [
      "भ",
      "विष"
    ],
    [
      "घरेल",
      "ु</w>"
    ],
    [
      "स्थि",
      "ति"
    ],
    [
      "नी",
      "लाई</w>"
    ],
    [
      "वा",
      "स्तु"
    ],
    [
      "सन्द",
      "र्"
    ],
    [
      "स",
      "सँग</w>"
    ],
    [
      "भुक्ता",
      "नी</w>"
    ],
    [
      "चि",
      "सो</w>"
    ],
    [
      "स्",
      "पि"
    ],
    [
      "से",
      "ल्"
    ],
    [
      "नु",
      "हुन्छ</w>"
    ],
    [
      "वस्त",
      "ु</w>"
    ],
    [
      "प्रो",
      "ग्रा"
    ],
    [
      "तथा",
      "पि,</w>"
    ],
    [
      "का",
      "इ"
    ],
    [
      "स्टे",
      "डिय"
    ],
    [
      "इ",
      "लाका</w>"
    ],
    [
      "ब",
      "जार"
    ],
    [
      "स्ट",
      "्रि"
    ],
    [
      "सु",
      "न्द"
    ],
    [
      "स्ट",
      "र्"
    ],
    [
      "प्रशं",
      "सा</w>"
    ],
    [
      "प्र",
      "देश</w>"
    ],
    [
      "ुर",
      "े"
    ],
    [
      "श्र",
      "ी</w>"
    ],
    [
      "ग",
      "न</w>"
    ],
    [
      "ृ",
      "त</w>"
    ],
    [
      "न",
      "-"
    ],
    [
      "परी",
      "क्ष"
    ],
    [
      "ऋ",
      "ण</w>"
    ],
    [
      "दश",
      "कको</w>"
    ],
    [
      "डि",
      "भि"
    ],
    [
      "पुन",
      "ः</w>"
    ],
    [
      "वर्ष",
      "सम्म</w>"
    ],
    [
      "लक्ष",
      "णहरू</w>"
    ],
    [
      "ष्",
      "ठा"
    ],
    [
      "वि",
      "जे"
    ],
    [
      "व्यव",
      "स्थापन</w>"
    ],
    [
      "गर्",
      "छन्,</w>"
    ],
    [
      "स",
      "हि"
    ],
    [
      "पहि",
      "लो"
    ],
    [
      "अभिने",
      "ता</w>"
    ],
    [
      "मात्र",
      "ै</w>"
    ],
    [
      "क",
      "ौ"
    ],
    [
      "से",
      "न्"
    ],
    [
      "ब्या",
      "क्"
    ],
    [
      "बि",
      "ता"
    ],
    [
      "सा",
      "त</w>"
    ],
    [
      "सम",
      "ध्य"
    ],
    [
      "अ",
      "म्"
    ],
    [
      "चार",
      "िक</w>"
    ],
    [
      "राम",
      "्रो"
    ],
    [
      "जि",
      "त्य"
    ],
    [
      "ज",
      "िय"
    ],
    [
      "ड्रा",
      "इ"
    ],
    [
      "समध्य",
      "े</w>"
    ],
    [
      "डिजा",
      "इन</w>"
    ],
    [
      "हृ",
      "द"
    ],
    [
      "७",
      "०</w>"
    ],
    [
      "ब्",
      "लि"
    ],
    [
      "क्यान्",
      "सर"
    ],
    [
      "भू",
      "त</w>"
    ],
    [
      "लाग",
      "ु</w>"
    ],
    [
      "भाइ",
      "</w>"
    ],
    [
      "ह",
      "ल</w>"
    ],
    [
      "शृङ्ख",
      "ला</w>"
    ],
    [
      "उ",
      "ठ"
    ],
    [
      "भू",
      "मि</w>"
    ],
    [
      "मानि",
      "त</w>"
    ],
    [
      "श",
      "ङ्"
    ],
    [
      "ने",
      "सनल</w>"
    ],
    [
      "प",
      "हे"
    ],
    [
      "विद",
      "्यु"
    ],
    [
      "शि",
      "क्षा</w>"
    ],
    [
      "का",
      "म"
    ],
    [
      "एल्ब",
      "म</w>"
    ],
    [
      "दि",
      "नमा</w>"
    ],
    [
      "नजिकै",
      "को</w>"
    ],
    [
      "हु",
      "र्"
    ],
    [
      "जर्म",
      "न</w>"
    ],
    [
      "म",
      "स्ति"
    ],
    [
      "इन्ड",
      "ो"
    ],
    [
      "शा",
      "सित</w>"
    ],
    [
      "य",
      "त</w>"
    ],
    [
      "ना",
      "मको</w>"
    ],
    [
      "ँ",
      ",</w>"
    ],
    [
      "ट",
      "लाई</w>"
    ],
    [
      "काउन्ट",
      "ी</w>"
    ],
    [
      "हेर्",
      "न</w>"
    ],
    [
      "मस्ति",
      "ष्"
    ],
    [
      "ब",
      "स्थ"
    ],
    [
      "भि",
      "टा"
    ],
    [
      "ि",
      "स</w>"
    ],
    [
      "निर",
      "न्तर</w>"
    ],
    [
      "कि",
      "शो"
    ],
    [
      "फिल्",
      "म"
    ],
    [
      "समय",
      "का</w>"
    ],
    [
      "सर्",
      "वो"
    ],
    [
      "अ",
      "ङ्क</w>"
    ],
    [
      "त्र",
      "ी</w>"
    ],
    [
      "सह",
      "री</w>"
    ],
    [
      "रि",
      "पोर्ट</w>"
    ],
    [
      "क्",
      "वि"
    ],
    [
      "ओलम्पि",
      "कमा</w>"
    ],
    [
      "च",
      "न्द"
    ],
    [
      "साम्राज्य",
      "को</w>"
    ],
    [
      "श्र",
      "ृङ्ख"
    ],
    [
      "ह",
      "त्या</w>"
    ],
    [
      "वि",
      "ष्ण"
    ],
    [
      "छि",
      "मे"
    ],
    [
      "वर",
      "ण</w>"
    ],
    [
      "दि",
      "न्छन्।</w>"
    ],
    [
      "पदा",
      "र्थ"
    ],
    [
      "भ",
      "ण्ड"
    ],
    [
      "१९",
      "०"
    ],
    [
      "सु",
      "ल्"
    ],
    [
      "वि",
      "शा"
    ],
    [
      "चलचित्र",
      "मा</w>"
    ],
    [
      "आ",
      "ई"
    ],
    [
      "के",
      "को</w>"
    ],
    [
      "ङ",
      "का</w>"
    ],
    [
      "स्ट",
      "ु"
    ],
    [
      "को",
      "शि"
    ],
    [
      "छो",
      "री</w>"
    ],
    [
      "गढ",
      "</w>"
    ],
    [
      "हर",
      "ण</w>"
    ],
    [
      "प",
      "चारिक</w>"
    ],
    [
      "कमजो",
      "र</w>"
    ],
    [
      "च",
      "र</w>"
    ],
    [
      "सं",
      "यो"
    ],
    [
      "सि",
      "ल</w>"
    ],
    [
      "मो",
      "डे"
    ],
    [
      "प",
      "हरू</w>"
    ],
    [
      "स्रो",
      "त</w>"
    ],
    [
      "ग",
      "हि"
    ],
    [
      "जो",
      "ड्"
    ],
    [
      "को",
      "ड</w>"
    ],
    [
      "क्",
      "टर</w>"
    ],
    [
      "रेल",
      "वे</w>"
    ],
    [
      "म्या",
      "क"
    ],
    [
      "प",
      "ति"
    ],
    [
      "ध",
      "ो"
    ],
    [
      "ता",
      "लमा</w>"
    ],
    [
      "आफू",
      "ले</w>"
    ],
    [
      "ङ",
      "ले</w>"
    ],
    [
      "न",
      "िएको</w>"
    ],
    [
      "दश",
      "क"
    ],
    [
      "न",
      "क</w>"
    ],
    [
      "क्रा",
      "न्"
    ],
    [
      "इन्",
      "छ</w>"
    ],
    [
      "मन्दि",
      "र"
    ],
    [
      "ब्या",
      "ङ्क</w>"
    ],
    [
      "वर्ग",
      "ी"
    ],
    [
      "सं",
      "सद"
    ],
    [
      "ण",
      "लाई</w>"
    ],
    [
      "जिते",
      "को</w>"
    ],
    [
      "न",
      "ै"
    ],
    [
      "च",
      "न</w>"
    ],
    [
      "स्",
      "वर्"
    ],
    [
      "प्रति",
      "बन्ध"
    ],
    [
      "घ",
      "टा"
    ],
    [
      "पहि",
      "चा"
    ],
    [
      "कले",
      "ज</w>"
    ],
    [
      "ए",
      "पि"
    ],
    [
      "मे",
      "क्सि"
    ],
    [
      "ियो",
      ",</w>"
    ],
    [
      "ना",
      "थ"
    ],
    [
      "शी",
      "ल</w>"
    ],
    [
      "भ",
      "्"
    ],
    [
      "ल्",
      "ने</w>"
    ],
    [
      "हि",
      "ँ"
    ],
    [
      "अमेरि",
      "का</w>"
    ],
    [
      "सङ्क्रम",
      "ण</w>"
    ],
    [
      "रा",
      "ग"
    ],
    [
      "हि",
      "क</w>"
    ],
    [
      "ड",
      "ीको</w>"
    ],
    [
      "जापा",
      "नी</w>"
    ],
    [
      "बे",
      "च्"
    ],
    [
      "ष्ण",
      "कटि"
    ],
    [
      "$",
      "</w>"
    ],
    [
      "छ",
      "नोट</w>"
    ],
    [
      "संल",
      "ग्न</w>"
    ],
    [
      "भविष",
      "्य"
    ],
    [
      "ए",
      "न्ड</w>"
    ],
    [
      "स्",
      "कुल</w>"
    ],
    [
      "निर्",
      "मित</w>"
    ],
    [
      "आ",
      "पूर्"
    ],
    [
      "चे",
      "स</w>"
    ],
    [
      "भनि",
      "न्छ,</w>"
    ],
    [
      "स",
      "नमा</w>"
    ],
    [
      "स",
      "न्तु"
    ],
    [
      "क",
      "-"
    ],
    [
      "पश्चि",
      "ममा</w>"
    ],
    [
      "छा",
      "या"
    ],
    [
      "रा",
      "को</w>"
    ],
    [
      "क्षेत्र",
      "हरू</w>"
    ],
    [
      "जिते",
      "।</w>"
    ],
    [
      "म्या",
      "न"
    ],
    [
      "चो",
      "ट"
    ],
    [
      "१९९",
      "६</w>"
    ],
    [
      "ल",
      "हरूमा</w>"
    ],
    [
      "मे",
      "न्ट</w>"
    ],
    [
      "घा",
      "ँ"
    ],
    [
      "ब्या",
      "न्ड</w>"
    ],
    [
      "डे",
      "ल्"
    ],
    [
      "स्व",
      "रूप</w>"
    ],
    [
      "ब",
      "को</w>"
    ],
    [
      "र",
      "च"
    ],
    [
      "स्ट",
      "्रा"
    ],
    [
      "अभ्या",
      "स</w>"
    ],
    [
      "मान्",
      "यता</w>"
    ],
    [
      "नि",
      "को</w>"
    ],
    [
      "भाग",
      "हरूमा</w>"
    ],
    [
      "स",
      "-"
    ],
    [
      "न्स",
      "र</w>"
    ],
    [
      "ग",
      "ति</w>"
    ],
    [
      "सां",
      "स्"
    ],
    [
      "आ",
      "य"
    ],
    [
      "क्र",
      "्या"
    ],
    [
      "पो",
      "लि"
    ],
    [
      "ग्रीष्म",
      "कालीन</w>"
    ],
    [
      "कुरा",
      "मा</w>"
    ],
    [
      "ती",
      "को</w>"
    ],
    [
      "प्र",
      "हार</w>"
    ],
    [
      "या",
      "त</w>"
    ],
    [
      "चार",
      "वटा</w>"
    ],
    [
      "भण्ड",
      "ार"
    ],
    [
      "सु",
      "विधा"
    ],
    [
      "मणि",
      "पुर"
    ],
    [
      "नि",
      "।</w>"
    ],
    [
      "लिए",
      "।</w>"
    ],
    [
      "ना",
      "लाई</w>"
    ],
    [
      "सि",
      "न्ध"
    ],
    [
      "९",
      "०</w>"
    ],
    [
      "ग",
      "ए।</w>"
    ],
    [
      "चिकित्",
      "सा</w>"
    ],
    [
      "बा",
      "सि"
    ],
    [
      "तरि",
      "का</w>"
    ],
    [
      "१९९",
      "२</w>"
    ],
    [
      "खा",
      "न</w>"
    ],
    [
      "ती",
      "य"
    ],
    [
      "सड",
      "क</w>"
    ],
    [
      "विश्व",
      "विद्यालय</w>"
    ],
    [
      "डे",
      "भि"
    ],
    [
      "ने",
      ",</w>"
    ],
    [
      "ता",
      "न</w>"
    ],
    [
      "ज",
      "वा"
    ],
    [
      "त",
      "ट"
    ],
    [
      "कम्प",
      "नीको</w>"
    ],
    [
      "कुमा",
      "र</w>"
    ],
    [
      "जी",
      "वित</w>"
    ],
    [
      "मा",
      "झ"
    ],
    [
      "र",
      "ञ्"
    ],
    [
      "समय",
      "सम्म</w>"
    ],
    [
      "द",
      "ियो।</w>"
    ],
    [
      "होइन",
      "।</w>"
    ],
    [
      "रे",
      "खा"
    ],
    [
      "निया",
      "मा</w>"
    ],
    [
      "‍",
      "या"
    ],
    [
      "स्वतन्त्र",
      "ता</w>"
    ],
    [
      "शीर्",
      "ष"
    ],
    [
      "जित्य",
      "ो।</w>"
    ],
    [
      "गे",
      "म</w>"
    ],
    [
      "विभा",
      "जन</w>"
    ],
    [
      "नि",
      "त</w>"
    ],
    [
      "ँद",
      "ैन।</w>"
    ],
    [
      "जिल्ला",
      "मा</w>"
    ],
    [
      "भए",
      "काले</w>"
    ],
    [
      "समुद्र",
      "ी</w>"
    ],
    [
      "ब्",
      "लु"
    ],
    [
      "डि",
      "ग्री</w>"
    ],
    [
      "यौ",
      "न</w>"
    ],
    [
      "ए",
      "नि"
    ],
    [
      "सब",
      "र्"
    ],
    [
      "शि",
      "क्षा"
    ],
    [
      "दा",
      "बी</w>"
    ],
    [
      "थिइ",
      "न्</w>"
    ],
    [
      "श",
      "ल्य"
    ],
    [
      "वार",
      "ी</w>"
    ],
    [
      "गरि",
      "न्छ,</w>"
    ],
    [
      "निर्",
      "धारण</w>"
    ],
    [
      "त",
      "ब</w>"
    ],
    [
      "या",
      "ता"
    ],
    [
      "वा",
      "ता"
    ],
    [
      "नि",
      "कुञ्"
    ],
    [
      "उ",
      "सको</w>"
    ],
    [
      "शा",
      "ह"
    ],
    [
      "ग",
      "का</w>"
    ],
    [
      "ज",
      "समध्ये</w>"
    ],
    [
      "आ",
      "ग्रह</w>"
    ],
    [
      "प्रभाव",
      "कारी</w>"
    ],
    [
      "बि",
      "रा"
    ],
    [
      "म",
      "र</w>"
    ],
    [
      "सांस्",
      "कृतिक</w>"
    ],
    [
      "ती",
      "मा</w>"
    ],
    [
      "त",
      "ल्लो</w>"
    ],
    [
      "छ",
      ";</w>"
    ],
    [
      "पछ",
      "्या"
    ],
    [
      "द्",
      "धि"
    ],
    [
      "इ",
      "जि"
    ],
    [
      "ब",
      "द"
    ],
    [
      "प्रसार",
      "ण</w>"
    ],
    [
      "कृ",
      "ष्ण"
    ],
    [
      "मि",
      "लेर</w>"
    ],
    [
      "मि",
      "सि"
    ],
    [
      "माध्य",
      "मबाट</w>"
    ],
    [
      "क्",
      "वा"
    ],
    [
      "ए",
      "जे"
    ],
    [
      "था",
      "इ"
    ],
    [
      "हस्ता",
      "क्षर</w>"
    ],
    [
      "स",
      "ल्"
    ],
    [
      "रोक्",
      "न</w>"
    ],
    [
      "फ",
      "र"
    ],
    [
      "आ",
      "ग"
    ],
    [
      "रक्",
      "त"
    ],
    [
      "काय",
      "म</w>"
    ],
    [
      "खा",
      "द"
    ],
    [
      "न्त",
      "ै</w>"
    ],
    [
      "तीव",
      "्र</w>"
    ],
    [
      "जोड",
      "िएको</w>"
    ],
    [
      "सजि",
      "लो</w>"
    ],
    [
      "ल",
      ")</w>"
    ],
    [
      "ब्याक्",
      "टेर"
    ],
    [
      "जर्म",
      "नीको</w>"
    ],
    [
      "सा",
      "गर"
    ],
    [
      "गो",
      "ली</w>"
    ],
    [
      "र्",
      "जा</w>"
    ],
    [
      "सा",
      "धारण</w>"
    ],
    [
      "क",
      "िएको</w>"
    ],
    [
      "श",
      "ीत"
    ],
    [
      "रो",
      "गको</w>"
    ],
    [
      "गर्द",
      "छन्।</w>"
    ],
    [
      "मरा",
      "ठा</w>"
    ],
    [
      "ली",
      "का</w>"
    ],
    [
      "फाइन",
      "लमा</w>"
    ],
    [
      "प",
      "ल</w>"
    ],
    [
      "ेर",
      "ि"
    ],
    [
      "ब",
      "चा"
    ],
    [
      "बस्",
      "ने</w>"
    ],
    [
      "्य",
      "ारा"
    ],
    [
      "सक्",
      "छन्</w>"
    ],
    [
      "५",
      "००</w>"
    ],
    [
      "श्",
      "मी"
    ],
    [
      "इ",
      "लेक्"
    ],
    [
      "वि",
      "न्डो"
    ],
    [
      "हुनु",
      "</w>"
    ],
    [
      "ली",
      "लाई</w>"
    ],
    [
      "१९६",
      "०</w>"
    ],
    [
      "फै",
      "लिएको</w>"
    ],
    [
      "लेख",
      "िएको</w>"
    ],
    [
      "हिन्द",
      "ू"
    ],
    [
      "लगा",
      "इएको</w>"
    ],
    [
      "पुस्त",
      "क</w>"
    ],
    [
      "बना",
      "एका</w>"
    ],
    [
      "दृ",
      "ष्टि"
    ],
    [
      "ी",
      "हरूका</w>"
    ],
    [
      "भूमि",
      "कामा</w>"
    ],
    [
      "क्रि",
      "केट</w>"
    ],
    [
      "निय",
      "म"
    ],
    [
      "क्षेत्र",
      "ीय</w>"
    ],
    [
      "गर",
      "िए"
    ],
    [
      "दि",
      "क</w>"
    ],
    [
      "युनि",
      "भर्"
    ],
    [
      "विश्व",
      "को</w>"
    ],
    [
      "प्राथ",
      "मिक</w>"
    ],
    [
      "न्ड",
      "र"
    ],
    [
      "नेट",
      "वर्"
    ],
    [
      "कार्",
      "ड</w>"
    ],
    [
      "सिं",
      "ह</w>"
    ],
    [
      "ज",
      "ीको</w>"
    ],
    [
      "आक्रम",
      "ण"
    ],
    [
      "चलचित्र",
      "को</w>"
    ],
    [
      "लेखे",
      "का</w>"
    ],
    [
      "विश्वविद्यालय",
      "मा</w>"
    ],
    [
      "राम्रो",
      "सँग</w>"
    ],
    [
      "म्ब",
      "रमा</w>"
    ],
    [
      "३",
      "१</w>"
    ],
    [
      "से",
      "न्ट"
    ],
    [
      "त",
      "ना"
    ],
    [
      "स्वर्",
      "ण</w>"
    ],
    [
      "नी",
      "हरू</w>"
    ],
    [
      "स्ट",
      "्र"
    ],
    [
      "लु",
      "इ"
    ],
    [
      "से",
      "नाको</w>"
    ],
    [
      "निर्देश",
      "न</w>"
    ],
    [
      "साहि",
      "त्य"
    ],
    [
      "ह",
      "जार"
    ],
    [
      "मु",
      "क्त</w>"
    ],
    [
      "ब",
      "क्स</w>"
    ],
    [
      "हा",
      "त</w>"
    ],
    [
      "ली",
      "हरू</w>"
    ],
    [
      "लाग्",
      "छ।</w>"
    ],
    [
      "खु",
      "ट्टा"
    ],
    [
      "टि",
      "भ</w>"
    ],
    [
      "ँ",
      "लो</w>"
    ],
    [
      "बस्थ",
      "े।</w>"
    ],
    [
      "परिणा",
      "म</w>"
    ],
    [
      "नेतृ",
      "त्वमा</w>"
    ],
    [
      "सङ्क",
      "लन</w>"
    ],
    [
      "क",
      "मे"
    ],
    [
      "स",
      "े</w>"
    ],
    [
      "नि",
      "वृत्"
    ],
    [
      "न्",
      "थे।</w>"
    ],
    [
      "किन",
      "ारमा</w>"
    ],
    [
      "सम्",
      "मान</w>"
    ],
    [
      "आ",
      "देश</w>"
    ],
    [
      "सुरुवा",
      "त</w>"
    ],
    [
      "िय",
      "ार"
    ],
    [
      "पुगे",
      "को</w>"
    ],
    [
      "आ",
      "उने</w>"
    ],
    [
      "महा",
      "द्वी"
    ],
    [
      "न",
      "क्"
    ],
    [
      "सुर",
      "क्षा"
    ],
    [
      "देश",
      "मा</w>"
    ],
    [
      "फिल्",
      "ड</w>"
    ],
    [
      "टोली",
      "को</w>"
    ],
    [
      "ल",
      "ड्"
    ],
    [
      "सि",
      "न</w>"
    ],
    [
      "ग",
      "ार"
    ],
    [
      "आ",
      "ठ"
    ],
    [
      "आधार",
      "भूत</w>"
    ],
    [
      "समर्प",
      "ित</w>"
    ],
    [
      "कम्प्यु",
      "टर"
    ],
    [
      "मा",
      "लि"
    ],
    [
      "'",
      "'</w>"
    ],
    [
      "उद्देश",
      "्य"
    ],
    [
      "बाल",
      "बालि"
    ],
    [
      "शि",
      "व"
    ],
    [
      "आत्",
      "म"
    ],
    [
      "डे",
      "ब"
    ],
    [
      "गऱ",
      "्यो</w>"
    ],
    [
      "वि",
      "पर"
    ],
    [
      "स",
      "ल"
    ],
    [
      "बढ्",
      "दो</w>"
    ],
    [
      "र्",
      "स</w>"
    ],
    [
      "दर्",
      "ता</w>"
    ],
    [
      "आ",
      "ई</w>"
    ],
    [
      "कृष",
      "ि</w>"
    ],
    [
      "सह",
      "भाग"
    ],
    [
      "स",
      "मि"
    ],
    [
      "खेलाड",
      "ीहरूले</w>"
    ],
    [
      "हार",
      "को</w>"
    ],
    [
      "वर्ष",
      "ा"
    ],
    [
      "बन्ध",
      "ीय</w>"
    ],
    [
      "बि",
      "राम"
    ],
    [
      "क्र",
      "मित</w>"
    ],
    [
      "स",
      "चि"
    ],
    [
      "साझ",
      "ा</w>"
    ],
    [
      "अ",
      "शो"
    ],
    [
      "हुनु",
      "पर्छ।</w>"
    ],
    [
      "दि",
      "इन्छ।</w>"
    ],
    [
      "टा",
      "मा</w>"
    ],
    [
      "श",
      "ारी"
    ],
    [
      "जा",
      "न्छ।</w>"
    ],
    [
      "भिटा",
      "मिन</w>"
    ],
    [
      "ओ",
      "क्ला"
    ],
    [
      "ओक्ला",
      "हो"
    ],
    [
      "त्य",
      "सको</w>"
    ],
    [
      "दृश",
      "्य"
    ],
    [
      "कर",
      "ले</w>"
    ],
    [
      "बाहे",
      "क,</w>"
    ],
    [
      "उत्तर",
      "मा</w>"
    ],
    [
      "राख्",
      "ने</w>"
    ],
    [
      "अन्त्य",
      "</w>"
    ],
    [
      "कम्पनी",
      "ले</w>"
    ],
    [
      "सङ्ख्या",
      "मा</w>"
    ],
    [
      "ख",
      "तर"
    ],
    [
      "उँ",
      "छ,</w>"
    ],
    [
      "से",
      "तो</w>"
    ],
    [
      "निय",
      "महरू</w>"
    ],
    [
      "मि",
      "टर"
    ],
    [
      "को",
      "ठा"
    ],
    [
      "वि",
      "स्"
    ],
    [
      "शा",
      "ह</w>"
    ],
    [
      "अङ्ग्रे",
      "ज"
    ],
    [
      "उत्",
      "पत्ति</w>"
    ],
    [
      "युरो",
      "प"
    ],
    [
      "वि",
      "रोध</w>"
    ],
    [
      "व्यव",
      "स्थित</w>"
    ],
    [
      "द्र",
      "ा</w>"
    ],
    [
      "के",
      "टा"
    ],
    [
      "ण",
      ",</w>"
    ],
    [
      "तमिलना",
      "ड"
    ],
    [
      "च्",
      "छे"
    ],
    [
      "का",
      "लो</w>"
    ],
    [
      "नु",
      "पर्छ।</w>"
    ],
    [
      "अपे",
      "क्षा</w>"
    ],
    [
      "लय",
      "मा</w>"
    ],
    [
      "जा",
      "र</w>"
    ],
    [
      "विदेश",
      "ी</w>"
    ],
    [
      "द्वन्द",
      "्व"
    ],
    [
      "ला",
      "ले</w>"
    ],
    [
      "कानु",
      "नी</w>"
    ],
    [
      "सा",
      "उ"
    ],
    [
      "द्र",
      "ु"
    ],
    [
      "च",
      "रि"
    ],
    [
      "कार",
      "हरू</w>"
    ],
    [
      "जन",
      "का</w>"
    ],
    [
      "लेख",
      "्"
    ],
    [
      "दु",
      "ः"
    ],
    [
      "ना",
      "थ</w>"
    ],
    [
      "अग्",
      "लो</w>"
    ],
    [
      "रे",
      "ल</w>"
    ],
    [
      "छ",
      "?</w>"
    ],
    [
      "सि",
      "न्ड्रो"
    ],
    [
      "हल्",
      "का</w>"
    ],
    [
      "मा",
      "छा</w>"
    ],
    [
      "बस्",
      "छन्।</w>"
    ],
    [
      "ता",
      "पनि</w>"
    ],
    [
      "ख",
      "ित</w>"
    ],
    [
      "सेना",
      "ले</w>"
    ],
    [
      "पञ्",
      "जा"
    ],
    [
      "नद",
      "ीमा</w>"
    ],
    [
      "ज",
      "ै"
    ],
    [
      "बेला",
      "यत"
    ],
    [
      "न",
      "भएको</w>"
    ],
    [
      "चिनि",
      "न्छ।</w>"
    ],
    [
      "औष",
      "धि</w>"
    ],
    [
      "हा",
      "वा"
    ],
    [
      "ड",
      "र्"
    ],
    [
      "ज",
      "ुर"
    ],
    [
      "सा",
      "मा</w>"
    ],
    [
      "व्य",
      "क्त</w>"
    ],
    [
      "सि",
      "ट"
    ],
    [
      "चित्र",
      "ण</w>"
    ],
    [
      "स्थि",
      "र</w>"
    ],
    [
      "गल",
      "त</w>"
    ],
    [
      "यात्र",
      "ा"
    ],
    [
      "उनी",
      "सँग</w>"
    ],
    [
      "१९९",
      "४</w>"
    ],
    [
      "परि",
      "ण"
    ],
    [
      "बङ्ग",
      "ला"
    ],
    [
      "र्",
      "ड</w>"
    ],
    [
      "ता",
      "कि</w>"
    ],
    [
      "पि",
      "क</w>"
    ],
    [
      "र",
      "ङ</w>"
    ],
    [
      "बा",
      "यो"
    ],
    [
      "स्ट",
      "मा</w>"
    ],
    [
      "व्यापार",
      "िक</w>"
    ],
    [
      "राखे",
      "।</w>"
    ],
    [
      "क",
      "वि"
    ],
    [
      "प्रदेश",
      "को</w>"
    ],
    [
      "रा",
      "मा</w>"
    ],
    [
      "न्युयोर्",
      "क</w>"
    ],
    [
      "म्या",
      "न</w>"
    ],
    [
      "शारी",
      "रिक</w>"
    ],
    [
      "नद",
      "ी"
    ],
    [
      "लक्ष",
      "्य</w>"
    ],
    [
      "व्यक्ति",
      "ले</w>"
    ],
    [
      "सङ्",
      "क्रमित</w>"
    ],
    [
      "१९९",
      "३</w>"
    ],
    [
      "फ",
      "र</w>"
    ],
    [
      "बिन्द",
      "ु"
    ],
    [
      "क",
      "हरूमा</w>"
    ],
    [
      "गर",
      "ियो</w>"
    ],
    [
      "छ",
      "ैनन्।</w>"
    ],
    [
      "खेल्",
      "ने</w>"
    ],
    [
      "फिल्",
      "ममा</w>"
    ],
    [
      "सेवा",
      "निवृत्"
    ],
    [
      "पहिचा",
      "न</w>"
    ],
    [
      "घट",
      "ना</w>"
    ],
    [
      "१९९",
      "५</w>"
    ],
    [
      "उ",
      "ष्णकटि"
    ],
    [
      "दक्षिण",
      "मा</w>"
    ],
    [
      "म",
      "द</w>"
    ],
    [
      "माथि",
      "ल्लो</w>"
    ],
    [
      "गीत",
      "हरू</w>"
    ],
    [
      "राज",
      "</w>"
    ],
    [
      "ठ",
      "ो"
    ],
    [
      "खेल",
      "हरूमा</w>"
    ],
    [
      "चिकित्",
      "स"
    ],
    [
      "विष",
      "य"
    ],
    [
      "दै",
      "निक</w>"
    ],
    [
      "द्",
      "दा"
    ],
    [
      "ब",
      "लको</w>"
    ],
    [
      "खरि",
      "द</w>"
    ],
    [
      "सूची",
      "बद्ध</w>"
    ],
    [
      "क्यार",
      "ो"
    ],
    [
      "गर्द",
      "छ,</w>"
    ],
    [
      "र",
      "ीको</w>"
    ],
    [
      "लि",
      "खित</w>"
    ],
    [
      "प",
      "द्"
    ],
    [
      "आनन्द",
      "</w>"
    ],
    [
      "शै",
      "ली</w>"
    ],
    [
      "अरू",
      "</w>"
    ],
    [
      "को",
      "ष"
    ],
    [
      "प्रतियोगि",
      "ता"
    ],
    [
      "हा",
      "लको</w>"
    ],
    [
      "५",
      "०"
    ],
    [
      "सम्झौ",
      "ता</w>"
    ],
    [
      "च",
      "म्"
    ],
    [
      "हा",
      "सिल</w>"
    ],
    [
      "अ",
      "धी"
    ],
    [
      "शक्ति",
      "शाली</w>"
    ],
    [
      "उ",
      "र्"
    ],
    [
      "रह",
      "्यो।</w>"
    ],
    [
      "१",
      "."
    ],
    [
      "अवार्",
      "ड</w>"
    ],
    [
      "सल्ला",
      "ह"
    ],
    [
      "१९९",
      "७</w>"
    ],
    [
      "खेलाड",
      "ीहरू</w>"
    ],
    [
      "च",
      "रा"
    ],
    [
      "पुग्",
      "न</w>"
    ],
    [
      "भ",
      "रि"
    ],
    [
      "सकि",
      "ने</w>"
    ],
    [
      "मनो",
      "रञ्"
    ],
    [
      "भाइर",
      "स</w>"
    ],
    [
      "ड",
      "लाई</w>"
    ],
    [
      "कर",
      "ियर</w>"
    ],
    [
      "का",
      "ठ"
    ],
    [
      "ब",
      "मा</w>"
    ],
    [
      "अनु",
      "ष्ठा"
    ],
    [
      "न",
      "ग"
    ],
    [
      "आन्दो",
      "ल"
    ],
    [
      "ह",
      "क्की</w>"
    ],
    [
      "ता",
      "पूर्वक</w>"
    ],
    [
      "च्",
      "च</w>"
    ],
    [
      "रे",
      "टि"
    ],
    [
      "मा",
      "ंस"
    ],
    [
      "लि",
      "गमा</w>"
    ],
    [
      "ठ",
      "ो</w>"
    ],
    [
      "देव",
      "ी</w>"
    ],
    [
      "विज",
      "य</w>"
    ],
    [
      "सरकार",
      "को</w>"
    ],
    [
      "झ",
      "र्"
    ],
    [
      "कस",
      "ैले</w>"
    ],
    [
      "मू",
      "ल्या"
    ],
    [
      "चिनि",
      "ने</w>"
    ],
    [
      "मुद्",
      "दा</w>"
    ],
    [
      "दो",
      "ष"
    ],
    [
      "चो",
      "ट</w>"
    ],
    [
      "२",
      ","
    ],
    [
      "प्रा",
      "र्थ"
    ],
    [
      "ट्",
      "टी</w>"
    ],
    [
      "लिय",
      "ो।</w>"
    ],
    [
      "खु",
      "ला</w>"
    ],
    [
      "े",
      "श</w>"
    ],
    [
      "अ",
      "ङ्ग"
    ],
    [
      "संर",
      "च"
    ],
    [
      "हाम",
      "ीले</w>"
    ],
    [
      "आ",
      "शा</w>"
    ],
    [
      "र",
      "कम</w>"
    ],
    [
      "द्वि",
      "तीय</w>"
    ],
    [
      "सम्",
      "भव</w>"
    ],
    [
      "क",
      "हरूका</w>"
    ],
    [
      "भा",
      "ँ"
    ],
    [
      "रा",
      "तो</w>"
    ],
    [
      "पर्",
      "व</w>"
    ],
    [
      "न",
      "स</w>"
    ],
    [
      "मुद्",
      "दा"
    ],
    [
      "इतिहा",
      "स"
    ],
    [
      "त्र",
      "ु"
    ],
    [
      "रह",
      "न्छ।</w>"
    ],
    [
      "ट",
      "रमा</w>"
    ],
    [
      "सा",
      "हित</w>"
    ],
    [
      "विशा",
      "ल</w>"
    ],
    [
      "लगा",
      "तार</w>"
    ],
    [
      "ख",
      "न"
    ],
    [
      "मृत्यु",
      "को</w>"
    ],
    [
      "पाँच",
      "वटा</w>"
    ],
    [
      "एउ",
      "टी</w>"
    ],
    [
      "त",
      "ुरु"
    ],
    [
      "पर्द",
      "छ।</w>"
    ],
    [
      "ला",
      "न्"
    ],
    [
      "सङ्घ",
      "</w>"
    ],
    [
      "देखा",
      "इएको</w>"
    ],
    [
      "बि",
      "रु"
    ],
    [
      "न",
      "म्बर</w>"
    ],
    [
      "त",
      "ै"
    ],
    [
      "ऱ",
      "्यो।</w>"
    ],
    [
      "ले",
      "का</w>"
    ],
    [
      "आ",
      "मा</w>"
    ],
    [
      "प्रो",
      "त्"
    ],
    [
      "ढु",
      "ङ्गा"
    ],
    [
      "प",
      "ु</w>"
    ],
    [
      "रि",
      "प"
    ],
    [
      "पा",
      "त्र"
    ],
    [
      "ल",
      "भ</w>"
    ],
    [
      "सर्वो",
      "च्च</w>"
    ],
    [
      "ब्",
      "ल्या"
    ],
    [
      "उत्स",
      "व</w>"
    ],
    [
      "लाग",
      "ि"
    ],
    [
      "झ",
      "ि"
    ],
    [
      "आ",
      "र</w>"
    ],
    [
      "इ",
      "ड</w>"
    ],
    [
      "ब्या",
      "ङ्क"
    ],
    [
      "मांस",
      "पे"
    ],
    [
      "गर",
      "़"
    ],
    [
      "साझ",
      "े"
    ],
    [
      "क्षम",
      "ता</w>"
    ],
    [
      "वि",
      "पक्ष"
    ],
    [
      "ब",
      "हा"
    ],
    [
      "ब",
      "न्न</w>"
    ],
    [
      "ने",
      "ता</w>"
    ],
    [
      "ज",
      "लाई</w>"
    ],
    [
      "रण",
      "नी"
    ],
    [
      "बा",
      "ह"
    ],
    [
      "मो",
      "र्"
    ],
    [
      "ऊ",
      "</w>"
    ],
    [
      "गभर्",
      "नर</w>"
    ],
    [
      "चे",
      "न्न"
    ],
    [
      "परिण",
      "त</w>"
    ],
    [
      "व्यक्ति",
      "को</w>"
    ],
    [
      "क्",
      "सो"
    ],
    [
      "भारत",
      "ले</w>"
    ],
    [
      "सर",
      "कार</w>"
    ],
    [
      "सि",
      "पा"
    ],
    [
      "वास्त",
      "वमा</w>"
    ],
    [
      "बन्द",
      "र"
    ],
    [
      "जम्",
      "मा</w>"
    ],
    [
      "अ",
      "स्ति"
    ],
    [
      "भाषा",
      "को</w>"
    ],
    [
      "त्",
      "ति"
    ],
    [
      "परियो",
      "जना"
    ],
    [
      "स्त",
      "रमा</w>"
    ],
    [
      "घन्",
      "टा</w>"
    ],
    [
      "उनु",
      "होस्।</w>"
    ],
    [
      "स्ट",
      "्या"
    ],
    [
      "ी",
      "सँग</w>"
    ],
    [
      "परिवार",
      "का</w>"
    ],
    [
      "आवा",
      "ज</w>"
    ],
    [
      "चलचित्र",
      "हरूमा</w>"
    ],
    [
      "म",
      "सँग</w>"
    ],
    [
      "प्रतियोगि",
      "तामा</w>"
    ],
    [
      "आ",
      "ठ</w>"
    ],
    [
      "यस",
      "री</w>"
    ],
    [
      "जीव",
      "नको</w>"
    ],
    [
      "ख",
      "्या</w>"
    ],
    [
      "मुख",
      "्या"
    ],
    [
      "फि",
      "ट</w>"
    ],
    [
      "पारि",
      "वार"
    ],
    [
      "स्त",
      "ी</w>"
    ],
    [
      "स्",
      "कि"
    ],
    [
      "डि",
      "ङ</w>"
    ],
    [
      "वि",
      "ष्"
    ],
    [
      "विज",
      "य"
    ],
    [
      "पा",
      "उन</w>"
    ],
    [
      "द",
      "बा"
    ],
    [
      "से",
      "न</w>"
    ],
    [
      "ए",
      "लि"
    ],
    [
      "त",
      "ल"
    ],
    [
      "रू",
      "पा"
    ],
    [
      "पारिवार",
      "िक</w>"
    ],
    [
      "उ",
      "चाइ"
    ],
    [
      "निय",
      "म</w>"
    ],
    [
      "प्राय",
      ":</w>"
    ],
    [
      "खेल",
      "का</w>"
    ],
    [
      "श्रे",
      "ण"
    ],
    [
      "आफ",
      "ू</w>"
    ],
    [
      "िया",
      "र</w>"
    ],
    [
      "सम्",
      "मको</w>"
    ],
    [
      "कठ",
      "ि"
    ],
    [
      "ण",
      "िक</w>"
    ],
    [
      "उ",
      "न्"
    ],
    [
      "ठ",
      "ी</w>"
    ],
    [
      "गर्",
      "नेछ।</w>"
    ],
    [
      "सू",
      "र्"
    ],
    [
      "ड्",
      "स</w>"
    ],
    [
      "म",
      "ल</w>"
    ],
    [
      "स्",
      "मि"
    ],
    [
      "सी",
      "मा"
    ],
    [
      "प्रि",
      "म"
    ],
    [
      "खेलाड",
      "ीले</w>"
    ],
    [
      "पि",
      "ङ</w>"
    ],
    [
      "पहे",
      "ँलो</w>"
    ],
    [
      "साथ",
      "मा</w>"
    ],
    [
      "मन",
      "सु"
    ],
    [
      "सके",
      "का</w>"
    ],
    [
      "आ",
      "धा</w>"
    ],
    [
      "अफ",
      "गा"
    ],
    [
      "साँ",
      "च्च"
    ],
    [
      "परिणा",
      "म"
    ],
    [
      "से",
      "ल</w>"
    ],
    [
      "बि",
      "जु"
    ],
    [
      "लाग",
      "्यो।</w>"
    ],
    [
      "ला",
      "ख"
    ],
    [
      "बोर्",
      "ड</w>"
    ],
    [
      "लि",
      "ङ</w>"
    ],
    [
      "हुने",
      "छ</w>"
    ],
    [
      "या",
      ",</w>"
    ],
    [
      "से",
      "के"
    ],
    [
      "एक",
      "द"
    ],
    [
      "के",
      "ह"
    ],
    [
      "समा",
      "धान</w>"
    ],
    [
      "म",
      "ई</w>"
    ],
    [
      "जीव",
      "न"
    ],
    [
      "साथ",
      "ी</w>"
    ],
    [
      "द्रु",
      "त</w>"
    ],
    [
      "क्या",
      "न्सर</w>"
    ],
    [
      "सं",
      "स्थाप"
    ],
    [
      "ते",
      "लु"
    ],
    [
      "र",
      "ी,</w>"
    ],
    [
      "साम",
      "ग्र"
    ],
    [
      "देख",
      "्न</w>"
    ],
    [
      "पा",
      "त</w>"
    ],
    [
      "डे",
      "मो"
    ],
    [
      "पार्",
      "टी</w>"
    ],
    [
      "विष्ण",
      "ु"
    ],
    [
      "म्",
      "बा"
    ],
    [
      "प",
      "ा</w>"
    ],
    [
      "औ",
      "ँ"
    ],
    [
      "ग्रा",
      "मी"
    ],
    [
      "वि",
      "वरण"
    ],
    [
      "स",
      "्रा"
    ],
    [
      "गरि",
      "न्थ्यो।</w>"
    ],
    [
      "वि",
      "लिय"
    ],
    [
      "प्रशिक्ष",
      "ण</w>"
    ],
    [
      "अत्य",
      "धिक</w>"
    ],
    [
      "घा",
      "इ"
    ],
    [
      "ड",
      "्रि"
    ],
    [
      "की",
      "र्"
    ],
    [
      "ज",
      "हाँ"
    ],
    [
      "इन्ड",
      "िया</w>"
    ],
    [
      "विज्ञा",
      "न</w>"
    ],
    [
      "निर्",
      "धार"
    ],
    [
      "त",
      "न्त्र</w>"
    ],
    [
      "ग्र",
      "न्थ"
    ],
    [
      "जा",
      "ँदा</w>"
    ],
    [
      "आ",
      "द"
    ],
    [
      "१९४",
      "७</w>"
    ],
    [
      "ग",
      "एको</w>"
    ],
    [
      "व्या",
      "ख्या</w>"
    ],
    [
      "लय",
      "को</w>"
    ],
    [
      "ए",
      "के"
    ],
    [
      "ज",
      "िए"
    ],
    [
      "डा",
      "य"
    ],
    [
      "ए",
      "सो"
    ],
    [
      "न",
      "वा"
    ],
    [
      "अ",
      "ह"
    ],
    [
      "बा",
      "द</w>"
    ],
    [
      "सि",
      "फार"
    ],
    [
      "शासन",
      "कालमा</w>"
    ],
    [
      "बङ्गा",
      "लको</w>"
    ],
    [
      "जा",
      "को</w>"
    ],
    [
      "क",
      "मि"
    ],
    [
      "ग्रामी",
      "ण</w>"
    ],
    [
      "ग",
      "एर</w>"
    ],
    [
      "डा",
      "क्टर"
    ],
    [
      "सो",
      "चे"
    ],
    [
      "च",
      "यन</w>"
    ],
    [
      "निरा",
      "श</w>"
    ],
    [
      "प्र",
      "विधि"
    ],
    [
      "उदा",
      "हरण</w>"
    ],
    [
      "गर्",
      "छिन्।</w>"
    ],
    [
      "इसा",
      "ई</w>"
    ],
    [
      "ठ",
      "िक</w>"
    ],
    [
      "ने",
      "र</w>"
    ],
    [
      "कु",
      "न</w>"
    ],
    [
      "स्",
      "त्र</w>"
    ],
    [
      "त",
      "ै</w>"
    ],
    [
      "औ",
      "पचारिक</w>"
    ],
    [
      "टि",
      "प्प"
    ],
    [
      "पछि",
      "ल्लो</w>"
    ],
    [
      "अ",
      "ल</w>"
    ],
    [
      "उनी",
      "हरूका</w>"
    ],
    [
      "ह",
      "री</w>"
    ],
    [
      "कारण",
      ",</w>"
    ],
    [
      "केन्द्र",
      "ीय</w>"
    ],
    [
      "उ",
      "म्मे"
    ],
    [
      "ख्या",
      "त</w>"
    ],
    [
      "सर्",
      "वश"
    ],
    [
      "त",
      "लाई</w>"
    ],
    [
      "अघि",
      "ल्लो</w>"
    ],
    [
      "का",
      "न"
    ],
    [
      "टा",
      "को</w>"
    ],
    [
      "ने",
      "को</w>"
    ],
    [
      "स्ना",
      "तक</w>"
    ],
    [
      "स",
      "त्"
    ],
    [
      "साँच्च",
      "ै</w>"
    ],
    [
      "इतिहा",
      "समा</w>"
    ],
    [
      "विस्त",
      "ृत</w>"
    ],
    [
      "इन्",
      "छ,</w>"
    ],
    [
      "दो",
      "हो"
    ],
    [
      "माइ",
      "ल</w>"
    ],
    [
      "१९५",
      "०</w>"
    ],
    [
      "वा",
      "यु</w>"
    ],
    [
      "सुझा",
      "उ</w>"
    ],
    [
      "ला",
      "हरू</w>"
    ],
    [
      "च्",
      "छ"
    ],
    [
      "ठ",
      "े"
    ],
    [
      "मा",
      "टो"
    ],
    [
      "डे",
      "टा</w>"
    ],
    [
      "ना",
      "ल्"
    ],
    [
      "ड",
      "ल"
    ],
    [
      "गरे",
      "पछि,</w>"
    ],
    [
      "कर",
      "िय"
    ],
    [
      "सह",
      "मत</w>"
    ],
    [
      "ना",
      "ममा</w>"
    ],
    [
      "स्टा",
      "र</w>"
    ],
    [
      "ढ",
      "ो"
    ],
    [
      "न्",
      "सको</w>"
    ],
    [
      "बा",
      "बु"
    ],
    [
      "इतिहा",
      "स</w>"
    ],
    [
      "दु",
      "इ"
    ],
    [
      "छे",
      "उ"
    ],
    [
      "जन्",
      "मे"
    ],
    [
      "अ",
      "क्ष"
    ],
    [
      "य",
      "स्ता</w>"
    ],
    [
      "ल",
      "ियो"
    ],
    [
      "र",
      "गत</w>"
    ],
    [
      "व्यव",
      "सा"
    ],
    [
      "सक्नु",
      "हुन्छ</w>"
    ],
    [
      "थ",
      "प्"
    ],
    [
      "नि",
      "को"
    ],
    [
      "डे",
      "न</w>"
    ],
    [
      "पर्",
      "खा"
    ],
    [
      "अ",
      "ना"
    ],
    [
      "राज",
      "वंश"
    ],
    [
      "मृत्यु",
      "द"
    ],
    [
      "हो",
      "इन</w>"
    ],
    [
      "हरू",
      "माथि</w>"
    ],
    [
      "ति",
      "त</w>"
    ],
    [
      "ए",
      "की</w>"
    ],
    [
      "उप",
      "युक्त</w>"
    ],
    [
      "स",
      "कारात्मक</w>"
    ],
    [
      "य",
      "ती</w>"
    ],
    [
      "वन",
      "स्प"
    ],
    [
      "नु",
      "भएको</w>"
    ],
    [
      "टो",
      "क"
    ],
    [
      "रे",
      "ड</w>"
    ],
    [
      "थिय",
      "ो"
    ],
    [
      "वे",
      "स्ट</w>"
    ],
    [
      "संस्",
      "कृ"
    ],
    [
      "समा",
      "चार"
    ],
    [
      "ड",
      "ीमा</w>"
    ],
    [
      "उच्",
      "च"
    ],
    [
      "उ",
      "क्त</w>"
    ],
    [
      "सर्वश",
      "्रे"
    ],
    [
      "सर्वश्रे",
      "ष्ठ</w>"
    ],
    [
      "द",
      "ल</w>"
    ],
    [
      "को",
      "लम्ब"
    ],
    [
      "म्",
      "भ</w>"
    ],
    [
      "रिप",
      "ब्लि"
    ],
    [
      "आ",
      "यो।</w>"
    ],
    [
      "राख",
      "ि"
    ],
    [
      "आवश्य",
      "कता</w>"
    ],
    [
      "१९९",
      "१</w>"
    ],
    [
      "वि",
      "तरण</w>"
    ],
    [
      "सङ्घ",
      "ीय</w>"
    ],
    [
      "इन्टर",
      "नेट</w>"
    ],
    [
      "रे",
      "स्ट"
    ],
    [
      "ड",
      "लर</w>"
    ],
    [
      "का",
      "लाई</w>"
    ],
    [
      "को",
      "इ"
    ],
    [
      "अव",
      "सर"
    ],
    [
      "ँ",
      "मा</w>"
    ],
    [
      "पूर्",
      "ण"
    ],
    [
      "आकर्ष",
      "ित</w>"
    ],
    [
      "घ",
      "ेर"
    ],
    [
      "न",
      "ार"
    ],
    [
      "’",
      "</w>"
    ],
    [
      "सह",
      "ज</w>"
    ],
    [
      "यु",
      "नाइ"
    ],
    [
      "म",
      "ल्"
    ],
    [
      "तमिलना",
      "डु"
    ],
    [
      "द",
      "स</w>"
    ],
    [
      "तुरु",
      "न्तै</w>"
    ],
    [
      "क्",
      "समा</w>"
    ],
    [
      "अहि",
      "ले"
    ],
    [
      "निय",
      "न</w>"
    ],
    [
      "वा",
      "सि"
    ],
    [
      "क",
      "्य"
    ],
    [
      "राम",
      "्र"
    ],
    [
      "त",
      "यार"
    ],
    [
      "मूर्",
      "ति"
    ],
    [
      "पछि",
      "को</w>"
    ],
    [
      "क",
      "ीको</w>"
    ],
    [
      "र",
      "बाट</w>"
    ],
    [
      "स्रो",
      "त"
    ],
    [
      "ज",
      "मि"
    ],
    [
      "ना",
      "मा"
    ],
    [
      "अ",
      "ङ्क"
    ],
    [
      "ल",
      "द्दा"
    ],
    [
      "उप",
      "नि"
    ],
    [
      "ढि",
      "लो</w>"
    ],
    [
      "जा",
      "ति</w>"
    ],
    [
      "क",
      "स्तो</w>"
    ],
    [
      "य",
      "न्त्र"
    ],
    [
      "मि",
      "ङ</w>"
    ],
    [
      "ए",
      "सि"
    ],
    [
      "सदस्य",
      "हरू</w>"
    ],
    [
      "थाल",
      "्यो।</w>"
    ],
    [
      "यस",
      "ै"
    ],
    [
      "सु",
      "धार"
    ],
    [
      "क",
      "सँग</w>"
    ],
    [
      "गहि",
      "रो</w>"
    ],
    [
      "त्य",
      "स्ता</w>"
    ],
    [
      "ष",
      "े"
    ],
    [
      "ब्",
      "ब"
    ],
    [
      "क्या",
      "ले"
    ],
    [
      "अ",
      "चा"
    ],
    [
      "रे",
      "को</w>"
    ],
    [
      "ते",
      "ल</w>"
    ],
    [
      "३",
      "५</w>"
    ],
    [
      "प",
      "द</w>"
    ],
    [
      "आवश्य",
      "क"
    ],
    [
      "का",
      "ट्"
    ],
    [
      "अन्",
      "य"
    ],
    [
      "वि",
      "च्छे"
    ],
    [
      "लि",
      "न्छ।</w>"
    ],
    [
      "कुरा",
      "हरू</w>"
    ],
    [
      "टे",
      "न"
    ],
    [
      "उष्णकटि",
      "बन्धीय</w>"
    ],
    [
      "स्ट",
      "्रे"
    ],
    [
      "फ्लो",
      "रि"
    ],
    [
      "क्ष",
      "य"
    ],
    [
      "इलेक्",
      "ट्रो"
    ],
    [
      "विन्डो",
      "ज</w>"
    ],
    [
      "ह",
      "जार</w>"
    ],
    [
      "विस्त",
      "ार"
    ],
    [
      "पी",
      "ड"
    ],
    [
      "ल्",
      "प"
    ],
    [
      "महि",
      "नाको</w>"
    ],
    [
      "नु",
      "अघि</w>"
    ],
    [
      "स्थ",
      "</w>"
    ],
    [
      "लगा",
      "उने</w>"
    ],
    [
      "के",
      "र</w>"
    ],
    [
      "न",
      "ष्ट</w>"
    ],
    [
      "न्ध",
      "्र</w>"
    ],
    [
      "सि",
      "मा"
    ],
    [
      "वे",
      "ल्"
    ],
    [
      "घाइ",
      "ते</w>"
    ],
    [
      "फ्रान्",
      "सको</w>"
    ],
    [
      "जस्त",
      "ै,</w>"
    ],
    [
      "अ",
      "ंश</w>"
    ],
    [
      "पाइ",
      "ने</w>"
    ],
    [
      "क",
      "मी</w>"
    ],
    [
      "मार्",
      "सल</w>"
    ],
    [
      "एसो",
      "सिए"
    ],
    [
      "डि",
      "फे"
    ],
    [
      "विजे",
      "ता</w>"
    ],
    [
      "ए",
      "फ</w>"
    ],
    [
      "क्रा",
      "मक</w>"
    ],
    [
      "ता",
      "हरूले</w>"
    ],
    [
      "उ",
      "ड</w>"
    ],
    [
      "ह",
      "र</w>"
    ],
    [
      "श्",
      "वर"
    ],
    [
      "समा",
      "चार</w>"
    ],
    [
      "ज्ञ",
      "</w>"
    ],
    [
      "ग्रह",
      "ण</w>"
    ],
    [
      "कानु",
      "न</w>"
    ],
    [
      "मा",
      "ग</w>"
    ],
    [
      "म",
      "र्म"
    ],
    [
      "ज्",
      "व"
    ],
    [
      "वैज्ञा",
      "नि"
    ],
    [
      "थे",
      "रा"
    ],
    [
      "त्व",
      "को</w>"
    ],
    [
      "ड",
      "च</w>"
    ],
    [
      "को",
      "ही</w>"
    ],
    [
      "संर",
      "क्ष"
    ],
    [
      "ओ",
      "ग"
    ],
    [
      "स्टे",
      "ट</w>"
    ],
    [
      "समय",
      "को</w>"
    ],
    [
      "भाग",
      "हरू</w>"
    ],
    [
      "खा",
      "ली</w>"
    ],
    [
      "महि",
      "नामा</w>"
    ],
    [
      "निम्",
      "न</w>"
    ],
    [
      "सकि",
      "न्छ</w>"
    ],
    [
      "ट्र्या",
      "क</w>"
    ],
    [
      "प्र",
      "कार</w>"
    ],
    [
      "माइ",
      "ल)</w>"
    ],
    [
      "नद",
      "ीहरू</w>"
    ],
    [
      "क्याना",
      "डा"
    ],
    [
      "ब्या",
      "ज</w>"
    ],
    [
      "ग्",
      "लो"
    ],
    [
      "भर्",
      "जि"
    ],
    [
      "त",
      "न"
    ],
    [
      "ह",
      "रि"
    ],
    [
      "राम्र",
      "री</w>"
    ],
    [
      "ल",
      "-"
    ],
    [
      "छाया",
      "ङ्कन</w>"
    ],
    [
      "पुग",
      "्यो।</w>"
    ],
    [
      "ल",
      "हरूको</w>"
    ],
    [
      "भित्र",
      "ी</w>"
    ],
    [
      "हप्",
      "ता"
    ],
    [
      "आ",
      "पत"
    ],
    [
      "सूच",
      "ीमा</w>"
    ],
    [
      "क",
      "ति"
    ],
    [
      "क्र",
      "ु"
    ],
    [
      "सिक्",
      "कि"
    ],
    [
      "विमान",
      "स्थ"
    ],
    [
      "स्",
      "क्या"
    ],
    [
      "ल्यान्ड",
      "का</w>"
    ],
    [
      "पार्ट",
      "ीका</w>"
    ],
    [
      "कि",
      "सि"
    ],
    [
      "न",
      "हरूलाई</w>"
    ],
    [
      "राखे",
      "को</w>"
    ],
    [
      "जन",
      "र"
    ],
    [
      "स्थि",
      "तिमा</w>"
    ],
    [
      "इ",
      "ने</w>"
    ],
    [
      "लि",
      "पि"
    ],
    [
      "मा",
      "नमा</w>"
    ],
    [
      "ट",
      "े</w>"
    ],
    [
      "च",
      ",</w>"
    ],
    [
      "पार",
      "ेको</w>"
    ],
    [
      "सम",
      "ग्र"
    ],
    [
      "दृश",
      "्य</w>"
    ],
    [
      "क्",
      "लो"
    ],
    [
      "सि",
      "र"
    ],
    [
      "टि",
      "भी</w>"
    ],
    [
      "मो",
      "ड"
    ],
    [
      "राज",
      "ी"
    ],
    [
      "पा",
      "स</w>"
    ],
    [
      "आरो",
      "ह"
    ],
    [
      "।",
      "\"</w>"
    ],
    [
      "अभिने",
      "त्री</w>"
    ],
    [
      "वैज्ञा",
      "निक</w>"
    ],
    [
      "अघ",
      "ि,</w>"
    ],
    [
      "सा",
      "मु"
    ],
    [
      "सम्बन्ध",
      "मा</w>"
    ],
    [
      "भने",
      "।</w>"
    ],
    [
      "पुरा",
      "ना</w>"
    ],
    [
      "हिँ",
      "ड्"
    ],
    [
      "प्र",
      "वा"
    ],
    [
      "न्द",
      "ै</w>"
    ],
    [
      "प्रतिस्पर्",
      "धा"
    ],
    [
      "ग",
      ",</w>"
    ],
    [
      "स्",
      "केट"
    ],
    [
      "सफ्टवे",
      "यर</w>"
    ],
    [
      "मिने",
      "टमा</w>"
    ],
    [
      "शि",
      "वा"
    ],
    [
      "पत्",
      "नी</w>"
    ],
    [
      "३",
      "०"
    ],
    [
      "ौ",
      "ँ।</w>"
    ],
    [
      "व्यव",
      "स्था</w>"
    ],
    [
      "य",
      "ल</w>"
    ],
    [
      "द",
      ",</w>"
    ],
    [
      "कला",
      "को</w>"
    ],
    [
      "ला",
      "भ"
    ],
    [
      "ना",
      "क</w>"
    ],
    [
      "मान",
      "हरू</w>"
    ],
    [
      "तरि",
      "काले</w>"
    ],
    [
      "ग",
      "ुरु"
    ],
    [
      "सि",
      "लि"
    ],
    [
      "ए",
      "म</w>"
    ],
    [
      "जनसङ्ख्या",
      "को</w>"
    ],
    [
      "ब्",
      "ले"
    ],
    [
      "च",
      "ी</w>"
    ],
    [
      "बेल्",
      "जिय"
    ],
    [
      "अस्ट",
      "्र"
    ],
    [
      "च्याम्पियनसि",
      "पमा</w>"
    ],
    [
      "जे",
      "ल</w>"
    ],
    [
      "उप",
      "योग"
    ],
    [
      "आ",
      "विष्"
    ],
    [
      "द",
      "का</w>"
    ],
    [
      "दिए",
      "</w>"
    ],
    [
      "नि",
      "भा"
    ],
    [
      "सङ्ग्र",
      "हा"
    ],
    [
      "स",
      "ट्टा"
    ],
    [
      "दि",
      "शा"
    ],
    [
      "साम",
      "ग्री</w>"
    ],
    [
      "१८",
      "५"
    ],
    [
      "सम्",
      "पत्ति</w>"
    ],
    [
      "यु",
      "ग"
    ],
    [
      "पाहा",
      "डी</w>"
    ],
    [
      "वि",
      "ना"
    ],
    [
      "हि",
      "ं"
    ],
    [
      "२",
      "५"
    ],
    [
      "य",
      "हाँ"
    ],
    [
      "एक",
      "अर्का"
    ],
    [
      "वि",
      "क्रे"
    ],
    [
      "बासि",
      "न्दा"
    ],
    [
      "विवा",
      "हित</w>"
    ],
    [
      "कार",
      "का</w>"
    ],
    [
      "ुर",
      "ो</w>"
    ],
    [
      "ढा",
      "ँचा"
    ],
    [
      "आ",
      "उँछ।</w>"
    ],
    [
      "मि",
      "नेट"
    ],
    [
      "ब",
      "ललाई</w>"
    ],
    [
      "इ",
      "ला"
    ],
    [
      "प",
      "क्रा"
    ],
    [
      "आरो",
      "प</w>"
    ],
    [
      "सङ्घ",
      "र्"
    ],
    [
      "विरुद्ध",
      "को</w>"
    ],
    [
      "शास",
      "क</w>"
    ],
    [
      "१९८",
      "७</w>"
    ],
    [
      "सम्रा",
      "ट</w>"
    ],
    [
      "न",
      "पा"
    ],
    [
      "४",
      "५</w>"
    ],
    [
      "निर्धार",
      "ित</w>"
    ],
    [
      "रि",
      "ङ</w>"
    ],
    [
      "अधिकार",
      "ीहरूले</w>"
    ],
    [
      "दुर्",
      "लभ</w>"
    ],
    [
      "ग्र",
      "ो"
    ],
    [
      "य",
      "स्तै</w>"
    ],
    [
      "जर्",
      "ज"
    ],
    [
      "कर्",
      "पो"
    ],
    [
      "सि",
      "स्ट"
    ],
    [
      "अर्",
      "डर</w>"
    ],
    [
      "चि",
      "ह्"
    ],
    [
      "फो",
      "टो"
    ],
    [
      "ट",
      "न,</w>"
    ],
    [
      "ब",
      "ह"
    ],
    [
      "गु",
      "प्"
    ],
    [
      "न",
      "ारा"
    ],
    [
      "सु",
      "पर"
    ],
    [
      "ब",
      "नि"
    ],
    [
      "धर्",
      "मको</w>"
    ],
    [
      "जस",
      "का</w>"
    ],
    [
      "प्रमा",
      "ण</w>"
    ],
    [
      "प्रमाण",
      "ित</w>"
    ],
    [
      "अ",
      "परे"
    ],
    [
      "देश",
      "का</w>"
    ],
    [
      "व्यक्ति",
      "हरू</w>"
    ],
    [
      "उद्देश",
      "्य</w>"
    ],
    [
      "ए",
      "ले"
    ],
    [
      "क्या",
      "थो"
    ],
    [
      "ब",
      "स</w>"
    ],
    [
      "प",
      ",</w>"
    ],
    [
      "ल",
      "हरूले</w>"
    ],
    [
      "पुलि",
      "स</w>"
    ],
    [
      "गर्",
      "छ,</w>"
    ],
    [
      "ल",
      "ु</w>"
    ],
    [
      "ैन",
      ",</w>"
    ],
    [
      "स्",
      "पोर्"
    ],
    [
      "प",
      "्यारा"
    ],
    [
      "लाग्",
      "दो</w>"
    ],
    [
      "प",
      "का"
    ],
    [
      "हाउ",
      "स</w>"
    ],
    [
      "सिफार",
      "िस</w>"
    ],
    [
      "वर्ष",
      "का</w>"
    ],
    [
      "े",
      ",</w>"
    ],
    [
      "त",
      "थ"
    ],
    [
      "ज",
      "य</w>"
    ],
    [
      "य",
      "हु"
    ],
    [
      "बु",
      "झा"
    ],
    [
      "वेद",
      "न</w>"
    ],
    [
      "ग",
      "म</w>"
    ],
    [
      "बाँ",
      "च्"
    ],
    [
      "स्त",
      "ार"
    ],
    [
      "भग",
      "वान</w>"
    ],
    [
      "रो",
      "मन</w>"
    ],
    [
      "साथ",
      "ै,</w>"
    ],
    [
      "सजा",
      "य</w>"
    ],
    [
      "म",
      "हो"
    ],
    [
      "कर्पो",
      "रे"
    ],
    [
      "न्",
      "छ"
    ],
    [
      "रेस्ट",
      "ुरे"
    ],
    [
      "पदा",
      "र्थ</w>"
    ],
    [
      "क",
      "रा"
    ],
    [
      "इ",
      "च्"
    ],
    [
      "ज",
      "ीले</w>"
    ],
    [
      "त",
      "।</w>"
    ],
    [
      "श्रे",
      "य</w>"
    ],
    [
      "मे",
      "र</w>"
    ],
    [
      "र",
      "ग"
    ],
    [
      "राज",
      "स्था"
    ],
    [
      "चा",
      "ह</w>"
    ],
    [
      "कि",
      "न्न</w>"
    ],
    [
      "जु",
      "ल्"
    ],
    [
      "सफ",
      "ा</w>"
    ],
    [
      "आ",
      "धार</w>"
    ],
    [
      "साइ",
      "ड</w>"
    ],
    [
      "बाहि",
      "री</w>"
    ],
    [
      "हरू",
      "भन्दा</w>"
    ],
    [
      "गण",
      "ना</w>"
    ],
    [
      "मो",
      "बाइ"
    ],
    [
      "बे",
      "सि"
    ],
    [
      "दौ",
      "ड</w>"
    ],
    [
      "न्ड",
      "ो</w>"
    ],
    [
      "छ",
      "ल"
    ],
    [
      "य",
      "ू"
    ],
    [
      "आलो",
      "च"
    ],
    [
      "सञ्चा",
      "लित</w>"
    ],
    [
      "लगा",
      "यत</w>"
    ],
    [
      "रह",
      "ने</w>"
    ],
    [
      "गाउँ",
      "मा</w>"
    ],
    [
      "श्",
      "व"
    ],
    [
      "गृ",
      "ह"
    ],
    [
      "ं",
      "</w>"
    ],
    [
      "क्षेत्र",
      "लाई</w>"
    ],
    [
      "द",
      "्रा"
    ],
    [
      "बजा",
      "र</w>"
    ],
    [
      "क्",
      "सन</w>"
    ],
    [
      "श",
      "्रा"
    ],
    [
      "बढ्",
      "दै</w>"
    ],
    [
      "म",
      "िया</w>"
    ],
    [
      "च",
      "ढा"
    ],
    [
      "प्र",
      "क्र"
    ],
    [
      "र",
      "द्"
    ],
    [
      "सोध",
      "्"
    ],
    [
      "केर",
      "ला</w>"
    ],
    [
      "सो",
      "भिय"
    ],
    [
      "प्रशिक्ष",
      "क</w>"
    ],
    [
      "स्वामि",
      "त्वमा</w>"
    ],
    [
      "स",
      "ु</w>"
    ],
    [
      "मौ",
      "सम</w>"
    ],
    [
      "लि",
      "पि</w>"
    ],
    [
      "ए",
      "म्"
    ],
    [
      "ी",
      "बाट</w>"
    ],
    [
      "दे",
      "व</w>"
    ],
    [
      "आ",
      "त"
    ],
    [
      "विवि",
      "ध"
    ],
    [
      "उप",
      "स्थित</w>"
    ],
    [
      "समुद्र",
      "</w>"
    ],
    [
      "दु",
      "ल"
    ],
    [
      "परिष",
      "द्"
    ],
    [
      "भर",
      "िएको</w>"
    ],
    [
      "हेर",
      "चाह</w>"
    ],
    [
      "हप्",
      "ता</w>"
    ],
    [
      "ग",
      "ह"
    ],
    [
      "भाषा",
      "मा</w>"
    ],
    [
      "गुर",
      "ु</w>"
    ],
    [
      "सिद्धा",
      "न्त"
    ],
    [
      "सङ्गीत",
      "को</w>"
    ],
    [
      "भा",
      "व</w>"
    ],
    [
      "मुख्या",
      "लय</w>"
    ],
    [
      "श्",
      "वर</w>"
    ],
    [
      "र",
      "ीमा</w>"
    ],
    [
      "च्याम्प",
      "ियन</w>"
    ],
    [
      "पर्",
      "छन्।</w>"
    ],
    [
      "यस",
      "ो</w>"
    ],
    [
      "ने",
      "स"
    ],
    [
      "व्यवसा",
      "य</w>"
    ],
    [
      "पार्",
      "क</w>"
    ],
    [
      "डि",
      "जि"
    ],
    [
      "साइ",
      "कल</w>"
    ],
    [
      "सि",
      "ङ</w>"
    ],
    [
      "निम्त्या",
      "उन</w>"
    ],
    [
      "द",
      "रा"
    ],
    [
      "पुर्",
      "‍या"
    ],
    [
      "ग",
      "ी"
    ],
    [
      "ल",
      "डा"
    ],
    [
      "संर",
      "क्षण</w>"
    ],
    [
      "लेख",
      "क</w>"
    ],
    [
      "विस्",
      "फो"
    ],
    [
      "द",
      "्यो"
    ],
    [
      "पौ",
      "रा"
    ],
    [
      "१८",
      "६"
    ],
    [
      "क्रे",
      "डि"
    ],
    [
      "इजि",
      "प्"
    ],
    [
      "अस्प",
      "तालमा</w>"
    ],
    [
      "मि",
      "ति</w>"
    ],
    [
      "क्",
      "त"
    ],
    [
      "कार्यक्रम",
      "हरू</w>"
    ],
    [
      "रद्",
      "द</w>"
    ],
    [
      "भाग",
      "को</w>"
    ],
    [
      "इ",
      "रहेको</w>"
    ],
    [
      "रह",
      "न</w>"
    ],
    [
      "सञ्",
      "जा"
    ],
    [
      "डे",
      "लि"
    ],
    [
      "उ",
      "चित</w>"
    ],
    [
      "सेवा",
      "हरू</w>"
    ],
    [
      "सामान्यत",
      "या,</w>"
    ],
    [
      ")",
      "।</w>"
    ],
    [
      "ले",
      "ट</w>"
    ],
    [
      "ता",
      "तो</w>"
    ],
    [
      "दिल्",
      "लीमा</w>"
    ],
    [
      "व",
      "ि</w>"
    ],
    [
      "र",
      "चना</w>"
    ],
    [
      "सो",
      "ही</w>"
    ],
    [
      "आलो",
      "चना</w>"
    ],
    [
      "रिपब्लि",
      "कन</w>"
    ],
    [
      "गर्",
      "दा,</w>"
    ],
    [
      "७",
      "५</w>"
    ],
    [
      "८",
      "५</w>"
    ],
    [
      "प्रिम",
      "ियर</w>"
    ],
    [
      "पूर्",
      "वा"
    ],
    [
      "मे",
      "डि"
    ],
    [
      "ना",
      "गा"
    ],
    [
      "खेल्",
      "छन्।</w>"
    ],
    [
      "गु",
      "फा</w>"
    ],
    [
      "नि",
      "दान</w>"
    ],
    [
      "सि",
      "ट</w>"
    ],
    [
      "स्क",
      "ट"
    ],
    [
      "बर्",
      "ग</w>"
    ],
    [
      "साझे",
      "दार"
    ],
    [
      "पक्रा",
      "उ</w>"
    ],
    [
      "त्य",
      "हाँ"
    ],
    [
      "वि",
      "रोध"
    ],
    [
      "वि",
      "ग"
    ],
    [
      "न्द्र",
      "</w>"
    ],
    [
      "ब",
      "ले</w>"
    ],
    [
      "रि",
      "पोर्"
    ],
    [
      "पौरा",
      "णिक</w>"
    ],
    [
      "संस्",
      "कृति"
    ],
    [
      "तेलु",
      "ग"
    ],
    [
      "बि",
      "स्तार"
    ],
    [
      "घ",
      "रको</w>"
    ],
    [
      "भ",
      "ेर"
    ],
    [
      "एके",
      "डे"
    ],
    [
      "ऊ",
      "र्जा</w>"
    ],
    [
      "ग",
      "न्ध"
    ],
    [
      "ए",
      "रि"
    ],
    [
      "उप",
      "हार</w>"
    ],
    [
      "प्र",
      "ख्यात</w>"
    ],
    [
      "ठ",
      "ू"
    ],
    [
      "च",
      "ेर"
    ],
    [
      "बिहा",
      "न</w>"
    ],
    [
      "ह",
      "स्त"
    ],
    [
      "लन्ड",
      "न</w>"
    ],
    [
      "ग",
      "ी</w>"
    ],
    [
      "अर",
      "ब</w>"
    ],
    [
      "नर्",
      "त"
    ],
    [
      "आपूर्",
      "ति</w>"
    ],
    [
      "सम्",
      "पाद"
    ],
    [
      "झ",
      "ो"
    ],
    [
      "ग",
      "तिमा</w>"
    ],
    [
      "ना",
      "य"
    ],
    [
      "उत्स",
      "व"
    ],
    [
      "प्रशास",
      "निक</w>"
    ],
    [
      "स",
      "्य</w>"
    ],
    [
      "ति",
      "रु"
    ],
    [
      "ङ्ग",
      "्"
    ],
    [
      "ग",
      "ले</w>"
    ],
    [
      "म",
      "ीको</w>"
    ],
    [
      "स्वि",
      "ट्"
    ],
    [
      "स्त",
      "र"
    ],
    [
      "च",
      "हरू</w>"
    ],
    [
      "वि",
      "कल्प"
    ],
    [
      "फि",
      "क</w>"
    ],
    [
      "पेर",
      "ि"
    ],
    [
      "िए",
      "</w>"
    ],
    [
      "आउ",
      "ट</w>"
    ],
    [
      "उपयोग",
      "ी</w>"
    ],
    [
      "क",
      "द"
    ],
    [
      "ति",
      "नले</w>"
    ],
    [
      "तुल",
      "ना</w>"
    ],
    [
      "देख",
      "ि,</w>"
    ],
    [
      "ढ",
      "</w>"
    ],
    [
      "मा",
      "मिला"
    ],
    [
      "हा",
      "ई</w>"
    ],
    [
      "न्",
      "ज</w>"
    ],
    [
      "ल्यान्ड",
      "्"
    ],
    [
      "ख",
      "त"
    ],
    [
      "म",
      "ञ्"
    ],
    [
      "भर्",
      "ना</w>"
    ],
    [
      "पो",
      "लो</w>"
    ],
    [
      "ही",
      "न</w>"
    ],
    [
      "समी",
      "क्षा</w>"
    ],
    [
      "बु",
      "बा</w>"
    ],
    [
      "याता",
      "यात</w>"
    ],
    [
      "च",
      "ल्"
    ],
    [
      "जटि",
      "ल</w>"
    ],
    [
      "ण्ड",
      "को</w>"
    ],
    [
      "प",
      "हुँ"
    ],
    [
      "जिम्मे",
      "वार</w>"
    ],
    [
      "कम्",
      "तिमा</w>"
    ],
    [
      "उप",
      "करण</w>"
    ],
    [
      "ड्",
      "डी</w>"
    ],
    [
      "को",
      "लो"
    ],
    [
      "मांसपे",
      "श"
    ],
    [
      "हुँद",
      "छ।</w>"
    ],
    [
      "खो",
      "प</w>"
    ],
    [
      "गऱ",
      "्यो।</w>"
    ],
    [
      "अ",
      "सल</w>"
    ],
    [
      "१९८",
      "४</w>"
    ],
    [
      "प",
      "ट्ट"
    ],
    [
      "तिनी",
      "हरूका</w>"
    ],
    [
      "प्र",
      "दाय"
    ],
    [
      "जित्",
      "ने</w>"
    ],
    [
      "पाँच",
      "ौँ</w>"
    ],
    [
      "स",
      "प"
    ],
    [
      "टोली",
      "मा</w>"
    ],
    [
      "वि",
      "र"
    ],
    [
      "ल्यान्ड",
      ",</w>"
    ],
    [
      "अव",
      "धि</w>"
    ],
    [
      "जन",
      "जाति"
    ],
    [
      "सहा",
      "यता</w>"
    ],
    [
      "लक्ष",
      "्य"
    ],
    [
      "ग्र",
      "स्त</w>"
    ],
    [
      "आ",
      "कार</w>"
    ],
    [
      "थ",
      "्रि"
    ],
    [
      "चो",
      "ल</w>"
    ],
    [
      "माइक्रो",
      "सफ्"
    ],
    [
      "अर्",
      "जे"
    ],
    [
      "यु",
      "एस"
    ],
    [
      "ह",
      "्यु"
    ],
    [
      "गि",
      "र"
    ],
    [
      "छ",
      "ै"
    ],
    [
      "वर्ष",
      "पछि</w>"
    ],
    [
      "विद्",
      "वा"
    ],
    [
      "सुन्द",
      "र</w>"
    ],
    [
      "इ",
      "स्ट</w>"
    ],
    [
      "अध्य",
      "क्ष"
    ],
    [
      "कु",
      "मार"
    ],
    [
      "च",
      "लित</w>"
    ],
    [
      "दि",
      "न,</w>"
    ],
    [
      "परिवार",
      "को</w>"
    ],
    [
      "ने",
      "दर"
    ],
    [
      "स्ट",
      "को</w>"
    ],
    [
      "ह",
      "म्"
    ],
    [
      "मूल्या",
      "ङ्कन</w>"
    ],
    [
      "त्",
      "त</w>"
    ],
    [
      "एक",
      "ै</w>"
    ],
    [
      "संस्थाप",
      "क</w>"
    ],
    [
      "रे",
      "डियो</w>"
    ],
    [
      "स्विट्",
      "जर"
    ],
    [
      "विमान",
      "स्थल</w>"
    ],
    [
      "मो",
      "न्"
    ],
    [
      "कि",
      "लो</w>"
    ],
    [
      "भए",
      "ँ।</w>"
    ],
    [
      "ेर",
      ",</w>"
    ],
    [
      "हत",
      "ियार"
    ],
    [
      "पु",
      "ल</w>"
    ],
    [
      "सि",
      "जनमा</w>"
    ],
    [
      "च",
      "ढ"
    ],
    [
      "श्री",
      "म"
    ],
    [
      "वा",
      "ई</w>"
    ],
    [
      "राजनी",
      "ति"
    ],
    [
      "कल्",
      "प</w>"
    ],
    [
      "१९८",
      "२</w>"
    ],
    [
      "म्ब",
      "र"
    ],
    [
      "कार",
      "मा</w>"
    ],
    [
      "अपरा",
      "ध"
    ],
    [
      "प्र",
      "को"
    ],
    [
      "यस",
      "ँ"
    ],
    [
      "टि",
      "भ"
    ],
    [
      "शा",
      "न्त</w>"
    ],
    [
      "ैन",
      "न्</w>"
    ],
    [
      "प्रतिनि",
      "धि</w>"
    ],
    [
      "घ",
      "ट्"
    ],
    [
      "सोभिय",
      "त</w>"
    ],
    [
      "स",
      "क"
    ],
    [
      "चा",
      "हे"
    ],
    [
      "बस्",
      "न</w>"
    ],
    [
      "म्ब",
      "ो"
    ],
    [
      "ंश",
      "िक</w>"
    ],
    [
      "अ",
      "प</w>"
    ],
    [
      "ख",
      "ण्ड</w>"
    ],
    [
      "समस्या",
      "हरू</w>"
    ],
    [
      "बा",
      "ल</w>"
    ],
    [
      "त्यस",
      "पछि,</w>"
    ],
    [
      "न्यु",
      "जि"
    ],
    [
      "कार्यक्रम",
      "मा</w>"
    ],
    [
      "ग",
      "ङ्गा</w>"
    ],
    [
      "ज",
      "ेर"
    ],
    [
      "फ",
      "को</w>"
    ],
    [
      "१९६",
      "४</w>"
    ],
    [
      "वाता",
      "वरण"
    ],
    [
      "क",
      "ित</w>"
    ],
    [
      "वै",
      "कल्"
    ],
    [
      "ड",
      "िया</w>"
    ],
    [
      "मा",
      "ले</w>"
    ],
    [
      "शीत",
      "कालीन</w>"
    ],
    [
      "न्याया",
      "धी"
    ],
    [
      "आ",
      "यर"
    ],
    [
      "ए",
      "थ"
    ],
    [
      "जा",
      "न्छन्।</w>"
    ],
    [
      "हो",
      "ला</w>"
    ],
    [
      "जनगणना",
      "अनुसार</w>"
    ],
    [
      "क",
      "प्ता"
    ],
    [
      "गठ",
      "बन्ध"
    ],
    [
      "इन्जि",
      "निय"
    ],
    [
      "आफ",
      "ै"
    ],
    [
      "म",
      "ला"
    ],
    [
      "एन्",
      "जल"
    ],
    [
      "ज",
      "क</w>"
    ],
    [
      "डेब",
      "्यु</w>"
    ],
    [
      "जा",
      "तीय</w>"
    ],
    [
      "पुरा",
      "तन</w>"
    ],
    [
      "१९८",
      "९</w>"
    ],
    [
      "ता",
      "व"
    ],
    [
      "ब",
      "लमा</w>"
    ],
    [
      "र",
      "िया"
    ],
    [
      "भि",
      "ल</w>"
    ],
    [
      "१९८",
      "८</w>"
    ],
    [
      "त",
      "ु</w>"
    ],
    [
      "वैकल्",
      "पिक</w>"
    ],
    [
      "डि",
      "स्"
    ],
    [
      "उ",
      "न्ड</w>"
    ],
    [
      "मा",
      "सिक</w>"
    ],
    [
      "वि",
      "धान</w>"
    ],
    [
      "अ",
      "स्थायी</w>"
    ],
    [
      "अधी",
      "नमा</w>"
    ],
    [
      "ल",
      "डे"
    ],
    [
      "कन्",
      "न"
    ],
    [
      "ब्रा",
      "ह्म"
    ],
    [
      "छुट्ट",
      "ै</w>"
    ],
    [
      "बार",
      "म्"
    ],
    [
      "बारम्",
      "बार</w>"
    ],
    [
      "अनुसन्",
      "धा"
    ],
    [
      "चु",
      "नौ"
    ],
    [
      "स्ट",
      "िक</w>"
    ],
    [
      "१९७",
      "१</w>"
    ],
    [
      "म",
      "स्"
    ],
    [
      "अचा",
      "नक</w>"
    ],
    [
      "आ",
      "श्र"
    ],
    [
      "हेर",
      "ि"
    ],
    [
      "वा",
      "नी</w>"
    ],
    [
      "का",
      "हरूमा</w>"
    ],
    [
      "मान",
      "सिक</w>"
    ],
    [
      "फ्या",
      "ँ"
    ],
    [
      "काउन्ट",
      "ी,</w>"
    ],
    [
      "सु",
      "ँ"
    ],
    [
      "बना",
      "इन्छ।</w>"
    ],
    [
      "क",
      ")</w>"
    ],
    [
      "प्रा",
      "न्त</w>"
    ],
    [
      "ला",
      "य"
    ],
    [
      "१९७",
      "९</w>"
    ],
    [
      "ब",
      "म्ब"
    ],
    [
      "त्य",
      "ही</w>"
    ],
    [
      "अव",
      "सर</w>"
    ],
    [
      "सा",
      "ङ्ग"
    ],
    [
      "१९७",
      "५</w>"
    ],
    [
      "शान्",
      "ति</w>"
    ],
    [
      "ग्राह",
      "क</w>"
    ],
    [
      "सन्",
      "त</w>"
    ],
    [
      "व",
      "कि"
    ],
    [
      "बै",
      "ठ"
    ],
    [
      "अ",
      "प्रे"
    ],
    [
      "दिन",
      "सम्म</w>"
    ],
    [
      "आँ",
      "खा</w>"
    ],
    [
      "ब्यान्ड",
      "ी</w>"
    ],
    [
      "स्ट्रो",
      "क</w>"
    ],
    [
      "ने",
      "पा"
    ],
    [
      "र",
      "क्षा"
    ],
    [
      "मैदा",
      "नमा</w>"
    ],
    [
      "रङ्ग",
      "जे"
    ],
    [
      "एक",
      "मात्र</w>"
    ],
    [
      "हर",
      "िया"
    ],
    [
      "उप",
      "स्थिति</w>"
    ],
    [
      "योग",
      "दान</w>"
    ],
    [
      "नारा",
      "य"
    ],
    [
      "बे",
      "ड"
    ],
    [
      "ल",
      "सँग</w>"
    ],
    [
      "क्रेडि",
      "ट</w>"
    ],
    [
      "न",
      "न्</w>"
    ],
    [
      "स",
      "न,</w>"
    ],
    [
      "देखा",
      "उँछ।</w>"
    ],
    [
      "ग्रे",
      "ट</w>"
    ],
    [
      "रा",
      "नी</w>"
    ],
    [
      "चर",
      "ण</w>"
    ],
    [
      "लाग्",
      "ने</w>"
    ],
    [
      "च",
      "ल</w>"
    ],
    [
      "छि",
      "न्,</w>"
    ],
    [
      "सम्",
      "पत्"
    ],
    [
      "२",
      "."
    ],
    [
      "मान",
      "क</w>"
    ],
    [
      "प्रार्थ",
      "ना</w>"
    ],
    [
      "कम्",
      "तीमा</w>"
    ],
    [
      "क्",
      "ले"
    ],
    [
      "दु",
      "खा"
    ],
    [
      "बा",
      "स्केट"
    ],
    [
      "जापा",
      "न</w>"
    ],
    [
      "औ",
      "रङ्गजे"
    ],
    [
      "सि",
      "ख</w>"
    ],
    [
      "भ",
      "निएको</w>"
    ],
    [
      "१९६",
      "९</w>"
    ],
    [
      "ह",
      "त्या"
    ],
    [
      "उप",
      "महाद्वी"
    ],
    [
      "अग",
      "स्त</w>"
    ],
    [
      "म",
      "धु"
    ],
    [
      "ज",
      "ति</w>"
    ],
    [
      "त",
      "ह"
    ],
    [
      "पू",
      "रा</w>"
    ],
    [
      "सम",
      "ृ"
    ],
    [
      "सब",
      "े"
    ],
    [
      "चिन्",
      "ता</w>"
    ],
    [
      "प्रतिबन्ध",
      "</w>"
    ],
    [
      "इ",
      "यो।</w>"
    ],
    [
      "कर्ता",
      "हरूले</w>"
    ],
    [
      "लु",
      "गा</w>"
    ],
    [
      "वे",
      "क्ष"
    ],
    [
      "को",
      "को</w>"
    ],
    [
      "१९७",
      "२</w>"
    ],
    [
      "ताप",
      "क्रम</w>"
    ],
    [
      "लक्ष",
      "ण"
    ],
    [
      "पा",
      "नीमा</w>"
    ],
    [
      "डेमो",
      "क्र्या"
    ],
    [
      "ह",
      "ौ"
    ],
    [
      "शरी",
      "रको</w>"
    ],
    [
      "राखे",
      "का</w>"
    ],
    [
      "श्री",
      "लङ्"
    ],
    [
      "पे",
      "स</w>"
    ],
    [
      "उत्तरा",
      "धि"
    ],
    [
      "नियन्त्र",
      "णमा</w>"
    ],
    [
      "मल",
      "या"
    ],
    [
      "ँ",
      "को</w>"
    ],
    [
      "ज",
      "ल</w>"
    ],
    [
      "सल्ला",
      "ह</w>"
    ],
    [
      "सु",
      "न्"
    ],
    [
      "न्",
      "तर"
    ],
    [
      "मिल्",
      "दो"
    ],
    [
      "मिल्दो",
      "जुल्"
    ],
    [
      "ब्या",
      "ङ्"
    ],
    [
      "जन",
      "वर"
    ],
    [
      "मन्दि",
      "रहरू</w>"
    ],
    [
      "कस",
      "ैलाई</w>"
    ],
    [
      "व्यव",
      "हार"
    ],
    [
      "बिस्तार",
      "ै</w>"
    ],
    [
      "मन्दि",
      "रको</w>"
    ],
    [
      "४",
      "०"
    ],
    [
      "जर्",
      "ज</w>"
    ],
    [
      "प",
      "ण</w>"
    ],
    [
      "्र",
      "ु"
    ],
    [
      "मे",
      "घा"
    ],
    [
      "ह",
      "ल"
    ],
    [
      "अर्जे",
      "न्टि"
    ],
    [
      "इ",
      "जरा"
    ],
    [
      "ई",
      "ले</w>"
    ],
    [
      "सहर",
      "हरूमा</w>"
    ],
    [
      "कीर्",
      "ति"
    ],
    [
      "सि",
      "ँ"
    ],
    [
      "लक्ष",
      "्"
    ],
    [
      "फे",
      "यर</w>"
    ],
    [
      "लो",
      "क</w>"
    ],
    [
      "स",
      "य"
    ],
    [
      "१९८",
      "५</w>"
    ],
    [
      "भर्",
      "ख"
    ],
    [
      "बि",
      "न</w>"
    ],
    [
      "वर्ष",
      "हरूमा</w>"
    ],
    [
      "चरण",
      "मा</w>"
    ],
    [
      "जीव",
      "नमा</w>"
    ],
    [
      "स्को",
      "र</w>"
    ],
    [
      "जन्मे",
      "का</w>"
    ],
    [
      "लोकप्र",
      "िय"
    ],
    [
      "बेला",
      "यती</w>"
    ],
    [
      "प",
      "का</w>"
    ],
    [
      "र",
      "माइ"
    ],
    [
      "एनि",
      "मे"
    ],
    [
      "आँध",
      "ी</w>"
    ],
    [
      "विद्रो",
      "ह</w>"
    ],
    [
      "प्र",
      "भु"
    ],
    [
      "खे",
      "ले</w>"
    ],
    [
      "सम्",
      "पन्न</w>"
    ],
    [
      "ख",
      "ी</w>"
    ],
    [
      "अ",
      "नौ"
    ],
    [
      "द",
      "न्"
    ],
    [
      "र्",
      "ध"
    ],
    [
      "बर्",
      "ट</w>"
    ],
    [
      "य",
      "का</w>"
    ],
    [
      "चुना",
      "उमा</w>"
    ],
    [
      "चे",
      "ताव"
    ],
    [
      "मार्",
      "ने</w>"
    ],
    [
      "सह",
      "रहरू</w>"
    ],
    [
      "सा",
      "ल्"
    ],
    [
      "ी",
      "हरूमा</w>"
    ],
    [
      "छ",
      "नौ"
    ],
    [
      "कि",
      "रा"
    ],
    [
      "-",
      "ले</w>"
    ],
    [
      "गण",
      "तन्त्र"
    ],
    [
      "न्",
      "छन्,</w>"
    ],
    [
      "न",
      "ति"
    ],
    [
      "भण्डार",
      "ण</w>"
    ],
    [
      "र्",
      "न</w>"
    ],
    [
      "३",
      ","
    ],
    [
      "ग्र",
      "िक</w>"
    ],
    [
      "अफ्रि",
      "की</w>"
    ],
    [
      "जे",
      "न"
    ],
    [
      "फाइ",
      "दा</w>"
    ],
    [
      "न",
      "राम्रो</w>"
    ],
    [
      "स",
      "ीका</w>"
    ],
    [
      "रहे",
      "।</w>"
    ],
    [
      "को",
      "ल"
    ],
    [
      "बनाइ",
      "एका</w>"
    ],
    [
      "ड",
      "्या"
    ],
    [
      "सै",
      "नि"
    ],
    [
      "ब",
      "ेर"
    ],
    [
      "थिए",
      "नन्।</w>"
    ],
    [
      "स्ट",
      "न</w>"
    ],
    [
      "ब",
      "री</w>"
    ],
    [
      "बङ्गा",
      "ल</w>"
    ],
    [
      "पृथ",
      "्व"
    ],
    [
      "मिल्दोजुल्",
      "दो</w>"
    ],
    [
      "टा",
      "ढा"
    ],
    [
      "ती",
      "ले</w>"
    ],
    [
      "कमे",
      "डी</w>"
    ],
    [
      "तिनी",
      "हरूसँग</w>"
    ],
    [
      "खाद",
      "्य</w>"
    ],
    [
      "डा",
      ",</w>"
    ],
    [
      "भव",
      "न</w>"
    ],
    [
      "अनु",
      "भव"
    ],
    [
      "जा",
      "त</w>"
    ],
    [
      "डिजि",
      "टल</w>"
    ],
    [
      "राज",
      "मार्ग</w>"
    ],
    [
      "क्",
      "सको</w>"
    ],
    [
      "छै",
      "ट"
    ],
    [
      "अ",
      "ली</w>"
    ],
    [
      "भ",
      "री</w>"
    ],
    [
      "प्रे",
      "म</w>"
    ],
    [
      "भूमि",
      "मा</w>"
    ],
    [
      "अर्",
      "ध"
    ],
    [
      "देव",
      "ता</w>"
    ],
    [
      "थिए",
      "ँ।</w>"
    ],
    [
      "मानिस",
      "हरूका</w>"
    ],
    [
      "बो",
      "क्"
    ],
    [
      "लगा",
      "एका</w>"
    ],
    [
      "पार्",
      "ने</w>"
    ],
    [
      "ल",
      "िया</w>"
    ],
    [
      "वा",
      "मा</w>"
    ],
    [
      "गर्",
      "न,</w>"
    ],
    [
      "ए",
      "न्ड"
    ],
    [
      "पर्",
      "न</w>"
    ],
    [
      "मे",
      "यर</w>"
    ],
    [
      "सु",
      "क्"
    ],
    [
      "प्रणा",
      "लीको</w>"
    ],
    [
      "टेक्",
      "सा"
    ],
    [
      "ला",
      "ल</w>"
    ],
    [
      "स",
      "भा</w>"
    ],
    [
      "पा",
      "लन</w>"
    ],
    [
      "अप",
      "ना"
    ],
    [
      "स्टा",
      "इ"
    ],
    [
      "चि",
      "त्र</w>"
    ],
    [
      "स्व",
      "रूप"
    ],
    [
      "निर्मा",
      "ता</w>"
    ],
    [
      "श",
      "ः</w>"
    ],
    [
      "राज्य",
      "हरूमा</w>"
    ],
    [
      "मु",
      "नि</w>"
    ],
    [
      "स",
      "न्त"
    ],
    [
      "गर्",
      "नमा</w>"
    ],
    [
      "अ",
      "लेक्"
    ],
    [
      "नि",
      "ङ</w>"
    ],
    [
      "एयर",
      "लाइ"
    ],
    [
      "आ",
      "न्त"
    ],
    [
      "अनु",
      "कू"
    ],
    [
      "महो",
      "त्स"
    ],
    [
      "वि",
      "ल्"
    ],
    [
      "प्र",
      "त्या"
    ],
    [
      "ल",
      "िया"
    ],
    [
      "स्था",
      "ना"
    ],
    [
      "ता",
      "लको</w>"
    ],
    [
      "बा",
      "ल्"
    ],
    [
      "ड",
      "्रो"
    ],
    [
      "चे",
      "क</w>"
    ],
    [
      "बजे",
      "ट</w>"
    ],
    [
      "है",
      "दरा"
    ],
    [
      "म",
      "ले"
    ],
    [
      "सम्बन्ध",
      "ी</w>"
    ],
    [
      "कर्",
      "नाट"
    ],
    [
      "टो",
      "मा</w>"
    ],
    [
      "वर्",
      "ड</w>"
    ],
    [
      "नि",
      "स्ता"
    ],
    [
      "युनाइ",
      "टेड</w>"
    ],
    [
      "देखि",
      "ने</w>"
    ],
    [
      "अ",
      "द्वितीय</w>"
    ],
    [
      "गो",
      "प"
    ],
    [
      "फो",
      "क्सो"
    ],
    [
      "क्ष",
      "ति"
    ],
    [
      "र्",
      "ड"
    ],
    [
      "दा",
      "न"
    ],
    [
      "समूह",
      "मा</w>"
    ],
    [
      "विच्छे",
      "द</w>"
    ],
    [
      "दिव",
      "स</w>"
    ],
    [
      "उत्त",
      "म</w>"
    ],
    [
      "झ",
      "र"
    ],
    [
      "मिड",
      "िया</w>"
    ],
    [
      "आइ",
      "त"
    ],
    [
      "ग्रा",
      "न्ड</w>"
    ],
    [
      "आइ",
      "ओ"
    ],
    [
      "मानिस",
      "हरूमा</w>"
    ],
    [
      "एफ",
      "सी</w>"
    ],
    [
      "मो",
      "द"
    ],
    [
      "दिए",
      "र</w>"
    ],
    [
      "ख",
      "डा</w>"
    ],
    [
      "र",
      "ज"
    ],
    [
      "आ",
      "म्"
    ],
    [
      "फि",
      "ट"
    ],
    [
      "मा",
      "व"
    ],
    [
      "ग",
      "िक</w>"
    ],
    [
      "व",
      "्य</w>"
    ],
    [
      "साम्राज",
      "्य</w>"
    ],
    [
      "गु",
      "प्त</w>"
    ],
    [
      "हजार",
      "ौँ</w>"
    ],
    [
      "ग",
      "हरू</w>"
    ],
    [
      "सिंह",
      "ले</w>"
    ],
    [
      "दृष्टि",
      "को"
    ],
    [
      "स्कु",
      "लमा</w>"
    ],
    [
      "सो",
      "म"
    ],
    [
      "ला",
      "स</w>"
    ],
    [
      "आ",
      "न्ध्र</w>"
    ],
    [
      "स्प",
      "द</w>"
    ],
    [
      "अत्य",
      "न्त</w>"
    ],
    [
      "फोर्",
      "ड</w>"
    ],
    [
      "क्रम",
      "शः</w>"
    ],
    [
      "च",
      "्यु"
    ],
    [
      "१८",
      "९"
    ],
    [
      "प्रदेश",
      "मा</w>"
    ],
    [
      "रहे",
      "की</w>"
    ],
    [
      "फिल्",
      "मले</w>"
    ],
    [
      "भिन्न",
      "ता</w>"
    ],
    [
      "सजि",
      "लै</w>"
    ],
    [
      "छा",
      "लाको</w>"
    ],
    [
      "मि",
      "जो"
    ],
    [
      "स्",
      "का"
    ],
    [
      "के",
      "न्ट"
    ],
    [
      "काङ्ग्रे",
      "स</w>"
    ],
    [
      "दुव",
      "ैले</w>"
    ],
    [
      "दिल्",
      "लीको</w>"
    ],
    [
      "य",
      "हरू</w>"
    ],
    [
      "चा",
      "लु"
    ],
    [
      "थ",
      "े</w>"
    ],
    [
      "द्वि",
      "ती"
    ],
    [
      "े",
      "श"
    ],
    [
      "बन्द",
      "ु"
    ],
    [
      "इ",
      "एका</w>"
    ],
    [
      "१९८",
      "६</w>"
    ],
    [
      "१९८",
      "३</w>"
    ],
    [
      "पछि",
      "का</w>"
    ],
    [
      "आ",
      "म</w>"
    ],
    [
      "भि",
      "क्"
    ],
    [
      "मा",
      "नको</w>"
    ],
    [
      "ङ्ग",
      "ु"
    ],
    [
      "अ",
      "ब्"
    ],
    [
      "म",
      "रु"
    ],
    [
      "३",
      "००</w>"
    ],
    [
      "उ",
      "भ"
    ],
    [
      "गा",
      "ई"
    ],
    [
      "पि",
      "क्"
    ],
    [
      "केर",
      "लाको</w>"
    ],
    [
      "कु",
      "कुर"
    ],
    [
      "उँ",
      "छन्,</w>"
    ],
    [
      "३",
      "."
    ],
    [
      "म्या",
      "च</w>"
    ],
    [
      "तट",
      "ीय</w>"
    ],
    [
      "विद्रो",
      "ह"
    ],
    [
      "प",
      "ले</w>"
    ],
    [
      "विवा",
      "ह"
    ],
    [
      "सके",
      "नन्।</w>"
    ],
    [
      "त",
      "टमा</w>"
    ],
    [
      "त्यस",
      "ो</w>"
    ],
    [
      "आ",
      "नु"
    ],
    [
      "त्र",
      "ा"
    ],
    [
      "अ",
      "क्स"
    ],
    [
      "क्यान्सर",
      "बाट</w>"
    ],
    [
      "परिणाम",
      "स्वरूप</w>"
    ],
    [
      "खो",
      "जी</w>"
    ],
    [
      "डा",
      "न</w>"
    ],
    [
      "लि",
      "क"
    ],
    [
      "भ",
      "न्दै</w>"
    ],
    [
      "न",
      "री</w>"
    ],
    [
      "ए",
      "डि"
    ],
    [
      "१९५",
      "६</w>"
    ],
    [
      "सि",
      "कार</w>"
    ],
    [
      "ते",
      "ल"
    ],
    [
      "ष",
      "ा"
    ],
    [
      "प्ले",
      "ट"
    ],
    [
      "कन्",
      "सर्"
    ],
    [
      "पा",
      "वर</w>"
    ],
    [
      "वेद",
      "न"
    ],
    [
      "ड",
      "ब्लु"
    ],
    [
      "चर्",
      "च</w>"
    ],
    [
      "चर्",
      "च"
    ],
    [
      "पढ",
      "्"
    ],
    [
      "गोल",
      "कि"
    ],
    [
      "हो",
      "र</w>"
    ],
    [
      "ह",
      "द"
    ],
    [
      "मा",
      "ल"
    ],
    [
      "टा",
      "उन</w>"
    ],
    [
      "ब",
      "ु</w>"
    ],
    [
      "न्",
      "सी</w>"
    ],
    [
      "म",
      "-"
    ],
    [
      "न",
      "मा,</w>"
    ],
    [
      "फ",
      "मा</w>"
    ],
    [
      "्यार",
      "े"
    ],
    [
      "सम्",
      "मानित</w>"
    ],
    [
      "चिन्",
      "तित</w>"
    ],
    [
      "पा",
      "त"
    ],
    [
      "सफल",
      "ता</w>"
    ],
    [
      "ष",
      "ित</w>"
    ],
    [
      "क्याथो",
      "लिक</w>"
    ],
    [
      "रो",
      "ज"
    ],
    [
      "ता",
      "बाट</w>"
    ],
    [
      "ण",
      "बाट</w>"
    ],
    [
      "सत",
      "ह"
    ],
    [
      "ति",
      ",</w>"
    ],
    [
      "कार",
      "क</w>"
    ],
    [
      "आत्",
      "मह"
    ],
    [
      "दुई",
      "जना</w>"
    ],
    [
      "र",
      "ङ"
    ],
    [
      "अव",
      "ै"
    ],
    [
      "वै",
      "दिक</w>"
    ],
    [
      "मोबाइ",
      "ल</w>"
    ],
    [
      "स",
      "प्ता"
    ],
    [
      "राज्य",
      "ले</w>"
    ],
    [
      "प्र",
      "क्रिया</w>"
    ],
    [
      "वासि",
      "ङ्"
    ],
    [
      "से",
      "ल"
    ],
    [
      "क्या",
      "म्प"
    ],
    [
      "सेके",
      "न्ड"
    ],
    [
      "पे",
      "नाल्"
    ],
    [
      "जो",
      "ड</w>"
    ],
    [
      "भनि",
      "न्छ</w>"
    ],
    [
      "ति",
      "नलाई</w>"
    ]
  ],
  "merge_stats": [
    {
      "step": 1,
      "pair": "ा</w>",
      "pair_chars": [
        "ा",
        "</w>"
      ],
      "frequency": 251562
    },
    {
      "step": 2,
      "pair": "ो</w>",
      "pair_chars": [
        "ो",
        "</w>"
      ],
      "frequency": 184959
    },
    {
      "step": 3,
      "pair": "न्",
      "pair_chars": [
        "न",
        "्"
      ],
      "frequency": 150191
    },
    {
      "step": 4,
      "pair": "को</w>",
      "pair_chars": [
        "क",
        "ो</w>"
      ],
      "frequency": 129832
    },
    {
      "step": 5,
      "pair": "।</w>",
      "pair_chars": [
        "।",
        "</w>"
      ],
      "frequency": 121076
    },
    {
      "step": 6,
      "pair": "्र",
      "pair_chars": [
        "्",
        "र"
      ],
      "frequency": 117040
    },
    {
      "step": 7,
      "pair": "र्",
      "pair_chars": [
        "र",
        "्"
      ],
      "frequency": 114163
    },
    {
      "step": 8,
      "pair": "मा</w>",
      "pair_chars": [
        "म",
        "ा</w>"
      ],
      "frequency": 96316
    },
    {
      "step": 9,
      "pair": "े</w>",
      "pair_chars": [
        "े",
        "</w>"
      ],
      "frequency": 90756
    },
    {
      "step": 10,
      "pair": "र</w>",
      "pair_chars": [
        "र",
        "</w>"
      ],
      "frequency": 87462
    },
    {
      "step": 11,
      "pair": "्य",
      "pair_chars": [
        "्",
        "य"
      ],
      "frequency": 83626
    },
    {
      "step": 12,
      "pair": "रू",
      "pair_chars": [
        "र",
        "ू"
      ],
      "frequency": 81702
    },
    {
      "step": 13,
      "pair": "न</w>",
      "pair_chars": [
        "न",
        "</w>"
      ],
      "frequency": 72304
    },
    {
      "step": 14,
      "pair": "ी</w>",
      "pair_chars": [
        "ी",
        "</w>"
      ],
      "frequency": 72202
    },
    {
      "step": 15,
      "pair": "हरू",
      "pair_chars": [
        "ह",
        "रू"
      ],
      "frequency": 70339
    },
    {
      "step": 16,
      "pair": "ला",
      "pair_chars": [
        "ल",
        "ा"
      ],
      "frequency": 69518
    },
    {
      "step": 17,
      "pair": "स्",
      "pair_chars": [
        "स",
        "्"
      ],
      "frequency": 62649
    },
    {
      "step": 18,
      "pair": "ि</w>",
      "pair_chars": [
        "ि",
        "</w>"
      ],
      "frequency": 59591
    },
    {
      "step": 19,
      "pair": "ले</w>",
      "pair_chars": [
        "ल",
        "े</w>"
      ],
      "frequency": 58831
    },
    {
      "step": 20,
      "pair": ",</w>",
      "pair_chars": [
        ",",
        "</w>"
      ],
      "frequency": 55667
    },
    {
      "step": 21,
      "pair": "का</w>",
      "pair_chars": [
        "क",
        "ा</w>"
      ],
      "frequency": 55590
    },
    {
      "step": 22,
      "pair": "क्",
      "pair_chars": [
        "क",
        "्"
      ],
      "frequency": 46941
    },
    {
      "step": 23,
      "pair": "िय",
      "pair_chars": [
        "ि",
        "य"
      ],
      "frequency": 46877
    },
    {
      "step": 24,
      "pair": "मा",
      "pair_chars": [
        "म",
        "ा"
      ],
      "frequency": 46427
    },
    {
      "step": 25,
      "pair": "प्र",
      "pair_chars": [
        "प",
        "्र"
      ],
      "frequency": 45658
    },
    {
      "step": 26,
      "pair": "ार",
      "pair_chars": [
        "ा",
        "र"
      ],
      "frequency": 44677
    },
    {
      "step": 27,
      "pair": "क</w>",
      "pair_chars": [
        "क",
        "</w>"
      ],
      "frequency": 41980
    },
    {
      "step": 28,
      "pair": "त</w>",
      "pair_chars": [
        "त",
        "</w>"
      ],
      "frequency": 41615
    },
    {
      "step": 29,
      "pair": "ई</w>",
      "pair_chars": [
        "ई",
        "</w>"
      ],
      "frequency": 37841
    },
    {
      "step": 30,
      "pair": "रा",
      "pair_chars": [
        "र",
        "ा"
      ],
      "frequency": 34282
    },
    {
      "step": 31,
      "pair": "छ।</w>",
      "pair_chars": [
        "छ",
        "।</w>"
      ],
      "frequency": 34167
    },
    {
      "step": 32,
      "pair": "ो।</w>",
      "pair_chars": [
        "ो",
        "।</w>"
      ],
      "frequency": 33936
    },
    {
      "step": 33,
      "pair": "लाई</w>",
      "pair_chars": [
        "ला",
        "ई</w>"
      ],
      "frequency": 33723
    },
    {
      "step": 34,
      "pair": "गर",
      "pair_chars": [
        "ग",
        "र"
      ],
      "frequency": 33110
    },
    {
      "step": 35,
      "pair": "वि",
      "pair_chars": [
        "व",
        "ि"
      ],
      "frequency": 33036
    },
    {
      "step": 36,
      "pair": "का",
      "pair_chars": [
        "क",
        "ा"
      ],
      "frequency": 31102
    },
    {
      "step": 37,
      "pair": "गर्",
      "pair_chars": [
        "ग",
        "र्"
      ],
      "frequency": 30222
    },
    {
      "step": 38,
      "pair": "िए",
      "pair_chars": [
        "ि",
        "ए"
      ],
      "frequency": 29793
    },
    {
      "step": 39,
      "pair": "म्",
      "pair_chars": [
        "म",
        "्"
      ],
      "frequency": 29363
    },
    {
      "step": 40,
      "pair": "नि",
      "pair_chars": [
        "न",
        "ि"
      ],
      "frequency": 29255
    },
    {
      "step": 41,
      "pair": "्या",
      "pair_chars": [
        "्य",
        "ा"
      ],
      "frequency": 28670
    },
    {
      "step": 42,
      "pair": "हरू</w>",
      "pair_chars": [
        "हरू",
        "</w>"
      ],
      "frequency": 28432
    },
    {
      "step": 43,
      "pair": "उन",
      "pair_chars": [
        "उ",
        "न"
      ],
      "frequency": 27828
    },
    {
      "step": 44,
      "pair": "ना",
      "pair_chars": [
        "न",
        "ा"
      ],
      "frequency": 27099
    },
    {
      "step": 45,
      "pair": "ै</w>",
      "pair_chars": [
        "ै",
        "</w>"
      ],
      "frequency": 26384
    },
    {
      "step": 46,
      "pair": "ति",
      "pair_chars": [
        "त",
        "ि"
      ],
      "frequency": 25490
    },
    {
      "step": 47,
      "pair": "सा",
      "pair_chars": [
        "स",
        "ा"
      ],
      "frequency": 25443
    },
    {
      "step": 48,
      "pair": "म</w>",
      "pair_chars": [
        "म",
        "</w>"
      ],
      "frequency": 24907
    },
    {
      "step": 49,
      "pair": "पा",
      "pair_chars": [
        "प",
        "ा"
      ],
      "frequency": 24685
    },
    {
      "step": 50,
      "pair": "ल</w>",
      "pair_chars": [
        "ल",
        "</w>"
      ],
      "frequency": 24634
    },
    {
      "step": 51,
      "pair": "हु",
      "pair_chars": [
        "ह",
        "ु"
      ],
      "frequency": 24201
    },
    {
      "step": 52,
      "pair": "स</w>",
      "pair_chars": [
        "स",
        "</w>"
      ],
      "frequency": 23170
    },
    {
      "step": 53,
      "pair": "ट</w>",
      "pair_chars": [
        "ट",
        "</w>"
      ],
      "frequency": 22536
    },
    {
      "step": 54,
      "pair": "न्।</w>",
      "pair_chars": [
        "न्",
        "।</w>"
      ],
      "frequency": 22231
    },
    {
      "step": 55,
      "pair": "बा",
      "pair_chars": [
        "ब",
        "ा"
      ],
      "frequency": 21339
    },
    {
      "step": 56,
      "pair": "ल्",
      "pair_chars": [
        "ल",
        "्"
[...]
