{
  "merges": [
    [
      "େ",
      "</w>"
    ],
    [
      "ା",
      "</w>"
    ],
    [
      "ା",
      "ର"
    ],
    [
      "ି",
      "</w>"
    ],
    [
      "।",
      "</w>"
    ],
    [
      "୍",
      "ୟ"
    ],
    [
      "ର",
      "େ</w>"
    ],
    [
      "ୁ",
      "</w>"
    ],
    [
      "ର",
      "</w>"
    ],
    [
      "ଥ",
      "ି"
    ],
    [
      "ର",
      "୍"
    ],
    [
      ",",
      "</w>"
    ],
    [
      "କ",
      "</w>"
    ],
    [
      "କ",
      "ର"
    ],
    [
      "ା",
      "ନ"
    ],
    [
      "ସ",
      "୍"
    ],
    [
      "ଥି",
      "ଲ"
    ],
    [
      "ା",
      "ଇ"
    ],
    [
      "ତ",
      "</w>"
    ],
    [
      "ି",
      "ବ"
    ],
    [
      "୍",
      "</w>"
    ],
    [
      "ଂ",
      "</w>"
    ],
    [
      "କ",
      "ୁ</w>"
    ],
    [
      "ବ",
      "ି"
    ],
    [
      "ଏ",
      "ବ"
    ],
    [
      "ଏ",
      "ହ"
    ],
    [
      "ଏବ",
      "ଂ</w>"
    ],
    [
      "ଙ୍କ",
      "</w>"
    ],
    [
      "ାର",
      "</w>"
    ],
    [
      "ନ",
      "ି"
    ],
    [
      "୍",
      "‌"
    ],
    [
      "ମ",
      "ାନ"
    ],
    [
      "ୀ",
      "</w>"
    ],
    [
      "ା",
      "ହ"
    ],
    [
      "ଷ",
      "୍"
    ],
    [
      "ଣ",
      "</w>"
    ],
    [
      "ର",
      "ା"
    ],
    [
      "ନ",
      "</w>"
    ],
    [
      "ୟ",
      "</w>"
    ],
    [
      "ି",
      "କ"
    ],
    [
      "୍ୟ",
      "</w>"
    ],
    [
      "ଏ",
      "କ</w>"
    ],
    [
      "କର",
      "ି"
    ],
    [
      "ଁ",
      "</w>"
    ],
    [
      "ସ",
      "ି"
    ],
    [
      "ି",
      "ତ</w>"
    ],
    [
      "ତ",
      "ା"
    ],
    [
      "ି",
      "କ</w>"
    ],
    [
      "େ",
      ",</w>"
    ],
    [
      "ସ",
      "େ"
    ],
    [
      "ୋ",
      "ଇ"
    ],
    [
      "ଷ୍",
      "ଟ"
    ],
    [
      "କ",
      "୍"
    ],
    [
      "ବ",
      "ା</w>"
    ],
    [
      "ହ",
      "େ"
    ],
    [
      "ପ",
      "ାଇ"
    ],
    [
      "ହ",
      "ୋଇ"
    ],
    [
      "ଭ",
      "ା"
    ],
    [
      "ଗ",
      "ୁ"
    ],
    [
      "ଡ",
      "଼"
    ],
    [
      "ତ",
      "ି"
    ],
    [
      "ପ",
      "ର"
    ],
    [
      "୍",
      "ୱ"
    ],
    [
      "ମ",
      "ା"
    ],
    [
      "େ",
      "।</w>"
    ],
    [
      "ମ",
      "</w>"
    ],
    [
      "କ",
      "ି"
    ],
    [
      "ଦ",
      "େ"
    ],
    [
      "ଅ",
      "ନ"
    ],
    [
      "ା",
      "ଏ"
    ],
    [
      "ାର",
      "େ</w>"
    ],
    [
      "ା",
      "ଯ"
    ],
    [
      "ବ",
      "ା"
    ],
    [
      "ଏହ",
      "ି</w>"
    ],
    [
      "ପାଇ",
      "ଁ</w>"
    ],
    [
      "ଥିଲ",
      "ା"
    ],
    [
      "ସ",
      "ମ"
    ],
    [
      "ଛ",
      "ି</w>"
    ],
    [
      "ାର",
      "୍"
    ],
    [
      "ହ",
      "ି"
    ],
    [
      "ନ",
      "୍"
    ],
    [
      "ସ",
      "ା"
    ],
    [
      "୍ୟ",
      "ା"
    ],
    [
      "ମ",
      "ଧ"
    ],
    [
      "ପ",
      "ା"
    ],
    [
      "ର",
      "ୁ</w>"
    ],
    [
      "ମ",
      "ି"
    ],
    [
      "ଙ୍କ",
      "ୁ</w>"
    ],
    [
      "ସ",
      "ହ"
    ],
    [
      "ଥି",
      "ବା</w>"
    ],
    [
      "ି",
      "।</w>"
    ],
    [
      "ଳ",
      "</w>"
    ],
    [
      "୍",
      "ର"
    ],
    [
      "କ",
      "ା"
    ],
    [
      "ଲ",
      "ି"
    ],
    [
      "ଲ",
      "ା"
    ],
    [
      "କର",
      "ିବ"
    ],
    [
      "ଥିଲ",
      "େ</w>"
    ],
    [
      "ମ",
      "ୁ"
    ],
    [
      "ଟ",
      "ି"
    ],
    [
      "ସ",
      "େ</w>"
    ],
    [
      "ଭ",
      "ି"
    ],
    [
      "ଭା",
      "ବ"
    ],
    [
      "ୀ",
      "ୟ</w>"
    ],
    [
      "ବ",
      "େ"
    ],
    [
      "ଓ",
      "</w>"
    ],
    [
      "ନ",
      "ା"
    ],
    [
      "ଥିଲା",
      "।</w>"
    ],
    [
      "ଲ",
      "</w>"
    ],
    [
      "ଟ",
      "ି</w>"
    ],
    [
      "ଥିଲ",
      "େ।</w>"
    ],
    [
      "ସ",
      "</w>"
    ],
    [
      "ତ",
      "ି</w>"
    ],
    [
      "୨",
      "୦"
    ],
    [
      "ଥିଲ",
      "ା</w>"
    ],
    [
      "କ",
      "େ"
    ],
    [
      "ଥ",
      "ାଏ"
    ],
    [
      "ବ",
      "ର୍"
    ],
    [
      "କର",
      "ାଯ"
    ],
    [
      "ଏହ",
      "ା</w>"
    ],
    [
      "ରା",
      "ଜ"
    ],
    [
      "୍‌",
      "</w>"
    ],
    [
      "ସ୍",
      "ଥ"
    ],
    [
      "ା",
      "କୁ</w>"
    ],
    [
      "ଦ",
      "୍"
    ],
    [
      "ଶ",
      "</w>"
    ],
    [
      "ମାନ",
      "େ</w>"
    ],
    [
      "ବ",
      "୍ୟ"
    ],
    [
      "ନ",
      "େ"
    ],
    [
      "ପ",
      "ୁ"
    ],
    [
      "ହେ",
      "ଉ"
    ],
    [
      "ଦ",
      "ି"
    ],
    [
      "ପ",
      "ରେ</w>"
    ],
    [
      "ଲ",
      "ୋ"
    ],
    [
      "ମ",
      "୍"
    ],
    [
      "ଯ",
      "େ"
    ],
    [
      "ତ",
      "େ"
    ],
    [
      "ାନ",
      "</w>"
    ],
    [
      "କ",
      "ାର"
    ],
    [
      "ଆ",
      "ପ"
    ],
    [
      "ଅ",
      "ଧ"
    ],
    [
      "ର",
      "ି"
    ],
    [
      "୧",
      "୯"
    ],
    [
      "ତ",
      "ା</w>"
    ],
    [
      "ମ",
      "େ"
    ],
    [
      "ୋ",
      "ଗ"
    ],
    [
      "ର୍",
      "ବ"
    ],
    [
      "ଯ",
      "ାହ"
    ],
    [
      "ପ",
      "ାର"
    ],
    [
      "ନ",
      "ା</w>"
    ],
    [
      "ଦ",
      "୍ୱ"
    ],
    [
      "ମଧ",
      "୍ୟ"
    ],
    [
      "ନ୍ତ",
      "ି</w>"
    ],
    [
      "ତ",
      "୍"
    ],
    [
      "ଦ୍",
      "ଧ"
    ],
    [
      "ସ",
      "ୁ"
    ],
    [
      "ର",
      "େ,</w>"
    ],
    [
      "ି",
      ",</w>"
    ],
    [
      "ନ",
      "୍</w>"
    ],
    [
      "ର",
      "ହି"
    ],
    [
      "ଷ",
      "</w>"
    ],
    [
      "ସ",
      "ଂ"
    ],
    [
      "ଜ",
      "ଣ"
    ],
    [
      "ପ",
      "ୂ"
    ],
    [
      "ଜ",
      "ା"
    ],
    [
      "ଜ",
      "ି"
    ],
    [
      "ାର",
      "ା</w>"
    ],
    [
      "ଣ",
      "୍"
    ],
    [
      "ଟ",
      "</w>"
    ],
    [
      "ର",
      "ୁ"
    ],
    [
      "ହେଉ",
      "ଛି</w>"
    ],
    [
      "ଗୁ",
      "ଡ଼"
    ],
    [
      "ଲ",
      "େ"
    ],
    [
      "ଗ",
      "ୋ"
    ],
    [
      "କ",
      "ୋ"
    ],
    [
      "କରାଯ",
      "ାଇ"
    ],
    [
      "ହ",
      "ୁ"
    ],
    [
      "ଭ",
      "ାର"
    ],
    [
      "କ",
      "ୁ"
    ],
    [
      "ଯ",
      "୍ୟ"
    ],
    [
      "ମାନ",
      "ଙ୍କ</w>"
    ],
    [
      "'",
      "</w>"
    ],
    [
      "ହ",
      "ା"
    ],
    [
      "ମଧ",
      "୍ୟ</w>"
    ],
    [
      "ମ",
      "ୋ"
    ],
    [
      "ବି",
      "ଶ"
    ],
    [
      "ଆ",
      "ର"
    ],
    [
      "ଡ",
      "ି"
    ],
    [
      "ଛ",
      "ି।</w>"
    ],
    [
      "ତା",
      "ଙ୍କ</w>"
    ],
    [
      "ସ୍",
      "ତ"
    ],
    [
      "ନ୍ତ",
      "ି।</w>"
    ],
    [
      "କରିବ",
      "ା</w>"
    ],
    [
      "ତ",
      "୍ୟ"
    ],
    [
      "ନି",
      "ର୍"
    ],
    [
      "ପ",
      "ି"
    ],
    [
      "୦",
      "</w>"
    ],
    [
      "ମ",
      "ସି"
    ],
    [
      "ବେ",
      "ଳ"
    ],
    [
      "ମସି",
      "ହ"
    ],
    [
      "ଚ",
      "ି"
    ],
    [
      "ଅନ",
      "ୁ"
    ],
    [
      "ାର",
      "ୁ</w>"
    ],
    [
      "ସ୍",
      "ୱ"
    ],
    [
      "ଚ",
      "ା"
    ],
    [
      "ତ୍ର",
      "</w>"
    ],
    [
      "ପ୍ର",
      "ା"
    ],
    [
      "ବ୍ୟ",
      "ବ"
    ],
    [
      "ପ",
      "୍"
    ],
    [
      "ଦ",
      "ୁ"
    ],
    [
      "ତ",
      "ୀୟ</w>"
    ],
    [
      "ର",
      "େ"
    ],
    [
      "ଙ୍କ",
      "ର</w>"
    ],
    [
      ".",
      "</w>"
    ],
    [
      "ଗୁ",
      "ଡ଼"
    ],
    [
      "ପ",
      "ର୍"
    ],
    [
      "ମ୍ବ",
      "ା</w>"
    ],
    [
      "ଯ",
      "େ</w>"
    ],
    [
      "ିବ",
      "ା</w>"
    ],
    [
      "ୟ",
      "ରେ</w>"
    ],
    [
      "ଲ",
      "୍"
    ],
    [
      "ଆ",
      "</w>"
    ],
    [
      "ଯାହ",
      "ା</w>"
    ],
    [
      "ର",
      "ୋ"
    ],
    [
      "େ",
      "କ</w>"
    ],
    [
      "ପର",
      "ି"
    ],
    [
      "ବ",
      "୍"
    ],
    [
      "ଦ୍ୱ",
      "ାରା</w>"
    ],
    [
      "ଧ",
      "ାର"
    ],
    [
      "ଯ",
      "ୁ"
    ],
    [
      "କି",
      "ମ୍ବା</w>"
    ],
    [
      "ଭାବ",
      "େ</w>"
    ],
    [
      "ନ୍ତ",
      "</w>"
    ],
    [
      "ଖ",
      "େ"
    ],
    [
      "ର୍",
      "ଣ୍"
    ],
    [
      "ସହ",
      "ିତ</w>"
    ],
    [
      "କ",
      "ାର୍"
    ],
    [
      "ପ୍ର",
      "ତି"
    ],
    [
      "ଏ",
      "</w>"
    ],
    [
      ".",
      "ଏ"
    ],
    [
      "ଶ",
      "ା"
    ],
    [
      "ାହ",
      "ି"
    ],
    [
      "ଉ",
      "ପ"
    ],
    [
      "ଷ୍",
      "ଠ"
    ],
    [
      "ଜଣ",
      "େ</w>"
    ],
    [
      "ଶ",
      "ି"
    ],
    [
      "ସ୍",
      "</w>"
    ],
    [
      "ଇ",
      "</w>"
    ],
    [
      "ଯେ",
      "ଉ"
    ],
    [
      "ଲ",
      "ି</w>"
    ],
    [
      "ବ",
      "ୋ"
    ],
    [
      "ଦ",
      "</w>"
    ],
    [
      "ଥାଏ",
      "।</w>"
    ],
    [
      "ଭ",
      "</w>"
    ],
    [
      "ବ",
      "ୁ"
    ],
    [
      "କରି",
      "ଥିଲେ</w>"
    ],
    [
      "ଯ",
      "ୋଗ"
    ],
    [
      "ା",
      "ୟ"
    ],
    [
      "ବ",
      "</w>"
    ],
    [
      "ଅ",
      "ବ"
    ],
    [
      "ଲ",
      "୍</w>"
    ],
    [
      "ବେଳ",
      "େ</w>"
    ],
    [
      "କରି",
      "ଥିଲେ।</w>"
    ],
    [
      "ଟ",
      "େ"
    ],
    [
      "ନ୍ତ",
      "ୁ</w>"
    ],
    [
      "ଷ୍ଟ",
      "</w>"
    ],
    [
      "ପୂ",
      "ର୍ବ"
    ],
    [
      "ମଧ୍ୟ",
      "ରେ</w>"
    ],
    [
      "ଠ",
      "ାରୁ</w>"
    ],
    [
      "ପ",
      "</w>"
    ],
    [
      "‍",
      "‌"
    ],
    [
      "ଉ",
      "ପରେ</w>"
    ],
    [
      "ଆପ",
      "ଣ"
    ],
    [
      "ାର",
      "ି"
    ],
    [
      "ଅନ",
      "େକ</w>"
    ],
    [
      "ଥ",
      "ା"
    ],
    [
      "ମାନ",
      "</w>"
    ],
    [
      "୨୦",
      "୧"
    ],
    [
      "କର",
      "ୁ"
    ],
    [
      "କ୍",
      "ତ</w>"
    ],
    [
      "କ",
      "ୃ"
    ],
    [
      "ମୁ",
      "ଖ"
    ],
    [
      "ଳ",
      "ା"
    ],
    [
      "ଜ",
      "</w>"
    ],
    [
      "ବ୍ୟବ",
      "ହ"
    ],
    [
      "ପ୍ର",
      "ଥ"
    ],
    [
      "ଯ",
      "ାଇ"
    ],
    [
      "ଯେଉ",
      "ଁ"
    ],
    [
      "୍ୟ",
      "ୁ"
    ],
    [
      "ଆପ",
      "ଣ</w>"
    ],
    [
      "ସ୍",
      "ଥି"
    ],
    [
      "ନ୍",
      "ଧ"
    ],
    [
      "ପ",
      "େ"
    ],
    [
      "କର",
      "ି</w>"
    ],
    [
      "ଅଧ",
      "ିକ</w>"
    ],
    [
      "ପର୍",
      "ଯ୍ୟ"
    ],
    [
      "ତ",
      "ଃ"
    ],
    [
      "ପ",
      "ୋ"
    ],
    [
      "ଫ",
      "ି"
    ],
    [
      "ଲୋ",
      "କ"
    ],
    [
      "ସ",
      "ି</w>"
    ],
    [
      "ଶ",
      "୍"
    ],
    [
      "ସ୍",
      "‌"
    ],
    [
      "ଚ",
      "ଳ"
    ],
    [
      "ଦେ",
      "ଖ"
    ],
    [
      "ଏହ",
      "ାର</w>"
    ],
    [
      "ଗୁଡ଼",
      "ିକ</w>"
    ],
    [
      "ଳ",
      "ି"
    ],
    [
      "ୀ",
      "ର</w>"
    ],
    [
      "ବ",
      "୍ୟା"
    ],
    [
      "ଥିଲ",
      "େ,</w>"
    ],
    [
      "ଳ",
      "ି</w>"
    ],
    [
      "ନ୍ତ",
      "ି,</w>"
    ],
    [
      "କ",
      "ାର</w>"
    ],
    [
      "ଦ",
      "ା"
    ],
    [
      "ମ",
      "୍</w>"
    ],
    [
      "ଥାଏ",
      "</w>"
    ],
    [
      "ଥିଲା",
      ",</w>"
    ],
    [
      "ଲ",
      "ା</w>"
    ],
    [
      "କ",
      "ର୍"
    ],
    [
      "ନ",
      "ାହି"
    ],
    [
      "ନ",
      "୍‌"
    ],
    [
      "ଟ",
      "୍</w>"
    ],
    [
      "ତଃ",
      "</w>"
    ],
    [
      "ସା",
      "ଧାର"
    ],
    [
      "ଦେ",
      "ଇ"
    ],
    [
      "ତ",
      "ୁ"
    ],
    [
      "ଅ",
      "ଭି"
    ],
    [
      "ପର",
      "ିବ"
    ],
    [
      "ର୍",
      "ଥ"
    ],
    [
      "ବ",
      "ୃ"
    ],
    [
      "ର",
      "ିକ"
    ],
    [
      "ାଇ",
      "</w>"
    ],
    [
      "ବିଶ",
      "୍ୱ"
    ],
    [
      "ଡ",
      "େ"
    ],
    [
      "ଜ",
      "ନ"
    ],
    [
      "ଭ",
      "ୂ"
    ],
    [
      "ଆର",
      "ମ୍"
    ],
    [
      "ଭାର",
      "ତ"
    ],
    [
      "ା",
      "ଉ"
    ],
    [
      "ପ୍ର",
      "ଦ"
    ],
    [
      "ଭାବ",
      "ରେ</w>"
    ],
    [
      "ଗ",
      "</w>"
    ],
    [
      "ୟ",
      "ୁ"
    ],
    [
      "ନ୍ନ",
      "</w>"
    ],
    [
      "ଅ",
      "ଟ"
    ],
    [
      "ଣ",
      "ା</w>"
    ],
    [
      "ୋ",
      "ଜ"
    ],
    [
      "ଆ",
      "ଇ"
    ],
    [
      "ମାନ",
      "ଙ୍କୁ</w>"
    ],
    [
      "କ",
      "ି</w>"
    ],
    [
      "୨୦",
      "୦"
    ],
    [
      "କ୍",
      "ତ"
    ],
    [
      "ଲ",
      "୍‌"
    ],
    [
      "କ",
      "ୌ"
    ],
    [
      "ର",
      "ଖ"
    ],
    [
      "ପାର",
      "ିବ"
    ],
    [
      "ଳ",
      "ରେ</w>"
    ],
    [
      "ଦ",
      "ି</w>"
    ],
    [
      "ଛ",
      "ନ୍ତି</w>"
    ],
    [
      "ଅ",
      "ଞ୍ଚ"
    ],
    [
      "ର",
      "ରେ</w>"
    ],
    [
      "ବ",
      "୍ର"
    ],
    [
      "ଗୁଡ଼",
      "ିକ</w>"
    ],
    [
      "ଫ",
      "େ"
    ],
    [
      "ଆରମ୍",
      "ଭ</w>"
    ],
    [
      "ଣ",
      "ା"
    ],
    [
      "ପ୍ରଥ",
      "ମ</w>"
    ],
    [
      "ର",
      "ଣ</w>"
    ],
    [
      "ରାଜ",
      "୍ୟ"
    ],
    [
      "ତେ",
      "ବେଳେ</w>"
    ],
    [
      "ମୁ",
      "ଁ</w>"
    ],
    [
      "କ୍",
      "ତି"
    ],
    [
      "ସ୍ଥ",
      "ାନ"
    ],
    [
      "ଜ",
      "େ"
    ],
    [
      "ଦେ",
      "ଶ"
    ],
    [
      "ସ୍",
      "ତ</w>"
    ],
    [
      "ର୍ଣ୍",
      "ଣ</w>"
    ],
    [
      "ସେ",
      "ମାନେ</w>"
    ],
    [
      "ପର୍ଯ୍ୟ",
      "ନ୍ତ</w>"
    ],
    [
      "ଚ୍ଚ",
      "ି"
    ],
    [
      "ଠ",
      "ାରେ</w>"
    ],
    [
      "ନ",
      "ୋ"
    ],
    [
      "ଉ",
      "ତ୍ତ"
    ],
    [
      "ଚଳ",
      "ଚ୍ଚି"
    ],
    [
      "ଶ",
      "େ"
    ],
    [
      "ଉ",
      "ତ୍"
    ],
    [
      "ଅ",
      "ନ୍ତ"
    ],
    [
      ")",
      "</w>"
    ],
    [
      "ଷ୍ଟ",
      "୍ର"
    ],
    [
      "ଗ୍ର",
      "ହ"
    ],
    [
      "ବ",
      "ାହ"
    ],
    [
      "ଂ",
      "ଶ</w>"
    ],
    [
      "ିକ",
      "ା"
    ],
    [
      "ସମ",
      "ୟରେ</w>"
    ],
    [
      "ବ",
      "ିବ"
    ],
    [
      "ବର୍",
      "ତ୍ତ"
    ],
    [
      "ମ",
      "ୂ"
    ],
    [
      "ଣ",
      "ି"
    ],
    [
      "ତ",
      "୍ୱ"
    ],
    [
      "ହ",
      "ି</w>"
    ],
    [
      "ବ୍ୟବହ",
      "ାର</w>"
    ],
    [
      "ୀ",
      "ନ</w>"
    ],
    [
      "କ୍ର",
      "ମ"
    ],
    [
      "ଶ",
      "ୁ"
    ],
    [
      "କି",
      "ନ୍ତୁ</w>"
    ],
    [
      "ସହ",
      "</w>"
    ],
    [
      "ଅନ",
      "୍ୟ</w>"
    ],
    [
      "୫",
      "</w>"
    ],
    [
      "କି",
      "ଛି</w>"
    ],
    [
      "ବର୍",
      "ଷ</w>"
    ],
    [
      "୧",
      "</w>"
    ],
    [
      "ଟ",
      "ର</w>"
    ],
    [
      "ତ",
      "ାହ"
    ],
    [
      "ବୋ",
      "ଲି</w>"
    ],
    [
      "କରିବ",
      "ାକୁ</w>"
    ],
    [
      "ଛ",
      "ି,</w>"
    ],
    [
      "ସ",
      "ମ୍ପ"
    ],
    [
      "ର୍",
      "‌"
    ],
    [
      "ଲ",
      "ୁ"
    ],
    [
      "ବି",
      "ଷ"
    ],
    [
      "ଭି",
      "ନ୍ନ</w>"
    ],
    [
      "ଥି",
      "ରେ</w>"
    ],
    [
      "ଲ",
      "େ</w>"
    ],
    [
      "ମ",
      "ୃ"
    ],
    [
      "ିବ",
      "ାକୁ</w>"
    ],
    [
      "୍",
      "ରା"
    ],
    [
      "ନା",
      "ମ"
    ],
    [
      "ାଏ",
      "।</w>"
    ],
    [
      "୨",
      "</w>"
    ],
    [
      "ସ",
      "ରେ</w>"
    ],
    [
      "ର",
      "ି</w>"
    ],
    [
      "ୀ",
      "ତ</w>"
    ],
    [
      "ଡ",
      "</w>"
    ],
    [
      "ଗ",
      "ା"
    ],
    [
      "ଚ",
      "େ"
    ],
    [
      "କୌ",
      "ଣ"
    ],
    [
      "ନ",
      "ରେ</w>"
    ],
    [
      "ଗ",
      "ତ</w>"
    ],
    [
      "ଖ",
      "ା"
    ],
    [
      "ତା",
      "ଙ୍କୁ</w>"
    ],
    [
      "ଡ଼",
      "ି"
    ],
    [
      "ତେ",
      "ବ"
    ],
    [
      "କୌଣ",
      "ସି</w>"
    ],
    [
      "ଣ୍ଡ",
      "</w>"
    ],
    [
      "ର",
      "ୂ"
    ],
    [
      "ଆ",
      "ମେ"
    ],
    [
      "ର୍",
      "ଶ"
    ],
    [
      "ି",
      "କୁ</w>"
    ],
    [
      "ଭ",
      "େ"
    ],
    [
      "ୃ",
      "ଷ୍ଟ"
    ],
    [
      "ଦ",
      "ୀ"
    ],
    [
      "ନାହି",
      "ଁ"
    ],
    [
      "କ୍ଷ",
      "ା</w>"
    ],
    [
      "ମ",
      "ା</w>"
    ],
    [
      "ଆମେ",
      "ରିକ"
    ],
    [
      "ମସିହ",
      "ାରେ</w>"
    ],
    [
      "ସ",
      "ଙ୍ଗ"
    ],
    [
      "ଳ",
      "୍"
    ],
    [
      "ପର",
      "େ,</w>"
    ],
    [
      "ଚ",
      "ିତ</w>"
    ],
    [
      "ଧ",
      "</w>"
    ],
    [
      "ଯେ",
      "ତେବେଳେ</w>"
    ],
    [
      "ଦ୍ଧ",
      "</w>"
    ],
    [
      "ର୍",
      "ତ୍ତ"
    ],
    [
      "ହୋଇ",
      "ଥିଲା।</w>"
    ],
    [
      "ଦ",
      "କ୍ଷ"
    ],
    [
      "ନି",
      "ୟ"
    ],
    [
      "ସେ",
      "ମାନଙ୍କ</w>"
    ],
    [
      "ସ",
      "ବୁ"
    ],
    [
      "ନ",
      "ର</w>"
    ],
    [
      "ଆପଣ",
      "ଙ୍କ</w>"
    ],
    [
      "ଯ",
      "୍ୟ</w>"
    ],
    [
      "ସ",
      "ର"
    ],
    [
      "ାହ",
      "ା"
    ],
    [
      "ନ",
      "ୁ"
    ],
    [
      "କ",
      "୍</w>"
    ],
    [
      "ଯ",
      "ା"
    ],
    [
      "ୟ",
      "ା"
    ],
    [
      "ଶ",
      "୍ୟ"
    ],
    [
      "ସ",
      "ର</w>"
    ],
    [
      "ାଏ",
      "</w>"
    ],
    [
      "ଏହ",
      "ାକୁ</w>"
    ],
    [
      "ବ",
      "ାର</w>"
    ],
    [
      "ସେ",
      "ହି</w>"
    ],
    [
      "ୀ",
      ",</w>"
    ],
    [
      "ଭ",
      "ଳି</w>"
    ],
    [
      "୪",
      "</w>"
    ],
    [
      "ଭ",
      "ୁ"
    ],
    [
      "ଅନ୍ତ",
      "ର୍"
    ],
    [
      "ଯ",
      "ଦି</w>"
    ],
    [
      "ଚ୍ଚ",
      "</w>"
    ],
    [
      "ାନ",
      "୍"
    ],
    [
      "ଳ",
      "ା</w>"
    ],
    [
      "ଫ",
      "୍"
    ],
    [
      "କାର୍",
      "ଯ୍ୟ"
    ],
    [
      "ତ",
      "େ</w>"
    ],
    [
      "ସମ",
      "୍"
    ],
    [
      "ପ୍ର",
      "ି"
    ],
    [
      "ଗୋ",
      "ଟି"
    ],
    [
      "୬",
      "</w>"
    ],
    [
      "ଖ",
      "ରେ</w>"
    ],
    [
      "୮",
      "</w>"
    ],
    [
      "ଜ",
      "ୁ"
    ],
    [
      "୭",
      "</w>"
    ],
    [
      "କ୍ର",
      "ି"
    ],
    [
      "ଅନ",
      "୍ୟ"
    ],
    [
      "ଡ଼",
      "</w>"
    ],
    [
      "ହୋଇ",
      "ଥିଲା</w>"
    ],
    [
      "ଜ",
      "ୀ"
    ],
    [
      "୩",
      "</w>"
    ],
    [
      "ଶ",
      "ୀ"
    ],
    [
      "ପର",
      "ି</w>"
    ],
    [
      "ଟ",
      "ା"
    ],
    [
      "ନ୍",
      "ତ୍ର"
    ],
    [
      "ସ",
      "ୂ"
    ],
    [
      "ନି",
      "ଜ"
    ],
    [
      "ଗ",
      "ି"
    ],
    [
      "ଟ",
      "ୋ"
    ],
    [
      "ନ୍ତ",
      "ୁ"
    ],
    [
      "ଛ",
      "ନ୍ତି।</w>"
    ],
    [
      "ମସିହ",
      "ା</w>"
    ],
    [
      "ଭାର",
      "ତୀୟ</w>"
    ],
    [
      "ର",
      "ର</w>"
    ],
    [
      ":",
      "</w>"
    ],
    [
      "ରହି",
      "ଛି।</w>"
    ],
    [
      "ିକ",
      "୍</w>"
    ],
    [
      "ଯ",
      "ୋ"
    ],
    [
      "କ",
      "ମ୍ପ"
    ],
    [
      "ଜା",
      "ତୀୟ</w>"
    ],
    [
      "ନ୍",
      "ଦ୍ର"
    ],
    [
      "କ୍",
      "ତି</w>"
    ],
    [
      "ମୃ",
      "ତ୍ୟ"
    ],
    [
      "ାଯ",
      "ାଇ"
    ],
    [
      "ସାଧାର",
      "ଣ"
    ],
    [
      "ସ",
      "ର୍"
    ],
    [
      "୍ୟ",
      "ା</w>"
    ],
    [
      "ା",
      "ପ"
    ],
    [
      "ତ",
      "ୀ"
    ],
    [
      "କ",
      "ରେ</w>"
    ],
    [
      "ମ",
      "୍‌"
    ],
    [
      "ଟ",
      "୍ର"
    ],
    [
      "ଂ",
      "ଶ"
    ],
    [
      "କ୍ଷ",
      "େ"
    ],
    [
      "କୁ",
      "ହ"
    ],
    [
      "ଭାରତ",
      "ର</w>"
    ],
    [
      "ଆ",
      "ର୍"
    ],
    [
      "ନି",
      "କ"
    ],
    [
      "ଣ୍ଟ",
      "</w>"
    ],
    [
      "ା",
      ",</w>"
    ],
    [
      "ଫ",
      "ୁ"
    ],
    [
      "ସ",
      "ନ</w>"
    ],
    [
      "ପା",
      "ଳ"
    ],
    [
      "ତା",
      "ଙ୍କର</w>"
    ],
    [
      "ଚ",
      "ନା</w>"
    ],
    [
      "୦",
      "୦"
    ],
    [
      "ଡ",
      "୍</w>"
    ],
    [
      "ଥ",
      "ା</w>"
    ],
    [
      "ନିର୍",
      "ଦ୍ଦ"
    ],
    [
      "ଗୋଟି",
      "ଏ</w>"
    ],
    [
      "ପ",
      "ାର୍"
    ],
    [
      "ିକ",
      "ର</w>"
    ],
    [
      "ନ",
      "ୀ"
    ],
    [
      "\"",
      "</w>"
    ],
    [
      "ଳ",
      "ର</w>"
    ],
    [
      "କେ",
      "ତେ"
    ],
    [
      "ଥାଏ",
      ",</w>"
    ],
    [
      "ମଧ୍ୟ",
      "ରୁ</w>"
    ],
    [
      "ଖ",
      "</w>"
    ],
    [
      "ତ",
      ",</w>"
    ],
    [
      "ସ",
      "ର୍ବ"
    ],
    [
      "ଗ୍ରହ",
      "ଣ</w>"
    ],
    [
      "ନି",
      "ଜ</w>"
    ],
    [
      "ଦ",
      "ୀ</w>"
    ],
    [
      "ତ",
      "ାରି"
    ],
    [
      "ହେ",
      "ବା</w>"
    ],
    [
      "୍",
      "ର</w>"
    ],
    [
      "ସ୍ୱ",
      "ା"
    ],
    [
      "କାର",
      "ଣ</w>"
    ],
    [
      "ଦି",
      "ଆ"
    ],
    [
      "ାନ",
      "ୀ</w>"
    ],
    [
      "ଲ",
      "ାଇ"
    ],
    [
      "ର",
      "ୋଗ"
    ],
    [
      "ମ",
      "ାର୍"
    ],
    [
      "ଚ",
      "ାର"
    ],
    [
      "ନ୍ଦ",
      "ି"
    ],
    [
      "ର",
      "ା</w>"
    ],
    [
      "ସ",
      "ୋ"
    ],
    [
      "ିକ",
      "ା</w>"
    ],
    [
      "ରହି",
      "ଛି</w>"
    ],
    [
      "ାର",
      "େ,</w>"
    ],
    [
      "କେତେ",
      "କ</w>"
    ],
    [
      "ମ",
      "ରେ</w>"
    ],
    [
      "ଗୁ",
      "ରୁ"
    ],
    [
      "ଉ",
      "ଦ"
    ],
    [
      "ବ",
      "ଳ</w>"
    ],
    [
      "ଢ",
      "଼"
    ],
    [
      "ଅ",
      "ର୍ଥ"
    ],
    [
      "ୀ",
      "ଙ୍କ</w>"
    ],
    [
      "ବ",
      "ୟ"
    ],
    [
      "ର",
      "ୀ</w>"
    ],
    [
      "ୱ",
      "େ"
    ],
    [
      "ଦି",
      "ନ</w>"
    ],
    [
      "ସଂ",
      "ଖ"
    ],
    [
      "ଛ",
      "ା"
    ],
    [
      "ତେବ",
      "େ</w>"
    ],
    [
      "ସ",
      "ାହ"
    ],
    [
      "ଲ",
      "୍‌</w>"
    ],
    [
      "ଅବ",
      "ସ୍ଥି"
    ],
    [
      "ଗ୍ର",
      "ା"
    ],
    [
      "ଦକ୍ଷ",
      "ି"
    ],
    [
      "େ",
      "ଶ"
    ],
    [
      "ୃଷ୍ଟ",
      "ି</w>"
    ],
    [
      "କ",
      "ର</w>"
    ],
    [
      "ଲ",
      "କ୍ଷ"
    ],
    [
      "ୀ",
      "ରେ</w>"
    ],
    [
      "ଟ",
      "ରେ</w>"
    ],
    [
      "ତ",
      "ରେ</w>"
    ],
    [
      "ସା",
      "ମ"
    ],
    [
      "ବା",
      "କୁ</w>"
    ],
    [
      "ମ",
      "େ</w>"
    ],
    [
      "ଗ",
      "ରେ</w>"
    ],
    [
      "ହୁ",
      "ଏ"
    ],
    [
      "ଡ",
      "ା"
    ],
    [
      "ସ",
      "ବ"
    ],
    [
      "ମ",
      "ହ"
    ],
    [
      "ଣ",
      "ୀ</w>"
    ],
    [
      "ୱ",
      "ା"
    ],
    [
      "ଚ",
      "୍"
    ],
    [
      "ଟ",
      "୍‌"
    ],
    [
      "ବିଷ",
      "ୟରେ</w>"
    ],
    [
      "ବି",
      "ଦ"
    ],
    [
      "ଚଳଚ୍ଚି",
      "ତ୍ର"
    ],
    [
      "ଆ",
      "ବ"
    ],
    [
      "ସମ",
      "ୟ</w>"
    ],
    [
      "ପାର",
      "େ।</w>"
    ],
    [
      "୧୯",
      "୯"
    ],
    [
      "ରାଜ",
      "୍ୟ</w>"
    ],
    [
      "ହି",
      "ନ୍ଦ"
    ],
    [
      "ଯୋଗ",
      "</w>"
    ],
    [
      "ସ",
      "ୃଷ୍ଟି</w>"
    ],
    [
      "ପ",
      "କ୍ଷ"
    ],
    [
      "ମ୍ବ",
      "ର</w>"
    ],
    [
      "ଦୁ",
      "ଇ"
    ],
    [
      "ପ୍ରା",
      "ୟ</w>"
    ],
    [
      "ଳ",
      "ୀ</w>"
    ],
    [
      "କ",
      "ହି"
    ],
    [
      "ଙ୍ଗ",
      "</w>"
    ],
    [
      "ନ୍ଦ",
      "</w>"
    ],
    [
      "ଆ",
      "ୟ"
    ],
    [
      "ଧ",
      "୍ୟ"
    ],
    [
      "ଆ",
      "ସି"
    ],
    [
      "ତ",
      "।</w>"
    ],
    [
      "ପ",
      "ଦ"
    ],
    [
      "ଫ",
      "୍ର"
    ],
    [
      "ଖେ",
      "ଳ"
    ],
    [
      "ୋ",
      "</w>"
    ],
    [
      "ସାଧାରଣ",
      "ତଃ</w>"
    ],
    [
      "କାର୍",
      "ଯ୍ୟ</w>"
    ],
    [
      "ପ୍ର",
      "ତି</w>"
    ],
    [
      "ଅଧ",
      "ିକା"
    ],
    [
      "ମ",
      "୍ୟା"
    ],
    [
      "ନେ",
      "ଇ"
    ],
    [
      "ବିଶ",
      "େ"
    ],
    [
      "ବର୍",
      "ଷ"
    ],
    [
      "ଫି",
      "ଲ୍"
    ],
    [
      "ପ୍ରଦ",
      "ାନ</w>"
    ],
    [
      "କାର",
      "ୀ</w>"
    ],
    [
      "କରି",
      "ଥିଲା।</w>"
    ],
    [
      "ଅଧିକା",
      "ଂଶ</w>"
    ],
    [
      "ନ",
      "ୂ"
    ],
    [
      "କରାଯାଇ",
      "ଥିଲା।</w>"
    ],
    [
      "ସ",
      "ାଇ"
    ],
    [
      "ଭା",
      "ଷ"
    ],
    [
      "ସ",
      "ା</w>"
    ],
    [
      "ୟ",
      "ର</w>"
    ],
    [
      "ଗ",
      "୍"
    ],
    [
      "କର",
      "ନ୍ତି</w>"
    ],
    [
      "ବ",
      "ହୁ"
    ],
    [
      "ପ",
      "ରା"
    ],
    [
      "ସ",
      "ୀ"
    ],
    [
      "ଗ",
      "େ"
    ],
    [
      "ରାଜ୍ୟ",
      "ର</w>"
    ],
    [
      "ଦୁ",
      "ର୍"
    ],
    [
      "ିକ",
      "ି"
    ],
    [
      "ତାହ",
      "ା</w>"
    ],
    [
      "ଭୂ",
      "ମ"
    ],
    [
      "ତ",
      "ମ</w>"
    ],
    [
      "ପୂର୍ବ",
      "ରୁ</w>"
    ],
    [
      "ମ",
      "ନ୍ଦି"
    ],
    [
      "ସ",
      "ଦ"
    ],
    [
      "ନ",
      "ି</w>"
    ],
    [
      "ସବୁ",
      "ଠାରୁ</w>"
    ],
    [
      "ନାହିଁ",
      "।</w>"
    ],
    [
      "ଶେ",
      "ଷ</w>"
    ],
    [
      "ଦ",
      "ଳ</w>"
    ],
    [
      "ମ",
      "ିତ</w>"
    ],
    [
      "ପୁ",
      "ର"
    ],
    [
      "ର୍",
      "</w>"
    ],
    [
      "ତ",
      "ିକ</w>"
    ],
    [
      "ି",
      "ଷ୍ଟ</w>"
    ],
    [
      "କେ",
      "ବଳ</w>"
    ],
    [
      "ଆବ",
      "ଶ୍ୟ"
    ],
    [
      "ସାଧାର",
      "ଣ</w>"
    ],
    [
      "ନ",
      "୍‌</w>"
    ],
    [
      "ଜି",
      "ଲ୍ଲ"
    ],
    [
      "ଣ",
      "ର</w>"
    ],
    [
      "ହା",
      "ସ"
    ],
    [
      "୯",
      "</w>"
    ],
    [
      "ର",
      "ିକ</w>"
    ],
    [
      "ଣ",
      "ି</w>"
    ],
    [
      "ମି",
      "ଳି"
    ],
    [
      "ଲେ",
      "ଖ"
    ],
    [
      "ମା",
      "ଣ</w>"
    ],
    [
      "ମାନ",
      "ଙ୍କର</w>"
    ],
    [
      "ପୂ",
      "ର୍ଣ୍ଣ</w>"
    ],
    [
      "ବ୍ୟ",
      "କ୍ତି"
    ],
    [
      "ଜୀ",
      "ବ"
    ],
    [
      "ହ",
      "</w>"
    ],
    [
      "କୁହ",
      "ାଯ"
    ],
    [
      "ବ୍ର",
      "ି"
    ],
    [
      "ମ",
      "ର</w>"
    ],
    [
      "'",
      "ର</w>"
    ],
    [
      "ନେ",
      "ଇ</w>"
    ],
    [
      "୍ୟା",
      "ଳ"
    ],
    [
      "ମୁଖ",
      "୍ୟ</w>"
    ],
    [
      "ମ",
      "ହି"
    ],
    [
      "ସ",
      "ମା"
    ],
    [
      "ଆ",
      "ର</w>"
    ],
    [
      "ପ",
      "୍</w>"
    ],
    [
      "ବ",
      "ି</w>"
    ],
    [
      "ଥ",
      "ର</w>"
    ],
    [
      "ଜ",
      "ଣ</w>"
    ],
    [
      "ଅଭି",
      "ନ"
    ],
    [
      "ସମ",
      "ସ୍ତ</w>"
    ],
    [
      "ଶ୍",
      "ଚି"
    ],
    [
      "ଧ",
      "ିକ</w>"
    ],
    [
      "ପୂର୍ବ",
      "</w>"
    ],
    [
      "ର",
      "ୀ"
    ],
    [
      "ଖ",
      "ୁ"
    ],
    [
      "ଯେଉଁ",
      "ଥିରେ</w>"
    ],
    [
      "ଜ",
      "ନ୍"
    ],
    [
      "ଥ",
      "</w>"
    ],
    [
      "ୃ",
      "ତ</w>"
    ],
    [
      "ଛ",
      "ୋ"
    ],
    [
      "ର",
      "କୁ</w>"
    ],
    [
      "ଅ",
      "ର୍"
    ],
    [
      "ହୋଇ",
      "ଥିବା</w>"
    ],
    [
      "କରି",
      "ଥିଲେ,</w>"
    ],
    [
      "ଲୋ",
      "କ</w>"
    ],
    [
      "କ୍ଷେ",
      "ତ୍ର"
    ],
    [
      "ତ",
      "ନ</w>"
    ],
    [
      "ରୂ",
      "ପ"
    ],
    [
      "ଶ",
      "ୋ"
    ],
    [
      "ଦେ",
      "ବ"
    ],
    [
      "ପରିବ",
      "ର୍ତ୍ତ"
    ],
    [
      ".",
      "ସି"
    ],
    [
      "ପ",
      "ାରେ</w>"
    ],
    [
      "୧",
      "୮"
    ],
    [
      "ଚା",
      "ଳ"
    ],
    [
      "ଶ",
      "୍ୱ"
    ],
    [
      "କରୁ",
      "ଥିବା</w>"
    ],
    [
      "ହ",
      "୍"
    ],
    [
      "ଫ",
      "ୋ"
    ],
    [
      "ଘ",
      "ା"
    ],
    [
      "କ",
      "ା</w>"
    ],
    [
      "କରାଯାଇ",
      "ଥିଲା</w>"
    ],
    [
      "ଖେ",
      "ଳା"
    ],
    [
      "ପ୍",
      "ତ</w>"
    ],
    [
      "ସ",
      "ମ୍ମ"
    ],
    [
      "ପ୍ର",
      "ତ୍ୟ"
    ],
    [
      "ିକ",
      "୍"
    ],
    [
      "ହୋଇ",
      "ଥାଏ।</w>"
    ],
    [
      "ବର୍ତ୍ତ",
      "ୀ</w>"
    ],
    [
      "ପ",
      "ଶ୍ଚି"
    ],
    [
      "ଲା",
      "।</w>"
    ],
    [
      "କା",
      "ଳ"
    ],
    [
      "ବ",
      "ୈ"
    ],
    [
      "ସ୍ତ",
      "ୁ"
    ],
    [
      "କ",
      "୍‌"
    ],
    [
      "ଯ",
      "ି"
    ],
    [
      "ତ",
      "ୃ"
    ],
    [
      "ବି",
      "ଭିନ୍ନ</w>"
    ],
    [
      "ଆ",
      "ଉ"
    ],
    [
      "ନ",
      "ୀ</w>"
    ],
    [
      "ଚଳଚ୍ଚି",
      "ତ୍ର</w>"
    ],
    [
      "କେ",
      "ନ୍ଦ୍ର"
    ],
    [
      "ଟ",
      "୍"
    ],
    [
      "ଯୁ",
      "କ୍ତ"
    ],
    [
      "ଦୁଇ",
      "ଟି</w>"
    ],
    [
      "ଉ",
      "ଭ"
    ],
    [
      "କ",
      "୍ୟା"
    ],
    [
      "ଶ",
      "ତା"
    ],
    [
      "ସହ",
      "ର</w>"
    ],
    [
      "-",
      "</w>"
    ],
    [
      "ବ",
      "ର</w>"
    ],
    [
      "ଅ",
      "ଫ"
    ],
    [
      "ର",
      ",</w>"
    ],
    [
      "ଁ",
      ",</w>"
    ],
    [
      "ମ",
      "ାର"
    ],
    [
      "କ",
      "ାନ"
    ],
    [
      "ଶତା",
      "ବ୍"
    ],
    [
      "ଦ୍",
      "ଵ"
    ],
    [
      "ସ୍ଥ",
      "ାନ</w>"
    ],
    [
      "ସ",
      "ମ୍ବ"
    ],
    [
      "ଲ",
      "େ,</w>"
    ],
    [
      "ମୁଖ",
      "</w>"
    ],
    [
      "ଅଧ",
      "ିକ"
    ],
    [
      "ମ",
      "ାଇ"
    ],
    [
      "ସ୍ଥ",
      "ାପ"
    ],
    [
      "ପୁ",
      "ରୁ"
    ],
    [
      "ଗୁଡ଼",
      "ିକୁ</w>"
    ],
    [
      "‍‌",
      "</w>"
    ],
    [
      "ଟ",
      "ାଇ"
    ],
    [
      "କର",
      "ନ୍ତି।</w>"
    ],
    [
      "ଉତ୍ତ",
      "ର</w>"
    ],
    [
      "ପୁ",
      "ନ"
    ],
    [
      "ର",
      "ହ"
    ],
    [
      "ଦ",
      "ୂ"
    ],
    [
      "ଧ",
      "ର୍"
    ],
    [
      "ଛୋ",
      "ଟ</w>"
    ],
    [
      "ଅନ୍ତର୍",
      "ଭୁ"
    ],
    [
      "ତ୍",
      "ମ"
    ],
    [
      "ଗୁରୁ",
      "ତ୍ୱ"
    ],
    [
      "କ୍",
      "ସ"
    ],
    [
      "ସଂ",
      "ସ୍"
    ],
    [
      ";",
      "</w>"
    ],
    [
      "୧୯",
      "୮"
    ],
    [
      "ଜ",
      "୍</w>"
    ],
    [
      "ଷ୍ଟ",
      "୍ର</w>"
    ],
    [
      "ଅଭିନ",
      "ୟ</w>"
    ],
    [
      "ଯାହ",
      "ା"
    ],
    [
      "ାଏ",
      ",</w>"
    ],
    [
      "ଗ୍ର",
      "ୀ"
    ],
    [
      "ହୋଇ",
      "</w>"
    ],
    [
      "ସମ",
      "ୟ"
    ],
    [
      "ଟ",
      "ା</w>"
    ],
    [
      "ଶ୍ର",
      "େ"
    ],
    [
      "ିବ",
      "ା"
    ],
    [
      "ନିଜ",
      "ର</w>"
    ],
    [
      "ଗ",
      "ର</w>"
    ],
    [
      "ପ୍ର",
      "ମୁଖ</w>"
    ],
    [
      "ଆପଣ",
      "ଙ୍କୁ</w>"
    ],
    [
      "ଦ",
      "ଶ"
    ],
    [
      "କର",
      "ଣ</w>"
    ],
    [
      "ଳ୍",
      "ପ</w>"
    ],
    [
      "ଣ୍ଡ",
      "ି"
    ],
    [
      "ଦ୍ଧ",
      "ି</w>"
    ],
    [
      "ଅର୍ଥ",
      "</w>"
    ],
    [
      "ଜ",
      "ନ</w>"
    ],
    [
      "ପ",
      "ହ"
    ],
    [
      "ବ",
      "ାର"
    ],
    [
      "ିକ",
      "ରେ</w>"
    ],
    [
      "ଅନୁ",
      "ସ"
    ],
    [
      "ଗ",
      "ଣ"
    ],
    [
      "କା",
      "ଉ"
    ],
    [
      "ତ",
      "ଥା</w>"
    ],
    [
      "ଣ୍",
      "ଣ"
    ],
    [
      "ଯୁ",
      "କ୍ତ</w>"
    ],
    [
      "ାନ",
      "ୁ"
    ],
    [
      "ମୋ",
      "</w>"
    ],
    [
      "ତ",
      "ର</w>"
    ],
    [
      "କୃ",
      "ତ</w>"
    ],
    [
      "ଦ୍ୱ",
      "ି"
    ],
    [
      "’",
      "</w>"
    ],
    [
      "ଭ",
      "ଲ</w>"
    ],
    [
      "ଏ",
      "କ"
    ],
    [
      "ଷ୍ଠ",
      "</w>"
    ],
    [
      "ଅ",
      "ଂଶ"
    ],
    [
      "ତାରି",
      "ଖରେ</w>"
    ],
    [
      "ପ୍ର",
      "େ"
    ],
    [
      "ଡ଼",
      "ି"
    ],
    [
      "ପ୍ରଦ",
      "ର୍ଶ"
    ],
    [
      "ଯୁକ୍ତ",
      "ରା"
    ],
    [
      "ଛ",
      "ନ୍ତି,</w>"
    ],
    [
      "ଷ୍ଟ",
      "ି"
    ],
    [
      "ଦକ୍ଷି",
      "ଣ</w>"
    ],
    [
      "ପ",
      "ର୍ବ"
    ],
    [
      "ଦ",
      "ର୍ଶ"
    ],
    [
      "ମ୍",
      "ଭ"
    ],
    [
      "୧୯",
      "୭"
    ],
    [
      "ଗ",
      "ଠ"
    ],
    [
      "ର",
      "କ୍ଷ"
    ],
    [
      "ପା",
      "ଦ"
    ],
    [
      "ତ",
      "୍ୟ</w>"
    ],
    [
      "କ୍ର",
      "ୀ"
    ],
    [
      "କରି",
      "ପାରିବ"
    ],
    [
      "ଖ",
      "ୋ"
    ],
    [
      "ଭା",
      "ବି"
    ],
    [
      "ମା",
      "ତ୍ର</w>"
    ],
    [
      "ଫ",
      "ଳ</w>"
    ],
    [
      "ଲ",
      "େ।</w>"
    ],
    [
      "ଦିଆ",
      "ଯାଇ"
    ],
    [
      "କରି",
      "ଥିଲା</w>"
    ],
    [
      "ଘ",
      "ଟ"
    ],
    [
      "ସ୍‌",
      "</w>"
    ],
    [
      "ଣ୍ଡ",
      "ର</w>"
    ],
    [
      "ନି",
      "କ</w>"
    ],
    [
      "ନାହି",
      "ଁ</w>"
    ],
    [
      "ଅଟ",
      "େ</w>"
    ],
    [
      "ମ",
      "ୀ</w>"
    ],
    [
      "କାର",
      "ଣ"
    ],
    [
      "ଜ",
      "ୋ"
    ],
    [
      "ୱ",
      "ି"
    ],
    [
      "ଠ",
      "ି</w>"
    ],
    [
      "ଉଭ",
      "ୟ</w>"
    ],
    [
      "ଅବସ୍ଥି",
      "ତ</w>"
    ],
    [
      "ମ",
      "ହା"
    ],
    [
      "ବିଶେ",
      "ଷ</w>"
    ],
    [
      "ହ",
      "ୋ"
    ],
    [
      "ବିଦ",
      "୍ୟାଳ"
    ],
    [
      "ାହ",
      "</w>"
    ],
    [
      "ନ",
      "ଦୀ</w>"
    ],
    [
      ",",
      "୦୦"
    ],
    [
      "ସଦ",
      "ସ"
    ],
    [
      "ଷ୍ଟ",
      "ା"
    ],
    [
      "ବ",
      "ନ୍ଧ"
    ],
    [
      "ବି",
      "ଜ"
    ],
    [
      "ସ୍ଥ",
      "ା</w>"
    ],
    [
      "ଅଟ",
      "େ।</w>"
    ],
    [
      "ଦୁ",
      "ଇ</w>"
    ],
    [
      "ଉ",
      "ଲ୍ଲ"
    ],
    [
      "ଚ",
      "ିକି"
    ],
    [
      "କରାଯ",
      "ାଏ।</w>"
    ],
    [
      "ାଇ",
      "ବା</w>"
    ],
    [
      "ର୍‌",
      "</w>"
    ],
    [
      "୍ୟ",
      "ାନ"
    ],
    [
      "ଦେ",
      "ଶ</w>"
    ],
    [
      "ଚିକି",
      "ତ୍"
    ],
    [
      "ନା",
      "ମ</w>"
    ],
    [
      "ସ",
      "ାର"
    ],
    [
      "ଫ",
      "ଳ"
    ],
    [
      "ହୋଇ",
      "ଥିଲେ।</w>"
    ],
    [
      "ବ",
      "ର"
    ],
    [
      "|",
      "</w>"
    ],
    [
      "କରିବ",
      "ାରେ</w>"
    ],
    [
      "ମୂ",
      "ଲ"
    ],
    [
      "ପ୍ର",
      "ସ୍ତୁ"
    ],
    [
      "ଡ଼",
      "ି</w>"
    ],
    [
      "ିକ",
      "ି</w>"
    ],
    [
      "କା",
      "ଶ</w>"
    ],
    [
      "ଦେ",
      "ଇ</w>"
    ],
    [
      "ୟ",
      "ା</w>"
    ],
    [
      "ଆ",
      "କ୍ରମ"
    ],
    [
      "ଜ",
      "୍"
    ],
    [
      "ସା",
      "ମ୍"
    ],
    [
      "ମୃତ୍ୟ",
      "ୁ</w>"
    ],
    [
      "ବ",
      "ଡ଼</w>"
    ],
    [
      "ପହ",
      "ଞ୍ଚ"
    ],
    [
      "ୟ",
      "ନ</w>"
    ],
    [
      "ତ",
      "ାର</w>"
    ],
    [
      "ଚ",
      "ୁ"
    ],
    [
      "ହାସ",
      "ଲ</w>"
    ],
    [
      "ତ୍ତ",
      "ି</w>"
    ],
    [
      "ଜ",
      "ଳ"
    ],
    [
      "ବି",
      "କ"
    ],
    [
      "ଣ",
      "ୁ</w>"
    ],
    [
      "ପ୍ରତି",
      "ଷ୍ଠ"
    ],
    [
      "ବ୍ୟବହ",
      "ୃତ</w>"
    ],
    [
      "ମୃତ୍ୟ",
      "ୁ"
    ],
    [
      "ଭାବ",
      "</w>"
    ],
    [
      "ଚ",
      "ର୍"
    ],
    [
      "ଷ୍ଟ",
      "େ"
    ],
    [
      "ନ୍ତୁ",
      "।</w>"
    ],
    [
      "ଘ",
      "ୋ"
    ],
    [
      "ାର",
      "ି</w>"
    ],
    [
      "ଲା",
      "ଭ</w>"
    ],
    [
      "ର",
      "ାଇ"
    ],
    [
      "ଧ",
      "ାନ"
    ],
    [
      "ପ",
      "ୃ"
    ],
    [
      "ବ",
      "ାର୍"
    ],
    [
      "ନ",
      "୍ୟା"
    ],
    [
      "ସବ",
      "ୁ</w>"
    ],
    [
      "ଚା",
      "ଲି"
    ],
    [
      "ୁ",
      ",</w>"
    ],
    [
      "ନ",
      ",</w>"
    ],
    [
      "୧",
      "୦"
    ],
    [
      "ସାହ",
      "ାଯ"
    ],
    [
      "ପ୍ର",
      "ତ"
    ],
    [
      "ନ",
      "ିବ"
    ],
    [
      "ପ୍ର",
      "ୋ"
    ],
    [
      "ବହୁ",
      "ତ</w>"
    ],
    [
      "ଯୋ",
      "ଗୁ"
    ],
    [
      "ଜ",
      "ର୍"
    ],
    [
      "୍ର",
      "ୀ"
    ],
    [
      "ଗୁଡ଼",
      "ିକର</w>"
    ],
    [
      "ଇ",
      "ଂ"
    ],
    [
      "ବୃ",
      "ଦ୍ଧି</w>"
    ],
    [
      "ଯ",
      "ାୟ"
    ],
    [
      "ଣ",
      "ରେ</w>"
    ],
    [
      "ଏ",
      "ଥିରେ</w>"
    ],
    [
      "ଦ",
      "ଳ"
    ],
    [
      "ପାଳ",
      "ନ</w>"
    ],
    [
      "ଅଞ୍ଚ",
      "ଳରେ</w>"
    ],
    [
      "ଅନୁ",
      "ଯାୟ"
    ],
    [
      "ଙ୍କ",
      "ା</w>"
    ],
    [
      "ତ୍ୱ",
      "</w>"
    ],
    [
      "ଆଉ",
      "</w>"
    ],
    [
      "ମ୍ୟା",
      "ଚ"
    ],
    [
      "ନୁ",
      "ହେ"
    ],
    [
      "ଅ",
      "</w>"
    ],
    [
      "ଯା",
      "ତ୍ର"
    ],
    [
      "ଯୁକ୍ତରା",
      "ଷ୍ଟ୍ର</w>"
    ],
    [
      "ୱ",
      "ାର୍"
    ],
    [
      "ସ୍",
      "କୋ"
    ],
    [
      "ମ୍ପ",
      "ି"
    ],
    [
      "ସହ",
      "ାୟ"
    ],
    [
      "ପ୍ରତ୍ୟ",
      "େକ</w>"
    ],
    [
      "ସମ୍ପ",
      "ୂ"
    ],
    [
      "ନିର୍",
      "ମାଣ</w>"
    ],
    [
      "ଲ",
      "ିକ"
    ],
    [
      "ଭା",
      "ଗ</w>"
    ],
    [
      "ଖେ",
      "ଳ</w>"
    ],
    [
      "ଥା",
      "ନ୍ତି।</w>"
    ],
    [
      "କା",
      "ମ</w>"
    ],
    [
      "୨୦",
      "</w>"
    ],
    [
      "ବ୍ରି",
      "ଟି"
    ],
    [
      "ଶେ",
      "ଷ"
    ],
    [
      "ଦେଶ",
      "ର</w>"
    ],
    [
      "ବି",
      "କ୍ର"
    ],
    [
      "ଯ",
      "ୋଜ"
    ],
    [
      "ମି",
      "ଳ"
    ],
    [
      "ଷ",
      "ଣ</w>"
    ],
    [
      "ଆ",
      "ରେ</w>"
    ],
    [
      "ଳ୍",
      "ପ"
    ],
    [
      "ପଶ୍ଚି",
      "ମ</w>"
    ],
    [
      "ଶା",
      "ସ"
    ],
    [
      "ତୁ",
      "ଳ"
    ],
    [
      "ଆର",
      "ି</w>"
    ],
    [
      "ଖ",
      "୍ରୀ"
    ],
    [
      "ଚ୍",
      "ଛ"
    ],
    [
      "କ",
      "ମ୍</w>"
    ],
    [
      "ଏ",
      "କା"
    ],
    [
      "ସମ୍ପୂ",
      "ର୍ଣ୍ଣ</w>"
    ],
    [
      "କର",
      "େ।</w>"
    ],
    [
      "ଦ୍ୱି",
      "ତୀୟ</w>"
    ],
    [
      "ନ",
      "୍ୟ"
    ],
    [
      "ଣ୍ଟ",
      "ି"
    ],
    [
      "ଡ଼",
      "ା</w>"
    ],
    [
      "କାର",
      "ର</w>"
    ],
    [
      "ରୁ",
      ",</w>"
    ],
    [
      "ହୋଇ",
      "ଥିଲେ</w>"
    ],
    [
      "ଦ୍ଵ",
      "ାରା</w>"
    ],
    [
      "ତି",
      "ଆରି</w>"
    ],
    [
      "ନ",
      "ାରେ</w>"
    ],
    [
      "ହ",
      "ାଇ"
    ],
    [
      "ୀ",
      "ମାନେ</w>"
    ],
    [
      "ଜି",
      "ନି"
    ],
    [
      "ରଖ",
      "ି"
    ],
    [
      "ଗ",
      "ୀ"
    ],
    [
      "ଟ",
      "ୁ"
    ],
    [
      "ଲ",
      "ବ"
    ],
    [
      "ହୁ",
      "ଏ</w>"
    ],
    [
      "ଯାହ",
      "ାର</w>"
    ],
    [
      "କରି",
      "ଥାଏ।</w>"
    ],
    [
      "ସ୍ଥାନ",
      "ରେ</w>"
    ],
    [
      "ମ",
      "୍‌</w>"
    ],
    [
      "ଙ",
      "୍"
    ],
    [
      "ପର",
      "ବର୍ତ୍ତୀ</w>"
    ],
    [
      "କରାଯ",
      "ାଉ"
    ],
    [
      "ହ",
      "୍ରା"
    ],
    [
      "ନିର୍",
      "ବା"
    ],
    [
      "ତ",
      "ୁ</w>"
    ],
    [
      "ଫ",
      "ା"
    ],
    [
      "କରିବ",
      "ାର</w>"
    ],
    [
      "ଧ",
      "ା"
    ],
    [
      "ସାହାଯ",
      "୍ୟ</w>"
    ],
    [
      "ିବ",
      "</w>"
    ],
    [
      "ସି",
      "କ</w>"
    ],
    [
      "୧୯",
      "୬"
    ],
    [
      "ରହି",
      "ଛି,</w>"
    ],
    [
      "ଲା",
      ",</w>"
    ],
    [
      "ଗୁରୁତ୍ୱ",
      "ପୂର୍ଣ୍ଣ</w>"
    ],
    [
      "ଖା",
      "ଦ"
    ],
    [
      "ା",
      "ସ</w>"
    ],
    [
      "'",
      "ରେ</w>"
    ],
    [
      "ଲ",
      "ରେ</w>"
    ],
    [
      "ୟ",
      "ାର"
    ],
    [
      "ଉଲ୍ଲ",
      "େ"
    ],
    [
      "ଅଞ୍ଚ",
      "ଳ</w>"
    ],
    [
      "କା",
      "ଶ"
    ],
    [
      "କ୍ର",
      "ୋ"
    ],
    [
      "ଶ",
      "ୈ"
    ],
    [
      "ବୃ",
      "ହ"
    ],
    [
      "ଯାହ",
      "ାକୁ</w>"
    ],
    [
      "ବ",
      "ରଣ</w>"
    ],
    [
      "କ",
      "ଳା"
    ],
    [
      "ସଙ୍ଗ",
      "ୀତ</w>"
    ],
    [
      "ପୁର",
      "ସ୍"
    ],
    [
      "ପରି",
      "ଚାଳ"
    ],
    [
      "ସ",
      "ପ୍"
    ],
    [
      "ପା",
      "ଖ"
    ],
    [
      "ନି",
      "ଶ୍"
    ],
    [
      "ଲୋକ",
      "ପ୍ରି"
    ],
    [
      "ଅଫ",
      "୍</w>"
    ],
    [
      "ନ୍",
      "ତ୍ର</w>"
    ],
    [
      "ଅ",
      "ତି"
    ],
    [
      "ଯେଉ",
      "ଁ</w>"
    ],
    [
      "ମା",
      "ତ୍ର"
    ],
    [
      "ନିର୍ଦ୍ଦ",
      "େଶ"
    ],
    [
      "ମୁଖ",
      "୍ୟ"
    ],
    [
      "ଭାର",
      "ତ</w>"
    ],
    [
      "ସମ୍ପ",
      "ର୍"
    ],
    [
      "ମ",
      "ନ୍ତ୍ର"
    ],
    [
      "ନ",
      "ୃ"
    ],
    [
      "ଯୋଗୁ",
      "ଁ</w>"
    ],
    [
      "୍‌",
      "ରେ</w>"
    ],
    [
      "ଦ",
      "ୃ"
    ],
    [
      "ପ୍ରସ୍ତୁ",
      "ତ</w>"
    ],
    [
      "ସ୍",
      "ତ୍ର"
    ],
    [
      "ଗ୍ର",
      "େ"
    ],
    [
      "ଆ",
      "ଶ"
    ],
    [
      "ଗୁଡ଼",
      "ିକୁ</w>"
    ],
    [
      "ପ୍ରତି",
      "ଯୋଗ"
    ],
    [
      "ଯି",
      "ଏ</w>"
    ],
    [
      "ହ",
      "ାର"
    ],
    [
      "କ",
      "ଙ୍କ</w>"
    ],
    [
      "କରି",
      "ଥିବା</w>"
    ],
    [
      "ର",
      "କ୍ଷା</w>"
    ],
    [
      "ଆୟ",
      "ୋଜ"
    ],
    [
      "ସ୍",
      "ପ"
    ],
    [
      "ବୟ",
      "ସରେ</w>"
    ],
    [
      "ହିନ୍ଦ",
      "ୁ</w>"
    ],
    [
      "ମ",
      "ିକ</w>"
    ],
    [
      "କାଳ",
      "ୀନ</w>"
    ],
    [
      "ଜ",
      "ା</w>"
    ],
    [
      "ଦ",
      "ୀର</w>"
    ],
    [
      "ତି",
      "ରେ</w>"
    ],
    [
      "ଅ",
      "ତ୍ୟ"
    ],
    [
      "ଜି",
      "ତି"
    ],
    [
      "ଅନ୍ୟ",
      "ାନ"
    ],
    [
      "ବ୍ୟା",
      "ପ"
    ],
    [
      "ଲ",
      "ଗ"
    ],
    [
      "ସେ",
      "ମାନଙ୍କୁ</w>"
    ],
    [
      "ଆର",
      "ୀ</w>"
    ],
    [
      "ଡ",
      "୍ର"
    ],
    [
      "ଅନ୍ୟାନ",
      "୍ୟ</w>"
    ],
    [
      "ହ୍ରା",
      "ସ</w>"
    ],
    [
      "ଲ",
      "ର</w>"
    ],
    [
      "ଚା",
      "ମ୍ପି"
    ],
    [
      "ଲା",
      "ଗ"
    ],
    [
      "ଭ",
      "ବ</w>"
    ],
    [
      "କରାଯ",
      "ାଏ</w>"
    ],
    [
      "ଚି",
      "ହ୍"
    ],
    [
      "ଚ",
      "ାର</w>"
    ],
    [
      "!",
      "</w>"
    ],
    [
      "ଉ",
      "ଦ୍ଦ"
    ],
    [
      "ବର୍",
      "ଣ୍ଣ"
    ],
    [
      "ହେ",
      "ବ"
    ],
    [
      "ପ୍ର",
      "ାର"
    ],
    [
      "ହୋଇ",
      "ଥାଏ</w>"
    ],
    [
      "ୀ",
      "ନ"
    ],
    [
      "ସମୟ",
      "ରେ,</w>"
    ],
    [
      "ଞ୍ଚ",
      "</w>"
    ],
    [
      "ମସିହ",
      "ାରେ,</w>"
    ],
    [
      "ଶି",
      "କ୍ଷ"
    ],
    [
      "ହୁଏ",
      "।</w>"
    ],
    [
      "କ୍ର",
      "ା"
    ],
    [
      "ଧ",
      "ି"
    ],
    [
      "ସଂଖ",
      "୍ୟା</w>"
    ],
    [
      "ମୋ",
      "ତେ</w>"
    ],
    [
      "ର୍ଣ୍",
      "ଣା"
    ],
    [
      "ଡ",
      "ୋ"
    ],
    [
      "ପର",
      "ୀ"
    ],
    [
      "ସ",
      "ମାନ</w>"
    ],
    [
      "ଯ",
      "ଦି"
    ],
    [
      "ଶ",
      "ବ୍"
    ],
    [
      "ମା",
      "ଧ୍ୟ"
    ],
    [
      "ମି",
      "ଟର</w>"
    ],
    [
      "ଥ",
      "ରେ</w>"
    ],
    [
      "୧",
      "୭"
    ],
    [
      "ପ",
      "ି</w>"
    ],
    [
      "ସେ",
      "ମାନଙ୍କର</w>"
    ],
    [
      "ଜଣ",
      "ା"
    ],
    [
      "କ୍ର",
      "ମ</w>"
    ],
    [
      "ଆବଶ୍ୟ",
      "କ"
    ],
    [
      "ଅଞ୍ଚ",
      "ଳ"
    ],
    [
      "ଥ",
      "େ"
    ],
    [
      "ସର୍",
      "ବା"
    ],
    [
      "ଟ",
      "ବ"
    ],
    [
      "କ",
      "ୂ"
    ],
    [
      "ଆ",
      "ଧାର"
    ],
    [
      "ର",
      "ଣ"
    ],
    [
      "ନିକ",
      "ଟରେ</w>"
    ],
    [
      "ସି",
      "ଂ"
    ],
    [
      "ସ",
      "ୀ</w>"
    ],
    [
      "ତି",
      "ହା"
    ],
    [
      "ଦି",
      "ଲ୍ଲ"
    ],
    [
      "ଥି",
      "ବ"
    ],
    [
      "ନ",
      "୍ୟୁ"
    ],
    [
      "ାନ",
      "୍</w>"
    ],
    [
      "ନାମ",
      "ରେ</w>"
    ],
    [
      "ଷ",
      "ଣା</w>"
    ],
    [
      "ସ",
      "ନ୍</w>"
    ],
    [
      "ତ",
      "୍</w>"
    ],
    [
      "ଗୋ",
      "ଷ୍ଠ"
    ],
    [
      "ଅଧ",
      "୍ୟ"
    ],
    [
      "ଧ",
      "ରି</w>"
    ],
    [
      "ଯଦି",
      "ଓ</w>"
    ],
    [
      "ଅନ୍ତର୍ଭୁ",
      "କ୍ତ</w>"
    ],
    [
      "ବ",
      "ନ୍ଦ"
    ],
    [
      "ପା",
      "ଖରେ</w>"
    ],
    [
      "ଅ",
      "ଛି</w>"
    ],
    [
      "ଛ",
      "ି"
    ],
    [
      "ଅ",
      "ଭ"
    ],
    [
      "ଯ",
      "୍ୟା"
    ],
    [
      "ନାମ",
      "କ</w>"
    ],
    [
      "ରା",
      "ଷ୍ଟ୍ର"
    ],
    [
      "ଜନ୍",
      "ମ"
    ],
    [
      "ଦେ",
      "ବା</w>"
    ],
    [
      "ତି",
      "ର</w>"
    ],
    [
      "ଟ",
      "୍‌</w>"
    ],
    [
      "ପ୍ରାର",
      "ମ୍ଭ"
    ],
    [
      "ଝ",
      "ି"
    ],
    [
      ",୦୦",
      "୦</w>"
    ],
    [
      "ସୁ",
      "ଦ୍ଧ"
    ],
    [
      "ଘ",
      "ଟି"
    ],
    [
      "ଡ଼",
      "</w>"
    ],
    [
      "ସ୍ଥାନ",
      "ୀୟ</w>"
    ],
    [
      "ତ୍ମ",
      "କ</w>"
    ],
    [
      "ଜ",
      "ୈ"
    ],
    [
      "ପ୍ରା",
      "ଚ"
    ],
    [
      "ଜ",
      "ି</w>"
    ],
    [
      "ଶା",
      "ସନ</w>"
    ],
    [
      "ମନ୍ଦି",
      "ର</w>"
    ],
    [
      "ସର୍ବା",
      "ଧିକ</w>"
    ],
    [
      "ର୍",
      "ଘ"
    ],
    [
      "ଭାରତ",
      "ରେ</w>"
    ],
    [
      "ଦ",
      "ାୟ"
    ],
    [
      "ନାହିଁ",
      ",</w>"
    ],
    [
      "ର",
      "ଙ୍ଗ"
    ],
    [
      "ନିର୍ଦ୍ଦ",
      "ିଷ୍ଟ</w>"
    ],
    [
      "ଟ",
      "ିକ"
    ],
    [
      "େ",
      "ଶ</w>"
    ],
    [
      "ଅନୁ",
      "ଷ୍ଠ"
    ],
    [
      "ତା",
      "ମି"
    ],
    [
      "ଦ",
      "ୋ"
    ],
    [
      "ଫ",
      "ାଇ"
    ],
    [
      "ନ",
      "କୁ</w>"
    ],
    [
      "ଖ",
      "ର୍"
    ],
    [
      "କାରଣ",
      "ରୁ</w>"
    ],
    [
      "ବର୍ତ୍ତ",
      "ମାନ</w>"
    ],
    [
      "ପ",
      "ଡ଼ି"
    ],
    [
      "କର",
      "ନ୍ତି,</w>"
    ],
    [
      "୧",
      "୫"
    ],
    [
      "ତା",
      "'"
    ],
    [
      "ଆ",
      "ନ୍ତ"
    ],
    [
      "୍‌",
      "ର</w>"
    ],
    [
      "ପ",
      "ଡ଼"
    ],
    [
      "‌",
      "</w>"
    ],
    [
      "ନି",
      "ମ୍"
    ],
    [
      "ାର",
      "ୀ</w>"
    ],
    [
      "କ୍",
      "ସ</w>"
    ],
    [
      "ପ୍ର",
      "କାରର</w>"
    ],
    [
      "ଦ୍ଧ",
      "ରେ</w>"
    ],
    [
      "ଚିକିତ୍",
      "ସା</w>"
    ],
    [
      "ଅ",
      "ଲି"
    ],
    [
      "ଯ",
      "ାଉ"
    ],
    [
      "ଟି",
      "ଂ</w>"
    ],
    [
      "ଅ",
      "ଂଶ</w>"
    ],
    [
      "ଲୋକ",
      "ମାନେ</w>"
    ],
    [
      "୧୯",
      "୫"
    ],
    [
      "ବ",
      "ନ୍ଦ</w>"
    ],
    [
      "ନି",
      "ଷ୍"
    ],
    [
      "ପୋ",
      "ର୍"
    ],
    [
      "ପ୍ରତିଯୋଗ",
      "ି"
    ],
    [
      "ଆ",
      "ଧ"
    ],
    [
      ".ଏ",
      "ସ୍"
    ],
    [
      "ମୃତ୍ୟୁ",
      "ବରଣ</w>"
    ],
    [
      "ରେ",
      "କର୍"
    ],
    [
      "ତେବ",
      "େ,</w>"
    ],
    [
      "ଚାମ୍ପି",
      "ଅନ"
    ],
    [
      "ନିୟ",
      "ନ୍ତ୍ର"
    ],
    [
      "ଉଦ",
      "ାହ"
    ],
    [
      "ଯେଉଁ",
      "ଠାରେ</w>"
    ],
    [
      "ଆମେରିକ",
      "ାର</w>"
    ],
    [
      "ପୋ",
      "ଷ"
    ],
    [
      "ଭା",
      "ଗରେ</w>"
    ],
    [
      "ଅ",
      "ପେ"
    ],
    [
      "ନିଶ୍",
      "ଚିତ</w>"
    ],
    [
      "ଲ",
      "୍ୟା"
    ],
    [
      "େ",
      "ତ</w>"
    ],
    [
      "ବିବ",
      "େ"
    ],
    [
      "ଉତ୍",
      "ପାଦ"
    ],
    [
      "ଦେଖ",
      "ିବାକୁ</w>"
    ],
    [
      "ୋ",
      "ହ"
    ],
    [
      "ଟି",
      "କୁ</w>"
    ],
    [
      "ବ",
      "ୀ"
    ],
    [
      "ର",
      "ଙ୍କ</w>"
    ],
    [
      "ସଂ",
      "କ୍ରମ"
    ],
    [
      "ଷ୍ଟ୍ର",
      "େ"
    ],
    [
      "ଜଣା",
      "ଶୁ"
    ],
    [
      "କମ୍ପ",
      "ାନୀ</w>"
    ],
    [
      "ଦ",
      "ର</w>"
    ],
    [
      "ଦେଇ",
      "ଥିଲେ।</w>"
    ],
    [
      "ଯୁ",
      "ଦ୍ଧ</w>"
    ],
    [
      "ବ୍ୟବ",
      "ସା"
    ],
    [
      "ନ୍",
      "ସ</w>"
    ],
    [
      "ଦ",
      "ା</w>"
    ],
    [
      "ାର",
      "ା"
    ],
    [
      "ପୁରସ୍",
      "କାର</w>"
    ],
    [
      "ଆ",
      "ଖ"
    ],
    [
      "ବିଶ୍ୱ",
      "ାସ</w>"
    ],
    [
      "ାନ",
      "ର</w>"
    ],
    [
      "ପାଇ",
      "ଁ,</w>"
    ],
    [
      "ତା",
      "'</w>"
    ],
    [
      "ମା",
      "ସ</w>"
    ],
    [
      "ହ",
      "ାର</w>"
    ],
    [
      "ନୂ",
      "ତନ</w>"
    ],
    [
      "ିକ",
      "ାର</w>"
    ],
    [
      ".",
      "ପି"
    ],
    [
      "ଦେଶ",
      "ରେ</w>"
    ],
    [
      "ପ୍ରଥ",
      "ମେ</w>"
    ],
    [
      "ଷ୍ଟ",
      "ୋ"
    ],
    [
      "ବିବ",
      "ାହ</w>"
    ],
    [
      "ପାର",
      "ି"
    ],
    [
      "ଚ",
      "ାହ"
    ],
    [
      "ଠ",
      "ି"
    ],
    [
      "କର",
      "ନ୍ତୁ</w>"
    ],
    [
      "ର",
      "-"
    ],
    [
      "%",
      "</w>"
    ],
    [
      "ରୋଗ",
      "</w>"
    ],
    [
      "ନ",
      "ୈ"
    ],
    [
      "ଦୀ",
      "ର୍ଘ"
    ],
    [
      "ଗୁଡ଼",
      "ିକର</w>"
    ],
    [
      "ପ",
      "ତି</w>"
    ],
    [
      "ଖେଳା",
      "ଳି"
    ],
    [
      "ରୂ",
      "ପ</w>"
    ],
    [
      "୧",
      "୬"
    ],
    [
      "ମହି",
      "ଳା</w>"
    ],
    [
      "ବିଶ୍ୱ",
      "</w>"
    ],
    [
      "ମ",
      "ୀ"
    ],
    [
      "ଦ୍ର",
      "</w>"
    ],
    [
      "ଡ",
      "ି</w>"
    ],
    [
      "ନି",
      "ମ"
    ],
    [
      "ଧ",
      "ି</w>"
    ],
    [
      ".",
      "ଆଇ"
    ],
    [
      "ସମ୍ବ",
      "ନ୍ଧ"
    ],
    [
      "ଭ",
      "ୋ"
    ],
    [
      "ଅନ୍ତର୍",
      "ଗତ</w>"
    ],
    [
      "ତ୍ୟ",
      "ା</w>"
    ],
    [
      "ହୋଇ",
      "ଛି।</w>"
    ],
    [
      "ବ୍ୟ",
      "କ୍ତି</w>"
    ],
    [
      "ମ",
      "୍ୟୁ"
    ],
    [
      "ନିର୍",
      "ମିତ</w>"
    ],
    [
      "ଗ",
      "କୁ</w>"
    ],
    [
      "ଲୋକପ୍ରି",
      "ୟ</w>"
    ],
    [
      "ଜ",
      "ର</w>"
    ],
    [
      "ତା",
      "କୁ</w>"
    ],
    [
      "ହୋଇ",
      "ଯାଇ"
    ],
    [
      "ଆ",
      "ସ"
    ],
    [
      "କ୍ଷେତ୍ର",
      "ରେ</w>"
    ],
    [
      "ମି",
      "ଶ"
    ],
    [
      "ମେ",
      "ଣ୍ଟ"
    ],
    [
      "ସମ",
      "ସ"
    ],
    [
      "ଦେଖ",
      "ାଯ"
    ],
    [
      "ନ",
      "ଦୀ"
    ],
    [
      "ଦି",
      "ଅ"
    ],
    [
      "ର୍ଣ୍",
      "ଣ"
    ],
    [
      "ହୋଇ",
      "ପାରେ।</w>"
    ],
    [
      "ମହି",
      "ଳା"
    ],
    [
      "ଯେଉଁ",
      "ମାନେ</w>"
    ],
    [
      "ପର୍",
      "ଯ୍ୟା"
    ],
    [
      "୦",
      "୦</w>"
    ],
    [
      "ସେ",
      "ବା</w>"
    ],
    [
      "ନ୍ତୁ",
      ",</w>"
    ],
    [
      "ଷ୍ଟ",
      "ା</w>"
    ],
    [
      "ମ",
      "ନୋ"
    ],
    [
      "ଲା",
      "ଗି"
    ],
    [
      "ସପ୍",
      "ତାହ"
    ],
    [
      "ହେଉ",
      "ଥିବା</w>"
    ],
    [
      "ସୂ",
      "ଚନା</w>"
    ],
    [
      "ପ୍ର",
      "ଭାବି"
    ],
    [
      "ପରିବର୍ତ୍ତ",
      "ନ</w>"
    ],
    [
      "ଚ",
      "ୋ"
    ],
    [
      "ିବ",
      "।</w>"
    ],
    [
      "ଯୋଜ",
      "ନା</w>"
    ],
    [
      "ଚି",
      "ନ୍ତ"
    ],
    [
      "ମ",
      "ୌ"
    ],
    [
      "ଭ",
      "ବ"
    ],
    [
      "ଦ",
      "ର"
    ],
    [
      "ସଂଖ",
      "୍ୟ"
    ],
    [
      "୧୯",
      "୪"
    ],
    [
      "ପ",
      "ଞ୍ଜ"
    ],
    [
      "ଗ୍ର",
      "</w>"
    ],
    [
      "ପ",
      "ଠ"
    ],
    [
      "ମି",
      "ନି"
    ],
    [
      "ିବ",
      "ାର</w>"
    ],
    [
      "କ୍ଷ",
      "ମ"
    ],
    [
      "ହେଉ",
      "ଛନ୍ତି</w>"
    ],
    [
      "ସେ",
      "ପ୍"
    ],
    [
      "ରୋ",
      "ଧ</w>"
    ],
    [
      "ପ୍ରଦର୍ଶ",
      "ନ</w>"
    ],
    [
      "ନୂ",
      "ଆ</w>"
    ],
    [
      "ତ",
      "୍ୟା"
    ],
    [
      "ହୋଇ",
      "ଥିଲା,</w>"
    ],
    [
      "ସ୍",
      "ଵ"
    ],
    [
      "ପ୍ର",
      "ବେ"
    ],
    [
      "ଫ",
      "ା</w>"
    ],
    [
      "ଫ",
      "</w>"
    ],
    [
      "ଉଦାହ",
      "ରଣ</w>"
    ],
    [
      "ମୁଖ୍ୟ",
      "ତଃ</w>"
    ],
    [
      "ରୋ",
      "ଧ"
    ],
    [
      "ଆବଶ୍ୟ",
      "କ</w>"
    ],
    [
      "ଦେଇ",
      "ଥିଲେ</w>"
    ],
    [
      "ଥି",
      "ବା"
    ],
    [
      "ିକ",
      "ାରେ</w>"
    ],
    [
      "ଆକ୍ରମ",
      "ଣ</w>"
    ],
    [
      "ପ୍ରଭାବି",
      "ତ</w>"
    ],
    [
      "ରୂପ",
      ",</w>"
    ],
    [
      "ତ",
      "ନ୍ତ୍ର</w>"
    ],
    [
      "ଅନୁଷ୍ଠ",
      "ିତ</w>"
    ],
    [
      "ଠ",
      "</w>"
    ],
    [
      "ଖାଦ",
      "୍ୟ</w>"
    ],
    [
      "ଭି",
      "ତରେ</w>"
    ],
    [
      "ଦ",
      "ୃଷ୍ଟ"
    ],
    [
      "ଦ୍ୱ",
      "ୀ"
    ],
    [
      "ୟ",
      "ାର</w>"
    ],
    [
      "ମ",
      "ର୍"
    ],
    [
      "ଖେ",
      "ଳି"
    ],
    [
      "ଜ",
      "ାନୁ"
    ],
    [
      "ପ",
      "ତ୍ତି</w>"
    ],
    [
      "ମୋ",
      "ଟ</w>"
    ],
    [
      "କ",
      "ାହା"
    ],
    [
      "ତ",
      "ାରେ</w>"
    ],
    [
      "ସମ",
      "ର୍ଥ"
    ],
    [
      "ଟ",
      "୍ରା"
    ],
    [
      "ବ୍ରିଟି",
      "ଶ</w>"
    ],
    [
      "ନିକ",
      "ଟ"
    ],
    [
      "ଆମେରିକ",
      "ୀୟ</w>"
    ],
    [
      "ଆପଣ",
      "ଙ୍କର</w>"
    ],
    [
      "ଉ",
      "ଚ୍ଚ"
    ],
    [
      "ଣ",
      "ୀ"
    ],
    [
      "ମ",
      "ୋଗ"
    ],
    [
      "ୟୁ",
      "ରୋ"
    ],
    [
      "ଉ",
      "ପା"
    ],
    [
      "ାର୍",
      "ଥ"
    ],
    [
      ".",
      "ଡି"
    ],
    [
      "କରି",
      "ଛନ୍ତି।</w>"
    ],
    [
      ".",
      "ବି"
    ],
    [
      "ସମ୍",
      "ଭାବ"
    ],
    [
      "କର",
      "େ,</w>"
    ],
    [
      "ଶ",
      "ିତ</w>"
    ],
    [
      "ଅ",
      "କ୍"
    ],
    [
      "ଛ",
      "ୁ"
    ],
    [
      "ଅଲି",
      "ମ୍ପ"
    ],
    [
      "ପ",
      "ର</w>"
    ],
    [
      "କ",
      "ହ"
    ],
    [
      "୨୦",
      "୨"
    ],
    [
      "ଚାହ",
      "ୁ"
    ],
    [
      "ପର",
      "ିକି</w>"
    ],
    [
      "କରି",
      "ଥାଏ</w>"
    ],
    [
      "ହେ",
      "ବାର</w>"
    ],
    [
      "ପୁ",
      "ର</w>"
    ],
    [
      "କରି",
      "ଛନ୍ତି</w>"
    ],
    [
      "ଳ",
      "ନ</w>"
    ],
    [
      "ଲି",
      "ଗ"
    ],
    [
      "ଆ",
      "ଲ"
    ],
    [
      "ସ୍",
      "ତା"
    ],
    [
      "ଘୋ",
      "ଷଣା</w>"
    ],
    [
      "ଥ",
      "ାଇ"
    ],
    [
      "ିକ",
      "େ"
    ],
    [
      "କମ୍ପ",
      "ାନ"
    ],
    [
      "ଉଲ୍ଲେ",
      "ଖ</w>"
    ],
    [
      "ଭ",
      "ର</w>"
    ],
    [
      "ଅଭି",
      "ନେ"
    ],
    [
      "ଡ",
      "୍"
    ],
    [
      "ରାଜ",
      "ା</w>"
    ],
    [
      "ଣ",
      "-"
    ],
    [
      "ୋଗ",
      "</w>"
    ],
    [
      "ପ୍ରା",
      "ୟ"
    ],
    [
      "ତ୍ତ",
      "୍ୱ"
    ],
    [
      "ପରି",
      "ଣ"
    ],
    [
      "ଚାହୁ",
      "ଁ"
    ],
    [
      "ସଦସ",
      "୍ୟ</w>"
    ],
    [
      "ବି",
      "ଧ"
    ],
    [
      "ଗୋ",
      "ଲ୍</w>"
    ],
    [
      "ଅନୁଯାୟ",
      "ୀ,</w>"
    ],
    [
      "ଟ",
      "ଙ୍କା</w>"
    ],
    [
      "ସେ",
      "ତେବେଳେ</w>"
    ],
    [
      "ଣ୍ଡ",
      "ରେ</w>"
    ],
    [
      "ଫୁ",
      "ଟବ"
    ],
    [
      "ମ",
      "ତି</w>"
    ],
    [
      "ଘ",
      "ର"
    ],
    [
      "କ୍ରି",
      "ୟା</w>"
    ],
    [
      "ଥି",
      "କ</w>"
    ],
    [
      "ଅ",
      "ଷ୍ଟ୍ରେ"
    ],
    [
      "ସମ",
      "ଗ୍ର</w>"
    ],
    [
      "ସ୍ଥ",
      "</w>"
    ],
    [
      "କ୍ଷ",
      "</w>"
    ],
    [
      "ଭ",
      "ାଇ"
    ],
    [
      "ଅ",
      "ତି</w>"
    ],
    [
      "ା",
      "ଦ"
    ],
    [
      "ବ",
      "ାଇ"
    ],
    [
      "ବା",
      "ସ</w>"
    ],
    [
      "ତି",
      "ନୋ"
    ],
    [
      "ସ",
      "ୈ"
    ],
    [
      "ଚେ",
      "ଷ୍ଟା</w>"
    ],
    [
      ".",
      "ଟି"
    ],
    [
      "ପରା",
      "ସ୍ତ</w>"
    ],
    [
      "ବ୍",
      "ଲ"
    ],
    [
      "ଏ",
      "ପରି</w>"
    ],
    [
      "ଇ",
      "ଣ୍ଡି"
    ],
    [
      "କ",
      "୍ୟ"
    ],
    [
      "ଅ",
      "ଗ"
    ],
    [
      "ମ",
      "କୁ</w>"
    ],
    [
      "ମୂ",
      "ଳ"
    ],
    [
      "ଆର୍",
      "ଥିକ</w>"
    ],
    [
      "ଖର୍",
      "ଚ୍ଚ</w>"
    ],
    [
      "ବ",
      "ଙ୍ଗ"
    ],
    [
      "ଡା",
      "କ୍ତ"
    ],
    [
      "ପରିଣ",
      "ତ</w>"
    ],
    [
      "ବା",
      "ଦ"
    ],
    [
      "ଶ",
      "ୀ</w>"
    ],
    [
      "ନି",
      "ଆ"
    ],
    [
      "ଜିଲ୍ଲ",
      "ାର</w>"
    ],
    [
      "ଆ",
      "କ"
    ],
    [
      "ପ୍ରବେ",
      "ଶ</w>"
    ],
    [
      "ବ",
      "ହ"
    ],
    [
      "କ",
      ",</w>"
    ],
    [
      "ପି",
      "ଲା"
    ],
    [
      "ହୁ",
      "ଅ"
    ],
    [
      "ୀ",
      "ଙ୍କୁ</w>"
    ],
    [
      "କର୍",
      "ମ"
    ],
    [
      "କରାଯାଇ",
      "ଛି।</w>"
    ],
    [
      "ପ୍ର",
      "କାଶ</w>"
    ],
    [
      "କ୍ଷ",
      "ା"
    ],
    [
      "ାନ",
      "ି"
    ],
    [
      "ସ୍ୱ",
      "ରୂପ,</w>"
    ],
    [
      "ସ",
      "ଲ"
    ],
    [
      "ମ",
      "ରା"
    ],
    [
      "ଆ",
      "ହୁ"
    ],
    [
      "ଜା",
      "ଣ"
    ],
    [
      "ବ",
      "ସ"
    ],
    [
      "ଥି",
      "ବାର</w>"
    ],
    [
      "ଆନ୍ତ",
      "ର୍"
    ],
    [
      "ମେ",
      "ଣ୍ଟ</w>"
    ],
    [
      "ବିଶ୍ୱ",
      "ବିଦ୍ୟାଳ"
    ],
    [
      "ତିନୋ",
      "ଟି</w>"
    ],
    [
      "ବିବେ",
      "ଚନା</w>"
    ],
    [
      "ଏବ",
      "େ</w>"
    ],
    [
      "ସାମ",
      "ଗ୍ର"
    ],
    [
      "ମୋ",
      "ର</w>"
    ],
    [
      "ନି",
      "ତ</w>"
    ],
    [
      "ବ",
      "ଂଶ"
    ],
    [
      "ଗ",
      "ୀତ</w>"
    ],
    [
      "ମ",
      "ଣି"
    ],
    [
      "ଜନ୍ମ",
      "ଗ୍ରହଣ</w>"
    ],
    [
      "ତି",
      "ନି</w>"
    ],
    [
      ".ସି",
      ".</w>"
    ],
    [
      "ପା",
      "ଖା"
    ],
    [
      "ଟି",
      "ର</w>"
    ],
    [
      "ସ୍ଥି",
      "ତ</w>"
    ],
    [
      "ଭ",
      "ର"
    ],
    [
      "ଶ୍ରେ",
      "ଷ୍ଠ</w>"
    ],
    [
      "ଗୁଡ଼",
      "ିକରେ</w>"
    ],
    [
      "ପାଖା",
      "ପାଖ"
    ],
    [
      "କର",
      "ନ୍ତୁ।</w>"
    ],
    [
      "ଠ",
      "ା"
    ],
    [
      "ଖେଳା",
      "ଳି</w>"
    ],
    [
      "ସ୍ୱ",
      "ି"
    ],
    [
      "ବର୍",
      "ଗ</w>"
    ],
    [
      "ଗଠ",
      "ନ</w>"
    ],
    [
      "ନ",
      "ଭେ"
    ],
    [
      "ପ୍ର",
      "ସାର"
    ],
    [
      "ତା",
      "ଲ"
    ],
    [
      "ପାର",
      "ମ୍ପ"
    ],
    [
      "ବେଳ",
      "େ,</w>"
    ],
    [
      ".",
      "ମି"
    ],
    [
      "ଲ",
      "ାଇ</w>"
    ],
    [
      "ଆ",
      "ନ"
    ],
    [
      "ମ",
      "ନ"
    ],
    [
      "ସ୍ଥି",
      "ତି</w>"
    ],
    [
      "କ",
      "ଥା</w>"
    ],
    [
      "ଭା",
      "ଗ"
    ],
    [
      "ମ",
      "ାର</w>"
    ],
    [
      "ବି",
      "ର"
    ],
    [
      "ସମ",
      "ୁ"
    ],
    [
      "ନୈ",
      "ତିକ</w>"
    ],
    [
      "ସର",
      "କାର</w>"
    ],
    [
      "ଆ",
      "ନୁ"
    ],
    [
      "ମ",
      ",</w>"
    ],
    [
      "ଏ",
      "ସି"
    ],
    [
      "ପ୍ର",
      "ସି"
    ],
    [
      "ପ୍ରାଚ",
      "ୀନ</w>"
    ],
    [
      "ଥା",
      "ନ୍ତି</w>"
    ],
    [
      "?",
      "</w>"
    ],
    [
      "ଉ",
      "ଚ୍ଚ</w>"
    ],
    [
      "ା",
      "ନ୍ତ"
    ],
    [
      "ପ୍ରତିଷ୍ଠ",
      "ା</w>"
    ],
    [
      "ବର୍ଣ୍ଣ",
      "ନା</w>"
    ],
    [
      "ବିଶ",
      "ିଷ୍ଟ</w>"
    ],
    [
      "କ",
      "ମାନେ</w>"
    ],
    [
      "କୃ",
      "ତି</w>"
    ],
    [
      "ଚି",
      "ତ୍ର"
    ],
    [
      "ହେ",
      "ତୁ</w>"
    ],
    [
      "୧",
      "୨"
    ],
    [
      "ସେପ୍",
      "ଟେ"
    ],
    [
      "ର୍",
      "ଷ</w>"
    ],
    [
      "୧୯",
      "</w>"
    ],
    [
      "୧",
      "୦</w>"
    ],
    [
      "ବି",
      "ଜ୍ଞ"
    ],
    [
      "ପାରମ୍ପ",
      "ରିକ</w>"
    ],
    [
      "ଅ",
      "ପ"
    ],
    [
      "ଡ",
      "୍‌"
    ],
    [
      "ନିର୍ବା",
      "ଚ"
    ],
    [
      "ଡି",
      "ସେ"
    ],
    [
      "ଫ",
      "ର୍"
    ],
    [
      "ମ",
      "ଣ୍ଡ"
    ],
    [
      "ହ",
      "ରାଇ"
    ],
    [
      "ଶ",
      "କ୍ତି</w>"
    ],
    [
      "ଶ",
      "କ୍ତି"
    ],
    [
      "ତ",
      "ଥା"
    ],
    [
      "ଶେଷ",
      "ରେ</w>"
    ],
    [
      "ଘ",
      "ଣ୍ଟ"
    ],
    [
      "ହୋଇ",
      "ଯ"
    ],
    [
      "ନା",
      "ଲ</w>"
    ],
    [
      "କ",
      "୍‌</w>"
    ],
    [
      "ତ୍ର",
      "ି"
    ],
    [
      "ଡ",
      "ର</w>"
    ],
    [
      "ଅନ୍ୟ",
      "ତମ</w>"
    ],
    [
      "ପାଖାପାଖ",
      "ି</w>"
    ],
    [
      "ୋଇ",
      "</w>"
    ],
    [
      "ଲୋକ",
      "ଙ୍କ</w>"
    ],
    [
      "ମାର୍",
      "ଚ୍ଚ</w>"
    ],
    [
      "ଯାହା",
      "କି</w>"
    ],
    [
      "ଗ୍ର",
      "ାହ"
    ],
    [
      "ଜା",
      "ପ"
    ],
    [
      "ଅକ୍",
      "ଟୋ"
    ],
    [
      "ବିକ",
      "ଶିତ</w>"
    ],
    [
      "ସୂ",
      "ଚ"
    ],
    [
      "ପରିବ",
      "ାର"
    ],
    [
      "ହ",
      "୍ର"
    ],
    [
      "ଗ୍ରୀ",
      "ଷ୍"
    ],
    [
      "ମୁ",
      "କ୍ତି"
    ],
    [
      "ଜ",
      "ାର</w>"
    ],
    [
      "ସ",
      "ାର୍"
    ],
    [
      "ଆହୁ",
      "ରି</w>"
    ],
    [
      "ପ",
      "ୌ"
    ],
    [
      "ପାର",
      "େ,</w>"
    ],
    [
      "ଇ",
      "ଣ୍ଟ"
    ],
    [
      "ଏ",
      "ପ୍ରି"
    ],
    [
      "ହେ",
      "ାଇ"
    ],
    [
      "ାନ",
      "ା</w>"
    ],
    [
      "ବିକ୍ର",
      "ି</w>"
    ],
    [
      "ଭୂ",
      "ମି"
    ],
    [
      "ପ୍ରାୟ",
      "ତଃ</w>"
    ],
    [
      "ପକ୍ଷ",
      "ରେ</w>"
    ],
    [
      "ହୁଏ",
      ",</w>"
    ],
    [
      "ତୁଳ",
      "ନାରେ</w>"
    ],
    [
      "ସ୍ୱା",
      "ଧ"
    ],
    [
      "ଜ",
      "ଙ୍ଗ"
    ],
    [
      "ମୂଲ",
      "୍ୟ</w>"
    ],
    [
      "ମନ୍ତ୍ର",
      "ୀ</w>"
    ],
    [
      "ଦେଖ",
      "ି"
    ],
    [
      "ଆନ୍ତର୍",
      "ଜାତୀୟ</w>"
    ],
    [
      "ତ",
      "ଳ"
    ],
    [
      "ସହ",
      "ର"
    ],
    [
      "ନା",
      "ଟ"
    ],
    [
      "ବ୍ୟବ",
      "ସ୍ଥା</w>"
    ],
    [
      "ଲ",
      "ବ୍"
    ],
    [
      "ହେ",
      "ଲେ</w>"
    ],
    [
      "ବ",
      "୍</w>"
    ],
    [
      "ଚ",
      "ାରି"
    ],
    [
      "ମୁ",
      "ଦ୍ର"
    ],
    [
      "ପ୍ର",
      "ବାହ"
    ],
    [
      "ବେଳ",
      "େ"
    ],
    [
      "ମୁକ୍ତି",
      "ଲାଭ</w>"
    ],
    [
      "ଉଦ",
      "୍ୟ"
    ],
    [
      "ଅତ୍ୟ",
      "ନ୍ତ</w>"
    ],
    [
      "ଷ୍",
      "ଣ"
    ],
    [
      "ସ୍",
      "କୁ"
    ],
    [
      "କି",
      "ଲୋ"
    ],
    [
      "ତେ",
      "ଣୁ</w>"
    ],
    [
      "ନ",
      "ାର</w>"
    ],
    [
      "୧",
      "ରେ</w>"
    ],
    [
      "ବା",
      "ଦ</w>"
    ],
    [
      "ଖ",
      "ୋଜ"
    ],
    [
      "କୁହାଯ",
      "ାଏ।</w>"
    ],
    [
      "ପ୍ରତି",
      "ନି"
    ],
    [
      "ଙ୍",
      "ଘ"
    ],
    [
      "ଅନୁ",
      "ଭବ</w>"
    ],
    [
      "ପରିଚାଳ",
      "ନା</w>"
    ],
    [
      "ଜୈ",
      "ନ</w>"
    ],
    [
      "ଡ଼",
      "ି</w>"
    ],
    [
      "ବୁ",
      "ଝ"
    ],
    [
      "ଗ୍ରହ",
      "</w>"
    ],
    [
      "ଶତାବ୍",
      "ଦୀର</w>"
    ],
    [
      "ରାଜ୍ୟ",
      "ରେ</w>"
    ],
    [
      "ଅବସ୍ଥି",
      "ତ।</w>"
    ],
    [
      "ମ",
      "୍ୟାନ"
    ],
    [
      "କେ",
      "ର"
    ],
    [
      "ପ୍ର",
      "ଶ"
    ],
    [
      "େ",
      "ଇ</w>"
    ],
    [
      "ଶତାବ୍",
      "ଦୀ"
    ],
    [
      "ବ",
      "େ</w>"
    ],
    [
      "ଧ",
      "ାନ</w>"
    ],
    [
      "ପୋ",
      "ଲି"
    ],
    [
      "ମ",
      "ି</w>"
    ],
    [
      "ସମ",
      "େତ</w>"
    ],
    [
      "ତୃ",
      "ତୀୟ</w>"
    ],
    [
      "ପାର୍",
      "ଶ୍ୱ"
    ],
    [
      "ଦୃଷ୍ଟ",
      "ି"
    ],
    [
      "ସେ",
      "ନା</w>"
    ],
    [
      "ା",
      "ବ"
    ],
    [
      "ନିମ",
      "ନ୍ତ"
    ],
    [
      "ଦି",
      "ନ"
    ],
    [
      "୍ୟ",
      "ତା</w>"
    ],
    [
      "ିବ",
      "ାରେ</w>"
    ],
    [
      "କି",
      "ଣ"
    ],
    [
      "ସ",
      ",</w>"
    ],
    [
      "ଭାଷ",
      "ା</w>"
    ],
    [
      ".",
      "ର</w>"
    ],
    [
      "ଭୂମ",
      "ିକାରେ</w>"
    ],
    [
      "ପ",
      "ୀ"
    ],
    [
      "ଯାତ୍ର",
      "ା</w>"
    ],
    [
      "କ",
      "ଲେ"
    ],
    [
      "ଗ",
      "ର"
    ],
    [
      "କୋ",
      "ଟି</w>"
    ],
    [
      "ବି",
      "ସ୍ତ"
    ],
    [
      "ଟ",
      "ର"
    ],
    [
      "ରି",
      "ଆ</w>"
    ],
    [
      "ଚଳଚ୍ଚିତ୍ର",
      "ରେ</w>"
    ],
    [
      "୍",
      "ଵ"
    ],
    [
      ".ଏ",
      ".</w>"
    ],
    [
      "୧",
      "୩"
    ],
    [
      "କମ୍ପ",
      "୍ୟୁ"
    ],
    [
      "ୁ",
      "ଥିବା</w>"
    ],
    [
      "ତ",
      "୍‌</w>"
    ],
    [
      "ସ",
      "ଙ୍କ"
    ],
    [
      "ପ",
      "କ"
    ],
    [
      "ପ୍ରାରମ୍ଭ",
      "ିକ</w>"
    ],
    [
      "ବ୍ୟାପ",
      "କ</w>"
    ],
    [
      "ଜ",
      "ଳ</w>"
    ],
    [
      "ହୋଇ",
      "ଥାଏ,</w>"
    ],
    [
      "ମାଧ୍ୟ",
      "ମରେ</w>"
    ],
    [
      "ଖ",
      "ି"
    ],
    [
      "ଏହ",
      "ା"
    ],
    [
      "ପ୍ର",
      "ଭାବ</w>"
    ],
    [
      "ପା",
      "ତ</w>"
    ],
    [
      "ଦ୍ୱ",
      "ନ୍ଦ"
    ],
    [
      "ଦ",
      "ଳର</w>"
    ],
    [
      "ନ",
      "ଙ୍କ</w>"
    ],
    [
      "ସାମ",
      "ରିକ</w>"
    ],
    [
      "ଗୁଡ଼",
      "ିକରେ</w>"
    ],
    [
      "ଫ",
      "୍‌"
    ],
    [
      ".ଏ",
      "ସ୍‌"
    ],
    [
      "ନ",
      "ୀୟ</w>"
    ],
    [
      "କାଉ",
      "ଣ୍ଟ"
    ],
    [
      "ପହଞ୍ଚ",
      "ି"
    ],
    [
      "କ",
      "ଳା</w>"
    ],
    [
      "କରିବ",
      "ା"
    ],
    [
      "ଭ",
      "୍</w>"
    ],
    [
      "ଚିହ୍",
      "ନ"
    ],
    [
      "ପ",
      "ଛ"
    ],
    [
      "ସର୍ବ",
      "ୋ"
    ],
    [
      "୧",
      "୪"
    ],
    [
      "ମା",
      "ସରେ</w>"
    ],
    [
      "ପର",
      "ମ୍ପ"
    ],
    [
      "ଜ",
      "ୀ</w>"
    ],
    [
      "ଜଣ",
      "ାପ"
    ],
    [
      "ଦ୍ୱନ୍ଦ",
      "୍ୱ"
    ],
    [
      "ହି",
      "ଁ</w>"
    ],
    [
      "ୟ",
      ",</w>"
    ],
    [
      "ଧ୍ୟ",
      "ାନ</w>"
    ],
    [
      "ାନ",
      "ରେ</w>"
    ],
    [
      "ସ୍",
      "କ"
    ],
    [
      "ଉ",
      "ଚି"
    ],
    [
      "ଅପେ",
      "କ୍ଷା</w>"
    ],
    [
      "ପୃ",
      "ଷ୍ଠ"
    ],
    [
      "ସଙ୍ଗ",
      "ୀ"
    ],
    [
      "ଲ",
      ",</w>"
    ],
    [
      "ମାନ",
      "ର</w>"
    ],
    [
      "ହୋଇ",
      "ଛି</w>"
    ],
    [
      "ହୋଇ",
      "ପାରେ</w>"
    ],
    [
      ".",
      ")</w>"
    ],
    [
      "ସୁ",
      "ରକ୍ଷା</w>"
    ],
    [
      "ଆୟୋଜ",
      "ନ</w>"
    ],
    [
      "ଭୂମ",
      "ି</w>"
    ],
    [
      "ଂ",
      "ସ"
    ],
    [
      "ଚ",
      "ୀ"
    ],
    [
      "ଆ",
      "ଘା"
    ],
    [
      "ପରିବ",
      "ାର</w>"
    ],
    [
      "ଫିଲ୍",
      "ମ</w>"
    ],
    [
      "ଜିନି",
      "ଷ</w>"
    ],
    [
      "ସ",
      "ଞ୍ଚ"
    ],
    [
      "ସି",
      "ତ</w>"
    ],
    [
      "ଘ",
      "୍ର</w>"
    ],
    [
      "ଳ",
      "ିକ</w>"
    ],
    [
      "କହି",
      "ଥିଲେ</w>"
    ],
    [
      "ପ",
      "ାହା"
    ],
    [
      "ମୂ",
      "ଳ</w>"
    ],
    [
      "ସ",
      "ନ୍ତ"
    ],
    [
      "ୁ",
      "ର</w>"
    ],
    [
      "ପ",
      "ଦ</w>"
    ],
    [
      "ମ୍ୟାଚ",
      "୍</w>"
    ],
    [
      "ଜାନୁ",
      "ଆରୀ</w>"
    ],
    [
      "ସ",
      "ହି"
    ],
    [
      "କ୍ଷ",
      "ମ</w>"
    ],
    [
      "ସ୍ଥାପ",
      "ନ</w>"
    ],
    [
      "ଯା",
      "ଆ"
    ],
    [
      "ୟ",
      "ିକ</w>"
    ],
    [
      "ଖ",
      "ରା"
    ],
    [
      "ସେ",
      "ଠାରେ</w>"
    ],
    [
      "ନା",
      "ଗ"
    ],
    [
      "କୃ",
      "ତିକ</w>"
    ],
    [
      "ନିମନ୍ତ",
      "େ</w>"
    ],
    [
      "ସ୍ୱ",
      "ତନ୍ତ୍ର</w>"
    ],
    [
      "ପି",
      "ନ୍ଧ"
    ],
    [
      "ଣ",
      "କୁ</w>"
    ],
    [
      "ଗୁ",
      "ମ୍"
    ],
    [
      "ପ୍ରତ",
      "ିବ"
    ],
    [
      "ସ",
      "ଫଳ</w>"
    ],
    [
      "ଯ",
      "ିବା</w>"
    ],
    [
      "ସମ୍ମ",
      "ୁ"
    ],
    [
      "ଣ୍ଡ",
      "ା</w>"
    ],
    [
      "ସା",
      "ମି"
    ],
    [
      "ଗୋଷ୍ଠ",
      "ୀ</w>"
    ],
    [
      "ର",
      "ିତ</w>"
    ],
    [
      "ଜ",
      "ାରି</w>"
    ],
    [
      "ଔ",
      "ଷ"
    ],
    [
      "ପ୍ରସି",
      "ଦ୍ଧ</w>"
    ],
    [
      "ଫେ",
      "ବୃ"
    ],
    [
      "କାନ",
      "ା"
    ],
    [
      "ିବ",
      "ି"
    ],
    [
      "ାହି",
      "ଁ"
    ],
    [
      "ଦେ",
      "ବାକୁ</w>"
    ],
    [
      "ଆ",
      "ଦ"
    ],
    [
      "କି",
      ".ମି"
    ],
    [
      "ନେ",
      "ତୃ"
    ],
    [
      ".",
      "ଭି"
    ],
    [
      "ଣ୍ଡ",
      "୍ର"
    ],
    [
      "ଜୀବ",
      "ନ</w>"
    ],
    [
      "ଶା",
      "ଳୀ</w>"
    ],
    [
      "କୃ",
      "ଷ"
    ],
    [
      "ଅନୁ",
      "ମତି</w>"
    ],
    [
      "କ୍ର",
      "େ"
    ],
    [
      "ନ୍",
      "ସ"
    ],
    [
      "ଅଷ୍ଟ୍ରେ",
      "ଲି"
    ],
    [
      "ସୁ",
      "ବିଧ"
    ],
    [
      "ପୋଷ",
      "ା"
    ],
    [
      "ଜଣାଶୁ",
      "ଣା</w>"
    ],
    [
      "ବି",
      "ତ"
    ],
    [
      "ଉପ",
      "ଲବ୍"
    ],
    [
      "ବି",
      "ରୁ"
    ],
    [
      "ମା",
      "ଳ"
    ],
    [
      "କ୍",
      "ଲବ"
    ],
    [
      "ର୍ଥ",
      "</w>"
    ],
    [
      "ବିଶେ",
      "ଷ"
    ],
    [
      "ଙ୍କ",
      "ଠାରୁ</w>"
    ],
    [
      "ନୀ",
      "ତି</w>"
    ],
    [
      "ଗ",
      "ର୍"
    ],
    [
      "ନଭେ",
      "ମ୍ବର</w>"
    ],
    [
      "ନ୍",
      "‍‌"
    ],
    [
      "ରଖ",
      "ିବା</w>"
    ],
    [
      "ଫ",
      "ଳରେ</w>"
    ],
    [
      "ସହ",
      "ରର</w>"
    ],
    [
      "ଏ",
      "ସ"
    ],
    [
      "ପରି",
      "ମା"
    ],
    [
      "ଆଶ",
      "ା</w>"
    ],
    [
      "ହୋଇ",
      "ଗ"
    ],
    [
      "ସର",
      "କାରୀ</w>"
    ],
    [
      "ଟ୍ର",
      "େ"
    ],
    [
      "ସେପ୍ଟେ",
      "ମ୍ବର</w>"
    ],
    [
      "ଶୈ",
      "ଳ"
    ],
    [
      "ବେଳେ",
      "ବେଳେ</w>"
    ],
    [
      "ନ",
      "ାଇ"
    ],
    [
      "ଜିଲ୍ଲ",
      "ା</w>"
    ],
    [
      "ସର",
      "କାର"
    ],
    [
      "ନିଷ୍",
      "ପତ୍ତି</w>"
    ],
    [
      "ଦ୍ଧ",
      "ାର"
    ],
    [
      "ପ",
      "ସ"
    ],
    [
      "ତା'",
      "ପରେ</w>"
    ],
    [
      "ହେ",
      "ବାକୁ</w>"
    ],
    [
      "ତା",
      ",</w>"
    ],
    [
      "ବ୍",
      "ରା"
    ],
    [
      "ୟ",
      "ର୍"
    ],
    [
      "କି",
      "ସ୍ତ"
    ],
    [
      "ଜ",
      "ାଇ"
    ],
    [
      "ରିକ",
      "୍"
    ],
    [
      "କରାଯାଇ",
      "ଥିବା</w>"
    ],
    [
      "ଗ",
      "ଭ"
    ],
    [
      "ୟ",
      "ୀ</w>"
    ],
    [
      "ଚ",
      "ତୁ"
    ],
    [
      "ବିଜ",
      "ୟ</w>"
    ],
    [
      "ଦ",
      "ାର</w>"
    ],
    [
      "୨",
      "ରେ</w>"
    ],
    [
      "ଖରା",
      "ପ</w>"
    ],
    [
      "ଚ",
      "ାର୍"
    ],
    [
      "ଅ",
      "ଛି।</w>"
    ],
    [
      "ଚ",
      "ି</w>"
    ],
    [
      "ପରିବ",
      "େ"
    ],
    [
      "ପରି",
      "ଚିତ</w>"
    ],
    [
      "ଇଂ",
      "ଲ"
    ],
    [
      "ନ୍‌",
      "ରେ</w>"
    ],
    [
      "ପୁରୁ",
      "ଷ</w>"
    ],
    [
      "ମି",
      "ଶ୍ର"
    ],
    [
      "ଟ",
      "େ</w>"
    ],
    [
      "ହ",
      "ତ୍ୟା</w>"
    ],
    [
      "ସ୍ୱା",
      "ସ୍ଥ"
    ],
    [
      "ଗ",
      "ୃ"
    ],
    [
      "ସ",
      "ବ</w>"
    ],
    [
      "ଫେ",
      "ର"
    ],
    [
      "ହେ",
      "ଲା</w>"
    ],
    [
      "ମହ",
      "ାରା"
    ],
    [
      "ଠ",
      "ିକ୍</w>"
    ],
    [
      "କ",
      "ଲେ</w>"
    ],
    [
      "ଆବଶ୍ୟକ",
      "ତା</w>"
    ],
    [
      "କରୁ",
      "ଥିଲେ</w>"
    ],
    [
      "ର",
      "ହୁ"
    ],
    [
      "ମି",
      "ତି</w>"
    ],
    [
      "କରି",
      ",</w>"
    ],
    [
      "କରାଯାଇ",
      "ଥାଏ।</w>"
    ],
    [
      "ପ୍ର",
      "ଜା"
    ],
    [
      "ଯି",
      "ଏ"
    ],
    [
      "ସ",
      "ଭ"
    ],
    [
      "େ",
      "ଇ"
    ],
    [
      "ଅକ୍ଟୋ",
      "ବର</w>"
    ],
    [
      "ମୁ",
      "ସଲ"
    ],
    [
      "ବ",
      "୍ୟ</w>"
    ],
    [
      "ଦିଆ",
      "ଯ"
    ],
    [
      "ବି",
      "ମାନ</w>"
    ],
    [
      "ନ୍ତ",
      "ି"
    ],
    [
      "ଜ",
      "୍‌"
    ],
    [
      "ନିୟନ୍ତ୍ର",
      "ଣ</w>"
    ],
    [
      "ୱ",
      "ା</w>"
    ],
    [
      "କ୍ରୀ",
      "ଡ଼"
    ],
    [
      "ସାମି",
      "ଲ</w>"
    ],
    [
      "ନା",
      "ୟ"
    ],
    [
      "ପ୍ରତି",
      "ଦ୍ୱନ୍ଦ୍ୱ"
    ],
    [
      "ାର",
      "ୀ"
    ],
    [
      "ଆଧ",
      "ୁ"
    ],
    [
      "ପ୍ର",
      "ୟା"
    ],
    [
      "ଶୀ",
      "ଘ୍ର</w>"
    ],
    [
      "ଶୀ",
      "ଳ</w>"
    ],
    [
      "ଁ",
      "।</w>"
    ],
    [
      "ଆ",
      "ୟ</w>"
    ],
    [
      "ହେ",
      "ବ</w>"
    ],
    [
      "୨୦",
      "୨୦</w>"
    ],
    [
      "ବ",
      "ନ"
    ],
    [
      "ନ",
      "ଥିଲା।</w>"
    ],
    [
      "ଯିଏ",
      "କି</w>"
    ],
    [
      "ସହ",
      "ରରେ</w>"
    ],
    [
      "ଘର",
      "ୋଇ</w>"
    ],
    [
      "ାନ୍",
      "ଧ"
    ],
    [
      "ପୂର୍ବ",
      "ରୁ,</w>"
    ],
    [
      "ଜ",
      "ରେ</w>"
    ],
    [
      "ସ",
      "ାରା</w>"
    ],
    [
      "ବିରୁ",
      "ଦ୍ଧରେ</w>"
    ],
    [
      "ଡିସେ",
      "ମ୍ବର</w>"
    ],
    [
      "ଆମେରିକ",
      "ା</w>"
    ],
    [
      "କ",
      "ୀ"
    ],
    [
      "ଘ",
      "ର</w>"
    ],
    [
      "ସ୍",
      "କେ"
    ],
    [
      "ଙ୍ଗ",
      "ା"
    ],
    [
      "କୋ",
      "ର୍"
    ],
    [
      "ରି",
      "ଆ"
    ],
    [
      "ବ",
      "ୌ"
    ],
    [
      "ତ୍ତ",
      "ା</w>"
    ],
    [
      "ପ୍ର",
      "କାର</w>"
    ],
    [
      "ଇ",
      "ନ"
    ],
    [
      "ତ",
      "ର"
    ],
    [
      "ଧ",
      "ାର୍"
    ],
    [
      "ମ୍‌",
      "ରେ</w>"
    ],
    [
      "ଦ",
      "ାନ</w>"
    ],
    [
      "ମୋଗ",
      "ଲ</w>"
    ],
    [
      "ପ୍ର",
      "ଦେଶର</w>"
    ],
    [
      "ବ",
      "ାହି"
    ],
    [
      "ଆଇ",
      "ନ</w>"
    ],
    [
      "ଷ୍ଟ",
      "ର</w>"
    ],
    [
      "ଜ",
      "୍‌</w>"
    ],
    [
      "ତ",
      "ୀ</w>"
    ],
    [
      "କରୁ",
      "ଥିଲେ।</w>"
    ],
    [
      "ଧ",
      "ାନୀ</w>"
    ],
    [
      "ପୁନ",
      "ଃ"
    ],
    [
      "ଅ",
      "ଗ୍ର"
    ],
    [
      "ଏ",
      "ତେ</w>"
    ],
    [
      "ଋ",
      "ତୁ"
    ],
    [
      "ଲ",
      "ଢ଼"
    ],
    [
      "ମା",
      "ଜ"
    ],
    [
      "ପ",
      "ଣ</w>"
    ],
    [
      "ରାଜ",
      "ଧାନୀ</w>"
    ],
    [
      "ଲ",
      "ମ୍ବ"
    ],
    [
      "ଜନ",
      "କ</w>"
    ],
    [
      "ଅନ୍ତର୍ଭୁ",
      "କ୍ତ"
    ],
    [
      "ଫୁଟବ",
      "ଲ</w>"
    ],
    [
      "ଅଗ",
      "ଷ୍ଟ</w>"
    ],
    [
      "କ",
      "ଂ"
    ],
    [
      "୧୯",
      "୩"
    ],
    [
      "ମା",
      "ଲ"
    ],
    [
      "ଫ୍ର",
      "ାନ୍"
    ],
    [
      "ସି",
      "ଆ"
    ],
    [
      "ଶ୍ର",
      "ୀ"
    ],
    [
      "ପା",
      "କିସ୍ତ"
    ],
    [
      "ଠ",
      "ା</w>"
    ],
    [
      "ରକ୍ଷ",
      "ିତ</w>"
    ],
    [
      "କରି",
      "ଥାନ୍ତି।</w>"
    ],
    [
      "ବୋ",
      "ର୍"
    ],
    [
      "ଲୋକ",
      "ଙ୍କୁ</w>"
    ],
    [
      "ନୃ",
      "ତ୍ୟ</w>"
    ],
    [
      "ଆ",
      "ମେ</w>"
    ],
    [
      "ତା",
      "'ର</w>"
    ],
    [
      "ସୁଦ୍ଧ",
      "ା</w>"
    ],
    [
      "ଦା",
      "ୟ</w>"
    ],
    [
      "ବାର୍",
      "ଷ"
    ],
    [
      "ତ୍ତ",
      "ି"
    ],
    [
      "ୟୁ",
      "ନି"
    ],
    [
      "ର୍ତ୍ତ",
      "ି</w>"
    ],
    [
      "ସ",
      "ଫ୍"
    ],
    [
      "ପାରିବ",
      "।</w>"
    ],
    [
      ")",
      ",</w>"
    ],
    [
      "ଉ",
      "ନ୍ନ"
    ],
    [
      "ପ",
      "ଡ଼ି"
    ],
    [
      "ଶ",
      "ୁ</w>"
    ],
    [
      "କିଲୋ",
      "ମିଟର</w>"
    ],
    [
      "ଚିହ୍ନ",
      "ଟ</w>"
    ],
    [
      "କର୍ମ",
      "ଚାର"
    ],
    [
      "ଡି",
      "ଓ</w>"
    ],
    [
      "ପୁ",
      "ଣି</w>"
    ],
    [
      "କ୍ଷମ",
      "ତା</w>"
    ],
    [
      "୭",
      "ରେ</w>"
    ],
    [
      "ଶି",
      "କ୍ଷା</w>"
    ],
    [
      "ତାରି",
      "ଖ"
    ],
    [
      "ମୂଲ",
      "୍ୟ"
    ],
    [
      "କେ",
      "ତେ</w>"
    ],
    [
      "ଇ",
      "ତିହା"
    ],
    [
      "ାନ",
      "ିକ</w>"
    ],
    [
      "ସମ୍",
      "ଭବ"
    ],
    [
      "ନିମ୍",
      "ନ</w>"
    ],
    [
      "ନିର୍",
      "ଦ୍ଧାର"
    ],
    [
      "ତାମି",
      "ଲ"
    ],
    [
      "ନ୍",
      ",</w>"
    ],
    [
      "ଚ",
      "ରି"
    ],
    [
      "ଡ଼",
      "ିତ</w>"
    ],
    [
      "ଜନ୍",
      "ମ</w>"
    ],
    [
      "ଦୁର୍",
      "ଗ</w>"
    ],
    [
      "କରାଯାଇ",
      "ଛି</w>"
    ],
    [
      "କ",
      "ୀ</w>"
    ],
    [
      "ାନ",
      "୍‌"
    ],
    [
      "ଟେ",
      "ଲି"
    ],
    [
      "ସି",
      "ରି"
    ],
    [
      "ନ",
      "ର୍"
    ],
    [
      "ବ୍ୟକ୍ତି",
      "ଗତ</w>"
    ],
    [
      "ଲ",
      "ାର</w>"
    ],
    [
      "କାର୍ଯ୍ୟ",
      "କ୍ରମ</w>"
    ],
    [
      "ଉତ୍ତ",
      "ର-"
    ],
    [
      "ଜୁ",
      "ଲାଇ</w>"
    ],
    [
      "ଅଧ୍ୟ",
      "ୟନ</w>"
    ],
    [
      "ସହି",
      "ତ,</w>"
    ],
    [
      "ସମ୍ପର୍",
      "କ</w>"
    ],
    [
      "କରି",
      "ପାର"
    ],
    [
      "ରେକର୍",
      "ଡ</w>"
    ],
    [
      "ସ୍କୋ",
      "ର</w>"
    ],
    [
      "ପୌ",
      "ର"
    ],
    [
      "ିକ",
      "ୋ"
    ],
    [
      "ଆଧୁ",
      "ନିକ</w>"
    ],
    [
      "ସ୍ଥାପ",
      "ିତ</w>"
    ],
    [
      "ଆ",
      "ଜି</w>"
    ],
    [
      "ଣ୍ଡ",
      "ୋ"
    ],
    [
      "ମୁ",
      "କ୍ତ</w>"
    ],
    [
      "ସ୍ୱ",
      "ୀ"
    ],
    [
      "ଦ",
      "ିବ"
    ],
    [
      "କରାଯ",
      "ାଏ,</w>"
    ],
    [
      "କୌ",
      "ଶ"
    ],
    [
      "ପୁରୁ",
      "ଣା</w>"
    ],
    [
      "ଅ",
      "ଛି,</w>"
    ],
    [
      "ଭ",
      "ର୍"
    ],
    [
      "ଗ୍ରା",
      "ମ</w>"
    ],
    [
      "ପ",
      "ତ୍ର</w>"
    ],
    [
      "ା",
      "ଗ"
    ],
    [
      "କ୍ଷ",
      "ୁ"
    ],
    [
      "ସହାୟ",
      "ତା</w>"
    ],
    [
      "ସ୍ଥ",
      "ଳ"
    ],
    [
      "୧",
      "୨</w>"
    ],
    [
      "କ୍ରୀ",
      "ଡ଼ା</w>"
    ],
    [
      "ପ",
      "୍ୟା"
    ],
    [
      "ପ",
      "ଥ"
    ],
    [
      "ଦୀର୍ଘ",
      "</w>"
    ],
    [
      "ଆ",
      "କର୍"
    ],
    [
      "ଡ",
      "ୁ"
    ],
    [
      "ଭି",
      "ତ"
    ],
    [
      "ରି",
      "ଲି"
    ],
    [
      "ଜ",
      "ନିତ</w>"
    ],
    [
      "ଥ",
      "ୋ"
    ],
    [
      "ପରୀ",
      "କ୍ଷା</w>"
    ],
    [
      "ବି",
      "ପକ୍ଷରେ</w>"
    ],
    [
      "ସ୍ଥି",
      "ର</w>"
    ],
    [
      "ଥା",
      "ନ୍ତି,</w>"
    ],
    [
      "ଅଞ୍ଚ",
      "ଳର</w>"
    ],
    [
      "ବି",
      "ଦ୍ର"
    ],
    [
      "ସ୍",
      "ତି"
    ],
    [
      "ସହାୟ",
      "କ</w>"
    ],
    [
      "ସା",
      "ମାଜ"
    ],
    [
      "ତିହା",
      "ସିକ</w>"
    ],
    [
      "ପୌର",
      "ପାଳ"
    ],
    [
      "ଞ୍ଜ",
      "ି"
    ],
    [
      "ଅତି",
      "ରିକ୍"
    ],
    [
      "ଭୂମ",
      "ିକା</w>"
    ],
    [
      "ସମର୍ଥ",
      "ନ</w>"
    ],
    [
      "ମ",
      "ନ</w>"
    ],
    [
      "ି",
      "ଆ</w>"
    ],
    [
      "ଯେ",
      "ପରିକି</w>"
    ],
    [
      "ସମସ",
      "୍ୟା</w>"
    ],
    [
      "ୋ",
      "ପ"
    ],
    [
      "ଲେଖ",
      "ି"
    ],
    [
      "କରିପାରିବ",
      "େ</w>"
    ],
    [
      "ଅଧ",
      "ୀ"
    ],
    [
      "ରାଷ୍ଟ୍ର",
      "ପତି</w>"
    ],
    [
      "ସୀ",
      "ମା</w>"
    ],
    [
      "ୀ",
      "କୁ</w>"
    ],
    [
      "ବା",
      "ୟ"
    ],
    [
      "ଧ",
      "ର"
    ],
    [
      "ଅତିରିକ୍",
      "ତ</w>"
    ],
    [
      "ପ",
      "ତ୍"
    ],
    [
      "ପ୍ର",
      "ଭାବ"
    ],
    [
      "ଣ",
      ",</w>"
    ],
    [
      "ଅଧିକ",
      "ାର</w>"
    ],
    [
      "ଶି",
      "ଖ"
    ],
    [
      "ତ",
      "ଳ</w>"
    ],
    [
      "କା",
      "ଳ</w>"
    ],
    [
      "ସାମଗ୍ର",
      "ୀ</w>"
    ],
    [
      "ଇଣ୍ଟ",
      "ର"
    ],
    [
      "ସ୍ଥ",
      "ାୟ"
    ],
    [
      "ବା",
      "ସ"
    ],
    [
      "ପା",
      "ଉ"
    ],
    [
      "ସ",
      "ଫଳ"
    ],
    [
      "ବ",
      "ଦ"
    ],
    [
      "ବି",
      "ରୋଧ"
    ],
    [
      "କର",
      "ୁ</w>"
    ],
    [
      "ର୍",
      "ଷ"
    ],
    [
      "ପ୍ର",
      "ାର୍ଥ"
    ],
    [
      "ସର୍ବ",
      "ବୃହ"
    ],
    [
      "ବି",
      "ଚାର</w>"
    ],
    [
      "ଧର୍",
      "ମ</w>"
    ],
    [
      "ଉ",
      "ଦ୍"
    ],
    [
      "କରିପାରିବ",
      "େ।</w>"
    ],
    [
      "ପ",
      "ଥ</w>"
    ],
    [
      "ର",
      "କ୍ତ"
    ],
    [
      "ଦେ",
      "ଉ"
    ],
    [
      "ବ",
      "ଢ଼"
    ],
    [
      "କେ",
      "ଉ"
    ],
    [
      "ଗଣ",
      "ନା</w>"
    ],
    [
      "ପ",
      "ଡ଼"
    ],
    [
      "ଟି",
      "ରେ</w>"
    ],
    [
      "ନିଜ",
      "କୁ</w>"
    ],
    [
      "ଅଧୀ",
      "ନରେ</w>"
    ],
    [
      "ତ୍",
      "ଵ"
    ],
    [
      "ତାମିଲ",
      "ନା"
    ],
    [
      "ସ୍",
      "ପେ"
    ],
    [
      "ସମ",
      "ୀ"
    ],
    [
      "ଐ",
      "ତିହାସିକ</w>"
    ],
    [
      "ପା",
      "ଞ୍ଚ"
    ],
    [
      "ା",
      "ତ୍ମକ</w>"
    ],
    [
      "କେନ୍ଦ୍ର",
      "</w>"
    ],
    [
      "କ୍ଷେ",
      "ତ୍ର</w>"
    ],
    [
      "ରାଜ",
      "ନୈତିକ</w>"
    ],
    [
      "ପର୍ଯ୍ୟ",
      "ଟ"
    ],
    [
      "କି.ମି",
      ".</w>"
    ],
    [
      "ପା",
      "ଦ</w>"
    ],
    [
      "ସି",
      "ନେ"
    ],
    [
      "ାର",
      "େ"
    ],
    [
      "ଆଧାର",
      "ିତ</w>"
    ],
    [
      "ଷ୍ଟ୍ର",
      "ୋ"
    ],
    [
      "ଅ",
      "ଫି"
    ],
    [
      "ପ୍ରା",
      "ପ୍ତ</w>"
    ],
    [
      "ନିୟ",
      "ମ</w>"
    ],
    [
      "ୀ",
      "ମାନଙ୍କ</w>"
    ],
    [
      "ଲଗ",
      "ା</w>"
    ],
    [
      "ପାରିବ",
      "</w>"
    ],
    [
      "ତ୍ର",
      "ୀ</w>"
    ],
    [
      "ଙ୍ଗ",
      "ା</w>"
    ],
    [
      "ଉତ୍ତ",
      "ରା"
    ],
    [
      "ସଦସ",
      "୍ୟ"
    ],
    [
      "ମର୍",
      "ଶ</w>"
    ],
    [
      "କ",
      "ଷ୍ଟ"
    ],
    [
      "ତା",
      "ପ"
    ],
    [
      "ଚଳଚ୍ଚିତ୍ର",
      "ର</w>"
    ],
    [
      "ନେ",
      "ବା</w>"
    ],
    [
      "ପୁ",
      "ସ୍ତ"
    ],
    [
      "ଥି",
      "ପାଇଁ</w>"
    ],
    [
      "ଟୁ",
      "ର୍ଣ୍ଣା"
    ],
    [
      "ସ୍",
      "କ</w>"
    ],
    [
      "୨୦୧",
      "୦</w>"
    ],
    [
      "ବିଷ",
      "ୟ"
    ],
    [
      "ପଦ",
      "କ</w>"
    ],
    [
      "ଲ୍",
      "‍‌"
    ],
    [
      "କରି",
      "ଥିଲା,</w>"
    ],
    [
      "ସ୍‌",
      "ର</w>"
    ],
    [
      "୨୦୧",
      "୪</w>"
    ],
    [
      "ଅଧ",
      "ି"
    ],
    [
      "ଦ",
      "ନ</w>"
    ],
    [
      "ସ୍ପ",
      "ଷ୍ଟ</w>"
    ],
    [
      "ପୁରୁ",
      "ଷ"
    ],
    [
      "ଯ",
      "ନ୍ତ୍ର"
    ],
    [
      "ଲା",
      "ଗୁ"
    ],
    [
      "ଅ",
      "ଲଗା</w>"
    ],
    [
      "ନୃ",
      "ତ୍ୟ"
    ],
    [
      "ବିଶ୍ୱ",
      "ର</w>"
    ],
    [
      "ପାଇ",
      "ବା</w>"
    ],
    [
      "ପ୍ରତିନି",
      "ଧି"
    ],
    [
      "ଚ",
      "୍</w>"
    ],
    [
      "ପର୍ବ",
      "</w>"
    ],
    [
      "ପରା",
      "ମର୍ଶ</w>"
    ],
    [
      "ବ",
      "ାରେ</w>"
    ],
    [
      "ସୁବିଧ",
      "ା</w>"
    ],
    [
      "ାର",
      "କୁ</w>"
    ],
    [
      "ପ୍ର",
      "କାଶ"
    ],
    [
      "ସୁଦ୍ଧ",
      "ା,</w>"
    ],
    [
      "ସଙ୍ଗ",
      "ଠ"
    ],
    [
      "ଋ",
      "ଣ</w>"
    ],
    [
      "ବା",
      "ଧ"
    ],
    [
      "କୁହାଯ",
      "ାଏ</w>"
    ],
    [
      ".",
      "ଇ"
    ],
    [
      "ଚଳଚ୍ଚିତ୍ର",
      "ଟି</w>"
    ],
    [
      "ସ୍ଥାୟ",
      "ୀ</w>"
    ],
    [
      "ମଧ୍ୟ",
      "ରେ,</w>"
    ],
    [
      "ଜ",
      "୍ୱ"
    ],
    [
      "୫",
      "୦</w>"
    ],
    [
      "ଲୋ",
      "</w>"
    ],
    [
      "ଲ୍",
      "ଡ</w>"
    ],
    [
      "ପାରିବ",
      "େ</w>"
    ],
    [
      "ଘଟ",
      "ଣା</w>"
    ],
    [
      "୦",
      "ରୁ</w>"
    ],
    [
      "ଏ",
      "ଠାରେ</w>"
    ],
    [
      "ଉ",
      "ଠ"
    ],
    [
      "ପ୍ର",
      "କ"
    ],
    [
      "ଆ",
      "ସୁ"
    ],
    [
      "ାଇ",
      "ଥିଲେ।</w>"
    ],
    [
      "ଗ",
      "ତି</w>"
    ],
    [
      "ଜର୍",
      "ମାନ"
    ],
    [
      "ନିୟ",
      "ମିତ</w>"
    ],
    [
      "ପ୍",
      "ଲେ"
    ],
    [
      "ପ",
      "୍‌"
    ],
    [
      "ସୁ",
      "ଲ"
    ],
    [
      "ନ୍‌",
      "ର</w>"
    ],
    [
      "ବ",
      "ଲ୍</w>"
    ],
    [
      "ଏକ",
      "ମାତ୍ର</w>"
    ],
    [
      "କଂ",
      "ଗ୍ରେ"
    ],
    [
      "ନା",
      "କୁ</w>"
    ],
    [
      "ଅନ୍ତର୍ଭୁକ୍ତ",
      "।</w>"
    ],
    [
      "କ",
      "ମାନଙ୍କ</w>"
    ],
    [
      "ଆ",
      "ଣ"
    ],
    [
      "ସି",
      "ଂ</w>"
    ],
    [
      "ଣ୍ଡ",
      "ା"
    ],
    [
      "କରି",
      "ଛି।</w>"
    ],
    [
      "କ୍",
      "ଲ"
    ],
    [
      "ସ",
      "ୌ"
    ],
    [
      "ପାରିବ",
      "େ।</w>"
    ],
    [
      "ଫେବୃ",
      "ଆରୀ</w>"
    ],
    [
      "ାହ",
      "୍"
    ],
    [
      "ଦୂ",
      "ରରେ</w>"
    ],
    [
      "େ",
      "ଶ୍ୟ"
    ],
    [
      "ଫୋ",
      "ର୍"
    ],
    [
      "କର୍",
      "କ"
    ],
    [
      "ଶବ୍",
      "ଦ</w>"
    ],
    [
      "ରହ",
      "ିବା</w>"
    ],
    [
      "ସାମାଜ",
      "ିକ</w>"
    ],
    [
      "'",
      "କୁ</w>"
    ],
    [
      "ଜ",
      "ରା"
    ],
    [
      "ବା",
      "ସ୍ତ"
    ],
    [
      "ନ",
      "ୌ"
    ],
    [
      "ଶା",
      "ସ୍ତ୍ର"
    ],
    [
      "କ୍",
      "ଲି"
    ],
    [
      "ଫିଲ୍",
      "ମ"
    ],
    [
      "ୀନ",
      "ତା</w>"
    ],
    [
      "ସ",
      "'</w>"
    ],
    [
      "ଚାର",
      "ି</w>"
    ],
    [
      "ପ୍ର",
      "କୃ"
    ],
    [
      "୧",
      "୫</w>"
    ],
    [
      "ର୍ଣ୍",
      "ଣି"
    ],
    [
      "ଅ",
      "ସ୍ତ୍ର"
    ],
    [
      "ଦା",
      "ବି</w>"
    ],
    [
      "ପ",
      "ଞ୍ଚ"
    ],
    [
      "ଉଦ୍ଦ",
      "େଶ୍ୟ"
    ],
    [
      "ଉପଲବ୍",
      "ଧ</w>"
    ],
    [
      "ଭା",
      "ଙ୍ଗ"
    ],
    [
      "୫",
      "ରେ</w>"
    ],
    [
      "ନ୍ୟା",
      "ସ"
    ],
    [
      "ଅନୁଯାୟ",
      "ୀ</w>"
    ],
    [
      "ସେ",
      "ଗୁଡ଼ିକ</w>"
    ],
    [
      "ବନ୍ଧ",
      "ୁ"
    ],
    [
      "ଘଣ୍ଟ",
      "ା</w>"
    ],
    [
      "ହ",
      "ୃ"
    ],
    [
      "ପ୍ର",
      "ଦେଶ</w>"
    ],
    [
      "ଆ",
      "ହ"
    ],
    [
      "ନେ",
      "ଟ"
    ],
    [
      "ଖ",
      "ଲ</w>"
    ],
    [
      "ଲାଗ",
      "ି</w>"
    ],
    [
      "୨୦",
      "୧୯</w>"
    ],
    [
      "ହେବ",
      "।</w>"
    ],
    [
      "ଲା",
      "ଣ୍ଡ</w>"
    ],
    [
      "ସା",
      "ତ"
    ],
    [
      "'",
      ",</w>"
    ],
    [
      "୩",
      "୦</w>"
    ],
    [
      "ଲୋ",
      "ଚନା</w>"
    ],
    [
      "ହୋଇ",
      "ନ"
    ],
    [
      "ନୁହେ",
      "ଁ।</w>"
    ],
    [
      "୬",
      "ରେ</w>"
    ],
    [
      "ଏହ",
      "ି"
    ],
    [
      "ଯ",
      "ଥା"
    ],
    [
      "ଛ",
      "</w>"
    ],
    [
      "ତି",
      "କୁ</w>"
    ],
    [
      "୪",
      "ରେ</w>"
    ],
    [
      "ବ",
      "ନ</w>"
    ],
    [
      "କ",
      "ଥା"
    ],
    [
      "ବହ",
      "ୁ</w>"
    ],
    [
      "ଲକ୍ଷ",
      "୍ୟ</w>"
    ],
    [
      "ସ",
      "ଙ୍ଘ"
    ],
    [
      "ପ୍ର",
      "ଶିକ୍ଷ"
    ],
    [
      "ବର୍ତ୍ତ",
      "ମାନର</w>"
    ],
    [
      "ଶି",
      "ଳ୍ପ"
    ],
    [
      "ିକ୍",
      "ସ</w>"
    ],
    [
      "ଏପ୍ରି",
      "ଲ</w>"
    ],
    [
      "ୋ",
      "ର</w>"
    ],
    [
      "ଆ",
      "ଫ୍ର"
    ],
    [
      "ପ୍ରବାହ",
      "ିତ</w>"
    ],
    [
      "୮",
      "ରେ</w>"
    ],
    [
      "ଅବ",
      "ସ୍ଥ"
    ],
    [
      "ଥିବ",
      "ାରୁ</w>"
    ],
    [
      "ଦିଲ୍ଲ",
      "ୀ</w>"
    ],
    [
      "ବ",
      "ାନ</w>"
    ],
    [
      "ଜିନି",
      "ଷ"
    ],
    [
      "ପ୍ରା",
      "ଣ</w>"
    ],
    [
      "ଶ",
      "ା</w>"
    ],
    [
      ".",
      "ଓ"
    ],
    [
      "ସେ",
      "ଣ୍ଟ"
    ],
    [
      "କାହା",
      "ଣୀ</w>"
    ],
    [
      "ଗଠ",
      "ିତ</w>"
    ],
    [
      "ସ",
      "କୁ</w>"
    ],
    [
      "ମାନ",
      "ଙ୍କ"
    ],
    [
      "ଅନୁସ",
      "ାରେ</w>"
    ],
    [
      "ପୋଷା",
      "କ</w>"
    ],
    [
      "ସ୍ଥାନ",
      "ାନ୍ତ"
    ],
    [
      "୨୦୧",
      "୧</w>"
    ],
    [
      "ନିବ",
      "େଶ</w>"
    ],
    [
      "ପୁ",
      "ଅ</w>"
    ],
    [
      "ସ୍",
      "ତା</w>"
    ],
    [
      "ହ",
      "ଜାର</w>"
    ],
    [
      "ର",
      "ଚନା</w>"
    ],
    [
      "ପ୍ରତିଯୋଗି",
      "ତା</w>"
    ],
    [
      "ା",
      "ଙ୍କ</w>"
    ],
    [
      "ଣି",
      "ଜ"
    ],
    [
      "ରା",
      "ମ"
    ],
    [
      "ଘ",
      "ୁ"
    ],
    [
      "ଉତ୍",
      "ସବ</w>"
    ],
    [
      "ହ",
      "ନ</w>"
    ],
    [
      "ମସିହ",
      "ାରୁ</w>"
    ],
    [
      "ଭାଷ",
      "ାରେ</w>"
    ],
    [
      "ଆମେରିକ",
      "ାରେ</w>"
    ],
    [
      "ଆଘା",
      "ତ</w>"
    ],
    [
      "ଗ",
      "୍ୟା"
    ],
    [
      "ଜନ",
      "ସଂଖ୍ୟା</w>"
    ],
    [
      "ବ",
      "ଳ"
    ],
    [
      "କ",
      "ର୍ଣ୍ଣା"
    ],
    [
      "ଙ୍ଗ",
      "ୁ"
    ],
    [
      "ପଦ",
      "ାର୍"
    ],
    [
      "କ",
      "୍ୟୁ"
    ],
    [
      "ଗ",
      "୍‌"
    ],
    [
      "ବର୍ଷ",
      "ା</w>"
    ],
    [
      "ରଖ",
      "ାଯାଇ"
    ],
    [
      "ବି",
      "ନା</w>"
    ],
    [
      "ଦ୍ର",
      "ୁ"
    ],
    [
      "ଞ୍ଜ",
      "</w>"
    ],
    [
      "ଧାର୍",
      "ମିକ</w>"
    ],
    [
      "କ",
      "ନ"
    ],
    [
      "ଉ",
      "ପର"
    ],
    [
      "ବା",
      "ଣିଜ"
    ],
    [
      "ଦାୟ",
      "ି"
    ],
    [
      "କ୍ଷ",
      "ଣ</w>"
    ],
    [
      "ସ୍ତ",
      "ର</w>"
    ],
    [
      "ପୋର୍",
      "ଟ</w>"
    ],
    [
      "ଯ",
      "ୌ"
    ],
    [
      "ଶତାବ୍ଦୀ",
      "ରେ</w>"
    ],
    [
      "ଢ",
      "ା"
    ],
    [
      "ପା",
      "ଣ୍ଡ"
    ],
    [
      "ଟେ",
      "କ୍"
    ],
    [
      "ରୂପ",
      "େ</w>"
    ],
    [
      "ଖ",
      "ିତ</w>"
    ],
    [
      "୩",
      "ରେ</w>"
    ],
    [
      "ଅ",
      "ଳ୍ପ</w>"
    ],
    [
      "ଇଂ",
      "ରାଜ"
    ],
    [
      "'",
      "ଏ"
    ],
    [
      "ମାତ୍ର",
      "ା</w>"
    ],
    [
      "ଶବ୍",
      "ଦ"
    ],
    [
      "ଯୁ",
      "ଦ୍ଧ"
    ],
    [
      "ାନ",
      "ା"
    ],
    [
      "ଚ",
      "ନ୍ଦ୍ର"
    ],
    [
      "ରି",
      "ଆରେ</w>"
    ],
    [
      "ପର୍ଯ୍ୟ",
      "ନ୍ତ"
    ],
    [
      "ବି",
      "ଭା"
    ],
    [
      "ଗ",
      "ାୟ"
    ],
    [
      "ୟ",
      "କୁ</w>"
    ],
    [
      "ପ",
      "ଏ"
    ],
    [
      "ନି",
      "ରା"
    ],
    [
      "କ",
      "ଲେ।</w>"
    ],
    [
      "ଉତ୍ପାଦ",
      "ନ</w>"
    ],
    [
      "ତ",
      "ୋ"
    ],
    [
      "ଘ",
      "ରେ</w>"
    ],
    [
      "ବ୍ୟ",
      "ତୀ"
    ],
    [
      "ଲ",
      "ଣ୍ଡ"
    ],
    [
      "ସି",
      "ଷ୍ଟ"
    ],
    [
      "ବର୍ଷ",
      "ର</w>"
    ],
    [
      "କରାଯାଇ",
      "ଥିଲା,</w>"
    ],
    [
      "ଓ",
      "ଡ଼ି"
    ],
    [
      "ରହି",
      "ଥିବା</w>"
    ],
    [
      "୨୦୧",
      "୩</w>"
    ],
    [
      "ଦୁ",
      "ଃ"
    ],
    [
      "ଜ",
      "ାହା"
    ],
    [
      "ହିନ୍ଦ",
      "ୁ"
    ],
    [
      "ସମ୍ଭାବ",
      "ନା</w>"
    ],
    [
      "କମ୍ପ୍ୟୁ",
      "ଟର</w>"
    ],
    [
      "କାଉ",
      "ଣ୍ଟି"
    ],
    [
      "ହିନ୍ଦ",
      "ୀ</w>"
    ],
    [
      "ହାର",
      "ାହ"
    ],
    [
      "୦",
      "ରେ</w>"
    ],
    [
      "ଭ",
      "ୀ"
    ],
    [
      "ଂ",
      "ସା</w>"
    ],
    [
      "କ୍ର",
      "ିକେ"
    ],
    [
      "କୁହ",
      "ାଯାଇ"
    ],
    [
      "ସମ୍ଭବ",
      "ତଃ</w>"
    ],
    [
      "ପ",
      "ଦ୍ଧ"
    ],
    [
      "ବ",
      "ଞ୍ଚ"
    ],
    [
      "ମା",
      "ମ"
    ],
    [
      "ଅ",
      "ଛନ୍ତି</w>"
    ],
    [
      "ତାରି",
      "ଖ</w>"
    ],
    [
      "ଲକ୍ଷ",
      "</w>"
    ],
    [
      "ବ୍ୟବ",
      "ସ୍ଥ"
    ],
    [
      "ବାହ",
      "ାର</w>"
    ],
    [
      "ଡ଼",
      "ା</w>"
    ],
    [
      "ଗ",
      "ାନ୍ଧ"
    ],
    [
      "ଅ",
      "ଛନ୍ତି।</w>"
    ],
    [
      "ବ୍ୟତୀ",
      "ତ,</w>"
    ],
    [
      "ାଉ",
      "ଥିବା</w>"
    ],
    [
      "କାନା",
      "ଡ"
    ],
    [
      "ଲି",
      "ୟ"
    ],
    [
      "ଉତ୍",
      "ସବ"
    ],
    [
      "କର୍ଣ୍ଣା",
      "ଟ"
    ],
    [
      "କ",
      "'"
    ],
    [
      "ପସ",
      "ନ୍ଦ</w>"
    ],
    [
      "ବ୍ର",
      "େ"
    ],
    [
      "ଥିଲ",
      "େ"
    ],
    [
      "ଜ",
      "ିତ</w>"
    ],
    [
      "ଫେ",
      "ରି"
    ],
    [
      "କୁ",
      ",</w>"
    ],
    [
      "ସ୍",
      "ତ୍ର</w>"
    ],
    [
      "ବି",
      "ମାନ"
    ],
    [
      "କ୍ୟ",
      "ାରି"
    ],
    [
      "ଜୁ",
      "ନ୍</w>"
    ],
    [
      "ପ୍ର",
      "ଣା"
    ],
    [
      "ବାହ",
      "ାରେ</w>"
    ],
    [
      "ରାଜ",
      "</w>"
    ],
    [
      "କୁ",
      "ମାର"
    ],
    [
      "ପ୍ର",
      "ଧାନ"
    ],
    [
      "ାଇ",
      "ବାକୁ</w>"
    ],
    [
      "ଆ",
      "ର୍‌"
    ],
    [
      "ସ୍ତ",
      "ରରେ</w>"
    ],
    [
      "କ୍ରି",
      "ୟ</w>"
    ],
    [
      "ଟା",
      "ଲ"
    ],
    [
      "ନ",
      "ଦୀର</w>"
    ],
    [
      "ସ୍‌",
      "ରେ</w>"
    ],
    [
      "ପ୍ର",
      "ସ୍ତା"
    ],
    [
      "କର୍",
      "ତ୍ତ"
    ],
    [
      "ଡ଼",
      "ା"
    ],
    [
      "ତଥା",
      "ପି</w>"
    ],
    [
      "କ୍ଷ",
      "ି"
    ],
    [
      "ଚ",
      "ୟନ</w>"
    ],
    [
      "ଫ",
      "ି</w>"
    ],
    [
      "ଦେଖ",
      "ି</w>"
    ],
    [
      "ଆ",
      "ବେ"
    ],
    [
      "ୱେ",
      "ବ"
    ],
    [
      "ସ",
      "ାହି"
    ],
    [
      "ଜ",
      "ୟ"
    ],
    [
      "ନି",
      "ଯୁକ୍ତ</w>"
    ],
    [
      "ବୌ",
      "ଦ୍ଧ</w>"
    ],
    [
      "ବି",
      "କାଶ</w>"
    ],
    [
      "ଖ",
      "ୀନ</w>"
    ],
    [
      "ବାର୍ଷ",
      "ିକ</w>"
    ],
    [
      "କ",
      "ଳ"
    ],
    [
      "ଅଭ",
      "୍ୟା"
    ],
    [
      "ତାମି",
      "ଲ</w>"
    ],
    [
      "ଣ୍ଡ",
      "େ"
    ],
    [
      "ପୂ",
      "ଜା</w>"
    ],
    [
      "ଯୁ",
      "କ୍ତି</w>"
    ],
    [
      "ାର",
      "ରେ</w>"
    ],
    [
      "ସ",
      "କ୍ଷମ</w>"
    ],
    [
      "କି",
      "ପରି</w>"
    ],
    [
      "ପ୍ରତି",
      "ଶ"
    ],
    [
      "ଣ୍ଟ",
      "େ"
    ],
    [
      "ନ୍ଦ",
      "ର</w>"
    ],
    [
      "ବା",
      "ଦୀ</w>"
    ],
    [
      "ଏହା",
      "ପରେ</w>"
    ],
    [
      "ମସିହ",
      "ାର</w>"
    ],
    [
      "ଦି",
      "ଗରେ</w>"
    ],
    [
      "ଆ",
      "ନ</w>"
    ],
    [
      "ପୁ",
      "ରା"
    ],
    [
      "ା",
      "ଳ</w>"
    ],
    [
      "ହାରାହ",
      "ାରି</w>"
    ],
    [
      "ସୁ",
      "ଟିଂ</w>"
    ],
    [
      "ଆ",
      "ନ୍</w>"
    ],
    [
      "ବ",
      "ଜା"
    ],
    [
      "ଯ",
      "େ,</w>"
    ],
    [
      "କରି",
      "ନ"
    ],
    [
      "ସଂ",
      "ଗ୍ରହ</w>"
    ],
    [
      "ଅତ୍ୟ",
      "ଧିକ</w>"
    ],
    [
      "କା",
      "ଳରେ</w>"
    ],
    [
      "ଭ",
      "ଗ"
    ],
    [
      "ଡି",
      "ୟ"
    ],
    [
      "ପ୍",
      "ଲା"
    ],
    [
      "ନା",
      ",</w>"
    ],
    [
      "କା",
      "ଲି"
    ],
    [
      "୨୦୧",
      "୮</w>"
    ],
    [
      "ପା",
      "ଲ"
    ],
    [
      "ଯ",
      "ଥେ"
    ],
    [
      "ଦ",
      "ୈ"
    ],
    [
      "ନ୍‌",
      "ଙ୍କ</w>"
    ],
    [
      "ଉପ",
      "କୂ"
    ],
    [
      "ସା",
      "ଙ୍ଗ"
    ],
    [
      "ବ୍ରିଟି",
      "ଶ"
    ],
    [
      "ବି",
      "ଷ୍"
    ],
    [
      "୨୦୧",
      "୨</w>"
    ],
    [
      "ଯେଉଁ",
      "ଠି</w>"
    ],
    [
      "ପୂର୍ବ",
      "ତନ</w>"
    ],
    [
      "ଗ",
      "ବେ"
    ],
    [
      "ଖ୍ରୀ",
      "ଷ୍ଟ"
    ],
    [
      "ଟ",
      "ର୍"
    ],
    [
      "ହ",
      "ର"
    ],
    [
      "ପ",
      "ତ୍ର"
    ],
    [
      "ଲ୍",
      "ସ</w>"
    ],
    [
      "ଉପ",
      "ତ୍ୟ"
    ],
    [
      "ଷ୍ଟ",
      "ୁ"
    ],
    [
      "ନେଇ",
      "ଥିଲେ।</w>"
    ],
    [
      "ସେ",
      "ଗୁଡ଼ିକ</w>"
    ],
    [
      "ଭ",
      "ାଇ</w>"
    ],
    [
      "ୀ",
      "ୟ"
    ],
    [
      "ସ୍",
      "ରା"
    ],
    [
      "ସାର୍",
      "ବ"
    ],
    [
      "୧",
      ","
    ],
    [
      "କେନ୍ଦ୍ର",
      "ୀୟ</w>"
    ],
    [
      "ଆ",
      "ମ</w>"
    ],
    [
      "୨",
      "୫</w>"
    ],
    [
      "ଗୃ",
      "ହ"
    ],
    [
      "ନିର୍ଦ୍ଦେଶ",
      "କ</w>"
    ],
    [
      "ର",
      "ଙ୍ଗ</w>"
    ],
    [
      "ଶୈ",
      "ଳୀ</w>"
    ],
    [
      "ମୂଳ",
      "କ</w>"
    ],
    [
      "ଯେ",
      "କୌଣସି</w>"
    ],
    [
      "ପରିବେ",
      "ଷଣ</w>"
    ],
    [
      "ଆ",
      ",</w>"
    ],
    [
      "ର୍",
      "ଯ୍ୟ</w>"
    ],
    [
      "ହ",
      "କି</w>"
    ],
    [
      "ତ",
      "କୁ</w>"
    ],
    [
      "ଟେଲି",
      "ଭି"
    ],
    [
      "ୋ",
      "ହ</w>"
    ],
    [
      "ବିକ",
      "ଳ୍ପ</w>"
    ],
    [
      "ଏ",
      "କ୍ସ"
    ],
    [
      "ସମ୍ବନ୍ଧ",
      "ୀୟ</w>"
    ],
    [
      "ରାଜ",
      "ି"
    ],
    [
      "ନିର୍ବା",
      "ଚିତ</w>"
    ],
    [
      "ଅ",
      "ଲ"
    ],
    [
      "ପ୍ର",
      "ମାଣ</w>"
    ],
    [
      "ଖେଳି",
      "ଥିଲେ</w>"
    ],
    [
      "ଣ୍ଡ",
      "ି</w>"
    ],
    [
      "ଏ",
      "ନ୍‌"
    ],
    [
      "ନିର୍",
      "ମା"
    ],
    [
      "ଥି",
      "ରୁ</w>"
    ],
    [
      "ବ",
      "ଲ୍‌"
    ],
    [
      "ରେ",
      "ଳ</w>"
    ],
    [
      "ସ୍",
      "‍‌"
    ],
    [
      "ସ",
      "ାରି"
    ],
    [
      "ଯେ",
      "ହେତୁ</w>"
    ],
    [
      "ଫ",
      "୍</w>"
    ],
    [
      "୯",
      "ରେ</w>"
    ],
    [
      "ପା",
      "ଞ୍ଚ</w>"
    ],
    [
      "ସ୍ୱାସ୍ଥ",
      "୍ୟ</w>"
    ],
    [
      "ଯଥେ",
      "ଷ୍ଟ</w>"
    ],
    [
      "ବନ୍ଦ",
      "ର</w>"
    ],
    [
      "ନ",
      "ର"
    ],
    [
      "ଥିବା",
      "ବେଳେ</w>"
    ],
    [
      "ଭୁ",
      "କ୍ତ</w>"
    ],
    [
      "ତ",
      "୍‌"
    ],
    [
      "ସମ",
      "୍ରା"
    ],
    [
      "ଦ",
      "ୌ"
    ],
    [
      "ଜା",
      "ଣି"
    ],
    [
      "ନୁହେ",
      "ଁ,</w>"
    ],
    [
      "ଟୋ",
      "</w>"
    ],
    [
      "ସୁଲ",
      "ତ"
    ],
    [
      "ଶ",
      "୍ୟ</w>"
    ],
    [
      "ଣ୍",
      "ଠ"
    ],
    [
      "କାର୍ଯ୍ୟ",
      "କ୍ରମ"
    ],
    [
      "ଦ୍ୱୀ",
      "ପ"
    ],
    [
      "ଦକ୍ଷି",
      "ଣ-"
    ],
    [
      "ପ୍ରକୃ",
      "ତରେ</w>"
    ],
    [
      "ଶ",
      "ୂ"
    ],
    [
      "୨୦୧",
      "୭</w>"
    ],
    [
      "ବି",
      "ଚାର"
    ],
    [
      "ଆନୁ",
      "ଷ୍ଠ"
    ],
    [
      "ମୁ",
      "ମ୍ବ"
    ],
    [
      "କ୍ଷ",
      "ତି</w>"
    ],
    [
      "ବି",
      "ଭ"
    ],
    [
      "ସଂକ୍ରମ",
      "ଣ</w>"
    ],
    [
      "ଚ୍",
      "ଛା"
    ],
    [
      "ଡ",
      "୍ରା"
    ],
    [
      "ଆ",
      "ଡ଼"
    ],
    [
      "ଆ",
      "ଲା"
    ],
    [
      "ପ୍ରତ",
      "୍ୟା"
    ],
    [
      "କ",
      "ଲେ,</w>"
    ],
    [
      "ନିବ",
      "େଶ"
    ],
    [
      "ଡ",
      "୍‌</w>"
    ],
    [
      "ବ୍ୟବସା",
      "ୟ</w>"
    ],
    [
      "ପ୍ରୟା",
      "ସ</w>"
    ],
    [
      "ସ",
      "ନ"
    ],
    [
      "ଆନୁଷ୍ଠ",
      "ାନିକ</w>"
    ],
    [
      "ଡି",
      "ଜାଇ"
    ],
    [
      "ଗ",
      "୍</w>"
    ],
    [
      "ନି",
      "ଅ"
    ],
    [
      "ର",
      "କ୍ତ</w>"
    ],
    [
      "ବେ",
      "ଶ"
    ],
    [
      "ଅଞ୍ଚଳ",
      "କୁ</w>"
    ],
    [
      "ଜେ",
      "ନେ"
    ],
    [
      "ହ",
      "ରି"
    ],
    [
      "ତ୍ତ",
      "</w>"
    ],
    [
      "ଙ୍ଗ",
      "େ"
    ],
    [
      "ମ୍‌",
      "ର</w>"
    ],
    [
      "ଲକ୍ଷ",
      "ଣ</w>"
    ],
    [
      "ସ୍",
      "କ୍ରି"
    ],
    [
      "୨୦୦",
      "୦</w>"
    ],
    [
      "ସ୍ୱାଧ",
      "ୀନତା</w>"
    ],
    [
      "େ",
      "ଦ"
    ],
    [
      "ନୁହେ",
      "ଁ</w>"
    ],
    [
      "ବ୍ୟକ୍ତି",
      "ଙ୍କ</w>"
    ],
    [
      "ଔଷ",
      "ଧ</w>"
    ],
    [
      "ଟ",
      "ିକ୍</w>"
    ],
    [
      "ଗୁ",
      "ଜରା"
    ],
    [
      "ସପ୍ତାହ",
      "</w>"
    ],
    [
      "ଏ",
      "।</w>"
    ],
    [
      "ଗ୍ରୀଷ୍",
      "ମ"
    ],
    [
      "ବିଦ",
      "୍ୟୁ"
    ],
    [
      "ଲିଗ",
      "୍</w>"
    ],
    [
      "ସ",
      "ତ୍ତ୍ୱ"
    ],
    [
      "ପର୍ଯ୍ୟନ୍ତ",
      ",</w>"
    ],
    [
      "ଅ",
      "ଭାବ</w>"
    ],
    [
      "କ'",
      "ଣ</w>"
    ],
    [
      "ବ",
      "ଜ"
    ],
    [
      "ସା",
      "ଉ"
    ],
    [
      "ସିଂ",
      "ହ"
    ],
    [
      "ୟୁରୋ",
      "ପ"
    ],
    [
      "ଅନୁସ",
      "ାରେ,</w>"
    ],
    [
      "ପ",
      "ଥର</w>"
    ],
    [
      "ରହି",
      "ଥାଏ।</w>"
    ],
    [
      "ସ୍",
      "ନା"
    ],
    [
      "ଯ",
      "ିବାକୁ</w>"
    ],
    [
      "କରିବ",
      "େ</w>"
    ],
    [
      "ଲି",
      ",</w>"
    ],
    [
      "ଦଶ",
      "କରେ</w>"
    ],
    [
      "ପ",
      "ବି"
    ],
    [
      "ସାମ୍",
      "ରାଜ୍ୟ</w>"
    ],
    [
      "ଆ",
      "ଣ୍ଟ"
    ],
    [
      "ସା",
      "ଂ"
    ],
    [
      "ତ୍ତ",
      "ମ</w>"
    ],
    [
      "ସାମ୍",
      "ରାଜ୍ୟର</w>"
    ],
    [
      "ଶ",
      "ରୀ"
    ],
    [
      "ଆ",
      "ଶ୍"
    ],
    [
      "ଲେ",
      "କ୍"
    ],
    [
      "କ",
      "ଙ୍କୁ</w>"
    ],
    [
      "ଖ",
      "ା</w>"
    ],
    [
      "କାର୍ଯ୍ୟ",
      "କଳା"
    ],
    [
      "ସରକାର",
      "ଙ୍କ</w>"
    ],
    [
      "୧",
      "୧"
    ],
    [
      "ଅଧିକ",
      "ାର"
    ],
    [
      "ନେଇ",
      "ଥିଲେ</w>"
    ],
    [
      "ଚିନ୍ତ",
      "ା</w>"
    ],
    [
      "ଏକା",
      "ଠି</w>"
    ],
    [
      "ମନ୍ଦି",
      "ର"
    ],
    [
      "ଜ",
      "ଗ"
    ],
    [
      "ବ୍ର",
      "ୋ"
    ],
    [
      "ମୁ",
      "ହ"
    ],
    [
      "ତ",
      "ାର"
    ],
    [
      "କ୍ରମ",
      "େ</w>"
    ],
    [
      "ଅ",
      "ପର"
    ],
    [
      "ଶ",
      "ିବ"
    ],
    [
      "ନିର୍",
      "ଭର</w>"
    ],
    [
      "ଛା",
      "ତ୍ର"
    ],
    [
      "ସଞ୍ଚ",
      "ୟ</w>"
    ],
    [
      "କରି",
      "ଛି</w>"
    ],
    [
      "ଫ୍",
      "ଲୋ"
    ],
    [
      "ଜ",
      "ରିଆରେ</w>"
    ],
    [
      "ବ",
      "୍‌</w>"
    ],
    [
      "ଯୋଗ",
      "୍ୟ</w>"
    ],
    [
      "ଦ୍ଧ",
      "ାର</w>"
    ],
    [
      "କା",
      "ଗ"
    ],
    [
      "ପୁ",
      "ତ୍ର</w>"
    ],
    [
      "ଧର୍",
      "ମ"
    ],
    [
      "ତ",
      "ୀତ</w>"
    ],
    [
      "ତା",
      "’"
    ],
    [
      "ନ୍ତ",
      "ର</w>"
    ],
    [
      "ପାଞ୍ଚ",
      "ଟି</w>"
    ],
    [
      "ଫାଇ",
      "ନା"
    ],
    [
      "ସି",
      "ଆ</w>"
    ],
    [
      ".ଏ",
      "ଲ୍‌"
    ],
    [
      "ଆ",
      "ଣି"
    ],
    [
      "ଆୟୋଜ",
      "ିତ</w>"
    ],
    [
      "ୀ",
      "ମାନଙ୍କୁ</w>"
    ],
    [
      "୧୯",
      "୨"
    ],
    [
      "ସମ",
      "ୟର</w>"
    ],
    [
      "ତଃ",
      ",</w>"
    ],
    [
      "ପୃ",
      "ଥ"
    ],
    [
      "ବ",
      "ଦଳ"
    ],
    [
      "ଯାଇ",
      "</w>"
    ],
    [
      "ସ୍",
      ",</w>"
    ],
    [
      "ତାଲ",
      "ିକା"
    ],
    [
      "ଡ଼",
      "େ"
    ],
    [
      "ଜନ",
      "ଗଣନା</w>"
    ],
    [
      "ଅଭିନେ",
      "ତା</w>"
    ],
    [
      "ି",
      "ର</w>"
    ],
    [
      "ସ",
      "ଲା"
    ],
    [
      "ଗ୍ର",
      "ୁ"
    ],
    [
      "ସୁ",
      "ଯୋଗ</w>"
    ],
    [
      "କେ",
      "ବେ</w>"
    ],
    [
      "ଦୁର୍",
      "ଗ"
    ],
    [
      "ଅଂଶ",
      "ଗ୍ରହଣ</w>"
    ],
    [
      "ଜଙ୍ଗ",
      "ଲ</w>"
    ],
    [
      "ର",
      "ତା</w>"
    ],
    [
      "ଡ୍ର",
      "ାଇ"
    ],
    [
      "ସମ",
      "ସ୍ତ"
    ],
    [
      "କରି",
      "ଦେ"
    ],
    [
      "ତ",
      "ଥ"
    ],
    [
      "ଠ",
      "ିକ"
    ],
    [
      "ପ",
      "ଦକ୍ଷ"
    ],
    [
      "ପଦକ୍ଷ",
      "େ"
    ],
    [
      "ଜ",
      "ର"
    ],
    [
      "ଜଣାଶୁ",
      "ଣା"
    ],
    [
      "ଲି",
      "ଙ୍ଗ"
    ],
    [
      "କ",
      "କୁ</w>"
    ],
    [
      "ସ",
      "ନ୍ଧ"
    ],
    [
      "ସାହ",
      "ିତ</w>"
    ],
    [
      "ଉଲ୍ଲେ",
      "ଖ"
    ],
    [
      "ଟ",
      ",</w>"
    ],
    [
      "ମିଳି",
      "ଥିଲା।</w>"
    ],
    [
      "ପ",
      "୍ୟ"
    ],
    [
      "ସମ୍ମୁ",
      "ଖୀନ</w>"
    ],
    [
      "\"",
      "।</w>"
    ],
    [
      ".ଏ",
      "ଫ୍"
    ],
    [
      "ୟ",
      "ଙ୍କ</w>"
    ],
    [
      "ଟ",
      "ନ୍</w>"
    ],
    [
      "ତି",
      ",</w>"
    ],
    [
      "ତୀ",
      "ୟ"
    ],
    [
      "ଯ",
      "କ୍ଷ"
    ],
    [
      "ନ୍ଦ",
      "େ"
    ],
    [
      "ମି",
      "ନ୍</w>"
    ],
    [
      "ଦିଆଯାଇ",
      "ଥିଲା।</w>"
    ],
    [
      "ସମ୍ମ",
      "ାନ"
    ],
    [
      "କୃଷ",
      "ି</w>"
    ],
    [
      "ଅନୁସ",
      "ରଣ</w>"
    ],
    [
      "ଚ",
      "ମ"
    ],
    [
      "କେ",
      "ହି</w>"
    ],
    [
      "ଆଶ୍",
      "ଚର୍"
    ],
    [
      "ଜ",
      "ନ୍</w>"
    ],
    [
      "ନ୍ୟୁ",
      "ୟର୍"
    ],
    [
      "୨୦୦",
      "୮</w>"
    ],
    [
      "ହ",
      "ାର୍"
    ],
    [
      "ଦୋ",
      "କାନ"
    ],
    [
      "ଜ",
      "ରୁ"
    ],
    [
      "ଜଣ",
      "କ</w>"
    ],
    [
      "ତୁ",
      "ର"
    ],
    [
      "ତାରିଖ",
      "ରେ,</w>"
    ],
    [
      "ନ୍ଦ",
      "ୋ"
    ],
    [
      "ପକ",
      "ାଇ"
    ],
    [
      "ଭିତ",
      "ରକୁ</w>"
    ],
    [
      "ପ୍ର",
      "ଶାସ"
    ],
    [
      "କର୍କ",
      "ଟ</w>"
    ],
    [
      "ଅ",
      "ଣ"
    ],
    [
      "ସି",
      "ସ୍</w>"
    ],
    [
      "ମ",
      "ଡେ"
    ],
    [
      "ଭୂ",
      "ତ</w>"
    ],
    [
      "ପା",
      "ଳ</w>"
    ],
    [
      "ଅଭି",
      "ଯ"
    ],
    [
      "ଲ୍‌",
      "ରେ</w>"
    ],
    [
      "ଏ",
      "ଭଳି</w>"
    ],
    [
      "ପ୍ରା",
      "କୃତିକ</w>"
    ],
    [
      "ମ",
      "ଦ"
    ],
    [
      "ମନୋ",
      "ନ"
    ],
    [
      "ଖ",
      "ଣ୍ଡ"
    ],
    [
      "ଚ",
      "</w>"
    ],
    [
      "ଯାଇ",
      "ଥିଲେ</w>"
    ],
    [
      "ଥିଲ",
      "ି</w>"
    ],
    [
      "ବ",
      "ଡ଼</w>"
    ],
    [
      "ତୀ",
      "ର୍ଥ"
    ],
    [
      "ଗ୍ର",
      "ସ୍ତ</w>"
    ],
    [
      "ହୃ",
      "ଦ"
    ],
    [
      "ମ୍",
      "ସ</w>"
    ],
    [
      "୨୦୨",
      "୧</w>"
    ],
    [
      "୨୦୧",
      "୬</w>"
    ],
    [
      "ସମ",
      "ର୍"
    ],
    [
      "ଶି",
      "ଶୁ"
    ],
    [
      "ଡ",
      "ରେ</w>"
    ],
    [
      "ଶ",
      "ାହ"
    ],
    [
      "ନିଜ",
      "େ</w>"
    ],
    [
      "ମ",
      "।</w>"
    ],
    [
      "ଶ",
      "ହ</w>"
    ],
    [
      "ଗ୍ର",
      "ନ୍"
    ],
    [
      "ସ୍",
      "ପି"
    ],
    [
      "ଚାମ୍ପିଅନ",
      "ସି"
    ],
    [
      "ଭୂ",
      "ତା"
    ],
    [
      "ଦୃ",
      "ଶ୍ୟ"
    ],
    [
      "ପ୍ରତି",
      "କ୍ରିୟା</w>"
    ],
    [
      "ଗୁରୁ",
      "ତର</w>"
    ],
    [
      "ତ୍ର",
      "ୁ"
    ],
    [
      "ରା",
      "ମ</w>"
    ],
    [
      "ଙ୍",
      "ଖ"
    ],
    [
      "ସଂ",
      "ଘ"
    ],
    [
      "ର୍ଣ୍",
      "ଣର</w>"
    ],
    [
      "ଇ",
      "ଟାଲ"
    ],
    [
      "ପବି",
      "ତ୍ର</w>"
    ],
    [
      "ହ",
      "ଳ"
    ],
    [
      "କ",
      "ୀୟ</w>"
    ],
    [
      "ଦେଶ",
      "ୀ</w>"
    ],
    [
      "ଶ",
      "ୃ"
    ],
    [
      "ଲ",
      "କୁ</w>"
    ],
    [
      "ନ୍ଦ",
      "ା</w>"
    ],
    [
      "ି",
      "ତା</w>"
    ],
    [
      "ଚଳ",
      "ିତ</w>"
    ],
    [
      "ନ୍ୟାସ",
      "ନାଲ</w>"
    ],
    [
      "ସର୍ବୋ",
      "ଚ୍ଚ</w>"
    ],
    [
      "ଟ୍ର",
      "ୋ"
    ],
    [
      "ମାଇ",
      "କ୍ରୋ"
    ],
    [
      "ମୁସଲ",
      "ମାନ</w>"
    ],
    [
      "ଆ",
      "ତ୍ମ"
    ],
    [
      "କୁ",
      "ମାର</w>"
    ],
    [
      "ମା",
      "ଲିକ"
    ],
    [
      "ଡି",
      "ଭି"
    ],
    [
      "ଟ",
      "ୀ"
    ],
    [
      "ରହି",
      "ଥାଏ</w>"
    ],
    [
      "ନି",
      "ଆ</w>"
    ],
    [
      "ାନ",
      "ାରେ</w>"
    ],
    [
      "ସୀ",
      "ମିତ</w>"
    ],
    [
      "ପ୍ରା",
      "ଥ"
    ],
    [
      "ପୂ",
      "ରଣ</w>"
    ],
    [
      "୧୦",
      "୦</w>"
    ],
    [
      "ପ୍ରଧାନ",
      "ମନ୍ତ୍ରୀ</w>"
    ],
    [
      "ଦୃ",
      "ଶ୍ୟ</w>"
    ],
    [
      "ଦ୍ରୁ",
      "ତ</w>"
    ],
    [
      "ପରିଚାଳ",
      "ିତ</w>"
    ],
    [
      "ଡ",
      "ବ୍ଲ"
    ],
    [
      "ତ୍ଵ",
      "</w>"
    ],
    [
      "କର",
      "ାଇ"
    ],
    [
      "କା",
      "ଶ୍"
    ],
    [
      "ପ",
      "ା</w>"
    ],
    [
      "ଟ୍‌",
      "ରେ</w>"
    ],
    [
      "ଶା",
      "ସିତ</w>"
    ],
    [
      "ୱ",
      "ାର</w>"
    ],
    [
      "କ",
      "ପ୍</w>"
    ],
    [
      "ଦୁ",
      "ର୍ବ"
    ],
    [
      "ସମା",
      "ପ୍ତ</w>"
    ],
    [
      "ବ",
      "ଢ଼"
    ],
    [
      "ି",
      "ତ।</w>"
    ],
    [
      "ବ୍ରି",
      "ଟେ"
    ],
    [
      "ସ",
      "ାର</w>"
    ],
    [
      "ବି",
      "ଫଳ</w>"
    ],
    [
      "ଲି",
      "ଖିତ</w>"
    ],
    [
      "ଯୁ",
      "ଦ୍ଧରେ</w>"
    ],
    [
      "ସୈ",
      "ନ୍ୟ"
    ],
    [
      "ସମ୍",
      "ଭବ</w>"
    ],
    [
      "ଫି",
      "ଲି"
    ],
    [
      "ଗୁଡ଼",
      "ି"
    ],
    [
      ".ପି",
      ".</w>"
    ],
    [
      "ଏ",
      "ଗୁଡ଼ିକ</w>"
    ],
    [
      "ମ",
      "ାରି"
    ],
    [
      "ଦ",
      "ିତ</w>"
    ],
    [
      "ପ୍ରତିଶ",
      "ତ</w>"
    ],
    [
      "ହା",
      "ଉ"
    ],
    [
      "ପ୍ରଦର୍ଶ",
      "ିତ</w>"
    ],
    [
      "ସା",
      "ଥ"
    ],
    [
      "ଧ",
      "ୀରେ</w>"
    ],
    [
      "ପ୍ରତିବ",
      "ର୍ଷ</w>"
    ],
    [
      "ପ",
      "ଳ"
    ],
    [
      "ସେ",
      "ନା"
    ],
    [
      "ଝି",
      "ଅ"
    ],
    [
      "ମ୍ୟୁ",
      "ନି"
    ],
    [
      "ଦ",
      "ଶ</w>"
    ],
    [
      "ଳ",
      "ୟ</w>"
    ],
    [
      "ପା",
      "ଣି"
    ],
    [
      "ଲ",
      "ି।</w>"
    ],
    [
      "ପରିମା",
      "ଣର</w>"
    ],
    [
      "ାନ",
      "୍‌</w>"
    ],
    [
      "ଉ",
      "</w>"
    ],
    [
      "ିବ",
      ",</w>"
    ],
    [
      "ନିର୍ବାଚ",
      "ନ</w>"
    ],
    [
      "ଷ",
      "ଣ"
    ],
    [
      "ଯେ",
      "ପରି</w>"
    ],
    [
      "ଦି",
      "ଆ</w>"
    ],
    [
      "ମାତ୍ର",
      "ାରେ</w>"
    ],
    [
      "ାନ",
      ",</w>"
    ],
    [
      "ର୍",
      "ଯ୍ୟ"
    ],
    [
      "ସାର୍ବ",
      "ଜନ"
    ],
    [
      "ଲ",
      "ଙ୍କ</w>"
    ],
    [
      "ଜା",
      "ତି"
    ],
    [
      "ଗୀ",
      "ତ"
    ],
    [
      "ବୟ",
      "ସ୍କ</w>"
    ],
    [
      "ବିବ",
      "ାହ"
    ],
    [
      "ଗୁମ୍",
      "ଫା</w>"
    ],
    [
      "ତ",
      "କ</w>"
    ],
    [
      "ତୁର",
      "ନ୍ତ</w>"
    ],
    [
      "ଉଦ୍ଦେଶ୍ୟ",
      "ରେ</w>"
    ],
    [
      "ପ",
      "ଢ଼"
    ],
    [
      "ନ",
      "ବ"
    ],
    [
      "ଅଭି",
      "ଯୋଗ</w>"
    ],
    [
      "ଦଶ",
      "କର</w>"
    ],
    [
      "୧",
      "୧</w>"
    ],
    [
      "ଜିଲ୍ଲ",
      "ାରେ</w>"
    ],
    [
      "ପରିବ",
      "ହନ</w>"
    ],
    [
      "୍ୟ",
      "ରେ</w>"
    ],
    [
      "ଅ",
      "ଣ-"
    ],
    [
      "ନିର୍",
      "ଣ୍ଣ"
    ],
    [
      "ଆ",
      "ଗ"
    ],
    [
      "ଆକ",
      "ଳନ</w>"
    ],
    [
      "ପ୍ରସାର",
      "ିତ</w>"
    ],
    [
      "କ",
      "୍ୟ</w>"
    ],
    [
      "ପୁନ",
      "ର୍"
    ],
    [
      "ବିଭ",
      "କ୍ତ</w>"
    ],
    [
      "ରେ",
      "ଟି"
    ],
    [
      "ବ",
      "ଜେ"
    ],
    [
      "ମା",
      "ସ"
    ],
    [
      "ଦୃଷ୍ଟି",
      "ରୁ</w>"
    ],
    [
      "ଧ",
      "ିକ"
    ],
    [
      "ବ",
      "ୀ</w>"
    ],
    [
      "ତଳ",
      "େ</w>"
    ],
    [
      "ଧ",
      "୍ୱ"
    ],
    [
      "ଶି",
      "ଶୁ</w>"
    ],
    [
      "ବାୟ",
      "ୁ</w>"
    ],
    [
      "କ",
      "ାହିଁ"
    ],
    [
      "।",
      "\"</w>"
    ],
    [
      "ସାର୍ବଜନ",
      "ୀନ</w>"
    ],
    [
      "ଗି",
      "ର"
    ],
    [
      "ୀ",
      "।</w>"
    ],
    [
      "ପଞ୍ଜ",
      "ା"
    ],
    [
      "ମ",
      "ତ</w>"
    ],
    [
      "ମ",
      "ଙ୍ଗ"
    ],
    [
      "ଂ",
      ",</w>"
    ],
    [
      "କରି",
      "ଦେଇ"
    ],
    [
      "ମଣ୍ଡ",
      "ଳ"
    ],
    [
      "ଆ",
      "ଲବ"
    ],
    [
      "ପଏ",
      "ଣ୍ଟ</w>"
    ],
    [
      "ପାର",
      "ନ୍ତି</w>"
    ],
    [
      "ଏସ",
      "ୀୟ</w>"
    ],
    [
      "ଡବ୍ଲ",
      "୍ୟୁ"
    ],
    [
      "ଖେଳ",
      "ାଯାଇ"
    ],
    [
      "ଭ",
      "ୟ"
    ],
    [
      "ସଂଖ୍ୟ",
      "କ</w>"
    ],
    [
      "ସୁ",
      "ରକ୍ଷିତ</w>"
    ],
    [
      ".ଭି",
      ".</w>"
    ],
    [
      "ଗେ",
      "ମ୍</w>"
    ],
    [
      "ଖୁ",
      "ସି</w>"
    ],
    [
      "ସ୍ୱ",
      "ରୂପ</w>"
    ],
    [
      "ମିଳ",
      "ିତ</w>"
    ],
    [
      "କଂଗ୍ରେ",
      "ସ</w>"
    ],
    [
      "କ୍ରି",
      "ୟ"
    ],
    [
      "ଶକ୍ତି",
      "ଶାଳୀ</w>"
    ],
    [
      "କମ୍ପାନ",
      "ୀର</w>"
    ],
    [
      "ପରମ୍ପ",
      "ରା</w>"
    ],
    [
      "ବି",
      "ସ୍"
    ],
    [
      "ଜ",
      "ଡ଼ିତ</w>"
    ],
    [
      "ୱି",
      "ଣ୍ଡ"
    ],
    [
      "ପା",
      "ଣି</w>"
    ],
    [
      "ଯା",
      "ଞ୍ଚ</w>"
    ],
    [
      "ଯାଇ",
      "ଥିଲେ।</w>"
    ],
    [
      "ଥିବା",
      "ବେଳେ,</w>"
    ],
    [
      "ରୋଗ",
      "ରେ</w>"
    ],
    [
      "ସ୍ଥ",
      "ଳ</w>"
    ],
    [
      "ମ",
      "ସ୍ତି"
    ],
    [
      "ଉତ୍",
      "ପାଦ</w>"
    ],
    [
      "ହୋଇ",
      "ଥିଲେ,</w>"
    ],
    [
      "ଅ",
      "ପରା"
    ],
    [
      "ପତ୍",
      "ନୀ</w>"
    ],
    [
      "କୋ",
      "ଷ"
    ],
    [
      "ୟୁରୋପ",
      "ୀୟ</w>"
    ],
    [
      "ବ",
      "ଂଶ</w>"
    ],
    [
      "ପଞ୍ଜ",
      "ାବ"
    ],
    [
      "ା",
      "ନ୍ତ</w>"
    ],
    [
      "ନ",
      "ଷ୍ଟ</w>"
    ],
    [
      "ବ୍ୟା",
      "ଙ୍କ</w>"
    ],
    [
      "ଳ",
      "ମ୍ବ"
    ],
    [
      "ଗ",
      "ତ"
    ],
    [
      "ୋ",
      "ଟି</w>"
    ],
    [
      "୧",
      "୪</w>"
    ],
    [
      "ବ",
      "ସ୍ତ"
    ],
    [
      "କରାଯାଉ",
      "ଥିବା</w>"
    ],
    [
      "ଥ",
      "୍</w>"
    ],
    [
      "ଟ",
      "୍ୟା"
    ],
    [
      "ଚ",
      "୍‌"
    ],
    [
      "ଦର୍ଶ",
      "ନ</w>"
    ],
    [
      "ଟ୍ର",
      "ି"
    ],
    [
      "ଆରମ୍",
      "ଭ"
    ],
    [
      "୧",
      "୬</w>"
    ],
    [
      "ନି",
      "ର"
    ],
    [
      "ଲା",
      "ଲ</w>"
    ],
    [
      "କାର",
      "ରେ</w>"
    ],
    [
      ".",
      "ରେ</w>"
    ],
    [
      "କୌଶ",
      "ଳ</w>"
    ],
    [
      "ନ",
      "୍ୟ</w>"
    ],
    [
      "ପ୍ରଦ",
      "ାୟ"
    ],
    [
      "ଖୁ",
      "ବ୍</w>"
    ],
    [
      "ରହି",
      "ଥିଲା।</w>"
    ],
    [
      "ଆର",
      "ୋହ"
    ],
    [
      "ଅଭ୍ୟା",
      "ସ</w>"
    ],
    [
      "କରାଯାଇ",
      "ଥାଏ</w>"
    ],
    [
      "ମା",
      "ଣ"
    ],
    [
      "ମସ୍ତି",
      "ଷ୍"
    ],
    [
      "ତାପ",
      "ମାତ୍ରା</w>"
    ],
    [
      "ବ",
      "କ୍"
    ],
    [
      "ୟ",
      "ନ"
    ],
    [
      "ଯୁ",
      "ବ"
    ],
    [
      "ଚତୁ",
      "ର୍ଥ</w>"
    ],
    [
      "ବିବ",
      "ି"
    ],
    [
      "ସ୍ୱା",
      "ଭାବି"
    ],
    [
      "ରା",
      "ଉ"
    ],
    [
      "ପ୍ରସାର",
      "ଣ</w>"
    ],
    [
      "୧",
      "୭</w>"
    ],
    [
      "”",
      "</w>"
    ],
    [
      "ଷ୍ଟ୍ର",
      "ି"
    ],
    [
      "ବେ",
      "ଲ"
    ],
    [
      "ସ୍ୱି",
      "ଡେ"
    ],
    [
      ".ଏସ୍",
      ".</w>"
    ],
    [
      "ଭି",
      "ଟା"
    ],
    [
      "ଦ୍ର",
      "ା"
    ],
    [
      "ସିଂ",
      "ହ</w>"
    ],
    [
      "ାର",
      "ୁ,</w>"
    ],
    [
      "କ",
      "ମି"
    ],
    [
      "ଆଶ",
      "ଙ୍କା</w>"
    ],
    [
      "କ୍ଷୁ",
      "ଦ୍ର</w>"
    ],
    [
      "ସଂଖ",
      "୍ୟା"
    ],
    [
      "ପ୍ର",
      "କୃତ</w>"
    ],
    [
      "ଅଲିମ୍ପ",
      "ିକ୍</w>"
    ],
    [
      "୧",
      "୦୦"
    ],
    [
      "୨୦୧",
      "୫</w>"
    ],
    [
      "କୁହାଯ",
      "ାଏ,</w>"
    ],
    [
      "ଡାକ୍ତ",
      "ରଖ"
    ],
    [
      "ପ୍ର",
      "ତୀ"
    ],
    [
      "ିବ",
      "େ</w>"
    ],
    [
      "କରୁ",
      "ଛନ୍ତି</w>"
    ],
    [
      "ସମ୍ଭାବ",
      "୍ୟ</w>"
    ],
    [
      "ଶତାବ୍",
      "ଦୀ</w>"
    ],
    [
      "ମ୍ବ",
      "ାର</w>"
    ],
    [
      "ସେ",
      "ଥିରେ</w>"
    ],
    [
      "ଉତ୍",
      "ପ"
    ],
    [
      "୧",
      "୮</w>"
    ],
    [
      "ପ୍ରତିନିଧି",
      "ତ୍ୱ</w>"
    ],
    [
      "ଫ୍ର",
      "େ"
    ],
    [
      "ଇ",
      "ଞ୍ଜି"
    ],
    [
      "କାର",
      "ାତ୍ମକ</w>"
    ],
    [
      "ଖ୍ରୀ",
      "ଷ୍ଟି"
    ],
    [
      ".",
      "ଜି"
    ],
    [
      "ସଂକ୍ରମ",
      "ିତ</w>"
    ],
    [
      "ଦେ",
      "ବ</w>"
    ],
    [
      "ଗ",
      "ୌ"
    ],
    [
      "ଆ",
      "ଦି</w>"
    ],
    [
      "ଲା",
      "ଣ୍ଡ"
    ],
    [
      "ୟ",
      "ୋ"
    ],
    [
      "ଡ",
      "ାଇ"
    ],
    [
      "ଶ୍ର",
      "ୀ</w>"
    ],
    [
      "ନାମ",
      "ିତ</w>"
    ],
    [
      ".ଏ",
      "ଫ୍‌"
    ],
    [
      "ପ୍ରଶ",
      "ଂସା</w>"
    ],
    [
      "୨୦୦",
      "୭</w>"
    ],
    [
      "ଦ",
      "ନ୍ତ"
    ],
    [
      "ସଂ",
      "ସ୍ଥା</w>"
    ],
    [
      "ଜ୍ଞ",
      "</w>"
    ],
    [
      "ଧ",
      "ନ</w>"
    ],
    [
      "ଚା",
      "ଷ</w>"
    ],
    [
      "ଦିଅ",
      "ନ୍ତି</w>"
    ],
    [
      "ଶାସ୍ତ୍ର",
      "ୀୟ</w>"
    ],
    [
      "ବ୍",
      "ଲା"
    ],
    [
      "ା",
      "ଳ"
    ],
    [
      "ଅନୁସ",
      "ନ୍ଧ"
    ],
    [
      "ହ୍ର",
      "ଦ</w>"
    ],
    [
      "ମ",
      "ାରେ</w>"
    ],
    [
      "ମ୍",
      "ଭ</w>"
    ],
    [
      "ସମୁ",
      "ଦ୍ର</w>"
    ],
    [
      "ଭାବ",
      "େ,</w>"
    ],
    [
      "ଗୁଡ଼",
      "ି"
    ],
    [
      "ଇଣ୍ଡି",
      "ଆ</w>"
    ],
    [
      "ଆ",
      "ଗକୁ</w>"
    ],
    [
      "ଏ",
      "ପରିକି</w>"
    ],
    [
      "ଲି",
      "ଉ"
    ],
    [
      "ବଂଶ",
      "ର</w>"
    ],
    [
      "ଆ",
      "ଜ"
    ],
    [
      "ବିଶ",
      "ାଳ</w>"
    ],
    [
      "ଚି",
      "ତ୍ର</w>"
    ],
    [
      "ତାଲ",
      "ିକା</w>"
    ],
    [
      "ଦେବ",
      "ୀ</w>"
    ],
    [
      "ବସ୍ତ",
      "ୁ</w>"
    ],
    [
      "ଷ୍ଟା",
      "ଡିୟ"
    ],
    [
      "ଆ",
      "ସୋ"
    ],
    [
      "ବ୍ୟ",
      "ତୀତ</w>"
    ],
    [
      "ପରି",
      "ଷ"
    ],
    [
      "୫",
      "୦"
    ],
    [
      "ଇ",
      "ସଲା"
    ],
    [
      "ଘ",
      "ରକୁ</w>"
    ],
    [
      "୪",
      "୦</w>"
    ],
    [
      "ହ",
      "ିତ</w>"
    ],
    [
      "ଠ",
      "ୁ</w>"
    ],
    [
      "ଗ",
      "ାନ</w>"
    ],
    [
      "ଫ",
      "୍ରା"
    ],
    [
      "ୟ",
      "େ"
    ],
    [
      "୍ୟାଳ",
      "ୟ</w>"
    ],
    [
      "ଲ୍",
      ",</w>"
    ],
    [
      "ଏ",
      "ଡ୍</w>"
    ],
    [
      "ଭ",
      "ବିଷ"
    ],
    [
      "ଅ",
      "ଶୋ"
    ],
    [
      "ବି",
      "ଳମ୍ବ"
    ],
    [
      "ଭ",
      "ି</w>"
    ],
    [
      "କରାଯ",
      "ିବା</w>"
    ],
    [
      "ର",
      "ଞ୍ଜ"
    ],
    [
      "ମନୋନ",
      "ୀତ</w>"
    ],
    [
      "ସଫଳ",
      "ତା</w>"
    ],
    [
      "ଭବିଷ",
      "୍ୟ"
    ],
    [
      "ସୁ",
      "ନିଶ୍ଚିତ</w>"
    ],
    [
      "ଖୁ",
      "ବ୍‌</w>"
    ],
    [
      "ଗ",
      "ଡ଼"
    ],
    [
      "ଡ",
      "ା</w>"
    ],
    [
      "ଭ",
      "ଣ୍ଡ"
    ],
    [
      ".",
      "କେ"
    ],
    [
      "ବିସ୍ତ",
      "ାର</w>"
    ],
    [
      "ଂ",
      "ସ</w>"
    ],
    [
      "ଉ",
      "ଚିତ</w>"
    ],
    [
      "ମା",
      "ଞ୍ଚ"
    ],
    [
      "ପକ୍ଷ",
      "</w>"
    ],
    [
      "ମ୍ୟାନ",
      "େ"
    ],
    [
      "ଟ",
      "୍ୟୁ"
    ],
    [
      "ଏ",
      "ସ୍"
    ],
    [
      "ବି",
      "ପଦ</w>"
    ],
    [
      "ଯୋଗ",
      "ାଯ"
    ],
    [
      "ଦୂ",
      "ର</w>"
    ],
    [
      "୨",
      "ଟି</w>"
    ],
    [
      "କ୍ଷେତ୍ର",
      "ରେ,</w>"
    ],
    [
      "ପା",
      "ଠ"
    ],
    [
      "ଭି",
      "ନ୍ନ"
    ],
    [
      "ଜି",
      "ତ"
    ],
    [
      ".ଆଇ",
      ".</w>"
    ],
    [
      "ଳ",
      "ତା</w>"
    ],
    [
      "କରି",
      "ଥାଏ,</w>"
    ],
    [
      "ୱ",
      "ାର"
    ],
    [
      "ଭ",
      "ଲ"
    ],
    [
      "ଧ",
      "ାରା</w>"
    ],
    [
      "ଆ",
      "ନ୍ଦୋ"
    ],
    [
      "ରା",
      "ଲ</w>"
    ],
    [
      "ଢ଼",
      "</w>"
    ],
    [
      "ପାର",
      "ନ୍ତି।</w>"
    ],
    [
      "ସ",
      "ତ"
    ],
    [
      "ଧର୍",
      "ମର</w>"
    ],
    [
      "ଗୁ",
      "ଣ"
    ],
    [
      "ଜ",
      "ଟି"
    ],
    [
      "ଚ",
      "କ୍ର"
    ],
    [
      "ଆସୋ",
      "ସି"
    ],
    [
      "କାର୍",
      "ଡ</w>"
    ],
    [
      "ାର",
      "ିକ</w>"
    ],
    [
      "ପାର୍ଶ୍ୱ",
      "ରେ</w>"
    ],
    [
      "ଉଲ୍ଲେଖ",
      "ନୀୟ</w>"
    ],
    [
      "ପ୍ରୋ",
      "ତ୍"
    ],
    [
      "ପରି",
      "ସ୍ଥି"
    ],
    [
      "ତ୍",
      "କାର</w>"
    ],
    [
      "ଶାସ",
      "କ</w>"
    ],
    [
      "ଅବ",
      "ସର</w>"
    ],
    [
      "ଘଟ",
      "ଣ"
    ],
    [
      "୧",
      "୩</w>"
    ],
    [
      "ଟି",
      "ନ୍</w>"
    ],
    [
      "ଅତି",
      "କ୍ରମ</w>"
    ],
    [
      "ବହୁ",
      "ଳ</w>"
    ],
    [
      "ଙ୍ଗ",
      "୍"
    ],
    [
      "ଆ",
      "ଲୋଚନା</w>"
    ],
    [
      "ଭ",
      "ଉ"
    ],
    [
      "କ",
      "ମ"
    ],
    [
      "୍ୟ",
      "ର</w>"
    ],
    [
      "ହୁଏ",
      "ତ</w>"
    ],
    [
      "କ",
      "ମାନଙ୍କୁ</w>"
    ],
    [
      "ଚ",
      "ନ</w>"
    ],
    [
      "ଝି",
      "ଅ</w>"
    ],
    [
      "କେଉ",
      "ଁ</w>"
    ],
    [
      "ପରିବର୍ତ୍ତ",
      "େ</w>"
    ],
    [
      "ସ",
      "କ୍ରିୟ</w>"
    ],
    [
      "ଭ",
      "ୋଜ"
    ],
    [
      "ନ",
      "ାହା"
    ],
    [
      "ଙ୍ଗ",
      "୍‌"
    ],
    [
      "ରାଜ",
      "ା"
    ],
    [
      "ବେଳ",
      "କୁ</w>"
    ],
    [
      "ପରିବାର",
      "ର</w>"
    ],
    [
      "ପ",
      "ି,</w>"
    ],
    [
      "ଶ",
      "ାରୀ"
    ],
    [
      "ସ",
      "ଙ୍କ</w>"
    ],
    [
      "ନ",
      "ଥିଲା</w>"
    ],
    [
      "ଙ୍ଗ",
      "୍</w>"
    ],
    [
      "କରି",
      "ପାରେ</w>"
    ],
    [
      "କର",
      "ନ୍ତୁ,</w>"
    ],
    [
      "ଶି",
      "ଳ୍ପ</w>"
    ],
    [
      "ଷ",
      "ିତ</w>"
    ],
    [
      ".ଏ",
      "ନ୍"
    ],
    [
      "ନେତୃ",
      "ତ୍ୱ</w>"
    ],
    [
      "ଚ",
      "ୟ</w>"
    ],
    [
      "ବାର",
      "ମ୍ବାର</w>"
    ],
    [
      "ଉପ",
      "କରଣ</w>"
    ],
    [
      "ାହ",
      "ୋ"
    ],
    [
      "ତାହ",
      "ାକୁ</w>"
    ],
    [
      "ପି",
      "ତା"
    ],
    [
      "ତାମିଲନା",
      "ଡ଼"
    ],
    [
      "ଟାଇ",
      "ଟ"
    ],
    [
      "ଗୁ",
      "ଡ"
    ],
    [
      "ସି",
      "ଟି</w>"
    ],
    [
      "ିକ୍",
      "ସରେ</w>"
    ],
    [
      "ଗ୍ରୀଷ୍",
      "ମ</w>"
    ],
    [
      "ଜୀ",
      "ବା"
    ],
    [
      "କାଉଣ୍ଟି",
      "ର</w>"
    ],
    [
      "ସମ",
      "ୂ"
    ],
    [
      "ଏ",
      "ୟାର"
    ],
    [
      "ନ",
      "ଗ"
    ],
    [
      "ପଛ",
      "ରେ</w>"
    ],
    [
      "ଟିକ",
      "ସ</w>"
    ],
    [
      "ଏକା",
      "ଧିକ</w>"
    ],
    [
      "ପରା",
      "ମ"
    ],
    [
      "ପରାମ",
      "ର୍ଶ"
    ],
    [
      "ବି",
      "କ</w>"
    ],
    [
      "ଞ୍ଜ",
      "େ"
    ],
    [
      "ସଂ",
      "ସ୍ଥ"
    ],
    [
      "ରୋ",
      "</w>"
    ],
    [
      "ଟୁର୍ଣ୍ଣା",
      "ମେଣ୍ଟ"
    ],
    [
      "ମ",
      "ତେ</w>"
    ],
    [
      "ଲ୍",
      "ଡ"
    ],
    [
      "ଇ",
      "ଭେ"
    ],
    [
      "ଜିତି",
      "ଥିଲେ</w>"
    ],
    [
      "ତ",
      "ିକ"
    ],
    [
      "ନ",
      "ାର"
    ],
    [
      "ସଂସ୍",
      "କୃ"
    ],
    [
      "ଦିଆଯାଇ",
      "ଥିଲା</w>"
    ],
    [
      "ମି",
      "ଶି"
    ],
    [
      "ଅନ",
      "୍"
    ],
    [
      "ଆବଶ୍ୟକ",
      "।</w>"
    ],
    [
      "ଅଟ",
      "ନ୍ତି</w>"
    ],
    [
      "କି",
      "ଂ</w>"
    ],
    [
      "ପ୍ର",
      "ସଙ୍ଗ"
    ],
    [
      "ପ୍ରାଥ",
      "ମିକ</w>"
    ],
    [
      "କହି",
      "ଲେ</w>"
    ],
    [
      "ପ",
      "ାନ"
    ],
    [
      "ବାଧ",
      "୍ୟ</w>"
    ],
    [
      "ଚାର",
      "ୋଟି</w>"
    ],
    [
      "ବ",
      "ରେ</w>"
    ],
    [
      "ପ୍ର",
      "ବଳ</w>"
    ],
    [
      "ଚା",
      "ପ</w>"
    ],
    [
      "ଆ",
      "ଲେ"
    ],
    [
      "ପୁ",
      "ଞ୍ଜ"
    ],
    [
      "ୁ",
      "।</w>"
    ],
    [
      "ଇଂରାଜ",
      "ୀ</w>"
    ],
    [
      "ଦେଖ",
      "ିବା</w>"
    ],
    [
      "ଖେଳାଳି",
      "ଙ୍କ</w>"
    ],
    [
      "ମା",
      "ଂସ"
    ],
    [
      ".ଏ",
      "ମ୍"
    ],
    [
      "କରି",
      "ପାରେ।</w>"
    ],
    [
      "ଇ",
      "ଲି"
    ],
    [
      "ଲୋ",
      "ଚ"
    ],
    [
      "୧୯୮",
      "୦</w>"
    ],
    [
      "ପି",
      "ତା</w>"
    ],
    [
      "କି",
      "ମ୍ବ"
    ],
    [
      "ଗ୍ରା",
      "ମ"
    ],
    [
      "ଚ",
      "୍ୟୁ"
    ],
    [
      "ଯୋଗ",
      "ା"
    ],
    [
      "ଯାଉ",
      "ଥିବା</w>"
    ],
    [
      "କହି",
      "ଛନ୍ତି</w>"
    ],
    [
      "କରିବ",
      "େ।</w>"
    ],
    [
      "ଆଇ",
      "ନ"
    ],
    [
      "ପର୍ବ",
      "ତ"
    ],
    [
      "ମା",
      "ଉ"
    ],
    [
      "ଣ୍ଡ୍ର",
      "ୋ"
    ],
    [
      "ଅ",
      "ଗ୍"
    ],
    [
      "ଚରି",
      "ତ୍ର"
    ],
    [
      "ଟେଲିଭି",
      "ଜନ</w>"
    ],
    [
      "ଯୋଗ",
      "ୀ</w>"
    ],
    [
      "ମ",
      "ୀର</w>"
    ],
    [
      "ଶାରୀ",
      "ରିକ</w>"
    ],
    [
      "ର",
      "ୀର</w>"
    ],
    [
      "ପୁନ",
      "ର୍ବ"
    ],
    [
      "ନି",
      "ଷ"
    ],
    [
      "ମାନ",
      "ବ</w>"
    ],
    [
      "ଋତୁ",
      "ରେ</w>"
    ],
    [
      "ଶୀ",
      "ର୍ଷ"
    ],
    [
      "ମଧ୍ୟ",
      ",</w>"
    ],
    [
      "ବାହି",
      "ନୀ</w>"
    ],
    [
      "କରିବ",
      "</w>"
    ],
    [
      "ସଫ୍",
      "ଟ"
    ],
    [
      "ରା",
      "ଞ୍ଚ"
    ],
    [
      "ବ୍ୟା",
      "ଙ୍କ"
    ],
    [
      "ଉପା",
      "ୟ</w>"
    ],
    [
      "ପ୍ରା",
      "ଣୀ</w>"
    ],
    [
      "ଲ",
      "ୁ</w>"
    ],
    [
      "ରି",
      "ପୋର୍ଟ</w>"
    ],
    [
      "ଭିଟା",
      "ମିନ୍</w>"
    ],
    [
      "'",
      "ଆ"
    ],
    [
      "ବି",
      "ନ୍ଦ"
    ],
    [
      "ମ",
      "ନା</w>"
    ],
    [
      "ନୋ",
      "</w>"
    ],
    [
      "ରହି",
      "ଥିଲା</w>"
    ],
    [
      "ଶ",
      "ିକାର</w>"
    ],
    [
      "ପାଇ",
      "ଥିଲା।</w>"
    ],
    [
      "ଖ",
      "ଣ୍ଡ</w>"
    ],
    [
      "ତ୍",
      "ନ"
    ],
    [
      "ଧ",
      "ୂ"
    ],
    [
      "ହେ",
      "ଇ"
    ],
    [
      "ଫ",
      "ରା"
    ],
    [
      "୩",
      "୦"
    ],
    [
      "ଆ",
      "କ୍ରା"
    ],
    [
      "ଅ",
      "ସୁ"
    ],
    [
      "ପ୍ରକାଶ",
      "ିତ</w>"
    ],
    [
      "ସ",
      "ଳ"
    ],
    [
      "ବିଷ",
      "ୟ</w>"
    ],
    [
      "ଇ",
      "ଣ୍ଡୋ"
    ],
    [
      "ଶୀ",
      "ତ"
    ],
    [
      "ସମ",
      "ାର"
    ],
    [
      "ଇ",
      "ର"
    ],
    [
      ")",
      "।</w>"
    ],
    [
      "ବ୍",
      "ରାଜି"
    ],
    [
      "ଲ",
      "ମ୍ବା</w>"
    ],
    [
      "ଅ",
      "ଙ୍ଗ"
    ],
    [
      "ସଙ୍ଗୀ",
      "ତ"
    ],
    [
      "ସ୍ୱୀ",
      "କାର</w>"
    ],
    [
      "ଦ",
      "ରେ</w>"
    ],
    [
      ".ଏ",
      "ସ"
    ],
    [
      "ବିଦ୍ୟାଳ",
      "ୟ</w>"
    ],
    [
      "ପ୍ର",
      "ଶ୍"
    ],
    [
      "ସ୍କୁ",
      "ଲ</w>"
    ],
    [
      "ସି",
      "ଧା"
    ],
    [
      "କରୁ",
      "ଛନ୍ତି।</w>"
    ],
    [
      "ବ୍ୟାପ",
      "ୀ</w>"
    ],
    [
      "ସାଇ",
      "କେ"
    ],
    [
      "ନ୍ୟ",
      "ୁ</w>"
    ],
    [
      "ସମ୍ମ",
      "ାନ</w>"
    ],
    [
      "ଲକ୍ଷ",
      "୍"
    ],
    [
      "ର",
      "ଙ୍କୁ</w>"
    ],
    [
      "ଦ",
      "ାର"
    ],
    [
      "ଅନୁ",
      "ରୋଧ</w>"
    ],
    [
      "ନିର୍ଦ୍ଧାର",
      "ିତ</w>"
    ],
    [
      "ପ",
      "ଚାର"
    ],
    [
      "ବ୍ୟା",
      "ବ"
    ],
    [
      "ସି",
      "ନ୍ଧ"
    ],
    [
      "ଭ",
      "୍ୟ"
    ],
    [
      "କ",
      "ତା</w>"
    ],
    [
      "ହେ",
      "ଲା।</w>"
    ],
    [
      "ଋ",
      "ତୁ</w>"
    ],
    [
      "ଅ",
      "ଟି</w>"
    ],
    [
      "କାଲି",
      "ଫ"
    ],
    [
      "କାଲିଫ",
      "ର୍ଣ୍ଣି"
    ],
    [
      "ହୋଇ",
      "ପାରେ,</w>"
    ],
    [
      ".",
      "ଆର୍‌"
    ],
    [
      "ରଙ୍ଗ",
      "ର</w>"
    ],
    [
      "କଲେ",
      "ଜ</w>"
    ],
    [
      "ଲି",
      "ମ</w>"
    ],
    [
      "ଲା",
      "ଣ୍ଡର</w>"
    ],
    [
      "ଅବ",
      "ଶି"
    ],
    [
      "ନିର୍ଦ୍ଦେଶ",
      "ନା</w>"
    ],
    [
      "ଆ",
      "ଚ"
    ],
    [
      "କାଉଣ୍ଟ",
      "ି</w>"
    ],
    [
      "କର",
      "ଣ"
    ],
    [
      "ମ",
      "ନେ"
    ],
    [
      "ାନ",
      "ଙ୍କ</w>"
    ],
    [
      "ବିଶ",
      "୍ଵ"
    ],
    [
      "ପୁସ୍ତ",
      "କ</w>"
    ],
    [
      "ଦ",
      "ଣ୍ଡ</w>"
    ],
    [
      "ଆ",
      "ନ୍ତି</w>"
    ],
    [
      "ଜୀବ",
      "ନ"
    ],
    [
      "ଘଟ",
      "ଣା"
    ],
    [
      "ଭ",
      "ା</w>"
    ],
    [
      "ଫ",
      "ଳା"
    ],
    [
      "ହଳ",
      "ଦିଆ</w>"
    ],
    [
      "ସେ",
      "ଗୁଡ଼ିକୁ</w>"
    ],
    [
      "ଆଡ଼",
      "କୁ</w>"
    ],
    [
      "ବ୍ର",
      "ହ୍"
    ],
    [
      "ମୌ",
      "ଳିକ</w>"
    ],
    [
      "ମାନ",
      "୍ୟତା</w>"
    ],
    [
      "ସ୍",
      "ମାର"
    ],
    [
      "ଖେ",
      "ଳର</w>"
    ],
    [
      "ସର୍ବ",
      "ଦା</w>"
    ],
    [
      "ମ୍",
      ",</w>"
    ],
    [
      "ବାର୍",
      "ତ୍ତା</w>"
    ],
    [
      "କରି",
      "ଥାନ୍ତି</w>"
    ],
    [
      "ଆ",
      "ତ୍"
    ],
    [
      "ସଂସ୍",
      "କରଣ</w>"
    ],
    [
      "ର",
      "ନ୍</w>"
    ],
    [
      "କ",
      "ଠି"
    ],
    [
      "ଗୁ",
      "ପ୍ତ</w>"
    ],
    [
      "ପ",
      "ଶୁ"
    ],
    [
      "ର",
      "ରୁ</w>"
    ],
    [
      "ବିଜ",
      "ୟୀ</w>"
    ],
    [
      "ସ",
      "ନ୍ତୁ"
    ],
    [
      "ସଳ",
      "ଖ</w>"
    ],
    [
      "୨",
      "୪</w>"
    ],
    [
      "ପ",
      "ଇ"
    ],
    [
      "ସଫ୍ଟ",
      "ୱେ"
    ],
    [
      "ପ୍ର",
      "ୟ"
    ],
    [
      "ହୋଇ",
      "ଛି,</w>"
    ],
    [
      "ସମ୍",
      "ପ୍ର"
    ],
    [
      "ଆ",
      "ବିଷ୍"
    ],
    [
      "ଉଦ୍",
      "ଭି"
    ],
    [
      "ଥିଲ",
      "ି।</w>"
    ],
    [
      "ପ୍ରସ୍ତା",
      "ବ</w>"
    ],
    [
      "ମ",
      "ଣ</w>"
    ],
    [
      "ପ",
      "ତି"
    ],
    [
      "ବର୍",
      "ଗ"
    ],
    [
      "ସ୍ୱ",
      "</w>"
    ],
    [
      "ଆଧାର",
      "ରେ</w>"
    ],
    [
      "ନ",
      "ଥିଲେ।</w>"
    ],
    [
      "ଟ୍‌",
      "ର</w>"
    ],
    [
      "ର",
      "େ।</w>"
    ],
    [
      "ସମୀ",
      "କ୍ଷା</w>"
    ],
    [
      "ପ୍ର",
      "କ୍ରିୟା</w>"
    ],
    [
      "ଭି",
      "ଡିଓ</w>"
    ],
    [
      "୨",
      "୫"
    ],
    [
      "ରା",
      "ତିରେ</w>"
    ],
    [
      "କ୍",
      "‍‌"
    ],
    [
      "ଜାଣ",
      "ିବାକୁ</w>"
    ],
    [
      "ବଜା",
      "ୟ</w>"
    ],
    [
      "ଆ",
      "ମ୍ବ"
    ],
    [
      "ମରା",
      "ଠା</w>"
    ],
    [
      "ଥ",
      "ି</w>"
    ],
    [
      "ମୂ",
      "ର୍ତ୍ତି</w>"
    ],
    [
      "ରା",
      "ସ୍ତା</w>"
    ],
    [
      "ଏ",
      "ନ୍"
    ],
    [
      "ହରାଇ",
      "ଥିଲେ</w>"
    ],
    [
      "ନିମ୍",
      "ନ"
    ],
    [
      "ସହ",
      "ଜ</w>"
    ],
    [
      "ରୁ",
      "ଷ"
    ],
    [
      "ଅସ୍ତ୍ର",
      "ୋପ"
    ],
    [
      "ତ୍ୱ",
      "ରେ</w>"
    ],
    [
      "ଦି",
      "ନର</w>"
    ],
    [
      "ସା",
      "ଗ"
    ],
    [
      "ଧାର",
      "ଣା</w>"
    ],
    [
      "ସାଂ",
      "ସ୍"
    ],
    [
      "ମନ",
      "େ</w>"
    ],
    [
      "ନିଆ",
      "ଯାଇ"
    ],
    [
      "କାର୍",
      "ଯ"
    ],
    [
      "ର",
      "ଚ"
    ],
    [
      "ଆନ",
      "ନ୍ଦ</w>"
    ],
    [
      "ପୁନର୍ବ",
      "ାର</w>"
    ],
    [
      "କଳା",
      "କାର"
    ],
    [
      "ବିଶ୍ୱବିଦ୍ୟାଳ",
      "ୟ</w>"
    ],
    [
      "ନ",
      "ଥିବା</w>"
    ],
    [
      "ଉତ୍",
      "ସ</w>"
    ],
    [
      "ହ",
      "ସ୍ତ"
    ],
    [
      "ଉପ",
      "ଯୁକ୍ତ</w>"
    ],
    [
      "ସମ୍ପ",
      "ୃ"
    ],
    [
      "ଚା",
      "ଲୁ"
    ],
    [
      "କ",
      "ମ୍‌</w>"
    ],
    [
      "ଅର୍",
      "ଥା"
    ],
    [
      "ସ୍",
      "କି"
    ],
    [
      "କରାଯାଇ",
      "ପାରିବ।</w>"
    ],
    [
      "ଜୀବ",
      "ନର</w>"
    ],
    [
      "ବି",
      "ପଦ"
    ],
    [
      "ଗିର",
      "ଫ</w>"
    ],
    [
      "ମହ",
      "ମ୍ମ"
    ],
    [
      "ଉପ",
      "ହାର</w>"
    ],
    [
      "କାର୍ଯ୍ୟ",
      "କାରୀ</w>"
    ],
    [
      "ମାନ",
      "ସିକ</w>"
    ],
    [
      "କ",
      "ାହ"
    ],
    [
      "ଛ",
      "ଅ</w>"
    ],
    [
      "ଖୋ",
      "ଲ"
    ],
    [
      "ୱ",
      "େ</w>"
    ],
    [
      "ଗୋ",
      "ଲ"
    ],
    [
      "ଖେଳାଳି",
      "ମାନେ</w>"
    ],
    [
      "ରୋଗ",
      "ର</w>"
    ],
    [
      "ଅବ",
      "ସ୍ଥା</w>"
    ],
    [
      "ନି",
      "ର୍ବ"
    ],
    [
      "ପ",
      "ଦ୍"
    ],
    [
      "କର",
      "ାଗ"
    ],
    [
      "ସ୍ୱାଭାବି",
      "କ</w>"
    ],
    [
      "ଅଭ",
      "ିବ"
    ],
    [
      "ଅନ୍ୟ",
      "ତ"
    ],
    [
      "ପରି",
      "ସ୍ଥିତି</w>"
    ],
    [
      "ଫ୍ର",
      "ି"
    ],
    [
      "ପ୍",
      "ତ"
    ],
    [
      "ସିଧା",
      "ସଳଖ</w>"
    ],
    [
      "ମୁଦ୍ର",
      "ା</w>"
    ],
    [
      "୨୦୦",
      "୬</w>"
    ],
    [
      "ବା",
      "ସି"
    ],
    [
      "ଶି",
      "ଷ୍ଟ"
    ],
    [
      "୬",
      "୦</w>"
    ],
    [
      "କରୁ",
      "ଛନ୍ତି,</w>"
    ],
    [
      "କ",
      "େ</w>"
    ],
    [
      "ସମ୍",
      "ପ୍ରଦାୟ"
    ],
    [
      "ସମ୍ରା",
      "ଟ</w>"
    ],
    [
      "କ",
      "ାନ୍"
    ],
    [
      "ଦି",
      "ନରେ</w>"
    ],
    [
      "ବି",
      "କାଶ"
    ],
    [
      "ମ",
      "ତ"
    ],
    [
      "ମ",
      "ଙ୍କ</w>"
    ],
    [
      "ଖ",
      "ବର</w>"
    ],
    [
      "ମହାରା",
      "ଷ୍ଟ୍ର"
    ],
    [
      "ପ୍ରତିଷ୍ଠ",
      "ିତ</w>"
    ],
    [
      "ମାନ",
      "୍ୟ</w>"
    ],
    [
      "ସଂ",
      "ଯୋଗ</w>"
    ],
    [
      "ାଯ",
      "ାଏ।</w>"
    ],
    [
      "ଡି",
      "ଓ"
    ],
    [
      "ସାଂସ୍",
      "କୃତିକ</w>"
    ],
    [
      "ସତ୍ତ୍ୱ",
      "େ,</w>"
    ],
    [
      "ବି",
      "ତ</w>"
    ],
    [
      "କ",
      "ବି"
    ],
    [
      "ପାର",
      "ା"
    ],
    [
      "ଦିଅ",
      "ନ୍ତି।</w>"
    ],
    [
      "ା",
      "ସ"
    ],
    [
      "ଅର୍",
      "ଜନ</w>"
    ],
    [
      "ବୈ",
      "ଦ"
    ],
    [
      "ଭୂମି",
      "ରେ</w>"
    ],
    [
      "କ୍",
      "ଲା"
    ],
    [
      "ଫେ",
      "ଡେ"
    ],
    [
      "କୋ",
      "ଡ୍</w>"
    ],
    [
      "କିମ୍ବ",
      "ଦନ୍ତ"
    ],
    [
      "ଲି",
      "ଂ</w>"
    ],
    [
      "ତଥା",
      "ପି,</w>"
    ],
    [
      "ପ",
      "୍‌</w>"
    ],
    [
      "ଛା",
      "ଡ଼ି</w>"
    ],
    [
      "ଭଗ",
      "ବାନ</w>"
    ],
    [
      "ଣ୍ଟ",
      "୍ର"
    ],
    [
      "ବି",
      "ଭାଗ</w>"
    ],
    [
      "ସି",
      "ୟ"
    ],
    [
      "ଭି",
      "ଏ"
    ],
    [
      "ନେଟ",
      "ୱାର୍"
    ],
    [
      "କି",
      "ଣି"
    ],
    [
      "ଦ",
      "ଖଲ</w>"
    ],
    [
      "ବିଶ୍ୱ",
      "ରେ</w>"
    ],
    [
      "ପ",
      "ରାଜ"
    ],
    [
      "ଗ",
      "ଡ଼</w>"
    ],
    [
      "ଗ",
      "ଲା।</w>"
    ],
    [
      "ଦୁର୍ବ",
      "ଳ</w>"
    ],
    [
      "ଭ",
      "ୌ"
    ],
    [
      "ଚ",
      "ାହା"
    ],
    [
      "ଷ୍ଟେ",
      "ସନ</w>"
    ],
    [
      ".ଡି",
      ".</w>"
    ],
    [
      "ଆହ",
      "ତ</w>"
    ],
    [
      "ନା",
      "ଥ"
    ],
    [
      "ଗ",
      "ଲା</w>"
    ],
    [
      "ବିରୋଧ",
      "ରେ</w>"
    ],
    [
      "ଶୋ",
      "ଧ</w>"
    ],
    [
      "ା",
      "।</w>"
    ],
    [
      "ଦା",
      "ସ"
    ],
    [
      "ଗୁରୁତ୍ୱ",
      "</w>"
    ],
    [
      "ଶ୍",
      "ଵ"
    ],
    [
      "ଉଦ୍ଦ",
      "େଶ"
    ],
    [
      "ଉଦ୍ଦେଶ",
      "୍ୟ</w>"
    ],
    [
      "ପୂ",
      "ର୍ଣ୍ଣ"
    ],
    [
      "ଜଣାପ",
      "ଡ଼ି"
    ],
    [
      "ସମା",
      "ଧାନ</w>"
    ],
    [
      "ବନ",
      "୍ୟା</w>"
    ],
    [
      "୧୯",
      "୦"
    ],
    [
      "ଦେ",
      "ୟ</w>"
    ],
    [
      "ରୋ",
      "କ"
    ],
    [
      "ଉଚ୍ଚ",
      "ତା</w>"
    ],
    [
      "ଜାପ",
      "ାନ</w>"
    ],
    [
      "ତା",
      "ଲିକ"
    ],
    [
      "ଟି",
      "ସ୍</w>"
    ],
    [
      "ପ୍ରାର୍ଥ",
      "ନା</w>"
    ],
    [
      "ଖ",
      "୍ୟା"
    ],
    [
      "ପାଇ",
      "ଥିଲେ।</w>"
    ],
    [
      "ପଠ",
      "ାଇ"
    ],
    [
      "କାରଣ",
      "ରୁ,</w>"
    ],
    [
      "୨",
      "ୟ</w>"
    ],
    [
      "ବ",
      "ଳୀ</w>"
    ],
    [
      "ଚା",
      "କି"
    ],
    [
      "ଇ",
      "ନ୍‌"
    ],
    [
      "ଳ",
      "ି,</w>"
    ],
    [
      "ସହ",
      "ଜରେ</w>"
    ],
    [
      "ସି",
      "ଦ୍ଧ"
    ],
    [
      "ମାଂସ",
      "ପେ"
    ],
    [
      "ବୈ",
      "ଶିଷ୍ଟ"
    ],
    [
      "ମିନି",
      "ଟ୍</w>"
    ],
    [
      "ଚ",
      "ଳ</w>"
    ],
    [
      "ସମ୍ମ",
      "ି"
    ],
    [
      "ସ",
      "ଭା"
    ],
    [
      "ଉ",
      "ନ୍"
    ],
    [
      "ପୁ",
      "ରୀ</w>"
    ],
    [
      "ସ୍ତ",
      "ର"
    ],
    [
      "ଶୁ",
      "ଣ"
    ],
    [
      "ପଶ୍ଚି",
      "ମ"
    ],
    [
      "କେର",
      "ଳ</w>"
    ],
    [
      "ଲ",
      "ାର"
    ],
    [
      "ଟ୍",
      "‍‌"
    ],
    [
      "ବନ୍ଧ",
      "ୁ</w>"
    ],
    [
      "ବିଦ୍ର",
      "ୋହ"
    ],
    [
      "ଉପର",
      "କୁ</w>"
    ],
    [
      "୍ୟ",
      ",</w>"
    ],
    [
      "ମହିଳା",
      "ଙ୍କ</w>"
    ],
    [
      "ସ୍",
      "'</w>"
    ],
    [
      "ମ",
      "ସ"
    ],
    [
      "ସଙ୍କ",
      "େତ</w>"
    ],
    [
      "ଉତ୍ପ",
      "ନ୍ନ</w>"
    ],
    [
      "ଦିବ",
      "ସ</w>"
    ],
    [
      "କ",
      "।</w>"
    ],
    [
      "ଡ",
      "େ</w>"
    ],
    [
      "ଅଂଶ",
      "ବିଶେଷ</w>"
    ],
    [
      "୧",
      "."
    ],
    [
      "କ୍",
      "ଟର</w>"
    ],
    [
      "ଲାଇ",
      "ନ୍</w>"
    ],
    [
      "ର",
      "ଣୀ</w>"
    ],
    [
      "ଜ",
      "ମି"
    ],
    [
      "ଉପ",
      "ଯୋଗ</w>"
    ],
    [
      "’",
      "ର</w>"
    ],
    [
      "ଶ",
      "ି</w>"
    ],
    [
      "ଝ",
      "ା"
    ],
    [
      "ଗ",
      "ାଇ"
    ],
    [
      "କ୍ଷ",
      "ର</w>"
    ],
    [
      "୨୦୦",
      "୯</w>"
    ],
    [
      "ବ୍ୟବହ",
      "ାର"
    ],
    [
      "ହୁଅ",
      "ନ୍ତି</w>"
    ],
    [
      "ଆ",
      "କାଉଣ୍ଟ"
    ],
    [
      "ଅ",
      "ମ"
    ],
    [
      "ପୁନ",
      "ରୁ"
    ],
    [
      "ହୁଅ",
      "ନ୍ତି।</w>"
    ],
    [
      "ଯୋ",
      "ଦ୍ଧ"
    ],
    [
      "ନେ",
      "ତା</w>"
    ],
    [
      "ନି",
      "ଯୁକ୍ତି</w>"
    ],
    [
      "ସଂଖ୍ୟ",
      "ାର</w>"
    ],
    [
      "ଯ",
      "ାଏ।</w>"
    ],
    [
      "ବି",
      "ଜେ"
    ],
    [
      "ବୈ",
      "ଜ୍ଞ"
    ],
    [
      "ପିତା",
      "ମା"
    ],
    [
      "ସେ",
      "ହି"
    ],
    [
      "ନିକଟ",
      "ବର୍ତ୍ତୀ</w>"
    ],
    [
      "ଛ",
      "ା</w>"
    ],
    [
      "ପରୀ",
      "କ୍ଷ"
    ],
    [
      "ୱ",
      "ାଇ"
    ],
    [
      "ସୁ",
      "ନ୍ଦର</w>"
    ],
    [
      "ଦ୍ଦ",
      "ି"
    ],
    [
      "ବିବ",
      "ରଣୀ</w>"
    ],
    [
      "ହ",
      "ୀନ</w>"
    ],
    [
      "ପ୍ରତିଯୋଗି",
      "ତାରେ</w>"
    ],
    [
      "ଜା",
      "ତି</w>"
    ],
    [
      "ଇତିହା",
      "ସ</w>"
    ],
    [
      "ପ୍ରାରମ୍ଭ",
      "ରେ</w>"
    ],
    [
      "ବିଜ୍ଞ",
      "ାନ</w>"
    ],
    [
      "ଚେ",
      "ନ୍ନ"
    ],
    [
      "ହ",
      "୍ୟା"
    ],
    [
      "ଲକ୍ଷ",
      "ଣ"
    ],
    [
      "ଲ",
      "ସ୍</w>"
    ],
    [
      "କି",
      "ଣା"
    ],
    [
      "ଖ",
      "ାଇ"
    ],
    [
      "ନି",
      "ୟୁ"
    ],
    [
      "ଶୃ",
      "ଙ୍ଖ"
    ],
    [
      "ସଂ",
      "ଯୁକ୍ତ</w>"
    ],
    [
      "ବା",
      "ଂ"
    ],
    [
      "ନେ",
      "ବାକୁ</w>"
    ],
    [
      "କ୍ଷ",
      "ତି"
    ],
    [
      "ାନ",
      "ି</w>"
    ],
    [
      "ସା",
      "ୟିକ</w>"
    ],
    [
      "ସମ",
      "ତଳ</w>"
    ],
    [
      "୩",
      "ଟି</w>"
    ],
    [
      "ପଦାର୍",
      "ଥ</w>"
    ],
    [
      "ବ୍",
      "ଲୁ"
    ],
    [
      "ଲୋକ",
      "ମାନଙ୍କ</w>"
    ],
    [
      "ଗ",
      "ାର୍"
    ],
    [
      "କ",
      "ାନ</w>"
    ],
    [
      "ଫ୍ରାନ୍",
      "ସର</w>"
    ],
    [
      ".ଟି",
      ".</w>"
    ],
    [
      "ଏ",
      "ନ"
    ],
    [
      "୨୦୨",
      "୨</w>"
    ],
    [
      "କ",
      "ଲା</w>"
    ],
    [
      "ାନ",
      "କୁ</w>"
    ],
    [
      "ବାଂ",
      "ଲା"
    ],
    [
      "ପାହା",
      "ଡ଼"
    ],
    [
      "ଟ",
      "କୁ</w>"
    ],
    [
      "ଅଫ",
      "୍‌</w>"
    ],
    [
      "ହ",
      "୍ୱ"
    ],
    [
      "ରୂ",
      "ପରେ</w>"
    ],
    [
      "ଣ",
      "ୀର</w>"
    ],
    [
      "ସହ",
      "ରାଞ୍ଚ"
    ],
    [
      "ରି",
      "ପ"
    ],
    [
      "ସି",
      "ଣ୍ଡ୍ରୋ"
    ],
    [
      "ବର",
      "ଂ</w>"
    ],
    [
      "ବିଦ୍ର",
      "ୋହ</w>"
    ],
    [
      "ଯ",
      "ାଏ</w>"
    ],
    [
      "ବା",
      "ବ"
    ],
    [
      "ବ୍ୟାବ",
      "ସାୟିକ</w>"
    ],
    [
      "ଆଶ୍ଚର୍",
      "ଯ୍ୟ</w>"
    ],
    [
      "ସ୍ଥାନ",
      "ର</w>"
    ],
    [
      "ରଖ",
      "ିବାକୁ</w>"
    ],
    [
      "ଟି",
      ",</w>"
    ],
    [
      "ତେ",
      "ଲୁ"
    ],
    [
      "ଡ଼",
      "ିତ</w>"
    ],
    [
      "ଯୋଗାଯ",
      "ୋଗ</w>"
    ],
    [
      "ହା",
      "ତ</w>"
    ],
    [
      "ସହର",
      "।</w>"
    ],
    [
      "ଥ",
      "ୁ"
    ],
    [
      "ଗ",
      "ୁ</w>"
    ],
    [
      "ନିର୍ଦ୍ଧାର",
      "ଣ</w>"
    ],
    [
      "କି",
      "ଣି</w>"
    ],
    [
      "ମୋ",
      "'</w>"
    ],
    [
      "ସ",
      "କାଶ"
    ],
    [
      "ଲ୍ଲ",
      "ୀ</w>"
    ],
    [
      "ପେ",
      "ସା"
    ],
    [
      "ସ",
      "ନ୍‌</w>"
    ],
    [
      "କୃ",
      "ଷ୍ଣ"
    ],
    [
      "ସମ୍ବନ୍ଧ",
      "ିତ</w>"
    ],
    [
      "ବ୍ୟକ୍ତି",
      "ଙ୍କୁ</w>"
    ],
    [
      "ଟ୍",
      "ସ</w>"
    ],
    [
      "ଡି",
      "ଗ୍ର"
    ],
    [
      "ହି",
      "ମାଳ"
    ],
    [
      "ଦ୍ର",
      "ବ୍ୟ</w>"
    ],
    [
      "ଇଂଲ",
      "ଣ୍ଡର</w>"
    ],
    [
      "ଉପ",
      "ର</w>"
    ],
    [
      "ଲି",
      "ନ୍</w>"
    ],
    [
      ".ଏ",
      "ଲ୍"
    ],
    [
      "ନିର୍ଦ୍ଦେଶ",
      "ିତ</w>"
    ],
    [
      "ନାୟ",
      "କ</w>"
    ],
    [
      "ପୁ",
      "ଲି"
    ],
    [
      "ଦାୟି",
      "ତ୍ୱ</w>"
    ],
    [
      "ବ",
      "ସ୍ତୁ"
    ],
    [
      "ଚୁ",
      "କ୍ତି</w>"
    ],
    [
      "ତ",
      "ୈ"
    ],
    [
      "ପ୍",
      "ତି</w>"
    ],
    [
      "୨",
      "୨</w>"
    ],
    [
      "ଉତ୍ତ",
      "ର"
    ],
    [
      "ଗୋ",
      "</w>"
    ],
    [
      "ମା",
      "ଲା"
    ],
    [
      "ମିଶ",
      "ି</w>"
    ],
    [
      "ତ୍ତ",
      "ିକ</w>"
    ],
    [
      "ସମ୍ପ୍ର",
      "ଦାୟ</w>"
    ],
    [
      "ଘ",
      "ୂ"
    ],
    [
      "ଏ",
      "ମ୍"
    ],
    [
      "ଇ",
      "ଁ"
    ],
    [
      "ଚର୍",
      "ଚ୍ଚ"
    ],
    [
      "ଭେ",
      "ଟ"
    ],
    [
      "ଉଚି",
      "ତ।</w>"
    ],
    [
      "ରୂ",
      "ପା"
    ],
    [
      "ନ୍ଦ",
      "ା"
    ],
    [
      "ମୂ",
      "ର୍ତ୍ତ"
    ],
    [
      "କାହିଁ",
      "କି</w>"
    ],
    [
      "ର୍",
      "ସ</w>"
    ],
    [
      "୧୯୯",
      "୦</w>"
    ],
    [
      "ଉ",
      "ପାଦ"
    ],
    [
      "ଗ୍ରାହ",
      "କ</w>"
    ],
    [
      "ଗୋ",
      "ଟେ</w>"
    ],
    [
      "ଥିଲା",
      ";</w>"
    ],
    [
      "ଆ",
      "କ୍"
    ],
    [
      "ଆ",
      "ଫ"
    ],
    [
      "ମ",
      "-"
    ],
    [
      "ବିର",
      "କ୍ତ</w>"
    ],
    [
      "ଫରା",
      "ସୀ</w>"
    ],
    [
      "ଯୋଗ",
      "୍ୟତା</w>"
    ],
    [
      "ରାଜ",
      "ବଂଶ</w>"
    ],
    [
      "କି",
      "ଶୋ"
    ],
    [
      "ରା",
      "ୟ</w>"
    ],
    [
      "କ୍ର",
      "ମା"
    ],
    [
      "ଗ",
      "ତି"
    ],
    [
      "ତୁ",
      "ର୍"
    ],
    [
      "ଙ୍ଗ",
      "୍‌</w>"
    ],
    [
      "କିଣ",
      "ିବା</w>"
    ],
    [
      "୨",
      ","
    ],
    [
      "ଥ",
      "୍ର"
    ],
    [
      "କରିବ",
      "।</w>"
    ],
    [
      "ଉତ୍",
      "ପତ୍ତି</w>"
    ],
    [
      "ପି",
      "ଂ</w>"
    ],
    [
      "ଗା",
      "ମୀ</w>"
    ],
    [
      "ତଥ",
      "୍ୟ</w>"
    ],
    [
      "କହ",
      "ିବା</w>"
    ],
    [
      "ଗୁ",
      "ଣ</w>"
    ],
    [
      "ସ୍ୱାଧ",
      "ୀନ</w>"
    ],
    [
      "ବି",
      "ଧାନ"
    ],
    [
      "କର୍ତ୍ତ",
      "ୃ"
    ],
    [
      "ପଦକ୍ଷେ",
      "ପ</w>"
    ],
    [
      "ଦେଖ",
      "ାଯାଇ"
    ],
    [
      "ଅଭିନେ",
      "ତ୍ରୀ</w>"
    ],
    [
      "ପ୍ରତିଦ୍ୱନ୍ଦ୍ୱ",
      "ିତା</w>"
    ],
    [
      "ନିର୍ବାଚ",
      "ନରେ</w>"
    ],
    [
      "ବର୍ଷ",
      "ରୁ</w>"
    ],
    [
      "ଡି",
      "ଂ</w>"
    ],
    [
      "ମୌ",
      "ସୁ"
    ],
    [
      "ଲ",
      "ୀ"
    ],
    [
      "କ",
      "ହୁ"
    ],
    [
      "ବା",
      "ୟୁ"
    ],
    [
      "ସ",
      "ନ୍"
    ],
    [
      "ଅନ",
      "୍‌"
    ],
    [
      "ଅବ",
      "ବାହ"
    ],
    [
      "ୋଜ",
      "୍</w>"
    ],
    [
      "’",
      "ରେ</w>"
    ],
    [
      "୧୯୭",
      "୦</w>"
    ],
    [
      "ପହଞ୍ଚ",
      "ିବା</w>"
    ],
    [
      "ବାହ",
      "ାରି"
    ],
    [
      "ନିର୍ଣ୍ଣ",
      "ୟ</w>"
    ],
    [
      "ଶ୍",
      "ଚା"
    ],
    [
      "ପ୍ରଭାବ",
      "ଶାଳୀ</w>"
    ],
    [
      "ଫ",
      "ସ"
    ],
    [
      "ଆକ୍ରା",
      "ନ୍ତ</w>"
    ],
    [
      "ିକା",
      "ଲ</w>"
    ],
    [
      "ଧ",
      "ୁ"
    ],
    [
      "ଦ",
      "ଳରେ</w>"
    ],
    [
      "ଡିଗ୍ର",
      "ୀ</w>"
    ],
    [
      "ଐ",
      "ତି"
    ],
    [
      "ପ",
      "ାନ</w>"
    ],
    [
      "ପୋଲି",
      "ସ</w>"
    ],
    [
      "ସ୍ୱ",
      "ର୍ଣ୍ଣ</w>"
    ],
    [
      "ଖ୍ରୀ",
      "."
    ],
    [
      "ଷ",
      "ୁ"
    ],
    [
      "କ୍ଲବ",
      "୍</w>"
    ],
    [
      "ଭେ",
      "ଟି"
    ],
    [
      "ଚ",
      "ାହିଁ"
    ],
    [
      "ଆନ",
      "ନ୍ଦ"
    ],
    [
      "କ୍ରି",
      "ୟା"
    ],
    [
      "ପାର୍",
      "ବ"
    ],
    [
      "ସଂଖ୍ୟ",
      "ାରେ</w>"
    ],
    [
      "ଅନୁ",
      "ମାନ</w>"
    ],
    [
      "ପରାମର୍ଶ",
      "ଦା"
    ],
    [
      "ଦେଇ",
      "ଥିଲେ,</w>"
    ],
    [
      "ଗଭ",
      "ୀର</w>"
    ],
    [
      "କା",
      "ବି"
    ],
    [
      "ସେ",
      "ଣ୍ଟ</w>"
    ],
    [
      "କାହା",
      "ଣୀ"
    ],
    [
      "ଭ",
      "ର୍ତ୍ତି</w>"
    ],
    [
      "କଠି",
      "ନ</w>"
    ],
    [
      "ନେ",
      "ଉ"
    ],
    [
      "ହେ",
      "ଲା,</w>"
    ],
    [
      "ପ୍ର",
      "ମାଣ"
    ],
    [
      "ନ୍ୟୁୟର୍",
      "କ</w>"
    ],
    [
      "ଯୌ",
      "ନ</w>"
    ],
    [
      "କୋ",
      "</w>"
    ],
    [
      "ପୌରପାଳ",
      "ିକାର</w>"
    ],
    [
      "ଦେଖ",
      "ା"
    ],
    [
      "ଖେ",
      "ଳରେ</w>"
    ],
    [
      "୍ୟ",
      "ାନ</w>"
    ],
    [
      "ଅଭିଯ",
      "ାନ</w>"
    ],
    [
      "ମୁମ୍ବ",
      "ାଇ"
    ],
    [
      "ମ୍ବ",
      "ା"
    ],
    [
      "ଛା",
      "ଡ଼"
    ],
    [
      "ଅ",
      "ତୀ"
    ],
    [
      "ଏ",
      "ମ୍‌"
    ],
    [
      "ପକ୍ଷ",
      "ରୁ</w>"
    ],
    [
      "ପ୍ରା",
      "ଣ"
    ],
    [
      "ିବ",
      "ା,</w>"
    ],
    [
      "କ",
      "ଥ"
    ],
    [
      "ସି",
      "ଲ"
    ],
    [
      "ହେଉ",
      "ଛି।</w>"
    ],
    [
      "କେର",
      "ଳର</w>"
    ],
    [
      "ଫୋ",
      "ନ୍</w>"
    ],
    [
      "ମିଶ୍ର",
      "ଣ</w>"
    ],
    [
      "ଔଷ",
      "ଧ"
    ],
    [
      "ଉ",
      "କ୍ତ</w>"
    ],
    [
      "ନ୍ଦ୍ର",
      "</w>"
    ],
    [
      "ୟ",
      "ତା</w>"
    ],
    [
      "ସର୍ବୋ",
      "ତ୍ତମ</w>"
    ],
    [
      "ବାଣିଜ",
      "୍ୟ</w>"
    ],
    [
      "ଆ",
      "ଞ୍ଚ"
    ],
    [
      "ଭାଷ",
      "ାର</w>"
    ],
    [
      "ଅବଶି",
      "ଷ୍ଟ</w>"
    ],
    [
      "ମିଳି",
      "ଥିଲା</w>"
    ],
    [
      "ପର୍ଯ୍ୟା",
      "ୟରେ</w>"
    ],
    [
      "କଷ୍ଟ",
      "କର</w>"
    ],
    [
      "ପାର୍",
      "ଟ"
    ],
    [
      "ଳି",
      "ଆ</w>"
    ],
    [
      "ପର୍ଯ୍ୟା",
      "ୟ</w>"
    ],
    [
      "ତାଲିକା",
      "ଭୁକ୍ତ</w>"
    ],
    [
      "ପ୍ୟ",
      "ାରି"
    ],
    [
      "ପୋର୍",
      "ଟ"
    ],
    [
      "ଭା",
      "ସ୍"
    ],
    [
      "ସମା",
      "ଲୋଚ"
    ],
    [
      "ତା",
      "ମାନେ</w>"
    ],
    [
      "ସଭ",
      "ା</w>"
    ],
    [
      "ଯୁ",
      "ଗ"
    ],
    [
      "ସୈ",
      "ନିକ"
    ],
    [
      "ତ୍",
      "ନ</w>"
    ],
    [
      "ଦୃ",
      "ଢ଼</w>"
    ],
    [
      "କୁହାଯ",
      "ାଉ"
    ],
    [
      "ସ୍ଥାନ",
      "କୁ</w>"
    ],
    [
      "କରୁ",
      "ଛି।</w>"
    ],
    [
      "ଦି",
      "ଗକୁ</w>"
    ],
    [
      "୮",
      "୦</w>"
    ],
    [
      "ଲୋକ",
      "େ</w>"
    ],
    [
      "ପଦ୍ଧ",
      "ତି</w>"
    ],
    [
      "ବ୍ର",
      "ାହ୍"
    ],
    [
      "ଅପର",
      "େ"
    ],
    [
      "୨୦୦",
      "୧</w>"
    ],
    [
      "ଯାଇ",
      "ଥିବା</w>"
    ],
    [
      "ଷ୍ଟ",
      "ାଇ"
    ],
    [
      "ତାହ",
      "ାର</w>"
    ],
    [
      "ସ୍ୱ",
      "ର</w>"
    ],
    [
      "ଥ",
      "ଣ୍ଡା</w>"
    ],
    [
      "ଦି",
      "ନ,</w>"
    ],
    [
      "ଚ",
      "ଳା"
    ],
    [
      "ଆସ",
      "ିବା</w>"
    ],
    [
      "ଆ",
      "ଡ଼"
    ],
    [
      "ସମ",
      "ୃ"
    ],
    [
      "ସ",
      "ମାନ"
    ],
    [
      "ଦେଖାଯ",
      "ାଏ</w>"
    ],
    [
      "ିକ",
      "୍‌"
    ],
    [
      "ଗ",
      "ଛ"
    ],
    [
      "ଆ",
      "ମର</w>"
    ],
    [
      "ିକ",
      ",</w>"
    ],
    [
      "ଦେଖାଯ",
      "ାଏ।</w>"
    ],
    [
      "ଚରି",
      "ତ୍ର</w>"
    ],
    [
      "ଥିଲେ",
      ";</w>"
    ],
    [
      "ପୁ",
      "ଅ"
    ],
    [
      "ନିର୍ଦ୍ଦ",
      "େଶ</w>"
    ],
    [
      "ଧାର",
      "ଣ</w>"
    ],
    [
      "ଗବେ",
      "ଷଣା</w>"
    ],
    [
      "ନା",
      "ଥ</w>"
    ],
    [
      "ଘଟି",
      "ଥିଲା।</w>"
    ],
    [
      "ବ",
      "ଲ</w>"
    ],
    [
      "ମୁ",
      "ଣ୍ଡ</w>"
    ],
    [
      "ୱାର୍",
      "ଡ</w>"
    ],
    [
      "କରିବା",
      "।</w>"
    ],
    [
      "ଜ",
      "୍ୟ"
    ],
    [
      "ଷ୍ଟା",
      "ବ୍"
    ],
    [
      "ଫୁ",
      "ଟ</w>"
    ],
    [
      "ଅଟ",
      "େ,</w>"
    ],
    [
      "୍ୟାନ",
      "େ"
    ],
    [
      "କୁ",
      "କୁ"
    ],
    [
      "ଲ୍ୟା",
      "ଣ୍ଡ</w>"
    ],
    [
      "ଭ",
      "୍"
    ],
    [
      "ଏ",
      "ଫ୍"
    ],
    [
      "ସ",
      "ନ୍ଦେ"
    ],
    [
      "ତ୍ତ",
      "ୁ"
    ],
    [
      "ଘ",
      "େ"
    ],
    [
      "ବା",
      ",</w>"
    ],
    [
      "ରାଜ",
      "ି</w>"
    ],
    [
      "ଅ",
      "ହ"
    ],
    [
      "ବେ",
      "କ୍ଷଣ</w>"
    ],
    [
      "ବ",
      "କ୍ସ</w>"
    ],
    [
      "ଅନ୍ତ",
      "ି"
    ],
    [
      "ଆ",
      "ଶ୍ର"
    ],
    [
      "ତ",
      "ତ୍ତ୍ୱ"
    ],
    [
      "ଢା",
      "ଞ୍ଚ"
    ],
    [
      "ଫ",
      "ାର୍"
    ],
    [
      "ବହ",
      "ନ</w>"
    ],
    [
      "ଚାମ୍ପିଅନ",
      "୍‌"
    ],
    [
      "–",
      "</w>"
    ],
    [
      ")",
      "ର</w>"
    ],
    [
      "ଦିଆଯ",
      "ାଏ।</w>"
    ],
    [
      "ଏହି",
      "ପରି</w>"
    ],
    [
      "ଅଧିକ",
      "ାରୀ</w>"
    ],
    [
      "ଫ୍",
      "ଲା"
    ],
    [
      "ଅବସ୍ଥ",
      "ାରେ</w>"
    ],
    [
      "ଲେଖ",
      "କ</w>"
    ],
    [
      "କରୁ",
      "ଥିଲେ,</w>"
    ],
    [
      "ଶ",
      "ାହ</w>"
    ],
    [
      "ପାକିସ୍ତ",
      "ାନ</w>"
    ],
    [
      "ଳ",
      "ିତ</w>"
    ],
    [
      "ାନ୍",
      "ସ</w>"
    ],
    [
      "ଫିଲ୍",
      "ମର</w>"
    ],
    [
      "ଜ",
      "୍ୟା"
    ],
    [
      "ସା",
      "ମାନ୍ୟ</w>"
    ],
    [
      "କରାଯାଇ",
      "ପାରେ।</w>"
    ],
    [
      "ୱେବ",
      "ସାଇ"
    ],
    [
      "ଟ",
      "ନ</w>"
    ],
    [
      "ଦିଲ୍ଲ",
      "ୀର</w>"
    ],
    [
      "ସମସ୍ତ",
      "େ</w>"
    ],
    [
      "ଳ",
      "େ"
    ],
    [
      "ବାର",
      "ୁ,</w>"
    ],
    [
      "ସ",
      "ାନ</w>"
    ],
    [
      "ଙ୍କ",
      "ାର</w>"
    ],
    [
      "ଚ",
      "ୌ"
    ],
    [
      "ରାଜ୍ୟ",
      "କୁ</w>"
    ],
    [
      "ସମ୍ପ",
      "ାଦ"
    ],
    [
      "୨",
      "୧</w>"
    ],
    [
      "କ୍ରମା",
      "ଗତ</w>"
    ],
    [
      "ବି",
      "ରୋଧ</w>"
    ],
    [
      "୯",
      "୦</w>"
    ],
    [
      "ଖ୍ରୀ",
      "ଷ୍ଟାବ୍"
    ],
    [
      "ମିଳି",
      "ଥାଏ।</w>"
    ],
    [
      "ମୌସୁ",
      "ମୀ</w>"
    ],
    [
      "ସୂ",
      "ଚିତ</w>"
    ],
    [
      "ଫ",
      "ାଉ"
    ],
    [
      "ଡି",
      "ଆ</w>"
    ],
    [
      "ଋ",
      "ଷ"
    ],
    [
      "ଇଣ୍ଟର",
      "ନେ"
    ],
    [
      "କ",
      "ବା"
    ],
    [
      "ା",
      "ଦ</w>"
    ],
    [
      "ଶେଷ",
      "ରେ,</w>"
    ],
    [
      "ସ୍",
      "ପର"
    ],
    [
      "ଣ",
      "କାରୀ</w>"
    ],
    [
      "ଜାଣ",
      "ିବା</w>"
    ],
    [
      "ଣ",
      "କାର"
    ],
    [
      "କରିବା",
      "ପାଇଁ</w>"
    ],
    [
      "ସବୁ",
      "ଠୁ</w>"
    ],
    [
      "୪",
      "୦"
    ],
    [
      "ରା",
      "ସ୍ତ"
    ],
    [
      "ଝ",
      "ୁ"
    ],
    [
      "ନଦୀ",
      "ରେ</w>"
    ],
    [
      "ସମସ",
      "୍ୟା"
    ],
    [
      "ଧ",
      "ଳା</w>"
    ],
    [
      "ସଂ",
      "ରକ୍ଷିତ</w>"
    ],
    [
      "କ୍ର",
      "ୟ</w>"
    ],
    [
      "ମେ",
      "କ୍ସ"
    ],
    [
      "ପେ",
      "ରି"
    ],
    [
      "ଟେକ୍",
      "ସା"
    ],
    [
      "ସୁ",
      "ଧ</w>"
    ],
    [
      "୪",
      "ଟି</w>"
    ],
    [
      "ଦ",
      "ଣ୍ଡ"
    ],
    [
      "ସପ୍ତାହ",
      "ରେ</w>"
    ],
    [
      "ସ",
      "୍ୟ</w>"
    ],
    [
      "ଏକା",
      "ଡେ"
    ],
    [
      "କ",
      "ନ୍ନ"
    ],
    [
      "ପଞ୍ଜା",
      "ବ</w>"
    ],
    [
      "ପାଲ",
      "ଟି"
    ],
    [
      "ମାଧ୍ୟ",
      "ମ</w>"
    ],
    [
      "ନ୍ତ",
      "ରୀ"
    ],
    [
      "ଲ",
      "ୀୟ</w>"
    ],
    [
      "ଦେଇ",
      "ଥିଲା।</w>"
    ],
    [
      "ଆ",
      "ଣ୍ଡ</w>"
    ],
    [
      "ଡେ",
      "ଭି"
    ],
    [
      "ଚିହ୍",
      "ନିତ</w>"
    ],
    [
      "ଗ",
      "ା</w>"
    ],
    [
      "ମାନଙ୍କ",
      "ରେ</w>"
    ],
    [
      "ଦ୍ୱ",
      "ାର"
    ],
    [
      "କୋ",
      "ଲ"
    ],
    [
      "ବ୍ୟା",
      "ଖ"
    ],
    [
      "ନିକଟ",
      "ସ୍ଥ</w>"
    ],
    [
      "ଜ",
      "ମି</w>"
    ],
    [
      "ଂ",
      "ସା"
    ],
    [
      "ଅପେ",
      "କ୍ଷା"
    ],
    [
      "ବାହ",
      "ାରକୁ</w>"
    ],
    [
      "ିବା",
      "ସୀ</w>"
    ],
    [
      "ସ",
      "ନ୍‌"
    ],
    [
      "କ୍",
      "ୱା"
    ],
    [
      "ତଳ",
      "କୁ</w>"
    ],
    [
      "ପ୍ରଜା",
      "ତି</w>"
    ],
    [
      "ଆ",
      "ଣ୍ଟି"
    ],
    [
      "ଅ",
      "ଛନ୍ତି,</w>"
    ],
    [
      "କରି",
      "ଛନ୍ତି,</w>"
    ],
    [
      "ଉନ୍ନ",
      "ତି</w>"
    ],
    [
      "ଲଢ଼",
      "େଇ</w>"
    ],
    [
      "୨୦",
      "୦</w>"
    ],
    [
      "ଔ",
      "ରଙ୍ଗ"
    ],
    [
      "ଗୁ",
      "ଳି</w>"
    ],
    [
      "ବି",
      "ଚ୍ଛ"
    ],
    [
      ".ଏ",
      "ଚ୍"
    ],
    [
      "ାଯ",
      "ାଏ</w>"
    ],
    [
      "ଧର",
      "ଣର</w>"
    ],
    [
      "ରୀ",
      "ତି"
    ],
    [
      "ଟ",
      "ାଉ"
    ],
    [
      "ଅଭ",
      "ୟାର"
    ],
    [
      "ଅଭୟାର",
      "ଣ"
    ],
    [
      "ଷ୍ଟ୍ରୋ",
      "କ୍</w>"
    ],
    [
      "ବ",
      "ଲ୍‌</w>"
    ],
    [
      "ବ",
      "ୀର</w>"
    ],
    [
      "ଜରୁ",
      "ରୀ"
    ],
    [
      "ରା",
      "ଓ</w>"
    ],
    [
      "ଗୁ",
      "ରୁ</w>"
    ],
    [
      "ନ",
      "ଥିଲେ</w>"
    ],
    [
      "ଖର୍",
      "ଚ୍ଚ"
    ],
    [
      "୨୦୦",
      "୫</w>"
    ],
    [
      "ସ",
      "୍ୟ"
    ],
    [
      "ଲ",
      "ଦା"
    ],
    [
      "ଅନ୍ତ",
      "ୁ।</w>"
    ],
    [
      "ପଡ଼",
      "ିବ।</w>"
    ],
    [
      "ଅର୍",
      "ଡର</w>"
    ],
    [
      "ଚା",
      "ଲ"
    ],
    [
      "ଆଖ",
      "ି"
    ],
    [
      "ପରି",
      "ଣା"
    ],
    [
      "ବ",
      "ହି"
    ],
    [
      "ବିସ୍ତ",
      "ୃତ</w>"
    ],
    [
      "ଳ",
      ",</w>"
    ],
    [
      "ଲ",
      "ୀ</w>"
    ],
    [
      "ଙ୍ଗ",
      "ରେ</w>"
    ],
    [
      "ଭାଙ୍ଗ",
      "ି"
    ],
    [
      "ମ",
      "ରି"
    ],
    [
      "ରାଜ",
      "ବଂଶର</w>"
    ],
    [
      "ପ୍ର",
      "ଦେଶ"
    ],
    [
      "ସି",
      "ଜନ"
    ],
    [
      "ଭ୍ୟ",
      "ନ୍ତରୀ"
    ],
    [
      "ଛୁ",
      "ଟି"
    ],
    [
      "ଅ",
      "ଲ୍"
    ],
    [
      "କ",
      "ଲା।</w>"
    ],
    [
      "ଦି",
      "ଗ"
    ],
    [
      "ମା",
      "ଗ"
    ],
    [
      "ତ",
      "ିକି</w>"
    ],
    [
      "ସ୍",
      "ପର୍"
    ],
    [
      "ଅପେକ୍ଷା",
      "କୃତ</w>"
    ],
    [
      "ବ୍ର",
      "ୁ"
    ],
    [
      "ଜି",
      "ୟ"
    ],
    [
      "ଏ",
      "ଜେ"
    ],
    [
      "ରୋଗ",
      "ୀ</w>"
    ],
    [
      "ନି",
      "କ୍</w>"
    ],
    [
      "ପରି",
      "ମାଣ</w>"
    ],
    [
      "°",
      "</w>"
    ],
    [
      "ତ୍ତ",
      "ା"
    ],
    [
      "ଲ୍‌",
      "ର</w>"
    ],
    [
      "ଚ",
      "ର</w>"
    ],
    [
      "ଦର",
      "ବାର"
    ],
    [
      "କୋ",
      "ଠ"
    ],
    [
      "ର୍",
      "କ</w>"
    ],
    [
      "ବୃ",
      "ତ୍ତି</w>"
    ],
    [
      "ଉତ୍ତରା",
      "ଧିକ"
    ],
    [
      "ସୁ",
      "ପାରି"
    ],
    [
      "ଆଞ୍ଚ",
      "ଳିକ</w>"
    ],
    [
      "କର୍ମଚାର",
      "ୀ</w>"
    ],
    [
      "ଉତ୍ତ",
      "ରରେ</w>"
    ],
    [
      "୨",
      "୩</w>"
    ],
    [
      "ମଣି",
      "ଷ"
    ],
    [
      "କରାଯାଉ",
      "ଥିଲା।</w>"
    ],
    [
      "ଚାଳ",
      "ନା</w>"
    ],
    [
      "ଗୁଡ",
      "ିକ</w>"
    ],
    [
      "ବ୍ୟା",
      "ପି"
    ],
    [
      "ଦର୍ଶ",
      "ାଯାଇ"
    ],
    [
      "ପ",
      "ଟେ</w>"
    ],
    [
      "ପ୍ର",
      "ଦେଶରେ</w>"
    ],
    [
      "ବିକ୍ର",
      "ୟ</w>"
    ],
    [
      "ଖ",
      "ାଇବା</w>"
    ],
    [
      ".ବି",
      ".</w>"
    ],
    [
      "ଅସ୍ତ୍ରୋପ",
      "ଚାର</w>"
    ],
    [
      "ବି",
      "ନିମ"
    ],
    [
      "ଚ୍ଛ",
      "ା</w>"
    ],
    [
      "ଉଦ୍ୟ",
      "ାନ</w>"
    ],
    [
      "ସା",
      "ଦ</w>"
    ],
    [
      "’",
      ",</w>"
    ],
    [
      "କରାଯାଇ",
      "ଛି,</w>"
    ],
    [
      "କ",
      "ଳ୍ପ"
    ],
    [
      "ବର୍",
      "ଗୀ"
    ],
    [
      "ଆ",
      "ଭ୍ୟନ୍ତରୀ"
    ],
    [
      "ବସ",
      "ବାସ</w>"
    ],
    [
      "ଲାଗ",
      "ୁ</w>"
    ],
    [
      "ସ",
      "ଡ଼"
    ],
    [
      "ଇ",
      "ତ୍ୟା"
    ],
    [
      "ସା",
      "କ୍ଷା"
    ],
    [
      "ବ",
      "ସ୍</w>"
    ],
    [
      "ହା",
      "ତି</w>"
    ],
    [
      "ୟ",
      "।</w>"
    ],
    [
      "ପାର୍",
      "ଥ"
    ],
    [
      "କ୍ୟା",
      "ଲେ"
    ],
    [
      "ହ",
      "ର୍"
    ],
    [
      "ଭାବ",
      "ରେ,</w>"
    ],
    [
      "ଲୁ",
      "କା</w>"
    ],
    [
      "ମନୋ",
      "ରଞ୍ଜ"
    ],
    [
      "ବି",
      "ଦେଶୀ</w>"
    ],
    [
      "ଅଧ୍ୟ",
      "କ୍ଷ</w>"
    ],
    [
      "ବର",
      "ଫ</w>"
    ],
    [
      "ଯାହା",
      "ଦ୍ୱାରା</w>"
    ],
    [
      "ଷ୍ଣ",
      "ୁ"
    ],
    [
      "୮",
      "ରେ,</w>"
    ],
    [
      "ଜୁ",
      "ନ</w>"
    ],
    [
      "ହେଉ",
      "ଥିଲା।</w>"
    ],
    [
      "କୂ",
      "ଳରେ</w>"
    ],
    [
      "ଛ",
      "ଅଟି</w>"
    ],
    [
      "ସଂ",
      "ରକ୍ଷ"
    ],
    [
      "ଯୁ",
      "ବ</w>"
    ],
    [
      "ମନ୍ଦି",
      "ରର</w>"
    ],
    [
      "ରି",
      "ଆର</w>"
    ],
    [
      "ଲୁ",
      "ଇ"
    ],
    [
      ".",
      "ଆର୍"
    ],
    [
      "ସଫ୍",
      "ଟ</w>"
    ],
    [
      "ରା",
      "ଗ</w>"
    ],
    [
      "ଭୂତା",
      "ଣୁ</w>"
    ],
    [
      "ଜନ",
      "ସଂଖ୍ୟାର</w>"
    ],
    [
      "ଗ",
      "ମ୍ଭ"
    ],
    [
      "ସୁ",
      "ପର"
    ],
    [
      "ପା",
      "ଣ୍"
    ],
    [
      "କ",
      "ଟ"
    ],
    [
      "ସାହି",
      "ତ୍ୟ"
    ],
    [
      "ପା",
      "ଲି"
    ],
    [
      "ଦଳ",
      "କୁ</w>"
    ],
    [
      "ରହି",
      "ଥିଲେ</w>"
    ],
    [
      "ସା",
      "ଗର</w>"
    ],
    [
      "ରଖି",
      "ଥିଲେ।</w>"
    ],
    [
      "ମୁ",
      "କାବି"
    ],
    [
      "ଆ",
      "ତ"
    ],
    [
      "ହ୍ର",
      "ଦ"
    ],
    [
      "କାର୍ଯ୍ୟକଳା",
      "ପ</w>"
    ],
    [
      "ବ୍ୟ",
      "ସ୍ତ</w>"
    ],
    [
      "ଲ୍ୟା",
      "ଣ୍ଡ"
    ],
    [
      "ଧ",
      "ରି"
    ],
    [
      "ପ",
      "୍‌ରେ</w>"
    ],
    [
      "ଅନ୍ତର୍",
      "ଜାତୀୟ</w>"
    ],
    [
      "କୃ",
      "ଷ୍"
    ],
    [
      "ତେଲୁ",
      "ଗୁ</w>"
    ],
    [
      "ଜର୍",
      "ମାନ</w>"
    ],
    [
      "ଲ୍",
      "‍‌</w>"
    ],
    [
      "ବିଦ୍ୟୁ",
      "ତ</w>"
    ],
    [
      "ଯକ୍ଷ",
      "୍"
    ],
    [
      "ପର୍",
      "ତ୍ତୁ"
    ],
    [
      "ସଂସ୍",
      "କୃତି</w>"
    ],
    [
      "ପେସା",
      "ଦାର</w>"
    ],
    [
      "ଅଭି",
      "ଯୋଗ"
    ],
    [
      "କର",
      "ା"
    ],
    [
      "ସ୍ପ",
      "ର</w>"
    ],
    [
      "ପ୍ରକ",
      "ଳ୍ପ</w>"
    ],
    [
      "ହା",
      "ତରେ</w>"
    ],
    [
      "ଶା",
      "ନ୍ତ</w>"
    ],
    [
      "ଖ୍ରୀଷ୍ଟ",
      "ପୂର୍ବ</w>"
    ],
    [
      "ସବୁ",
      "ବେଳେ</w>"
    ],
    [
      "ନ",
      "ମ୍ବର</w>"
    ],
    [
      "ଡ",
      "ାଉ"
    ],
    [
      "ଡ଼",
      "ା"
    ],
    [
      "ୱ",
      "ିକି"
    ],
    [
      "ନ",
      "ଙ୍କୁ</w>"
    ],
    [
      "୭",
      "୦</w>"
    ],
    [
      "ପୁ",
      "ରର</w>"
    ],
    [
      "ଉ",
      "ର୍"
    ],
    [
      "ିବ",
      "େ।</w>"
    ],
    [
      "ଖୋ",
      "ଲା</w>"
    ],
    [
      "ଲୋକ",
      "ମାନଙ୍କୁ</w>"
    ],
    [
      "ଆଭ୍ୟନ୍ତରୀ",
      "ଣ</w>"
    ],
    [
      "ାର୍",
      "ଡ</w>"
    ],
    [
      "ସେ",
      "ଲ"
    ],
    [
      "ଦୂ",
      "ର"
    ],
    [
      "ରୋ",
      "ମାନ"
    ],
    [
      "ଝ",
      "ଡ଼</w>"
    ],
    [
      "୫",
      "ଟି</w>"
    ],
    [
      "ିକୋ",
      "ଣ"
    ],
    [
      "କମ୍ପାନ",
      "ୀ"
    ],
    [
      "ସ୍ଥ",
      "ଳୀ</w>"
    ],
    [
      "ବୋର୍",
      "ଡ</w>"
    ],
    [
      "େ",
      "କ"
    ],
    [
      "ପ୍ରଜା",
      "ତିର</w>"
    ],
    [
      "ଉତ୍ତର-",
      "ପୂର୍ବ</w>"
    ],
    [
      "ସାଧାରଣ",
      "ତଃ,</w>"
    ],
    [
      "ହୋ",
      "ଟେ"
    ],
    [
      "ଲ୍ୟା",
      "ଣ୍ଡର</w>"
    ],
    [
      "ସକାଶ",
      "େ</w>"
    ],
    [
      "୫",
      "ରୁ</w>"
    ],
    [
      "ଲ",
      "ଗା"
    ],
    [
      "ବିସ୍",
      "ଫୋ"
    ],
    [
      "ଅଷ୍ଟ୍ରେଲି",
      "ଆ</w>"
    ],
    [
      "ମ୍ବ",
      "ରରେ</w>"
    ],
    [
      ".ଏ",
      "ମ୍‌"
    ],
    [
      "ଗର୍",
      "ଭ"
    ],
    [
      "ଥି",
      "ଏ"
    ],
    [
      "ଜର୍ମାନ",
      "ୀର</w>"
    ],
    [
      "କେଉ",
      "ଁ"
    ],
    [
      "ପ୍ରଣା",
      "ଳ"
    ],
    [
      "ଭାଷ",
      "ା"
    ],
    [
      "୧",
      "ମ</w>"
    ],
    [
      "ଚୁ",
      "କ୍ତି"
    ],
    [
      "ତାଲିକ",
      "ାରେ</w>"
    ],
    [
      "ଦେଇ",
      "ଥାଏ।</w>"
    ],
    [
      "ମେ",
      "ରୁ"
    ],
    [
      "ସର୍ବବୃହ",
      "ତ୍‌</w>"
    ],
    [
      "ଯୁକ୍ତରା",
      "ଷ୍ଟ୍ର"
    ],
    [
      "ନ୍ନ",
      "ା</w>"
    ],
    [
      "୧",
      "ରେ,</w>"
    ],
    [
      "ଦେବ",
      "ତା</w>"
    ],
    [
      "ଆଫ",
      "ଗ"
    ],
    [
      "ଆକର୍",
      "ଷଣ</w>"
    ],
    [
      "ମୃ",
      "ତ"
    ],
    [
      "ହେଉ",
      "ଛି,</w>"
    ],
    [
      "ଙ୍କ",
      "ଠାରେ</w>"
    ],
    [
      "କ୍ୟାରି",
      "ୟର</w>"
    ],
    [
      "ସ୍ଥାନାନ୍ତ",
      "ର</w>"
    ],
    [
      "ଜ",
      "ମା</w>"
    ],
    [
      "ଆ",
      "କାର</w>"
    ],
    [
      "ଆ",
      "ଟ"
    ],
    [
      "ଅଲିମ୍ପ",
      "ିକ୍ସରେ</w>"
    ],
    [
      "ରେ",
      "ଳ"
    ],
    [
      "ଘୁ",
      "ଷୁ"
    ],
    [
      "ବ୍ୟା",
      "ଣ୍ଡି</w>"
    ],
    [
      ".ଏ",
      "ନ୍‌"
    ],
    [
      "ମଣ୍ଡଳ",
      "ୀୟ</w>"
    ],
    [
      "ଡ",
      "୍ୟା"
    ],
    [
      "ବୀ",
      "ମା</w>"
    ],
    [
      "କ",
      "ମେ"
    ],
    [
      "୍ୱ",
      "େ"
    ],
    [
      "ସା",
      "ତ</w>"
    ],
    [
      "ସମ୍ପର୍",
      "କରେ</w>"
    ],
    [
      "ପା",
      "ଶ୍ଚା"
    ],
    [
      "ପିଲା",
      "ମାନଙ୍କ</w>"
    ],
    [
      "ୟା",
      "ଲ"
    ],
    [
      "ପାଖ",
      "କୁ</w>"
    ],
    [
      "ପ",
      "ଲ୍ଲ"
    ],
    [
      "ସ୍‌",
      "କୁ</w>"
    ],
    [
      "ହୋଇଯାଇ",
      "ଥିଲା।</w>"
    ],
    [
      "ପା",
      "ଖ</w>"
    ],
    [
      "ଶ୍ରେ",
      "ଣୀ"
    ],
    [
      "ଆ",
      "ନି"
    ],
    [
      "ଣ",
      "ୁ"
    ],
    [
      "ଡ",
      "ାହା"
    ],
    [
      "ହି",
      "ସା"
    ],
    [
      "ମା",
      ",</w>"
    ],
    [
      "ପ୍ରଣା",
      "ଳୀ</w>"
    ],
    [
      "ପ୍ରୋ",
      "ଗ୍ରା"
    ],
    [
      "ନାଟ",
      "କ</w>"
    ],
    [
      "ସୂ",
      "ତ୍ର"
    ],
    [
      "୍‌",
      "ଙ୍କ</w>"
    ],
    [
      "ଯେଉଁ",
      "ଗୁଡ଼ିକ</w>"
    ],
    [
      "ସହ",
      "ରକୁ</w>"
    ],
    [
      "୬",
      "୦"
    ],
    [
      "ଠିକ",
      "୍‌</w>"
    ],
    [
      ".",
      "୫</w>"
    ],
    [
      "ଯନ୍ତ୍ର",
      "ଣା</w>"
    ],
    [
      "ପୁ",
      "ରରେ</w>"
    ],
    [
      "ଶ୍ର",
      "ୁ"
    ],
    [
      "ଉଦ୍ୟ",
      "ମ</w>"
    ],
    [
      "ସର୍ବ",
      "ନିମ୍ନ</w>"
    ],
    [
      "ଖା",
      "ଲି</w>"
    ],
    [
      "ିବ",
      "ଦ୍ଧ</w>"
    ],
    [
      "ପ୍ରତି",
      "ରୋଧ"
    ],
    [
      "୍‌",
      "‌"
    ],
    [
      "ଦକ୍ଷ",
      "ତା</w>"
    ],
    [
      "ଚାମ୍ପିଅନ୍‌",
      "ସି"
    ],
    [
      "୨",
      "୭</w>"
    ],
    [
      "ସ",
      "ଠିକ୍</w>"
    ],
    [
      "ପରି",
      "ଚି"
    ],
    [
      "ନୃତ୍ୟ",
      "ଶିଳ୍ପ"
    ],
    [
      "ଦା",
      "ଖଲ</w>"
    ],
    [
      "ଏକ",
      "କ</w>"
    ],
    [
      "ଇ",
      "ଲେକ୍"
    ],
    [
      "ଜି",
      "ନ୍</w>"
    ],
    [
      "ଫେଡେ",
      "ରେ"
    ],
    [
      "ପୋ",
      "ଲୋ</w>"
    ],
    [
      "କିଣା",
      "କିଣି</w>"
    ],
    [
      "ସ",
      "ିକ"
    ],
    [
      "ପୀ",
      "ଡ଼ିତ</w>"
    ],
    [
      "ଦିଲ୍ଲ",
      "ୀରେ</w>"
    ],
    [
      "ଚ",
      "ୂ"
    ],
    [
      "ଇଂ",
      "ରେ"
    ],
    [
      "'",
      "ଅ"
    ],
    [
      "ପୁ",
      "ତ୍ର"
    ],
    [
      "ସଂସ୍",
      "ପର୍"
    ],
    [
      "ଏ",
      "ଡ"
    ],
    [
      "ଟୁର୍ଣ୍ଣା",
      "ମେଣ୍ଟ</w>"
    ],
    [
      "ଧ",
      "ା</w>"
    ],
    [
      "ଆ",
      "ନ୍ଧ"
    ],
    [
      "ା",
      "ମ</w>"
    ],
    [
      "ସମ୍ପ",
      "ତ୍ତି</w>"
    ],
    [
      "ପି",
      "ଛା</w>"
    ],
    [
      "ାଏ",
      "ଁ</w>"
    ],
    [
      "ଦୋ",
      "କାନ</w>"
    ],
    [
      "ଗ୍ରୀ",
      "କ୍</w>"
    ],
    [
      "ମ",
      "ିକ"
    ],
    [
      "ପା",
      "ଗ</w>"
    ],
    [
      "ଡିଜାଇ",
      "ନ୍</w>"
    ],
    [
      "ଆ",
      "ଦି"
    ],
    [
      "ଯେଉଁ",
      "ଥିରୁ</w>"
    ],
    [
      "ଫ",
      "ର</w>"
    ],
    [
      "ଉଦ",
      "୍ୟାନ"
    ],
    [
      "ଜରୁରୀ",
      "କାଳୀନ</w>"
    ],
    [
      "ୱେ",
      "ଷ୍ଟ"
    ],
    [
      "ନି",
      "ଷ୍ଠ</w>"
    ],
    [
      "ଦ୍ୱୀ",
      "ପ</w>"
    ],
    [
      "ଅନୁ",
      "ମୋ"
    ],
    [
      "ଆସି",
      "ଥିବା</w>"
    ],
    [
      "ନ",
      "ରୁ</w>"
    ],
    [
      "ଦକ୍ଷି",
      "ଣରେ</w>"
    ],
    [
      "ା",
      "ମ"
    ],
    [
      "ଅବ",
      "ଧି</w>"
    ],
    [
      "ପୂର୍ବ",
      "ରେ</w>"
    ],
    [
      "ବୟ",
      "ସର</w>"
    ],
    [
      "ପ୍ର",
      "ତ୍ନ"
    ],
    [
      "ବ",
      "ଜାର</w>"
    ],
    [
      "ସାମ",
      "ଗ୍ରୀ"
    ],
    [
      "ଯେ",
      "ମିତି</w>"
    ],
    [
      "ପ୍ର",
      "ପାତ</w>"
    ],
    [
      "ଚିକିତ୍",
      "ସ"
    ],
    [
      "ବିଦ",
      "୍ୟ"
    ],
    [
      "ଡେ",
      "ମୋ"
    ],
    [
      "ଜିତି",
      "ଥିଲେ।</w>"
    ],
    [
      "ମା",
      "ସର</w>"
    ],
    [
      "ପୃଷ୍ଠ",
      "ପୋଷ"
    ],
    [
      "କ୍ଷି",
      "ପ୍ତ</w>"
    ],
    [
      "ସା",
      "ମ୍ବ"
    ],
    [
      "ଯେ",
      "ତେ</w>"
    ],
    [
      "ଫସ",
      "ଲ</w>"
    ],
    [
      "ଅନ୍ତି",
      "ମ</w>"
    ],
    [
      "ବି",
      "ପ"
    ],
    [
      "ପ",
      "ତ"
    ],
    [
      "କ୍",
      "ଟ"
    ],
    [
      "ତି",
      "ନି"
    ],
    [
      "ମଦ",
      "୍ୟ"
    ],
    [
      "ଓ",
      "କି"
    ],
    [
      "କ",
      "ାଇ"
    ],
    [
      "ଟ୍",
      ",</w>"
    ],
    [
      "ପାଳ",
      "ିତ</w>"
    ],
    [
      "ମା",
      "ସିକ</w>"
    ],
    [
      "ମି",
      "ଆ</w>"
    ],
    [
      "ପ",
      "ବନ</w>"
    ],
    [
      "ସି",
      "ନ୍</w>"
    ],
    [
      "ଥି",
      "ବାରୁ,</w>"
    ],
    [
      "ଯ",
      "ନ୍ତ୍ର</w>"
    ],
    [
      "ବ୍ୟାଖ",
      "୍ୟା</w>"
    ],
    [
      "ଉ",
      "ଠି"
    ],
    [
      "ବର୍",
      "ଣ୍"
    ],
    [
      "ଏ",
      "ଡ଼"
    ],
    [
      "ଗି",
      "ରି</w>"
    ],
    [
      "ଭ",
      "ୋଗ</w>"
    ],
    [
      "ତା",
      "ବ"
    ],
    [
      "ବିଶ୍ୱବିଦ୍ୟାଳ",
      "ୟରେ</w>"
    ],
    [
      "ପ୍ରୟ",
      "ୋଗ</w>"
    ],
    [
      "ତୀ",
      "ବ୍"
    ],
    [
      "ତୀବ୍",
      "ର</w>"
    ],
    [
      "କାର",
      "୍</w>"
    ],
    [
      "କୃ",
      "ତି"
    ],
    [
      "ମାଇ",
      "ଲ"
    ],
    [
      "ନା",
      "ଗା"
    ],
    [
      "ଅ",
      "ଳ"
    ],
    [
      "ଡ୍ର",
      "ି"
    ],
    [
      "ଅଗ୍",
      "ନି"
    ],
    [
      "ସ୍ତ",
      "ରର</w>"
    ],
    [
      "କ୍ରେ",
      "ଡି"
    ],
    [
      "ସ",
      "ିକି"
    ],
    [
      "ଲା",
      "ଭ"
    ],
    [
      "ଶ",
      "ିବା"
    ],
    [
      "ଟ",
      "ଙ୍କ</w>"
    ],
    [
      "ପୃ",
      "ଥିବ"
    ],
    [
      "ଚମ",
      "ତ୍କାର</w>"
    ],
    [
      "ହ",
      "ତା"
    ],
    [
      "୨",
      "୬</w>"
    ],
    [
      "ସଂ",
      "ସଦ"
    ],
    [
      "ଅଗ୍ର",
      "ଣୀ</w>"
    ],
    [
      "କ୍",
      "ୱ"
    ],
    [
      "ନ",
      "କ"
    ],
    [
      "ପାଇ",
      "ଥିଲା</w>"
    ],
    [
      "କରାଯାଇ",
      "</w>"
    ],
    [
      "ପି",
      "ଲା</w>"
    ],
    [
      "ପାର",
      "ୁ"
    ],
    [
      "ହୋଇଯ",
      "ାଏ।</w>"
    ],
    [
      "ଜଣାଶୁଣା",
      "।</w>"
    ],
    [
      "ଶ୍ରେ",
      "ଣୀ</w>"
    ],
    [
      ".ସି",
      "."
    ],
    [
      "ସଂ",
      "କ୍ରା"
    ],
    [
      "ପର",
      "ି,</w>"
    ],
    [
      "ସ୍କୋ",
      "</w>"
    ],
    [
      "ପର୍ଯ୍ୟଟ",
      "ନ</w>"
    ],
    [
      "ଖେଳାଳି",
      "ଙ୍କୁ</w>"
    ],
    [
      "ଚ",
      "୍ୟାନେ"
    ],
    [
      "ଚୋ",
      "ଳ</w>"
    ],
    [
      "ନ",
      "ୋଇ"
    ],
    [
      "ଆଣ୍ଟ",
      "ିବ"
    ],
    [
      "ୱିଣ୍ଡ",
      "ୋଜ୍</w>"
    ],
    [
      "ନିୟୁ",
      "ତ</w>"
    ],
    [
      "ନେତୃ",
      "ତ୍ୱରେ</w>"
    ],
    [
      "ଜୀ",
      "ଙ୍କ</w>"
    ],
    [
      "ଦ",
      "ର୍"
    ],
    [
      "ଶ",
      "ୟ</w>"
    ],
    [
      "ବର୍ଷ",
      "ରେ</w>"
    ],
    [
      "କାଶ୍",
      "ମୀ"
    ],
    [
      "ସମ୍ପୃ",
      "କ୍ତ</w>"
    ],
    [
      "ଖେଳ",
      "ିବା</w>"
    ],
    [
      "କ",
      "’"
    ],
    [
      "ସ",
      "ଞ୍ଜ"
    ],
    [
      "ବି",
      "ଷ୍ଣୁ"
    ],
    [
      "ସର୍ବବୃହ",
      "ତ</w>"
    ],
    [
      "ପୌରପାଳ",
      "ିକା</w>"
    ],
    [
      "ଭ",
      "ଳି,</w>"
    ],
    [
      "ଆବେ",
      "ଦନ</w>"
    ],
    [
      "ନ୍ତ",
      "ା</w>"
    ],
    [
      "ଦଶ",
      "ନ୍ଧ"
    ],
    [
      "ରା",
      "ଗ"
    ],
    [
      "କର୍",
      "ପୋ"
    ],
    [
      "ଐତି",
      "ହ"
    ],
    [
      "ଅନୁସନ୍ଧ",
      "ାନ</w>"
    ],
    [
      "ଥେ",
      "ରା"
    ],
    [
      "ଡେମୋ",
      "କ୍ରା"
    ],
    [
      "ଚର୍",
      "ମ</w>"
    ],
    [
      "ଘୂ",
      "ର୍ଣ୍ଣ"
    ],
    [
      "ହେ",
      "ଲେ,</w>"
    ],
    [
      "ଉପ",
      "ମହା"
    ],
    [
      "ଅନ୍ୟତ",
      "ମ।</w>"
    ],
    [
      "ଆଖ",
      "ି</w>"
    ],
    [
      "ଅଷ୍ଟ୍ରେଲି",
      "ଆର</w>"
    ],
    [
      "୍ୟ",
      "କୁ</w>"
    ],
    [
      "ଦେ",
      "ବା"
    ],
    [
      "ଉନ୍ନ",
      "ତ</w>"
    ],
    [
      "ଦର୍ଶ",
      "ାଇ"
    ],
    [
      "ପ୍ରଶାସ",
      "ନିକ</w>"
    ],
    [
      "ଏ",
      "ମିତି</w>"
    ],
    [
      "ସ",
      "କାଳ"
    ],
    [
      "ମୁ",
      "ଣ୍ଡ"
    ],
    [
      "ମା",
      "ଲେ"
    ],
    [
      "ଉତ୍ତ",
      "ମ</w>"
    ],
    [
      "୧୯",
      "ଶ</w>"
    ],
    [
      "କର୍ପୋ",
      "ରେ"
    ],
    [
      "ମ୍",
      "‍‌"
    ],
    [
      "ମୋ",
      "ବାଇ"
    ],
    [
      "ଣ୍ଟ",
      "ରେ</w>"
    ],
    [
      "ସେ",
      "କେ"
    ],
    [
      "ଟି",
      "ଏ</w>"
    ],
    [
      "ଷ୍ଟ",
      "ରେ</w>"
    ],
    [
      "ଟେ",
      "ଷ୍ଟ</w>"
    ],
    [
      "ଆ",
      "ନ୍ତି।</w>"
    ],
    [
      "ଗାନ୍ଧ",
      "ୀ</w>"
    ],
    [
      "କ",
      "ମା"
    ],
    [
      "ଶା",
      "ନ୍ତି</w>"
    ],
    [
      "କା",
      "ଳର</w>"
    ],
    [
      "ତା",
      "ଲିମ</w>"
    ],
    [
      "ରା",
      "ଣୀ</w>"
    ],
    [
      "ଡି",
      "ଫେ"
    ],
    [
      "ଭାର",
      "ି</w>"
    ],
    [
      "ସ୍",
      "ତି</w>"
    ],
    [
      "ସମ",
      "େ"
    ],
    [
      "ଗ",
      "ଛ</w>"
    ],
    [
      "ସ୍ଥାନାନ୍ତ",
      "ରିତ</w>"
    ],
    [
      "ପ",
      "ିତ</w>"
    ],
    [
      "ଯାଇ",
      "ଥିଲା।</w>"
    ],
    [
      "ଲ୍",
      "ଟ</w>"
    ],
    [
      "ବୟ",
      "ସ</w>"
    ],
    [
      "୍ୟ",
      "ାର</w>"
    ],
    [
      "ଶ",
      "ସ୍ତ୍ର</w>"
    ],
    [
      "ୟ",
      "ଂ"
    ],
    [
      "ରେ",
      "ଇ</w>"
    ],
    [
      "ନି",
      "ଶା"
    ],
    [
      "ଯୋ",
      "ଡ଼"
    ],
    [
      "ଧ",
      "ିତ</w>"
    ],
    [
      "ଫଳା",
      "ଫଳ</w>"
    ],
    [
      "ଏ",
      ",</w>"
    ],
    [
      "ଆ",
      "ଚ୍ଛା"
    ],
    [
      "କରୁ",
      "ଛି</w>"
    ],
    [
      "ପେ",
      "ନା"
    ],
    [
      "ମାଇକ୍ରୋ",
      "ସଫ୍ଟ</w>"
    ],
    [
      "ି",
      "ଆର</w>"
    ],
    [
      "ଇ",
      "ଟା</w>"
    ],
    [
      "ମୃତ୍ୟୁ",
      "ର</w>"
    ],
    [
      "୨",
      "୬"
    ],
    [
      "ପାରିବ",
      "ାରିକ</w>"
    ],
    [
      "ମହ",
      "ୀ"
    ],
    [
      "ନାର",
      "ାୟ"
    ],
    [
      "ଦେ",
      "ଲେ</w>"
    ],
    [
      "ଅ",
      "ନି"
    ],
    [
      "ତେ",
      "ଣ"
    ],
    [
      "କ୍ଷ",
      "ମା</w>"
    ],
    [
      "ଡ",
      "ର୍"
    ],
    [
      "ବା",
      "ପା"
    ],
    [
      "ମୁସଲ",
      "ମାନ"
    ],
    [
      "ପ୍ରଶିକ୍ଷ",
      "ଣ</w>"
    ],
    [
      "ତ୍ୟା",
      "ଗ</w>"
    ],
    [
      "ସ",
      "ଜ୍"
    ],
    [
      "ନୁ",
      "ହ"
    ],
    [
      "ସମ୍ମାନ",
      "ିତ</w>"
    ],
    [
      "ଥିଲ",
      "ି,</w>"
    ],
    [
      "ଦାୟ",
      "ୀ</w>"
    ],
    [
      "କରି",
      "ପାରି"
    ],
    [
      "ଭ",
      "ଙ୍ଗ"
    ],
    [
      "ସର୍",
      "ଭି"
    ],
    [
      "ସ୍",
      "ମ"
    ],
    [
      "ବା",
      "ଳ"
    ],
    [
      "ସନ୍ତ",
      "ାନ</w>"
    ],
    [
      "ଫିଲ୍",
      "ଡ</w>"
    ],
    [
      "ମେ",
      "ଘା"
    ],
    [
      "ରୁ",
      "ହ"
    ],
    [
      "ାର",
      "ୋ"
    ],
    [
      "ଆର",
      "ବ</w>"
    ],
    [
      "ଓଡ଼ି",
      "ଶ"
    ],
    [
      "ରହୁ",
      "ଥିବା</w>"
    ],
    [
      "ପର",
      "ସ୍ପର</w>"
    ],
    [
      "କ୍",
      "ଲେ"
    ],
    [
      "ପର",
      "ଠାରୁ</w>"
    ],
    [
      "ଦ",
      "୍</w>"
    ],
    [
      "ଗ",
      "ମ</w>"
    ],
    [
      "ଚ",
      "ା</w>"
    ],
    [
      "ମ୍ବ",
      "ର"
    ],
    [
      "ପ୍ରୋତ୍",
      "ସାହିତ</w>"
    ],
    [
      "ଖ",
      "ବର"
    ],
    [
      "କରାଯାଉ",
      "ଛି।</w>"
    ],
    [
      "ଟ",
      "ରରେ</w>"
    ],
    [
      "ସାଇକେ",
      "ଲ</w>"
    ],
    [
      ".",
      "ୟୁ"
    ],
    [
      "କାଗ",
      "ଜ</w>"
    ],
    [
      "ବିଷୟ",
      "ବସ୍ତୁ</w>"
    ],
    [
      "ଶ",
      "ର୍"
    ],
    [
      "ବନ୍ଦ",
      "ୀ</w>"
    ],
    [
      "କୃ",
      "ଷ୍ଟ</w>"
    ],
    [
      "ନୀ",
      "ରେ</w>"
    ],
    [
      "ପ",
      "ଟ"
    ],
    [
      "କ’",
      "ଣ</w>"
    ],
    [
      "କଳା",
      "କାର</w>"
    ],
    [
      "ଇ",
      "ଷ୍ଟ"
    ],
    [
      "ହେବ",
      ",</w>"
    ],
    [
      "ଫାଇନା",
      "ଲରେ</w>"
    ],
    [
      "ଗ",
      "ତିରେ</w>"
    ],
    [
      "୧୯୬",
      "୦</w>"
    ],
    [
      "ଦି",
      "ଏ।</w>"
    ],
    [
      "ୀ",
      "କରଣ</w>"
    ],
    [
      "ନିର୍",
      "ଭର"
    ],
    [
      "ଉପ",
      "ସ୍ଥିତି</w>"
    ],
    [
      "'",
      "ଦ</w>"
    ],
    [
      "ବର୍",
      "ଗରେ</w>"
    ],
    [
      "ସର",
      "ଳ</w>"
    ],
    [
      "ବ",
      "ମ୍ବ"
    ],
    [
      "ହୁଅ",
      "ନ୍ତି,</w>"
    ],
    [
      "କ",
      "ଲ"
    ],
    [
      "ବ୍ୟବସା",
      "ୟ"
    ],
    [
      "ଉ",
      "ଜ୍"
    ],
    [
      "ପ୍ରତିନି",
      "ଧି</w>"
    ],
    [
      "ପଡ଼",
      "ୋ"
    ],
    [
      "ମ",
      "ରୁ"
    ],
    [
      "ବ",
      "ଲିଉ"
    ],
    [
      "ଦୋ",
      "ଷ"
    ],
    [
      "ମହମ୍ମ",
      "ଦ</w>"
    ],
    [
      "ପ୍ରତିବ",
      "ନ୍ଧ"
    ],
    [
      "ଡ",
      ",</w>"
    ],
    [
      "କ୍ଷେତ୍ର",
      "ର</w>"
    ],
    [
      "ନ୍‌",
      "କୁ</w>"
    ],
    [
      "ଗ୍",
      "ନ</w>"
    ],
    [
      "ଶୀତ",
      "କାଳୀନ</w>"
    ],
    [
      "ପରି",
      "ଶୋଧ</w>"
    ],
    [
      "ଟେ",
      "ଡ୍</w>"
    ],
    [
      "ରାଜ",
      "ପୁ"
    ],
    [
      "ଙ୍କ",
      "ି"
    ],
    [
      "ପ",
      "ଟେ"
    ],
    [
      "ଣ",
      "ୀରେ</w>"
    ],
    [
      "ବିରୋଧ",
      "ୀ</w>"
    ],
    [
      "୫",
      "୦୦</w>"
    ],
    [
      "ଜଳ",
      "ସେ"
    ],
    [
      "ଆଧ",
      "ାର</w>"
    ],
    [
      "ଯ",
      "ତ୍ନ</w>"
    ],
    [
      "ଓ",
      "ଜନ</w>"
    ],
    [
      "ବ",
      "ାନ"
    ],
    [
      "ସ୍‌",
      "ଙ୍କ</w>"
    ],
    [
      "ାଯାଇ",
      "ଥିଲା।</w>"
    ],
    [
      "ସିରି",
      "ଜ୍</w>"
    ],
    [
      "ବି",
      "ହାର"
    ],
    [
      "୧୮",
      "୫"
    ],
    [
      "୨",
      "-"
    ],
    [
      "ସମୁ",
      "ଦାୟ</w>"
    ],
    [
      "ଏ",
      "ଥିପାଇଁ</w>"
    ],
    [
      "ଜଳ",
      "ବାୟୁ</w>"
    ],
    [
      "କାଉ",
      "ଣ୍ଟ</w>"
    ],
    [
      "ରି",
      "ୟ"
    ],
    [
      "ଫର୍",
      "ମ</w>"
    ],
    [
      "କରାଯାଇ",
      "ପାରିବ</w>"
    ],
    [
      "ୋଜ",
      "େ"
    ],
    [
      "ଖ୍ରୀଷ୍ଟି",
      "ଆନ</w>"
    ],
    [
      "ଚର୍",
      "ଚ୍ଚ</w>"
    ],
    [
      "ସ୍ୱିଡେ",
      "ନର</w>"
    ],
    [
      "କ",
      "ଲା"
    ],
    [
      "ହୋଇ",
      ",</w>"
    ],
    [
      "ପ୍ର",
      "ଚାର</w>"
    ],
    [
      "ଜ",
      "ୟ</w>"
    ],
    [
      "ଇଂଲ",
      "ଣ୍ଡ</w>"
    ],
    [
      "ନୀ",
      "ତି"
    ],
    [
      "ଗ",
      "ସ୍ତ</w>"
    ],
    [
      "ପାଶ୍ଚା",
      "ତ୍ୟ</w>"
    ],
    [
      "ମାମ",
      "ଲା</w>"
    ],
    [
      "ଅଧିକାର",
      "ୀମାନେ</w>"
    ],
    [
      "ଗ୍ର",
      "ହା"
    ],
    [
      "ଲି",
      "ଓ"
    ],
    [
      "ଗଭ",
      "ର୍ଣ୍ଣର</w>"
    ],
    [
      "ଥ",
      "ାଇ</w>"
    ],
    [
      "ପୁନରୁ",
      "ଦ୍ଧାର</w>"
    ],
    [
      "କା",
      "ମ"
    ],
    [
      "ବୈ",
      "ଠ"
    ],
    [
      "ଅ",
      "ଭାବ"
    ],
    [
      "କ୍ଷତି",
      "ଗ୍ରସ୍ତ</w>"
    ],
    [
      "ସ୍ତ",
      "ାନ</w>"
    ],
    [
      "ବା",
      "ତି"
    ],
    [
      "କରି",
      "ଥାନ୍ତି,</w>"
    ],
    [
      "ଲି",
      "ଭ"
    ],
    [
      "ବିକ୍ର",
      "େ"
    ],
    [
      "କ୍ରୀଡ଼",
      "ାରେ</w>"
    ],
    [
      "କ୍ରୀଡ଼",
      "ାର</w>"
    ],
    [
      "ଯାଆ",
      "ନ୍ତି।</w>"
    ],
    [
      "ଆଫ୍ର",
      "ିକ"
    ],
    [
      "କ",
      "ମ୍ୟୁ"
    ],
    [
      "ଦେଇ",
      "ଥିବା</w>"
    ],
    [
      "ପକ୍ଷ",
      "ୀ</w>"
    ],
    [
      "ଇଣ୍ଡି",
      "ଆ"
    ],
    [
      "କ",
      "-"
    ],
    [
      "ଆରୋହ",
      "ଣ</w>"
    ],
    [
      "ପାଇ",
      "</w>"
    ],
    [
      "ପ୍ରତି",
      "ରକ୍ଷା</w>"
    ],
    [
      "କ୍ଷ",
      "ତ</w>"
    ],
    [
      "ଅ",
      "ସୁବିଧା</w>"
    ],
    [
      "ପିନ୍ଧ",
      "ି"
    ],
    [
      "କାର",
      "ବାର</w>"
    ],
    [
      "ର",
      "ମାନେ</w>"
    ],
    [
      "ଅଷ୍ଟ୍ରେ",
      "ଲୀୟ</w>"
    ],
    [
      "ବେ",
      "ଗ</w>"
    ],
    [
      "ସୀ",
      "ମା"
    ],
    [
      "ଦୂ",
      "ରେଇ</w>"
    ],
    [
      "ରି",
      "ଂ</w>"
    ],
    [
      "୨୦୦",
      "୪</w>"
    ],
    [
      "୭",
      "ରେ,</w>"
    ],
    [
      "ଅନ୍‌",
      "ଲାଇ"
    ],
    [
      "ଗ୍ରୀଷ୍ମ",
      "କାଳୀନ</w>"
    ],
    [
      "ବା",
      "ସ୍କେ"
    ],
    [
      "ବିବାହ",
      "ିତ</w>"
    ],
    [
      "ଜ୍ୱ",
      "ର</w>"
    ],
    [
      "ଆର୍",
      "ଜେ"
    ],
    [
      "ମି",
      "ଜୋ"
    ],
    [
      "ପୁ",
      "ଣି"
    ],
    [
      "ଇତିହା",
      "ସରେ</w>"
    ],
    [
      "ଉଦ୍ଦ",
      "ି"
    ],
    [
      "ସୁଲତ",
      "ାନ</w>"
    ],
    [
      "ଏ",
      "କା</w>"
    ],
    [
      "ାହ",
      "ାର</w>"
    ],
    [
      "ହ",
      "ତ</w>"
    ],
    [
      "ଟ",
      "ାଇ</w>"
    ],
    [
      "‌",
      "ର</w>"
    ],
    [
      "ସ୍ୱା",
      "ମୀ</w>"
    ],
    [
      "ପୁ",
      "ଲ"
    ],
    [
      "୨",
      "୮</w>"
    ],
    [
      "ମ୍ୟୁ",
      "ଜ"
    ],
    [
      "କ",
      "ଣ୍ଠ"
    ],
    [
      "ସ୍",
      "ମୃ"
    ],
    [
      "ବୃହ",
      "ତ</w>"
    ],
    [
      "ପରି",
      "ଚୟ</w>"
    ],
    [
      "ପ୍ର",
      "ଚଳ"
    ],
    [
      "କିମ୍ବଦନ୍ତ",
      "ୀ</w>"
    ],
    [
      "ଦାୟ",
      "କ</w>"
    ],
    [
      "ମ୍ୟାନ",
      "୍</w>"
    ],
    [
      "ମ",
      "କ</w>"
    ],
    [
      "୨",
      "୯</w>"
    ],
    [
      "ପୁରୁଷ",
      "ଙ୍କ</w>"
    ],
    [
      "ଆ",
      "ସି</w>"
    ],
    [
      "ରୋଗ",
      "ୀଙ୍କ</w>"
    ],
    [
      "ଏ",
      "ଲ୍‌"
    ],
    [
      "ଉଦ୍ଭି",
      "ଦ</w>"
    ],
    [
      "ଗର",
      "ମ</w>"
    ],
    [
      "ସ",
      "ନ୍ନ"
    ],
    [
      "କୋର୍",
      "ଟ</w>"
    ],
    [
      "ଫି",
      "ଙ୍ଗ"
    ],
    [
      "ପ୍ର",
      "ଦ</w>"
    ],
    [
      "୨",
      "୪"
    ],
    [
      "ାଯାଇ",
      "ଥିଲା</w>"
    ],
    [
      "ବି",
      "ଦ୍ୱ"
    ],
    [
      "ର",
      "ାର</w>"
    ],
    [
      "ଗାୟ",
      "କ</w>"
    ],
    [
      "ମିଶ୍ର",
      "ିତ</w>"
    ],
    [
      "କ",
      "ଠ"
    ],
    [
      "ଆ",
      "ଠ"
    ],
    [
      "ଇ",
      "ରା"
    ],
    [
      "ନ୍ୟୁ",
      "ଜି"
    ],
    [
      "ଏ",
      "ଲି"
    ],
    [
      "ବୈଦ",
      "ିକ</w>"
    ],
    [
      "ସା",
      "ୟ"
    ],
    [
      "ଶୈଳ",
      "ୀରେ</w>"
    ],
    [
      "ଗ",
      "ଙ୍ଗା</w>"
    ],
    [
      "ସଂରକ୍ଷ",
      "ଣ</w>"
    ],
    [
      "ବ୍",
      "ଲିକ"
    ],
    [
      "ଲି",
      "ଗ୍"
    ],
    [
      "ଶରୀ",
      "ରର</w>"
    ],
    [
      "ଖେଳ",
      "ାଯ"
    ],
    [
      "ମାର୍",
      "କେ"
    ],
    [
      "ଆସୋସି",
      "ଏ"
    ],
    [
      "ସ୍",
      "‍‌</w>"
    ],
    [
      "ବା",
      "ଦା"
    ],
    [
      "ଡ଼ି",
      "ଆ</w>"
    ],
    [
      "ଚୀ",
      "ନା</w>"
    ],
    [
      "ପୁଣି",
      "ଥରେ</w>"
    ],
    [
      "କରିବ",
      "ା,</w>"
    ],
    [
      "ବିବେ",
      "ଚିତ</w>"
    ],
    [
      "ଚେ",
      "ସ୍</w>"
    ],
    [
      "ଶ୍ରୀ",
      "ଲ"
    ],
    [
      "ଜାପ",
      "ାନୀ</w>"
    ],
    [
      "ସଂ",
      "ଗ୍ରହା"
    ],
    [
      "ପ୍ର",
      "ଫେ"
    ],
    [
      "ପ୍ରତି",
      "ରୋଧ</w>"
    ],
    [
      "ରି",
      "ଷ୍ଠ</w>"
    ],
    [
      "ମା",
      "ଆ</w>"
    ],
    [
      "ଦେ",
      "ହା"
    ],
    [
      "ମୁ",
      "ହା"
    ],
    [
      "ଦ",
      "ମ୍ପ"
    ],
    [
      "ଆଇନ",
      "ଗତ</w>"
    ],
    [
      "୧",
      "ରୁ</w>"
    ],
    [
      "ଉଦ",
      "୍‌"
    ],
    [
      "ସଙ୍ଗୀ",
      "ତର</w>"
    ],
    [
      ".",
      ",</w>"
    ],
    [
      "ଲେ",
      "ଟ୍</w>"
    ],
    [
      "ନି",
      "କୋ"
    ],
    [
      "ଅଟ",
      "ନ୍ତି।</w>"
    ],
    [
      "ଉପ",
      "ବାସ</w>"
    ],
    [
      "କି",
      ",</w>"
    ],
    [
      "ବଦ",
      "ଳରେ</w>"
    ],
    [
      "ଅନ୍ୟ",
      "ମାନଙ୍କ</w>"
    ],
    [
      "ଅଭିବ",
      "ୃ"
    ],
    [
      "ପ୍ରି",
      "ୟ</w>"
    ],
    [
      "ି",
      "ତ,</w>"
    ],
    [
      "ର",
      "ାନ"
    ],
    [
      "ଉତ୍ତର-",
      "ପଶ୍ଚିମ</w>"
    ],
    [
      "୍‌",
      "କୁ</w>"
    ],
    [
      "ମହିଳା",
      "ମାନେ</w>"
    ],
    [
      "ସୋ",
      "ମ"
    ],
    [
      ".ଏସ୍‌",
      ".</w>"
    ],
    [
      "କ",
      "ାରେ</w>"
    ],
    [
      "ଫ",
      "ଟୋ</w>"
    ],
    [
      "କହ",
      "ନ୍ତି</w>"
    ],
    [
      "ଭୟ",
      "ଙ୍କର</w>"
    ],
    [
      "ଟ",
      "ର୍</w>"
    ],
    [
      "ଚାହା",
      "ଁ"
    ],
    [
      "କ୍ଷ",
      "ୟ</w>"
    ],
    [
      "ଲ",
      "ାରେ</w>"
    ],
    [
      "ଚାକି",
      "ରି</w>"
    ],
    [
      "ରହି",
      "ଥାଏ,</w>"
    ],
    [
      "ବ",
      "ନ୍ୟ"
    ],
    [
      "ଡ",
      "ଲାର</w>"
    ],
    [
      "କା",
      "ଲି</w>"
    ],
    [
      ")",
      "ରେ</w>"
    ],
    [
      "ହାଇ",
      "ଦ୍ରା"
    ],
    [
      "ଅର୍",
      "ଦ୍ଧ"
    ],
    [
      "ଆଫଗ",
      "ାନି"
    ],
    [
      "ଜେନେ",
      "ରାଲ</w>"
    ],
    [
      "ଛ",
      "ନ୍ତି"
    ],
    [
      "ଆନ୍ତ",
      "ଃ"
    ],
    [
      "ସ",
      "ରୁ</w>"
    ],
    [
      "ମାନ",
      "େ,</w>"
    ],
    [
      "ବର୍ତ୍ତ",
      "ନ</w>"
    ],
    [
      "ଜାନୁ",
      "ଆର"
    ],
    [
      "ପ୍ରତିଷ୍ଠ",
      "ା"
    ],
    [
      "ସୁପାରି",
      "ଶ</w>"
    ],
    [
      "ଗ୍ରା",
      "ମରେ</w>"
    ],
    [
      "ର",
      "ନ୍ଧ"
    ],
    [
      "ଚିନ୍ତ",
      "ା"
    ],
    [
      "କଥା",
      "ବାର୍ତ୍ତା</w>"
    ],
    [
      "ନିଜ",
      "ସ୍ୱ</w>"
    ],
    [
      "ବିଶ",
      "୍"
    ],
    [
      "ଦେଇ",
      "ଛନ୍ତି</w>"
    ],
    [
      "ଜଟି",
      "ଳ</w>"
    ],
    [
      "ଣ୍ଡ",
      "ର"
    ],
    [
      "ସମୁ",
      "ଦ୍ର"
    ],
    [
      "ଯୋ",
      "ଡ଼ି</w>"
    ],
    [
      "ରିଲି",
      "ଜ୍‌</w>"
    ],
    [
      "ଜ",
      "ୋ</w>"
    ],
    [
      "ପେ",
      "ଶା"
    ],
    [
      "ଫ",
      "୍ୟା"
    ],
    [
      "ମାଇ",
      "ଲ</w>"
    ],
    [
      "ଡି",
      "ଜି"
    ],
    [
      "୍",
      "ଯ"
    ],
    [
      "ସ୍ୱି",
      "ଡ଼େ"
    ],
    [
      "ମହୀ",
      "ଶୂ"
    ],
    [
      "ବର୍",
      "ଗର</w>"
    ],
    [
      "ସମ୍ମି",
      "ଳ"
    ],
    [
      "ସେ",
      "ଥିପାଇଁ</w>"
    ],
    [
      "ନିୟନ୍ତ୍ର",
      "ିତ</w>"
    ],
    [
      "ଭି",
      "ତ୍ତି"
    ],
    [
      "ହରି",
      "ୟା"
    ],
    [
      "ପରି",
      "ଦର୍ଶନ</w>"
    ],
    [
      "ରହ",
      "ିବାକୁ</w>"
    ],
    [
      "ସି",
      "ର</w>"
    ],
    [
      "ଯୁ",
      "କ୍ତି"
    ],
    [
      "୧୯୫",
      "୦</w>"
    ],
    [
      "୩",
      ","
    ],
    [
      "ଏ",
      "ସ୍‌"
    ],
    [
      "ପାର୍",
      "ଟି</w>"
    ],
    [
      "ଠ",
      "ାରୁ,</w>"
    ],
    [
      "୬",
      "ଟି</w>"
    ],
    [
      "ଶ",
      "ରୀର</w>"
    ],
    [
      "ୁ",
      "ରେ</w>"
    ],
    [
      "ରିଲି",
      "ଜ</w>"
    ],
    [
      "କରାଯାଇ",
      "ଥାଏ,</w>"
    ],
    [
      "ବ୍ୟା",
      "ଣ୍ଡ</w>"
    ],
    [
      "ଗ୍ରୁ",
      "ପ୍</w>"
    ],
    [
      "ପୋଲି",
      "ସ୍</w>"
    ],
    [
      "ସଙ୍ଗଠ",
      "ନ</w>"
    ],
    [
      "ଜ୍",
      "‍‌"
    ],
    [
      "ବିଜ୍ଞ",
      "ାପ"
    ],
    [
      "ଆଣ",
      "ିବା</w>"
    ],
    [
      "ସମ୍",
      "ଭା"
    ],
    [
      "ମୁକାବି",
      "ଲା</w>"
    ],
    [
      "ସମ୍ମୁ",
      "ଖରେ</w>"
    ],
    [
      "ହ",
      "ର</w>"
    ],
    [
      "ଖ",
      "ସି</w>"
    ],
    [
      "ଇ",
      "ତି"
    ],
    [
      "ମହିଳା",
      "ମାନଙ୍କ</w>"
    ],
    [
      "ଇ",
      "ହୁ"
    ],
    [
      "ଖ",
      "ର</w>"
    ],
    [
      "ଲ",
      "ିକ୍</w>"
    ],
    [
      "ଦକ୍ଷିଣ-",
      "ପୂର୍ବ</w>"
    ],
    [
      "ଡ",
      "ୋ</w>"
    ],
    [
      "ନ",
      "ଥାଏ।</w>"
    ],
    [
      "ଫିଲ୍ମ",
      "ଫେ"
    ],
    [
      "୧୯୯",
      "୯</w>"
    ],
    [
      "ମାର୍",
      "ଗ"
    ],
    [
      "ଭ",
      "ୟ</w>"
    ],
    [
      "ମ",
      "ନ୍ତ"
    ],
    [
      "ମାତ୍ର",
      ",</w>"
    ],
    [
      "ତି",
      "ରେ,</w>"
    ],
    [
      "ଅ",
      "ଶ୍ୱ"
    ],
    [
      "ପା",
      "ତ୍ର</w>"
    ],
    [
      "ଔରଙ୍ଗ",
      "ଜେ"
    ],
    [
      "ଜ",
      "ାହ"
    ],
    [
      "ଷ୍ଟ",
      "ାର"
    ],
    [
      "ଅହ",
      "ମ୍ମ"
    ],
    [
      "ଣ୍ଟ",
      "ନ</w>"
    ],
    [
      "ଉ",
      "ଦ୍ଧାର</w>"
    ],
    [
      "ସ",
      "ରରେ</w>"
    ],
    [
      "ଏ",
      "ଚ୍"
    ],
    [
      "ଶୁ",
      "ଳ୍"
    ],
    [
      "ପ୍ରଶ୍",
      "ନ</w>"
    ],
    [
      "ଶ୍ୱ",
      "ର</w>"
    ],
    [
      "ୱି",
      "ଲିୟ"
    ],
    [
      "କ",
      "ର୍ଣ୍ଣ"
    ],
    [
      "ଛା",
      "ଡ଼ି"
    ],
    [
      "ବ",
      "ଲ"
    ],
    [
      "ଆସି",
      "ଥିଲା।</w>"
    ],
    [
      "ନ୍ୟା",
      "ସ</w>"
    ],
    [
      "ଆଡ଼",
      "କୁ</w>"
    ],
    [
      "ସ୍ଥ",
      "ଳରେ</w>"
    ],
    [
      "ସୂ",
      "ର୍ଯ୍ୟ"
    ],
    [
      "ଆଚ",
      "ରଣ</w>"
    ],
    [
      "ନ",
      "।</w>"
    ],
    [
      "ଣ୍",
      "ଢ"
    ],
    [
      ",୦୦",
      "୦ରୁ</w>"
    ],
    [
      "କୃଷ୍",
      "ଣ</w>"
    ],
    [
      "ପାହା",
      "ଡ଼</w>"
    ],
    [
      "ରୋ",
      "ଷ"
    ],
    [
      "ଟା",
      "ଲ</w>"
    ],
    [
      "ଦ୍ୱୀପ",
      "ପୁଞ୍ଜ"
    ],
    [
      "୨୦୦",
      "୩</w>"
    ],
    [
      "ଆ",
      "ଥ"
    ],
    [
      "ମା",
      "ଛ</w>"
    ],
    [
      "ଲା",
      "କ୍ରୋ"
    ],
    [
      "ଲେଖି",
      "ଥିଲେ</w>"
    ],
    [
      "କାର",
      ",</w>"
    ],
    [
      "ଟେ",
      "ବୁ"
    ],
    [
      "ୟ",
      "ରୁ</w>"
    ],
    [
      "ଗ",
      "ଲେ</w>"
    ],
    [
      "ପରିବର୍ତ୍ତ",
      "େ,</w>"
    ],
    [
      "ବଢ଼",
      "ି"
    ],
    [
      "ଇ",
      "ଷ୍ଟ</w>"
    ],
    [
      "୩",
      "୧</w>"
    ],
    [
      "ଚିନ୍ତ",
      "ିତ</w>"
    ],
    [
      "ପର",
      "ସ୍ପର"
    ],
    [
      "ସାଥ",
      "ୀ</w>"
    ],
    [
      "୨",
      "ରେ,</w>"
    ],
    [
      "୧",
      "ଟି</w>"
    ],
    [
      "ମାଲ",
      "ିକ</w>"
    ],
    [
      "ନ",
      "ଥିଲା,</w>"
    ],
    [
      "ଲଣ୍ଡ",
      "ନ</w>"
    ],
    [
      "ପରିଷ",
      "ଦ</w>"
    ],
    [
      "ବୃ",
      "ଦ୍ଧ"
    ],
    [
      "ନିଷ",
      "େ"
    ],
    [
      "\"",
      ",</w>"
    ],
    [
      "ଭ",
      "ିକ୍"
    ],
    [
      "ସ",
      "ଫା</w>"
    ],
    [
      "କ୍ରିୟ",
      "ାରେ</w>"
    ],
    [
      "ରିପ",
      "ବ୍ଲିକ"
    ],
    [
      "ଆ",
      "କୁ</w>"
    ],
    [
      "ର",
      "।</w>"
    ],
    [
      "ସ୍ନା",
      "ୟୁ"
    ],
    [
      "ଣ୍ଟ",
      "ା"
    ],
    [
      "ପାଇ",
      "ଛି।</w>"
    ],
    [
      "ଜୀବା",
      "ଣୁ</w>"
    ],
    [
      "ବ୍ୟା",
      "କ୍"
    ],
    [
      "ଆର୍ଜେ",
      "ଣ୍ଟି"
    ],
    [
      "ର",
      "ବିବ"
    ],
    [
      "ଡି",
      "ପାର୍ଟ"
    ],
    [
      "ୱାର୍",
      "ଲ୍ଡ</w>"
    ],
    [
      "ଧ",
      "ୀନ</w>"
    ],
    [
      "ଭାରତ",
      "କୁ</w>"
    ],
    [
      "ସେ",
      "ନାର</w>"
    ],
    [
      "ପ୍ରକ",
      "ଳ୍ପ"
    ],
    [
      "ଙ୍ଗ",
      "ର</w>"
    ],
    [
      "କା",
      "ଠ</w>"
    ],
    [
      "ରୂପା",
      "ନ୍ତ"
    ],
    [
      "ବର୍",
      "ଦ୍ଧ"
    ],
    [
      "ଭଉ",
      "ଣୀ</w>"
    ],
    [
      "ମିଳି",
      "ଥିବା</w>"
    ],
    [
      "ତୁଳ",
      "ନା</w>"
    ],
    [
      "ବୋ",
      "ଧ"
    ],
    [
      "ସଡ଼",
      "କ</w>"
    ],
    [
      "ସ୍ୱ",
      "ୟଂ"
    ],
    [
      "ଙ୍ଗ",
      "ଲ</w>"
    ],
    [
      "ତ୍ର",
      "ିକୋଣ"
    ],
    [
      "ପ୍ରମାଣ",
      "ିତ</w>"
    ],
    [
      "ସାତ",
      "ଟି</w>"
    ],
    [
      "ଜାହା",
      "ଜ</w>"
    ],
    [
      "ସ",
      "କାରାତ୍ମକ</w>"
    ],
    [
      "ବା",
      "ଉ"
    ],
    [
      "ଦୈ",
      "ନିକ</w>"
    ],
    [
      "କାର",
      "ୋ"
    ],
    [
      "ଚେ",
      "କ୍</w>"
    ],
    [
      "କ୍ଲବ",
      "୍‌</w>"
    ],
    [
      "ପ୍ରଶ",
      "ଂସ"
    ],
    [
      "ପରିଣା",
      "ମ</w>"
    ],
    [
      "ଯୁଦ୍ଧ",
      "ର</w>"
    ],
    [
      "ପଞ୍ଚ",
      "ମ</w>"
    ],
    [
      "ଅବ",
      "ରୋଧ</w>"
    ],
    [
      "ଶୀ",
      "ର୍ଷ</w>"
    ],
    [
      "ଇ",
      "ସ୍ତ"
    ],
    [
      "ପତ୍",
      "ନୀ"
    ],
    [
      "ଣା",
      "ତ୍ମକ</w>"
    ],
    [
      "ଟି",
      "ପ"
    ],
    [
      "ଭାବ",
      "ୁ"
    ],
    [
      "ବିନିମ",
      "ୟ</w>"
    ],
    [
      "ନ",
      "ଜର</w>"
    ],
    [
      "ସ୍ଥାପ",
      "ତ୍ୟ</w>"
    ],
    [
      "୧",
      "-"
    ],
    [
      "ସ୍ଵ",
      "ା"
    ],
    [
      "ରି",
      "ହାତି</w>"
    ],
    [
      "ଆଲବ",
      "ମ୍</w>"
    ],
    [
      "ରା",
      ",</w>"
    ],
    [
      "ମେ",
      "ଟ୍ର"
    ],
    [
      "ତି",
      "ରୁ"
    ],
    [
      "ସ୍",
      "ନାୟ"
    ],
    [
      "ଏ",
      "ପି"
    ],
    [
      "ପାର୍ଥ",
      "କ୍ୟ</w>"
    ],
    [
      "ନା",
      "ଲ୍</w>"
    ],
    [
      "ଆ",
      "କାଉଣ୍ଟ</w>"
    ],
    [
      "ଫ୍ଲୋ",
      "ରି"
    ],
    [
      "ଲ୍",
      "ଟି</w>"
    ],
    [
      "ାୟ",
      "ୋ"
    ],
    [
      "ଅନ୍ୟ",
      "ମାନେ</w>"
    ],
    [
      "ପ",
      "ଲି"
    ],
    [
      "ନ୍",
      "ଥ"
    ],
    [
      "ଅ",
      "ଥ"
    ],
    [
      "ହା",
      "ସନ</w>"
    ],
    [
      "ଉପ",
      "ସ୍ଥାପନ</w>"
    ],
    [
      "ତେଣ",
      "ୁ,</w>"
    ],
    [
      "ସମା",
      "ଲୋଚନା</w>"
    ],
    [
      "ପ",
      "ାହ"
    ],
    [
      "ଟ୍‌",
      "କୁ</w>"
    ],
    [
      "ଦ",
      "ୃଷ୍ଟି</w>"
    ],
    [
      "'",
      "ଙ୍କ</w>"
    ],
    [
      "ଉନ୍",
      "ମୋ"
    ],
    [
      "ଦେହା",
      "ନ୍ତ</w>"
    ],
    [
      "ଆ",
      "ନ୍ତି,</w>"
    ],
    [
      "ଆ",
      "ଗ୍ରହ</w>"
    ],
    [
      "ବନ୍ଧ",
      "</w>"
    ],
    [
      "ଦା",
      "କ୍ଷି"
    ],
    [
      "ଦାକ୍ଷି",
      "ଣା"
    ],
    [
      "ସିନ୍ଧ",
      "ୁ</w>"
    ],
    [
      "ଚେନ୍ନ",
      "ାଇ"
    ],
    [
      "ଛି",
      ";</w>"
    ],
    [
      "କ୍",
      "ଟ</w>"
    ],
    [
      "ଡାହା",
      "ଣ</w>"
    ]
  ],
  "vocab_size": 5000,
  "num_merges": 5000,
  "actual_merges": 5000,
  "special_tokens": [
    "<unk>",
    "<pad>",
    "<sos>",
    "<eos>"
  ]
}