{
  "merges": [
    [
      "ੇ",
      "</w>"
    ],
    [
      "ੀ",
      "</w>"
    ],
    [
      "ਂ",
      "</w>"
    ],
    [
      "ਾ",
      "</w>"
    ],
    [
      "।",
      "</w>"
    ],
    [
      "ਰ",
      "</w>"
    ],
    [
      "ਵ",
      "ਿ"
    ],
    [
      "ਾ",
      "ਂ</w>"
    ],
    [
      "ਨ",
      "</w>"
    ],
    [
      "ਦ",
      "ੇ</w>"
    ],
    [
      "ਸ",
      "਼"
    ],
    [
      "ੱ",
      "ਚ"
    ],
    [
      "ਹ",
      "ੈ"
    ],
    [
      "ਤ",
      "ੇ</w>"
    ],
    [
      "ਵਿ",
      "ੱਚ"
    ],
    [
      ",",
      "</w>"
    ],
    [
      "ਕ",
      "</w>"
    ],
    [
      "ਲ",
      "</w>"
    ],
    [
      "ਦ",
      "ੀ</w>"
    ],
    [
      "ਵਿੱਚ",
      "</w>"
    ],
    [
      "ਦ",
      "ਾ</w>"
    ],
    [
      "ਸ",
      "</w>"
    ],
    [
      "ਾ",
      "ਰ"
    ],
    [
      "ਿ",
      "ਆ"
    ],
    [
      "ੂ",
      "ੰ"
    ],
    [
      "ਤ",
      "</w>"
    ],
    [
      "ਨ",
      "ੂੰ"
    ],
    [
      "ਨੂੰ",
      "</w>"
    ],
    [
      "ਅ",
      "ਤੇ</w>"
    ],
    [
      "ੋ",
      "ਂ</w>"
    ],
    [
      "ਈ",
      "</w>"
    ],
    [
      "ਹੈ",
      "।</w>"
    ],
    [
      "ਰ",
      "ਾ"
    ],
    [
      "ੀ",
      "ਆ"
    ],
    [
      "ਕ",
      "ਿ"
    ],
    [
      "ੱ",
      "ਕ</w>"
    ],
    [
      "ਕ",
      "ਰ"
    ],
    [
      "ਨ",
      "ਾ"
    ],
    [
      "ਮ",
      "</w>"
    ],
    [
      "ਹ",
      "</w>"
    ],
    [
      "ਜ",
      "਼"
    ],
    [
      "ਸ",
      "ੀ"
    ],
    [
      "ਵ",
      "ਾ"
    ],
    [
      "ਹ",
      "ੋ"
    ],
    [
      "ਇ",
      "ੱਕ</w>"
    ],
    [
      "ਤ",
      "ੋਂ</w>"
    ],
    [
      "ਣ",
      "</w>"
    ],
    [
      "ਕ",
      "ੀ"
    ],
    [
      "ਾ",
      "ਂ"
    ],
    [
      "ੀਆ",
      "ਂ</w>"
    ],
    [
      "ਹ",
      "ਿ"
    ],
    [
      "ਨ",
      "ੇ</w>"
    ],
    [
      "ਿਆ",
      "</w>"
    ],
    [
      "ਹ",
      "ਨ"
    ],
    [
      "ਕੀ",
      "ਤ"
    ],
    [
      "ਟ",
      "</w>"
    ],
    [
      "ਹ",
      "ਾ"
    ],
    [
      "ਹ",
      "ੁ"
    ],
    [
      "ਿ",
      "ੱ"
    ],
    [
      "ਲ",
      "ਈ</w>"
    ],
    [
      "ਕ",
      "ਾ"
    ],
    [
      "ਲ",
      "ਾ"
    ],
    [
      "ਬ",
      "ਾ"
    ],
    [
      "ੋ",
      "</w>"
    ],
    [
      "ਸ",
      "ਾ"
    ],
    [
      "ੰ",
      "ਗ"
    ],
    [
      "ੁ",
      "ੱ"
    ],
    [
      "ਦ",
      "</w>"
    ],
    [
      "ਇ",
      "ਸ</w>"
    ],
    [
      "ਕਿ",
      "</w>"
    ],
    [
      "ਮ",
      "ਾ"
    ],
    [
      "ਨਾ",
      "ਲ</w>"
    ],
    [
      "ਸੀ",
      "।</w>"
    ],
    [
      "ਹੈ",
      "</w>"
    ],
    [
      "੍",
      "ਹ"
    ],
    [
      "ਇ",
      "ਹ</w>"
    ],
    [
      "ਤ",
      "ੀ</w>"
    ],
    [
      "ਹਨ",
      "।</w>"
    ],
    [
      "ਜ",
      "ਿ"
    ],
    [
      "ਰ",
      "ੀ</w>"
    ],
    [
      "ਡ",
      "</w>"
    ],
    [
      "ਜ",
      "ਾਂ"
    ],
    [
      "ਨ",
      "ਿ"
    ],
    [
      "ਸ",
      "ਕ"
    ],
    [
      "ਿ",
      "ਲ"
    ],
    [
      "ਜ",
      "</w>"
    ],
    [
      "ਵ",
      "ੇ"
    ],
    [
      "ਆ",
      "ਪ"
    ],
    [
      "ੈ",
      "ਂ"
    ],
    [
      "ਰ",
      "ਿ"
    ],
    [
      "ਤ",
      "ਾ</w>"
    ],
    [
      "ਸ",
      "ੰ"
    ],
    [
      "'",
      "ਤੇ</w>"
    ],
    [
      "ਰ",
      "ਾ</w>"
    ],
    [
      "ਹ",
      "ੀ"
    ],
    [
      "ਵ",
      "ਰ"
    ],
    [
      "ਸ",
      "ਮ"
    ],
    [
      "ਵ",
      "ੱ"
    ],
    [
      "ਸ",
      "ਿ"
    ],
    [
      "ਕ",
      "ਾਰ"
    ],
    [
      "ਤ",
      "ਾ"
    ],
    [
      "ਹੁ",
      "ੰ"
    ],
    [
      "ਲ",
      "ੇ</w>"
    ],
    [
      "ੇ",
      "ਸ਼"
    ],
    [
      "ਦ",
      "ਾ"
    ],
    [
      "ਲ",
      "ੀ</w>"
    ],
    [
      "੍ਹ",
      "ਾਂ</w>"
    ],
    [
      "ਆਪ",
      "ਣ"
    ],
    [
      "ਨ",
      "ਾ</w>"
    ],
    [
      "ਰ",
      "ੀ"
    ],
    [
      "ਪ",
      "ਾ"
    ],
    [
      "ਵ",
      "ੀ</w>"
    ],
    [
      "ੂ",
      "</w>"
    ],
    [
      "ਜ",
      "ਾ"
    ],
    [
      "ਤ",
      "ੁ"
    ],
    [
      "ਸ਼",
      "ਾ"
    ],
    [
      "ਦ",
      "ੁ"
    ],
    [
      "ਕ",
      "ੋ"
    ],
    [
      "ਉ",
      "ਸ</w>"
    ],
    [
      "ਗ",
      "ਿਆ</w>"
    ],
    [
      "ਮ",
      "ੈ"
    ],
    [
      "ਸ",
      "ਟ"
    ],
    [
      "2",
      "0"
    ],
    [
      "ਕਰ",
      "ਨ</w>"
    ],
    [
      "ਲ",
      "ੋ"
    ],
    [
      "ਦ",
      "ੀਆਂ</w>"
    ],
    [
      "ਗ",
      "</w>"
    ],
    [
      "ਹੈ",
      ",</w>"
    ],
    [
      "ਇ",
      "ਆ"
    ],
    [
      "ਜ",
      "ੋ</w>"
    ],
    [
      "ਧ",
      "</w>"
    ],
    [
      "ਕ",
      "ਰ</w>"
    ],
    [
      "ਉ",
      "ਹ</w>"
    ],
    [
      "ਨ",
      "੍ਹਾਂ</w>"
    ],
    [
      "ਕੀਤ",
      "ਾ</w>"
    ],
    [
      "ਦ",
      "ਿੱ"
    ],
    [
      "ੁ",
      "ਰ"
    ],
    [
      "ਨ",
      "ੀ</w>"
    ],
    [
      "ਮ",
      "ਿ"
    ],
    [
      "ਭ",
      "ਾ"
    ],
    [
      "ਖ",
      "ੇ"
    ],
    [
      "ਉ",
      "ੱ"
    ],
    [
      "ਜਾਂ",
      "ਦਾ</w>"
    ],
    [
      "ਦ",
      "ਿ"
    ],
    [
      "ਿਆ",
      "ਂ</w>"
    ],
    [
      "ਤ",
      "ਰ</w>"
    ],
    [
      "ਏ",
      "</w>"
    ],
    [
      "ਹੋ",
      "</w>"
    ],
    [
      "ਜ",
      "ਾਂ</w>"
    ],
    [
      "ਹੀ",
      "ਂ</w>"
    ],
    [
      "ਰ",
      "ੋ"
    ],
    [
      "ਤ",
      "ਾਂ</w>"
    ],
    [
      "ਸ",
      "ਥ"
    ],
    [
      "ਸ",
      "ੀ</w>"
    ],
    [
      "ੱ",
      "ਖ"
    ],
    [
      "0",
      "</w>"
    ],
    [
      "ਲ",
      "ਾ</w>"
    ],
    [
      "1",
      "9"
    ],
    [
      "ੂ",
      "ਰ"
    ],
    [
      "ਤ",
      "ਰ"
    ],
    [
      "ਨ",
      "ਹੀਂ</w>"
    ],
    [
      "ਇਆ",
      "</w>"
    ],
    [
      "ਦ",
      "ਰ"
    ],
    [
      "ਲ",
      "ਿ"
    ],
    [
      "ਚ",
      "ਾ"
    ],
    [
      "ਮ",
      "ੁ"
    ],
    [
      "ਪ",
      "ਹਿ"
    ],
    [
      "ਜ਼",
      "</w>"
    ],
    [
      "ਰ",
      "ੇ"
    ],
    [
      "ਦੁ",
      "ਆ"
    ],
    [
      "ਭ",
      "ਾਰ"
    ],
    [
      "ਕ",
      "ੇ</w>"
    ],
    [
      "ਕ",
      "ੰ"
    ],
    [
      "ਪ",
      "</w>"
    ],
    [
      "ਵ",
      "ਾਂ</w>"
    ],
    [
      "ਤ",
      "ੀ"
    ],
    [
      "ੀਆ",
      "</w>"
    ],
    [
      "ਬ",
      "ਣ"
    ],
    [
      "ਖ",
      "</w>"
    ],
    [
      ".",
      "</w>"
    ],
    [
      "ਦ",
      "ੇ"
    ],
    [
      "ਸ਼",
      "</w>"
    ],
    [
      "ਗ",
      "ਾ"
    ],
    [
      "ੰਗ",
      "</w>"
    ],
    [
      "ਸ",
      "ਨ"
    ],
    [
      "ਉ",
      "ਂ"
    ],
    [
      "ਦੁਆ",
      "ਰਾ</w>"
    ],
    [
      "ਟ",
      "ੀ"
    ],
    [
      "ਲ",
      "ੀ"
    ],
    [
      "ਆਪਣ",
      "ੇ</w>"
    ],
    [
      "ਜਿ",
      "ਸ</w>"
    ],
    [
      "ੱ",
      "ਸ"
    ],
    [
      "ਬਾ",
      "ਅ"
    ],
    [
      "ਕ",
      "ੁ"
    ],
    [
      "ਮ",
      "ੀ"
    ],
    [
      "ਕਾ",
      "ਰ</w>"
    ],
    [
      "ਉ",
      "ਨ੍ਹਾਂ</w>"
    ],
    [
      "ਚ",
      "</w>"
    ],
    [
      "ਹ",
      "ਾ</w>"
    ],
    [
      "ੌ",
      "ਰ</w>"
    ],
    [
      "ਬ",
      "ਹੁ"
    ],
    [
      "ਰਾ",
      "ਜ</w>"
    ],
    [
      "ਦ",
      "ੋਂ</w>"
    ],
    [
      "ਕੀਤ",
      "ੀ</w>"
    ],
    [
      "ਅ",
      "ੰ"
    ],
    [
      "ਾਰ",
      "ੀ</w>"
    ],
    [
      "ਵ",
      "ੀ"
    ],
    [
      "ਲ",
      "ਾਂ</w>"
    ],
    [
      "ਾਰ",
      "ੇ</w>"
    ],
    [
      "ਣ",
      "ਾ</w>"
    ],
    [
      "ਪ",
      "ਿ"
    ],
    [
      "ਟ",
      "ਿ"
    ],
    [
      "ਹ",
      "ੀ</w>"
    ],
    [
      "ਭ",
      "</w>"
    ],
    [
      "ਵ",
      "</w>"
    ],
    [
      "ਬਹੁ",
      "ਤ</w>"
    ],
    [
      "ਜ",
      "ੇ</w>"
    ],
    [
      "ਤ",
      "ੌਰ</w>"
    ],
    [
      "ਟ",
      "ੀ</w>"
    ],
    [
      "ਹ",
      "ਨ</w>"
    ],
    [
      "ਕ",
      "ਾ</w>"
    ],
    [
      "ਨ",
      "ੀ"
    ],
    [
      "ਪ",
      "ੁ"
    ],
    [
      "ਕ",
      "ਾਂ</w>"
    ],
    [
      "ਫ",
      "਼"
    ],
    [
      "ਮ",
      "ੇ"
    ],
    [
      "ਨ",
      "ਾਂ</w>"
    ],
    [
      "ਤ",
      "ਿ"
    ],
    [
      "ਮ",
      "ੰ"
    ],
    [
      "ਵਿੱਚ",
      ",</w>"
    ],
    [
      "ਸ",
      "ਰ"
    ],
    [
      "ਤ",
      "ੱਕ</w>"
    ],
    [
      "ਜ",
      "ਦੋਂ</w>"
    ],
    [
      "ਜ",
      "ਾ</w>"
    ],
    [
      "ਬ",
      "</w>"
    ],
    [
      "ਸੀ",
      "ਂ</w>"
    ],
    [
      "ਲ",
      "ੇ"
    ],
    [
      "ਪ",
      "ੈ"
    ],
    [
      "ਡ",
      "ੀ"
    ],
    [
      "ਕ",
      "ੇ"
    ],
    [
      "ਟ",
      "ਰ</w>"
    ],
    [
      "ਬ",
      "ਿ"
    ],
    [
      "ਿ",
      "ਤ</w>"
    ],
    [
      "ਉੱ",
      "ਤੇ</w>"
    ],
    [
      "ਿਆ",
      "।</w>"
    ],
    [
      "ਝ",
      "</w>"
    ],
    [
      "ਸਥ",
      "ਾ"
    ],
    [
      "ਸ",
      "ੁ"
    ],
    [
      "ਵੇ",
      "ਂ</w>"
    ],
    [
      "ਤੁ",
      "ਹਾ"
    ],
    [
      "ਮ",
      "ੌ"
    ],
    [
      "ਦ",
      "ੇਸ਼"
    ],
    [
      "ਬਾਅ",
      "ਦ</w>"
    ],
    [
      "ਨ",
      "ੇ"
    ],
    [
      "ਕ",
      "ੀ</w>"
    ],
    [
      "ਯ",
      "ੋ"
    ],
    [
      "ਟ",
      "ਾ"
    ],
    [
      "ਬਣ",
      "ਾ"
    ],
    [
      "ਲ",
      "ੱ"
    ],
    [
      "ਖ",
      "ਾ"
    ],
    [
      "ਸਨ",
      "।</w>"
    ],
    [
      "ਣ",
      "ੀ</w>"
    ],
    [
      "ਵ",
      "ਜ"
    ],
    [
      "ਤੁ",
      "ਸੀਂ</w>"
    ],
    [
      "ੋ",
      "ਰ"
    ],
    [
      "ਉ",
      "ਣ</w>"
    ],
    [
      "ਹੋ",
      "ਰ</w>"
    ],
    [
      "ਪ",
      "ੂਰ"
    ],
    [
      "ਪ",
      "ੀ"
    ],
    [
      "ਸ",
      "ਭ</w>"
    ],
    [
      "ਸ",
      "ੇ</w>"
    ],
    [
      "ਵਾ",
      "ਰ</w>"
    ],
    [
      "ਬ",
      "ੰ"
    ],
    [
      "ਸ਼",
      "ੁਰ"
    ],
    [
      "ੰ",
      "ਡ"
    ],
    [
      "ਭਾਰ",
      "ਤ</w>"
    ],
    [
      "ਰ",
      "ੂ"
    ],
    [
      "ਪ",
      "ਰ</w>"
    ],
    [
      "ਲ",
      "ੈ"
    ],
    [
      "ਦ",
      "ੂ"
    ],
    [
      ")",
      "</w>"
    ],
    [
      "ਗ",
      "ਈ</w>"
    ],
    [
      "20",
      "1"
    ],
    [
      "ਦ",
      "ਰ</w>"
    ],
    [
      "ਮ",
      "ੁੱ"
    ],
    [
      "ਅ",
      "ਕ"
    ],
    [
      "ਮ",
      "ਲ</w>"
    ],
    [
      "ਨ",
      "ੁ"
    ],
    [
      "ਪ",
      "ੱ"
    ],
    [
      "ਗ",
      "ੁ"
    ],
    [
      "ਹਿ",
      "ੰ"
    ],
    [
      "ਦ",
      "ੌ"
    ],
    [
      "ਬ",
      "ਰ</w>"
    ],
    [
      "ਵਾ",
      "ਲੇ</w>"
    ],
    [
      "ਸ਼",
      "ਿ"
    ],
    [
      "ਹੁੰ",
      "ਦਾ</w>"
    ],
    [
      "ਮ",
      "ੀ</w>"
    ],
    [
      "ਜ",
      "ੀ"
    ],
    [
      "ੜ",
      "</w>"
    ],
    [
      "ਅ",
      "ਧ"
    ],
    [
      "ਵਜ",
      "ੋਂ</w>"
    ],
    [
      "ਮ",
      "ਿਲ"
    ],
    [
      "ਿਲ",
      "ਮ</w>"
    ],
    [
      "ਡ",
      "ੀ</w>"
    ],
    [
      "ੱ",
      "ਟ</w>"
    ],
    [
      "ਕਰ",
      "ਦੇ</w>"
    ],
    [
      "ਰ",
      "ੇ</w>"
    ],
    [
      "5",
      "</w>"
    ],
    [
      "ਹਨ",
      ",</w>"
    ],
    [
      "ਡ",
      "ੇ</w>"
    ],
    [
      "ਮ",
      "ਾਰ"
    ],
    [
      "ਐ",
      "ੱ"
    ],
    [
      "2",
      "</w>"
    ],
    [
      "ਵਿ",
      "ਸ਼"
    ],
    [
      "ਟ",
      "ਰ"
    ],
    [
      "ਸ਼ਾ",
      "ਮਲ</w>"
    ],
    [
      "ਬ",
      "ਰ"
    ],
    [
      "1",
      "</w>"
    ],
    [
      "ਸ",
      "ੈ"
    ],
    [
      "ਕੀਤ",
      "ਾ"
    ],
    [
      "ਸਕ",
      "ਦਾ</w>"
    ],
    [
      "ੀ",
      "।</w>"
    ],
    [
      "ਪ",
      "ਰ"
    ],
    [
      "ਨਿ",
      "ਰ"
    ],
    [
      "ਕ",
      "ੁੱ"
    ],
    [
      "ਦਿੱ",
      "ਤਾ</w>"
    ],
    [
      "ਆ",
      "ਮ</w>"
    ],
    [
      "ਜ",
      "ਨ"
    ],
    [
      "ਡ",
      "ਿ"
    ],
    [
      "ਸੀ",
      ",</w>"
    ],
    [
      "ਹ",
      "ੱ"
    ],
    [
      "ਲ",
      "ਾਂ"
    ],
    [
      "ਰ",
      "ੱਖ"
    ],
    [
      "ਸ",
      "ੋ"
    ],
    [
      "ਗ",
      "ੋ"
    ],
    [
      "ਸਾ",
      "ਲ</w>"
    ],
    [
      "ਇ",
      "ੰ"
    ],
    [
      "ਜ",
      "ਿੱ"
    ],
    [
      "ਸ",
      "ੇ"
    ],
    [
      "ਮੈ",
      "ਂ</w>"
    ],
    [
      "ਅ",
      "ੱ"
    ],
    [
      "ਧ",
      "ਾ"
    ],
    [
      "ਕ",
      "ੱ"
    ],
    [
      "ਸ",
      "ਿੱ"
    ],
    [
      "ਡ",
      "ਾ"
    ],
    [
      "ਆਪਣ",
      "ੀ</w>"
    ],
    [
      "ਗ",
      "ੇ"
    ],
    [
      "ਕ",
      "ੈ"
    ],
    [
      "ਆ",
      "ਂ</w>"
    ],
    [
      "ਕ",
      "ਈ</w>"
    ],
    [
      "ਨ",
      ",</w>"
    ],
    [
      "ਕਰ",
      "ਦਾ</w>"
    ],
    [
      "ਫ",
      "ਿ"
    ],
    [
      "ੜ",
      "ੀ</w>"
    ],
    [
      "4",
      "</w>"
    ],
    [
      "ਸਮ",
      "ੇ"
    ],
    [
      "ਸ",
      "ੂ"
    ],
    [
      "ਮੁੱ",
      "ਖ</w>"
    ],
    [
      "ਤ",
      "ੇ"
    ],
    [
      "ਸ਼",
      "ਨ</w>"
    ],
    [
      "ਪ੍ਰ",
      "ਾ"
    ],
    [
      "ਵਿੱਚ",
      "ੋਂ</w>"
    ],
    [
      "ਮ",
      "ਾਂ</w>"
    ],
    [
      "ਹਨ",
      "ਾਂ</w>"
    ],
    [
      "3",
      "</w>"
    ],
    [
      "ਸਕ",
      "ਦੇ</w>"
    ],
    [
      "ਜ",
      "ੀ</w>"
    ],
    [
      "ਗ",
      "ਰ"
    ],
    [
      "ਵਰ",
      "ਤੋਂ</w>"
    ],
    [
      "ਅ",
      "ਰ"
    ],
    [
      "ਪ",
      "ੂ"
    ],
    [
      "8",
      "</w>"
    ],
    [
      "ਹਿ",
      "ੱਸ"
    ],
    [
      "6",
      "</w>"
    ],
    [
      "7",
      "</w>"
    ],
    [
      "ਵ",
      "ਾ</w>"
    ],
    [
      "ਵੱ",
      "ਧ</w>"
    ],
    [
      "ੈ",
      "ਕ"
    ],
    [
      "ਰਾ",
      "ਜ"
    ],
    [
      "ਬ",
      "੍"
    ],
    [
      "ਬ",
      "ੀ"
    ],
    [
      "ਯ",
      "ੂ"
    ],
    [
      "ਚ",
      "ੀ"
    ],
    [
      "20",
      "0"
    ],
    [
      "ਲ",
      "ਗ"
    ],
    [
      "ਦ",
      "ੋ"
    ],
    [
      "ਸ਼",
      "ਹਿ"
    ],
    [
      "ਦੌ",
      "ਰਾ"
    ],
    [
      "ਜਾਂ",
      "ਦੀ</w>"
    ],
    [
      "ਹੁੰ",
      "ਦੇ</w>"
    ],
    [
      "ਸ",
      "ਾਰੇ</w>"
    ],
    [
      "ਰ",
      "ਹ"
    ],
    [
      "ਗ",
      "ਏ</w>"
    ],
    [
      "ਕਾਰ",
      "ਨ</w>"
    ],
    [
      "ਲ",
      "ੈਂ"
    ],
    [
      "ਅ",
      "ਨ</w>"
    ],
    [
      "ਕੀਤਾ",
      "।</w>"
    ],
    [
      "ਲ",
      "ੰ"
    ],
    [
      "ਮ",
      "ਾ</w>"
    ],
    [
      "ਕਿ",
      "ਹਾ</w>"
    ],
    [
      "ਹੋ",
      "ਇਆ</w>"
    ],
    [
      "ੜ",
      "ੇ</w>"
    ],
    [
      "ਪ",
      "ਤ</w>"
    ],
    [
      "ਥ",
      "</w>"
    ],
    [
      "ਮ",
      "ੋ"
    ],
    [
      "ਸ਼ੁਰ",
      "ੂ</w>"
    ],
    [
      "ਫ਼",
      "ਿਲਮ</w>"
    ],
    [
      "ਸ",
      "ਨ</w>"
    ],
    [
      "ਹ",
      "ਰ</w>"
    ],
    [
      "ਲੋ",
      "ਕਾਂ</w>"
    ],
    [
      "ਫ",
      "ਾ"
    ],
    [
      "ਦ",
      "ੀ"
    ],
    [
      "ਬ",
      "ੇ"
    ],
    [
      "ਤ",
      "ਰੀ</w>"
    ],
    [
      "ਰਾ",
      "ਸ਼"
    ],
    [
      "ਅ",
      "ਨੁ"
    ],
    [
      "'",
      "</w>"
    ],
    [
      "ੁ",
      "ਕ"
    ],
    [
      "ਖੇ",
      "ਤਰ</w>"
    ],
    [
      "ਸ",
      "ਪ"
    ],
    [
      "ਜ਼",
      "ਿਆ"
    ],
    [
      "ਥ",
      "ੇ</w>"
    ],
    [
      "ਸ",
      "ਾਰ"
    ],
    [
      "ਅ",
      "ਮ"
    ],
    [
      "ਆ",
      "ਰ"
    ],
    [
      "ਦ",
      "ੋ</w>"
    ],
    [
      "ਕੰ",
      "ਮ</w>"
    ],
    [
      "ਕੁੱ",
      "ਝ</w>"
    ],
    [
      "ਪ",
      "ੰ"
    ],
    [
      "ਈ",
      "।</w>"
    ],
    [
      "ਵ",
      "ਧ"
    ],
    [
      "ਜਾ",
      "ਣ"
    ],
    [
      "ਦੇਸ਼",
      "</w>"
    ],
    [
      "ਘ",
      "ੱਟ</w>"
    ],
    [
      "ਹ",
      "ਮ"
    ],
    [
      "ਇ",
      "ਲਾ"
    ],
    [
      "0",
      "0</w>"
    ],
    [
      "ਅ",
      "ਰ</w>"
    ],
    [
      "ਸਮੇ",
      "ਂ</w>"
    ],
    [
      "ਸ",
      "ੰਗ"
    ],
    [
      "ਅ",
      "</w>"
    ],
    [
      "ਪਹਿ",
      "ਲਾਂ</w>"
    ],
    [
      "ਬ",
      "ੋ"
    ],
    [
      "ਹੁੰ",
      "ਦੀ</w>"
    ],
    [
      "ਉ",
      "ਹਨਾਂ</w>"
    ],
    [
      "ਂ",
      ",</w>"
    ],
    [
      "ਹਾ",
      "ਲਾਂ"
    ],
    [
      "ਸ",
      "ਰ</w>"
    ],
    [
      "ਬ",
      "ੀ</w>"
    ],
    [
      "ਡ",
      "ਾ</w>"
    ],
    [
      "ਵ",
      "ੈ"
    ],
    [
      "ਗ",
      "ਿਆ।</w>"
    ],
    [
      "ਫ",
      "ੈ"
    ],
    [
      "ਜ",
      "ੋ"
    ],
    [
      "ਓ",
      "</w>"
    ],
    [
      "ਯ",
      "ਾ"
    ],
    [
      "ਵੱ",
      "ਖ"
    ],
    [
      "ਟ",
      "ਰੀ</w>"
    ],
    [
      "ਕਿ",
      "ਸੇ</w>"
    ],
    [
      "ਲਾ",
      "ਈ"
    ],
    [
      "ਖ",
      "ਿ"
    ],
    [
      "ਧ",
      "ੀ</w>"
    ],
    [
      "ਭਾਰ",
      "ਤੀ</w>"
    ],
    [
      "ਹੋ",
      "ਣ</w>"
    ],
    [
      "ਕੋ",
      "ਈ</w>"
    ],
    [
      "ਮ",
      "ੈਂ"
    ],
    [
      "ਸ਼ਹਿ",
      "ਰ</w>"
    ],
    [
      "ਪ",
      "ਾਰ"
    ],
    [
      "ਨ",
      "ੋ"
    ],
    [
      "ਦੌਰਾ",
      "ਨ</w>"
    ],
    [
      "ਜ",
      "ੂ"
    ],
    [
      "ਰਿ",
      "ਹਾ</w>"
    ],
    [
      "ਰੂ",
      "ਪ</w>"
    ],
    [
      "\"",
      "</w>"
    ],
    [
      "ਕੀਤ",
      "ੀ।</w>"
    ],
    [
      "ਨ",
      "ੈ"
    ],
    [
      "ਸ",
      "ਤ"
    ],
    [
      "ਮਾ",
      "ਨ</w>"
    ],
    [
      "ਅਮ",
      "ਰੀ"
    ],
    [
      "ਈ",
      "ਆਂ</w>"
    ],
    [
      "ੇਸ਼",
      "</w>"
    ],
    [
      "ਕਾਰ",
      "ੀ</w>"
    ],
    [
      "ਪ੍ਰ",
      "ੋ"
    ],
    [
      "ਕਰ",
      "ਨਾ</w>"
    ],
    [
      "ਨਾ",
      "ਲ"
    ],
    [
      "ਲੋ",
      "ਕ</w>"
    ],
    [
      "ਬ",
      "ਾਰੇ</w>"
    ],
    [
      "ਪ੍ਰ",
      "ਭਾ"
    ],
    [
      "ਸ",
      "ੱ"
    ],
    [
      "ਸਿ",
      "ਰ"
    ],
    [
      "9",
      "</w>"
    ],
    [
      "ਚਾ",
      "ਰ</w>"
    ],
    [
      "ਉ",
      "ਸ"
    ],
    [
      "ਭ",
      "ਗ</w>"
    ],
    [
      "ਆ",
      "ਈ"
    ],
    [
      "ਲਗ",
      "ਭਗ</w>"
    ],
    [
      "ਨਾ",
      "ਮ</w>"
    ],
    [
      "ਕੀ",
      "ਤੇ</w>"
    ],
    [
      "ਬ",
      "ਦ"
    ],
    [
      "ਚ",
      "ੋ"
    ],
    [
      "ਜ਼",
      "ਾ"
    ],
    [
      "ਦਿ",
      "ੰ"
    ],
    [
      "ਹੋ",
      "ਏ</w>"
    ],
    [
      "ਕਿ",
      "ਉਂ"
    ],
    [
      "ਰ",
      "ਾਂ</w>"
    ],
    [
      "ਕਿਉਂ",
      "ਕਿ</w>"
    ],
    [
      "ਟ",
      "ਾ</w>"
    ],
    [
      "ੀ",
      "ਤ</w>"
    ],
    [
      "ਤੁਹਾ",
      "ਨੂੰ</w>"
    ],
    [
      "ਖ",
      "਼"
    ],
    [
      "ਿ",
      "ੰ"
    ],
    [
      "ਈ",
      ",</w>"
    ],
    [
      "ਦ",
      ",</w>"
    ],
    [
      "ਜ",
      "ੈ"
    ],
    [
      "ਖੇ",
      "ਡ</w>"
    ],
    [
      "ਛ",
      "ੋ"
    ],
    [
      "ਅ",
      "ਸ"
    ],
    [
      "ਪ",
      "ੋ"
    ],
    [
      "ਵੀ",
      "ਂ</w>"
    ],
    [
      "ਵ",
      "ਰ</w>"
    ],
    [
      "ਕੁ",
      "ਝ</w>"
    ],
    [
      "ਉ",
      "ਪ"
    ],
    [
      "ਯ",
      "ੁਕ"
    ],
    [
      "ਟ",
      "ੋ"
    ],
    [
      "ਅ",
      "ਗ"
    ],
    [
      "ਮੈ",
      "ਨੂੰ</w>"
    ],
    [
      "ਬ",
      "ੁ"
    ],
    [
      "ਪ",
      "ੇ"
    ],
    [
      "ਦਿੱ",
      "ਤਾ"
    ],
    [
      "ਟ",
      "ੈ"
    ],
    [
      "ਟ",
      "ਾਂ</w>"
    ],
    [
      "ਤ",
      "ੀਆਂ</w>"
    ],
    [
      "ਅਧ",
      "ਿ"
    ],
    [
      "ਜਾਂ",
      "ਦੇ</w>"
    ],
    [
      "ਉ",
      "ਤ"
    ],
    [
      "ਸ",
      "ਾ</w>"
    ],
    [
      "ਮੌ",
      "ਤ</w>"
    ],
    [
      "ਧ",
      "ਾਰ"
    ],
    [
      "ਦ",
      "ੱਖ"
    ],
    [
      "ਪ੍ਰਾ",
      "ਪਤ</w>"
    ],
    [
      "ਸ",
      "ਤ</w>"
    ],
    [
      "ਜਾ",
      "ਣ</w>"
    ],
    [
      "ਣ",
      "ਾ"
    ],
    [
      "ਤਰ",
      "੍ਹਾਂ</w>"
    ],
    [
      "ਜਿ",
      "ਨ੍ਹਾਂ</w>"
    ],
    [
      "ਹ",
      "ੇ"
    ],
    [
      "ਯੁਕ",
      "ਤ</w>"
    ],
    [
      "ਜਿ",
      "ਵੇਂ</w>"
    ],
    [
      "ਹਾ",
      "ਰ</w>"
    ],
    [
      "ਰਹ",
      "ੇ</w>"
    ],
    [
      "ਰ",
      "ੈ"
    ],
    [
      "ਖੇ",
      "ਡ"
    ],
    [
      "ੂ",
      "ਆ"
    ],
    [
      "ੁੱ",
      "ਧ</w>"
    ],
    [
      "ਬ",
      "ੈ"
    ],
    [
      "ਕ",
      "ਲ"
    ],
    [
      "ਕ",
      "ਸ</w>"
    ],
    [
      "ਹ",
      "ਾਂ"
    ],
    [
      "ਸ",
      "ਟ</w>"
    ],
    [
      "ਕੰ",
      "ਪ"
    ],
    [
      "ਜ",
      "ੇ"
    ],
    [
      "ਦਾ",
      "ਨ</w>"
    ],
    [
      "ਵਿ",
      "ਅਕ"
    ],
    [
      "ਲ",
      "ਿਆ</w>"
    ],
    [
      "ਭ",
      "ੂ"
    ],
    [
      "ਗ",
      "ੀ</w>"
    ],
    [
      "ਕਰ",
      "ੋ"
    ],
    [
      "ਮ",
      "ੱ"
    ],
    [
      "ਗ",
      "ਿ"
    ],
    [
      "ਗ",
      "ੱ"
    ],
    [
      "ਕ",
      "ਲ</w>"
    ],
    [
      "ਸ਼",
      "ੀ"
    ],
    [
      "ਟ",
      "ੇ"
    ],
    [
      "ਜ",
      "ੁ"
    ],
    [
      "ਤਾ",
      "ਨ</w>"
    ],
    [
      "੍ਹ",
      "ੇ</w>"
    ],
    [
      "ਮ",
      "ਹਿ"
    ],
    [
      "ਚ",
      "ਾਰ"
    ],
    [
      "ਲ",
      "ੀਆਂ</w>"
    ],
    [
      "ਫ",
      "</w>"
    ],
    [
      "ਮ",
      "ਰ</w>"
    ],
    [
      "ਬ",
      "ੱਚ"
    ],
    [
      "ਇ",
      "ੱ"
    ],
    [
      "ਰਾਸ਼",
      "ਟਰੀ</w>"
    ],
    [
      "ਹੱ",
      "ਤ"
    ],
    [
      "ਐ",
      "ਂ"
    ],
    [
      "ਇ",
      "ਕ</w>"
    ],
    [
      "ਣ",
      "ੇ</w>"
    ],
    [
      "ਪ",
      "ਰਿ"
    ],
    [
      "ਟ",
      "੍"
    ],
    [
      "ਯੋ",
      "ਗ</w>"
    ],
    [
      "ਸ਼ੁਰ",
      "ੂਆ"
    ],
    [
      "ਵਿ",
      "ਆ"
    ],
    [
      "ਖ",
      "ਿਆ</w>"
    ],
    [
      "ਵ",
      "ਾਰ"
    ],
    [
      "ਵੱ",
      "ਖ</w>"
    ],
    [
      "ਦਿ",
      "ਨ</w>"
    ],
    [
      "ਖ",
      "ੋ"
    ],
    [
      "ਫਿ",
      "ਰ</w>"
    ],
    [
      "ਤੁਹਾ",
      "ਡੇ</w>"
    ],
    [
      "ਹ",
      "ਾਰ"
    ],
    [
      "ਗ",
      "ੇ</w>"
    ],
    [
      "ਿਆ",
      "ਨ</w>"
    ],
    [
      "ਵ",
      "ੰ"
    ],
    [
      "ਵਾ",
      "ਈ</w>"
    ],
    [
      "ਘ",
      "ਾ"
    ],
    [
      "ੂ",
      "ਲ</w>"
    ],
    [
      "ਡ",
      "ੇ"
    ],
    [
      "ਮ",
      "ਦ"
    ],
    [
      "ਦਾ",
      "ਤਰ</w>"
    ],
    [
      "ਨ",
      "ਲ</w>"
    ],
    [
      "ਸ",
      "ਦੀ</w>"
    ],
    [
      "ਵਾ",
      "ਲੀ</w>"
    ],
    [
      "ਪੂਰ",
      "ਨ</w>"
    ],
    [
      "ੀ",
      ",</w>"
    ],
    [
      "ਪੱ",
      "ਛ"
    ],
    [
      "ੋ",
      "ਰ</w>"
    ],
    [
      "ਲ",
      "ਰ</w>"
    ],
    [
      "ਖ",
      "ੁ"
    ],
    [
      "ਲੈਂ",
      "ਡ</w>"
    ],
    [
      "੍",
      "ਹ</w>"
    ],
    [
      "ਪ",
      "ੁਰ"
    ],
    [
      "ਨ",
      "ੀਆ</w>"
    ],
    [
      "ਮੀ",
      "ਟਰ</w>"
    ],
    [
      "19",
      "9"
    ],
    [
      "ਪ",
      "ਹੁੰ"
    ],
    [
      "ਸਾ",
      "ਈ"
    ],
    [
      "ਬ",
      "ੇ</w>"
    ],
    [
      "ਉਂ",
      "ਦਾ</w>"
    ],
    [
      "ਦਿੱਤਾ",
      "।</w>"
    ],
    [
      "ਇਆ",
      "।</w>"
    ],
    [
      "ਤਿ",
      "ੰ"
    ],
    [
      "ਜ਼",
      "ਾ</w>"
    ],
    [
      "ਸੰ",
      "ਯੁਕਤ</w>"
    ],
    [
      "ਮ",
      "ਹੱਤ"
    ],
    [
      "ਜ਼",
      "ਿਲ"
    ],
    [
      "ਟ",
      "ੇ</w>"
    ],
    [
      "ਜ਼ਿਆ",
      "ਦਾਤਰ</w>"
    ],
    [
      "ਮੰ",
      "ਨ"
    ],
    [
      "ਿਆ",
      "ਰ</w>"
    ],
    [
      "ਜ਼",
      "ੀ</w>"
    ],
    [
      "ਦਾ",
      "ਰ</w>"
    ],
    [
      "ਉਂ",
      "ਦੇ</w>"
    ],
    [
      "ਵਾ",
      "ਲਾ</w>"
    ],
    [
      "ਲ",
      "ਗਾ"
    ],
    [
      "ਬ",
      "ਾਰ"
    ],
    [
      "ਲ",
      "ੜ"
    ],
    [
      "ਪਹਿ",
      "ਲੀ</w>"
    ],
    [
      "ਬ",
      "ਣ</w>"
    ],
    [
      "ਤ",
      "ਮ</w>"
    ],
    [
      "ਕੇ",
      "ਂ"
    ],
    [
      "ਸਥ",
      "ਿਤ</w>"
    ],
    [
      "ਬਾਅ",
      "ਦ,</w>"
    ],
    [
      "ਕਿ",
      ",</w>"
    ],
    [
      "ਨ",
      "ਦੀ</w>"
    ],
    [
      "ਕ੍ਰ",
      "ਿ"
    ],
    [
      "੍ਹ",
      "ਾ</w>"
    ],
    [
      "ਹ",
      "ਾਂ</w>"
    ],
    [
      "ਹ",
      "ਰ"
    ],
    [
      "ਚ",
      "ੇ"
    ],
    [
      "ਸੰ",
      "ਭਾ"
    ],
    [
      "ਕ",
      ",</w>"
    ],
    [
      "ੇਸ਼",
      "ਨ</w>"
    ],
    [
      "ਸਕ",
      "ਦੀ</w>"
    ],
    [
      "ਹਿੱਸ",
      "ਾ</w>"
    ],
    [
      "ਅ",
      "ਜਿ"
    ],
    [
      "ਫ਼",
      "</w>"
    ],
    [
      "ਬ",
      "ੈਂ"
    ],
    [
      "ਗਾ",
      "।</w>"
    ],
    [
      "ਆ",
      "</w>"
    ],
    [
      "ਹੋ",
      "।</w>"
    ],
    [
      "ਸਥ",
      "ਿ"
    ],
    [
      "ਮ",
      "ਨ"
    ],
    [
      "ਸਿ",
      "ੰ"
    ],
    [
      "-",
      "ਵੱਖ</w>"
    ],
    [
      "ਫ਼",
      "</w>"
    ],
    [
      "ਕੋ",
      "ਲ</w>"
    ],
    [
      "ਵੱਖ",
      "-ਵੱਖ</w>"
    ],
    [
      "ਪ੍ਰ",
      "ਤੀ"
    ],
    [
      "ਦੂ",
      "ਜੇ</w>"
    ],
    [
      "ਹੋ",
      "ਈ</w>"
    ],
    [
      "ਵਿ",
      "ਚ</w>"
    ],
    [
      "ਹਾਲਾਂ",
      "ਕਿ,</w>"
    ],
    [
      "ਨਿ",
      "ਯ"
    ],
    [
      "ਸਮ",
      "ਰ"
    ],
    [
      "ਨ",
      "ਕ</w>"
    ],
    [
      "ਘ",
      "ਰ</w>"
    ],
    [
      "ਤਰ",
      "ਾਂ</w>"
    ],
    [
      "ਬੰ",
      "ਧ"
    ],
    [
      "ਜ",
      "ਾਰੀ</w>"
    ],
    [
      "ਤਿੰ",
      "ਨ</w>"
    ],
    [
      "ਚਾ",
      "ਹੀ"
    ],
    [
      "ਜ਼",
      "ਰ"
    ],
    [
      "ਲੈ",
      "</w>"
    ],
    [
      "ਸ਼",
      "ਾ</w>"
    ],
    [
      "ਵਾ",
      "ਇ"
    ],
    [
      "ਗ",
      "ਈ।</w>"
    ],
    [
      "ਖ",
      "ੇ</w>"
    ],
    [
      "ਮ",
      "ਰ"
    ],
    [
      "ਸਟ",
      "੍"
    ],
    [
      "ਕਰ",
      "ਕੇ</w>"
    ],
    [
      "ਧ",
      "ਰ"
    ],
    [
      "ਉ",
      "ੱਚ"
    ],
    [
      "ਪ",
      "ੁੱ"
    ],
    [
      "ਲ",
      ",</w>"
    ],
    [
      "ਐ",
      "ੱਸ"
    ],
    [
      "ਣ",
      "ਾਂ</w>"
    ],
    [
      "ਟੀ",
      "ਮ</w>"
    ],
    [
      "ਖਿ",
      "ਡ"
    ],
    [
      "ਔ",
      "ਰ"
    ],
    [
      "ਮਹੱਤ",
      "ਵ"
    ],
    [
      "ਮ",
      "ਾਰੀ</w>"
    ],
    [
      "ਸਥਾ",
      "ਨ</w>"
    ],
    [
      "ੰਗ",
      "ਾ"
    ],
    [
      "ਦਿੱ",
      "ਤੀ</w>"
    ],
    [
      "ਪ੍ਰ",
      "ਸਿੱ"
    ],
    [
      "ਸਮ",
      "ਾਂ</w>"
    ],
    [
      "ਛ",
      "ੱ"
    ],
    [
      "ਮਿ",
      "ਲ</w>"
    ],
    [
      "ਵਰ",
      "ਤ"
    ],
    [
      "ਰਾ",
      "ਂ"
    ],
    [
      "ਰ",
      "ਹਿ"
    ],
    [
      "ਰੇ",
      "ਲ"
    ],
    [
      "ਇ",
      "ਸ"
    ],
    [
      "ਪ",
      "ੜ"
    ],
    [
      "ਦ",
      "ੂ</w>"
    ],
    [
      "ਵ",
      "ਨ</w>"
    ],
    [
      "ਕੰਪ",
      "ਨੀ</w>"
    ],
    [
      "ਜਿੱ",
      "ਥੇ</w>"
    ],
    [
      ",",
      "0"
    ],
    [
      "ਮ",
      "ਤ</w>"
    ],
    [
      "ੰ",
      "ਡ</w>"
    ],
    [
      "ਬ",
      "ੂ"
    ],
    [
      "ਇ",
      "ਨ੍ਹਾਂ</w>"
    ],
    [
      "ਸ",
      "ੁਰ"
    ],
    [
      "ਵਿਅਕ",
      "ਤੀ</w>"
    ],
    [
      "ਸੰਗ",
      "ੀਤ</w>"
    ],
    [
      "ਕ",
      "ਲਾ"
    ],
    [
      "ਗ",
      "ਾ</w>"
    ],
    [
      "ਨ",
      "ੰ"
    ],
    [
      "ਹੋ",
      "ਵੇ"
    ],
    [
      "ਅਕ",
      "ਸਰ</w>"
    ],
    [
      "ਮ",
      "ਕ</w>"
    ],
    [
      "ਤ",
      "ਕ</w>"
    ],
    [
      "1",
      "8"
    ],
    [
      "ਸ",
      "ਮਾ"
    ],
    [
      "ਪੁ",
      "ਰਾ"
    ],
    [
      "ਬ੍",
      "ਰਿ"
    ],
    [
      "ਗ",
      "ਰ</w>"
    ],
    [
      "ਤ",
      "ੱ"
    ],
    [
      "ਮਹੱਤਵ",
      "ਪੂਰਨ</w>"
    ],
    [
      "ਚ",
      "ੱ"
    ],
    [
      "ਜ਼",
      "ਾਂ</w>"
    ],
    [
      "ਪਹਿ",
      "ਲੇ</w>"
    ],
    [
      "ਵਿ",
      "ਚ"
    ],
    [
      "ਕਰ",
      "ਦੀ</w>"
    ],
    [
      "ਥ",
      "ਾ"
    ],
    [
      "ਪ",
      "ਤਾ</w>"
    ],
    [
      "ਜ",
      "ਨ</w>"
    ],
    [
      "20",
      "</w>"
    ],
    [
      "ਸ",
      "ਮ</w>"
    ],
    [
      "ਲ",
      "ੂ"
    ],
    [
      "ਚ",
      "ੁ"
    ],
    [
      "ੇ",
      "।</w>"
    ],
    [
      "ਮ",
      "ਨਾ"
    ],
    [
      "ਚ",
      "ਿ"
    ],
    [
      "ਲ",
      "ਈ,</w>"
    ],
    [
      "ਮ",
      "ਲ"
    ],
    [
      "ਟ",
      "ਸ</w>"
    ],
    [
      "ਪ੍ਰ",
      "ਦਰ"
    ],
    [
      "ਠ",
      "</w>"
    ],
    [
      "ਬਾ",
      "ਲ</w>"
    ],
    [
      "ਦ",
      "ੱਸ"
    ],
    [
      "ਏ",
      "।</w>"
    ],
    [
      "ਬ",
      "ੱ"
    ],
    [
      "ਸਟ",
      "ਾ"
    ],
    [
      "ਉ",
      "ਮਰ</w>"
    ],
    [
      "ਵ",
      "ੇ</w>"
    ],
    [
      "ਵੱ",
      "ਲ</w>"
    ],
    [
      "ਤ",
      "ੂ"
    ],
    [
      "ਗ",
      "ਿਆ"
    ],
    [
      "ਨ",
      "ੌ"
    ],
    [
      "ਦਰ",
      "ਸਾ"
    ],
    [
      "ਫ",
      "ੋ"
    ],
    [
      "ਭ",
      "ਿਆ"
    ],
    [
      "ਕਾ",
      "ਬ"
    ],
    [
      "ਡ",
      "ਰ"
    ],
    [
      "ਮ",
      "ਜ਼"
    ],
    [
      "ਪ੍ਰਸਿੱ",
      "ਧ</w>"
    ],
    [
      "ਅਮਰੀ",
      "ਕਾ</w>"
    ],
    [
      "ਨਿ",
      "ਊ"
    ],
    [
      "ਪੱਛ",
      "ਮੀ</w>"
    ],
    [
      "ਰੀ",
      "ਦ"
    ],
    [
      "ਜਨ",
      "ਮ</w>"
    ],
    [
      "ਸ",
      "ਹਾ"
    ],
    [
      "ਂ",
      "।</w>"
    ],
    [
      "ਵ",
      "ਰੀ</w>"
    ],
    [
      "ਕੋ",
      "ਸ਼ਿ"
    ],
    [
      "ਡ",
      "ਰ</w>"
    ],
    [
      "ਦ",
      "ਾਂ</w>"
    ],
    [
      "19",
      "8"
    ],
    [
      "ਨਿਰ",
      "ਮਾ"
    ],
    [
      "ਸ",
      "ਵੀ"
    ],
    [
      "ਪ",
      "ਸ</w>"
    ],
    [
      "ਆਪਣ",
      "ਾ</w>"
    ],
    [
      "ਮਾ",
      "ਰ</w>"
    ],
    [
      "ਛ",
      "ਾ"
    ],
    [
      "ਬਣਾ",
      "ਇਆ</w>"
    ],
    [
      "ਮੌ",
      "ਜੂ"
    ],
    [
      "ਨਿ",
      "ਕ</w>"
    ],
    [
      "ਭ",
      "ੋ"
    ],
    [
      "ਇ",
      "ਨ"
    ],
    [
      "ਵਿਸ਼",
      "ਵ</w>"
    ],
    [
      "ਲਾ",
      "ਈ</w>"
    ],
    [
      "ਪ੍ਰ",
      "ਮੁੱਖ</w>"
    ],
    [
      "ਸ਼ੁਰੂਆ",
      "ਤ</w>"
    ],
    [
      "ਤ",
      "ਰਾ</w>"
    ],
    [
      "ਟਿ",
      "ੰਗ</w>"
    ],
    [
      "ਗ",
      "ਰਾ"
    ],
    [
      ",0",
      "00</w>"
    ],
    [
      "ਰ",
      "ਚ"
    ],
    [
      "ਰ",
      "ਹਿੰ"
    ],
    [
      "ਮ",
      "ਹੀ"
    ],
    [
      "ੀ",
      "ਨ</w>"
    ],
    [
      "ਫ",
      "ੁੱ"
    ],
    [
      "ਨ",
      "ਰ</w>"
    ],
    [
      "ਦਿ",
      "ਖਾ"
    ],
    [
      "ਫ",
      "ਰ"
    ],
    [
      "ਕ",
      "ਸ"
    ],
    [
      "ਗ",
      "ੰ"
    ],
    [
      "ਸ਼",
      "੍"
    ],
    [
      "ਦ",
      "ਾਰ"
    ],
    [
      "ੇ",
      "ਰੇ</w>"
    ],
    [
      "ਊ",
      "ਂ"
    ],
    [
      "ਤਿ",
      "ਹਾ"
    ],
    [
      "ਦੇ",
      "ਖ"
    ],
    [
      "ਭ",
      "ਰ</w>"
    ],
    [
      "ਵਿ",
      "ੱ"
    ],
    [
      "ਤੀ",
      "ਜੇ</w>"
    ],
    [
      "ਸਮ",
      "ੂ"
    ],
    [
      "ਤਿ",
      "ਉ"
    ],
    [
      "ਭੂ",
      "ਮਿ"
    ],
    [
      "ਵਿ",
      "ਤ</w>"
    ],
    [
      "ਬਣਾ",
      "ਉਣ</w>"
    ],
    [
      "ਹੁ",
      "ਣ</w>"
    ],
    [
      "ਪਾ",
      "ਣੀ</w>"
    ],
    [
      "ਕੋਸ਼ਿ",
      "ਸ਼</w>"
    ],
    [
      "ਜ਼",
      "ਨ</w>"
    ],
    [
      "ਮੰਨ",
      "ਿਆ</w>"
    ],
    [
      "ਜ਼ਿਆ",
      "ਦਾ</w>"
    ],
    [
      "ਕ",
      "ਸ਼"
    ],
    [
      "ਹੋ",
      ",</w>"
    ],
    [
      "ਪੁ",
      "ਰ</w>"
    ],
    [
      "ਤ",
      "ੋ"
    ],
    [
      "19",
      "7"
    ],
    [
      "ਕਿ",
      "ਰ"
    ],
    [
      "ਉਤ",
      "ਪਾ"
    ],
    [
      "ਤ",
      "ਿਆਰ</w>"
    ],
    [
      "ਚ",
      "ੰਗ"
    ],
    [
      "ਾਂ",
      ",</w>"
    ],
    [
      "ਕਾਰ",
      "ਡ</w>"
    ],
    [
      "ਫ",
      "ਿਲਮ</w>"
    ],
    [
      "ਵੱ",
      "ਡੇ</w>"
    ],
    [
      "ਰ",
      "ਲ</w>"
    ],
    [
      "ਮਦ",
      "ਦ</w>"
    ],
    [
      "ਫ",
      "ੇ"
    ],
    [
      "ਪ",
      "ਤ"
    ],
    [
      "ਸਰ",
      "ਕਾਰ</w>"
    ],
    [
      "ਭ",
      "ੀ"
    ],
    [
      "ਟ",
      "ੈਕ"
    ],
    [
      "ਕਿ",
      "ਲੋ"
    ],
    [
      "ਰ",
      "ੁ"
    ],
    [
      "ਇਲਾ",
      "ਜ</w>"
    ],
    [
      "ਪ",
      "ਤੀ</w>"
    ],
    [
      "ਹਿੰ",
      "ਦੂ</w>"
    ],
    [
      "ਸੁਰ",
      "ੱਖ"
    ],
    [
      "ਮੰ",
      "ਦਰ</w>"
    ],
    [
      "ਡ",
      "ੈ"
    ],
    [
      "ਮੁ",
      "ਕਾਬ"
    ],
    [
      "ਵਧ",
      "ੇਰੇ</w>"
    ],
    [
      "ਗ੍ਰ",
      "ਾ"
    ],
    [
      "ਇ",
      "ਕੱ"
    ],
    [
      "ਲਾਈ",
      "ਨ</w>"
    ],
    [
      "ਸੰ",
      "ਸ"
    ],
    [
      "ਤਾ",
      "ਰ</w>"
    ],
    [
      "ਸ",
      "ਕ</w>"
    ],
    [
      "ਖ",
      "ੀ</w>"
    ],
    [
      "ਫ",
      "ੀ"
    ],
    [
      "ਦੇ",
      "ਣ</w>"
    ],
    [
      "ਇ",
      "ਤਿਹਾ"
    ],
    [
      "ਪਹਿ",
      "ਲਾ</w>"
    ],
    [
      "ਤੇ",
      ",</w>"
    ],
    [
      "ਲ",
      "ਣ</w>"
    ],
    [
      "ਹਾਲਾਂ",
      "ਕਿ</w>"
    ],
    [
      "ਜ਼",
      "ੀ"
    ],
    [
      "ਤ",
      "ਰੀ"
    ],
    [
      "ਵਿਸ਼",
      "ੇਸ਼</w>"
    ],
    [
      "ਤਾ",
      "ਵਾਂ</w>"
    ],
    [
      "ਸ਼",
      "ਰ"
    ],
    [
      "ਰ",
      "ਹੀ</w>"
    ],
    [
      "ਪ",
      "ੇਸ਼"
    ],
    [
      "ਪ",
      "ੀ</w>"
    ],
    [
      "ਗੱ",
      "ਲ</w>"
    ],
    [
      "ਸਾ",
      "ਨ</w>"
    ],
    [
      "ਉ",
      "ਦਾ"
    ],
    [
      "ਘ",
      "</w>"
    ],
    [
      "ਅ",
      "ਲ"
    ],
    [
      "ਵਿਚ",
      "ਕਾਰ</w>"
    ],
    [
      "ਿਲ",
      "ੀ"
    ],
    [
      "ਸ਼",
      "ੈ"
    ],
    [
      "ਪ",
      "ੋਰ"
    ],
    [
      "ਪ੍ਰ",
      "ੈ"
    ],
    [
      "ਪੱ",
      "ਧ"
    ],
    [
      "ਟ",
      "ਨ</w>"
    ],
    [
      "ਜਾਣ",
      "ਿਆ</w>"
    ],
    [
      "ਦੱਖ",
      "ਣੀ</w>"
    ],
    [
      "ਵੱ",
      "ਡਾ</w>"
    ],
    [
      "ਤ",
      "ੰ"
    ],
    [
      "ਥ",
      "ੀ</w>"
    ],
    [
      "ਦੇਸ਼",
      "ਾਂ</w>"
    ],
    [
      "ਃ",
      "</w>"
    ],
    [
      "ਵਾ",
      "ਨ</w>"
    ],
    [
      "ਕਿਲੋ",
      "ਮੀਟਰ</w>"
    ],
    [
      "ਜ਼ਿਲ",
      "੍ਹੇ</w>"
    ],
    [
      "ਸਨ",
      ",</w>"
    ],
    [
      "ਰਾ",
      "ਈ"
    ],
    [
      "ਰ",
      "-"
    ],
    [
      "ਛ",
      "ੇ</w>"
    ],
    [
      "ਖੇ",
      "ਤਰਾਂ</w>"
    ],
    [
      "ਬਾ",
      "ਹਰ</w>"
    ],
    [
      "ਸ",
      "ੈਂ"
    ],
    [
      "ਅ",
      "ਦਾ"
    ],
    [
      "ਡ",
      "ੋ"
    ],
    [
      "ਚ",
      "ੈ"
    ],
    [
      "ਨੇ",
      "ੜੇ</w>"
    ],
    [
      "ਸ਼",
      "ੀ</w>"
    ],
    [
      "ਸਾ",
      "ਲਾਂ</w>"
    ],
    [
      "ਭ",
      "ੁ"
    ],
    [
      "ਟਾ",
      "ਈ"
    ],
    [
      "ਮਾ",
      "ਈ"
    ],
    [
      "ਯੂ",
      "ਨੀ"
    ],
    [
      "ਨ",
      "ੀਆਂ</w>"
    ],
    [
      "ਅੰ",
      "ਤਰ"
    ],
    [
      "ਜ",
      "ਰ"
    ],
    [
      "ਭ",
      "ੇ"
    ],
    [
      "ਧਾ",
      "ਨ</w>"
    ],
    [
      "ਅ",
      "ਪ"
    ],
    [
      "%",
      "</w>"
    ],
    [
      "ਤ",
      "ਮਕ</w>"
    ],
    [
      "ਸਾਰ",
      "ੀਆਂ</w>"
    ],
    [
      "ਸਾ",
      "ਮ"
    ],
    [
      "ਗ",
      "ੈ"
    ],
    [
      "ਖੇਡ",
      "ਾਂ</w>"
    ],
    [
      "ਵਿਆ",
      "ਹ</w>"
    ],
    [
      "ਚ",
      "ੀ</w>"
    ],
    [
      "ਚ",
      "ੌ"
    ],
    [
      "ਪ",
      "ਹਾ"
    ],
    [
      "ਚ",
      "ੰ"
    ],
    [
      "ਮ",
      "ਨ</w>"
    ],
    [
      "ਕ",
      "ੈਂ"
    ],
    [
      "ਹਿੱਸ",
      "ੇ</w>"
    ],
    [
      "ਪ",
      "ਨਾ</w>"
    ],
    [
      "ਕਿ",
      "ਲ"
    ],
    [
      "ਬ",
      "ਲ"
    ],
    [
      "ਪੂਰ",
      "ਬੀ</w>"
    ],
    [
      "ਦ",
      "ਹਾ"
    ],
    [
      "ਹੇ",
      "ਠ"
    ],
    [
      "ਟਿ",
      "ਸ਼</w>"
    ],
    [
      "ਵਿ",
      "ਕ"
    ],
    [
      "ਬੰ",
      "ਦ</w>"
    ],
    [
      "ਗੋ",
      "ਲ</w>"
    ],
    [
      "ਦਿੰ",
      "ਦਾ</w>"
    ],
    [
      "ਸਥਿ",
      "ਤੀ</w>"
    ],
    [
      "ਪੂ",
      "ਰੀ</w>"
    ],
    [
      "ਮ",
      "ਹਾ"
    ],
    [
      "ਉਸ",
      "ਨੇ</w>"
    ],
    [
      "ਗ",
      "ੀ"
    ],
    [
      "ਥ",
      "ਾਂ</w>"
    ],
    [
      "ਲ",
      "ਤ</w>"
    ],
    [
      "ਫਾ",
      "ਈ"
    ],
    [
      "ਟਿ",
      "ਕ</w>"
    ],
    [
      "ਉੱ",
      "ਤਰੀ</w>"
    ],
    [
      "ਅ",
      "ਤ</w>"
    ],
    [
      "ੜ",
      "੍ਹ</w>"
    ],
    [
      "ਚਾਹੀ",
      "ਦਾ</w>"
    ],
    [
      "ੜ",
      "ਾ</w>"
    ],
    [
      "ਕ",
      "ੋ</w>"
    ],
    [
      "ਮ",
      "ੂ"
    ],
    [
      "ਰਾ",
      "ਤ</w>"
    ],
    [
      "ਵਾ",
      "ਪਸ</w>"
    ],
    [
      "ਵਿ",
      "ਖੇ</w>"
    ],
    [
      "ਅਨੁ",
      "ਸਾਰ"
    ],
    [
      "ਤਿਉ",
      "ਹਾਰ</w>"
    ],
    [
      "ਭੂਮਿ",
      "ਕਾ</w>"
    ],
    [
      "ਲੱ",
      "ਗ"
    ],
    [
      "ਜ਼ਰ",
      "ੂਰ"
    ],
    [
      "ਅੰ",
      "ਤ</w>"
    ],
    [
      "ਰੱਖ",
      "ਿਆ</w>"
    ],
    [
      "ਲ",
      "ਬ"
    ],
    [
      "ਕ",
      "ਾਂ"
    ],
    [
      "ਬ੍ਰਿ",
      "ਟਿਸ਼</w>"
    ],
    [
      "ਕ",
      "ੌ"
    ],
    [
      "ਫ",
      "ਾਰ"
    ],
    [
      "ਅਨੁਸਾਰ",
      ",</w>"
    ],
    [
      "ਮਿ",
      "ੰ"
    ],
    [
      "ਅਧਿ",
      "ਕਾਰ"
    ],
    [
      "ਸ",
      "ੌ"
    ],
    [
      "ਜਿੱ",
      "ਤ"
    ],
    [
      "ਹਿ",
      "ਤ</w>"
    ],
    [
      "ਪਰਿ",
      "ਵਾਰ</w>"
    ],
    [
      "ਵੱ",
      "ਡੀ</w>"
    ],
    [
      "ਕੋ",
      "ਰ"
    ],
    [
      "ਅ",
      "ਨ"
    ],
    [
      "ਹ",
      "ੇ</w>"
    ],
    [
      "ੁ",
      "ੰ"
    ],
    [
      "ਭ",
      "ਿ"
    ],
    [
      "ਥ",
      "ੋ"
    ],
    [
      "ਸ",
      "ਹਿ"
    ],
    [
      "ਖ਼",
      "ਰੀਦ"
    ],
    [
      "ਪਾਰ",
      "ਕ</w>"
    ],
    [
      "ਬਾ",
      "ਰ</w>"
    ],
    [
      "ਉ",
      "ਣਾ</w>"
    ],
    [
      "ਭ",
      "ਰ"
    ],
    [
      "ਸ਼",
      "ੋ"
    ],
    [
      "ਉ",
      "ਦੋਂ</w>"
    ],
    [
      "ਜ਼",
      "ਿ"
    ],
    [
      "ਪ੍ਰਭਾ",
      "ਵਿਤ</w>"
    ],
    [
      "ਜਾ",
      "ਵੇ"
    ],
    [
      "ਮੇ",
      "ਰੇ</w>"
    ],
    [
      "1",
      "0</w>"
    ],
    [
      "ਦਿੱ",
      "ਲੀ</w>"
    ],
    [
      "ਗੇ",
      "।</w>"
    ],
    [
      "ਸ਼",
      "ਿਤ</w>"
    ],
    [
      "ਰੇ",
      "ਕ</w>"
    ],
    [
      "ਵਿ",
      "ਦ"
    ],
    [
      "ਹ",
      "ਫ਼"
    ],
    [
      "ਸ",
      "ਤਾ"
    ],
    [
      "ਸੇ",
      "ਵਾ</w>"
    ],
    [
      "ਾ",
      "ਰ</w>"
    ],
    [
      "ਵਿ",
      "ਰੋ"
    ],
    [
      "19",
      "6"
    ],
    [
      "ਮਿਲ",
      "ੀ"
    ],
    [
      "ਸਿਰ",
      "ਫ਼</w>"
    ],
    [
      "ਸਥਾ",
      "ਨਕ</w>"
    ],
    [
      "ਉਂ",
      "ਦੀ</w>"
    ],
    [
      "ਅ",
      "ੰਗ"
    ],
    [
      "ਨ",
      "ਰ"
    ],
    [
      "ਅਮਰੀ",
      "ਕੀ</w>"
    ],
    [
      "ਵਾ",
      "ਧ"
    ],
    [
      "ਲੜ",
      "ਾ"
    ],
    [
      "ਬ",
      "ੰਗਾ"
    ],
    [
      "ਖ",
      "ਾ</w>"
    ],
    [
      "ਨਾ",
      "ਵਾਂ</w>"
    ],
    [
      "ੱਖ",
      "</w>"
    ],
    [
      "ਬਾ",
      "ਦੀ</w>"
    ],
    [
      "ੱ",
      "ਟ"
    ],
    [
      "ਰਿ",
      "ਤ</w>"
    ],
    [
      "ਫ਼",
      "ਿਲ"
    ],
    [
      "ਟ",
      "ੀਆਂ</w>"
    ],
    [
      "ਪ੍ਰੋ",
      "ਗਰਾ"
    ],
    [
      "ਚੀ",
      "ਨ</w>"
    ],
    [
      "ਜ",
      "ੰਗ"
    ],
    [
      "ੜ",
      "ੀਆਂ</w>"
    ],
    [
      "ਸਾ",
      "ਰ</w>"
    ],
    [
      "ਪ੍ਰ",
      "ਦਾਨ</w>"
    ],
    [
      "ਸ",
      ",</w>"
    ],
    [
      "ਸ",
      "ਲਾ"
    ],
    [
      "ਮ",
      ",</w>"
    ],
    [
      "ਕਰ",
      "ੇ"
    ],
    [
      "ਸਟ",
      "ੇ"
    ],
    [
      "ਔਰ",
      "ਤਾਂ</w>"
    ],
    [
      "ਕਰੋ",
      "।</w>"
    ],
    [
      "ਇ",
      "ੰਡ"
    ],
    [
      "ਬਿ",
      "ਮਾਰੀ</w>"
    ],
    [
      "ਰੋ",
      "ਕ"
    ],
    [
      "1",
      "0"
    ],
    [
      "ਉ",
      "ਦ"
    ],
    [
      "ਪੈ",
      "ਦਾ</w>"
    ],
    [
      "ਨਿ",
      "ਭਾ"
    ],
    [
      "ਵਿ",
      "ਰ"
    ],
    [
      "ਉਦਾ",
      "ਹਰ"
    ],
    [
      "ਦੁ",
      "ਨੀਆ</w>"
    ],
    [
      "ਯੋ",
      "ਜ"
    ],
    [
      "ਵਿ",
      "ਕਾ"
    ],
    [
      "ਘ",
      "ਟ"
    ],
    [
      "ਚ",
      "ੈਂ"
    ],
    [
      "ਸ਼ਾ",
      "ਸਨ</w>"
    ],
    [
      "ਦ",
      "ਰੀ</w>"
    ],
    [
      "ਸਾ",
      "ਹਮ"
    ],
    [
      "ਗਿ",
      "ਣ"
    ],
    [
      "ਿ",
      "ਕ</w>"
    ],
    [
      "ਅੰ",
      "ਦਰ</w>"
    ],
    [
      "ਖਿਡ",
      "ਾਰੀ</w>"
    ],
    [
      "ਮਾ",
      "ਨ"
    ],
    [
      "ਹ",
      "ੌ"
    ],
    [
      "ਦਹਾ",
      "ਕੇ</w>"
    ],
    [
      "ਯੋ",
      "ਗ"
    ],
    [
      "ਅ",
      "ਮ</w>"
    ],
    [
      "ਨ",
      "ਵੇਂ</w>"
    ],
    [
      "ਕ",
      "ਟ</w>"
    ],
    [
      "ਨਾਲ",
      "ੋਂ</w>"
    ],
    [
      "ਸ",
      "ਲ</w>"
    ],
    [
      "ਨ",
      "ਤੀਜੇ</w>"
    ],
    [
      "ਏ",
      ",</w>"
    ],
    [
      "5",
      "0</w>"
    ],
    [
      "ਿਆ",
      "ਵਾਂ</w>"
    ],
    [
      "ਟ",
      ",</w>"
    ],
    [
      "ਜ਼ਰੂਰ",
      "ਤ</w>"
    ],
    [
      "ਡਾ",
      "ਲਰ</w>"
    ],
    [
      "ਧਰ",
      "ਮ</w>"
    ],
    [
      "ਜ",
      "ਲ"
    ],
    [
      "ਉ",
      "ਮੀ"
    ],
    [
      "1",
      "7"
    ],
    [
      "ਕਾ",
      "ਨੂੰ"
    ],
    [
      "ਨੁ",
      "ਕ"
    ],
    [
      "ਪ੍ਰਦਰ",
      "ਸ਼ਨ</w>"
    ],
    [
      "ਆ",
      "ਇ"
    ],
    [
      "ਕ",
      "ਿਆਂ</w>"
    ],
    [
      "ਗ",
      "ਰੀ</w>"
    ],
    [
      "ਸਾਮ",
      "ਰਾਜ</w>"
    ],
    [
      "ਨਿਰਮਾ",
      "ਣ</w>"
    ],
    [
      "ਗ",
      "ੀ।</w>"
    ],
    [
      "ਪ੍ਰ",
      "ਦੇਸ਼</w>"
    ],
    [
      "ਨਿਰ",
      "ਦੇਸ਼"
    ],
    [
      "ਗ",
      "ਤ</w>"
    ],
    [
      "ਫ",
      "ੋਰ"
    ],
    [
      "ਲ",
      "ਿਆਂ</w>"
    ],
    [
      "ਵ",
      "ੋ"
    ],
    [
      "ਲਿ",
      "ਸ</w>"
    ],
    [
      "ਅਸ",
      "ਲ</w>"
    ],
    [
      "ਬ",
      "ਾ</w>"
    ],
    [
      "ਪ",
      "ੇਸ਼</w>"
    ],
    [
      "ੂ",
      "ਰ</w>"
    ],
    [
      "ਨ",
      "ਾਰ"
    ],
    [
      "ਚ",
      "ਿੱ"
    ],
    [
      "ਸਕ",
      "ੂਲ</w>"
    ],
    [
      "ਧ",
      "ਿਆਨ</w>"
    ],
    [
      "ਭੁ",
      "ਗ"
    ],
    [
      "ਸ",
      "ਰੀ"
    ],
    [
      "ਬ",
      "ਰਾ"
    ],
    [
      "ਪੁੱ",
      "ਤਰ</w>"
    ],
    [
      "ਪੱਧ",
      "ਰ</w>"
    ],
    [
      "ਸੀ",
      ".</w>"
    ],
    [
      "ਪ੍ਰ",
      "ਣਾ"
    ],
    [
      "ਬਿ",
      "ਨਾਂ</w>"
    ],
    [
      "ਲ",
      "ਿਆ।</w>"
    ],
    [
      "ਸਮੂ",
      "ਹ</w>"
    ],
    [
      "੍",
      "ਹਾ"
    ],
    [
      "ਵਿਰ",
      "ੁੱਧ</w>"
    ],
    [
      "ਪਿ",
      "ਛ"
    ],
    [
      "ਮੈਂ",
      "ਟ</w>"
    ],
    [
      "ੜ",
      "੍ਹ"
    ],
    [
      "ਅੰਤਰ",
      "ਰਾਸ਼ਟਰੀ</w>"
    ],
    [
      "ਕੁੱ",
      "ਲ</w>"
    ],
    [
      "ਹਾਂ",
      "।</w>"
    ],
    [
      "ਕੀਤਾ",
      ",</w>"
    ],
    [
      "ਜੀ",
      "ਵਨ</w>"
    ],
    [
      "ਡ",
      "ੂ</w>"
    ],
    [
      "ਲ",
      "ਡ</w>"
    ],
    [
      "ਮੱ",
      "ਧ</w>"
    ],
    [
      "ਪ੍ਰ",
      "ਤੀ</w>"
    ],
    [
      "ਗ",
      "ਏ।</w>"
    ],
    [
      "ਇੰ",
      "ਟਰ"
    ],
    [
      "ਹ",
      "ਰੇਕ</w>"
    ],
    [
      "ਇਕੱ",
      "ਠ"
    ],
    [
      "ਕ",
      "ਰਾ"
    ],
    [
      "ਸ਼",
      "ੂ"
    ],
    [
      "ਸਥਾ",
      "ਪਨਾ</w>"
    ],
    [
      "19",
      "</w>"
    ],
    [
      "ਯੂਨੀ",
      "ਵਰ"
    ],
    [
      "ਸਿ",
      "ਟੀ</w>"
    ],
    [
      "ਮੈ",
      "ਚ</w>"
    ],
    [
      "ਫ",
      "ਿਲ"
    ],
    [
      "ਤੁ",
      "ਰ"
    ],
    [
      "ਭਾ",
      "ਸ਼ਾ</w>"
    ],
    [
      "ਆ",
      "ਈ</w>"
    ],
    [
      "ਡ",
      "ਲ</w>"
    ],
    [
      "ਲੈ",
      "ਣ</w>"
    ],
    [
      "ਸ਼ਿ",
      "ਪ</w>"
    ],
    [
      "!",
      "</w>"
    ],
    [
      "ਥ",
      "ਨ</w>"
    ],
    [
      "ਆ",
      "ਖ"
    ],
    [
      "ਗੇ",
      "ਂ"
    ],
    [
      "ਬ",
      "ਲ</w>"
    ],
    [
      "ਪਿ",
      "ਊ"
    ],
    [
      "ਦ",
      "ਾਰੀ</w>"
    ],
    [
      "ਵਾ",
      "ਲੀਆਂ</w>"
    ],
    [
      "ਕ",
      "ਹਾ"
    ],
    [
      "ਆ",
      "ਬਾਦੀ</w>"
    ],
    [
      "ਮਿ",
      "ਕ</w>"
    ],
    [
      "ਪ",
      "ਿੱ"
    ],
    [
      "ਹੁੰ",
      "ਦੀਆਂ</w>"
    ],
    [
      "ਵਧ",
      "ੀਆ</w>"
    ],
    [
      "ਪਹੁੰ",
      "ਚ"
    ],
    [
      "ਉੱ",
      "ਤਰ</w>"
    ],
    [
      "ਸੂ",
      "ਸ</w>"
    ],
    [
      "ਰਿ",
      "ਹਾ"
    ],
    [
      "ਵ",
      "ਨਾ</w>"
    ],
    [
      "ਿਆ",
      ",</w>"
    ],
    [
      "ਦ",
      "ਗੀ</w>"
    ],
    [
      "ਚ",
      "ਿੰ"
    ],
    [
      "ਭੁਗ",
      "ਤਾਨ</w>"
    ],
    [
      "ਫੈ",
      "ਸ"
    ],
    [
      "ਗ",
      "਼"
    ],
    [
      "ਯ",
      "ੂਰ"
    ],
    [
      "ਕਾ",
      "ਲ</w>"
    ],
    [
      "ਰਾ",
      "ਹੀਂ</w>"
    ],
    [
      "ਚੈਂ",
      "ਪੀ"
    ],
    [
      "ਡ",
      "ਨ</w>"
    ],
    [
      "ਗਿਣ",
      "ਤੀ</w>"
    ],
    [
      "ਸਟ",
      "ੀ"
    ],
    [
      "ਦੌਰਾ",
      "ਨ,</w>"
    ],
    [
      "ਕਾ",
      "ਲ"
    ],
    [
      "ਗ",
      "ੀਤ</w>"
    ],
    [
      "ਕੰ",
      "ਪਿਊ"
    ],
    [
      "ਲਿ",
      "ਖ"
    ],
    [
      "ਜੈ",
      "ਨ</w>"
    ],
    [
      "ਕ",
      "ਬ"
    ],
    [
      "ਦਿੰ",
      "ਦੇ</w>"
    ],
    [
      "ਪੰ",
      "ਜ</w>"
    ],
    [
      "ਵਿਕਾ",
      "ਸ</w>"
    ],
    [
      "ਐੱ",
      "ਨ"
    ],
    [
      "ਕਰ",
      "ੋ</w>"
    ],
    [
      "ਸਹਾ",
      "ਇ"
    ],
    [
      "ਜੇ",
      "ਕਰ</w>"
    ],
    [
      "ੂ",
      "ਨ</w>"
    ],
    [
      "ਨਾ",
      "ਟ"
    ],
    [
      "ਐੱ",
      "ਮ"
    ],
    [
      "ਕਾਰ",
      "ਾਂ</w>"
    ],
    [
      "ਬ",
      "ਚ"
    ],
    [
      "ਅ",
      "ਲ</w>"
    ],
    [
      "ਲ",
      "ਨ</w>"
    ],
    [
      "ਮੈਂ",
      "ਬਰ</w>"
    ],
    [
      "ਆਪ",
      "</w>"
    ],
    [
      "ਛੱ",
      "ਡ</w>"
    ],
    [
      "ਅਜਿ",
      "ਹਾ</w>"
    ],
    [
      "ਮਹਿ",
      "ਸੂਸ</w>"
    ],
    [
      "ਵਰ",
      "ਗੇ</w>"
    ],
    [
      "19",
      "4"
    ],
    [
      "ਸ਼",
      "ਕ"
    ],
    [
      "ਪਿ",
      "ਕ</w>"
    ],
    [
      "ਸਹਾਇ",
      "ਤਾ</w>"
    ],
    [
      "ਸਮ",
      "ੱਸ"
    ],
    [
      "ਤੁਹਾ",
      "ਡੀ</w>"
    ],
    [
      "ਆ",
      "ਯੋ"
    ],
    [
      "ਸਮ",
      "ਾਰ"
    ],
    [
      "ਕੇਂ",
      "ਦਰ</w>"
    ],
    [
      "ਦ",
      "ਮ"
    ],
    [
      "ਜ",
      "ੰ"
    ],
    [
      "'",
      "ਤੇ,</w>"
    ],
    [
      "ਸਟ",
      "ਰ</w>"
    ],
    [
      "ਰਿ",
      "ਕਾਰਡ</w>"
    ],
    [
      "ਬੱਚ",
      "ਿਆਂ</w>"
    ],
    [
      "ਮਿਲੀ",
      "ਅਨ</w>"
    ],
    [
      "ਛੋ",
      "ਟੇ</w>"
    ],
    [
      "ਦੋ",
      "ਵੇਂ</w>"
    ],
    [
      "ਪ",
      "ੌ"
    ],
    [
      "ਡੀ",
      "ਓ</w>"
    ],
    [
      "ਪੁ",
      "ਲਿਸ</w>"
    ],
    [
      "ਕਰ",
      "ਣ</w>"
    ],
    [
      "ਸ",
      "ਤਾਨ</w>"
    ],
    [
      "ਸ਼",
      "ਨਲ</w>"
    ],
    [
      "ਵਾ",
      "ਦ</w>"
    ],
    [
      "ਕ",
      "ੂ"
    ],
    [
      "ਗ",
      "ਈਆਂ</w>"
    ],
    [
      "ਗ",
      "ਣ"
    ],
    [
      "ਤ",
      ",</w>"
    ],
    [
      "ਫ",
      "ੌ"
    ],
    [
      "ਏ",
      "ਸ਼"
    ],
    [
      "?",
      "</w>"
    ],
    [
      "ਤ",
      "ਰਾ"
    ],
    [
      "ਗ",
      "ੁੱ"
    ],
    [
      "ਨੁਕ",
      "ਸਾਨ</w>"
    ],
    [
      "ਰਾਸ਼",
      "ਟਰ"
    ],
    [
      "ਕਰ",
      "ੀ</w>"
    ],
    [
      "ਵਾ",
      "ਦੀ</w>"
    ],
    [
      "ਘ",
      "ੰ"
    ],
    [
      "ਸਿ",
      "ਖ"
    ],
    [
      "ਸ਼",
      "ਟ</w>"
    ],
    [
      "ਜਾਂ",
      "ਚ</w>"
    ],
    [
      "ਊ",
      "</w>"
    ],
    [
      "ਧ",
      "ੁ"
    ],
    [
      "3",
      "0</w>"
    ],
    [
      "ਸ",
      "ਬੰਧ"
    ],
    [
      "ਪ",
      "ਲੇ"
    ],
    [
      "ਦਿੱ",
      "ਤੀ"
    ],
    [
      "ਣ",
      "ੀਆਂ</w>"
    ],
    [
      "ਸਿ",
      "ਹ"
    ],
    [
      "ਪਿ",
      "ਤਾ</w>"
    ],
    [
      "ਮੰ",
      "ਤਰੀ</w>"
    ],
    [
      "ਪਿ",
      "ੰਡ</w>"
    ],
    [
      "ਕ",
      "ਮ</w>"
    ],
    [
      "ਸ",
      "ਲ"
    ],
    [
      "1",
      "6"
    ],
    [
      "ਸ਼",
      "ਾਂ</w>"
    ],
    [
      "ਮਾਰ",
      "ਚ</w>"
    ],
    [
      "ਉੱਚ",
      "</w>"
    ],
    [
      "ਲ",
      "ਤਾ</w>"
    ],
    [
      "ਖੋ",
      "ਜ</w>"
    ],
    [
      "ਵ",
      "ਲ</w>"
    ],
    [
      "ਤੱ",
      "ਕ,</w>"
    ],
    [
      "ਜੋ",
      "ੜ"
    ],
    [
      "ਸ਼",
      "ਬ"
    ],
    [
      "ਵੇ",
      "ਸ਼</w>"
    ],
    [
      "ਗ",
      "ਲ</w>"
    ],
    [
      "ਪੈ",
      "ਸੇ</w>"
    ],
    [
      "ੱਚ",
      "</w>"
    ],
    [
      "ਪੂ",
      "ਰਾ</w>"
    ],
    [
      "ਫ",
      "੍"
    ],
    [
      "ਸ਼",
      "ੇ"
    ],
    [
      "ਵਿ",
      "ਆਪ"
    ],
    [
      "ਦੂ",
      "ਰ</w>"
    ],
    [
      "ਮਨ",
      "ੁੱ"
    ],
    [
      "ਸ",
      "ਕਾਰ</w>"
    ],
    [
      "ਰ",
      ",</w>"
    ],
    [
      "ਹਿੱਸ",
      "ਿਆਂ</w>"
    ],
    [
      "ਸਿੰ",
      "ਘ</w>"
    ],
    [
      "ਮਾ",
      "ਲ"
    ],
    [
      "ਰਾ",
      "ਜਾ</w>"
    ],
    [
      "ਧਾ",
      "ਰ</w>"
    ],
    [
      "ਦਾ",
      "।</w>"
    ],
    [
      "ਣ",
      "-"
    ],
    [
      "ਦਿ",
      "ਨਾਂ</w>"
    ],
    [
      "ਅ",
      "ਭਿ"
    ],
    [
      "ਯ",
      "ੁੱਧ</w>"
    ],
    [
      "ਮ",
      "ਰਾ"
    ],
    [
      "ੀਆ",
      "ਂ,</w>"
    ],
    [
      "ਜ਼",
      "ਿੰ"
    ],
    [
      "ਚ",
      "ੁੱ"
    ],
    [
      "ਬੂ",
      "ਤ</w>"
    ],
    [
      "ਗੰ",
      "ਭੀ"
    ],
    [
      "ਮ",
      "ੰਗ"
    ],
    [
      "ਕਿ",
      "ੰ"
    ],
    [
      "ਪ",
      "ਾ</w>"
    ],
    [
      "ਤ",
      "ਬ"
    ],
    [
      "ਲੱ",
      "ਛ"
    ],
    [
      "1",
      "2</w>"
    ],
    [
      "ਟ",
      "ਲ</w>"
    ],
    [
      "ਲੱ",
      "ਗ</w>"
    ],
    [
      "ਸ਼",
      "ੁ"
    ],
    [
      "ਵਾ",
      "ਂ"
    ],
    [
      "ਦੋ",
      "ਵਾਂ</w>"
    ],
    [
      "ਦਰ",
      "ਾਂ</w>"
    ],
    [
      "ਵਾ",
      ",</w>"
    ],
    [
      "ਨੈ",
      "ਸ਼ਨਲ</w>"
    ],
    [
      "2",
      "1</w>"
    ],
    [
      "ਅੰਗ",
      "ਰੇ"
    ],
    [
      "ਜਿੱ",
      "ਤ</w>"
    ],
    [
      "ਸਮ",
      "ਝ"
    ],
    [
      "ਆ",
      "ਂ"
    ],
    [
      "ਸ",
      "ਵਾ"
    ],
    [
      "1",
      "5"
    ],
    [
      "ਰੋ",
      "ਕ</w>"
    ],
    [
      "ਰ",
      "ੀਆ</w>"
    ],
    [
      "ਮ",
      "ਾਂ"
    ],
    [
      "ਟ",
      "ਬਾਲ</w>"
    ],
    [
      "ਲੇ",
      "ਖ</w>"
    ],
    [
      "ਸ",
      "ਾਂ</w>"
    ],
    [
      "ਜਿ",
      "ਤ</w>"
    ],
    [
      "ਐੱਸ",
      ".</w>"
    ],
    [
      "ਹਾ",
      "ਲ</w>"
    ],
    [
      "ਲ",
      "ੁ"
    ],
    [
      "ਰ",
      "ੌ"
    ],
    [
      "ਫ਼",
      "ੀ</w>"
    ],
    [
      "ੈਂ",
      "ਟ</w>"
    ],
    [
      "ਚੀ",
      "ਜ਼ਾਂ</w>"
    ],
    [
      "ਤਬ",
      "ਦੀ"
    ],
    [
      "ਇ",
      "ਹਨਾਂ</w>"
    ],
    [
      "ਹ",
      "ਵਾਈ</w>"
    ],
    [
      "ਰੱਖ",
      "ਣ</w>"
    ],
    [
      "ਨਾਲ",
      ",</w>"
    ],
    [
      "ਤ",
      "ਿਆਂ</w>"
    ],
    [
      "ਚ",
      "ਲਾ"
    ],
    [
      "ਪਰ",
      "ੰ"
    ],
    [
      "ਨ",
      "ਸ</w>"
    ],
    [
      "ਦ",
      "ਿਆਂ</w>"
    ],
    [
      "ਬੰਗਾ",
      "ਲ</w>"
    ],
    [
      "ਮ",
      "ਹਾਰ"
    ],
    [
      "ਆਪਣ",
      "ੀਆਂ</w>"
    ],
    [
      "ਵ",
      "ੰਡ"
    ],
    [
      "ਸ",
      "ਰੋ"
    ],
    [
      "ਸਟ",
      "ੋਰ</w>"
    ],
    [
      "ਪੰ",
      "ਜਾ"
    ],
    [
      "ਨਾਲ",
      "-"
    ],
    [
      "ਨ",
      "ਜ਼"
    ],
    [
      "ਚੋ",
      "ਣ</w>"
    ],
    [
      "ਬ",
      "ੋਰ"
    ],
    [
      "ਬਦ",
      "ਲ</w>"
    ],
    [
      "ਰ",
      "ਵਾਇ"
    ],
    [
      "ਮਹੀ",
      "ਨੇ</w>"
    ],
    [
      "ਪ੍ਰ",
      "ੇ"
    ],
    [
      "ਸ਼",
      "ੰ"
    ],
    [
      "ਜ",
      "ੈਕ"
    ],
    [
      "ਜ",
      "ਵਾ"
    ],
    [
      "ਪਾ",
      "ਰ</w>"
    ],
    [
      "ਥ",
      "ਾ</w>"
    ],
    [
      "ਲੱ",
      "ਭ"
    ],
    [
      "ਰ",
      "ਿਲੀ"
    ],
    [
      "ਕ",
      "ਦੇ</w>"
    ],
    [
      "ਗ",
      "ਲ"
    ],
    [
      "ਹੇਠ",
      "ਾਂ</w>"
    ],
    [
      "ਓ",
      "ਲੰ"
    ],
    [
      "ਅਧ",
      "ੀਨ</w>"
    ],
    [
      "ਵਾ",
      "ਸ</w>"
    ],
    [
      "ਘ",
      "ੋ"
    ],
    [
      "ਪੂਰ",
      "ੇ</w>"
    ],
    [
      "ਚ",
      "ਿਤ</w>"
    ],
    [
      "ਲੜਾ",
      "ਈ</w>"
    ],
    [
      "ਸਮਰ",
      "ਥਨ</w>"
    ],
    [
      "ਦੇ",
      "ਵ"
    ],
    [
      "ਮਹਾਰ",
      "ਾ"
    ],
    [
      "ਬੱਚ",
      "ੇ</w>"
    ],
    [
      "ਹੋ",
      "ਇਆ।</w>"
    ],
    [
      "ਮਿ",
      "ਤ</w>"
    ],
    [
      "ਪਿ",
      "ਤ</w>"
    ],
    [
      "ਚੁ",
      "ਣ"
    ],
    [
      "ਇੱ",
      "ਥੇ</w>"
    ],
    [
      "201",
      "4</w>"
    ],
    [
      "ਉ",
      "ਲ"
    ],
    [
      "ਮਿੰ",
      "ਟ</w>"
    ],
    [
      "ਚ",
      "ਮ"
    ],
    [
      "ਵਿ",
      "ਵ"
    ],
    [
      "ਨ",
      "ਵੰ"
    ],
    [
      "ਾਂ",
      "ਤ</w>"
    ],
    [
      "ਭੋ",
      "ਜਨ</w>"
    ],
    [
      "ਰਵਾਇ",
      "ਤੀ</w>"
    ],
    [
      "ਪ੍ਰਣਾ",
      "ਲੀ</w>"
    ],
    [
      "ਸੁਰੱਖ",
      "ਿਆ</w>"
    ],
    [
      "ਅਰ",
      "ਥ</w>"
    ],
    [
      "ਜਾਂ",
      "ਦੀਆਂ</w>"
    ],
    [
      "ਜ",
      "ਗ"
    ],
    [
      "ਝ",
      "ੀ"
    ],
    [
      "ਪ੍ਰ",
      "ਧਾਨ</w>"
    ],
    [
      "ਬੰ",
      "ਧ</w>"
    ],
    [
      "ਜ਼",
      "ੇ</w>"
    ],
    [
      "19",
      "5"
    ],
    [
      "ਹ",
      "ਰਾ"
    ],
    [
      "ਲ",
      "ੰਡ"
    ],
    [
      "ਵਰਤ",
      "ਿਆ</w>"
    ],
    [
      "ਦੁ",
      "ਰ"
    ],
    [
      "ਵ",
      "ਤ</w>"
    ],
    [
      "ਜਾਣ",
      "ਕਾਰੀ</w>"
    ],
    [
      "ਸ਼ੁਰੂਆ",
      "ਤੀ</w>"
    ],
    [
      "ਭ",
      "ਵ</w>"
    ],
    [
      "ਉਮੀ",
      "ਦ</w>"
    ],
    [
      "ਅ",
      "ਪ੍ਰੈ"
    ],
    [
      "ਬ",
      "ਚਾ"
    ],
    [
      "ਕਿ",
      "ਸਮ</w>"
    ],
    [
      "ਨਾਲ-",
      "ਨਾਲ</w>"
    ],
    [
      "ਚੈਂਪੀ",
      "ਅਨ"
    ],
    [
      "ਨਾ",
      "ਈ"
    ],
    [
      "ਕਾਰ",
      "ੋ"
    ],
    [
      "ਕੰਪਿਊ",
      "ਟਰ</w>"
    ],
    [
      "ਖ",
      "ਤਮ</w>"
    ],
    [
      "ਰਿਲੀ",
      "ਜ਼</w>"
    ],
    [
      "ਸ਼ਬ",
      "ਦ</w>"
    ],
    [
      "ਰ",
      "ਸ</w>"
    ],
    [
      "ਜ਼",
      "ਮੀ"
    ],
    [
      "ਡ",
      "ਰਾ"
    ],
    [
      "ਮ",
      "ਿੱ"
    ],
    [
      "ਗ",
      "ਾਂ</w>"
    ],
    [
      "ਹਾ",
      "ਈ"
    ],
    [
      "ੀਆ",
      "ਂ।</w>"
    ],
    [
      "ਮ",
      "ਿਆ"
    ],
    [
      "ਸਤ",
      "ੰ"
    ],
    [
      "ਭ",
      "ਾ</w>"
    ],
    [
      "ਆ",
      "ਉਣ</w>"
    ],
    [
      ";",
      "</w>"
    ],
    [
      "ਚਾ",
      "ਹੁੰਦੇ</w>"
    ],
    [
      "ਬਣ",
      "ਾ</w>"
    ],
    [
      "ਬਾਰ",
      "ਾ</w>"
    ],
    [
      "ਮੀ",
      "ਰ</w>"
    ],
    [
      "ਮੌਜੂ",
      "ਦਾ</w>"
    ],
    [
      ":",
      "</w>"
    ],
    [
      "ਰ",
      "ੱ"
    ],
    [
      "ਸ਼ਾ",
      "ਹ</w>"
    ],
    [
      "ਦ੍ਰ",
      "ਿ"
    ],
    [
      "ਸ਼",
      "ਤ</w>"
    ],
    [
      "ਡਾ",
      "ਕ"
    ],
    [
      "ਪ੍ਰਭਾ",
      "ਵ</w>"
    ],
    [
      "ਦ",
      "ਸੰ"
    ],
    [
      "ਬ",
      "ਜਾ"
    ],
    [
      "ਕ",
      "ਮਾ"
    ],
    [
      "ਕੀਤ",
      "ੀਆਂ</w>"
    ],
    [
      "ਮ",
      "ੂਲ</w>"
    ],
    [
      "ੇ",
      ",</w>"
    ],
    [
      "ਲੋ",
      "ੜ</w>"
    ],
    [
      "ਥ",
      "ੀ"
    ],
    [
      "ਸੰ",
      "ਪਰ"
    ],
    [
      "ਯਾ",
      "ਤਰਾ</w>"
    ],
    [
      "ਅਨੁ",
      "ਸਾਰ</w>"
    ],
    [
      "ਅਕ",
      "ਤੂ"
    ],
    [
      "ਲਿ",
      "ੰਗ</w>"
    ],
    [
      "ਪਰੰ",
      "ਪ"
    ],
    [
      "ਵਿ",
      "ਚਾਰ</w>"
    ],
    [
      "ਦ",
      "ਨ</w>"
    ],
    [
      "ਪ",
      "ਾਂ</w>"
    ],
    [
      "ਰਾ",
      "ਨ</w>"
    ],
    [
      "ਖ਼",
      "ਾ"
    ],
    [
      "ਪਹੁੰ",
      "ਚ</w>"
    ],
    [
      "ਦਿਖਾ",
      "ਈ</w>"
    ],
    [
      "ਸਮ",
      "ੁੰ"
    ],
    [
      "ਫ਼ਿਲ",
      "ਮਾਂ</w>"
    ],
    [
      "ਵਿਆਪ",
      "ਕ</w>"
    ],
    [
      "ਅਗ",
      "ਵਾਈ</w>"
    ],
    [
      "ਲ",
      "ਮ</w>"
    ],
    [
      "ਓਲੰ",
      "ਪਿਕ</w>"
    ],
    [
      "ਸ",
      "ੂਰ"
    ],
    [
      "ਿਆ",
      "ਰ"
    ],
    [
      "ਪਿਛ",
      "ਲੇ</w>"
    ],
    [
      "ਨ",
      "-"
    ],
    [
      "ਮਰਾ",
      "ਠ"
    ],
    [
      "ਰਾ",
      "ਜਾਂ</w>"
    ],
    [
      "ਾਰ",
      "ੀਆਂ</w>"
    ],
    [
      "ਯੋਜ",
      "ਨਾ</w>"
    ],
    [
      "ਆ",
      "ਵਾ"
    ],
    [
      "ਨ",
      "ਿਆਂ</w>"
    ],
    [
      "ਗ",
      "ੂ</w>"
    ],
    [
      "ਇ",
      "ੰਗ"
    ],
    [
      "ਰਾਜ",
      "ਧਾ"
    ],
    [
      "ਤੁ",
      "ਲ"
    ],
    [
      "ਤ",
      "ਲ"
    ],
    [
      "ਪੁਰ",
      "ਸਕਾਰ</w>"
    ],
    [
      "ਲੰ",
      "ਬੇ</w>"
    ],
    [
      "ਯੂਨੀਵਰ",
      "ਸਿਟੀ</w>"
    ],
    [
      "ਤਾ",
      "ਲ</w>"
    ],
    [
      "ਸ਼੍",
      "ਰੇ"
    ],
    [
      "ਦੱਸ",
      "ਿਆ</w>"
    ],
    [
      "ਵ",
      "ਧਾ"
    ],
    [
      "ਬ੍",
      "ਰਾ"
    ],
    [
      "ਗੰਭੀ",
      "ਰ</w>"
    ],
    [
      "ਦਿੱਤੀ",
      "।</w>"
    ],
    [
      "ਵਿੱ",
      "ਤੀ</w>"
    ],
    [
      "ਸ਼ਾ",
      "ਇ"
    ],
    [
      "ਰਹਿੰ",
      "ਦੇ</w>"
    ],
    [
      "ਫੈਸ",
      "ਲਾ</w>"
    ],
    [
      "ਾਰ",
      "ਾਂ</w>"
    ],
    [
      "ਸਮੇ",
      "ਤ</w>"
    ],
    [
      "201",
      "0</w>"
    ],
    [
      "ਸੱ",
      "ਭਿਆ"
    ],
    [
      "ਦੁ",
      "ਬਾਰਾ</w>"
    ],
    [
      "ਭਾ",
      "ਈ"
    ],
    [
      "ਅ",
      "ਣ"
    ],
    [
      "ਪੂਰ",
      "ਬ</w>"
    ],
    [
      "ਮ",
      "ਹਾਂ"
    ],
    [
      "ਪਾਰ",
      "ਟੀ</w>"
    ],
    [
      "ਕਿ",
      "ੰਗ</w>"
    ],
    [
      "ਪਾ",
      "ਲ</w>"
    ],
    [
      "ਸ",
      "ਾਂ"
    ],
    [
      "ਦੱਖ",
      "ਣ</w>"
    ],
    [
      "201",
      "3</w>"
    ],
    [
      "ਡ",
      "ੀਆ</w>"
    ],
    [
      "ਗ",
      "ੀਆਂ</w>"
    ],
    [
      "ਇਲਾ",
      "ਵਾ,</w>"
    ],
    [
      "ਪਾ",
      "ਲਿ"
    ],
    [
      "ਸ਼ਾ",
      "ਲੀ</w>"
    ],
    [
      "ਪ",
      "ੈਂ"
    ],
    [
      "ਮਿ",
      "ਊ"
    ],
    [
      "ਏ",
      ".</w>"
    ],
    [
      "ਝ",
      "ਾ"
    ],
    [
      "ਗੇ",
      "ਮ</w>"
    ],
    [
      "ਆਯੋ",
      "ਜਿਤ</w>"
    ],
    [
      "ਪ",
      "ਛਾ"
    ],
    [
      "’",
      "</w>"
    ],
    [
      "ਪ",
      "ਸੰ"
    ],
    [
      "ਚ",
      "ਰ"
    ],
    [
      "ਲ",
      "ੜੀ</w>"
    ],
    [
      "2",
      "2</w>"
    ],
    [
      "ਗੇਂ",
      "ਦ</w>"
    ],
    [
      "ਸੰ",
      "ਨ</w>"
    ],
    [
      "ਕਿ",
      "ਸਮਾਂ</w>"
    ],
    [
      "ਦੁਆ",
      "ਲੇ</w>"
    ],
    [
      "ਸੂ",
      "ਚੀ</w>"
    ],
    [
      "ਲੀ",
      "ਗ</w>"
    ],
    [
      "ਧ",
      "ੀਆਂ</w>"
    ],
    [
      "ਰਿ",
      "ਪੋਰ"
    ],
    [
      "ਪ",
      "ੂ</w>"
    ],
    [
      "ਲ",
      "ੋ</w>"
    ],
    [
      "ਅਧ",
      "ਾਰ"
    ],
    [
      "ਹਿੰ",
      "ਦੀ</w>"
    ],
    [
      "ਨੰ",
      "ਦ</w>"
    ],
    [
      "ਗਰ",
      "ਮ</w>"
    ],
    [
      "ਨ",
      "ਿਆ"
    ],
    [
      "ਪ੍ਰ",
      "ਬੰਧ"
    ],
    [
      "ਮੁਕਾਬ",
      "ਲੇ</w>"
    ],
    [
      "ਕਿਰ",
      "ਿਆ</w>"
    ],
    [
      "ਖਾ",
      "ਸ</w>"
    ],
    [
      "ਸੰਭਾ",
      "ਵਨਾ</w>"
    ],
    [
      "ਦੂ",
      "ਜੀ</w>"
    ],
    [
      "1",
      "5</w>"
    ],
    [
      "ਘਾ",
      "ਟ</w>"
    ],
    [
      "ਡੀ",
      ".</w>"
    ],
    [
      "ਦਿੱ",
      "ਤੇ</w>"
    ],
    [
      "ਨਿਯ",
      "ੰ"
    ],
    [
      "ਤ",
      "ਕ"
    ],
    [
      "ਐ",
      "ਕ"
    ],
    [
      "ਖਾ",
      "ਨ</w>"
    ],
    [
      "ਕੀਤ",
      "ੀ,</w>"
    ],
    [
      "ਵਾ",
      "ਵਾਂ</w>"
    ],
    [
      "ਵਿ",
      "ਗਿਆ"
    ],
    [
      "ਵੇ",
      "ਖ"
    ],
    [
      "ਕਾ",
      "ਫ਼ੀ</w>"
    ],
    [
      "ਲਾ",
      "ਲ</w>"
    ],
    [
      "ਮ",
      "ੂਰ"
    ],
    [
      "ਡ",
      ",</w>"
    ],
    [
      "ਗ੍ਰਾ",
      "ਹ"
    ],
    [
      "ਸਥ",
      "ਾ</w>"
    ],
    [
      "ਅੱ",
      "ਗੇ</w>"
    ],
    [
      "ਜ",
      "ਲੀ</w>"
    ],
    [
      "ਅੱ",
      "ਜ</w>"
    ],
    [
      "ਰਿ",
      "ਕ</w>"
    ],
    [
      "ਬੈਂ",
      "ਕ</w>"
    ],
    [
      "ਐੱ",
      "ਫ"
    ],
    [
      "ਨੂੰ",
      ",</w>"
    ],
    [
      "ਨਿਰ",
      "ਧਾਰ"
    ],
    [
      "ਈ",
      "ਨ</w>"
    ],
    [
      "ਰਹਿ",
      "ਣ</w>"
    ],
    [
      "ਫ",
      "ੀ</w>"
    ],
    [
      "ਆਖ",
      "ਰੀ</w>"
    ],
    [
      "ਲ",
      "ੂ</w>"
    ],
    [
      "ਕੁ",
      "ਮਾਰ</w>"
    ],
    [
      "ਐ",
      "ਲਾ"
    ],
    [
      "ਟੈ",
      "ਸਟ</w>"
    ],
    [
      "ਬਾ",
      "ਦ</w>"
    ],
    [
      "ਬਣਾ",
      "ਈ</w>"
    ],
    [
      "ੜ",
      "ਾਂ</w>"
    ],
    [
      "ਸਿ",
      "ਸ</w>"
    ],
    [
      "ੀਆ",
      "ਈ</w>"
    ],
    [
      "ਸਾ",
      "ਬ"
    ],
    [
      "ਣ",
      "ੀ"
    ],
    [
      "ਪ੍ਰੋਗਰਾ",
      "ਮ</w>"
    ],
    [
      "ਅ",
      "ਭਿਆ"
    ],
    [
      "ਹਮ",
      "ਲਾ</w>"
    ],
    [
      "201",
      "1</w>"
    ],
    [
      "ਭਾ",
      "ਲ</w>"
    ],
    [
      "ਜਨ",
      "ਵਰੀ</w>"
    ],
    [
      "ਉੱ",
      "ਤਰ"
    ],
    [
      "ਐੱ",
      "ਲ"
    ],
    [
      "ਗ",
      "ੜ੍ਹ</w>"
    ],
    [
      "ਫ",
      "ਾ</w>"
    ],
    [
      "ੰ",
      "ਬ"
    ],
    [
      "ਖਿਡ",
      "ਾਰੀਆਂ</w>"
    ],
    [
      "ਰਾਜਧਾ",
      "ਨੀ</w>"
    ],
    [
      "ਅ",
      "ਜੇ</w>"
    ],
    [
      "ਹੋ",
      "ਈ।</w>"
    ],
    [
      "ਸਿਰ",
      "ਫ਼</w>"
    ],
    [
      "ਕਹਾ",
      "ਣੀ</w>"
    ],
    [
      "ਕੇ",
      "ਰਲ</w>"
    ],
    [
      "ਸਿ",
      "ਸਟ"
    ],
    [
      "ਆ",
      "ਗਿਆ</w>"
    ],
    [
      "ਇਤਿਹਾ",
      "ਸ</w>"
    ],
    [
      "ਸੀ",
      "."
    ],
    [
      "ਬੱ",
      "ਧ</w>"
    ],
    [
      "ਕਰ",
      "ਮ"
    ],
    [
      "ਜਨ",
      "ਤਕ</w>"
    ],
    [
      "ਮੁ",
      "ੜ</w>"
    ],
    [
      "ਈ",
      "ਆ"
    ],
    [
      "ਪ੍ਰ",
      "ਕਾ"
    ],
    [
      "ਰਹ",
      "ੇ।</w>"
    ],
    [
      "ਲ",
      "ਿਆ"
    ],
    [
      "ਲਾਂ",
      ",</w>"
    ],
    [
      "ਫ",
      "ਰਾਂ"
    ],
    [
      "ਚੰਗ",
      "ੀ</w>"
    ],
    [
      "ਲ",
      "੍ਹ"
    ],
    [
      "ਸ",
      "ੁੱ"
    ],
    [
      "ਜ",
      "ਰ</w>"
    ],
    [
      "ਗ",
      "ਤੀ"
    ],
    [
      "ਮਨਾ",
      "ਇਆ</w>"
    ],
    [
      "ਯ",
      "ਾਰ"
    ],
    [
      "ਸੰਪਰ",
      "ਕ</w>"
    ],
    [
      "ਸ",
      "ੜ"
    ],
    [
      "ਅਪ੍ਰੈ",
      "ਲ</w>"
    ],
    [
      "ਮੈ",
      "ਨ</w>"
    ],
    [
      "ਹਿ",
      "</w>"
    ],
    [
      "ਆ",
      "ਧੁ"
    ],
    [
      "ਹੋ",
      "ਣਾ</w>"
    ],
    [
      "ੜ",
      "ਿਆਂ</w>"
    ],
    [
      "ਗਿਆ",
      ",</w>"
    ],
    [
      "ੀ",
      "ਕ</w>"
    ],
    [
      "ਸਹਾ",
      "ਇਕ</w>"
    ],
    [
      "ਝੀ",
      "ਲ</w>"
    ],
    [
      "ਸਰੀ",
      "ਰ</w>"
    ],
    [
      "ਸ",
      "ਹੀ</w>"
    ],
    [
      "ਗ",
      "ਾਂ"
    ],
    [
      "ਪ੍ਰ",
      "ੀ"
    ],
    [
      "ਸ",
      "ਪੈ"
    ],
    [
      "ਨੈ",
      "ੱਟ"
    ],
    [
      "ਸਿਹ",
      "ਤ</w>"
    ],
    [
      "ਐ",
      "ੱਚ"
    ],
    [
      "ਵੈ",
      "ੱ"
    ],
    [
      "ਮਾ",
      "ਮਲ"
    ],
    [
      "ਲੇ",
      "ਖ"
    ],
    [
      "ਨਾਟ",
      "ਕ</w>"
    ],
    [
      "ਨਿ",
      "ਵੇਸ਼</w>"
    ],
    [
      "ਕੀ",
      "ਮਤ</w>"
    ],
    [
      "ਸੰਗ",
      "ਠ"
    ],
    [
      "ਕਰ",
      "ਵਾ"
    ],
    [
      "ਦਸੰ",
      "ਬਰ</w>"
    ],
    [
      "ਅੰ",
      "ਦਰ"
    ],
    [
      "ਵੰ",
      "ਸ਼</w>"
    ],
    [
      "ਚੈਂਪੀਅਨ",
      "ਸ਼ਿਪ</w>"
    ],
    [
      "ਲੈ",
      "ਕ"
    ],
    [
      "ਪਾ",
      "ਕਿ"
    ],
    [
      "ਗ",
      "ੁਰ"
    ],
    [
      "ਰਾ",
      "ਮ</w>"
    ],
    [
      "ਟੈ",
      "ਲੀ"
    ],
    [
      "20",
      "20</w>"
    ],
    [
      "ਕ੍ਰ",
      "ੋ"
    ],
    [
      "ਮ",
      "ਈ</w>"
    ],
    [
      "ਮਾਮਲ",
      "ਿਆਂ</w>"
    ],
    [
      "ਨਵੰ",
      "ਬਰ</w>"
    ],
    [
      "ਪਾ",
      "ਸ</w>"
    ],
    [
      "ਨ",
      "ਜ਼</w>"
    ],
    [
      "ਜਿ",
      "ਸ"
    ],
    [
      "ਸੰਗ",
      "ੀ"
    ],
    [
      "ਨ",
      "ਗਰ"
    ],
    [
      "ਕ",
      "ਲਾ</w>"
    ],
    [
      "ੰਗ",
      "ਾ</w>"
    ],
    [
      "ਣ",
      "ਨ</w>"
    ],
    [
      "ਸ",
      "ਫ਼"
    ],
    [
      "ਕਰ",
      "ਦੀਆਂ</w>"
    ],
    [
      "ਸੈ",
      "ੱ"
    ],
    [
      "ਵਿਸ਼",
      "ੇਸ਼"
    ],
    [
      "ਸ",
      "ਤੀ</w>"
    ],
    [
      "ਨ",
      "ਵੀਂ</w>"
    ],
    [
      "ਇ",
      "ਰ"
    ],
    [
      "ਜਗ",
      "੍ਹਾ</w>"
    ],
    [
      "ਆ",
      "ਫ਼</w>"
    ],
    [
      "201",
      "2</w>"
    ],
    [
      "ਪਾ",
      "ਸੇ</w>"
    ],
    [
      "ਲ",
      "੍ਹ</w>"
    ],
    [
      "ਪ੍ਰਾ",
      "ਚੀਨ</w>"
    ],
    [
      "ਉਪ",
      "ਲਬ"
    ],
    [
      "ਰ",
      "ੰਗ</w>"
    ],
    [
      "ਸਾਈ",
      "ਟ</w>"
    ],
    [
      "ਸ਼",
      "ਣ</w>"
    ],
    [
      "ਕੈ",
      "ਨੇ"
    ],
    [
      "ਰਾਜ",
      "ਨੀ"
    ],
    [
      "ਮੇ",
      "ਲ</w>"
    ],
    [
      "2",
      "5</w>"
    ],
    [
      "ਅਕਤੂ",
      "ਬਰ</w>"
    ],
    [
      "ਲੋ",
      "ਚ"
    ],
    [
      "ਸਕ",
      "ਦੀਆਂ</w>"
    ],
    [
      ")",
      ",</w>"
    ],
    [
      "ਦ",
      "ਮ</w>"
    ],
    [
      "ਬਾ",
      "ਈ"
    ],
    [
      "ਜੂ",
      "ਨ</w>"
    ],
    [
      "ਸੋ",
      "ਚ"
    ],
    [
      "ਮੌਜੂ",
      "ਦ</w>"
    ],
    [
      "ਮੁ",
      "ਸ਼"
    ],
    [
      "ਨ",
      "ਦਾਰ</w>"
    ],
    [
      "ਨਿਰਧਾਰ",
      "ਤ</w>"
    ],
    [
      "ਕਰ",
      "ੀ"
    ],
    [
      "ਜਾ",
      "ਨ"
    ],
    [
      "ਫੋ",
      "ਨ</w>"
    ],
    [
      "ਆਧੁ",
      "ਨਿਕ</w>"
    ],
    [
      "ਭੇ",
      "ਜ"
    ],
    [
      "ਜਾ",
      "ਣਾ</w>"
    ],
    [
      "ਨਾ",
      "ਡੂ</w>"
    ],
    [
      "ਕਿ",
      "ਵੇਂ</w>"
    ],
    [
      "ਸਤੰ",
      "ਬਰ</w>"
    ],
    [
      "ਬੰ",
      "ਦੀ</w>"
    ],
    [
      "ਡ",
      "ੀਆਂ</w>"
    ],
    [
      "ਫੁੱ",
      "ਟਬਾਲ</w>"
    ],
    [
      "ਵੱ",
      "ਲ"
    ],
    [
      "ਤ",
      "ਨ</w>"
    ],
    [
      "ਨ",
      "ਿੱ"
    ],
    [
      "੍",
      "ਰਿ"
    ],
    [
      "ਇਕੱਠ",
      "ੇ</w>"
    ],
    [
      "ਬਰ",
      "ਾਂ</w>"
    ],
    [
      "ਧ",
      "ਾ</w>"
    ],
    [
      "ਸ਼",
      "ਾ"
    ],
    [
      "ਰਾਸ਼ਟਰ",
      "ਪਤੀ</w>"
    ],
    [
      "ਦੇ",
      "ਵ</w>"
    ],
    [
      "ਸਮਾਰ",
      "ੋ"
    ],
    [
      "ਪਿੱ",
      "ਛੇ</w>"
    ],
    [
      "ਬੀ",
      ".</w>"
    ],
    [
      "ਕੱ",
      "ਢ"
    ],
    [
      "ਸਿਰ",
      "ਫ</w>"
    ],
    [
      "ਿ",
      "ਅਤ</w>"
    ],
    [
      "ਸ",
      "ਿਲ"
    ],
    [
      "ਐੱਸ",
      "."
    ],
    [
      "ਪਾਲਿ",
      "ਕਾ</w>"
    ],
    [
      "ਤੀ",
      "ਰ"
    ],
    [
      "ਉਦਾਹਰ",
      "ਣ</w>"
    ],
    [
      "ਅਧਿ",
      "ਐ"
    ],
    [
      "ਅਗ",
      "ਲੇ</w>"
    ],
    [
      "ਪ",
      "ਾਂ"
    ],
    [
      "ਨ",
      "ਗਰ</w>"
    ],
    [
      "ਜਿ",
      "ੰ"
    ],
    [
      "ਕਾ",
      "ਊਂ"
    ],
    [
      "ਵਰ",
      "ਗ</w>"
    ],
    [
      "ਕਿ",
      "ਸ਼"
    ],
    [
      "ਇਆ",
      ",</w>"
    ],
    [
      "ਅ",
      "ਸੀਂ</w>"
    ],
    [
      "ਬ",
      "ੈਕ"
    ],
    [
      "ਲਿ",
      "ਕ</w>"
    ],
    [
      "201",
      "7</w>"
    ],
    [
      "ਪ",
      "ਦਾਰ"
    ],
    [
      "ਵਰ",
      "ਾਂ</w>"
    ],
    [
      "ਫ",
      "ਟ</w>"
    ],
    [
      "ਭਾ",
      "ਗ</w>"
    ],
    [
      "200",
      "8</w>"
    ],
    [
      "ਵਾਇ",
      "ਰਸ</w>"
    ],
    [
      "ਨਿ",
      "ਸ਼"
    ],
    [
      "ਸ਼ੈ",
      "ਲੀ</w>"
    ],
    [
      "ਸਬੰਧ",
      "ਤ</w>"
    ],
    [
      "ਵੇ",
      "ਚ"
    ],
    [
      "ਥ",
      "ੈ"
    ],
    [
      "ਦੇ",
      "ਖਿਆ</w>"
    ],
    [
      "ਦੁ",
      "ਕਾ"
    ],
    [
      "ਪਹਾ",
      "ੜੀ</w>"
    ],
    [
      "ਉਪਲਬ",
      "ਧ</w>"
    ],
    [
      "ਸਾ",
      "ਸ</w>"
    ],
    [
      "ਰਾ",
      "ਇ"
    ],
    [
      "ਐ",
      "ਲ"
    ],
    [
      "ਸ਼",
      "ਟੀ</w>"
    ],
    [
      "ਐੱ",
      "ਸ</w>"
    ],
    [
      "ਜ",
      "ੌ"
    ],
    [
      "ਪੈ",
      "ਸਾ</w>"
    ],
    [
      "ਵ",
      "ਪਾਰਕ</w>"
    ],
    [
      "201",
      "8</w>"
    ],
    [
      "ਅੰ",
      "ਦਾ"
    ],
    [
      "ਐਂ",
      "ਟੀ"
    ],
    [
      "ਆਰ",
      "ਥ"
    ],
    [
      "ਗੁ",
      "ਜ"
    ],
    [
      "ਡੀ",
      "."
    ],
    [
      "ਪ੍ਰਭਾ",
      "ਵ"
    ],
    [
      "ਵੱਲ",
      "ੋਂ</w>"
    ],
    [
      "ਦੂ",
      "ਜਾ</w>"
    ],
    [
      "ਪਸੰ",
      "ਦ</w>"
    ],
    [
      "ਜ",
      "ਹਾ"
    ],
    [
      "ਜਿ",
      "ਕ</w>"
    ],
    [
      "ਕੁ",
      "ੰ"
    ],
    [
      "ਸਮਰ",
      "ੱ"
    ],
    [
      "ਸ਼",
      "ਲ</w>"
    ],
    [
      "ਜ਼",
      "ੋ"
    ],
    [
      "ਅਧਾਰ",
      "ਤ</w>"
    ],
    [
      "ਯ",
      "ਕੀ"
    ],
    [
      "ਗੋ",
      "ਲ"
    ],
    [
      "ਅਧ",
      "ਾਰ</w>"
    ],
    [
      "ਸਮ",
      "ੀ"
    ],
    [
      "ਤ",
      "ੂ</w>"
    ],
    [
      "ਉੱਤਰ",
      "-"
    ],
    [
      "ਧ",
      "ੇ</w>"
    ],
    [
      "ਪਾ",
      "ਲ"
    ],
    [
      "ਸਥਾ",
      "ਪਤ</w>"
    ],
    [
      "ਜਲ",
      "ਦੀ</w>"
    ],
    [
      "20",
      "19</w>"
    ],
    [
      "ਰਾ",
      "ਬ</w>"
    ],
    [
      "ਮੱ",
      "ਛ"
    ],
    [
      "ਕਬ",
      "ਜ਼ਾ</w>"
    ],
    [
      "ਕ",
      "ਣ</w>"
    ],
    [
      "ਪੂ",
      "ਜਾ</w>"
    ],
    [
      "ਚ",
      "ਰ</w>"
    ],
    [
      "ਏ",
      "."
    ],
    [
      "ਕ",
      "ਸ਼</w>"
    ],
    [
      "ਕ",
      "ੜ</w>"
    ],
    [
      "ਕ",
      "ਲੱ"
    ],
    [
      "ਮੈ",
      "ਕ"
    ],
    [
      "ਤ੍ਰ",
      "ਿ"
    ],
    [
      "ਸ",
      "ਭਾ</w>"
    ],
    [
      "ਵਿ",
      "ਕਲ"
    ],
    [
      "ਟ",
      "ਰੋ"
    ],
    [
      "ਪ੍ਰੋ",
      "ਜੈਕ"
    ],
    [
      "ਤੁਹਾ",
      "ਡਾ</w>"
    ],
    [
      "ਦਾ",
      "ਅ"
    ],
    [
      "0",
      ",000</w>"
    ],
    [
      "ਕਾ",
      "ਇ"
    ],
    [
      "ਸੁਰੱਖ",
      "ਿਅਤ</w>"
    ],
    [
      "ਇੰਗ",
      "ਲੈਂਡ</w>"
    ],
    [
      "ਖ",
      "ਮ</w>"
    ],
    [
      "ਸਰ",
      "ਕਾਰੀ</w>"
    ],
    [
      "ਦੀ",
      "ਪ</w>"
    ],
    [
      "ਬ",
      "ਾਂ</w>"
    ],
    [
      "ਤ",
      "ਲ</w>"
    ],
    [
      "ਘ",
      "ਰੇਲ"
    ],
    [
      "ੜ",
      "ੀ"
    ],
    [
      "ਸਿ",
      "ਕ</w>"
    ],
    [
      "ਟ",
      "ੂਰ"
    ],
    [
      "ਨਾ",
      ",</w>"
    ],
    [
      "ਹ",
      "ੀਆਂ</w>"
    ],
    [
      "ਸੀ",
      "ਜ਼ਨ</w>"
    ],
    [
      "ਬਿ",
      "ਹ"
    ],
    [
      "ਬਰ",
      ",</w>"
    ],
    [
      "ਪੱਛ",
      "ਮ</w>"
    ],
    [
      "ਸਾਹਮ",
      "ਣਾ</w>"
    ],
    [
      "ਪ੍ਰ",
      "ਸ਼ੰ"
    ],
    [
      "ੋ",
      "ਂ,</w>"
    ],
    [
      "ਭ",
      "ਗ"
    ],
    [
      "ਮੌ",
      "ਸਮ</w>"
    ],
    [
      "ਖ਼ਾ",
      "ਸ</w>"
    ],
    [
      "1",
      "6</w>"
    ],
    [
      "ਲੀ",
      ",</w>"
    ],
    [
      "ਪ",
      "ਲ</w>"
    ],
    [
      "ਬੀ",
      "."
    ],
    [
      "ਓ",
      "।</w>"
    ],
    [
      "ਕ",
      "ਤ</w>"
    ],
    [
      "ਅ",
      "ਵ"
    ],
    [
      "ਵਿਦ",
      "ਿਆਰ"
    ],
    [
      "ਡ",
      "ਾਂ</w>"
    ],
    [
      "ਪ੍ਰ",
      "ਗ"
    ],
    [
      "ੀਆ",
      ",</w>"
    ],
    [
      "ਕ",
      "ਹਿੰ"
    ],
    [
      "201",
      "6</w>"
    ],
    [
      "ਯ",
      "ੁੱ"
    ],
    [
      "ਵਾਧ",
      "ੂ</w>"
    ],
    [
      "ਸ਼ਾਇ",
      "ਦ</w>"
    ],
    [
      "1",
      "8</w>"
    ],
    [
      "ਆਈ",
      ".</w>"
    ],
    [
      "ਆ",
      "ਲੋਚ"
    ],
    [
      "ਸ",
      "ਮਾਨ</w>"
    ],
    [
      "ਰ",
      "ਣ"
    ],
    [
      "ਇੱ",
      "ਕੋ</w>"
    ],
    [
      "ਟੀ",
      "ਮਾਂ</w>"
    ],
    [
      "ਕ",
      "ਤਾ</w>"
    ],
    [
      "ਕੈਂ",
      "ਸਰ</w>"
    ],
    [
      "ਮ",
      "ੇ</w>"
    ],
    [
      "ਪੰਜਾ",
      "ਬ</w>"
    ],
    [
      "ਹ",
      "ੰ"
    ],
    [
      "ਘਰੇਲ",
      "ੂ</w>"
    ],
    [
      "ਨ",
      "ਸ਼ੀ"
    ],
    [
      "ਸਮ",
      "ੱ"
    ],
    [
      "ਨ",
      "ਲਾਈਨ</w>"
    ],
    [
      "ਰ",
      "ੈਂ"
    ],
    [
      "ਅ",
      "ੱਖ"
    ],
    [
      "ਕੋ",
      "ਡ</w>"
    ],
    [
      "ਤ",
      "ਿਆ"
    ],
    [
      "ਬਜਾ",
      "ਏ</w>"
    ],
    [
      "ਟਰ",
      "ਾਂ</w>"
    ],
    [
      "ਮਹਿ",
      "ਲਾ</w>"
    ],
    [
      "ਗ",
      "ਿਆਨ</w>"
    ],
    [
      "ਅਜਿ",
      "ਹੇ</w>"
    ],
    [
      "ਸੰ",
      "ਕੇ"
    ],
    [
      "ਭਾਰ",
      "ੀ</w>"
    ],
    [
      "ਅ",
      "ਹਿ"
    ],
    [
      "ਛੋ",
      "ਟਾ</w>"
    ],
    [
      "ਲਾ",
      "ਗ</w>"
    ],
    [
      "ਸਵੀ",
      "ਡਨ</w>"
    ],
    [
      "ਪ",
      "ਨ</w>"
    ],
    [
      "ਨਾ",
      "ਗ"
    ],
    [
      "ਲਾ",
      "ਗੂ</w>"
    ],
    [
      "ਟ",
      "ੂ"
    ],
    [
      "ਕਾਂ",
      "ਗਰ"
    ],
    [
      "ਕਾਰ",
      "ਜ"
    ],
    [
      "ਹ",
      "ੂ"
    ],
    [
      "ਤਾ",
      "ਬ</w>"
    ],
    [
      "ਦ",
      "ਵਾ"
    ],
    [
      "ਮਹਾਰਾ",
      "ਸ਼"
    ],
    [
      "ਦੱਖ",
      "ਣ-"
    ],
    [
      "ਪੇ",
      "ਂ"
    ],
    [
      "ਸੈ",
      "ਨਾ</w>"
    ],
    [
      "ਬਾ",
      "ਇ"
    ],
    [
      "ਅ",
      "ਫ"
    ],
    [
      "ਆ",
      "ਫ਼</w>"
    ],
    [
      "ੰ",
      "ਤ</w>"
    ],
    [
      "ਜ਼",
      "</w>"
    ],
    [
      "ਨ",
      "ਹੀ"
    ],
    [
      "ਤ",
      "ਨ"
    ],
    [
      "ਰ",
      "ੰਗ"
    ],
    [
      "ਦਰਸਾ",
      "ਉਂਦਾ</w>"
    ],
    [
      "ਸਟ",
      "ੇਸ਼ਨ</w>"
    ],
    [
      "ਵਿਰੋ",
      "ਧ</w>"
    ],
    [
      "ਸਿ",
      "ਰ</w>"
    ],
    [
      "ਜ਼ਮੀ",
      "ਨ</w>"
    ],
    [
      "1",
      "2"
    ],
    [
      "ਦੇ",
      "।</w>"
    ],
    [
      "ਕਿਲ",
      "੍ਹਾ</w>"
    ],
    [
      "ਟੂਰ",
      "ਨਾ"
    ],
    [
      "1",
      "4</w>"
    ],
    [
      "ਹੱ",
      "ਦ</w>"
    ],
    [
      "ਜ਼ਿ",
      "ਕਰ</w>"
    ],
    [
      "ਹੈ",
      "ਰਾਨ</w>"
    ],
    [
      "ਆ",
      "ਦਿ"
    ],
    [
      "ਰਾਜ",
      "ਵੰਸ਼</w>"
    ],
    [
      "ਗ੍ਰ",
      "ੇ"
    ],
    [
      "ਸਾਹਮ",
      "ਣੇ</w>"
    ],
    [
      "ਢ",
      "ੰਗ</w>"
    ],
    [
      "ਸਿ",
      "ਤ</w>"
    ],
    [
      "ਐਲਾ",
      "ਨ</w>"
    ],
    [
      "-",
      "</w>"
    ],
    [
      "ਸ਼",
      "</w>"
    ],
    [
      "ਉੱ",
      "ਥੇ</w>"
    ],
    [
      "ਸੰ",
      "ਘ"
    ],
    [
      "ਏ",
      "ਸ਼ਨ</w>"
    ],
    [
      "ਧਾਰ",
      "ਮਿਕ</w>"
    ],
    [
      "ਸਿੱ",
      "ਖਿਆ</w>"
    ],
    [
      "ਅਧ",
      "ਿਆ"
    ],
    [
      "ਬਿ",
      "ੰ"
    ],
    [
      "ਅਭਿਆ",
      "ਸ</w>"
    ],
    [
      "ਮ",
      "ਰੀ"
    ],
    [
      "ਕਾਰੋ",
      "ਬਾਰ</w>"
    ],
    [
      "ਟ",
      "ੋ</w>"
    ],
    [
      "ਪ੍ਰਤੀ",
      "ਸ਼ਤ</w>"
    ],
    [
      "ਮਾ",
      "ਮ"
    ],
    [
      "ਪੇਸ਼",
      "ਕਸ਼</w>"
    ],
    [
      "ਸੁ",
      "ੰ"
    ],
    [
      "ਗ",
      "ਵਰ"
    ],
    [
      "ਥਾ",
      "ਵਾਂ</w>"
    ],
    [
      "ਬਾ",
      "ਕੀ</w>"
    ],
    [
      "ਬ",
      "ਿਲ"
    ],
    [
      "ਸਿਸਟ",
      "ਮ</w>"
    ],
    [
      "ਉਤ",
      "ਸ਼ਾ"
    ],
    [
      "ਸ਼ਾ",
      "ਸ"
    ],
    [
      "ਮ",
      "ਦ</w>"
    ],
    [
      "ਦੀ",
      "ਨ</w>"
    ],
    [
      "ਥ",
      "ੋਂ</w>"
    ],
    [
      "ਚਾ",
      "ਈ</w>"
    ],
    [
      "ਨਗਰ",
      "ਪਾਲਿਕਾ</w>"
    ],
    [
      "ਤੁਰ",
      "ੰਤ</w>"
    ],
    [
      "ਸਮੱਸ",
      "ਿਆਵਾਂ</w>"
    ],
    [
      "ਸ਼",
      "ਕ</w>"
    ],
    [
      "ਨ",
      "ਕ"
    ],
    [
      "1",
      "3"
    ],
    [
      "1",
      "1</w>"
    ],
    [
      "ਵਿ",
      "ਸ"
    ],
    [
      "ਸੰ",
      "ਸਥਾ"
    ],
    [
      "ਸੱ",
      "ਤ</w>"
    ],
    [
      "ਗ",
      "ਨ</w>"
    ],
    [
      "ਮੇ",
      "ਰੀ</w>"
    ],
    [
      "ਫ਼",
      "ੌ"
    ],
    [
      "ਧ",
      "ਿ"
    ],
    [
      "ਇਤਿਹਾ",
      "ਸਕ</w>"
    ],
    [
      "ਘ",
      "ਟਾ"
    ],
    [
      "ਸਟ",
      "ੋਰ"
    ],
    [
      "ਆਈ",
      "."
    ],
    [
      "ਰਹਿ",
      "</w>"
    ],
    [
      "ਲੰ",
      "ਘ"
    ],
    [
      "ਪ",
      "ਕ</w>"
    ],
    [
      "1",
      "3</w>"
    ],
    [
      "ਅਭਿ",
      "ਨੇ"
    ],
    [
      "ਪੀ",
      ".</w>"
    ],
    [
      "ਛੱ",
      "ਡ"
    ],
    [
      "ਕਿਲ",
      "੍ਹੇ</w>"
    ],
    [
      "ਪੱ",
      "ਥ"
    ],
    [
      "ਸ",
      "ਬ"
    ],
    [
      "ਨ",
      "ਦੀਆਂ</w>"
    ],
    [
      "ਭ",
      "ਰਾ</w>"
    ],
    [
      "ਾਰ",
      "ਾ"
    ],
    [
      "ਅ",
      "ਖ"
    ],
    [
      "ਲਗਾ",
      "ਤਾਰ</w>"
    ],
    [
      "ਨੰ",
      "ਬਰ</w>"
    ],
    [
      "ਨ",
      "ੋ</w>"
    ],
    [
      "ਵਿ",
      "ਲ"
    ],
    [
      "।",
      "\"</w>"
    ],
    [
      "ਨਿਰ",
      "ਭਰ</w>"
    ],
    [
      "ਜ਼ਿੰ",
      "ਮੇ"
    ],
    [
      "ਅਧਿਕਾਰ",
      "ੀਆਂ</w>"
    ],
    [
      "ਹ",
      "ਸਪ"
    ],
    [
      "ਹ",
      "ਲ"
    ],
    [
      "ਭਾ",
      "ਸ਼ਾ"
    ],
    [
      "ਸ",
      "ਕ੍ਰ"
    ],
    [
      "ਣ",
      ",</w>"
    ],
    [
      "4",
      "0</w>"
    ],
    [
      "ਰੇਲ",
      "ੀਆ</w>"
    ],
    [
      "ਅਧਿਕਾਰ",
      "ਤ</w>"
    ],
    [
      "ਸਕ",
      "ਰ</w>"
    ],
    [
      "ਬਿ",
      "ਜਲੀ</w>"
    ],
    [
      "ੇਸ਼",
      "ਾ</w>"
    ],
    [
      "ਤੇ",
      "ਜ਼ੀ</w>"
    ],
    [
      "ਤਿ",
      "ਕ</w>"
    ],
    [
      "ਸਮਾਰੋ",
      "ਹ</w>"
    ],
    [
      "ਸ",
      "ਤਾਂ</w>"
    ],
    [
      "ਹ",
      "ਰੀ</w>"
    ],
    [
      "ਗ",
      ",</w>"
    ],
    [
      "ਬ",
      "ੰਗ"
    ],
    [
      "ਸ਼",
      "ਤਰ"
    ],
    [
      "ਪ੍ਰ",
      "ਕਿਰਿਆ</w>"
    ],
    [
      "ਟੈਕ",
      "ਸ</w>"
    ],
    [
      "ਨਿ",
      "ਰਾ"
    ],
    [
      "ਕਾਂਗਰ",
      "ਸ</w>"
    ],
    [
      "ਦਿ",
      "ਲ</w>"
    ],
    [
      "ਸੁ",
      "ਤੰ"
    ],
    [
      "ਇ",
      "ਨ</w>"
    ],
    [
      "ਜਾਵੇ",
      "ਗਾ।</w>"
    ],
    [
      "ਖ",
      "ੁੱ"
    ],
    [
      "ਤਰੀ",
      "ਕੇ</w>"
    ],
    [
      "ਗਤੀ",
      "ਵਿ"
    ],
    [
      "ਯ",
      "ੂ</w>"
    ],
    [
      "ਮ",
      "ੀਆਂ</w>"
    ],
    [
      "ਆ",
      "ਨੰਦ</w>"
    ],
    [
      "ਪਹਿ",
      "ਲਾਂ,</w>"
    ],
    [
      "ਜੁ",
      "ੜ"
    ],
    [
      "ਆ",
      "ਸਟ੍"
    ],
    [
      "ਵਿ",
      "ਜ਼ਨ</w>"
    ],
    [
      "ਖ",
      "ੂਨ</w>"
    ],
    [
      "ਕੇ",
      ",</w>"
    ],
    [
      "ਰਾ",
      "ਏ</w>"
    ],
    [
      "ਲਗਾ",
      "ਇਆ</w>"
    ],
    [
      "ਵਿਰੋ",
      "ਧੀ</w>"
    ],
    [
      "ਸਵੀ",
      "ਕਾਰ</w>"
    ],
    [
      "ਵੇ",
      "ਲੇ</w>"
    ],
    [
      "ਜ਼ਾ",
      "ਰ</w>"
    ],
    [
      "ਲੱਗ",
      "ਦਾ</w>"
    ],
    [
      "ਆ",
      "ਇਆ</w>"
    ],
    [
      "ਸੰਸ",
      "ਕਰਣ</w>"
    ],
    [
      "ਆ",
      "ਮਦ"
    ],
    [
      "ਕਾ",
      "ਲੀ</w>"
    ],
    [
      "ਚਾਹੀ",
      "ਦੀ</w>"
    ],
    [
      "ਇੰਡ",
      "ੀਆ</w>"
    ],
    [
      "201",
      "5</w>"
    ],
    [
      "ੰ",
      "ਜ</w>"
    ],
    [
      "ਹਾ",
      "ਕੀ</w>"
    ],
    [
      "ਟਿ",
      "ਡ</w>"
    ],
    [
      "ਵੇ",
      "ਅਰ</w>"
    ],
    [
      "ਸ਼ਾ",
      "ਨਦਾਰ</w>"
    ],
    [
      "ਘਟ",
      "ਨਾ</w>"
    ],
    [
      "ਅ",
      "ਲਾ"
    ],
    [
      "ਵ",
      "ਟ</w>"
    ],
    [
      "ਲ",
      "ਦਾ</w>"
    ],
    [
      "ਠ",
      "ਾ"
    ],
    [
      "ਮ",
      "ਜ਼</w>"
    ],
    [
      "ਮ",
      "ਸ਼"
    ],
    [
      "ਤਾ",
      "ਪ"
    ],
    [
      "ਭ",
      "ੈ"
    ],
    [
      "ਮਹੀ",
      "ਨਿਆਂ</w>"
    ],
    [
      "ਹ",
      "ੂਰ</w>"
    ],
    [
      "ਯਾ",
      "ਦ</w>"
    ],
    [
      "ਅ",
      "ਸ</w>"
    ],
    [
      "ਰੇਲ",
      "ਵੇ</w>"
    ],
    [
      "ਬਰ",
      "ਗ</w>"
    ],
    [
      "ਰਿਹਾ",
      "।</w>"
    ],
    [
      "ਸਮਾ",
      "ਜਿਕ</w>"
    ],
    [
      "ਵਿ",
      "ਸ਼ਾ"
    ],
    [
      "ਡਿ",
      "ਗਰੀ</w>"
    ],
    [
      "ਕ",
      "ਨ</w>"
    ],
    [
      "ਵਰ",
      "ਗੀਆਂ</w>"
    ],
    [
      "ਨ",
      "ਹਿ"
    ],
    [
      "ਟ",
      "ੈਂ"
    ],
    [
      "ਹਫ਼",
      "ਤੇ</w>"
    ],
    [
      "ਨਾ",
      "ਥ</w>"
    ],
    [
      "ਰ",
      "ਚ</w>"
    ],
    [
      "ਸਾਂ",
      "ਝ"
    ],
    [
      "ਬੋਰ",
      "ਡ</w>"
    ],
    [
      "ਵੀ",
      "ਡੀਓ</w>"
    ],
    [
      "ੈ",
      "ਰ-"
    ],
    [
      "ਐ",
      "ਲਬ"
    ],
    [
      "ਉਤਪਾ",
      "ਦਨ</w>"
    ],
    [
      "ਸ",
      "ਵ"
    ],
    [
      "ਵ",
      "ਪਾਰ</w>"
    ],
    [
      "ਭ",
      "ਿੰ"
    ],
    [
      "ਸੇ",
      "ਵਾਵਾਂ</w>"
    ],
    [
      "ਸਟ",
      "ਿ"
    ],
    [
      "ਐ",
      "ਸੋ"
    ],
    [
      "ਦ",
      "ਰਾ</w>"
    ],
    [
      "ਤਾ",
      "ਮਿਲ"
    ],
    [
      "ਕੰਪ",
      "ਨੀਆਂ</w>"
    ],
    [
      "ਉਤਪਾ",
      "ਦ</w>"
    ],
    [
      "ਬਾ",
      "ਈ</w>"
    ],
    [
      "ਵਾ",
      "ਈ"
    ],
    [
      "ਪਾ",
      "ਇਆ</w>"
    ],
    [
      "ਜੁ",
      "ਲਾਈ</w>"
    ],
    [
      "ਕਾਲ",
      "ਜ</w>"
    ],
    [
      "ਛ",
      "ੁੱ"
    ],
    [
      "ਰਿਪੋਰ",
      "ਟ</w>"
    ],
    [
      "ਮੁ",
      "ੰਬ"
    ],
    [
      "ਫ",
      "ਟ"
    ],
    [
      "ਦਿ",
      "ਮਾ"
    ],
    [
      "ਖ਼ਰੀਦ",
      "ਦਾਰੀ</w>"
    ],
    [
      "ਅਗ",
      "ਸਤ</w>"
    ],
    [
      "ਕਾਨੂੰ",
      "ਨ</w>"
    ],
    [
      "ਲੰਡ",
      "ਨ</w>"
    ],
    [
      "ਕਰ",
      "ਨੀ</w>"
    ],
    [
      "ਤਾ",
      ",</w>"
    ],
    [
      "ਵਰ",
      "ਕ</w>"
    ],
    [
      "ਠ",
      "ੀਕ</w>"
    ],
    [
      "ਮ",
      "ਨੀ</w>"
    ],
    [
      "ਪੜ",
      "ਾ"
    ],
    [
      "ਛੋ",
      "ਟੀ</w>"
    ],
    [
      "ਾਰ",
      "ਾ</w>"
    ],
    [
      "ਸ਼ਕ",
      "ਤੀ</w>"
    ],
    [
      "ਣ",
      "ਗੇ।</w>"
    ],
    [
      "ਮ",
      "ੰਗ</w>"
    ],
    [
      "ਕੁ",
      "ਦਰ"
    ],
    [
      "ਰੋਕ",
      "ਣ</w>"
    ],
    [
      "ਬਣਾ",
      "ਏ</w>"
    ],
    [
      "ਐਸੋ",
      "ਸੀ"
    ],
    [
      "ਡ",
      "ਜ਼</w>"
    ],
    [
      "ਚੀ",
      "ਜ਼</w>"
    ],
    [
      "ਬਿਹ",
      "ਤਰ</w>"
    ],
    [
      "ਵਰ",
      "ਤੇ</w>"
    ],
    [
      "1",
      "00</w>"
    ],
    [
      "ਪਤ",
      "ਨੀ</w>"
    ],
    [
      "ਪਾਕਿ",
      "ਸਤਾਨ</w>"
    ],
    [
      "ਚੰਗ",
      "ਾ</w>"
    ],
    [
      "ਵਿ",
      "ਧਾਨ</w>"
    ],
    [
      "ਰ",
      "ਕ</w>"
    ],
    [
      "1",
      "7</w>"
    ],
    [
      "ਚ",
      "ੇ</w>"
    ],
    [
      "ਨ",
      "ਵਾਂ</w>"
    ],
    [
      "ਸਮੱ",
      "ਗਰੀ</w>"
    ],
    [
      "2",
      "4</w>"
    ],
    [
      "200",
      "0</w>"
    ],
    [
      "ਲਿ",
      "ਨ</w>"
    ],
    [
      "ਬ",
      "ਜ"
    ],
    [
      "ਇਨ",
      "ਕਾਰ</w>"
    ],
    [
      "ਹੋ",
      "ਏ,</w>"
    ],
    [
      "ਵ",
      "ੁੱ"
    ],
    [
      "ਪੇਸ਼",
      "ੇ"
    ],
    [
      "ਚਮ",
      "ੜੀ</w>"
    ],
    [
      "ਆਇ",
      "ਓ"
    ],
    [
      "ਪ੍ਰਭਾਵ",
      "ਸ਼ਾਲੀ</w>"
    ],
    [
      "ਗਾਂ",
      "ਧੀ</w>"
    ],
    [
      "ਨਿੱ",
      "ਜੀ</w>"
    ],
    [
      "ਟਿ",
      "ਊ"
    ],
    [
      "ਪੁਰਾ",
      "ਣੇ</w>"
    ],
    [
      "ਟਿ",
      "ਸ</w>"
    ],
    [
      "ਟੀ",
      "."
    ],
    [
      "ਟੀ",
      ".</w>"
    ],
    [
      "ਉਤਸ਼ਾ",
      "ਹਿਤ</w>"
    ],
    [
      "ਯਕੀ",
      "ਨੀ</w>"
    ],
    [
      "ਮਹਾਰਾਸ਼",
      "ਟਰ</w>"
    ],
    [
      "ਔ",
      "ਸਤ</w>"
    ],
    [
      "ਆ",
      "ਉਂਦਾ</w>"
    ],
    [
      "ਟੈਲੀ",
      "ਵਿਜ਼ਨ</w>"
    ],
    [
      "ਮੈ",
      "ਦਾਨ</w>"
    ],
    [
      "ਸਰੋ",
      "ਤ</w>"
    ],
    [
      "ਕਮਾ",
      "ਈ</w>"
    ],
    [
      "ਅ",
      "ਸਾ"
    ],
    [
      "ਦਿੱਤਾ",
      ",</w>"
    ],
    [
      "ਮ",
      "ਿਆਨ</w>"
    ],
    [
      "ਅਦਾ",
      "ਲਤ</w>"
    ],
    [
      "ਭ",
      "ਵਿ"
    ],
    [
      "ਹੋਵੇ",
      "ਗਾ।</w>"
    ],
    [
      "ਵਿਕ",
      "ਸਤ</w>"
    ],
    [
      "ਸਟ੍",
      "ਰੋਕ</w>"
    ],
    [
      "19",
      "3"
    ],
    [
      "ਕੇਂ",
      "ਦਰੀ</w>"
    ],
    [
      "੍ਹਾ",
      "ਈ</w>"
    ],
    [
      "ਦ",
      "ੱ"
    ],
    [
      "ਏਸ਼",
      "ੀਆ</w>"
    ],
    [
      "ਖ",
      "ਾਂ</w>"
    ],
    [
      "ਉੱ",
      "ਪਰ</w>"
    ],
    [
      "ਤੂ",
      "ਫਾ"
    ],
    [
      "ਬੈਂ",
      "ਡ</w>"
    ],
    [
      "ਮਜ਼",
      "ਬੂਤ</w>"
    ],
    [
      "ਮੁ",
      "ਗਲ</w>"
    ],
    [
      "ਨ",
      "ਵ"
    ],
    [
      "ਹਮ",
      "ੇਸ਼ਾ</w>"
    ],
    [
      "ਗ",
      "ਠ"
    ],
    [
      "ਮਾਮ",
      "ਲੇ</w>"
    ],
    [
      "ਪੂਰ",
      "ਵ"
    ],
    [
      "ਰਹਿੰ",
      "ਦਾ</w>"
    ],
    [
      "ਟਾ",
      "ਪੂ</w>"
    ],
    [
      "ਐ",
      "ਨ"
    ],
    [
      "ਲ",
      "ਟ</w>"
    ],
    [
      "ਰੀ",
      "ਅਨ</w>"
    ],
    [
      "ਜ਼",
      "ਰੂ"
    ],
    [
      "ਦਰ",
      "ਮਿਆਨ</w>"
    ],
    [
      "ਫਾ",
      "ਇ"
    ],
    [
      "ਤੇ",
      "ਜ਼</w>"
    ],
    [
      "ਰਾ",
      "ਮ"
    ],
    [
      "ਦਿੰ",
      "ਦੀ</w>"
    ],
    [
      "ਜ਼",
      "ਮ</w>"
    ],
    [
      "ਦਾ",
      "ਖ"
    ],
    [
      "ਸ",
      "ਲਿ"
    ],
    [
      "ਉ",
      "ਦੇਸ਼</w>"
    ],
    [
      "ਸ਼ਹਿ",
      "ਰਾਂ</w>"
    ],
    [
      "ਗੁਜ",
      "ਰਾਤ</w>"
    ],
    [
      "ਦੇ",
      "ਵੀ</w>"
    ],
    [
      "ਸ",
      "ਵੇ"
    ],
    [
      "ਗ",
      "ੋ</w>"
    ],
    [
      "ਉਸ",
      "ਨੂੰ</w>"
    ],
    [
      "ਮ",
      "ਤੀ</w>"
    ],
    [
      "ਕੱ",
      "ਪ</w>"
    ],
    [
      "ਧ",
      "ੋ"
    ],
    [
      "ਚ",
      "ਾ</w>"
    ],
    [
      "ਚੀ",
      "ਨੀ</w>"
    ],
    [
      "ਧਾਰ",
      "ਨ</w>"
    ],
    [
      "ਸ",
      "ਿਆ"
    ],
    [
      "ਉਸ",
      "ਦੇ</w>"
    ],
    [
      "ਖੇ",
      "ਤੀ"
    ],
    [
      "ਆਮਦ",
      "ਨ</w>"
    ],
    [
      "ਏ",
      "ਅਰ"
    ],
    [
      "ਕਾਨੂੰ",
      "ਨੀ</w>"
    ],
    [
      "ਹ",
      "ਥ"
    ],
    [
      "ਸੁ",
      "ਧਾਰ</w>"
    ],
    [
      "ਮਨੁੱ",
      "ਖੀ</w>"
    ],
    [
      "ਸ",
      "ਫ"
    ],
    [
      "ਬ",
      "ੁੱ"
    ],
    [
      "ਸ਼ਤਰ",
      "ੰਜ</w>"
    ],
    [
      "ਫ਼",
      "ਾ"
    ],
    [
      "ਚੋ",
      "ਣਾਂ</w>"
    ],
    [
      "ਹਾ",
      "ਸਲ</w>"
    ],
    [
      "ਬਾ",
      "ਵਜ"
    ],
    [
      "ਬਾਵਜ",
      "ੂ"
    ],
    [
      "ਦ",
      "ਿਲ"
    ],
    [
      "ਹ",
      "ਰੇ</w>"
    ],
    [
      "ਜ਼",
      "ਬਾ"
    ],
    [
      "200",
      "9</w>"
    ],
    [
      "ਸਿਖ",
      "ਲਾਈ</w>"
    ],
    [
      "ਭ",
      "ੱ"
    ],
    [
      "ਹੇ",
      "ਠ</w>"
    ],
    [
      "ਪਛਾ",
      "ਣ</w>"
    ],
    [
      "ਸ",
      "ੱਚ"
    ],
    [
      "ਕਾ",
      "ਨ"
    ],
    [
      "ਵਜ",
      "ੋਂ,</w>"
    ],
    [
      "1",
      "4"
    ],
    [
      "ਮੀ",
      "ਡੀਆ</w>"
    ],
    [
      "ਨਾ",
      "ਚ</w>"
    ],
    [
      "ਜਾ",
      "ਇ"
    ],
    [
      "ਪ",
      "ਿਆਰ</w>"
    ],
    [
      "ਪ੍ਰਬੰਧ",
      "ਨ</w>"
    ],
    [
      "200",
      "7</w>"
    ],
    [
      "ਬ",
      "ਿੱ"
    ],
    [
      "ਰਾ",
      "ਕ</w>"
    ],
    [
      "ਪ੍ਰੋਜੈਕ",
      "ਟ</w>"
    ],
    [
      "ਵੱਖ",
      "ਰੇ</w>"
    ],
    [
      "ਸੰ",
      "ਭਵ</w>"
    ],
    [
      "ਮ",
      "ੀਆ</w>"
    ],
    [
      "ਟ",
      "ੌ"
    ],
    [
      "ਲੱਛ",
      "ਣ</w>"
    ],
    [
      "ਤਕ",
      "ਨੀ"
    ],
    [
      "ਕੱ",
      "ਟ"
    ],
    [
      "ਖੇਤੀ",
      "ਬਾ"
    ],
    [
      "ਤ",
      "ਮਿਲ</w>"
    ],
    [
      "ਸਮੁੰ",
      "ਦਰੀ</w>"
    ],
    [
      "ਈਆ",
      "ਂ।</w>"
    ],
    [
      "ਅੰਗਰੇ",
      "ਜ਼ੀ</w>"
    ],
    [
      "ਬਾ",
      "ਜ਼ੀ</w>"
    ],
    [
      "ਪੁ",
      "ਸ਼ਟੀ</w>"
    ],
    [
      "ਉ",
      "ਸੇ</w>"
    ],
    [
      "ਰੀ",
      ",</w>"
    ],
    [
      "ਵਰ",
      "ਤੀ</w>"
    ],
    [
      "ਕ੍ਰ",
      "ਿਤ</w>"
    ],
    [
      "ਗ",
      "ਮ</w>"
    ],
    [
      "ਹਸਪ",
      "ਤਾਲ</w>"
    ],
    [
      "ਉਦ",
      "ਯੋਗ</w>"
    ],
    [
      "20",
      "21</w>"
    ],
    [
      "ੂ",
      "ਨੀ</w>"
    ],
    [
      "ਸਿ",
      "ੰਗ</w>"
    ],
    [
      "ਡਿ",
      "ੰਗ</w>"
    ],
    [
      "ਟ੍",
      "ਰੈ"
    ],
    [
      "ਨਿਯ",
      "ਮਾਂ</w>"
    ],
    [
      "ਖ",
      "ੰਡ"
    ],
    [
      "ਫ",
      "ਲੋ"
    ],
    [
      "ਥ",
      "ੀਆਂ</w>"
    ],
    [
      "ਨਿ",
      "ਯੁਕਤ</w>"
    ],
    [
      "ਅ",
      "ਲੀ</w>"
    ],
    [
      "ਓ",
      "ਡੀ"
    ],
    [
      "ਜ਼",
      "ਿਆ"
    ],
    [
      "ਔਰ",
      "ਤ</w>"
    ],
    [
      "ਗੁ",
      "ੰ"
    ],
    [
      "ਤਲ",
      "ਬ</w>"
    ],
    [
      "ਮੇ",
      "ਜ਼ਬਾ"
    ],
    [
      "ਸਟ",
      "ਰ"
    ],
    [
      "ਸਥਾ",
      "ਨਾਂ</w>"
    ],
    [
      "ਬਜ",
      "ਟ</w>"
    ],
    [
      "ਚਾਰ",
      "ਕ</w>"
    ],
    [
      "ਜ਼",
      "ੇ"
    ],
    [
      "ਰਿ",
      "ਸ਼"
    ],
    [
      "ਕ",
      "ਬੀ"
    ],
    [
      "ਕ",
      "ੀਆਂ</w>"
    ],
    [
      "ਮਹਾ",
      "ਨ</w>"
    ],
    [
      "ਹੌ",
      "ਲੀ</w>"
    ],
    [
      "ਜਵਾ",
      "ਬ</w>"
    ],
    [
      "ਭਾ",
      "ਵ"
    ],
    [
      "ਪ",
      "ਵਿੱ"
    ],
    [
      "ਨਾ",
      "ਮਜ਼"
    ],
    [
      "ਰੱ",
      "ਦ</w>"
    ],
    [
      "ਸ",
      "ਤੇ</w>"
    ],
    [
      "ਮਸ਼",
      "ਹੂਰ</w>"
    ],
    [
      "ਅਧਿਐ",
      "ਨ</w>"
    ],
    [
      "ਗ",
      "ਾਰ"
    ],
    [
      "ਮੈ",
      "ਡੀ"
    ],
    [
      "ਮ",
      "ਤਲਬ</w>"
    ],
    [
      "ਸਪ",
      "ੋਰ"
    ],
    [
      "ਜੋ",
      "ਖਮ</w>"
    ],
    [
      "ਸੰਕੇ",
      "ਤ</w>"
    ],
    [
      "ਗ੍ਰ",
      "ਿ"
    ],
    [
      "ਕ੍ਰਿ",
      "ਕਟ</w>"
    ],
    [
      "ਤੂਫਾ",
      "ਨ</w>"
    ],
    [
      "ਡੀ",
      "ਅਨ</w>"
    ],
    [
      "ਸਟ",
      "ੈ"
    ],
    [
      "ਦ",
      "ਫ਼"
    ],
    [
      "ਹੋ",
      "ਈਆਂ</w>"
    ],
    [
      "ਇਲਾ",
      "ਕਾ</w>"
    ],
    [
      "ਲੱ",
      "ਭ</w>"
    ],
    [
      "ਛ",
      "ੇ"
    ],
    [
      "ਐ",
      "ਡ"
    ],
    [
      "ਜ",
      "ਿਆਂ</w>"
    ],
    [
      "ਖੇਤੀਬਾ",
      "ੜੀ</w>"
    ],
    [
      "ਸਾ",
      "ਇ"
    ],
    [
      "ਤਾਪ",
      "ਮਾਨ</w>"
    ],
    [
      "ਆ",
      "ਜ਼ਾ"
    ],
    [
      "ਮਾ",
      "ਇੰ"
    ],
    [
      "ਸ਼ਾ",
      "ਹੀ</w>"
    ],
    [
      "ਸਕ",
      "ੂ"
    ],
    [
      "ਨਿ",
      "ੰਗ</w>"
    ],
    [
      "ਪ",
      "ਵੇ"
    ],
    [
      "ਮੇ",
      "ਰਾ</w>"
    ],
    [
      "ਾਂ",
      "ਤੀ</w>"
    ],
    [
      "ਨੁ",
      "ਮਾਇੰ"
    ],
    [
      "ਵੰਡ",
      "ਿਆ</w>"
    ],
    [
      "2",
      "3</w>"
    ],
    [
      "ਵੈੱ",
      "ਬ"
    ],
    [
      "ਮਿ",
      "ਨ</w>"
    ],
    [
      "ਦੇਸ਼",
      "ੀ</w>"
    ],
    [
      "ਦ",
      "ਰਾ"
    ],
    [
      "ਸਾਬ",
      "ਕਾ</w>"
    ],
    [
      "ਦਾਅ",
      "ਵਾ</w>"
    ],
    [
      "ਤੁਲ",
      "ਨਾ</w>"
    ],
    [
      "ਘੰ",
      "ਟੇ</w>"
    ],
    [
      "ਅਪ",
      "ਰਾ"
    ],
    [
      "ਅ",
      "ਵਾਰ"
    ],
    [
      "ਮੁੰਬ",
      "ਈ</w>"
    ],
    [
      "ਕਲੱ",
      "ਬ</w>"
    ],
    [
      "ਡਿ",
      "ਜ਼ਾ"
    ],
    [
      "ਮੰ",
      "ਦਰਾਂ</w>"
    ],
    [
      "ਸਿ",
      "ਨ</w>"
    ],
    [
      "ਐ",
      "ਸ"
    ],
    [
      "ਪਿ",
      "ੰਗ</w>"
    ],
    [
      "ਹਮ",
      "ਲੇ</w>"
    ],
    [
      "ਅਧਿ",
      "ਕਾਰ</w>"
    ],
    [
      "ਜ",
      ",</w>"
    ],
    [
      "ਲਿ",
      "ਖੇ</w>"
    ],
    [
      "ਆ",
      "ਦ"
    ],
    [
      "ਲ",
      "ਜ਼</w>"
    ],
    [
      "ਅ",
      "ਹੁ"
    ],
    [
      "ਪਵਿੱ",
      "ਤਰ</w>"
    ],
    [
      "ਊ",
      "ਟ</w>"
    ],
    [
      "ਮੈਂ",
      "ਬਰਾਂ</w>"
    ],
    [
      "ਡ",
      "ੋ</w>"
    ],
    [
      "200",
      "6</w>"
    ],
    [
      "ਸਥਾ",
      "ਪਿਤ</w>"
    ],
    [
      "ਸਮ",
      "ੀ</w>"
    ],
    [
      "ਮੁ",
      "ਸਲਿ"
    ],
    [
      "ਅਧਿ",
      "ਕਾਰੀ</w>"
    ],
    [
      "ਤੀ",
      ",</w>"
    ],
    [
      "ਪੁੱ",
      "ਛ"
    ],
    [
      "ਯਾਰ",
      "ਕ</w>"
    ],
    [
      "ਵਿ",
      "ੰਡ"
    ],
    [
      "ਪਰਿ",
      "ਵਾਰ"
    ],
    [
      "ਬ",
      "ਾਂ"
    ],
    [
      "I",
      "</w>"
    ],
    [
      "ੋ",
      "।</w>"
    ],
    [
      "ਮਰ",
      "ਦਮ"
    ],
    [
      "ਮੁਸਲਿ",
      "ਮ</w>"
    ],
    [
      "ਟੀ",
      ",</w>"
    ],
    [
      "ਬਾ",
      "ਕਸ</w>"
    ],
    [
      "ਵਰ",
      "ਣਨ</w>"
    ],
    [
      "ਤੀ",
      "ਜਾ</w>"
    ],
    [
      "ਕੱ",
      "ਪ"
    ],
    [
      "ਸਕ",
      "ੋਰ</w>"
    ],
    [
      "ਖ਼",
      "ੁ"
    ],
    [
      "ਡ",
      "ਿੱ"
    ],
    [
      "ਮਾ",
      "ਤਰਾ</w>"
    ],
    [
      "1",
      ","
    ],
    [
      "ਇਸ",
      "ਨੂੰ</w>"
    ],
    [
      "ਕ",
      "ਮੀ</w>"
    ],
    [
      "ਸ",
      "ਵੈ"
    ],
    [
      "ਕਿ",
      "ਹਾ"
    ],
    [
      "ਟ",
      "ੁੱ"
    ],
    [
      "ਲਗਾ",
      "ਉਣ</w>"
    ],
    [
      "6",
      "0</w>"
    ],
    [
      "ਫੀ",
      "ਲਡ</w>"
    ],
    [
      "ਕ",
      "ਲੀ"
    ],
    [
      "ਪੇਸ਼ੇ",
      "ਵਰ</w>"
    ],
    [
      "ਵਿਸ਼",
      "ਵਾਸ</w>"
    ],
    [
      "ਆਰਥ",
      "ਿਕ</w>"
    ],
    [
      "ਜ਼ਰੂ",
      "ਰੀ</w>"
    ],
    [
      "ਸੁ",
      "ਲ"
    ],
    [
      "ਚ",
      "ੜ"
    ],
    [
      "ਫਾਈ",
      "ਨਲ</w>"
    ],
    [
      "ਅੱ",
      "ਠ</w>"
    ],
    [
      "ਲਿ",
      "ਤ</w>"
    ],
    [
      "ਜਨ",
      "ਕ</w>"
    ],
    [
      "ਵਾਧ",
      "ਾ</w>"
    ],
    [
      "ਦੇ",
      "ਖ</w>"
    ],
    [
      "ਬ",
      "ੌ"
    ],
    [
      "ਉ",
      "ਡਾ"
    ],
    [
      "ਡਾਕ",
      "ਟਰ</w>"
    ],
    [
      "ਮਰਦਮ",
      "ਸ਼ੁ"
    ],
    [
      "ਗਾ",
      ",</w>"
    ],
    [
      "ਸਟ",
      "ੋ"
    ],
    [
      "ਲੈਂ",
      "ਦੇ</w>"
    ],
    [
      "ਕਾ",
      "ਉਂ"
    ],
    [
      "ਮਰਦਮਸ਼ੁ",
      "ਮਾਰੀ</w>"
    ],
    [
      "ਸ",
      "ੀਆਂ</w>"
    ],
    [
      "ਸ",
      "ਵਿ"
    ],
    [
      "ਹੱ",
      "ਥ</w>"
    ],
    [
      "ਈ",
      ".</w>"
    ],
    [
      "ਕਰ",
      "ਨ"
    ],
    [
      "ਸ਼",
      "ਨ"
    ],
    [
      "ਕਿ",
      "ੱ"
    ],
    [
      "ਪ",
      "ਕ"
    ],
    [
      "ਰੋ",
      "ਮ</w>"
    ],
    [
      "ਪ",
      "ਿਆ</w>"
    ],
    [
      "ਇ",
      "ਕ"
    ],
    [
      "ਵੁੱ",
      "ਡ</w>"
    ],
    [
      "ਅ",
      "ਫ਼"
    ],
    [
      "ਲ",
      "ੌ"
    ],
    [
      "ਕੁਦਰ",
      "ਤੀ</w>"
    ],
    [
      "ਆ",
      "ਏ</w>"
    ],
    [
      "ਨਿਊ",
      "ਯਾਰਕ</w>"
    ],
    [
      "ਸ਼੍",
      "ਰੀ"
    ],
    [
      "ਸਟਾ",
      "ਰ</w>"
    ],
    [
      "ਤਾਮਿਲ",
      "ਨਾਡੂ</w>"
    ],
    [
      "ਸਿਖ",
      "ਰ</w>"
    ],
    [
      "ਲੇ",
      "-"
    ],
    [
      "ਡਿ",
      "ਵੀ"
    ],
    [
      "ਸ",
      "ਪਾ"
    ],
    [
      "ਯੁੱ",
      "ਗ</w>"
    ],
    [
      "ਵਿ",
      "ਕਰੀ</w>"
    ],
    [
      "ਬ",
      "ਲਾ"
    ],
    [
      "ਉੱ",
      "ਤਰਾ"
    ],
    [
      "ਉਪ",
      "-"
    ],
    [
      "ਨੀ",
      ",</w>"
    ],
    [
      "ਪ੍ਰੇ",
      "ਰਿਤ</w>"
    ],
    [
      "ਗੁ",
      "ਆ</w>"
    ],
    [
      "ਦੋ",
      "ਸਤ</w>"
    ],
    [
      "ਦਿ",
      "ਕ</w>"
    ],
    [
      "ਅੰਦਰ",
      "ੂਨੀ</w>"
    ],
    [
      "ਔ",
      "ਨਲਾਈਨ</w>"
    ],
    [
      "ਲੱਛ",
      "ਣਾਂ</w>"
    ],
    [
      "ਬਾ",
      "ਲ"
    ],
    [
      "ਸਥਾ",
      "ਈ</w>"
    ],
    [
      "ਲਿ",
      "ਖਿਆ</w>"
    ],
    [
      "ਪਰੰਪ",
      "ਰਾ</w>"
    ],
    [
      "ਦਵਾ",
      "ਈਆਂ</w>"
    ],
    [
      "ਐਲਬ",
      "ਮ</w>"
    ],
    [
      "ਇ",
      "ਮਾਰ"
    ],
    [
      "ਸ਼ੂ",
      "ਟਿੰਗ</w>"
    ],
    [
      "ਕ੍ਰ",
      "ੈ"
    ],
    [
      "ਕ",
      "ਨ"
    ],
    [
      "ਸਾ",
      "ਡੇ</w>"
    ],
    [
      "ਪੀ",
      "."
    ],
    [
      "ਵਿਸ਼ਾ",
      "ਲ</w>"
    ],
    [
      "ੈਂ",
      "ਸ</w>"
    ],
    [
      "ਪ",
      "ਏ</w>"
    ],
    [
      "ੀ",
      "ਰ</w>"
    ],
    [
      "ਚ",
      "ਲਾ</w>"
    ],
    [
      "ਰਿ",
      "ੰਗ</w>"
    ],
    [
      "ਜ",
      "ਾਰ"
    ],
    [
      "ਗੁ",
      "ਪਤ</w>"
    ],
    [
      "ਸੀ",
      "ਮਤ</w>"
    ],
    [
      "ਕੌ",
      "ਂ"
    ],
    [
      "ਮਾ",
      "ਣ"
    ],
    [
      "ਪੂ",
      "ਰ</w>"
    ],
    [
      "ਸਮੱਸ",
      "ਿਆ</w>"
    ],
    [
      "ਭ",
      "ੰਡ"
    ],
    [
      "ਨੈ",
      "ੱਟ</w>"
    ],
    [
      "ਗ",
      "ੌ"
    ],
    [
      "ਸਕ",
      "ਾਂ</w>"
    ],
    [
      "ਭਾਸ਼ਾ",
      "ਵਾਂ</w>"
    ],
    [
      "ਸ਼ੋ",
      "ਅ</w>"
    ],
    [
      "ਲ",
      ")</w>"
    ],
    [
      "ਹਿ",
      "ਮਾ"
    ],
    [
      "ਰ",
      "ੂ</w>"
    ],
    [
      "ਵਿਕ",
      "ਸਿਤ</w>"
    ],
    [
      "ਆਂ",
      "ਢ"
    ],
    [
      "ਪਹਾ",
      "ੜੀਆਂ</w>"
    ],
    [
      "ਜਨ",
      "ਰਲ</w>"
    ],
    [
      "ਸ਼ਿ",
      "ਲਾ"
    ],
    [
      "ਨਿਰਦੇਸ਼",
      "ਕ</w>"
    ],
    [
      "ਮੰ",
      "ਦਿ"
    ],
    [
      "ਆ",
      "ਕਾਰ</w>"
    ],
    [
      "ਂ",
      "ਗ</w>"
    ],
    [
      "ਕੈਨੇ",
      "ਡਾ</w>"
    ],
    [
      "ਵਿ",
      "ਗਿਆਨ</w>"
    ],
    [
      "ਬਰਾ",
      "ਬਰ</w>"
    ],
    [
      "ਯੂ",
      "ਨਾ"
    ],
    [
      "ਰਾ",
      "ਓ</w>"
    ],
    [
      "ਸ",
      "ਬੂਤ</w>"
    ],
    [
      "ਲੱਭ",
      "ਣ</w>"
    ],
    [
      "ਜ",
      "ਲ</w>"
    ],
    [
      "ਟੂਰਨਾ",
      "ਮੈਂਟ</w>"
    ],
    [
      "ਆਰ",
      "ਡਰ</w>"
    ],
    [
      "ਆ",
      "ਸਟ"
    ],
    [
      "ਰ",
      "ਕਮ</w>"
    ],
    [
      "ਪਾਂ",
      "ਡ"
    ],
    [
      "ਜਾਣ",
      "ੇ</w>"
    ],
    [
      "ਪੈ",
      "ਨ"
    ],
    [
      "ਵ",
      "ਗ"
    ],
    [
      "ਜਹਾ",
      "ਜ਼</w>"
    ],
    [
      "ਧ",
      "ਨ</w>"
    ],
    [
      "ਵ",
      "ਸ</w>"
    ],
    [
      "ਮਰਾਠ",
      "ਾ</w>"
    ],
    [
      "ੜ",
      "ਨ</w>"
    ],
    [
      "ਖ਼",
      "ਾ"
    ],
    [
      "ਤ",
      "ਬਾ"
    ],
    [
      "ਉ",
      "ਂ</w>"
    ],
    [
      "ਰ",
      "ੁੱ"
    ],
    [
      "ਦੇ",
      "ਵੇ"
    ],
    [
      "ਕੱਪ",
      "ੜੇ</w>"
    ],
    [
      "ਜ਼",
      ",</w>"
    ],
    [
      "ਰ",
      "ੋ</w>"
    ],
    [
      "ਮੁਸ਼",
      "ਕਲ</w>"
    ],
    [
      "ਗ੍ਰਾਹ",
      "ਕ</w>"
    ],
    [
      "ਲੋ",
      "ਕ"
    ],
    [
      "ਨ",
      "ਤਾ</w>"
    ],
    [
      "ਨਜ਼",
      "ਰ</w>"
    ],
    [
      "ਅਸ",
      "ਫ਼"
    ],
    [
      "ਨੀ",
      "ਅਰ</w>"
    ],
    [
      "ਕਰ",
      "ਨਾਟਕ</w>"
    ],
    [
      "ਵ",
      "ਤੀ</w>"
    ],
    [
      "ਚੰ",
      "ਦਰ"
    ],
    [
      "ਨਿਊ",
      "</w>"
    ],
    [
      "ਬ",
      "ਾਰੀ</w>"
    ],
    [
      "2",
      "6</w>"
    ],
    [
      "ਕ",
      "ਮਜ਼"
    ],
    [
      "ਪ",
      "ਣ</w>"
    ],
    [
      "ਲ",
      "ਬਾ"
    ],
    [
      "ਮੁਕਾਬ",
      "ਲਾ</w>"
    ],
    [
      "ੜ੍ਹ",
      "ੀ</w>"
    ],
    [
      "ਕੀਤ",
      "ੇ।</w>"
    ],
    [
      "ਖੇਡ",
      "ਣ</w>"
    ],
    [
      "ਕ",
      "ਮ"
    ],
    [
      "ਚੱ",
      "ਟਾ"
    ],
    [
      "ਓ",
      ".</w>"
    ],
    [
      "ਜਿੱਤ",
      "ਣ</w>"
    ],
    [
      "ਕੈ",
      "ਲੀ"
    ],
    [
      "ੁੱ",
      "ਪ</w>"
    ],
    [
      "ਯੂਰ",
      "ਪ</w>"
    ],
    [
      "ਰਾ",
      "ਵਾਂ</w>"
    ],
    [
      "ਮਿੱ",
      "ਟੀ</w>"
    ],
    [
      "ਮਿਲ",
      "ਦਾ</w>"
    ],
    [
      "ਜੁ",
      "ੜੇ</w>"
    ],
    [
      "ਵਰਤ",
      "ਮਾਨ</w>"
    ],
    [
      "ਕਾਊਂ",
      "ਟੀ</w>"
    ],
    [
      "ਮੁ",
      "ਸਲ"
    ],
    [
      "ਇੰਡ",
      "ੋ"
    ],
    [
      "ਦਿਲ",
      "ਚ"
    ],
    [
      "ਇ",
      "ਸੇ</w>"
    ],
    [
      "ਐ",
      "ਕਸ"
    ],
    [
      "ਸਿ",
      "ੰਗ"
    ],
    [
      "ਜ",
      "ਵਾਨ</w>"
    ],
    [
      "ਖ",
      "ੰਡ</w>"
    ],
    [
      "ਵ",
      "ੈਂ"
    ],
    [
      "ਚ",
      "ਾਂ</w>"
    ],
    [
      "ਸ਼੍ਰੇ",
      "ਣੀ</w>"
    ],
    [
      "ਝ",
      "ਰ"
    ],
    [
      "ਗਰ",
      "ਮੀਆਂ</w>"
    ],
    [
      "ਯੂ",
      "."
    ],
    [
      "ਟੋ",
      "-"
    ],
    [
      "ਕ",
      "ਵਰ</w>"
    ],
    [
      "ਦੀ",
      ",</w>"
    ],
    [
      "ਮਾ",
      "ਨਿ"
    ],
    [
      "ਦ",
      "ੁੱ"
    ],
    [
      "ਮਿਆ",
      "ਦ</w>"
    ],
    [
      "ਦ",
      "ੀ।</w>"
    ],
    [
      "ਗੈ",
      "ਰ-"
    ],
    [
      "ਵਿ",
      "ਟਾ"
    ],
    [
      "ਮੁ",
      "ਹਿੰ"
    ],
    [
      "ਵ",
      "ਾਰੀ</w>"
    ],
    [
      "ਗ",
      "ਲੋ"
    ],
    [
      "ਵਿਅਕ",
      "ਤੀ"
    ],
    [
      "ਹੈ",
      "ਂ"
    ],
    [
      "ੱ",
      "ਡ</w>"
    ],
    [
      "ਸ਼ਿ",
      "ਵ</w>"
    ],
    [
      "ਫਟ",
      "ਵੇਅਰ</w>"
    ],
    [
      "ਲਿ",
      "ੰ"
    ],
    [
      "ਟੀ",
      "ਨ</w>"
    ],
    [
      "ਬਣ",
      "ੇ</w>"
    ],
    [
      "ਸ",
      "ਬੰਧ</w>"
    ],
    [
      "ਬਣ",
      "ਨ</w>"
    ],
    [
      "ਨਾਰ",
      "ਾ"
    ],
    [
      "ਪ੍ਰਸ਼ੰ",
      "ਸਾ</w>"
    ],
    [
      "ਸਿ",
      "ਨੇ"
    ],
    [
      "ਬਦ",
      "ਲ"
    ],
    [
      "ਆ",
      "ਲੇ-"
    ],
    [
      "ਹੋਵੇ",
      "।</w>"
    ],
    [
      "ਥੋ",
      "ੜ"
    ],
    [
      "ਆ",
      "ਉਂਦੀ</w>"
    ],
    [
      "ਜ਼",
      "ਰ</w>"
    ],
    [
      "ਵਾਂ",
      "ਗ</w>"
    ],
    [
      "ਚੁਣ",
      "ਿਆ</w>"
    ],
    [
      "ਫੁੱ",
      "ਟ</w>"
    ],
    [
      "ਸ",
      "ੱਟ</w>"
    ],
    [
      "ਰੱਖ",
      "</w>"
    ],
    [
      "ਪ੍ਰ",
      "ਵਾ"
    ],
    [
      "ਸਲਾ",
      "ਹ"
    ],
    [
      "ਰੱਖ",
      "ਦੇ</w>"
    ],
    [
      "ਜ਼ਿਆ",
      "ਦਾ</w>"
    ],
    [
      "ਜਰ",
      "ਮਨੀ</w>"
    ],
    [
      "ਉਸ",
      "ਦੀ</w>"
    ],
    [
      "ਕ",
      "ਹਿ"
    ],
    [
      "ਥ",
      "ਿ"
    ],
    [
      "ਕ੍ਰਿ",
      "ਸ਼ਨ</w>"
    ],
    [
      "ਜੰਗ",
      "ਲ</w>"
    ],
    [
      "ਫੈ",
      "ਡਰ"
    ],
    [
      "ਇਸ",
      "ਲਾ"
    ],
    [
      "ਘ",
      "ਰਾਂ</w>"
    ],
    [
      "ਦਾਰ",
      "ਾਂ</w>"
    ],
    [
      "ਭਾ",
      "ਰ</w>"
    ],
    [
      "ਦਾਖ",
      "ਲ</w>"
    ],
    [
      "ਤ",
      "ੈ"
    ],
    [
      "ਈ",
      "ਸ"
    ],
    [
      "ਦ",
      "ਲ</w>"
    ],
    [
      "ਤਰੀ",
      "ਕਾ</w>"
    ],
    [
      "2",
      "8</w>"
    ],
    [
      "ਜਾ",
      "ਣੀ</w>"
    ],
    [
      "ਟ",
      "ਿੱ"
    ],
    [
      "ਇਲਾ",
      "ਵਾ</w>"
    ],
    [
      "ਜਾਨ",
      "ਵਰਾਂ</w>"
    ],
    [
      "੍ਹ",
      "ਿਆਂ</w>"
    ],
    [
      "ਨਾ",
      "ਮਕ</w>"
    ],
    [
      "ਨੈੱਟ",
      "ਵਰਕ</w>"
    ],
    [
      "ਵਿ",
      "ੰ"
    ],
    [
      "ਖ਼",
      "ਰਚ"
    ],
    [
      "ਆਲੇ-",
      "ਦੁਆਲੇ</w>"
    ],
    [
      "ਚਾ",
      "ਲ"
    ],
    [
      "ਦੂ",
      "ਰੀ</w>"
    ],
    [
      "ਦਰ",
      "ਜ</w>"
    ],
    [
      "ਸੰਗੀ",
      "ਤ"
    ],
    [
      "ਵਿਆ",
      "ਜ</w>"
    ],
    [
      "ਨਿਸ਼",
      "ਚਿਤ</w>"
    ],
    [
      "ਗ",
      "ੰਗਾ</w>"
    ],
    [
      "ਲਾ",
      "ਨਾ</w>"
    ],
    [
      "ਗੱ",
      "ਲਬਾ"
    ],
    [
      "ਫ਼",
      "ਰ"
    ],
    [
      "ਦ",
      "ਸਤਾ"
    ],
    [
      "ਆ",
      "ਉਂਦੇ</w>"
    ],
    [
      "ਸਮ",
      "ੁ"
    ],
    [
      "ਦਰਸਾ",
      "ਇਆ</w>"
    ],
    [
      "ਸਰ",
      "ਦੀਆਂ</w>"
    ],
    [
      "ਕੋ",
      "ਲ"
    ],
    [
      "ਸੁ",
      "ਝਾ"
    ],
    [
      "ਢ",
      "ਾਂ"
    ],
    [
      "ਸ਼",
      "ੂ</w>"
    ],
    [
      "ਰੇ",
      "ਂ"
    ],
    [
      "ਗੁ",
      "ਫਾ"
    ],
    [
      "ਰਾ",
      "ਟ</w>"
    ],
    [
      "ਤੇ",
      "।</w>"
    ],
    [
      "ੰ",
      "ਤਰ</w>"
    ],
    [
      "ਗੱਲਬਾ",
      "ਤ</w>"
    ],
    [
      "ਵਿਅਕਤੀ",
      "ਗਤ</w>"
    ],
    [
      "ਬੋ",
      "ਧੀ</w>"
    ],
    [
      "200",
      "5</w>"
    ],
    [
      "ਮ",
      "ਨੋ"
    ],
    [
      "ਕਰ",
      "ਜ਼ੇ</w>"
    ],
    [
      "ਂ",
      "ਹ</w>"
    ],
    [
      "ੱਖ",
      "ਣ</w>"
    ],
    [
      "ਪੱਥ",
      "ਰ</w>"
    ],
    [
      "ਟਿ",
      "ਵ</w>"
    ],
    [
      "ਦੌ",
      "ਰਾ</w>"
    ],
    [
      "ਗੁ",
      "ਆਂਢ"
    ],
    [
      "ਸੂਰ",
      "ਜ</w>"
    ],
    [
      "ਸ",
      "-"
    ],
    [
      "ਪ",
      "ਟ"
    ],
    [
      "ਬੁ",
      "ਨਿਆ"
    ],
    [
      "ਤ",
      "ਮ"
    ],
    [
      "ਕ",
      "ਸ਼ਨ</w>"
    ],
    [
      "ਸਰ",
      "ਬੋ"
    ],
    [
      "ਇ",
      "ਲੀ"
    ],
    [
      "ਆ",
      "ਕਰ"
    ],
    [
      "ਪੈਂ",
      "ਦਾ</w>"
    ],
    [
      "ਅੱਖ",
      "ਾਂ</w>"
    ],
    [
      "ਸੇ",
      "ਨ</w>"
    ],
    [
      "ਲਾ",
      ",</w>"
    ],
    [
      "ਕਾਰ",
      ",</w>"
    ],
    [
      "ਪ੍ਰ",
      "ਿੰ"
    ],
    [
      "ਐਸੋਸੀ",
      "ਏਸ਼ਨ</w>"
    ],
    [
      "ਤ",
      "ਸਵੀ"
    ],
    [
      "ਇ",
      "ਰ</w>"
    ],
    [
      "ਤ",
      "ਾਂ"
    ],
    [
      "ਡ",
      "ਾਂ"
    ],
    [
      "ਨਿ",
      "ਸ਼ਾ"
    ],
    [
      "ਪਹਿ",
      "ਨ"
    ],
    [
      "ਜਾ",
      "ਈ</w>"
    ],
    [
      "ਨਿਯ",
      "ਮ</w>"
    ],
    [
      "ਮਾਰ",
      "ਸ਼ਲ</w>"
    ],
    [
      "ਹਾਰ",
      "ਾਂ</w>"
    ],
    [
      "ਸ਼ਾ",
      "ਸਕ</w>"
    ],
    [
      "ਤੋ",
      "ਂ,</w>"
    ],
    [
      "ਅ",
      "ਸ਼ੋ"
    ],
    [
      "ਜ",
      "ਪਾ"
    ],
    [
      "ਪੀ",
      "ਣ</w>"
    ],
    [
      "ਪ੍ਰਕਾ",
      "ਸ਼ਿਤ</w>"
    ],
    [
      "ਅੱ",
      "ਗ</w>"
    ],
    [
      "ਕਿ",
      "ਊ"
    ],
    [
      "ਅੰ",
      "ਕ</w>"
    ],
    [
      "ਟ੍",
      "ਰੇ"
    ],
    [
      "ਆਰ",
      ".</w>"
    ],
    [
      "ਵਾ",
      "ਲਿਆਂ</w>"
    ],
    [
      "ਸਪ",
      "ਸ਼ਟ</w>"
    ],
    [
      "ਸਾ",
      "ਈ</w>"
    ],
    [
      "ਤੀਰ",
      "ਥ</w>"
    ],
    [
      "ਕੋਰ",
      "ਟ</w>"
    ],
    [
      "ਸਮਰ",
      "ਪਿਤ</w>"
    ],
    [
      "ਪ",
      "ਲਾ"
    ],
    [
      "ਸਰਬੋ",
      "ਤਮ</w>"
    ],
    [
      "ਗ",
      "ੂ"
    ],
    [
      "ਖ਼",
      "ਰੀ"
    ],
    [
      "ਜ",
      "ੱ"
    ],
    [
      "ਮੰਦਿ",
      "ਰ</w>"
    ],
    [
      "ਕੈਲੀ",
      "ਫੋਰ"
    ],
    [
      "ਭੋ",
      "ਗ"
    ],
    [
      "ਵਿਟਾ",
      "ਮਿਨ</w>"
    ],
    [
      "ਲੀ",
      "ਅਨ</w>"
    ],
    [
      "ਮ",
      "ੁਰ"
    ],
    [
      "ਗਵਰ",
      "ਨਰ</w>"
    ],
    [
      "ਘ",
      "ੱ"
    ],
    [
      "ਮਿਲ",
      "ਣ</w>"
    ],
    [
      "ਸੀ",
      "ਮਾ</w>"
    ],
    [
      "ਈਸ",
      "ਵੀ</w>"
    ],
    [
      "ਡ",
      "ਰਾਈ"
    ],
    [
      "ਸਾ",
      "ਹਿ"
    ],
    [
      "ਦਿਖਾ",
      "ਇਆ</w>"
    ],
    [
      "ਛ",
      "ੂ"
    ],
    [
      "ਅ",
      "ਸ਼"
    ],
    [
      "ਰੁ",
      "ਪਏ</w>"
    ],
    [
      "ਹ",
      "ਰਾ</w>"
    ],
    [
      "ਮੁ",
      "ਖੀ</w>"
    ],
    [
      "20",
      "0</w>"
    ],
    [
      "ੰਡ",
      "ਾਂ</w>"
    ],
    [
      "ਗ੍ਰ",
      "ੰ"
    ],
    [
      "200",
      "4</w>"
    ],
    [
      "ਜਿੱਤ",
      "ਿਆ।</w>"
    ],
    [
      "ਤ",
      "ਾਰ"
    ],
    [
      "ਦ",
      "ੰ"
    ],
    [
      "ਨੇ",
      "ੜ"
    ],
    [
      "ਮਨ",
      "ੋਰ"
    ],
    [
      "ਪਾ",
      "ਏ</w>"
    ],
    [
      "ਹਾ",
      "ਊ"
    ],
    [
      "ਉਪ",
      "ਭੋਗ"
    ],
    [
      "ਬੇ",
      "ਨ"
    ],
    [
      "ਕਾਰ",
      "ਨ,</w>"
    ],
    [
      "ਗ੍ਰ",
      "ਹਿ</w>"
    ],
    [
      "199",
      "0</w>"
    ],
    [
      "ਏ",
      "ਜੰ"
    ],
    [
      "ਪੀ",
      "ਅਨ</w>"
    ],
    [
      "ਵਾ",
      "ਤਾ"
    ],
    [
      "ੰਗ",
      "ਾਂ</w>"
    ],
    [
      "ਯ",
      "ੁ"
    ],
    [
      "ਜ਼ਿਲ",
      "੍ਹਾ</w>"
    ],
    [
      "ਅਜਿ",
      "ਹੀ</w>"
    ],
    [
      "ਰਿ",
      "ਸ</w>"
    ],
    [
      "ਐੱਮ",
      ".</w>"
    ],
    [
      "ਘ",
      "ੱਟ"
    ],
    [
      "2",
      "7</w>"
    ],
    [
      "ਸਕ",
      "ੇ।</w>"
    ],
    [
      "ਜੋ",
      "ੜ</w>"
    ],
    [
      "ਐਂ",
      "ਡ</w>"
    ],
    [
      "ਵੰ",
      "ਡ</w>"
    ],
    [
      "ਯੂ",
      ".</w>"
    ],
    [
      "ਗੁ",
      "ਣ"
    ],
    [
      "ਰੇ",
      "ਟ</w>"
    ],
    [
      "ਘਾ",
      "ਟੀ</w>"
    ],
    [
      "ਮਾਰ",
      "ਕੀ"
    ],
    [
      "ਚੋ",
      "ਟੀ</w>"
    ],
    [
      "ਆਇਓ",
      "ਵਾ</w>"
    ],
    [
      "ਪੀ",
      "ੜ"
    ],
    [
      "ਮਾਰ",
      "ਨ</w>"
    ],
    [
      "ਮਾਰ",
      "ਗ</w>"
    ],
    [
      "ਨੋ",
      "ਟ</w>"
    ],
    [
      "ਰ",
      "ਨ</w>"
    ],
    [
      "ਕਾ",
      "ਵਾਂ</w>"
    ],
    [
      "ਸ",
      "ਖ਼"
    ],
    [
      "ਪ੍ਰ",
      "ਿ"
    ],
    [
      "ਖ",
      "ਰੀਦ"
    ],
    [
      "ਨਾ",
      "ਤਮਕ</w>"
    ],
    [
      "ਚਾ",
      "ਹੁੰਦਾ</w>"
    ],
    [
      "ਹਾ",
      "ਈ</w>"
    ],
    [
      "ਚ",
      "ਲੇ</w>"
    ],
    [
      "ਸੂ",
      "ਰ</w>"
    ],
    [
      "ਛ",
      "ਾ</w>"
    ],
    [
      "ਖੋ",
      "ਲ੍ਹ"
    ],
    [
      "ਰ",
      "ਹੀ"
    ],
    [
      "ਰ",
      "ਤਾ</w>"
    ],
    [
      "ਸ਼",
      "ਕਾਂ</w>"
    ],
    [
      "ਸਟੇ",
      "ਟ</w>"
    ],
    [
      "ਵਿ",
      "ਭਾਗ</w>"
    ],
    [
      "ਸ਼ੀ",
      "ਲ</w>"
    ],
    [
      "ਮਨੋਰ",
      "ੰ"
    ],
    [
      "ਈ",
      "."
    ],
    [
      "ਸਿ",
      "ੰਡ"
    ],
    [
      "ਸੱਭਿਆ",
      "ਚਾਰਕ</w>"
    ],
    [
      "ਵਿਵ",
      "ਹਾਰ</w>"
    ],
    [
      "ਸ਼ਹਿ",
      "ਰੀ</w>"
    ],
    [
      "198",
      "0</w>"
    ],
    [
      "ਕੰ",
      "ਨ"
    ],
    [
      "ਪੜਾ",
      "ਅ</w>"
    ],
    [
      "ਗਤੀਵਿ",
      "ਧੀਆਂ</w>"
    ],
    [
      "ਬਣ",
      "ਿਆ</w>"
    ],
    [
      "ਸੜ",
      "ਕ</w>"
    ],
    [
      "ਦੇਖ",
      "ਣ</w>"
    ],
    [
      "ਦਰ",
      "ਦ</w>"
    ],
    [
      "ਮਾ",
      "ਡਲ</w>"
    ],
    [
      "ਬ",
      "ੁੱਧ</w>"
    ],
    [
      "ਬੁਨਿਆ",
      "ਦੀ</w>"
    ],
    [
      "ਲਾ",
      "ਭ</w>"
    ],
    [
      "ਮਾਨਿ",
      "ਤ</w>"
    ],
    [
      "ਤਰ",
      "ਣ</w>"
    ],
    [
      "ਮੀ",
      "ਲ</w>"
    ],
    [
      "ਣਾ",
      ",</w>"
    ],
    [
      "ਪਦਾਰ",
      "ਥਾਂ</w>"
    ],
    [
      "ਅਨੁ",
      "ਭਵ</w>"
    ],
    [
      "ਲ",
      "-"
    ],
    [
      "ਕ",
      "ਥ"
    ],
    [
      "ਟ",
      "ੁਕ"
    ],
    [
      "ਦੌ",
      "ੜਾਂ</w>"
    ],
    [
      "ਕ",
      "ੂ</w>"
    ],
    [
      "ਰਾਜ",
      "ਸਥਾਨ</w>"
    ],
    [
      "ਚ",
      "ਾਰੇ</w>"
    ],
    [
      "ਸੈ",
      "ੱਟ</w>"
    ],
    [
      "ਵਾਤਾ",
      "ਵਰ"
    ],
    [
      "ਥੈ",
      "ਰੇ"
    ],
    [
      "ਬੈਕ",
      "ਟੀ"
    ],
    [
      "ਵਿੰਡ",
      "ੋ"
    ],
    [
      "ਸਲਾ",
      "ਹ</w>"
    ],
    [
      "ਖੁ",
      "ਦ</w>"
    ],
    [
      "ਯੋ",
      "ਗੀ</w>"
    ],
    [
      "ਰ",
      "ਸਮੀ</w>"
    ],
    [
      "ਵਿ",
      "ਭਿੰ"
    ],
    [
      "ਕ",
      "ਮੇ"
    ],
    [
      "ਨੀ",
      "ਤੀ</w>"
    ],
    [
      "ਜ਼ਿੰਮੇ",
      "ਵਾਰ</w>"
    ],
    [
      "ਐੱ",
      "ਫ</w>"
    ],
    [
      "ਖਿ",
      "ੱਚ"
    ],
    [
      "ਊ",
      "ਨ</w>"
    ],
    [
      "ਪ੍ਰ",
      "ਸਾਰ"
    ],
    [
      "ਡਿ",
      "ਟ</w>"
    ],
    [
      "ਸਕ",
      "ੋ</w>"
    ],
    [
      "ਕੇ",
      "ਸ</w>"
    ],
    [
      "ਕਰੋ",
      "ੜ</w>"
    ],
    [
      "ਸੰ",
      "ਚਾਰ</w>"
    ],
    [
      "ਮਾ",
      "ਸਪ"
    ],
    [
      "ਅਕ",
      "ਬਰ</w>"
    ],
    [
      "ਬੂ",
      "ਰ</w>"
    ],
    [
      "ਗਠ",
      "ਨ</w>"
    ],
    [
      "ਨੁਮਾਇੰ",
      "ਦਗੀ</w>"
    ],
    [
      "ਕੰ",
      "ਟਰੋ"
    ],
    [
      "ਕਸ਼",
      "ਮੀਰ</w>"
    ],
    [
      "ਪਹੁੰ",
      "ਚਾ"
    ],
    [
      "ਸਾ",
      "ਥੀ</w>"
    ],
    [
      "ਰੀ",
      "ਅਲ</w>"
    ],
    [
      "ਮੈਡੀ",
      "ਕਲ</w>"
    ],
    [
      "ਰੀ",
      "ਅ"
    ],
    [
      "ਵਰ",
      "ਤ</w>"
    ],
    [
      "ਇ",
      "ਸ਼"
    ],
    [
      "ਬ੍",
      "ਰਹ"
    ],
    [
      "ਜ",
      "ਸ਼ਨ</w>"
    ],
    [
      "ਸ",
      "ਕਾ"
    ],
    [
      "ਐ",
      "ਮ"
    ],
    [
      "ਮਾਸਪ",
      "ੇਸ਼"
    ],
    [
      "ਸਾ",
      "ਹ</w>"
    ],
    [
      "ਮੰ",
      "ਡਲ</w>"
    ],
    [
      "ਬੈ",
      "ਠ"
    ],
    [
      "ਗੁੱ",
      "ਸੇ</w>"
    ],
    [
      "ਚ",
      "ਾਰੀ</w>"
    ],
    [
      "ਉਂ",
      "ਦੀਆਂ</w>"
    ],
    [
      "ਚੇ",
      "ਨ"
    ],
    [
      "ਸਕ",
      "ੇ"
    ],
    [
      "ਗੁ",
      "ਫਾ</w>"
    ],
    [
      "ਬੈਂ",
      "ਡੀ</w>"
    ],
    [
      "ਸੱਭਿਆ",
      "ਚਾਰ</w>"
    ],
    [
      "ਜ",
      "ੰਗ</w>"
    ],
    [
      "2",
      "9</w>"
    ],
    [
      "ਤਰ",
      ",</w>"
    ],
    [
      "ਅੰ",
      "ਦੋ"
    ],
    [
      "ਸਮੂ",
      "ਹਾਂ</w>"
    ],
    [
      "ਦਿ",
      "ਵਸ</w>"
    ],
    [
      "ਰ",
      "ਕਾਰ</w>"
    ],
    [
      "ਸਾ",
      "ਲਾਨਾ</w>"
    ],
    [
      "ਭ",
      "ਰੋ"
    ],
    [
      "ਮ",
      "ਵਾਰ</w>"
    ],
    [
      "ਦਾ",
      ",</w>"
    ],
    [
      "ਅਵਾਰ",
      "ਡ</w>"
    ],
    [
      "ਦੌ",
      "ੜ</w>"
    ],
    [
      "ਫ",
      "ੁ"
    ],
    [
      "ਦਫ਼",
      "ਤਰ</w>"
    ],
    [
      "ਸਪ",
      "ੇ"
    ],
    [
      "ਟ",
      "ਾਰ"
    ],
    [
      "ਹ",
      "ਵਾ</w>"
    ],
    [
      "ਕੈਲੀਫੋਰ",
      "ਨੀਆ</w>"
    ],
    [
      "ਘਟ",
      "ਨਾਵਾਂ</w>"
    ],
    [
      "ਘੱ",
      "ਟੋ-"
    ],
    [
      "ਸਥਿ",
      "ਤੀਆਂ</w>"
    ],
    [
      "ਸਾ",
      "ਗਰ</w>"
    ],
    [
      "ਦ",
      "ਸ</w>"
    ],
    [
      "ਅੱ",
      "ਧ</w>"
    ],
    [
      "ਸ਼੍",
      "ਰੀ</w>"
    ],
    [
      "ਵਾ",
      "ਲ</w>"
    ],
    [
      "ਖ",
      "ੱ"
    ],
    [
      "ਖ",
      "ੰ"
    ],
    [
      "ੂ",
      "ਆਂ</w>"
    ],
    [
      "ਵਰ",
      "ਖਾ</w>"
    ],
    [
      "ਤ",
      "ਲਾ"
    ],
    [
      "ਆਰ",
      "."
    ],
    [
      "ਡ",
      "਼"
    ],
    [
      "ਸਿੱ",
      "ਖ"
    ],
    [
      "ਵਿ",
      "ਦੇਸ਼ੀ</w>"
    ],
    [
      "ਸ",
      "ਜ਼ਾ</w>"
    ],
    [
      "ਜ਼",
      "ੁ"
    ],
    [
      "ਘੱਟੋ-",
      "ਘੱਟ</w>"
    ],
    [
      "ਜ਼",
      "ੋਰ"
    ],
    [
      "ਅਖ",
      "ੀਰ</w>"
    ],
    [
      "ਪਹੁੰਚ",
      "ਣ</w>"
    ],
    [
      "ਲਾ",
      "ਸ</w>"
    ],
    [
      "ਲੰ",
      "ਬੀ</w>"
    ],
    [
      "ਮਿ",
      "ਸ਼ਰ"
    ],
    [
      "ਫਿਲ",
      "ਮਾਂ</w>"
    ],
    [
      "ਬਿ",
      "ਮਾਰ"
    ],
    [
      "ਟ੍",
      "ਰਾਂ"
    ],
    [
      "ਗ",
      "ਈ,</w>"
    ],
    [
      "ਮਾ",
      "ਨਾਂ</w>"
    ],
    [
      "ਭ",
      "ਵਨ</w>"
    ],
    [
      "ਰਾ",
      "ਨੀ</w>"
    ],
    [
      "ਗਰ",
      "ੁੱਪ</w>"
    ],
    [
      "ਵੇ",
      "ਦ"
    ],
    [
      "ੰਡ",
      "ਾ</w>"
    ],
    [
      "ਨੌ",
      "ਕਰੀ</w>"
    ],
    [
      "ਬਾਰ",
      "ਾਂ</w>"
    ],
    [
      "ਬਚਾ",
      "ਅ</w>"
    ],
    [
      "ਮ",
      "ਣੀ"
    ],
    [
      "ਵੱਖ",
      "ਰਾ</w>"
    ],
    [
      "ਮੁ",
      "ਹੰ"
    ],
    [
      "ਅੰ",
      "ਤਿ"
    ],
    [
      "ਜੀ",
      "ਤ</w>"
    ],
    [
      "ਮਿਲ",
      "ੀ</w>"
    ],
    [
      "ਪ",
      "ੱਖ</w>"
    ],
    [
      "ਖੇ",
      "ਤਰੀ</w>"
    ],
    [
      "ਆਦਿ",
      "</w>"
    ],
    [
      "ਆਸਟ੍",
      "ਰੇਲੀਆ</w>"
    ],
    [
      "ਗਾ",
      "ਇ"
    ],
    [
      "ਨ",
      "ਸ"
    ],
    [
      "ਅਦਾ",
      "ਕਾਰ</w>"
    ],
    [
      "ਡ",
      "ੌ"
    ],
    [
      "1",
      "."
    ],
    [
      "ਡ",
      "੍"
    ],
    [
      "ੰਗ",
      ",</w>"
    ],
    [
      "ਐੱਮ",
      "."
    ],
    [
      "ਫਾਰ",
      "ਮ</w>"
    ],
    [
      "ਦੇਖ",
      "ਭਾਲ</w>"
    ],
    [
      "ਖੇਡ",
      "ਿਆ</w>"
    ],
    [
      "ਵਿ",
      "ਰਾ"
    ],
    [
      "ਤੋ",
      "ਹਫ਼"
    ],
    [
      "ਲ",
      "ਕਸ਼"
    ],
    [
      "ਉਦਾਹਰ",
      "ਨ</w>"
    ],
    [
      "ਘ",
      "ੁ"
    ],
    [
      "ਮੁ",
      "ੱਚ</w>"
    ],
    [
      "ਸੂ",
      "ਨ</w>"
    ],
    [
      "ਸੈ",
      "ਲਾ"
    ],
    [
      "ਵੈੱਬ",
      "ਸਾਈਟ</w>"
    ],
    [
      "ਵਿੰਡੋ",
      "ਜ਼</w>"
    ],
    [
      "ਦਾ",
      "ਇਕ</w>"
    ],
    [
      "ਛੱਡ",
      "ਣ</w>"
    ],
    [
      "ਸਨ",
      "ਮਾਨ</w>"
    ],
    [
      "ਸਪ",
      "ਲਾਈ</w>"
    ],
    [
      "ਡ",
      "ਬਲ"
    ],
    [
      "200",
      "1</w>"
    ],
    [
      "ਸੁਝਾ",
      "ਅ</w>"
    ],
    [
      "ਢ",
      "ੇ</w>"
    ],
    [
      "ਪੰ",
      "ਛ"
    ],
    [
      "ਬ",
      "ਲਿ"
    ],
    [
      "ਲ",
      "ਹਿ"
    ],
    [
      "ਨਾਮਜ਼",
      "ਦ</w>"
    ],
    [
      "ਪਰਿ",
      "ਵਰਤ"
    ],
    [
      "ਇਸ",
      "ਦਾ</w>"
    ],
    [
      "ਸ਼",
      "ਨਾਂ</w>"
    ],
    [
      "ਲੀ",
      "ਵੁੱਡ</w>"
    ],
    [
      "ਲ",
      "ਸ</w>"
    ],
    [
      "ਰੀ",
      "ਅਰ</w>"
    ],
    [
      "ਡਿਜ਼ਾ",
      "ਈਨ</w>"
    ],
    [
      "ਹੋਵੇ",
      "ਗੀ।</w>"
    ],
    [
      "ਮਾਈ",
      "ਕ੍ਰੋ"
    ],
    [
      "ਸਮ",
      "ਰਾਟ</w>"
    ],
    [
      "ਵਾ",
      "ਦ"
    ],
    [
      "ਲੀ",
      "ਨ</w>"
    ],
    [
      "ਪੜ",
      "੍ਹ"
    ],
    [
      "ਫ",
      "ੰਡ</w>"
    ],
    [
      "ਾਰ",
      "ਥ"
    ],
    [
      "197",
      "0</w>"
    ],
    [
      "ਪੈ",
      "</w>"
    ],
    [
      "ਹੱ",
      "ਲ</w>"
    ],
    [
      "ਕ",
      "-"
    ],
    [
      "ਨਿਰਦੇਸ਼",
      "ਨ</w>"
    ],
    [
      "ਲਾ",
      "ਭ"
    ],
    [
      "ਬ",
      "ਨ</w>"
    ],
    [
      "ਸਰੀ",
      "ਰਕ</w>"
    ],
    [
      "ਮੁ",
      "ਖ"
    ],
    [
      "ਬਣਾ",
      "ਉਂਦੇ</w>"
    ],
    [
      "ਸੱਚ",
      "ਮੁੱਚ</w>"
    ],
    [
      "ਮਿ",
      "ੰਗ</w>"
    ],
    [
      "ਜਿ",
      "ਹਾ</w>"
    ],
    [
      "ਐੱਲ",
      ".</w>"
    ],
    [
      "ਆਵਾ",
      "ਜਾਈ</w>"
    ],
    [
      "ਚੋ",
      "ਲਾ</w>"
    ],
    [
      "ਮਾਨ",
      "ਤਾ</w>"
    ],
    [
      "ਲ",
      "ੱਖ</w>"
    ],
    [
      "ਖੁ",
      "ਸ਼</w>"
    ],
    [
      "ਲ",
      "ਕ"
    ],
    [
      "ਸਿੱ",
      "ਧੇ</w>"
    ],
    [
      "ਸਕ",
      "ੋ"
    ],
    [
      "ਫੌ",
      "ਜ</w>"
    ],
    [
      "ਂ",
      "ਟ</w>"
    ],
    [
      "ਸੁਲ",
      "ਤਾਨ</w>"
    ],
    [
      "ਵਿਅਕ",
      "ਤੀਆਂ</w>"
    ],
    [
      "ਕੇ",
      "ਟ</w>"
    ],
    [
      "ਭਗ",
      "ਵਾਨ</w>"
    ],
    [
      "ਮੈ",
      "ਨੇ"
    ],
    [
      "ਮਾ",
      "ਪ"
    ],
    [
      "ਉਤਪਾ",
      "ਦਾਂ</w>"
    ],
    [
      "ਜ",
      "ੈਂ"
    ],
    [
      "ਪਾ",
      "ਲਣ</w>"
    ],
    [
      "ਵਿਸ਼ੇਸ਼",
      "ਤਾ</w>"
    ],
    [
      "ਖ",
      "ਾਂ"
    ],
    [
      "ਪੁਰਾ",
      "ਣੀ</w>"
    ],
    [
      "ਸੁਤੰ",
      "ਤਰ</w>"
    ],
    [
      "ਇੱ",
      "ਥੋਂ</w>"
    ],
    [
      "ਤੇ",
      "ਲਗ"
    ],
    [
      "ਆਵਾ",
      "ਜ਼</w>"
    ],
    [
      "ਬੱਚ",
      "ਤ</w>"
    ],
    [
      "ਲੈਂ",
      "ਦਾ</w>"
    ],
    [
      "ਗੁਫਾ",
      "ਵਾਂ</w>"
    ],
    [
      "ਸੂ",
      "ਚੀ"
    ],
    [
      "ੜ",
      "ਾ"
    ],
    [
      "ਦੋ",
      "ਸ਼</w>"
    ],
    [
      "ਮੁਹੰ",
      "ਮਦ</w>"
    ],
    [
      "ਅੰਤਿ",
      "ਮ</w>"
    ],
    [
      "ਵਿਕਲ",
      "ਪ</w>"
    ],
    [
      "ਭਵਿ",
      "ੱਖ</w>"
    ],
    [
      "ਤ",
      "ਰਿਤ</w>"
    ],
    [
      "ਤਰ",
      "੍ਹ"
    ],
    [
      "ਯੋਗ",
      "ਦਾਨ</w>"
    ],
    [
      "ਟ",
      "ਰਾ"
    ],
    [
      "ਯੂਰ",
      "ਪੀਅਨ</w>"
    ],
    [
      "ਮ",
      "ਾਰੇ</w>"
    ],
    [
      "ਸ਼",
      "ਨੀ</w>"
    ],
    [
      "ਮ",
      "ਰੀ</w>"
    ],
    [
      "ਜਾ",
      "ਪਾ"
    ],
    [
      "ਆਜ਼ਾ",
      "ਦੀ</w>"
    ],
    [
      "8",
      "0</w>"
    ],
    [
      "ਸ",
      "ਫ਼"
    ],
    [
      "ਲ",
      "ਈ।</w>"
    ],
    [
      "ਕਿ",
      "ਉਂ</w>"
    ],
    [
      "ਲੇਖ",
      "ਕ</w>"
    ],
    [
      "ਕਾ",
      "ਮ"
    ],
    [
      "ਤਰ੍ਹ",
      "ਾਂ,</w>"
    ],
    [
      "ਅਸ਼ੋ",
      "ਕ</w>"
    ],
    [
      "ਜੁੜ",
      "ਿਆ</w>"
    ],
    [
      "ਜਿ",
      "ਨ"
    ],
    [
      "ਵਿਲ",
      "ੱਖਣ</w>"
    ],
    [
      "ਭਾਈ",
      "ਚਾਰੇ</w>"
    ],
    [
      "ਜ਼ਾ",
      "ਨਾ</w>"
    ],
    [
      "ਬੱ",
      "ਸ</w>"
    ],
    [
      "ਅ",
      "ਥ"
    ],
    [
      "ਬਾਇ",
      "ਓ"
    ],
    [
      "ਵਿਦਿਆਰ",
      "ਥੀ</w>"
    ],
    [
      "ਪੜ",
      "੍ਹਾਈ</w>"
    ],
    [
      "ਜੈ",
      "</w>"
    ],
    [
      "ਕ",
      "ਿਆ</w>"
    ],
    [
      "ਹਫ਼",
      "ਤਿਆਂ</w>"
    ],
    [
      "ਸਮਰੱ",
      "ਥਾ</w>"
    ],
    [
      "ਰੀ",
      "ਕਾ</w>"
    ],
    [
      "ਦਸਤਾ",
      "ਵੇ"
    ],
    [
      "ਗੇ",
      ",</w>"
    ],
    [
      "ਸਕ",
      "ੀ</w>"
    ],
    [
      "ਮਾ",
      "ਇ"
    ],
    [
      "ਨਿਰਮਾ",
      "ਤਾ</w>"
    ],
    [
      "ਸਕ",
      "ਾਰਾ"
    ],
    [
      "ਰੀ",
      "ਜ਼</w>"
    ],
    [
      "ਧ",
      "ਾਂ</w>"
    ],
    [
      "ਵਿਸ਼",
      "ਨੂੰ</w>"
    ],
    [
      "ਪ੍ਰਾ",
      "ਇ"
    ],
    [
      "ਕ",
      "ਦਮ</w>"
    ],
    [
      "5",
      "00</w>"
    ],
    [
      "ਰੇ",
      "ਲ</w>"
    ],
    [
      "ਯ",
      "</w>"
    ],
    [
      "ਸਿੰਡ",
      "ਰੋਮ</w>"
    ],
    [
      "ਸੰਸ",
      "ਦ</w>"
    ],
    [
      "ਟ",
      "ਣ</w>"
    ],
    [
      "ਜ਼",
      "ਾਰਾਂ</w>"
    ],
    [
      "ੇਸ਼",
      "ਾ"
    ],
    [
      "ੇਸ਼",
      "ਵਰ</w>"
    ],
    [
      "ਗ",
      "ਤੀ</w>"
    ],
    [
      "ਫਰਾਂ",
      "ਸ</w>"
    ],
    [
      "ਜੰਗ",
      "ਲੀ</w>"
    ],
    [
      "ਮਾਲ",
      "ਕ</w>"
    ],
    [
      "ਡੀ",
      "ਓ"
    ],
    [
      "ਬਦ",
      "ਲਣ</w>"
    ],
    [
      "ਨਿਭਾ",
      "ਈ</w>"
    ],
    [
      "ਕਿ",
      "ਨ"
    ],
    [
      "ਕ",
      "ੜੇ</w>"
    ],
    [
      "ਮ",
      "ੋਰ"
    ],
    [
      "ਵੀ",
      ",</w>"
    ],
    [
      "ਕਰੀ",
      "ਅਰ</w>"
    ],
    [
      "ਖੇ",
      "ਡੀ</w>"
    ],
    [
      "ਨ",
      "ਮ</w>"
    ],
    [
      "ਬਣਾ",
      "ਉਂਦਾ</w>"
    ],
    [
      "ਵ",
      "ਸਤ"
    ],
    [
      "ਰੇ",
      "ਟਿੰਗ</w>"
    ],
    [
      "ਬ",
      "ਹਾ"
    ],
    [
      "ਸਾ",
      "ਹਿਤ</w>"
    ],
    [
      "ਨਿਯੰ",
      "ਤਰਿਤ</w>"
    ],
    [
      "ਵੇ",
      "ਰ"
    ],
    [
      "ਡ",
      "ੂੰ"
    ],
    [
      "ਸਟਾ",
      "ਕ</w>"
    ],
    [
      "ਵਾ",
      "ਨਾਂ</w>"
    ],
    [
      "ਇ",
      "ਸਦੀ</w>"
    ],
    [
      "ਗੁਣ",
      "ਵੱ"
    ],
    [
      "ਜੇ",
      "ਤੂ</w>"
    ],
    [
      "ਥੀ",
      "ਏ"
    ],
    [
      "ਸਰ",
      "ਹੱਦ</w>"
    ],
    [
      "ਤ",
      "ਿੱ"
    ],
    [
      "ਇ",
      "ਲੈਕ"
    ],
    [
      "ਐੱਨ",
      ".</w>"
    ],
    [
      "ਬੋ",
      "ਲੀ</w>"
    ],
    [
      "ਤੀ",
      "ਜੀ</w>"
    ],
    [
      "ਗ੍ਰ",
      "ੈ"
    ],
    [
      "ਮਿਲ",
      "ਿਆ</w>"
    ],
    [
      "ਯੋਗ",
      "ਤਾ</w>"
    ],
    [
      "ਮੇਜ਼ਬਾ",
      "ਨੀ</w>"
    ],
    [
      "ਸਖ਼",
      "ਤ</w>"
    ],
    [
      "ਆਦ",
      "ਮੀ</w>"
    ],
    [
      "ਲੀ",
      "-"
    ],
    [
      "ਚੈ",
      "ੱਕ</w>"
    ],
    [
      "ਸੈ",
      "ਨ</w>"
    ],
    [
      "ਜਿ",
      "ਹੇ</w>"
    ],
    [
      "0",
      "%</w>"
    ],
    [
      "ਮਿਊ",
      "ਨਿ"
    ],
    [
      "ਖਾ",
      "ਤੇ</w>"
    ],
    [
      "ਖਾ",
      "ਰ</w>"
    ],
    [
      "ਮ",
      "ਜ"
    ],
    [
      "ਕਿ",
      "ਤਾ"
    ],
    [
      "ਦ",
      "ੂਰ"
    ],
    [
      "ਗ੍ਰਿ",
      "ਫ"
    ],
    [
      "ਜੀ",
      "ਵ"
    ],
    [
      "ਅ",
      "ਚਾ"
    ],
    [
      "ਸ",
      "ਤੀ"
    ],
    [
      "ਮੁੱ",
      "ਢ"
    ],
    [
      "ਖ਼",
      "ੂਨ</w>"
    ],
    [
      "'",
      "ਚ</w>"
    ],
    [
      "ਰੱਖ",
      "ਦਾ</w>"
    ],
    [
      "ਸਕਾਰਾ",
      "ਤਮਕ</w>"
    ],
    [
      "ਸੁ",
      "ਣ"
    ],
    [
      "ਸਿ",
      "ਧ"
    ],
    [
      "ਗੁੱ",
      "ਸਾ</w>"
    ],
    [
      "ਕਾਰ",
      "ਾ"
    ],
    [
      "ਮੱ",
      "ਧ"
    ],
    [
      "ਰ",
      "ੀਆਂ</w>"
    ],
    [
      "ਲੋ",
      "ੜੀ"
    ],
    [
      "ਭਾ",
      "ਵੇਂ</w>"
    ],
    [
      "ਜ਼",
      "ੂ"
    ],
    [
      "ਇਲੀ",
      "ਨੋ"
    ],
    [
      "ਸਥਿ",
      "ਰ</w>"
    ],
    [
      "ਅ",
      "ਮੀਰ</w>"
    ],
    [
      "ਪ੍ਰਗ",
      "ਟ</w>"
    ],
    [
      "ਖ਼ਰੀਦ",
      "ਣ</w>"
    ],
    [
      "ਨੌ",
      "ਜਵਾਨ</w>"
    ],
    [
      "ਹੋ",
      "ਏ।</w>"
    ],
    [
      "ਫ",
      "ੈਕ"
    ],
    [
      "ਫ਼ਰ",
      "ਵਰੀ</w>"
    ],
    [
      "ਆ",
      "ਫਿ"
    ],
    [
      "ਮੁੱ",
      "ਲ</w>"
    ],
    [
      "ਨਿਯੰ",
      "ਤਰਣ</w>"
    ],
    [
      "ਸੰ",
      "ਚਾ"
    ],
    [
      "ਡਾ",
      "ਇ"
    ],
    [
      "ਡ",
      "ਮ</w>"
    ],
    [
      "ਮ",
      "ਸ</w>"
    ],
    [
      "ਪੋ",
      "ਲੋ</w>"
    ],
    [
      "ਕਿੰ",
      "ਨਾ</w>"
    ],
    [
      "ਰਿ",
      "ਕਾਰ"
    ],
    [
      "ਪ",
      ",</w>"
    ],
    [
      "ਉ",
      "ਚਾਈ</w>"
    ],
    [
      "ਫ਼ੌ",
      "ਜ</w>"
    ],
    [
      "ਸਾ",
      "ਲਾ</w>"
    ],
    [
      "ਵਿ",
      "ਚਾਰ"
    ],
    [
      "ਕੁ",
      "ਆਰ"
    ],
    [
      "ਛੋ",
      "ਟੀਆਂ</w>"
    ],
    [
      "ਮੂਰ",
      "ਤੀ</w>"
    ],
    [
      "ਵਧਾ",
      "ਉਣ</w>"
    ],
    [
      "ਮਾ",
      "ਲ</w>"
    ],
    [
      "ਸੰ",
      "ਤੁ"
    ],
    [
      "ਮੌ",
      "ਨ"
    ],
    [
      "20",
      "22</w>"
    ],
    [
      "ਇਲੈਕ",
      "ਟ੍"
    ],
    [
      "ਵੀ",
      ".</w>"
    ],
    [
      "ਇਸ",
      "ਦੇ</w>"
    ],
    [
      "ਟ",
      "ਮ</w>"
    ],
    [
      "ਥਾ",
      "ਈ"
    ],
    [
      "ਐੱਨ",
      "."
    ],
    [
      "ਹ",
      ",</w>"
    ],
    [
      "ਤ",
      "ਮਾ</w>"
    ],
    [
      "ਜੀ",
      "ਵ</w>"
    ],
    [
      "ਹੇਠ",
      "ਲੇ</w>"
    ],
    [
      "ਹੈ",
      ";</w>"
    ],
    [
      "ਮ",
      "ੂੰ"
    ],
    [
      "ਗੁਣਵੱ",
      "ਤਾ</w>"
    ],
    [
      "ਬੈ",
      "ਕ</w>"
    ],
    [
      "ਤ",
      "ੱਟ</w>"
    ],
    [
      "ਟਰ",
      "ੈ"
    ],
    [
      "ਲੰ",
      "ਬ"
    ],
    [
      "ਸ",
      "ਜਾ"
    ],
    [
      "ਘ",
      "ੁੰ"
    ],
    [
      "ਡ",
      "ੁੱ"
    ],
    [
      ")",
      "।</w>"
    ],
    [
      "ਸੰ",
      "ਕਰ"
    ],
    [
      "ਵਾ",
      "ਂ,</w>"
    ],
    [
      "ਸਪ",
      "ੀ</w>"
    ],
    [
      "ਰਾ",
      ",</w>"
    ],
    [
      "ਵ",
      "ਧ</w>"
    ],
    [
      "ਖ਼",
      "ਰਚ</w>"
    ],
    [
      "ਗ",
      "ਿੱ"
    ],
    [
      "ਅਪ",
      "ਣਾ"
    ],
    [
      "ਕ",
      "ਮਾਂ"
    ],
    [
      "ਸਫ਼",
      "ਲ</w>"
    ],
    [
      "ਸਵੈ",
      "-"
    ],
    [
      "ਅਰ",
      "ਬ</w>"
    ],
    [
      "ਪ੍ਰ",
      "ਬੰਧ</w>"
    ],
    [
      "ਨਿ",
      "ਕਲ"
    ],
    [
      "ਜਿਨ",
      "ਸੀ</w>"
    ],
    [
      "ਵੇਖ",
      "ਣ</w>"
    ],
    [
      "ਆਫਿ",
      "ਸ</w>"
    ],
    [
      "ਘ",
      "ਿ"
    ],
    [
      "ਕਲਾ",
      "ਕਾਰ</w>"
    ],
    [
      "ਵਾ",
      "ਲ"
    ],
    [
      "ਕ੍ਰੈ",
      "ਡਿਟ</w>"
    ],
    [
      "200",
      "3</w>"
    ],
    [
      "ਮਰ",
      "ਦਾਂ</w>"
    ],
    [
      "ਬੁ",
      "ਖਾਰ</w>"
    ],
    [
      "ਨਹੀ",
      "ਂ।</w>"
    ],
    [
      "ਕਾ",
      "ਮੇ"
    ],
    [
      "ਵਿਸ਼ੇਸ਼",
      "ਤਾਵਾਂ</w>"
    ],
    [
      "ਲ",
      "ੇਸ਼"
    ],
    [
      "ਸੰ",
      "ਤ</w>"
    ],
    [
      "ਆ",
      "ਫ</w>"
    ],
    [
      "ਕ",
      "ੁਰ"
    ],
    [
      "9",
      "0</w>"
    ],
    [
      "ਹਿੰ",
      "ਦੂ"
    ],
    [
      "ਚਿੰ",
      "ਤਾ</w>"
    ],
    [
      "ਅਭਿਨੇ",
      "ਤਰੀ</w>"
    ],
    [
      "ਲੇ",
      ",</w>"
    ],
    [
      "ਚੇਨ",
      "ਈ</w>"
    ],
    [
      "ਸਕ",
      "ੈ"
    ],
    [
      "ਤਰ",
      "ੀਆਂ</w>"
    ],
    [
      "ਸਿੱ",
      "ਖ</w>"
    ],
    [
      "ਣ",
      "।</w>"
    ],
    [
      "ਘਟਾ",
      "ਉਣ</w>"
    ],
    [
      "ਕਲ",
      "ੌ"
    ],
    [
      "ਤੇਲਗ",
      "ੂ</w>"
    ],
    [
      "ਉੱਚ",
      "ੀ</w>"
    ],
    [
      "ੱ",
      "ਸ</w>"
    ],
    [
      "ਜਿੱਤ",
      "ਿਆ</w>"
    ],
    [
      "ਸਟ",
      "ੂ"
    ],
    [
      "ਟਾਈ",
      "ਮ</w>"
    ],
    [
      "ਟਾ",
      "ਪੂ"
    ],
    [
      "ਮੂਰ",
      "ਤੀਆਂ</w>"
    ],
    [
      "ਬੈਕਟੀ",
      "ਰੀਆ</w>"
    ],
    [
      "ਸੰਕਰ",
      "ਮਿਤ</w>"
    ],
    [
      "ਅੰਗਰੇ",
      "ਜ਼ਾਂ</w>"
    ],
    [
      "ਸ਼",
      "ਬਦ"
    ],
    [
      "ਸ਼ਿ",
      "ਵਾ"
    ],
    [
      "ਵਿਦ",
      "ਰੋ"
    ],
    [
      "ਕੰਟਰੋ",
      "ਲ</w>"
    ],
    [
      "ਪੰ",
      "ਜ"
    ],
    [
      "ਤ",
      "ਗ"
    ],
    [
      "ਸੂ",
      "ਚ"
    ],
    [
      "ਕਰ",
      "ਮ</w>"
    ],
    [
      "ਕਰਮ",
      "ਚਾਰੀ</w>"
    ],
    [
      "ਚਿ",
      "ਹਰੇ</w>"
    ],
    [
      "ਸ",
      "ੀਆ</w>"
    ],
    [
      "ਦ",
      "ਵਾਈ</w>"
    ],
    [
      "ਬ੍ਰਾ",
      "ਜ਼ੀ"
    ],
    [
      "ਭਾ",
      "ਵਨਾ</w>"
    ],
    [
      "ਲ",
      "ਤਾਂ</w>"
    ],
    [
      "ਸਮਝ",
      "ੌ"
    ],
    [
      "ਸੁ",
      "ਆ"
    ],
    [
      "ਅ",
      "ਦਾ</w>"
    ],
    [
      "ਓਡੀ",
      "ਸ਼ਾ</w>"
    ],
    [
      "ਅਚਾ",
      "ਨਕ</w>"
    ],
    [
      "ਦੂ",
      "ਜਿਆਂ</w>"
    ],
    [
      "ਸਮੁੰ",
      "ਦਰ</w>"
    ],
    [
      "199",
      "9</w>"
    ],
    [
      "ਯ",
      "ਾ</w>"
    ],
    [
      "ਡ",
      "ੁ"
    ],
    [
      "ਬੰਗ",
      "ਲਾ"
    ],
    [
      "ਤਬਦੀ",
      "ਲੀ</w>"
    ],
    [
      "ਭ",
      "ੁੱ"
    ],
    [
      "ਸਕ੍ਰ",
      "ੀ"
    ],
    [
      "ੱ",
      "ਕੀ</w>"
    ],
    [
      "ਰੋ",
      "ਜ਼ਾਨਾ</w>"
    ],
    [
      "ਮੀ",
      "ਲ)</w>"
    ],
    [
      "ਨਿਰਾ",
      "ਸ਼</w>"
    ],
    [
      "ਹ",
      "ੜ"
    ],
    [
      "ਭੂਮਿ",
      "ਕਾਵਾਂ</w>"
    ],
    [
      "ਖ",
      "ਿਆਵਾਂ</w>"
    ],
    [
      "ਬ",
      "ਜ਼"
    ],
    [
      "0",
      "-"
    ],
    [
      "ਤਬਦੀ",
      "ਲ</w>"
    ],
    [
      "ਕਹਿੰ",
      "ਦਾ</w>"
    ],
    [
      "ਕ",
      "ਮਿ"
    ],
    [
      "ਸਿ",
      "ਪਾ"
    ],
    [
      "ਸਮਾ",
      "ਜ</w>"
    ],
    [
      "ਗੇ",
      "ਮਾਂ</w>"
    ],
    [
      "ਫਿਲ",
      "ਿ"
    ],
    [
      "ੱ",
      "ਡ"
    ],
    [
      "ਲੋੜੀ",
      "ਂ"
    ],
    [
      "ਸ",
      "ਪੱ"
    ],
    [
      "ਸਾ",
      "ਨੂੰ</w>"
    ],
    [
      "ਬੀ",
      "ਮਾ</w>"
    ],
    [
      "ਬੇਨ",
      "ਤੀ</w>"
    ],
    [
      "ਮਜ",
      "ਬੂਰ</w>"
    ],
    [
      "ਰੱਖ",
      "ਿਆ।</w>"
    ],
    [
      "ਮੁਹਿੰ",
      "ਮ</w>"
    ],
    [
      "ਭਾਈ",
      "ਚਾਰ"
    ],
    [
      "ਹਮ",
      "ਲਾ"
    ],
    [
      "ਜ",
      "ਣ</w>"
    ],
    [
      "ਜ਼ਿਲ",
      "੍ਹਿਆਂ</w>"
    ],
    [
      "ਪਾਲ",
      "ਣਾ</w>"
    ],
    [
      "ਮੁ",
      "ਕੱ"
    ],
    [
      "ਅਸਫ਼",
      "ਲ</w>"
    ],
    [
      "ੰਡ",
      "ੇ</w>"
    ],
    [
      "ਪੁ",
      "ਰੀ</w>"
    ],
    [
      "ਕਰੇ",
      "ਗਾ।</w>"
    ],
    [
      "ਚ",
      "ਾਂ"
    ],
    [
      "ਸ਼",
      "ਰਾਬ</w>"
    ],
    [
      "ਕਹਿ",
      "ਣਾ</w>"
    ],
    [
      "ਲਗ",
      "ਾ</w>"
    ],
    [
      "ਕੁ",
      "ਸ਼"
    ],
    [
      "ਸ਼ਾ",
      "ਟ</w>"
    ],
    [
      "ਜਿਸ",
      "ਦਾ</w>"
    ],
    [
      "ਪੁਰਾ",
      "ਣਾ</w>"
    ],
    [
      "ਠ",
      "ੀ</w>"
    ],
    [
      "ਸਟ",
      "ਿਕ</w>"
    ],
    [
      "ਕੁ",
      "ਲ</w>"
    ],
    [
      "ਸ਼ਕ",
      "ਤੀ"
    ],
    [
      "ਵਰ",
      "ੀ,</w>"
    ],
    [
      "ਸਰ",
      "ਗਰਮ</w>"
    ],
    [
      "ਹਾਂ",
      ",</w>"
    ],
    [
      "ਹ",
      "ਟਾ"
    ],
    [
      "7",
      "0</w>"
    ],
    [
      "ਪ",
      "ਾਰੀ</w>"
    ],
    [
      "ਸ਼ਿਲਾ",
      "ਲੇਖ</w>"
    ],
    [
      "ਪ੍ਰਦਰ",
      "ਸ਼ਿਤ</w>"
    ],
    [
      "ਪਾ",
      "ਠ</w>"
    ],
    [
      "ਤਾ",
      "ਮਿਲ</w>"
    ],
    [
      "ਸਟੇ",
      "ਡੀ"
    ],
    [
      "ਮਿਲ",
      "ਿਆ।</w>"
    ],
    [
      "ਕ",
      "ਲੋ"
    ],
    [
      "ਸਾਰ",
      "ਾ</w>"
    ],
    [
      "ਲੱ",
      "ਦਾ"
    ],
    [
      "ਇ",
      "ਕਾ"
    ],
    [
      "ਪ੍ਰੋਗਰਾ",
      "ਮਾਂ</w>"
    ],
    [
      "ਵਿ",
      "ਕਰੇ"
    ],
    [
      "ਫੈਡਰ",
      "ੇਸ਼ਨ</w>"
    ],
    [
      "ਕਿਤਾ",
      "ਬਾਂ</w>"
    ],
    [
      "ਕ",
      "ੂਲ</w>"
    ],
    [
      "ਦਿਲਚ",
      "ਸਪੀ</w>"
    ],
    [
      "ਗ",
      "ਹਿ"
    ],
    [
      "ਉ",
      "ਪ</w>"
    ],
    [
      "ਸਲਾਹ",
      "ਕਾਰ</w>"
    ],
    [
      "ਦੇ",
      "-"
    ],
    [
      "ਮਿ",
      "ਤੀ</w>"
    ],
    [
      "200",
      "2</w>"
    ],
    [
      "’",
      "ਤੇ</w>"
    ],
    [
      "ਕਸ",
      "ਬੇ</w>"
    ],
    [
      "ਖੁ",
      "ਸ਼ੀ</w>"
    ],
    [
      "ਵਾਤਾਵਰ",
      "ਣ</w>"
    ],
    [
      "ਕਾਉਂ",
      "ਟੀ</w>"
    ],
    [
      "ਸੈੱ",
      "ਲ</w>"
    ],
    [
      "ਲ",
      "ਟੀ</w>"
    ],
    [
      "ਐੱ",
      "ਮ</w>"
    ],
    [
      "ਵਿ",
      "ਕੀ"
    ],
    [
      "ਸੈ",
      "ਲ"
    ],
    [
      "ਜਾ",
      "ਪ"
    ],
    [
      "ਖ",
      "ੜ"
    ],
    [
      "ਹੋ",
      "ਇਆ,</w>"
    ],
    [
      "ਅੰਦੋ",
      "ਲਨ</w>"
    ],
    [
      "ਪ",
      "ਿਆ।</w>"
    ],
    [
      "ਤ",
      "ਿਆ</w>"
    ],
    [
      "ਸੰ",
      "ਵੇਦ"
    ],
    [
      "ਗਣ",
      "ਨਾ</w>"
    ],
    [
      "ਸ਼",
      "ਮ"
    ],
    [
      "ਤੱ",
      "ਤ"
    ],
    [
      "ਸਨ",
      "ਮਾਨਿਤ</w>"
    ],
    [
      "ਮਹਿ",
      "ਲ</w>"
    ],
    [
      "ਸਿੱ",
      "ਕਮ</w>"
    ],
    [
      "ਪੁਰ",
      "ਸ਼</w>"
    ],
    [
      "ਤੇ",
      "ਲ</w>"
    ],
    [
      "ਨਿ",
      "ਦਾਨ</w>"
    ],
    [
      "ਸਾਈ",
      "ਟਾਂ</w>"
    ],
    [
      "ਮੀ",
      "ਂਹ</w>"
    ],
    [
      "ਕਮਜ਼",
      "ੋਰ</w>"
    ],
    [
      "ਬ੍",
      "ਰੇ"
    ],
    [
      "ਘ",
      "ੇ"
    ],
    [
      "ਬ",
      "ਗਾ"
    ],
    [
      "ਨਾ",
      "ਕ</w>"
    ],
    [
      "ਗ",
      "ਜ਼"
    ],
    [
      "ਨਿਭਾ",
      "ਈ।</w>"
    ],
    [
      "ਮੌ",
      "ਤਾਂ</w>"
    ],
    [
      "ਵਿ",
      "ਕ</w>"
    ],
    [
      "ਕੀ",
      "ਮ"
    ],
    [
      "ਛੁੱ",
      "ਟੀ</w>"
    ],
    [
      "ਰ",
      "ਸਮ</w>"
    ],
    [
      "ਮੌਨ",
      "ਸੂਨ</w>"
    ],
    [
      "ਓ",
      "ਪ"
    ],
    [
      "ਸ",
      "ਪੀ"
    ],
    [
      "ਥੈਰੇ",
      "ਪੀ</w>"
    ],
    [
      "ਪੀ",
      "ਰੀਅ"
    ],
    [
      "ਨਸ਼ੀ",
      "ਲੇ</w>"
    ],
    [
      "ਅੱ",
      "ਡੇ</w>"
    ],
    [
      "ਹੋ",
      "ਲੀ</w>"
    ],
    [
      "ਟੇ",
      "ਨ</w>"
    ],
    [
      "ਗੁਰ",
      "ੂ</w>"
    ],
    [
      "ਕਾਇ",
      "ਮ</w>"
    ],
    [
      "ਬ",
      "ਹਿ"
    ],
    [
      "ਦਰ",
      "ਸ਼ਕਾਂ</w>"
    ],
    [
      "ਅ",
      "ਲੱਗ</w>"
    ],
    [
      "ਕਿ",
      "ੰਗ"
    ],
    [
      "ਲੱ",
      "ਕੜ</w>"
    ],
    [
      "ਸੜ",
      "ਕਾਂ</w>"
    ],
    [
      "ਯੂ",
      "ਨਾਈ"
    ],
    [
      "ਨ",
      "੍ਹ"
    ],
    [
      "ਸੰਗਠ",
      "ਨ</w>"
    ],
    [
      "ਸਕ",
      "ੁ"
    ],
    [
      "ਆਰ",
      "ਟਸ</w>"
    ],
    [
      "ਗ",
      "ਣ</w>"
    ],
    [
      "ਤ੍ਰ",
      "ਿਤ</w>"
    ],
    [
      "ਰੁ",
      "ਕਾ"
    ],
    [
      "ਲਾ",
      "ਇ"
    ],
    [
      "ਬਾਵਜੂ",
      "ਦ,</w>"
    ],
    [
      "ਕਮੇ",
      "ਟੀ</w>"
    ],
    [
      "19",
      "0"
    ],
    [
      "ਰਹੀ",
      "।</w>"
    ],
    [
      "ਮੈ",
      "ਨ"
    ],
    [
      "ਬਜ਼",
      "ੁਰ"
    ],
    [
      "ਂ",
      "-"
    ],
    [
      "ਚਿੱ",
      "ਤਰ</w>"
    ],
    [
      "ਫਰ",
      "ਵਰੀ</w>"
    ],
    [
      "ਫ਼",
      "ਾਰ"
    ],
    [
      "ਮਹਾਂ",
      "ਦੀਪ</w>"
    ],
    [
      "ਸੂਚੀ",
      "ਬੱਧ</w>"
    ],
    [
      "ਕਹਿੰ",
      "ਦੇ</w>"
    ],
    [
      "ਦਰ",
      "ਗਾ"
    ],
    [
      "ਮਿਲ",
      "ਦੀ</w>"
    ],
    [
      "ਅ",
      "ਨਾ"
    ],
    [
      "ਮੌ",
      "ਕਾ</w>"
    ],
    [
      "ਸਮੁ",
      "ੱਚ"
    ],
    [
      "ਸ",
      "ਹੂ"
    ],
    [
      "ਫ਼",
      "ੀ</w>"
    ],
    [
      "ਦੁਕਾ",
      "ਨ</w>"
    ],
    [
      "ਪੁ",
      "ਰਾ</w>"
    ],
    [
      "ਥ",
      "ੁ"
    ],
    [
      "ਪ੍ਰ",
      "ਾਰਥ"
    ],
    [
      "ਐੱ",
      "ਲ</w>"
    ],
    [
      "ਮੋ",
      "ਬਾਈ"
    ],
    [
      "|",
      "</w>"
    ],
    [
      "ਇਲੀਨੋ",
      "ਇਸ</w>"
    ],
    [
      "ਰ",
      "ਮ</w>"
    ],
    [
      "ਰਾਜਨੀ",
      "ਤਕ</w>"
    ],
    [
      "ਚੁ",
      "ਣੇ</w>"
    ],
    [
      "ਸੰਘ",
      "ਰ"
    ],
    [
      "ਬ",
      "ਤ</w>"
    ],
    [
      "ਸੈਂ",
      "ਟਰ</w>"
    ],
    [
      "ਜਿ",
      "ਹੀ</w>"
    ],
    [
      "ਧ",
      "ਰਾ</w>"
    ],
    [
      "1",
      "-"
    ],
    [
      "ਕਾਰ",
      "ਨਾਂ</w>"
    ],
    [
      "ੇਸ਼",
      "ੀਆ</w>"
    ],
    [
      "ਗਾ",
      "ਇਕ</w>"
    ],
    [
      "ਫ੍",
      "ਰੈਂ"
    ],
    [
      "ਪ",
      "ਿਆ"
    ],
    [
      "ਫ",
      "ਲੈ"
    ],
    [
      "ਜਰ",
      "ਮਨ</w>"
    ],
    [
      "ਬ੍",
      "ਰਾਂ"
    ],
    [
      "ਵਿਗਿਆ",
      "ਨਕ</w>"
    ],
    [
      "ਲਿ",
      "ਟੀ</w>"
    ],
    [
      "ਰਾ",
      "ਗ</w>"
    ],
    [
      "ਹਾਊ",
      "ਸ</w>"
    ],
    [
      "ਪ੍ਰਾ",
      "ਗ</w>"
    ],
    [
      "ਮੁ",
      "ਕਤ</w>"
    ],
    [
      "ਰ",
      "ਸਤੇ</w>"
    ],
    [
      "ਐ",
      "ਡੀ"
    ],
    [
      "ਕੁ",
      "ਆ"
    ],
    [
      "ਇ",
      "ਕਲੌ"
    ],
    [
      "ਖਾ",
      "ਣ</w>"
    ],
    [
      "ਟਿੱ",
      "ਪ"
    ],
    [
      "2",
      ","
    ],
    [
      "ਟ",
      "ਿਆਂ</w>"
    ],
    [
      "ਸਪੱ",
      "ਸ਼ਟ</w>"
    ],
    [
      "ਕੱ",
      "ਲ੍ਹ</w>"
    ],
    [
      "ਗਾ",
      "ਹ"
    ],
    [
      "ਇੰਟਰ",
      "ਨੈੱਟ</w>"
    ],
    [
      "ਜਿਸ",
      "ਨੂੰ</w>"
    ],
    [
      "ਬੇ",
      "ਸਿਨ</w>"
    ],
    [
      "ਗ਼",
      "ੈਰ-"
    ],
    [
      "ਆਖ",
      "ਰਕਾਰ</w>"
    ],
    [
      "ਪ੍ਰ",
      "ਸ਼ਾਸਨ</w>"
    ],
    [
      "ਪ",
      "ਲ"
    ],
    [
      "ਬਣਾ",
      "ਇਆ।</w>"
    ],
    [
      "ਸੂ",
      "ਬੇ</w>"
    ],
    [
      "ਵਰ",
      "ਡ</w>"
    ],
    [
      "ਸੰ",
      "ਸਥਾ</w>"
    ],
    [
      "ਸਰੋ",
      "ਤਾਂ</w>"
    ],
    [
      "ਹੈ",
      "?</w>"
    ],
    [
      "ਆ",
      "ਊਟ</w>"
    ],
    [
      "ਫੇ",
      "ਅਰ</w>"
    ],
    [
      "ੈ",
      "ਡ"
    ],
    [
      "ਦ੍ਰਿ",
      "ਸ਼</w>"
    ],
    [
      "ਵਾਰ",
      ",</w>"
    ],
    [
      "ਕੇਂ",
      "ਦ੍ਰ"
    ],
    [
      "ਇਕੱ",
      "ਲੇ</w>"
    ],
    [
      "ਬਿਮਾਰ",
      "ੀਆਂ</w>"
    ],
    [
      "ਲਾ",
      "ਗਤ</w>"
    ],
    [
      "ਫ",
      "ਲ</w>"
    ],
    [
      "ਲ",
      "ਾਰ"
    ],
    [
      "ਤ",
      "ਹਿਤ</w>"
    ],
    [
      "ਰਾਜ",
      "ਿਆਂ</w>"
    ],
    [
      "ਜ਼ਿੰ",
      "ਦਗੀ</w>"
    ],
    [
      "ਕਿਨ",
      "ਾਰੇ</w>"
    ],
    [
      "ਗ",
      "ਵਾ"
    ],
    [
      "ਝ",
      "ਲ"
    ],
    [
      "ਕ",
      "ਪ"
    ],
    [
      "ਵਾ",
      "ਪ"
    ],
    [
      "ਮਾ",
      "ਲਾ</w>"
    ],
    [
      "ਚ",
      "ਰਚ"
    ],
    [
      "ਤਬਦੀ",
      "ਲੀਆਂ</w>"
    ],
    [
      "ਲੇ",
      "ਟ</w>"
    ],
    [
      "ਮੈਨੇ",
      "ਜਰ</w>"
    ],
    [
      "ਸੀ",
      "ਅਸ</w>"
    ],
    [
      "ਸੰਸਥਾ",
      "ਵਾਂ</w>"
    ],
    [
      "ਔਰ",
      "ੰਗ"
    ],
    [
      "ਗੁ",
      "ਲਾ"
    ],
    [
      "ੇ",
      "-"
    ],
    [
      "ਡੀ",
      "ਜ਼</w>"
    ],
    [
      "ਮੰਨ",
      "ਣਾ</w>"
    ],
    [
      "ਸਿਨੇ",
      "ਮਾ</w>"
    ],
    [
      "ਫ੍",
      "ਰੀ"
    ],
    [
      "ਗ",
      "ੋਰ"
    ],
    [
      "ਵਿਰਾ",
      "ਸਤ</w>"
    ],
    [
      "ਉੱਚ",
      "ਾ</w>"
    ],
    [
      "ਦੇ",
      ",</w>"
    ],
    [
      "2",
      "."
    ],
    [
      "ਰ",
      "ਜਿ"
    ],
    [
      "ਯੂਨਾਈ",
      "ਟਿਡ</w>"
    ],
    [
      "ਤਰ",
      "ੇ</w>"
    ],
    [
      "ਚੱ",
      "ਕਰ</w>"
    ],
    [
      "ਐੱਫ",
      ".</w>"
    ],
    [
      "ਤਾ",
      "ਲ"
    ],
    [
      "ਮਨੋਰੰ",
      "ਜਨ</w>"
    ],
    [
      "ਉ",
      "ਡੀ"
    ],
    [
      "ਅੱ",
      "ਡਾ</w>"
    ],
    [
      "ਮੋਬਾਈ",
      "ਲ</w>"
    ],
    [
      "ਮੁ",
      "ਗ਼"
    ],
    [
      "ਔਰੰਗ",
      "ਜ਼ੇ"
    ],
    [
      "ਚੱ",
      "ਲ</w>"
    ],
    [
      "ਰਹ",
      "ੀਆਂ</w>"
    ],
    [
      "ਮੌ",
      "ਕੇ</w>"
    ],
    [
      "ਸੀ",
      "ਸੀ</w>"
    ],
    [
      "ਬ੍ਰਾ",
      "ਹਮ"
    ],
    [
      "ਬਾ",
      "ਜ਼</w>"
    ],
    [
      "ਮਲ",
      "ਿਆ"
    ],
    [
      "199",
      "8</w>"
    ],
    [
      "ਚੰਗ",
      "ੇ</w>"
    ],
    [
      "ਵੈ",
      "ਦਿਕ</w>"
    ],
    [
      "ਕਰ",
      "ਵਾ</w>"
    ],
    [
      "ਡ",
      "ੂ"
    ],
    [
      "ਕ",
      "ਪੂਰ</w>"
    ],
    [
      "ਲੱਦਾ",
      "ਖ</w>"
    ],
    [
      "ਡੈ",
      "ਮ</w>"
    ],
    [
      "ਦਾ",
      "ਈ</w>"
    ],
    [
      "ਕਿ",
      "ਸਮ"
    ],
    [
      "ਬਿ",
      "ਤਾ"
    ],
    [
      "194",
      "7</w>"
    ],
    [
      "ਕੌਂ",
      "ਸਲ</w>"
    ],
    [
      "ਅਨੁ",
      "ਕੂਲ</w>"
    ],
    [
      "ਸ਼ਾ",
      "ਸਕਾਂ</w>"
    ],
    [
      "ਕੇਂ",
      "ਦ"
    ],
    [
      "ਪਰ",
      "ੇਸ਼ਾ"
    ],
    [
      "ਪੁਰਾ",
      "ਤੱਤ"
    ],
    [
      "ਸਮੀ",
      "ਖਿਆ</w>"
    ],
    [
      "ਕ੍ਰ",
      "ਮ</w>"
    ],
    [
      "ਰਹਿੰ",
      "ਦੀ</w>"
    ],
    [
      "ਰੂ",
      "ਪਾਂ</w>"
    ],
    [
      "ਸਮਰੱ",
      "ਥ</w>"
    ],
    [
      "ਪ੍ਰ",
      "ਚ"
    ],
    [
      "ਫੌ",
      "ਜਾਂ</w>"
    ],
    [
      "ਵੱ",
      "ਡੀਆਂ</w>"
    ],
    [
      "ਤ",
      "ਣਾ"
    ],
    [
      "ਆ",
      "ਉ"
    ],
    [
      "ਨਿ",
      "ਗਰਾ"
    ],
    [
      "ਬ",
      "ਲੀ</w>"
    ],
    [
      "ਬਣਾ",
      "ਉਣਾ</w>"
    ],
    [
      "ਫਰ",
      "ੈਂ"
    ],
    [
      "ਬਿੰ",
      "ਦੂ</w>"
    ],
    [
      "ਫ਼",
      "ਤ</w>"
    ],
    [
      "ਚ",
      ",</w>"
    ],
    [
      "ਸੰਸ",
      "ਕ੍ਰਿਤ</w>"
    ],
    [
      "ਫੈ",
      "ਲ</w>"
    ],
    [
      "ਰਾ",
      "ਜੇ</w>"
    ],
    [
      "ਲਾ",
      "ਇਆ</w>"
    ],
    [
      "ਜ",
      "ਮ"
    ],
    [
      "ਬਗਾ",
      "ਵਤ</w>"
    ],
    [
      "ਕਾਮੇ",
      "ਡੀ</w>"
    ],
    [
      "ਨਿਯ",
      "ਮਤ</w>"
    ],
    [
      "ਲੰ",
      "ਬਾਈ</w>"
    ],
    [
      "ਸ਼",
      "ੁੱ"
    ],
    [
      "ਮਾ",
      ",</w>"
    ],
    [
      "ਤਿ",
      "ਰੂ"
    ],
    [
      "ਕੀਮ",
      "ਤਾਂ</w>"
    ],
    [
      "19",
      "ਵੀਂ</w>"
    ],
    [
      "ਪ੍ਰਾ",
      "ਈ"
    ],
    [
      "ਕੰ",
      "ਡ"
    ],
    [
      "ਭੰਡ",
      "ਾਰ</w>"
    ],
    [
      "ਪੀਰੀਅ",
      "ਡ</w>"
    ],
    [
      "ਜੇ",
      "ਲ੍ਹ</w>"
    ],
    [
      "ਦ",
      "ਬਾਅ"
    ],
    [
      "ਔਰੰਗਜ਼ੇ",
      "ਬ</w>"
    ],
    [
      "ਬਲ",
      "ਕਿ</w>"
    ],
    [
      "ਤਿਆ",
      "ਰੀ</w>"
    ],
    [
      "ਪਰਿਵਰਤ",
      "ਨ</w>"
    ],
    [
      "ਇ",
      "ਜਾ"
    ],
    [
      "ਜ਼",
      "ਤ</w>"
    ],
    [
      "ਸੱ",
      "ਤਾ</w>"
    ],
    [
      "ਥ",
      "੍"
    ],
    [
      "ਿਲ",
      "ਿ"
    ],
    [
      "ਸਾ",
      "ਫ਼</w>"
    ],
    [
      "ਵੀ",
      "ਰ</w>"
    ],
    [
      "ਇ",
      "ਡ</w>"
    ],
    [
      "ਮ",
      "-"
    ],
    [
      "ਮਿ",
      "ਊਂ"
    ],
    [
      "ਸਰ",
      "ਜ"
    ],
    [
      "ਜੰਗ",
      "ਲਾਂ</w>"
    ],
    [
      "ਰਚ",
      "ਨਾ</w>"
    ],
    [
      "ਓ",
      ",</w>"
    ],
    [
      "ਐ",
      "ਨੀ"
    ],
    [
      "ਨੇ",
      "ਟ</w>"
    ],
    [
      "ਵ",
      "ਕੀ"
    ],
    [
      "ਸ",
      "ਾਰੀ</w>"
    ],
    [
      "ਕੋ",
      "ਂ"
    ],
    [
      "ਕੱ",
      "ਪੜ"
    ],
    [
      "\"",
      "।</w>"
    ],
    [
      "ਸੰਭਾ",
      "ਲ</w>"
    ],
    [
      "ਆ",
      "ਦੇਸ਼</w>"
    ],
    [
      "ਤਰੀ",
      "ਕਿਆਂ</w>"
    ],
    [
      "ਬਣ",
      "ੀ</w>"
    ],
    [
      "3",
      "1</w>"
    ],
    [
      "ਪਾ",
      "ਬੰਦੀ</w>"
    ],
    [
      "ਸ਼",
      "ੁਰ"
    ],
    [
      "ਧ",
      "ੂ</w>"
    ],
    [
      "ਕੈ",
      "ਲੰਡ"
    ],
    [
      "ਮਨੁੱ",
      "ਖਾਂ</w>"
    ],
    [
      "ਟ",
      ")</w>"
    ],
    [
      "ਪੀ",
      "ਲੇ</w>"
    ],
    [
      "ਸੋ",
      "ਨ</w>"
    ],
    [
      "ਚੈ",
      "ਨਲ</w>"
    ],
    [
      "ਬ੍ਰਾਜ਼ੀ",
      "ਲ</w>"
    ],
    [
      "ਈ",
      "ਸਾਈ</w>"
    ],
    [
      "ਵਿਵ",
      "ਸਥਾ</w>"
    ],
    [
      "ਖ",
      "ਰ</w>"
    ],
    [
      "ਰਾ",
      "ਹ"
    ],
    [
      "ਸਿਰ",
      "ਲੇਖ</w>"
    ],
    [
      "ਕਿ",
      "ਤਾਬ</w>"
    ],
    [
      "ਨ",
      "੍ਹ</w>"
    ],
    [
      "ਦੇ",
      "ਰ</w>"
    ],
    [
      "ਕ",
      "ਦੇ-"
    ],
    [
      "ਬੰ",
      "ਦਰਗਾ"
    ],
    [
      "ਅਕ",
      "ੈਡ"
    ],
    [
      "ਵੱ",
      "ਧ"
    ],
    [
      "ਟੀ",
      "ਵੀ</w>"
    ],
    [
      "ਕ੍ਰਿ",
      "ਪ"
    ],
    [
      "ਚਲਾ",
      "ਉਣ</w>"
    ],
    [
      "ਸੰਭਾ",
      "ਵਿਤ</w>"
    ],
    [
      "ਚ",
      "ੂ"
    ],
    [
      "ਦਿਮਾ",
      "ਗ</w>"
    ],
    [
      "ਉਡੀ",
      "ਕ</w>"
    ],
    [
      "ਸੈੱ",
      "ਲਾਂ</w>"
    ],
    [
      "ਤਿਉ",
      "ਹਾਰਾਂ</w>"
    ],
    [
      "ਦਾ",
      "ਦ</w>"
    ],
    [
      "ਪੱ",
      "ਤਰ</w>"
    ],
    [
      "ਨ",
      "ਵਾ"
    ],
    [
      "ਕੋ",
      "ਣ</w>"
    ],
    [
      "ਗ",
      "ਲਾਂ</w>"
    ],
    [
      "ਕਾ",
      ",</w>"
    ],
    [
      "ਪੀੜ",
      "ਤ</w>"
    ],
    [
      "ਅਹੁ",
      "ਦੇ</w>"
    ],
    [
      "ਹੁੰ",
      "ਦਾ।</w>"
    ],
    [
      "ਸਕੂ",
      "ਲਾਂ</w>"
    ],
    [
      "ਪੁਰਾਤੱਤ",
      "ਵ</w>"
    ],
    [
      "ਕਹਾ",
      "ਣੀਆਂ</w>"
    ],
    [
      "ਟ",
      "ੂ</w>"
    ],
    [
      "ਹਰ",
      "ਿਆ"
    ],
    [
      "ਹਿ",
      "ੱ"
    ],
    [
      "ਮੂੰ",
      "ਹ</w>"
    ],
    [
      "ਜ਼",
      "ਖ"
    ],
    [
      "ਦੋ",
      "ਸਤਾਂ</w>"
    ],
    [
      "ਡੈ",
      "ਲ"
    ],
    [
      "ਫੇ",
      "ਫ"
    ],
    [
      "ਵ",
      "ੁ"
    ],
    [
      "ਨਹਿ",
      "ਰੂ</w>"
    ],
    [
      "ਗ਼",
      "ੈਰ-"
    ],
    [
      "ਊਂ",
      "ਡ"
    ],
    [
      "ਇਜਾ",
      "ਜ਼ਤ</w>"
    ],
    [
      "ਬਚ",
      "ਣ</w>"
    ],
    [
      "ਪ੍ਰ",
      "ਮਾਣ"
    ],
    [
      "ਚੰ",
      "ਦ</w>"
    ],
    [
      "ਸ਼ੈ",
      "ਲੀਆਂ</w>"
    ],
    [
      "ਬੰਗਲਾ",
      "ਦੇਸ਼</w>"
    ],
    [
      "ਕ",
      "ਟ"
    ],
    [
      "2",
      "5"
    ],
    [
      "ਅਸਾ",
      "ਮ</w>"
    ],
    [
      "ਦੇਵ",
      "ਤਾ</w>"
    ],
    [
      "ਘੰ",
      "ਟਿਆਂ</w>"
    ],
    [
      "ਵੇ",
      "ਅ</w>"
    ],
    [
      "ਕਰ",
      "ਣਾਂ</w>"
    ],
    [
      "ਮੇ",
      "ਘਾ"
    ],
    [
      "ਬ",
      "ਿਲੀ"
    ],
    [
      "ਪੁਰ",
      "ਸ਼ਾਂ</w>"
    ],
    [
      "ਖ",
      "ੋ</w>"
    ],
    [
      "ਪ੍ਰ",
      "ਵੇਸ਼</w>"
    ],
    [
      "ਮੁਗ਼",
      "ਲ</w>"
    ],
    [
      "ਦਬਾਅ",
      "</w>"
    ],
    [
      "ਰਾਜ",
      "ਪੂ"
    ],
    [
      "ਵਾ",
      "ਪਰ"
    ],
    [
      "ਹਰਾ",
      "ਇਆ</w>"
    ],
    [
      "ਚ",
      "ਲ</w>"
    ],
    [
      "ਹ",
      "ਜ਼ਾਰਾਂ</w>"
    ],
    [
      "ਮਿਲ",
      "ਾ</w>"
    ],
    [
      "ਰੋ",
      "ਮਾਂ"
    ],
    [
      "ਵਿ",
      "ਸ</w>"
    ],
    [
      "ਮੈ",
      "ਚਾਂ</w>"
    ],
    [
      "ਆਂ",
      "ਧਰਾ</w>"
    ],
    [
      "ਂ",
      "ਦ</w>"
    ],
    [
      "ਥੀਏ",
      "ਟਰ</w>"
    ],
    [
      "ਬਾ",
      "ਹਰੀ</w>"
    ],
    [
      "ਸੁ",
      "ਪਰ"
    ],
    [
      "ੇਸ਼",
      "ਨਾਂ</w>"
    ],
    [
      "ਪਾ",
      "ਈ"
    ],
    [
      "ਕ੍ਰ",
      "ਾ"
    ],
    [
      "ਐ",
      "ਪੀ"
    ],
    [
      "ਮੱਛ",
      "ੀ</w>"
    ],
    [
      "ਹੈ",
      "!</w>"
    ],
    [
      "ਲੋ",
      "ਜੀ</w>"
    ],
    [
      "ਮੰਨ",
      "ਦੇ</w>"
    ],
    [
      "ਨ",
      "ਰੀ</w>"
    ],
    [
      "ਟੁੱ",
      "ਟ</w>"
    ],
    [
      "ਦ",
      "ੌਰ</w>"
    ],
    [
      "ਥ",
      "ੰ"
    ],
    [
      "ਵਿ",
      "ਧਾ"
    ],
    [
      "ਢ",
      "ਾ"
    ],
    [
      "ਇੰ",
      "ਨਾ</w>"
    ],
    [
      "ਇੰ",
      "ਡੀਅਨ</w>"
    ],
    [
      "ਪ੍ਰ",
      "ਤਿ"
    ],
    [
      "ਖ",
      "ੁਰ"
    ],
    [
      "ਟਰੈ",
      "ਕ</w>"
    ],
    [
      "ਦਰ",
      "ਵਾ"
    ],
    [
      "ਨਿਰਦੇਸ਼",
      "ਿਤ</w>"
    ],
    [
      "ਨਿਯ",
      "ਮਿਤ</w>"
    ],
    [
      "ਰ",
      "ਕ"
    ],
    [
      "ਕੈ",
      "ਰੋ"
    ],
    [
      "ਬਿਲ",
      "ਕੁਲ</w>"
    ],
    [
      "ਰੈ",
      "ਸਟੋਰ"
    ],
    [
      "ਸਰ",
      "ਪ੍ਰ"
    ],
    [
      "ਰਿ",
      "ੰ"
    ],
    [
      "ਲ",
      "ਤਾ"
    ],
    [
      "ਟੇ",
      "ਲ</w>"
    ],
    [
      "ਕਰਾ",
      "ਰ</w>"
    ],
    [
      "ਪੈ",
      "ਰਾ"
    ],
    [
      "ਿਆ",
      "ਂ,</w>"
    ],
    [
      "196",
      "0</w>"
    ],
    [
      "ਸ",
      "ਲੀ"
    ],
    [
      "2",
      "-"
    ],
    [
      "ਸਟੇਡੀ",
      "ਅਮ</w>"
    ],
    [
      "ਪੁ",
      "ਨਰ"
    ],
    [
      "ਹ",
      "ੜ੍ਹ</w>"
    ],
    [
      "ਬੁ",
      "ੱਕ</w>"
    ],
    [
      "ਪਦਾਰ",
      "ਥ</w>"
    ],
    [
      "ਕਰੋ",
      ",</w>"
    ],
    [
      "ਬ",
      ",</w>"
    ],
    [
      "ਏਸ਼",
      "ੀਆਈ</w>"
    ],
    [
      "ਖਾ",
      "ੜੀ</w>"
    ],
    [
      "ਫਰ",
      "ੰ"
    ],
    [
      "ਯੂਨਾ",
      "ਨੀ</w>"
    ],
    [
      "ਬਾ",
      "ਲੀਵੁੱਡ</w>"
    ],
    [
      "ਅ",
      "ਪਾ"
    ],
    [
      "ਕੈਲੰਡ",
      "ਰ</w>"
    ],
    [
      "ਮੈਕ",
      "ਸੀ"
    ],
    [
      "ਬੰ",
      "ਧੀ</w>"
    ],
    [
      "ਸੱ",
      "ਤ"
    ],
    [
      "ਬ",
      "ਲੈ"
    ],
    [
      "ਇ",
      "ਟ"
    ],
    [
      "ਰੈ",
      "ਟੀ"
    ],
    [
      "ਰੱਖ",
      "ਣਾ</w>"
    ],
    [
      "ਸ਼",
      "ਾਂਤੀ</w>"
    ],
    [
      "ਵਿਸ",
      "ਤਾਰ</w>"
    ],
    [
      "ਗੋ",
      "ਆ</w>"
    ],
    [
      "ਸੋਚ",
      "ਿਆ</w>"
    ],
    [
      "ਸਾਬ",
      "ਤ</w>"
    ],
    [
      "ਚੁੱ",
      "ਕੇ</w>"
    ],
    [
      "ਸੰਗਠ",
      "ਿਤ</w>"
    ],
    [
      "ਪ੍ਰ",
      "ਸਤਾ"
    ],
    [
      "ਡ",
      "ੱ"
    ],
    [
      "ਮ",
      "ਸ"
    ],
    [
      "ਤਾ",
      "ਕਤ</w>"
    ],
    [
      "ਉ",
      "ਣੀ</w>"
    ],
    [
      "3",
      "5</w>"
    ],
    [
      "ਸਟ",
      "ੈਂ"
    ],
    [
      "ਂ",
      "ਗ"
    ],
    [
      "ਦੇ",
      "ਰੀ</w>"
    ],
    [
      "ਸੀ",
      "ਨ</w>"
    ],
    [
      "ਦਮ",
      "ੇ</w>"
    ],
    [
      "ਡ",
      "ਬਲਿ"
    ],
    [
      "ਬਣਾ",
      "ਓ</w>"
    ],
    [
      "ਪੁਰ",
      "ਤ"
    ],
    [
      "ਪੁਰਤ",
      "ਗਾ"
    ],
    [
      "ਇੰਡੋ",
      "-"
    ],
    [
      "ਸ਼ਬਦ",
      "ਾਂ</w>"
    ],
    [
      "ਲ",
      "ੁੱ"
    ],
    [
      "ਗ੍ਰਿਫ",
      "ਤਾਰ</w>"
    ],
    [
      "ਦਿੱ",
      "ਤੇ।</w>"
    ],
    [
      "ਦ",
      "ਮਾ</w>"
    ],
    [
      "ਸ਼",
      "ਿਲ"
    ],
    [
      "ਦਰਸਾ",
      "ਉਂਦੇ</w>"
    ],
    [
      "ਡੂੰ",
      "ਘ"
    ],
    [
      "ਨਿ",
      "ਕਾਂ</w>"
    ],
    [
      "ਮਾਰ",
      "ਕ</w>"
    ],
    [
      "ਕਮ",
      "ਰੇ</w>"
    ],
    [
      "ਦੇ",
      "ਣਾ</w>"
    ],
    [
      "ਕ",
      "ਵਿ"
    ],
    [
      "ਘੱਟ",
      "ੋ</w>"
    ],
    [
      "ਆਯੋ",
      "ਜਨ</w>"
    ],
    [
      "ਸਵਾ",
      "ਲ</w>"
    ],
    [
      "ਖਾ",
      "ਣਾ</w>"
    ],
    [
      "ਲ",
      "ੀਆ</w>"
    ],
    [
      "ਜ਼ਖ",
      "ਮੀ</w>"
    ],
    [
      "ਡਿਵੀ",
      "ਜ਼ਨ</w>"
    ],
    [
      "ਆ",
      "ਰ</w>"
    ],
    [
      "ਰੂ",
      "ਸ</w>"
    ],
    [
      "ਐੱ",
      "ਨ</w>"
    ],
    [
      "ਅ",
      "ਖ਼"
    ],
    [
      "ਕਲਾ",
      "ਕਾਰਾਂ</w>"
    ],
    [
      "ਤੰ",
      "ਤਰ"
    ],
    [
      "ਪ",
      "ੱਖ"
    ],
    [
      "ਨੇ",
      "ਤਾ</w>"
    ],
    [
      "ਮ",
      "ਸ਼ੀ"
    ],
    [
      "ਈ",
      "ਸਟ</w>"
    ],
    [
      "ਬਿ",
      "ਹਾਰ</w>"
    ],
    [
      "ਟ",
      "ਕਰਾ"
    ],
    [
      "ਚਾਰ",
      "ਜ</w>"
    ],
    [
      "ਪਰੰਪ",
      "ਰਾਵਾਂ</w>"
    ],
    [
      "ਅੰ",
      "ਤਰ</w>"
    ],
    [
      "ਇੰਟਰ",
      "ਨੈਸ਼ਨਲ</w>"
    ],
    [
      "ਮ",
      "ਫੇਅਰ</w>"
    ],
    [
      "ਬੰਗਾ",
      "ਲੀ</w>"
    ],
    [
      "ਹੈ",
      "ਦਰ</w>"
    ],
    [
      "ਸਕ",
      "ੇ</w>"
    ],
    [
      "ਬ",
      "ੂ</w>"
    ],
    [
      "ਸ",
      "ਲਾਂ</w>"
    ],
    [
      "ਕ",
      "ਲਿ"
    ],
    [
      "ਤਰ",
      "ਜੀ"
    ],
    [
      "ਪ੍ਰਭਾ",
      "ਵਾਂ</w>"
    ],
    [
      "ਜੋੜ",
      "ਿਆ</w>"
    ],
    [
      "ਨਿ",
      "ਕਲ</w>"
    ],
    [
      "ਕਿ",
      "ਹ"
    ],
    [
      "ਐੱਚ",
      ".</w>"
    ],
    [
      "ਰੇ",
      "ਡੀਓ</w>"
    ],
    [
      "ਐੱਚ",
      "."
    ],
    [
      "ਡੈਲ",
      "ਟਾ</w>"
    ],
    [
      "ਪ੍ਰੋ",
      "ਟੀਨ</w>"
    ],
    [
      "ਓ",
      "ਵਰ"
    ],
    [
      "ਖ",
      "ਤ</w>"
    ],
    [
      "ਅ",
      "ਪੀ"
    ],
    [
      "ਕ",
      "ਤ"
    ],
    [
      "ਅ",
      "ਸਥਾਈ</w>"
    ],
    [
      "ਗ",
      "ਲਤ</w>"
    ],
    [
      "ਸੰ",
      "ਘ</w>"
    ],
    [
      "ਅਹਿ",
      "ਸਾਸ</w>"
    ],
    [
      "ਸੱ",
      "ਜੇ</w>"
    ],
    [
      "ਕੇਂਦ੍ਰ",
      "ਿਤ</w>"
    ],
    [
      "ਯਾ",
      "ਦ"
    ],
    [
      "ਕਰ",
      "ਦਿਆਂ</w>"
    ],
    [
      "ਖ਼ਰਚ",
      "ਿਆਂ</w>"
    ],
    [
      "ਯਾ",
      "ਤਰੀ</w>"
    ],
    [
      "ਲ",
      "ਦੇ</w>"
    ],
    [
      "18",
      "5"
    ],
    [
      "ਕਿ",
      "ਸ</w>"
    ],
    [
      "ਟਰ",
      ",</w>"
    ],
    [
      "ਪ੍ਰਸਿੱ",
      "ਧੀ</w>"
    ],
    [
      "ਮਾ",
      "ਨੇ</w>"
    ],
    [
      "ਟਾਪੂ",
      "ਆਂ</w>"
    ],
    [
      "ਲਾਈ",
      "ਟ</w>"
    ],
    [
      "ਮਣੀ",
      "ਪੁਰ</w>"
    ],
    [
      "ਛਾ",
      "ਤੀ</w>"
    ],
    [
      "ਨ",
      "ਮੂ"
    ],
    [
      "ਸਾ",
      "ਫਟਵੇਅਰ</w>"
    ],
    [
      "ਨ",
      "੍"
    ],
    [
      "ਉਪਭੋਗ",
      "ਤਾ</w>"
    ],
    [
      "ਸ਼ਕਤੀ",
      "ਸ਼ਾਲੀ</w>"
    ],
    [
      "ਪ",
      "ਨਾ"
    ],
    [
      "ਅਜਿ",
      "ਹੀਆਂ</w>"
    ],
    [
      "ਹੈ",
      "ਦਰਾ"
    ],
    [
      "ਦੁ",
      "ਸ਼ਮ"
    ],
    [
      "ਲਿਆ",
      "ਂ"
    ],
    [
      "ਕਾਰ",
      "ਵਾਈ</w>"
    ],
    [
      "ਸੁੰ",
      "ਦਰ</w>"
    ],
    [
      "ਛ",
      "</w>"
    ],
    [
      "ਅਕੈਡ",
      "ਮੀ</w>"
    ],
    [
      "ਨੈ",
      "</w>"
    ],
    [
      "ਮੰਗ",
      "ਲ"
    ],
    [
      "ਭੀ",
      "ੜ</w>"
    ],
    [
      "ਕਰ",
      "ਾ</w>"
    ],
    [
      "ਫੌ",
      "ਜੀ</w>"
    ],
    [
      "ਟਿ",
      "ਕਸ</w>"
    ],
    [
      "ਪਾ",
      "ਤ</w>"
    ],
    [
      "ਗ੍ਰਾਹ",
      "ਕਾਂ</w>"
    ],
    [
      "ਲੇਸ਼",
      "ਣ</w>"
    ],
    [
      "ਕ",
      "ਮਿਊਨਿ"
    ],
    [
      "ਡੇ",
      "ਟਾ</w>"
    ],
    [
      "ਹੋ",
      "ਟਲ</w>"
    ],
    [
      "ੰਗ",
      "ਟਨ</w>"
    ],
    [
      "ਟ",
      "ਨ,</w>"
    ],
    [
      "ੂੰ",
      "</w>"
    ],
    [
      "ਇਕੱਠ",
      "ਾ</w>"
    ],
    [
      "ਚ",
      "ੜ੍ਹ"
    ],
    [
      "ਉਲ",
      "ਟ,</w>"
    ],
    [
      "ਫਰਾਂ",
      "ਸੀਸੀ</w>"
    ],
    [
      "ਬਚਾ",
      "ਉਣ</w>"
    ],
    [
      "ਵ",
      "ਸਨ"
    ],
    [
      "ਸਿ",
      "ਫਾਰ"
    ],
    [
      "ਵ",
      "ਨ"
    ],
    [
      "ਜ਼",
      "ੋਰ</w>"
    ],
    [
      "ਯੂਨੀਵਰ",
      "ਸਿ"
    ],
    [
      "ਸੰਵੇਦ",
      "ਨਸ਼ੀ"
    ],
    [
      "4",
      "5</w>"
    ],
    [
      "ਕੀ",
      "ਅਤ</w>"
    ],
    [
      "ਸਰਜ",
      "ਰੀ</w>"
    ],
    [
      "ਹੈ",
      "।\"</w>"
    ],
    [
      "ਸਪੋਰ",
      "ਟਸ</w>"
    ],
    [
      "ਦੱਖਣ-",
      "ਪੂਰਬੀ</w>"
    ],
    [
      "ਐ",
      "ਤ"
    ],
    [
      "ਸਟੋਰ",
      "ਾਂ</w>"
    ],
    [
      "ਦੁਕਾ",
      "ਨਾਂ</w>"
    ],
    [
      "ਸਟ੍",
      "ਰੀ"
    ],
    [
      "ਫੈਸ",
      "ਲੇ</w>"
    ],
    [
      "ਸਹਿ",
      "ਮਤ</w>"
    ],
    [
      "ਡਾ",
      "ਇਰ"
    ],
    [
      "ਕੇਂਦ",
      "ਰਿਤ</w>"
    ],
    [
      "ਦਿ",
      "ਨ,</w>"
    ],
    [
      "ਰਾ",
      "ਣੀ</w>"
    ],
    [
      "ਵਿਦਿਆਰ",
      "ਥੀਆਂ</w>"
    ],
    [
      "ਟ",
      "ਸ"
    ],
    [
      "ਭੈ",
      "ਣ</w>"
    ],
    [
      "ਹਰਾ",
      "ਇਆ।</w>"
    ],
    [
      "ਰਚ",
      "ਨਾਵਾਂ</w>"
    ],
    [
      "ਜਾ",
      "ਇਆ</w>"
    ],
    [
      "ਅਭਿ",
      "ਨੈ</w>"
    ],
    [
      "ਲਾਈ",
      "ਨਾਂ</w>"
    ],
    [
      "ਰ",
      "ਿਆ</w>"
    ],
    [
      "ਫੋਰ",
      "ਡ</w>"
    ],
    [
      "ਰਾ",
      "ਸ਼"
    ],
    [
      "ਗਾ",
      "ਵ"
    ],
    [
      "ਕਰਮ",
      "ਚਾਰ"
    ],
    [
      "ਨ",
      "ਿਆ</w>"
    ],
    [
      "ਪ੍ਰੋ",
      "ਫੈ"
    ],
    [
      "ਪੇ",
      "ਟ</w>"
    ],
    [
      "ਤਣਾ",
      "ਅ</w>"
    ],
    [
      "ਊਂ",
      "ਡ</w>"
    ],
    [
      "ਕੀ",
      "ਪਰ</w>"
    ],
    [
      "ਸਕ",
      "ਦਾ।</w>"
    ],
    [
      "ਨ",
      "ਕਾਰਾ"
    ],
    [
      "ਖੁੱ",
      "ਲ੍ਹ"
    ],
    [
      "ਗਰ",
      "ਮੀ</w>"
    ],
    [
      "ਮੇਘਾ",
      "ਲਿਆ</w>"
    ],
    [
      "ਉੱਤਰ-",
      "ਪੂਰਬੀ</w>"
    ],
    [
      "ਐੱਲ",
      "."
    ],
    [
      "ਇੰ",
      "ਸਟਾ"
    ],
    [
      "ਤੰਤਰ",
      "ਵਾਦੀ</w>"
    ],
    [
      "ਡਿ",
      "ਜੀ"
    ],
    [
      "ਗ",
      "ਏ,</w>"
    ],
    [
      "ਅਰ",
      "ਥ"
    ],
    [
      "ਘ",
      "ਟਾ</w>"
    ],
    [
      "ਸ਼ਿ",
      "ਕਾਇ"
    ],
    [
      "ਫ",
      "ਰ</w>"
    ],
    [
      "ਸੰ",
      "ਖੇ"
    ],
    [
      "ਪੇਂ",
      "ਡੂ</w>"
    ],
    [
      "ਹ",
      "ਟਾ</w>"
    ],
    [
      "ਥ",
      "ੇ"
    ],
    [
      "ਰਿਹਾ",
      "ਇ"
    ],
    [
      "ਸੱ",
      "ਟਾਂ</w>"
    ],
    [
      "ਸੰ",
      "ਬੰਧ"
    ],
    [
      "ਸਟਾ",
      "ਈ"
    ],
    [
      "ਮਿਲ",
      "ੇ</w>"
    ],
    [
      "ਬ",
      "ਨ"
    ],
    [
      "ਸ਼",
      "ਾਂਤ</w>"
    ],
    [
      "ਫ",
      "ੈਂ"
    ],
    [
      "ਚ",
      "ਿਆਂ</w>"
    ],
    [
      "ਮਲ",
      "ਕੀਅਤ</w>"
    ],
    [
      "ਵ",
      "ਸਤਾਂ</w>"
    ],
    [
      "ਸ਼ਾ",
      "ਮਿਲ</w>"
    ],
    [
      "ਸੰ",
      "ਖਿਆ</w>"
    ],
    [
      "ਬਣ",
      "ਦਾ</w>"
    ],
    [
      "ਸੈ",
      "ਰ-"
    ],
    [
      "ਸੈਰ-",
      "ਸਪਾ"
    ],
    [
      "ਲੈ",
      "ਕਰੋ"
    ],
    [
      "ਕ",
      "ਤਲ</w>"
    ],
    [
      "ਚੋ",
      "ਰੀ</w>"
    ],
    [
      "ਨਿਰ",
      "ੰਤਰ</w>"
    ],
    [
      "ਨਾਗ",
      "ਰਿਕ</w>"
    ],
    [
      "ਪਿ",
      "ੰਡਾਂ</w>"
    ],
    [
      "ਸਤਾ",
      "ਨੀ</w>"
    ],
    [
      "ਧਰ",
      "ਤੀ</w>"
    ],
    [
      "ਕ",
      "ਥਾ</w>"
    ],
    [
      "ਵਿ",
      "ਲੀ"
    ],
    [
      "ਸੈਂ",
      "ਕੜੇ</w>"
    ],
    [
      "ਮਿਲ",
      "ੇ"
    ],
    [
      "ਰੋ",
      "ਜ਼</w>"
    ],
    [
      "ਕੋ",
      "ਚ</w>"
    ],
    [
      "ਬਣਾ",
      "ਈਆਂ</w>"
    ],
    [
      "ਬਰ",
      "ਫ਼</w>"
    ],
    [
      "ਜ",
      "ੁਰ"
    ],
    [
      "ਸਿੰ",
      "ਚਾਈ</w>"
    ],
    [
      "ਹੌ",
      "ਲੀ-"
    ],
    [
      "ਕਿ",
      "ਰਾਏ</w>"
    ],
    [
      "ਸ",
      "ਤਾ</w>"
    ],
    [
      "ਕਰਨ",
      "ਗੇ।</w>"
    ],
    [
      "ਰ",
      "ਜੀ</w>"
    ],
    [
      "ਝ",
      "ੂ"
    ],
    [
      "ਗਾ",
      "ਰ</w>"
    ],
    [
      "ਤੁਲ",
      "ਸੀ</w>"
    ],
    [
      "ਅਨੁ",
      "ਮਾਨ</w>"
    ],
    [
      "ਨਕਾਰਾ",
      "ਤਮਕ</w>"
    ],
    [
      "ਸਾਈ",
      "ਕਲ</w>"
    ],
    [
      "ਵਾ",
      "ਯੂ</w>"
    ],
    [
      "ਨ",
      ")</w>"
    ],
    [
      "ਥੋੜ",
      "੍ਹਾ</w>"
    ],
    [
      "ਫੇਫ",
      "ੜਿਆਂ</w>"
    ],
    [
      "ਮ",
      "ੂ</w>"
    ],
    [
      "ਘੋ",
      "ਸ਼"
    ],
    [
      "ਵਕੀ",
      "ਲ</w>"
    ],
    [
      "ਤਰ",
      "ਤਾ</w>"
    ],
    [
      "ਨ",
      "ਜਿੱ"
    ],
    [
      "ਦਰਸਾ",
      "ਉਂਦੀ</w>"
    ],
    [
      "ਮ",
      "ਜ਼ਾ"
    ],
    [
      "ਪ੍ਰਤੀ",
      "ਨਿ"
    ],
    [
      "ਸੇ",
      "ਂਟ</w>"
    ],
    [
      "ਪੁਰ",
      "ਮ</w>"
    ],
    [
      "ਵ",
      "ਨੀ</w>"
    ],
    [
      "ਕਲ",
      "ਪਨਾ</w>"
    ],
    [
      "ਸ਼ਾਸ",
      "ਤਰੀ</w>"
    ],
    [
      "ਕਿ",
      "ਤੇ</w>"
    ],
    [
      "ਮਾ",
      "ੜੇ</w>"
    ],
    [
      "ਫਿ",
      "ਕ</w>"
    ],
    [
      "ਮਿ",
      "ਜ਼ੋਰ"
    ],
    [
      "ਗੈ",
      "ਸ</w>"
    ],
    [
      "19",
      "50</w>"
    ],
    [
      "ਸੰਘਰ",
      "ਸ਼</w>"
    ],
    [
      "ਬ",
      "ਿਆਂ</w>"
    ],
    [
      "ਸ਼ਿਵਾ",
      "ਜੀ</w>"
    ],
    [
      "ਕਿਹਾ",
      ",</w>"
    ],
    [
      "ਪ੍ਰ",
      "ਾਂਤ</w>"
    ],
    [
      "ਨ",
      "ਤੀਜਾ</w>"
    ],
    [
      "ਅਗ",
      "ਲੀ</w>"
    ],
    [
      "ਇ",
      "ਰਾ"
    ],
    [
      "ਸਵੇ",
      "ਰੇ</w>"
    ],
    [
      "ਸੀ",
      "ਰੀਜ਼</w>"
    ],
    [
      "ਸਮ",
      "ਿ"
    ],
    [
      "ਪਰਿਵਾਰ",
      "ਕ</w>"
    ],
    [
      "199",
      "6</w>"
    ],
    [
      "ਤਰ",
      "ਨਾਕ</w>"
    ],
    [
      "ਮਰੀ",
      "ਜ਼ਾਂ</w>"
    ],
    [
      "ਬਿ",
      "ਨ</w>"
    ],
    [
      "ਪਾ",
      "ਉਣ</w>"
    ],
    [
      "ਨਿਗਰਾ",
      "ਨੀ</w>"
    ],
    [
      "ਸ",
      "ੂ</w>"
    ],
    [
      "ਹਿ",
      "ਰ</w>"
    ],
    [
      "ਪ",
      "ਲੀ"
    ],
    [
      "ਬੈ",
      "ਲ"
    ],
    [
      "ਮੁ",
      "ਫ਼ਤ</w>"
    ],
    [
      "ਮਿਜ਼ੋਰ",
      "ਮ</w>"
    ],
    [
      "ਵ",
      "ੈਕ"
    ],
    [
      "ਮਾਰਕੀ",
      "ਟ</w>"
    ],
    [
      "ਲੈਕਰੋ",
      "ਸ</w>"
    ],
    [
      "ਦ੍ਰਿ",
      "ਸ਼"
    ],
    [
      "ਮ",
      "੍ਰਿ"
    ],
    [
      "ਭੇਜ",
      "ਿਆ</w>"
    ],
    [
      "ਹੀ",
      ",</w>"
    ],
    [
      "ਉਮੀ",
      "ਦ"
    ],
    [
      "ਸੰਖੇ",
      "ਪ</w>"
    ],
    [
      "ਪਰੇਸ਼ਾ",
      "ਨ</w>"
    ],
    [
      "ਬਿ",
      "ਰ"
    ],
    [
      "ਮੌਜੂ",
      "ਦਗੀ</w>"
    ],
    [
      "ਸਲ",
      "ਤਨ"
    ],
    [
      "ਖਿ",
      "ਤਾਬ</w>"
    ],
    [
      "ਕਿ",
      "ਲ</w>"
    ],
    [
      "ਸ਼ੀ",
      "ਅਨ</w>"
    ],
    [
      "ਪਾ",
      "ਈ</w>"
    ],
    [
      "ਗਿ",
      "ਰੀ</w>"
    ],
    [
      "ਹਿੰਦੂ",
      "ਆਂ</w>"
    ],
    [
      "ਸਟ",
      "ਨ</w>"
    ],
    [
      "ਲੈਂ",
      "ਡ,</w>"
    ],
    [
      "ਘੁੰ",
      "ਮ"
    ],
    [
      "ਐਤ",
      "ਵਾਰ</w>"
    ],
    [
      "ਊ",
      "ਲ</w>"
    ],
    [
      "ਡਿਜੀ",
      "ਟਲ</w>"
    ],
    [
      "ਸਿ",
      "ਫਿਲਿ"
    ],
    [
      "ਜਨ",
      "ਤਾ</w>"
    ],
    [
      "ਆਲੋਚ",
      "ਨਾ</w>"
    ],
    [
      "ਮਿਲ",
      "ੀ।</w>"
    ],
    [
      "ਸੰ",
      "ਪਾ"
    ],
    [
      "ਟ",
      "ੂਰ</w>"
    ],
    [
      "ਸ਼ਰ",
      "ਧਾ"
    ],
    [
      "ਵਧ",
      "ਾ</w>"
    ],
    [
      "ਮੁ",
      "ਆ"
    ],
    [
      "199",
      "2</w>"
    ],
    [
      "ਵਰ",
      "ਲਡ</w>"
    ],
    [
      "ਦਰ",
      "ਿਆ</w>"
    ],
    [
      "ਨਾ",
      "ਇਕ</w>"
    ],
    [
      "ਦਾ",
      "ਨੀ</w>"
    ],
    [
      "ਖ਼ਰੀ",
      "ਦ</w>"
    ],
    [
      "ਅੱ",
      "ਧੇ</w>"
    ],
    [
      "ਵੇ",
      "ਟ</w>"
    ],
    [
      "ਚੱਟਾ",
      "ਨਾਂ</w>"
    ],
    [
      "3",
      "."
    ],
    [
      "ਵਿ",
      "ਗਾ"
    ],
    [
      "ਟ",
      "-"
    ],
    [
      "ਫ਼",
      "ੌ"
    ],
    [
      "ਮੈ",
      "ਸੂਰ</w>"
    ],
    [
      "ਸ਼ਿ",
      "ਵ"
    ],
    [
      "ਹੱਤ",
      "ਿਆ</w>"
    ],
    [
      "ਡਾਇਰ",
      "ੈਕ"
    ],
    [
      "ਸਕ",
      "ਾਰਾਂ</w>"
    ],
    [
      "ਊ",
      "ਰ"
    ],
    [
      "ਗੁੰ",
      "ਝਲ"
    ],
    [
      "ਸੈ",
      "ਨਿਕਾਂ</w>"
    ],
    [
      "ਸਿਫਾਰ",
      "ਸ਼</w>"
    ],
    [
      "ਵਾਪ",
      "ਸੀ</w>"
    ],
    [
      "ਦਰ",
      ",</w>"
    ],
    [
      "ਕੈ",
      "ਮ"
    ],
    [
      "ਕਾਰ",
      "ਪੋਰ"
    ],
    [
      "ਢ",
      "</w>"
    ],
    [
      "ਹਾ",
      "ਦ"
    ],
    [
      "ਨਿ",
      "ੰ"
    ],
    [
      "ਉੱਚ",
      "ੇ</w>"
    ],
    [
      "ਯੂਨੀ",
      "ਅਨ</w>"
    ],
    [
      "ਲ",
      "ਰ"
    ],
    [
      "ਰੇਂ",
      "ਜ</w>"
    ],
    [
      "3",
      "00</w>"
    ],
    [
      "ਣ",
      "ਕ</w>"
    ],
    [
      "ਹੱ",
      "ਥਾਂ</w>"
    ],
    [
      "ਈ",
      "ਸਟਰ</w>"
    ],
    [
      "ਕਿਸ਼",
      "ਤੀ</w>"
    ],
    [
      "ਪਤ",
      "ੰਗ</w>"
    ],
    [
      "ਸ਼",
      "ਨੀ"
    ],
    [
      "ਕ",
      "ਸੀ"
    ],
    [
      "ਕੋਰ",
      "ੀਆ</w>"
    ],
    [
      "ਨਵ",
      "ੀਆਂ</w>"
    ],
    [
      "ਉਸ",
      "ਦਾ</w>"
    ],
    [
      "ਵਿੱਚ",
      "।</w>"
    ],
    [
      "ਆਲੋਚ",
      "ਕਾਂ</w>"
    ],
    [
      "ਛੁੱ",
      "ਟੀਆਂ</w>"
    ],
    [
      "ਮਨਾ",
      "ਉਂਦੇ</w>"
    ],
    [
      "ਚੌ",
      "ਥੇ</w>"
    ],
    [
      "ਪ੍ਰਗ",
      "ਟਾ"
    ],
    [
      "ਖੁੱ",
      "ਲ"
    ],
    [
      "ਦਰ",
      "ਜਾ</w>"
    ],
    [
      "ਚੁਣ",
      "ੌ"
    ],
    [
      "ਪ੍ਰੀ",
      "ਮੀ"
    ],
    [
      "ਦਿ",
      "ਵਾ"
    ],
    [
      "ਸ",
      "ਕ੍ਰਿਪ"
    ],
    [
      "ਬ੍ਰਹ",
      "ਮ"
    ],
    [
      "ਖੇ",
      "ਡੇ</w>"
    ],
    [
      "ਟ",
      "ੋਰ"
    ],
    [
      "ਤੇ",
      "ਲ"
    ],
    [
      "ਤੇਲ",
      "ੰਗਾ"
    ],
    [
      "ਵੱਖ",
      "ਰੀ</w>"
    ],
    [
      "ਟੈਕ",
      "ਸਾਸ</w>"
    ],
    [
      "ਣ",
      "ਿ"
    ],
    [
      "ਵਿਕਰੇ",
      "ਤਾ</w>"
    ],
    [
      "ਗਾ",
      "ਇਆ</w>"
    ],
    [
      "ਜਿ",
      "ੰਗ</w>"
    ],
    [
      "ਸੈਲ",
      "ਸੀਅਸ</w>"
    ],
    [
      "ਓ",
      "ਕਲਾ"
    ],
    [
      "ਓਕਲਾ",
      "ਹੋ"
    ],
    [
      "ਐ",
      "ਪਲ</w>"
    ],
    [
      "ਉ",
      "ਰ"
    ],
    [
      "ਐ",
      "ਕਟ</w>"
    ],
    [
      "ਉ",
      "ਠਾ"
    ],
    [
      "ਨ",
      "ਜ਼ਰ"
    ],
    [
      "ਕਬੀ",
      "ਲੇ</w>"
    ],
    [
      "ਹਿ",
      "ਰਾ"
    ],
    [
      "ਸ੍ਰ",
      "ੀ"
    ],
    [
      "ਧ",
      "ੀ"
    ],
    [
      "ਹੱ",
      "ਡੀ</w>"
    ],
    [
      "ਤਬਾ",
      "ਹ</w>"
    ],
    [
      "ਹੌਲੀ-",
      "ਹੌਲੀ</w>"
    ],
    [
      "ਜਾਣ",
      "ਦੇ</w>"
    ],
    [
      "ਇਮਾਰ",
      "ਤ</w>"
    ],
    [
      "ਗਰ",
      "ਭ"
    ],
    [
      "ਚਰਚ",
      "ਾ</w>"
    ],
    [
      "ਰੇਲ",
      "ੀਆਈ</w>"
    ],
    [
      "ਖ਼ਾ",
      "ਸਕਰ</w>"
    ],
    [
      "ਭੀ",
      "ਮ</w>"
    ],
    [
      "ਚੈਂਪੀ",
      "ਅਨ</w>"
    ],
    [
      "7",
      "5</w>"
    ],
    [
      "ਕਿਰ",
      "ਦਾਰ</w>"
    ],
    [
      "ਚਾ",
      "ਇ"
    ],
    [
      "ਗ",
      "ੀ,</w>"
    ],
    [
      "ਸਲਾ",
      "ਨਾ</w>"
    ],
    [
      "ਰੋ",
      "ਡ</w>"
    ],
    [
      "ਹ",
      "ਵਾਵਾਂ</w>"
    ],
    [
      "ਨਿਊ",
      "ਰੋ"
    ],
    [
      "ਟਰ",
      "ਨਰ</w>"
    ],
    [
      "ਘੋਸ਼",
      "ਣਾ</w>"
    ],
    [
      "ਰ",
      "ਿਆ"
    ],
    [
      "ਰਾਜਨੀ",
      "ਤਿਕ</w>"
    ],
    [
      "ਕਾਰਜ",
      "ਕਾਰੀ</w>"
    ],
    [
      "ਬ੍ਰਿ",
      "ਟੇਨ</w>"
    ],
    [
      "ਏ",
      "ਟ</w>"
    ],
    [
      "ਜੋੜ",
      "ਨ</w>"
    ],
    [
      "ਲਾਈ",
      "ਵ</w>"
    ],
    [
      "ਉਲ",
      "ਟ</w>"
    ],
    [
      "ਪਿ",
      "ੰ"
    ],
    [
      "ਪੂ",
      ".</w>"
    ],
    [
      "ਗੁੰਝਲ",
      "ਦਾਰ</w>"
    ],
    [
      "ਲੱਗ",
      "ਣ</w>"
    ],
    [
      "ਸੰਚਾ",
      "ਲਨ</w>"
    ],
    [
      "ਾਂ",
      "ਸੀ</w>"
    ],
    [
      "ਕਰਮਚਾਰ",
      "ੀਆਂ</w>"
    ],
    [
      "ਗ",
      "ਰੀ"
    ],
    [
      "ਮਾਨ",
      "ਸਿਕ</w>"
    ],
    [
      "ਮਰ",
      "ਦ</w>"
    ],
    [
      "ਲਾ",
      "ੜੀ</w>"
    ],
    [
      "ਗਿ",
      "ਰਾ"
    ],
    [
      "ਵ",
      "ੈਂਟ</w>"
    ],
    [
      "ਖੱ",
      "ਬੇ</w>"
    ],
    [
      "ਉਪ",
      "ਕਰਣ</w>"
    ],
    [
      "ਸੰਗੀਤ",
      "ਕਾਰ</w>"
    ],
    [
      "3",
      ","
    ],
    [
      "ਟ",
      "ਲੈਂਡ</w>"
    ],
    [
      "ਰੋ",
      "ਧ"
    ],
    [
      "ਪਲੇ",
      "ਟ"
    ],
    [
      "ਰਾਸ਼",
      "ਟਰ</w>"
    ],
    [
      "ਸ਼ਾ",
      "ਮ</w>"
    ],
    [
      "ਨਜਿੱ",
      "ਠ"
    ],
    [
      "ਨਾ",
      "ਂ,</w>"
    ],
    [
      "ਹਮਲਾ",
      "ਵਰ</w>"
    ],
    [
      "ਗੁਆਂਢ",
      "ੀ</w>"
    ],
    [
      "ਵਿ",
      "ਊ</w>"
    ],
    [
      "ਆ",
      "ਇਆ।</w>"
    ],
    [
      "ਗੀ",
      "ਤਾਂ</w>"
    ],
    [
      "ਦ",
      "ਸਤ"
    ],
    [
      "ਲਿ",
      "ਖੀ</w>"
    ],
    [
      "ਹਿੰ",
      "ਸਾ</w>"
    ],
    [
      "ਸੰ",
      "ਗ੍ਰਹਿ</w>"
    ],
    [
      "ਕਾਰ",
      "ਕ</w>"
    ],
    [
      "ਨ",
      "'</w>"
    ],
    [
      "ਹਲ",
      "ਕੇ</w>"
    ],
    [
      "ਲੂ",
      "ਆਂ</w>"
    ],
    [
      "ਚਿੰ",
      "ਤ"
    ],
    [
      "ਕੈ",
      "ਰੀਅਰ</w>"
    ],
    [
      "ਠ",
      "ਾ</w>"
    ],
    [
      "ਨ",
      "ਵੀ"
    ],
    [
      "ਡ",
      "ੈਂ"
    ],
    [
      "ਸਾਂਝ",
      "ਾ</w>"
    ],
    [
      "ਦ",
      "ੁੱਧ</w>"
    ],
    [
      "ਵਿ",
      "ਨ</w>"
    ],
    [
      "ਸੰ",
      "ਬੰਧੀ</w>"
    ],
    [
      "ਅ",
      "ਸਾਨ</w>"
    ],
    [
      "ਨਾ",
      "ਗਾ"
    ],
    [
      "ਵਾ",
      "ਹਨ</w>"
    ],
    [
      "ਟੀ",
      "ਕਾ"
    ],
    [
      "ਸਕ",
      "ੱ"
    ],
    [
      "ਟ੍",
      "ਰਿ"
    ],
    [
      "ਉ",
      "ਪਾ"
    ],
    [
      "ਦਾ",
      "ਸ</w>"
    ],
    [
      "ਦਿੱ",
      "ਤੀਆਂ</w>"
    ],
    [
      "ਬ",
      "ਸਤੀ"
    ],
    [
      "ਦੱਸ",
      "ਦਾ</w>"
    ],
    [
      "ਚੰ",
      "ਦਰ</w>"
    ],
    [
      "ਲਿਖ",
      "ਣ</w>"
    ],
    [
      "ਥੋ",
      "ੜ੍ਹੀ</w>"
    ],
    [
      "ਚੰ",
      "ਡੀ"
    ],
    [
      "ਕੰਨ",
      "ੜ</w>"
    ],
    [
      "ਬਾਵਜੂ",
      "ਦ</w>"
    ],
    [
      "ਸਿਧ",
      "ਾਂਤ</w>"
    ],
    [
      "ਕਾਰ",
      "ਾ</w>"
    ],
    [
      "ਹੁ",
      "ਨਰ</w>"
    ],
    [
      "ਜਾਵੇ",
      "ਗੀ।</w>"
    ],
    [
      "ਅ",
      "ਕ</w>"
    ],
    [
      "ਉਦ",
      "ਯੋ"
    ],
    [
      "ਕਾ",
      "ਪ"
    ],
    [
      "ਪ੍ਰਣਾ",
      "ਲੀਆਂ</w>"
    ],
    [
      "ਸਟ",
      "ਾਰ"
    ],
    [
      "ਤੇਲੰਗਾ",
      "ਨਾ</w>"
    ],
    [
      "ਪ੍ਰਾਇ",
      "ਮਰੀ</w>"
    ],
    [
      "ਖ",
      "ਰਚ"
    ],
    [
      "ਕਲਾ",
      "ਸੀ"
    ],
    [
      "ਖ਼",
      "ਤਰਾ</w>"
    ],
    [
      "20",
      "ਵੀਂ</w>"
    ],
    [
      "ਸ",
      "ਧਾਰਨ</w>"
    ],
    [
      "ਕ",
      "ਬੱ"
    ],
    [
      "ਲੋ",
      "ਡ</w>"
    ],
    [
      "ੀਆ",
      "ਰ</w>"
    ],
    [
      "ਮਿ",
      "ਰ"
    ],
    [
      "ਮੁਸਲ",
      "ਮਾਨਾਂ</w>"
    ],
    [
      "ਕਾਰਜ",
      "ਕਾਲ</w>"
    ],
    [
      "ਜਾਇ",
      "ਦਾਦ</w>"
    ],
    [
      "ਅਪੀ",
      "ਲ</w>"
    ],
    [
      "ਵਿ",
      "ਆਂ</w>"
    ],
    [
      "ਸਮੇ",
      "ਂ,</w>"
    ],
    [
      "ਅਵ",
      "ਸਥਾ</w>"
    ],
    [
      "ਮ",
      "ਨੀ"
    ],
    [
      "ਚ",
      "ਲੀ</w>"
    ],
    [
      "ਮਲਿਆ",
      "ਲਮ</w>"
    ],
    [
      "ਬ੍",
      "ਰੈ"
    ],
    [
      "ਧ",
      "ੂ"
    ],
    [
      "ਪ",
      "ੇ</w>"
    ],
    [
      "ਗੁ",
      "ਣਾ</w>"
    ],
    [
      "ਸੂ",
      "ਚਿਤ</w>"
    ],
    [
      "ਨੌ",
      "ਰ"
    ],
    [
      "ਪ",
      "ਠ"
    ],
    [
      "ਤਾ",
      "ਜ਼ਾ</w>"
    ],
    [
      "ਰਾਸ਼",
      "ਟਰੀ</w>"
    ],
    [
      "ਹੋ",
      "ਵੇ</w>"
    ],
    [
      "ਪਾ",
      "ਵਰ</w>"
    ],
    [
      "ਇਮਾਰ",
      "ਤਾਂ</w>"
    ],
    [
      "ਕਿੰ",
      "ਨੀ</w>"
    ],
    [
      "ਸੋ",
      "ਨੇ</w>"
    ],
    [
      "ਸੱ",
      "ਦਾ</w>"
    ],
    [
      "ਉੱਤਰਾ",
      "ਧਿ"
    ],
    [
      "ਸ਼",
      "ੌ"
    ],
    [
      "ਅ",
      "ਮੀ"
    ],
    [
      "ਵਿਦਰੋ",
      "ਹ</w>"
    ],
    [
      "ਹੈਦਰਾ",
      "ਬਾਦ</w>"
    ],
    [
      "ਗ",
      "ੜ"
    ],
    [
      "ਹਾ",
      "ਥੀ</w>"
    ],
    [
      "ਦੇਵ",
      "ਤਿਆਂ</w>"
    ],
    [
      "ਖੇ",
      "ਤੀ</w>"
    ],
    [
      "ਦੁ",
      "ਪਹਿ"
    ],
    [
      "5",
      "0"
    ],
    [
      "ਚਿੰਤ",
      "ਤ</w>"
    ],
    [
      "ਵੈ",
      "ਸਟ</w>"
    ],
    [
      "ਖ਼",
      "ਿ"
    ],
    [
      "ਭਰ",
      "ਿਆ</w>"
    ],
    [
      "ਗਾਵ",
      "ਸਕਰ</w>"
    ],
    [
      "ਨੀ",
      "ਲ</w>"
    ],
    [
      "ਸਟ",
      "ਾਂ</w>"
    ],
    [
      "ਪੋ",
      "ਸਟ</w>"
    ],
    [
      "ਸਾ",
      "ਨੀ</w>"
    ],
    [
      "ਤਕਨੀ",
      "ਕਾਂ</w>"
    ],
    [
      "ਗਿਰਾ",
      "ਵਟ</w>"
    ],
    [
      "ਬ",
      "ਰੀ</w>"
    ],
    [
      "ਕਲਾਸੀ",
      "ਕਲ</w>"
    ],
    [
      "ਗ",
      "ਜ਼</w>"
    ],
    [
      "ਬ",
      "ਸੰਤ</w>"
    ],
    [
      "ਐੱਫ",
      "."
    ],
    [
      "ਜਲ",
      "ਵਾਯੂ</w>"
    ],
    [
      "ਬੈਲ",
      "ਜੀ"
    ],
    [
      "ਪੀ",
      "ਡੀਆ</w>"
    ],
    [
      "ਸਿਫਿਲਿ",
      "ਸ</w>"
    ],
    [
      "ਨੀ",
      "ਤੀਆਂ</w>"
    ],
    [
      "ਨਿਊ",
      "ਜ਼ੀ"
    ],
    [
      "ਅਫ",
      "ਰੀਕਾ</w>"
    ],
    [
      "ਪਾਂਡ",
      "ਿਆ</w>"
    ],
    [
      "ਟ",
      "ਰਾਂ"
    ],
    [
      "ਦੁਪਹਿ",
      "ਰ</w>"
    ],
    [
      "ਐ",
      "ਮਰ"
    ],
    [
      "ਡ",
      "ਸ</w>"
    ],
    [
      "ਰ",
      "ਿਲ"
    ],
    [
      "ਲਾ",
      "ਸਾ</w>"
    ],
    [
      "ਸਰ",
      "ਵੇਖਣ</w>"
    ],
    [
      "3",
      "-"
    ],
    [
      "ਪੁ",
      "ਆ"
    ],
    [
      "ਦੌ",
      "ਰੇ</w>"
    ],
    [
      "ਤੋਹਫ਼",
      "ੇ</w>"
    ],
    [
      "ਪਹਿ",
      "ਰਾ"
    ],
    [
      "ਕ੍ਰਿ",
      "ਸ਼"
    ],
    [
      "ਨਾ",
      "ਮ"
    ],
    [
      "ਕ",
      "ੇਸ਼ਨ</w>"
    ],
    [
      "ਇੰ",
      "ਜੀ"
    ],
    [
      "ਸ਼",
      "ੀਆ</w>"
    ],
    [
      "ਸ਼",
      "ਨ</w>"
    ],
    [
      "ਨੇੜ",
      "ਲੇ</w>"
    ],
    [
      "ਆਕਰ",
      "ਸ਼ਿਤ</w>"
    ],
    [
      "ਸੁ",
      "ਪ"
    ],
    [
      "ਹੋ",
      "?</w>"
    ],
    [
      "ਰੱਖ",
      "ੋ</w>"
    ],
    [
      "ਡ",
      "ੋਰ</w>"
    ],
    [
      "ਫਾਈ",
      "ਡ</w>"
    ],
    [
      "ਗ",
      "ਈਆਂ।</w>"
    ],
    [
      "ਦ੍ਰਿਸ਼",
      "ਟੀ"
    ],
    [
      "ਕੈ",
      "ਦ</w>"
    ],
    [
      "ਮੁ",
      "ਗਲਾਂ</w>"
    ],
    [
      "ਸੌ",
      "ਂ"
    ],
    [
      "ਚਲਾ",
      "ਇਆ</w>"
    ],
    [
      "ਦਿ",
      "ਸ਼ਾ</w>"
    ],
    [
      "199",
      "7</w>"
    ],
    [
      "ਪੱ",
      "ਲ"
    ],
    [
      "ਯੋਜ",
      "ਨਾ"
    ],
    [
      "ਚੇ",
      "ਤਾ"
    ],
    [
      "ਤਗ",
      "ਮਾ</w>"
    ],
    [
      "ਹਿਮਾ",
      "ਲਿਆ</w>"
    ],
    [
      "ਕਿਸ਼",
      "ੋਰ</w>"
    ],
    [
      "ਕੋ",
      "ਰ</w>"
    ],
    [
      "ਕੋ",
      "ਲੰਬ"
    ],
    [
      "ਜਾ",
      "ਤੀਆਂ</w>"
    ],
    [
      "ਪ੍ਰਾਰਥ",
      "ਨਾ</w>"
    ],
    [
      "ਫੈ",
      "ਲਿਆ</w>"
    ],
    [
      "ਸੰਗੀ",
      "ਤਕ</w>"
    ],
    [
      "ਬ੍ਰਾਂ",
      "ਡ</w>"
    ],
    [
      "ਝਰ",
      "ਨਾ</w>"
    ],
    [
      "ਅਗ",
      "ਸਤ"
    ],
    [
      "ਵਿ",
      "ੰਗ</w>"
    ],
    [
      "ਰਿ",
      "ਜ਼ਰ"
    ],
    [
      "ਨਿਊ",
      "ਜ਼</w>"
    ],
    [
      "ਰੈਸਟੋਰ",
      "ੈਂਟ</w>"
    ],
    [
      "ਅ",
      "ੱਖ</w>"
    ],
    [
      "ਜੀ",
      "."
    ],
    [
      "ਆ",
      "ਟੋ"
    ],
    [
      "ਵਿਸ",
      "ਤ੍ਰਿਤ</w>"
    ],
    [
      "ਸੁਤੰ",
      "ਤਰਤਾ</w>"
    ],
    [
      "ਰੁਕਾ",
      "ਵਟ</w>"
    ],
    [
      "ਮੁ",
      "ਲ"
    ],
    [
      "ਸ਼ਾ",
      "ਹ"
    ],
    [
      "ਵੈ",
      "ਲ"
    ],
    [
      "ਕ੍ਰ",
      "ਮਵਾਰ</w>"
    ],
    [
      "ਹ",
      "ਵਾਲਾ</w>"
    ],
    [
      "ਸ਼",
      "ਾਰ"
    ],
    [
      "ਰੀ",
      "ੜ੍ਹ</w>"
    ],
    [
      "ਕੁਆਰ",
      "ਟਰ</w>"
    ],
    [
      "ਈਆ",
      "ਂ,</w>"
    ],
    [
      "ਹਿ",
      "ੱਟ</w>"
    ],
    [
      "ਗ੍ਰੰ",
      "ਥਾਂ</w>"
    ],
    [
      "ਵਿ",
      "ਧੀ</w>"
    ],
    [
      "ਵਿਗਿਆ",
      "ਨੀ</w>"
    ],
    [
      "ਬਾਲ",
      "ਗ</w>"
    ],
    [
      "ਬਾ",
      "ਜ਼ਾਰ</w>"
    ],
    [
      "ਅਰ",
      "ੰ"
    ],
    [
      "ਮੰ",
      "ਦ</w>"
    ],
    [
      "ਮੁ",
      "ਕ"
    ],
    [
      "ਤੀ",
      "ਸ"
    ],
    [
      "ਗਰ",
      "ਭ</w>"
    ],
    [
      "ਮੀ",
      ",</w>"
    ],
    [
      "ਗ੍ਰਾ",
      "ਮ</w>"
    ],
    [
      "ਫੋ",
      "ਟੋ"
    ],
    [
      "'",
      ",</w>"
    ],
    [
      "ਪ੍ਰਸਾਰ",
      "ਿਤ</w>"
    ],
    [
      "ਚਾ",
      "ਹ</w>"
    ],
    [
      "ਪੈ",
      "ਰਿਸ</w>"
    ],
    [
      "ਹੈਂ",
      "ਡ"
    ],
    [
      "ਤ੍ਰਿ",
      "ਪੁਰਾ</w>"
    ],
    [
      "ਆਈ",
      "ਟਮ</w>"
    ],
    [
      "ਪ",
      "ਕਾ"
    ],
    [
      "ਜੈਂ",
      "ਸੀ</w>"
    ],
    [
      "ਸ਼ਿ",
      "ਕਾਰ</w>"
    ],
    [
      "ਸੁ",
      "ਣਾ"
    ],
    [
      "ਪਰਿ",
      "ਭਾ"
    ],
    [
      "ਕ",
      "ੱਟ</w>"
    ],
    [
      "ਹਮ",
      "ਲਿਆਂ</w>"
    ],
    [
      "ਆ",
      "ਧਾਰ</w>"
    ],
    [
      "ਤਾ",
      "-"
    ],
    [
      "ਪ੍ਰਤੀ",
      "ਕ</w>"
    ],
    [
      "ਲੇਖ",
      "ਾਂ</w>"
    ],
    [
      "ਰਾ",
      "ਸ</w>"
    ],
    [
      "ਕਿਹਾ",
      "।</w>"
    ],
    [
      "ਮੁੱ",
      "ਦਿਆਂ</w>"
    ],
    [
      "ਈ",
      "ਆ</w>"
    ],
    [
      "ਗੱ",
      "ਠ"
    ],
    [
      "ਨਿਰਾ",
      "ਸ਼ਾ"
    ],
    [
      "199",
      "4</w>"
    ],
    [
      "ਾਰ",
      ",</w>"
    ],
    [
      "ਆਸਟ",
      "ਰੇਲੀਆ</w>"
    ],
    [
      "ਪੋਰ",
      "ਟ</w>"
    ],
    [
      "ਅਧਿਆ",
      "ਪਕ</w>"
    ],
    [
      "ਜਾਵੇ",
      "।</w>"
    ],
    [
      "ਵਾਰ",
      "-"
    ],
    [
      "ਮੈਕਸੀ",
      "ਕੋ</w>"
    ],
    [
      "ਪ",
      "ਦ"
    ],
    [
      "ਕਾਰ",
      "ੀਆਂ</w>"
    ],
    [
      "ਖੁ",
      "ਰਾਕ</w>"
    ],
    [
      "ਜਪਾ",
      "ਨ</w>"
    ],
    [
      "ਦੁਰ",
      "ਲੱਭ</w>"
    ],
    [
      "ਵਰ",
      "ਗੀ</w>"
    ],
    [
      "ਨ",
      "੍ਰਿ"
    ],
    [
      "ਬੇ",
      "ਸ</w>"
    ],
    [
      "ਮੇ",
      "ਲੇ</w>"
    ],
    [
      "5",
      "%</w>"
    ],
    [
      "ਕ",
      ")</w>"
    ],
    [
      "ਮਿਊਂ",
      "ਸਪੈ"
    ],
    [
      "ਔ",
      "ਟਿ"
    ],
    [
      "ਯ",
      "ੂੰ</w>"
    ],
    [
      "ਏ",
      "-"
    ],
    [
      "ਤੋ",
      "ੜ</w>"
    ],
    [
      "ਹੋ",
      "ਣ"
    ],
    [
      "2",
      "4"
    ],
    [
      "ਜਾ",
      "ਨ</w>"
    ],
    [
      "ਨਾਰਾ",
      "ਇ"
    ],
    [
      "ਉ",
      "ਲੰਘ"
    ],
    [
      "ਇਲਾ",
      "ਕਿਆਂ</w>"
    ],
    [
      "ਭਾਈਚਾਰ",
      "ਿਆਂ</w>"
    ],
    [
      "ਬਿ",
      "ਊ"
    ],
    [
      "ਗੁ",
      "ਪਤਾ</w>"
    ],
    [
      "ਬਜਾ",
      "ਏ,</w>"
    ],
    [
      "ਦਾ",
      "ਇ"
    ],
    [
      "ੜ",
      ",</w>"
    ],
    [
      "ਨਿ",
      "ਸ</w>"
    ],
    [
      "ਕਾਬ",
      "ੂ</w>"
    ],
    [
      "ਉਤਪਾ",
      "ਦ"
    ],
    [
      "ਕ੍ਰ",
      "ਾਂਤੀ</w>"
    ],
    [
      "ਮਹੱਤ",
      "ਵ</w>"
    ],
    [
      "ਧ",
      "ੱ"
    ],
    [
      "ਸੰ",
      "ਪੂਰਨ</w>"
    ],
    [
      "ਪਕ",
      "ਵਾਨ</w>"
    ],
    [
      "ਣ",
      "ਿਆਂ</w>"
    ],
    [
      "ਤਸਵੀ",
      "ਰ</w>"
    ],
    [
      "ਤਰ",
      "ਲ</w>"
    ],
    [
      "ਮਾ",
      "ਡ"
    ],
    [
      "ਚਰ",
      "ਚ</w>"
    ],
    [
      "ਵੀ",
      "."
    ],
    [
      "ਮਾਸਪੇਸ਼",
      "ੀਆਂ</w>"
    ],
    [
      "ਫ",
      "ਰੇ"
    ],
    [
      "ਲਾਈ",
      "ਟਿਸ</w>"
    ],
    [
      "ਲ",
      "ਿਆ,</w>"
    ],
    [
      "ਫ਼",
      "ਰ"
    ],
    [
      "ਪਰਿਭਾ",
      "ਸ਼ਿਤ</w>"
    ],
    [
      "ਬਦ",
      "ਲੇ</w>"
    ],
    [
      "ਬਰ",
      "ਟ</w>"
    ],
    [
      "ਵਾ",
      "ਨੀ</w>"
    ],
    [
      "ਜੋ",
      "ੜੇ</w>"
    ],
    [
      "ਿਆ",
      "ਤਮਕ</w>"
    ],
    [
      "ਵਾਧ",
      "ੇ</w>"
    ],
    [
      "ਸਮੀ",
      "ਖਿਆਵਾਂ</w>"
    ],
    [
      "ਦੇਖ",
      "ਦੇ</w>"
    ],
    [
      "ਗੋ",
      "ਲੀ</w>"
    ],
    [
      "ਮੰ",
      "ਡ</w>"
    ],
    [
      "ਕ",
      "ਲੇ"
    ],
    [
      "ਫਾਈ",
      "ਲ</w>"
    ],
    [
      "ਕੰ",
      "ਢੇ</w>"
    ],
    [
      "ਆ",
      "ਸਾਨੀ</w>"
    ],
    [
      "ਏ",
      "ਂ"
    ],
    [
      "ਹੋ",
      "ਣੀ</w>"
    ],
    [
      "199",
      "5</w>"
    ],
    [
      "ਸਵੇ",
      "ਰ</w>"
    ],
    [
      "ਬ",
      "ਰੂ"
    ],
    [
      "ਉੱ",
      "ਤੇ,</w>"
    ],
    [
      "ਅ",
      "ਨੀ"
    ],
    [
      "ਕਸ",
      ",</w>"
    ],
    [
      "ਵੀ",
      "ਰ"
    ],
    [
      "ਸ਼੍ਰੇ",
      "ਣੀ"
    ],
    [
      "ਯਾ",
      "ਤਰੀਆਂ</w>"
    ],
    [
      "ਬਚ",
      "ਪਨ</w>"
    ],
    [
      "ਮੀ",
      "ਟਿੰਗ</w>"
    ],
    [
      "ਜ",
      "ਹਾਂ</w>"
    ],
    [
      "ਹਰਿਆ",
      "ਣਾ</w>"
    ],
    [
      "ਡ",
      "-"
    ],
    [
      "ਪੁਆ",
      "ਇੰ"
    ],
    [
      "ਗ੍ਰ",
      "ੀ"
    ],
    [
      "ਅੱ",
      "ਪ"
    ],
    [
      "ਮਾ",
      "ੜੀ</w>"
    ],
    [
      "ਚੌ",
      "ਥੀ</w>"
    ],
    [
      "ਤਸਵੀ",
      "ਰਾਂ</w>"
    ],
    [
      "ਢਾਂ",
      "ਚੇ</w>"
    ],
    [
      "ਊ",
      "ਦੀਨ</w>"
    ],
    [
      "ਸ",
      "ਵਾਰ</w>"
    ],
    [
      "ਆ",
      "ਰਾਮ</w>"
    ],
    [
      "ਮਾ",
      "ਵਾਂ</w>"
    ],
    [
      "ਪਠ",
      "ਾਰ</w>"
    ],
    [
      "ਵ",
      "ਲੀ</w>"
    ],
    [
      "ਕਰ",
      "ਜ਼ਾ</w>"
    ],
    [
      "ਐ",
      "ਸ</w>"
    ],
    [
      "199",
      "3</w>"
    ],
    [
      "ਖ਼",
      "ਤਮ</w>"
    ],
    [
      "ਪੰਛ",
      "ੀਆਂ</w>"
    ],
    [
      "ਨਿ",
      "ਵੇ"
    ],
    [
      "ਬਨ",
      "ਸਪ"
    ],
    [
      "ਕਬੱ",
      "ਡੀ</w>"
    ],
    [
      "ਅੱ",
      "ਪ</w>"
    ],
    [
      "ਸਾ",
      "ਡੀ</w>"
    ],
    [
      "ਮਰਾਠ",
      "ਿਆਂ</w>"
    ],
    [
      "ਮਨਾ",
      "ਉਣ</w>"
    ],
    [
      "ਨ",
      "ਹਾ"
    ],
    [
      "ਦਮ",
      "ੀਆਂ</w>"
    ],
    [
      "ਵਿ",
      "ਵਾਦ</w>"
    ],
    [
      "ਲ",
      "ਏ</w>"
    ],
    [
      "ਧਾਰ",
      "ਾ</w>"
    ],
    [
      "ਟਿ",
      "ਨ</w>"
    ],
    [
      "ਥ",
      ",</w>"
    ],
    [
      "ਬ",
      "ੁਰ"
    ],
    [
      "ਸਲਤਨ",
      "ਤ</w>"
    ],
    [
      "ਅ",
      "ਸਮਰੱਥ</w>"
    ],
    [
      "ਚੰਡੀ",
      "ਗੜ੍ਹ</w>"
    ],
    [
      "ਨਿਭਾ",
      "ਉਣ</w>"
    ],
    [
      "ਵ",
      "ਜੇ</w>"
    ],
    [
      "ਨ",
      "ਤਾਵਾਂ</w>"
    ],
    [
      "ਪ੍ਰਿ",
      "ਥ"
    ],
    [
      "ਅਲਾ",
      "ਊਦੀਨ</w>"
    ],
    [
      "ਪ੍ਰਭਾ",
      "ਵਤ</w>"
    ],
    [
      "ਵੇਚ",
      "ਣ</w>"
    ],
    [
      "ਰਾ",
      "ਤਰੀ</w>"
    ],
    [
      "ਨੌ",
      "ਂ</w>"
    ],
    [
      "ਹੈ",
      "ੱਡ"
    ],
    [
      "ਸਟਿ",
      "ੰਗ</w>"
    ],
    [
      "ਟੇ",
      "ਨ"
    ],
    [
      "ਨਾ",
      "ਂ"
    ],
    [
      "ਜਿੰ",
      "ਨਾ</w>"
    ],
    [
      "ਜਮ",
      "੍ਹਾਂ</w>"
    ],
    [
      "ਰੇ",
      "ਖਾ</w>"
    ],
    [
      "ਜੈ",
      "ਨੇ"
    ],
    [
      "ਡੇ",
      "ਵਿ"
    ],
    [
      "ਸਫ",
      "ਲ</w>"
    ],
    [
      "ਗੱ",
      "ਡੀ</w>"
    ],
    [
      "ਸਟ੍",
      "ਰੋ"
    ],
    [
      "ਵ",
      "ਜਾ"
    ],
    [
      "ਵਿ",
      "ਕਾਰ</w>"
    ],
    [
      "ਸ",
      "ਣ</w>"
    ],
    [
      "ਭੱ",
      "ਜ</w>"
    ],
    [
      "ਸ਼",
      "ਖ"
    ],
    [
      "ਪਾ",
      "ਠ"
    ],
    [
      "ਠ",
      "ੰ"
    ],
    [
      "ਮੁਰ",
      "ੰ"
    ],
    [
      "ਪੂਰਵ",
      "ਕ</w>"
    ],
    [
      "ਹੋਵੇ",
      "ਗਾ</w>"
    ],
    [
      "ਲਿ",
      "ਜਾਇਆ</w>"
    ],
    [
      "ਬੱ",
      "ਲੇ"
    ],
    [
      "ਸ੍ਰ",
      "ੀ</w>"
    ],
    [
      "ਸ",
      "ਕੀ"
    ],
    [
      "ਅੰਤਰ",
      "-"
    ],
    [
      "ਮੁਸ਼",
      "ਕਿਲ</w>"
    ],
    [
      "ਪਾ",
      "ਇ"
    ],
    [
      "ਪੁ",
      "ਲਕ"
    ],
    [
      "ਅਦਾ",
      "ਕਾਰੀ</w>"
    ],
    [
      "ਇੰ",
      "ਨੀ</w>"
    ],
    [
      "ਹੈ",
      "ਃ</w>"
    ],
    [
      "ਯ",
      "ੰ"
    ],
    [
      "ਕ",
      "ੀਆ</w>"
    ],
    [
      "ਲੱ",
      "ਗਿਆ</w>"
    ],
    [
      "ਸ਼",
      "ੱਕ</w>"
    ],
    [
      "ਰੋ",
      "ਸ਼ਨੀ</w>"
    ],
    [
      "ਗੋਲ",
      "ਕੀਪਰ</w>"
    ],
    [
      "ਧ",
      "ਮਾ"
    ],
    [
      "ਰਿਪੋਰ",
      "ਟਾਂ</w>"
    ],
    [
      "ਕੇ",
      ".</w>"
    ],
    [
      "ਪੂਰ",
      "ਵ</w>"
    ],
    [
      "ਕਾਰ",
      "ਟ</w>"
    ],
    [
      "ਇ",
      "ੰਗ</w>"
    ],
    [
      "ਚੇ",
      "ਂ"
    ],
    [
      "ਰੱਖ",
      "ੋ।</w>"
    ],
    [
      "ਬੋ",
      "ਲ</w>"
    ],
    [
      "ਮੋ",
      "ਟਰ</w>"
    ],
    [
      "ਡ",
      "ਰਿ"
    ],
    [
      "ਸੈਲਾ",
      "ਨੀਆਂ</w>"
    ],
    [
      "ਵਾ",
      "ਸ਼ਿ"
    ],
    [
      "ਜੀ",
      ".</w>"
    ],
    [
      "ਲਿ",
      "ਮ"
    ],
    [
      "ਅੰਦਾ",
      "ਜ਼ਾ</w>"
    ],
    [
      "ਕਰਵਾ",
      "ਇਆ</w>"
    ],
    [
      "ਗੀ",
      "ਰ</w>"
    ],
    [
      "ਧ",
      "ਤਾ</w>"
    ],
    [
      "ਨਿਊਜ਼ੀ",
      "ਲੈਂਡ</w>"
    ],
    [
      "ਸੰਸਥਾ",
      "ਪਕ</w>"
    ],
    [
      "ਨਿ",
      "ਸਤਾਨ</w>"
    ],
    [
      "ਨਜ਼",
      "ਦੀ"
    ],
    [
      "ਤ",
      "ੌ"
    ],
    [
      "ਰਾਹ",
      "ਤ</w>"
    ],
    [
      "ਲਾਈ",
      ",</w>"
    ],
    [
      "ਮੁਸਲ",
      "ਮਾਨ</w>"
    ],
    [
      "ਐਮਰ",
      "ਜੈਂਸੀ</w>"
    ],
    [
      "4",
      "00</w>"
    ],
    [
      "ਮਾ",
      "ਮੂ"
    ],
    [
      "ਲਾਭ",
      "ਦਾਇਕ</w>"
    ],
    [
      "ਸਿੱ",
      "ਧਾ</w>"
    ],
    [
      "ਇੰ",
      "ਸ</w>"
    ],
    [
      "ਅਰੰ",
      "ਭ</w>"
    ],
    [
      "ਪਰਿਵਾਰ",
      "ਾਂ</w>"
    ],
    [
      "ਲੰ",
      "ਬਾ</w>"
    ],
    [
      "ਸੁੰ",
      "ਦਰ"
    ],
    [
      "ਜੰ",
      "ਮੂ</w>"
    ],
    [
      "ਜੀ",
      "ਕਲ</w>"
    ],
    [
      "1",
      "1"
    ],
    [
      "ਡਿਵੀ",
      "ਜ਼"
    ],
    [
      "ਇਟ",
      "ਲੀ</w>"
    ],
    [
      "ਕ",
      "ਦਾਰ</w>"
    ],
    [
      "ਸਟ",
      "ਰਾ</w>"
    ],
    [
      "ਪੇ",
      "ਰ"
    ],
    [
      "ਐ",
      "ਚ"
    ],
    [
      "ਟਰ",
      "ਨ</w>"
    ],
    [
      "ਰੋਧ",
      "ਕ</w>"
    ],
    [
      "ਹਥ",
      "ਿਆ"
    ],
    [
      "ਮ",
      "ਸਾ"
    ],
    [
      "ਧ",
      "ਮ"
    ],
    [
      "ਕ",
      "ਟਰ</w>"
    ],
    [
      "ਤ",
      "-"
    ],
    [
      "ਸਤ",
      "ੀਆਂ</w>"
    ],
    [
      "ਵਿਆ",
      "ਖਿਆ</w>"
    ],
    [
      "ਦਹਾ",
      "ਕਿਆਂ</w>"
    ],
    [
      "ਓ",
      "ਂ</w>"
    ],
    [
      "ਕਾਮ",
      "ਯਾ"
    ],
    [
      "ਲਾ",
      "ਅ</w>"
    ],
    [
      "ਭੇ",
      "ਜ</w>"
    ],
    [
      "ਡਰਾ",
      "ਮਾ</w>"
    ],
    [
      "ਤ",
      "ਪ"
    ],
    [
      "ਨਾਗ",
      "ਰਿ"
    ],
    [
      "ਦਿ",
      "</w>"
    ],
    [
      "ਅ",
      "ਰਾ"
    ],
    [
      "2",
      "6"
    ],
    [
      "ਤ",
      "ੰਗ</w>"
    ],
    [
      "ਲਾਂ",
      "ਕਣ</w>"
    ],
    [
      "ਲੈ",
      "ਕਸ</w>"
    ],
    [
      "ਗਿ",
      "ਕ</w>"
    ],
    [
      "ਸਾ",
      "ਊ"
    ],
    [
      "ਅਪਰਾ",
      "ਧ</w>"
    ],
    [
      "ਸਟੇ",
      "ਜ</w>"
    ],
    [
      "ਅਧਿਐ",
      "ਨਾਂ</w>"
    ],
    [
      "ਸਰ",
      ",</w>"
    ],
    [
      "ਏ",
      "ਅਰ</w>"
    ],
    [
      "ਸ਼੍ਰੇ",
      "ਣੀਆਂ</w>"
    ],
    [
      "ਟੇ",
      "ਬਲ</w>"
    ],
    [
      "ਧ",
      "ੰ"
    ],
    [
      "ਇਨ",
      "ਫ"
    ],
    [
      "ਸ਼ਨੀ",
      "ਵਾਰ</w>"
    ],
    [
      "ਪੋ",
      "ਂ"
    ],
    [
      "ਓਕਲਾਹੋ",
      "ਮਾ</w>"
    ],
    [
      "ਸਬੰਧ",
      "ਾਂ</w>"
    ],
    [
      "ਰਿ",
      "ਵਾ"
    ],
    [
      "ਸ਼ਿਕਾਇ",
      "ਤ</w>"
    ],
    [
      "ਭੂ",
      "ਮੀ</w>"
    ],
    [
      "ਵਿਭਿੰ",
      "ਨਤਾ</w>"
    ],
    [
      "ਕਾਮਯਾ",
      "ਬ</w>"
    ],
    [
      "ਤੱ",
      "ਤ</w>"
    ],
    [
      "ਜਾਪ",
      "ਦਾ</w>"
    ],
    [
      "ਗੇਂ",
      "ਦ"
    ],
    [
      "ਫ਼ਿਲ",
      "ਮਫੇਅਰ</w>"
    ],
    [
      "ਨਿਰਾਸ਼ਾ",
      "ਜਨਕ</w>"
    ],
    [
      "ਹਨ",
      "ਃ</w>"
    ],
    [
      "ਝ",
      "ੁ"
    ],
    [
      "ਡ",
      "ੱਚ</w>"
    ],
    [
      "ਭਾਵ",
      "ਨਾਵਾਂ</w>"
    ],
    [
      "ਟੀ",
      "ਪੂ</w>"
    ],
    [
      "ਗੁ",
      "ਆ"
    ],
    [
      "ਲਿ",
      "ੰਗ"
    ],
    [
      "ਭਰੋ",
      "ਸੇ"
    ],
    [
      "ਹੈ",
      "-"
    ],
    [
      "ਬੋ",
      "ਲਣ</w>"
    ],
    [
      "ਖੋ",
      "।</w>"
    ],
    [
      "ਸੈ",
      "ਕੰਡ"
    ],
    [
      "ਟੀ",
      "ਕੇ</w>"
    ],
    [
      "ਜਿ",
      "ਗਰ</w>"
    ],
    [
      "ਗ",
      "ੈਂ"
    ],
    [
      "ਟ",
      "ੱ"
    ],
    [
      "ਸ",
      "ਕਿੰ"
    ],
    [
      "ਟਾ",
      "ਇ"
    ],
    [
      "ਸੈ",
      "ਪ"
    ],
    [
      "ਰ",
      "ਸੋ"
    ],
    [
      "ਗ",
      "ਲੀ</w>"
    ],
    [
      "ਦੰ",
      "ਦਾਂ</w>"
    ],
    [
      "ਚਾ",
      "ਵਲ</w>"
    ],
    [
      "ਸ਼੍ਰੇਣੀ",
      "ਬੱਧ</w>"
    ],
    [
      "ਵਿਕੀ",
      "ਪੀਡੀਆ</w>"
    ],
    [
      "ਖਾ",
      "ਤਾ</w>"
    ],
    [
      "ਪ੍ਰਤੀ",
      "ਕ੍ਰ"
    ],
    [
      "ਕਿ",
      "ੱਕ</w>"
    ],
    [
      "ਔਟਿ",
      "ਜ਼ਮ</w>"
    ],
    [
      "ਵਰ",
      ",</w>"
    ],
    [
      "ਲੜ",
      "ਨ</w>"
    ],
    [
      "ਮੁਰੰ",
      "ਮਤ</w>"
    ],
    [
      "ਅਣ",
      "ਜਾਣ</w>"
    ],
    [
      "ਦੋ",
      "ਸ਼ੀ</w>"
    ],
    [
      "ਖਿ",
      "ਲਾ"
    ],
    [
      "ਲੰ",
      "ਕਾ</w>"
    ],
    [
      "ਹੈ",
      "ਲ"
    ],
    [
      "198",
      "7</w>"
    ],
    [
      "ਸਾਈ",
      "ਡ</w>"
    ],
    [
      "ਹ",
      "ਰੀ"
    ],
    [
      "ਗੱਠ",
      "ਜੋੜ</w>"
    ],
    [
      "ਤ",
      "ਜਰ"
    ],
    [
      "ਲ",
      "ਕਰ</w>"
    ],
    [
      "5",
      "-"
    ],
    [
      "ਪ੍ਰ",
      "ਚਾਰ</w>"
    ],
    [
      "ਫ",
      "ਾਂਸੀ</w>"
    ],
    [
      "ਸ਼",
      "ਾਂ"
    ],
    [
      "ਸਕ੍ਰ",
      "ੀਨ</w>"
    ],
    [
      "ਚੰਦਰ",
      "ਗੁਪਤ</w>"
    ],
    [
      "ਪਾਰ",
      "ਟ"
    ],
    [
      "ਰਿ",
      "ਟਾ"
    ],
    [
      "ਚਾਲ",
      "ਕ</w>"
    ],
    [
      "ਪਾ",
      "ਤਰ</w>"
    ],
    [
      "ਉਦਯੋ",
      "ਗਿਕ</w>"
    ],
    [
      "ਥੋੜ",
      "੍ਹੇ</w>"
    ],
    [
      "ਸਿ",
      "ਡ</w>"
    ],
    [
      "ਮੈਂ",
      "ਟਾਂ</w>"
    ],
    [
      "ਕਿੰਗ",
      "ਡਮ</w>"
    ],
    [
      "ਦਿਮਾ",
      "ਗ਼"
    ],
    [
      "ਚਿੱ",
      "ਟੇ</w>"
    ],
    [
      "ਪੱਧ",
      "ਰਾਂ</w>"
    ],
    [
      "ਸਿੱ",
      "ਕੇ</w>"
    ],
    [
      "ਅੰ",
      "ਕ"
    ],
    [
      "ਉੱਤਰਾ",
      "ਖੰਡ</w>"
    ],
    [
      "ਵੈੱ",
      "ਬ</w>"
    ],
    [
      "ਕਿੱ",
      "ਥੇ</w>"
    ],
    [
      "ਲਾ",
      "ਜ਼"
    ],
    [
      "ਉਦਾ",
      "ਸ</w>"
    ],
    [
      "ਕੁੰ",
      "ਭ</w>"
    ],
    [
      "ਬਾ",
      "ਦ"
    ],
    [
      "ਇਸਲਾ",
      "ਮ</w>"
    ],
    [
      "ਵਿਚਾਰ",
      "ਾਂ</w>"
    ],
    [
      "ਸ਼ੀ",
      "ਲਤਾ</w>"
    ],
    [
      "ਗ੍ਰੈ",
      "ਜੂ"
    ],
    [
      "ਹੋ",
      "ਈ,</w>"
    ],
    [
      "ਜੀ",
      "ਨ</w>"
    ],
    [
      "ਮਾਮੂ",
      "ਲੀ</w>"
    ],
    [
      "ਫੀ",
      "ਸ</w>"
    ],
    [
      "ਤਰਜੀ",
      "ਹ</w>"
    ],
    [
      "ਰਾ",
      "ਈ</w>"
    ],
    [
      "ਭਿਆ",
      "ਨਕ</w>"
    ],
    [
      "ਪ੍ਰੀਮੀ",
      "ਅਰ</w>"
    ],
    [
      "ਜੀ",
      ",</w>"
    ],
    [
      "ਰੰਗ",
      "ਾਂ</w>"
    ],
    [
      "ਸਿੰ",
      "ਧੂ</w>"
    ],
    [
      "ਨਾ",
      "ਇ"
    ],
    [
      "ਤਲਾ",
      "ਕ</w>"
    ],
    [
      "ਮੰ",
      "ਡ"
    ],
    [
      "ਉਪ",
      "ਕਰਣਾਂ</w>"
    ],
    [
      "ਟ੍",
      "ਰੋ"
    ],
    [
      "ਹਾਈ",
      "ਪਰ"
    ],
    [
      "ਜ",
      "ੀਆ</w>"
    ],
    [
      "ਮਰੀ",
      "ਜ਼</w>"
    ],
    [
      "ਸ਼ੁੱ",
      "ਕਰ"
    ],
    [
      "ਮੀ",
      "ਟਰ"
    ],
    [
      "ਅਰ",
      "ਜਨ"
    ],
    [
      "ਸਵਿ",
      "ਟ"
    ],
    [
      "ਸਵਿਟ",
      "ਜ਼ਰ"
    ],
    [
      "ਦ੍ਰਿਸ਼ਟੀ",
      "ਕੋਣ</w>"
    ],
    [
      "ਉਲੰਘ",
      "ਣਾ</w>"
    ],
    [
      "ਹ",
      "ਟ</w>"
    ],
    [
      "7",
      "2</w>"
    ],
    [
      "ਮਾਰ",
      "ਿਆ</w>"
    ],
    [
      "ਧ",
      "-"
    ],
    [
      "ਹਿ",
      "ਊ"
    ],
    [
      "ਫ",
      "ੜ</w>"
    ],
    [
      "ਰੂ",
      "ਮ</w>"
    ],
    [
      "ਰੁੱ",
      "ਖ</w>"
    ],
    [
      "ਸੰ",
      "ਵਿਧਾਨ</w>"
    ],
    [
      "ਵਿ",
      "ਲ</w>"
    ],
    [
      "ਰਾਇ",
      "ਲ</w>"
    ],
    [
      "ਚੇਤਾ",
      "ਵਨੀ</w>"
    ],
    [
      "ਨਿ",
      "ਕਾ"
    ],
    [
      "ਯੂ",
      "ਨਿ"
    ],
    [
      "ਭਵਿ",
      "ੱਖ"
    ],
    [
      "ਖੁ",
      "ਲਾਸਾ</w>"
    ],
    [
      "ਕਾਰਪੋਰ",
      "ੇਸ਼ਨ</w>"
    ],
    [
      "ਲਾ",
      "ਉਣ</w>"
    ],
    [
      "ਬਦ",
      "ਲਿਆ</w>"
    ],
    [
      "ਉ",
      "ਹੀ</w>"
    ],
    [
      "ਰੋ",
      "ਮਨ</w>"
    ],
    [
      "ਵਧ",
      "ਣ</w>"
    ],
    [
      "ਮਰ",
      "ਨ</w>"
    ],
    [
      "ਡਾਕ",
      "ਟਰੀ</w>"
    ],
    [
      "ਖਾ",
      "ਣੇ</w>"
    ],
    [
      "ਬਿ",
      "ਲ</w>"
    ],
    [
      "ਵਰ",
      "ਗਾ</w>"
    ],
    [
      "ਚੜ",
      "੍ਹਾ"
    ],
    [
      "8",
      "5</w>"
    ],
    [
      "ਪ",
      "ਲੇ</w>"
    ],
    [
      "ਕਾ",
      "ਲੇ</w>"
    ],
    [
      "ਟਰ",
      "ੋ</w>"
    ],
    [
      "ਵਾ",
      "ਸੀ</w>"
    ],
    [
      "ਯ",
      "ੇ"
    ],
    [
      "ਢ",
      "ੱ"
    ],
    [
      "ਬ",
      "ਟਨ</w>"
    ],
    [
      "ਡ",
      "ਰੋ"
    ],
    [
      "ਬਿਲੀ",
      "ਅਨ</w>"
    ],
    [
      "ਗਣ",
      "ੇਸ਼</w>"
    ],
    [
      "ਮਿਊਂਸਪੈ",
      "ਲਿਟੀ</w>"
    ],
    [
      "ਅਰਜਨ",
      "ਟੀ"
    ],
    [
      "ਹਥ",
      "ਿਆਰ</w>"
    ],
    [
      "ਪੋ",
      "ਸ਼ਣ</w>"
    ],
    [
      "ਸੀ",
      "ਟਾਂ</w>"
    ],
    [
      "ਸ਼ਖ",
      "ਸੀ"
    ],
    [
      "ਜਿੱ",
      "ਤੇ</w>"
    ],
    [
      "ਛ",
      "ੁ"
    ],
    [
      "ਚੁੱ",
      "ਕੀ</w>"
    ],
    [
      "ਪਤ",
      "ਨ</w>"
    ],
    [
      "ਉਸ",
      "ਾਰੀ</w>"
    ],
    [
      "ਟਾਈ",
      "ਮਜ਼</w>"
    ],
    [
      "ਹਿੰ",
      "ਦੁ"
    ],
    [
      "ਚ",
      "ਲਦਾ</w>"
    ],
    [
      "ਕ",
      "ਹਿ</w>"
    ],
    [
      "ਊਰ",
      "ਜਾ</w>"
    ],
    [
      "ਕਪ",
      "ਤਾਨ</w>"
    ],
    [
      "ਫ",
      "ੜ"
    ],
    [
      "ਵਾ",
      "ਹ</w>"
    ],
    [
      "ਓ",
      "ਰ"
    ],
    [
      "ਡਰਾ",
      "ਅ</w>"
    ],
    [
      "ਰ",
      "ਸਮਾਂ</w>"
    ],
    [
      "ਪੁਰ",
      ",</w>"
    ],
    [
      "ਸ਼",
      "ੇ</w>"
    ],
    [
      "ਸੰ",
      "ਸਾਰ</w>"
    ],
    [
      "ਡਿੱ",
      "ਗ</w>"
    ],
    [
      "ਰੀ",
      "ਨ</w>"
    ],
    [
      "ਭ",
      "ੌ"
    ],
    [
      "ਕਮਿ",
      "ਸ਼ਨ</w>"
    ],
    [
      "ਬੰ",
      "ਦੂ"
    ],
    [
      "ਸਾ",
      "ਧਨ</w>"
    ],
    [
      "ਵਾ",
      "ਅਦਾ</w>"
    ],
    [
      "ਚਾਲ",
      "ੁਕ"
    ],
    [
      "ਵਾਰ-",
      "ਵਾਰ</w>"
    ],
    [
      "ਬੇ",
      "ਡ"
    ],
    [
      "ਸਪੇ",
      "ਨ</w>"
    ],
    [
      "ਦੇਸ਼",
      ",</w>"
    ],
    [
      "ਮੈ",
      "ਟ</w>"
    ],
    [
      "ਤਰ",
      "ੱਕੀ</w>"
    ],
    [
      "ਹੋ",
      "ਣਗੇ।</w>"
    ],
    [
      "ਸੁ",
      "ਮੇਲ</w>"
    ],
    [
      "ਨ",
      "।</w>"
    ],
    [
      "ਸ਼ੁਰ",
      "ੂ</w>"
    ],
    [
      "3",
      "0"
    ],
    [
      "ਪੌ",
      "ਦੇ</w>"
    ],
    [
      "ਕਰ",
      "ਾਂ</w>"
    ]
  ],
  "vocab_size": 5000,
  "num_merges": 5000,
  "actual_merges": 5000,
  "special_tokens": [
    "<unk>",
    "<pad>",
    "<sos>",
    "<eos>"
  ]
}