{
  "merges": [
    [
      "्",
      "य"
    ],
    [
      "्",
      "</w>"
    ],
    [
      "ः",
      "</w>"
    ],
    [
      "ं",
      "</w>"
    ],
    [
      "र",
      "्"
    ],
    [
      "।",
      "</w>"
    ],
    [
      "न",
      "्"
    ],
    [
      "स",
      "्"
    ],
    [
      "त",
      "ि"
    ],
    [
      "स",
      "्य"
    ],
    [
      "े",
      "</w>"
    ],
    [
      "स्य",
      "</w>"
    ],
    [
      "ा",
      "</w>"
    ],
    [
      ",",
      "</w>"
    ],
    [
      "ा",
      "न"
    ],
    [
      "व",
      "ि"
    ],
    [
      "त",
      "्य"
    ],
    [
      "ा",
      "र"
    ],
    [
      "ा",
      "ः</w>"
    ],
    [
      "त",
      "्"
    ],
    [
      "म",
      "्</w>"
    ],
    [
      "ि",
      "</w>"
    ],
    [
      "ि",
      "त"
    ],
    [
      "म",
      "्"
    ],
    [
      "ति",
      "।</w>"
    ],
    [
      "इ",
      "त्य"
    ],
    [
      "ि",
      "क"
    ],
    [
      "ा",
      "य"
    ],
    [
      "्",
      "-"
    ],
    [
      "ति",
      "</w>"
    ],
    [
      "ा",
      "ं</w>"
    ],
    [
      "त",
      "्</w>"
    ],
    [
      "न्",
      "त"
    ],
    [
      "े",
      "ष"
    ],
    [
      "र",
      "ा"
    ],
    [
      "ङ",
      "्"
    ],
    [
      "न",
      "ि"
    ],
    [
      "व",
      "र्"
    ],
    [
      "ु",
      "</w>"
    ],
    [
      "भ",
      "व"
    ],
    [
      "न",
      "</w>"
    ],
    [
      "ा",
      "ल"
    ],
    [
      "च",
      "</w>"
    ],
    [
      "म",
      "ा"
    ],
    [
      "े",
      "श"
    ],
    [
      "न",
      "ा"
    ],
    [
      "प",
      "र"
    ],
    [
      "अ",
      "स्"
    ],
    [
      "्",
      "ट"
    ],
    [
      "व",
      "ा"
    ],
    [
      "ि",
      "य"
    ],
    [
      "न",
      "्</w>"
    ],
    [
      "त्",
      "।</w>"
    ],
    [
      "द",
      "ेश"
    ],
    [
      "स्",
      "थ"
    ],
    [
      "े",
      "न</w>"
    ],
    [
      "ा",
      "प"
    ],
    [
      "्",
      "ड"
    ],
    [
      "ी",
      "</w>"
    ],
    [
      "इ",
      "ति</w>"
    ],
    [
      "म",
      "ि"
    ],
    [
      "वर्",
      "ष"
    ],
    [
      "क",
      "ृ"
    ],
    [
      "ेष",
      "ु</w>"
    ],
    [
      "त",
      "ः</w>"
    ],
    [
      "अ",
      "न"
    ],
    [
      "त",
      "म"
    ],
    [
      "ङ्",
      "ग"
    ],
    [
      "्",
      "र"
    ],
    [
      "स",
      "्</w>"
    ],
    [
      "स",
      "ी"
    ],
    [
      "ी",
      "य"
    ],
    [
      "क",
      "ार"
    ],
    [
      "ण",
      "्ड"
    ],
    [
      "र्",
      "व"
    ],
    [
      "त",
      "े</w>"
    ],
    [
      "त",
      "ु"
    ],
    [
      "त",
      "े"
    ],
    [
      "स",
      "ा"
    ],
    [
      "ल",
      "्"
    ],
    [
      "ज",
      "न"
    ],
    [
      "ान",
      "ि</w>"
    ],
    [
      "ान",
      "्</w>"
    ],
    [
      "क",
      "ा"
    ],
    [
      "द",
      "ि"
    ],
    [
      "रा",
      "ज"
    ],
    [
      "र",
      "ो"
    ],
    [
      "य",
      "ो"
    ],
    [
      "अस्",
      "ति।</w>"
    ],
    [
      "भ",
      "ा"
    ],
    [
      "्य",
      "ा"
    ],
    [
      "ग",
      "र"
    ],
    [
      "े",
      "ण"
    ],
    [
      "प",
      "ि</w>"
    ],
    [
      "२",
      "०"
    ],
    [
      "स",
      "म"
    ],
    [
      "स",
      "ः</w>"
    ],
    [
      "न्",
      "-"
    ],
    [
      "ः",
      ",</w>"
    ],
    [
      "थ",
      "ा</w>"
    ],
    [
      "क",
      "्"
    ],
    [
      "स",
      "न्"
    ],
    [
      "व",
      "ा</w>"
    ],
    [
      "त",
      "ा"
    ],
    [
      "न",
      "गर"
    ],
    [
      "इत्य",
      "स्य</w>"
    ],
    [
      "ी",
      "ड"
    ],
    [
      "य",
      "ु"
    ],
    [
      "आ",
      "सी"
    ],
    [
      "प",
      "ु"
    ],
    [
      "स्",
      "ट"
    ],
    [
      "ति",
      ",</w>"
    ],
    [
      "१",
      "९"
    ],
    [
      "क",
      "े"
    ],
    [
      "स",
      "ि"
    ],
    [
      "ष",
      "्ट"
    ],
    [
      "त",
      "स्य</w>"
    ],
    [
      "प",
      "ा"
    ],
    [
      "र",
      "्</w>"
    ],
    [
      "म",
      "े"
    ],
    [
      "नि",
      "र्"
    ],
    [
      "ते",
      "।</w>"
    ],
    [
      "त",
      "था</w>"
    ],
    [
      "ान",
      "ां</w>"
    ],
    [
      "म",
      "ु"
    ],
    [
      "ेण",
      "</w>"
    ],
    [
      "अ",
      "ध"
    ],
    [
      "य",
      "ा</w>"
    ],
    [
      "व",
      "्य"
    ],
    [
      "तम",
      "े</w>"
    ],
    [
      "प",
      "ू"
    ],
    [
      "स",
      "ं"
    ],
    [
      "र्",
      "थ"
    ],
    [
      "वर्ष",
      "े</w>"
    ],
    [
      "े",
      "त"
    ],
    [
      "क्र",
      "ीड"
    ],
    [
      "्",
      "व"
    ],
    [
      "ए",
      "क"
    ],
    [
      "य",
      "ा"
    ],
    [
      "ाय",
      "ाः</w>"
    ],
    [
      "ः",
      "।</w>"
    ],
    [
      "राज",
      "्य"
    ],
    [
      "उ",
      "प"
    ],
    [
      "ी",
      "-"
    ],
    [
      "ञ",
      "्"
    ],
    [
      "म",
      "ान"
    ],
    [
      "वि",
      "श"
    ],
    [
      "ं",
      ",</w>"
    ],
    [
      "भ",
      "ि"
    ],
    [
      "अ",
      "पि</w>"
    ],
    [
      "र्",
      "-"
    ],
    [
      "ा",
      "-"
    ],
    [
      "स",
      "े"
    ],
    [
      "न",
      "ं</w>"
    ],
    [
      "न",
      "्य"
    ],
    [
      "०",
      "</w>"
    ],
    [
      "ल",
      "ि"
    ],
    [
      "स्",
      "-"
    ],
    [
      "व",
      "</w>"
    ],
    [
      "भ",
      "्य"
    ],
    [
      "ङ्",
      "क"
    ],
    [
      "ू",
      "प"
    ],
    [
      "ध",
      "्य"
    ],
    [
      "स",
      "म्"
    ],
    [
      "पर",
      "ि"
    ],
    [
      "स",
      "ह"
    ],
    [
      "क",
      "ु"
    ],
    [
      "आसी",
      "त्।</w>"
    ],
    [
      "्",
      "ल"
    ],
    [
      "देश",
      "स्य</w>"
    ],
    [
      "क",
      "ो"
    ],
    [
      "स्",
      "त"
    ],
    [
      "ष",
      "्"
    ],
    [
      "ि",
      "त्र"
    ],
    [
      "भ",
      "ार"
    ],
    [
      "र",
      "ण"
    ],
    [
      "त",
      "ी"
    ],
    [
      "ए",
      "त"
    ],
    [
      "श",
      "ि"
    ],
    [
      "ै",
      "ः</w>"
    ],
    [
      "ल",
      "्-"
    ],
    [
      "ा",
      "त्</w>"
    ],
    [
      "मि",
      "न्</w>"
    ],
    [
      "म्",
      "।</w>"
    ],
    [
      "य",
      "ं</w>"
    ],
    [
      "प्र",
      "ाप"
    ],
    [
      "क",
      "ि"
    ],
    [
      "त्र",
      "</w>"
    ],
    [
      "न्",
      "ति।</w>"
    ],
    [
      "फ",
      "़"
    ],
    [
      "ा",
      "स"
    ],
    [
      "क",
      "र्"
    ],
    [
      "ना",
      "म"
    ],
    [
      "र",
      "ूप"
    ],
    [
      "म",
      "ह"
    ],
    [
      ".",
      "</w>"
    ],
    [
      "अ",
      "भव"
    ],
    [
      "ल",
      "्</w>"
    ],
    [
      "क",
      "ाल"
    ],
    [
      "ा",
      "ण"
    ],
    [
      "ौ",
      "</w>"
    ],
    [
      "प्र",
      "ति"
    ],
    [
      "य",
      "े</w>"
    ],
    [
      "ल",
      "े"
    ],
    [
      "त्",
      ",</w>"
    ],
    [
      "न",
      "ो"
    ],
    [
      "ु",
      "ं</w>"
    ],
    [
      "कृ",
      "त"
    ],
    [
      "तु",
      "ं</w>"
    ],
    [
      "द",
      "ा</w>"
    ],
    [
      "्य",
      "न्त"
    ],
    [
      "ा",
      "म्</w>"
    ],
    [
      "इत्य",
      "ेत"
    ],
    [
      "अध",
      "िक"
    ],
    [
      "र",
      "े"
    ],
    [
      "न्",
      "।</w>"
    ],
    [
      "च",
      "्"
    ],
    [
      "स्थ",
      "ान"
    ],
    [
      "य",
      "त्</w>"
    ],
    [
      "य",
      "ः</w>"
    ],
    [
      "च",
      "ल"
    ],
    [
      "अन",
      "्य"
    ],
    [
      "भ",
      "ू"
    ],
    [
      "व",
      "े"
    ],
    [
      "ल",
      "ा"
    ],
    [
      "द",
      "ं</w>"
    ],
    [
      "म",
      "ध्य"
    ],
    [
      "ब",
      "्"
    ],
    [
      "न",
      "े"
    ],
    [
      "न",
      "ेन</w>"
    ],
    [
      "वि",
      "ष"
    ],
    [
      "द",
      "ा"
    ],
    [
      "प",
      "्"
    ],
    [
      "भा",
      "ग"
    ],
    [
      "स्",
      "म"
    ],
    [
      "द",
      "ृ"
    ],
    [
      "प्र",
      "ा"
    ],
    [
      ".",
      "ए"
    ],
    [
      "प्राप",
      "्"
    ],
    [
      "र्",
      "श"
    ],
    [
      "वि",
      "द्य"
    ],
    [
      "क",
      "ः</w>"
    ],
    [
      "२०",
      "१"
    ],
    [
      "ण",
      "ं</w>"
    ],
    [
      "ब",
      "ह"
    ],
    [
      "म्",
      "ब"
    ],
    [
      "र",
      "ु"
    ],
    [
      "र",
      "ि"
    ],
    [
      "न",
      "ा</w>"
    ],
    [
      "कृ",
      "ते</w>"
    ],
    [
      "च्",
      "छ"
    ],
    [
      "द",
      "ु"
    ],
    [
      "ट",
      "्"
    ],
    [
      "सह",
      "</w>"
    ],
    [
      "े",
      ",</w>"
    ],
    [
      "स",
      "र्व"
    ],
    [
      "ख",
      "्य"
    ],
    [
      "अन",
      "ु"
    ],
    [
      "ृ",
      "ह"
    ],
    [
      "भव",
      "ति।</w>"
    ],
    [
      "प्र",
      "ाय"
    ],
    [
      "क",
      "रो"
    ],
    [
      "ञ्",
      "च"
    ],
    [
      "न्त",
      "र"
    ],
    [
      "वर्",
      "त"
    ],
    [
      "च्च",
      "ित्र"
    ],
    [
      "कार",
      "्य"
    ],
    [
      "रूप",
      "ेण</w>"
    ],
    [
      "प",
      "े"
    ],
    [
      "र्",
      "ग"
    ],
    [
      "चल",
      "च्चित्र"
    ],
    [
      "-",
      "</w>"
    ],
    [
      "सन्",
      "ति।</w>"
    ],
    [
      "ज",
      "ा"
    ],
    [
      "ट",
      "्</w>"
    ],
    [
      "े",
      "क"
    ],
    [
      "ल",
      "ो"
    ],
    [
      "ित",
      "ः</w>"
    ],
    [
      "१",
      "</w>"
    ],
    [
      "स्",
      "मिन्</w>"
    ],
    [
      "व",
      "ृ"
    ],
    [
      "दि",
      "ना"
    ],
    [
      "न",
      "ः</w>"
    ],
    [
      "पू",
      "र्व"
    ],
    [
      "आ",
      "र"
    ],
    [
      "भ्य",
      "ः</w>"
    ],
    [
      "े",
      "।</w>"
    ],
    [
      "ट",
      "ि"
    ],
    [
      "थ",
      "म"
    ],
    [
      "स",
      "ु"
    ],
    [
      "व",
      "र"
    ],
    [
      "ी",
      "त"
    ],
    [
      "२",
      "</w>"
    ],
    [
      "इत्य",
      "नेन</w>"
    ],
    [
      "ाय",
      "ां</w>"
    ],
    [
      "५",
      "</w>"
    ],
    [
      "ह",
      "ि"
    ],
    [
      "ेष",
      "ां</w>"
    ],
    [
      "त",
      "या</w>"
    ],
    [
      "प्राय",
      "ः</w>"
    ],
    [
      "यो",
      "ग"
    ],
    [
      "श",
      "्य"
    ],
    [
      "मा",
      "स"
    ],
    [
      "राज्य",
      "स्य</w>"
    ],
    [
      "ब",
      "ा"
    ],
    [
      "क्ष",
      "े"
    ],
    [
      "प्र",
      "थम"
    ],
    [
      "यो",
      "ः</w>"
    ],
    [
      "न्",
      "त्र"
    ],
    [
      "अ",
      "थ"
    ],
    [
      "स",
      "ङ्"
    ],
    [
      "एत",
      "त्</w>"
    ],
    [
      "नगर",
      "े</w>"
    ],
    [
      "स्",
      "प"
    ],
    [
      "ज",
      "ी"
    ],
    [
      "मध्य",
      "े</w>"
    ],
    [
      "अ",
      "न्त"
    ],
    [
      "ग",
      "ु"
    ],
    [
      "य",
      "ित"
    ],
    [
      "क",
      "ं</w>"
    ],
    [
      "स",
      "ा</w>"
    ],
    [
      "देश",
      "े</w>"
    ],
    [
      "द",
      "र्श"
    ],
    [
      "अ",
      "व"
    ],
    [
      "ी",
      "न"
    ],
    [
      "म",
      "ू"
    ],
    [
      "७",
      "</w>"
    ],
    [
      "पर",
      "्यन्त"
    ],
    [
      "ि",
      "ण"
    ],
    [
      "६",
      "</w>"
    ],
    [
      "४",
      "</w>"
    ],
    [
      "व",
      "ार"
    ],
    [
      "जन",
      "ाः</w>"
    ],
    [
      "ा",
      "म"
    ],
    [
      "अ",
      "स्य</w>"
    ],
    [
      "स्य",
      "ाः</w>"
    ],
    [
      "उ",
      "त्त"
    ],
    [
      "८",
      "</w>"
    ],
    [
      "म",
      "ित"
    ],
    [
      "स",
      "ू"
    ],
    [
      "वा",
      "न्।</w>"
    ],
    [
      "र",
      "िक"
    ],
    [
      "२०",
      "०"
    ],
    [
      "न्",
      ",</w>"
    ],
    [
      "ण",
      "्ट"
    ],
    [
      "ड",
      "ि"
    ],
    [
      "ब",
      "्र"
    ],
    [
      "३",
      "</w>"
    ],
    [
      "पर",
      "न्त"
    ],
    [
      "क्षे",
      "त्र"
    ],
    [
      "क",
      "रण"
    ],
    [
      "त",
      "ा</w>"
    ],
    [
      "अभव",
      "त्।</w>"
    ],
    [
      "र्थ",
      "ं</w>"
    ],
    [
      "र्",
      "ण"
    ],
    [
      "त",
      "ीय"
    ],
    [
      "दिना",
      "ङ्क"
    ],
    [
      "ं",
      "श"
    ],
    [
      "म",
      "ो"
    ],
    [
      "म्",
      "प"
    ],
    [
      "न्य",
      "ू"
    ],
    [
      "न्",
      "ध"
    ],
    [
      "न्",
      "द"
    ],
    [
      "ल",
      "ं</w>"
    ],
    [
      "ट",
      "्-"
    ],
    [
      "च",
      "ि"
    ],
    [
      "ट",
      "े"
    ],
    [
      "त्",
      "व"
    ],
    [
      "यु",
      "क्त"
    ],
    [
      "ी",
      "प"
    ],
    [
      "क्र",
      "म"
    ],
    [
      "क",
      "्</w>"
    ],
    [
      "ए",
      "व</w>"
    ],
    [
      "ष्ट",
      "्र"
    ],
    [
      "विश",
      "ेष"
    ],
    [
      "न्",
      "न"
    ],
    [
      "उ",
      "त्"
    ],
    [
      "द",
      "े"
    ],
    [
      "ान",
      "ि"
    ],
    [
      "भव",
      "ान्</w>"
    ],
    [
      "ड",
      "्</w>"
    ],
    [
      "ब",
      "ाल"
    ],
    [
      "श",
      "ा"
    ],
    [
      "दिनाङ्क",
      "े</w>"
    ],
    [
      "अथ",
      "वा</w>"
    ],
    [
      "र्",
      "ध"
    ],
    [
      "ग",
      "ो"
    ],
    [
      "भा",
      "ष"
    ],
    [
      "्य",
      "ते।</w>"
    ],
    [
      "म्",
      "-"
    ],
    [
      "ग",
      "ृह"
    ],
    [
      "त",
      "ं</w>"
    ],
    [
      "न",
      "स्य</w>"
    ],
    [
      "च",
      "ित"
    ],
    [
      ")",
      "</w>"
    ],
    [
      "न",
      "े</w>"
    ],
    [
      "द",
      "्"
    ],
    [
      "अस्",
      "ति,</w>"
    ],
    [
      "ल",
      "्य"
    ],
    [
      "परन्त",
      "ु</w>"
    ],
    [
      "न",
      "ु"
    ],
    [
      "ाय",
      "</w>"
    ],
    [
      "पर्यन्त",
      "ं</w>"
    ],
    [
      "अ",
      "ह"
    ],
    [
      "व",
      "त्</w>"
    ],
    [
      "य",
      "दा</w>"
    ],
    [
      "अ",
      "मे"
    ],
    [
      "अ",
      "भि"
    ],
    [
      "विश",
      "्व"
    ],
    [
      "नि",
      "य"
    ],
    [
      "व",
      "ै"
    ],
    [
      "ल",
      "ी"
    ],
    [
      "त्",
      "वा</w>"
    ],
    [
      "स्थ",
      "ाप"
    ],
    [
      "र",
      "िय"
    ],
    [
      "त",
      "।</w>"
    ],
    [
      "ाल",
      "य"
    ],
    [
      "ड",
      "े"
    ],
    [
      "यित",
      "ुं</w>"
    ],
    [
      "न",
      "िक"
    ],
    [
      "ो",
      "</w>"
    ],
    [
      "इ",
      "ति।</w>"
    ],
    [
      "अमे",
      "रिक"
    ],
    [
      "नगर",
      "स्य</w>"
    ],
    [
      "मा",
      "ण"
    ],
    [
      "न",
      "ी"
    ],
    [
      "र्",
      "ह"
    ],
    [
      "क",
      "थ"
    ],
    [
      "भव",
      "तः</w>"
    ],
    [
      "न्",
      "ति</w>"
    ],
    [
      "म",
      "ृ"
    ],
    [
      "ब",
      "ि"
    ],
    [
      "म",
      "ी"
    ],
    [
      "ल्",
      "प"
    ],
    [
      "अस्",
      "ति</w>"
    ],
    [
      "ष्",
      "ठ"
    ],
    [
      "क",
      "ाः</w>"
    ],
    [
      "अ",
      "न्"
    ],
    [
      "ध",
      "ान"
    ],
    [
      "क",
      "स्य</w>"
    ],
    [
      "मु",
      "ख"
    ],
    [
      "म्",
      ",</w>"
    ],
    [
      "कु",
      "र्व"
    ],
    [
      "ब",
      "े"
    ],
    [
      "स",
      "ै"
    ],
    [
      "प",
      "ो"
    ],
    [
      "भि",
      "ः</w>"
    ],
    [
      "म",
      "ण्ड"
    ],
    [
      "ड",
      "्-"
    ],
    [
      "ड",
      "्"
    ],
    [
      "ह",
      "ा"
    ],
    [
      "इत्य",
      "े"
    ],
    [
      "प्र",
      "ति</w>"
    ],
    [
      "ध",
      "िक"
    ],
    [
      "श",
      "क्"
    ],
    [
      "न्तर",
      "ं</w>"
    ],
    [
      "ज",
      "़"
    ],
    [
      "आ",
      "सन्"
    ],
    [
      "ग",
      "्"
    ],
    [
      "९",
      "</w>"
    ],
    [
      "मान",
      "्य"
    ],
    [
      "कर्",
      "तुं</w>"
    ],
    [
      "इ",
      "दं</w>"
    ],
    [
      "प्र",
      "देश"
    ],
    [
      "विष",
      "ये</w>"
    ],
    [
      "न",
      "म्</w>"
    ],
    [
      "स",
      "ङ्ग"
    ],
    [
      "ि",
      "ः</w>"
    ],
    [
      "पू",
      "र्ण"
    ],
    [
      "पु",
      "र"
    ],
    [
      "इत्य",
      "त्र</w>"
    ],
    [
      "ल",
      "ै"
    ],
    [
      "व",
      "ः</w>"
    ],
    [
      "\"",
      "</w>"
    ],
    [
      "इ",
      "ती"
    ],
    [
      "स",
      "मा"
    ],
    [
      "स्व",
      "स्य</w>"
    ],
    [
      "श",
      "ास"
    ],
    [
      "सं",
      "स्थ"
    ],
    [
      "ध",
      "ार"
    ],
    [
      "क्र",
      "िय"
    ],
    [
      "अन",
      "ेक"
    ],
    [
      "सा",
      "मान्य"
    ],
    [
      "र",
      "क्ष"
    ],
    [
      "ल",
      "स्य</w>"
    ],
    [
      "इत्य",
      "ेष"
    ],
    [
      "एक",
      "ः</w>"
    ],
    [
      "द",
      "ी"
    ],
    [
      "र",
      "ी"
    ],
    [
      "क",
      "्-"
    ],
    [
      "प",
      "ि"
    ],
    [
      "प",
      "ाल"
    ],
    [
      "०",
      "०</w>"
    ],
    [
      "प्र",
      "त्य"
    ],
    [
      "च",
      "े"
    ],
    [
      "िक",
      "्-"
    ],
    [
      "ले",
      "ख"
    ],
    [
      "त",
      "दा</w>"
    ],
    [
      "स्थ",
      "ित"
    ],
    [
      "भार",
      "तस्य</w>"
    ],
    [
      "वर्ष",
      "स्य</w>"
    ],
    [
      "ते",
      ",</w>"
    ],
    [
      "ेण",
      "्ट"
    ],
    [
      "ण",
      "ा"
    ],
    [
      "एक",
      "ं</w>"
    ],
    [
      "म",
      "</w>"
    ],
    [
      "रो",
      "ग"
    ],
    [
      "्य",
      "ू"
    ],
    [
      "मु",
      "ख्य"
    ],
    [
      "स",
      "ो"
    ],
    [
      "य",
      "द"
    ],
    [
      "सू",
      "च"
    ],
    [
      "निर्",
      "मित"
    ],
    [
      "ा",
      ",</w>"
    ],
    [
      "त",
      "ु</w>"
    ],
    [
      "ण्ड",
      "्-"
    ],
    [
      "भव",
      "न्ति।</w>"
    ],
    [
      "सि",
      "द्ध"
    ],
    [
      "ज",
      "ि"
    ],
    [
      "या",
      "वत्</w>"
    ],
    [
      "तु",
      "म्</w>"
    ],
    [
      "द",
      "ू"
    ],
    [
      "म्",
      "भ"
    ],
    [
      "श",
      "क"
    ],
    [
      "य",
      "ू"
    ],
    [
      "बह",
      "ु"
    ],
    [
      "िक",
      "-"
    ],
    [
      "इत्य",
      "ा"
    ],
    [
      "च",
      "ार"
    ],
    [
      "ान",
      "ाम्</w>"
    ],
    [
      "न्",
      "द्र"
    ],
    [
      "क",
      "-"
    ],
    [
      "रा",
      "ष्ट्र"
    ],
    [
      "ल",
      "क्ष"
    ],
    [
      "अस्",
      "मिन्</w>"
    ],
    [
      "पा",
      "द"
    ],
    [
      "यु",
      "द्ध"
    ],
    [
      "अह",
      "ं</w>"
    ],
    [
      "प",
      "द"
    ],
    [
      "स्",
      "त्र"
    ],
    [
      "भार",
      "तीय"
    ],
    [
      "ाण",
      "ि</w>"
    ],
    [
      "ाप",
      "ि</w>"
    ],
    [
      "प",
      "श्च"
    ],
    [
      "ष",
      "ु</w>"
    ],
    [
      "वि",
      "ध"
    ],
    [
      "मा",
      "र्ग"
    ],
    [
      "त",
      "ेषां</w>"
    ],
    [
      "व",
      "न्त"
    ],
    [
      "च",
      "ित्र"
    ],
    [
      "ए",
      "ष"
    ],
    [
      "त",
      "त्</w>"
    ],
    [
      "श",
      "ु"
    ],
    [
      "्य",
      "ं</w>"
    ],
    [
      "१९",
      "९"
    ],
    [
      "े",
      "भ्यः</w>"
    ],
    [
      "वा",
      "ह"
    ],
    [
      "ब",
      "न्ध"
    ],
    [
      "यद",
      "ि</w>"
    ],
    [
      "ो",
      "-"
    ],
    [
      "स",
      "ार"
    ],
    [
      "व",
      "ी"
    ],
    [
      "व्य",
      "व"
    ],
    [
      "ै",
      "</w>"
    ],
    [
      "ित",
      "ाः</w>"
    ],
    [
      "आसन्",
      "।</w>"
    ],
    [
      "क",
      "्ट"
    ],
    [
      "आ",
      "र्"
    ],
    [
      "क्ष",
      "िण"
    ],
    [
      "ति",
      "ः</w>"
    ],
    [
      "र",
      "ं</w>"
    ],
    [
      "स",
      "र्"
    ],
    [
      "यो",
      "ज"
    ],
    [
      "ह",
      "ार"
    ],
    [
      "ण",
      "ि</w>"
    ],
    [
      "स्प",
      "र्ध"
    ],
    [
      "न",
      "ै"
    ],
    [
      "ग",
      "च्छ"
    ],
    [
      "ो",
      "र्"
    ],
    [
      "न्",
      "स्</w>"
    ],
    [
      "स्म",
      "।</w>"
    ],
    [
      "का",
      "र्"
    ],
    [
      "य",
      "स्य</w>"
    ],
    [
      "व",
      "ान्</w>"
    ],
    [
      "ङ्ग",
      "्</w>"
    ],
    [
      "न",
      "ां</w>"
    ],
    [
      "ज",
      "े"
    ],
    [
      "य",
      "ेन</w>"
    ],
    [
      "ट",
      "्र"
    ],
    [
      "्य",
      "</w>"
    ],
    [
      "य",
      "ति।</w>"
    ],
    [
      "उत्त",
      "र"
    ],
    [
      "ाण",
      "ां</w>"
    ],
    [
      "र्",
      "म"
    ],
    [
      "भव",
      "े"
    ],
    [
      "य",
      "त्र</w>"
    ],
    [
      "प्र",
      "दर्श"
    ],
    [
      "ि",
      "म"
    ],
    [
      "ु",
      ",</w>"
    ],
    [
      "अ",
      "प"
    ],
    [
      "ीय",
      "-"
    ],
    [
      "न्त",
      "े।</w>"
    ],
    [
      "आसी",
      "त्,</w>"
    ],
    [
      "न",
      "-"
    ],
    [
      "ास",
      "ु</w>"
    ],
    [
      "च",
      "।</w>"
    ],
    [
      "ल",
      "िय"
    ],
    [
      "ित",
      "ं</w>"
    ],
    [
      "दृ",
      "श"
    ],
    [
      "भव",
      "ति</w>"
    ],
    [
      "म",
      "ै"
    ],
    [
      "स",
      "द"
    ],
    [
      "कार",
      "ण"
    ],
    [
      "प्र",
      "सिद्ध"
    ],
    [
      "अ",
      "यं</w>"
    ],
    [
      "स्य",
      ",</w>"
    ],
    [
      "त",
      "ाः</w>"
    ],
    [
      "द",
      "ान"
    ],
    [
      "नि",
      "व"
    ],
    [
      "द",
      "क्षिण"
    ],
    [
      "जी",
      "व"
    ],
    [
      "काल",
      "े</w>"
    ],
    [
      "प्र",
      "मुख"
    ],
    [
      "श",
      "ो"
    ],
    [
      "वर",
      "्य"
    ],
    [
      "च",
      "न</w>"
    ],
    [
      "ग",
      "ा"
    ],
    [
      "र्",
      "ज"
    ],
    [
      "ार",
      "ा"
    ],
    [
      "प",
      "ृ"
    ],
    [
      "ग",
      "ण"
    ],
    [
      "ग्र",
      "ह"
    ],
    [
      "व",
      "्या"
    ],
    [
      "स्व",
      "ा"
    ],
    [
      "वर्",
      "ण"
    ],
    [
      "वृ",
      "त्त"
    ],
    [
      "त्",
      "स"
    ],
    [
      "न्",
      "ति,</w>"
    ],
    [
      "उप",
      "योग"
    ],
    [
      "ब्",
      "ध"
    ],
    [
      "के",
      "व"
    ],
    [
      "पे",
      "क्ष"
    ],
    [
      "भा",
      "व"
    ],
    [
      "न",
      "ू"
    ],
    [
      "ङ्ग",
      "्-"
    ],
    [
      "इत्य",
      "स्मिन्</w>"
    ],
    [
      "ित",
      "ा</w>"
    ],
    [
      "अ",
      "त्य"
    ],
    [
      "ा",
      "ंश"
    ],
    [
      "र",
      "े</w>"
    ],
    [
      "्",
      ",</w>"
    ],
    [
      "ज",
      "ल"
    ],
    [
      "ह",
      "े"
    ],
    [
      "र",
      "ः</w>"
    ],
    [
      "द",
      "त्त"
    ],
    [
      "म",
      "ार"
    ],
    [
      "दि",
      "श"
    ],
    [
      "ल",
      "घ"
    ],
    [
      "ा",
      "ः,</w>"
    ],
    [
      "त",
      "थ"
    ],
    [
      "न",
      "ी</w>"
    ],
    [
      "प",
      "त्र"
    ],
    [
      "वा",
      "स"
    ],
    [
      "ना",
      "म्"
    ],
    [
      "ध",
      "ि"
    ],
    [
      "ञ्",
      "ज"
    ],
    [
      "ब",
      "ी"
    ],
    [
      "ल्",
      "ल"
    ],
    [
      "ण",
      "ां</w>"
    ],
    [
      "कार्य",
      "ं</w>"
    ],
    [
      "ू",
      "ह"
    ],
    [
      "नाम",
      "</w>"
    ],
    [
      "इत्येष",
      "ः</w>"
    ],
    [
      "त",
      "ां</w>"
    ],
    [
      "स्ट",
      "्र"
    ],
    [
      "ङ्ग",
      "्ल"
    ],
    [
      "द्व",
      "ित"
    ],
    [
      "द",
      "श"
    ],
    [
      "इती",
      "दं</w>"
    ],
    [
      "सा",
      "ह"
    ],
    [
      "चित",
      "्</w>"
    ],
    [
      "मा",
      "र्"
    ],
    [
      "म",
      "न्"
    ],
    [
      "र्ह",
      "ि</w>"
    ],
    [
      "मा",
      "त्</w>"
    ],
    [
      "का",
      "श"
    ],
    [
      "वर्",
      "ध"
    ],
    [
      "त",
      "र्हि</w>"
    ],
    [
      "त",
      "तः</w>"
    ],
    [
      "ह",
      "ो"
    ],
    [
      "राज्य",
      "े</w>"
    ],
    [
      "म",
      "म</w>"
    ],
    [
      "स",
      "ौ</w>"
    ],
    [
      "ित",
      "म्</w>"
    ],
    [
      "ब",
      "ृह"
    ],
    [
      "द",
      "ल"
    ],
    [
      "श",
      "ी"
    ],
    [
      "दृ",
      "श्य"
    ],
    [
      "प्राप्",
      "त"
    ],
    [
      "वर्त",
      "ते।</w>"
    ],
    [
      "फ",
      "ल"
    ],
    [
      "सम",
      "ीप"
    ],
    [
      "मह",
      "ा"
    ],
    [
      "ल",
      "्ड"
    ],
    [
      "२०",
      "</w>"
    ],
    [
      "अ",
      "पेक्ष"
    ],
    [
      "तु",
      "।</w>"
    ],
    [
      "य",
      "त्।</w>"
    ],
    [
      "ग्र",
      "ा"
    ],
    [
      "ान",
      "ु"
    ],
    [
      "्",
      "स्</w>"
    ],
    [
      "स्",
      "क"
    ],
    [
      "उप",
      "यु"
    ],
    [
      "१९",
      "८"
    ],
    [
      "नाम",
      "कः</w>"
    ],
    [
      "ट",
      "ी"
    ],
    [
      "अ",
      "करो"
    ],
    [
      "च",
      "िक"
    ],
    [
      "सन्",
      "ति</w>"
    ],
    [
      "सम",
      "ूह"
    ],
    [
      "म",
      "न्य"
    ],
    [
      "ु",
      "म्</w>"
    ],
    [
      "द्व",
      "ार"
    ],
    [
      "अ",
      "ति"
    ],
    [
      "आसी",
      "त्</w>"
    ],
    [
      "त्य",
      "</w>"
    ],
    [
      "ब",
      "्ल"
    ],
    [
      "ज",
      "्य"
    ],
    [
      "ब",
      "द्ध"
    ],
    [
      ".ए",
      "स्"
    ],
    [
      "न्",
      "दु"
    ],
    [
      "प",
      "ण"
    ],
    [
      "निर्",
      "मा"
    ],
    [
      "य",
      "ान"
    ],
    [
      "त्त",
      "्व"
    ],
    [
      "िय",
      "ा</w>"
    ],
    [
      "शक्",
      "नो"
    ],
    [
      "त्",
      "म"
    ],
    [
      "ब",
      "ो"
    ],
    [
      "नगर",
      "ं</w>"
    ],
    [
      "केव",
      "लं</w>"
    ],
    [
      "त",
      "स्याः</w>"
    ],
    [
      "व",
      "य"
    ],
    [
      "न",
      "ानि</w>"
    ],
    [
      "त",
      "द"
    ],
    [
      "य",
      "था</w>"
    ],
    [
      "िय",
      "ा-"
    ],
    [
      "मे",
      "व</w>"
    ],
    [
      "मास",
      "े</w>"
    ],
    [
      "शि",
      "क्ष"
    ],
    [
      "द्वित",
      "ीय"
    ],
    [
      "िक",
      "ा</w>"
    ],
    [
      "लो",
      "क"
    ],
    [
      "प्र",
      "े"
    ],
    [
      "१९",
      "७"
    ],
    [
      "प",
      "ी"
    ],
    [
      "स्",
      ",</w>"
    ],
    [
      "म",
      "पि</w>"
    ],
    [
      "ित",
      "म्।</w>"
    ],
    [
      "स्",
      "ता"
    ],
    [
      "प्र",
      "कार"
    ],
    [
      "सम",
      "ु"
    ],
    [
      "भव",
      "ति,</w>"
    ],
    [
      "भि",
      "न्न"
    ],
    [
      "र्",
      "घ"
    ],
    [
      "मू",
      "ल"
    ],
    [
      "१",
      "८"
    ],
    [
      "ो",
      "ष"
    ],
    [
      "ग",
      "त"
    ],
    [
      "क",
      "ल्प"
    ],
    [
      "राष्ट्र",
      "िय"
    ],
    [
      "्यन्त",
      "े।</w>"
    ],
    [
      "पु",
      "त्र"
    ],
    [
      "प",
      "क्ष"
    ],
    [
      "व्य",
      "ाप"
    ],
    [
      "पु",
      "नः</w>"
    ],
    [
      "ष्",
      "ण"
    ],
    [
      "विष",
      "्य"
    ],
    [
      "श",
      "्"
    ],
    [
      "लि",
      "ख"
    ],
    [
      "य",
      "ि"
    ],
    [
      "क",
      "ल"
    ],
    [
      "अध",
      "्य"
    ],
    [
      "प्राप्",
      "नो"
    ],
    [
      "व",
      "ाय"
    ],
    [
      "भ",
      "वि"
    ],
    [
      "जा",
      "त"
    ],
    [
      "लघ",
      "ु"
    ],
    [
      "ज्ञ",
      "ा"
    ],
    [
      "ण",
      "स्य</w>"
    ],
    [
      "अन्य",
      "तम"
    ],
    [
      "चिक",
      "ि"
    ],
    [
      "सन्",
      "ति,</w>"
    ],
    [
      "स",
      "ि</w>"
    ],
    [
      "पूर्व",
      "ं</w>"
    ],
    [
      "नु",
      "व"
    ],
    [
      "इत्येत",
      "त्</w>"
    ],
    [
      "क",
      "ौ"
    ],
    [
      "ट",
      "ो"
    ],
    [
      "वा",
      "द"
    ],
    [
      "नि",
      "र"
    ],
    [
      "वि",
      "क्र"
    ],
    [
      "त",
      "ृ"
    ],
    [
      "नू",
      "त"
    ],
    [
      "क",
      "र"
    ],
    [
      "मण्ड",
      "ल"
    ],
    [
      "-",
      "प्र"
    ],
    [
      "त",
      "न्त्र"
    ],
    [
      "ब्र",
      "ि"
    ],
    [
      "के",
      "न्द्र"
    ],
    [
      "उ",
      "द्"
    ],
    [
      "ड",
      "ी"
    ],
    [
      "ए",
      "व"
    ],
    [
      "व",
      "ेष"
    ],
    [
      "व",
      "ह"
    ],
    [
      "स",
      "न्</w>"
    ],
    [
      "श",
      "्-"
    ],
    [
      "ब",
      "्या"
    ],
    [
      "स्",
      "कार"
    ],
    [
      "क",
      "्य"
    ],
    [
      "क्",
      "ल"
    ],
    [
      "वार",
      "ं</w>"
    ],
    [
      "म",
      "ः</w>"
    ],
    [
      "य",
      "े"
    ],
    [
      "ा",
      "व"
    ],
    [
      "मू",
      "ल्य"
    ],
    [
      "का",
      "स"
    ],
    [
      "ण्ड",
      "्</w>"
    ],
    [
      "ान",
      "ा"
    ],
    [
      "स्ट",
      "्</w>"
    ],
    [
      "दृ",
      "ष्ट"
    ],
    [
      "सर्व",
      "कार"
    ],
    [
      "स्ट",
      "्-"
    ],
    [
      "ा",
      "र्"
    ],
    [
      "सङ्",
      "ख्य"
    ],
    [
      "द",
      "्</w>"
    ],
    [
      "मन्",
      "दि"
    ],
    [
      "स्व",
      "ी"
    ],
    [
      "्",
      "रा"
    ],
    [
      "ग्र",
      "ाम"
    ],
    [
      "च",
      "र"
    ],
    [
      "प",
      "्</w>"
    ],
    [
      "श",
      "ता"
    ],
    [
      "ी",
      "क्ष"
    ],
    [
      "प",
      "र्व"
    ],
    [
      "ब",
      "ु"
    ],
    [
      "वि",
      "ज"
    ],
    [
      "च",
      "तु"
    ],
    [
      "भाग",
      "ः</w>"
    ],
    [
      "अमेरिक",
      "ा"
    ],
    [
      "रु",
      "द्ध"
    ],
    [
      "घ",
      "ा"
    ],
    [
      "द्य",
      "ाः</w>"
    ],
    [
      "न्त",
      "ः</w>"
    ],
    [
      "म",
      "ा</w>"
    ],
    [
      "य",
      "तः</w>"
    ],
    [
      "ग",
      "्</w>"
    ],
    [
      ",",
      "०"
    ],
    [
      "भ",
      "विष्य"
    ],
    [
      "मास",
      "स्य</w>"
    ],
    [
      "स्य",
      "ा"
    ],
    [
      "वा",
      "र्"
    ],
    [
      "ग",
      "म"
    ],
    [
      "पु",
      "न"
    ],
    [
      "पर",
      "ि</w>"
    ],
    [
      "इ",
      "न्"
    ],
    [
      "िय",
      "ो"
    ],
    [
      "इत्य",
      "यं</w>"
    ],
    [
      "विद्य",
      "ालय"
    ],
    [
      "द",
      "ाय"
    ],
    [
      "शता",
      "ब्"
    ],
    [
      "ग्र",
      "ी"
    ],
    [
      "र",
      "स्य</w>"
    ],
    [
      "ह",
      "ास"
    ],
    [
      "य",
      "म्</w>"
    ],
    [
      "पा",
      "त्र"
    ],
    [
      "े",
      "ः</w>"
    ],
    [
      "ष",
      "्य"
    ],
    [
      "आ",
      "व"
    ],
    [
      "वा",
      "न्,</w>"
    ],
    [
      "प",
      "्ल"
    ],
    [
      "साह",
      "ाय"
    ],
    [
      "स",
      "प्"
    ],
    [
      "व",
      "स"
    ],
    [
      "पुर",
      "स्कार"
    ],
    [
      "द्व",
      "ीप"
    ],
    [
      "सद",
      "स्य"
    ],
    [
      "ानि",
      ",</w>"
    ],
    [
      "नाम्",
      "ना</w>"
    ],
    [
      "प्रत्य",
      "ेक"
    ],
    [
      "पर",
      "्य"
    ],
    [
      "के",
      "चन</w>"
    ],
    [
      "ि",
      "ल"
    ],
    [
      "न्त",
      "ं</w>"
    ],
    [
      "त",
      "</w>"
    ],
    [
      "-",
      "आ"
    ],
    [
      "अन",
      "न्तरं</w>"
    ],
    [
      "प्र",
      "ार"
    ],
    [
      "१९",
      "</w>"
    ],
    [
      "ो",
      "ः</w>"
    ],
    [
      "दे",
      "व"
    ],
    [
      "न",
      "ि</w>"
    ],
    [
      "१९",
      "६"
    ],
    [
      "विद्य",
      "ते।</w>"
    ],
    [
      "न",
      "ेत"
    ],
    [
      "दु",
      "र्ग"
    ],
    [
      "ट",
      "र्</w>"
    ],
    [
      "भ",
      "ो"
    ],
    [
      "द्वार",
      "ा</w>"
    ],
    [
      "मह",
      "त्त्व"
    ],
    [
      "म",
      "ं</w>"
    ],
    [
      "पश्च",
      "िम"
    ],
    [
      "करो",
      "ति।</w>"
    ],
    [
      "ित",
      "्</w>"
    ],
    [
      "च",
      "ाल"
    ],
    [
      "वर्ष",
      "े,</w>"
    ],
    [
      "िय",
      "न्-"
    ],
    [
      "एष",
      "ा</w>"
    ],
    [
      "प्र",
      "ो"
    ],
    [
      "ज",
      "ु"
    ],
    [
      "निर्",
      "माण"
    ],
    [
      "प्र",
      "िय"
    ],
    [
      "न",
      ",</w>"
    ],
    [
      "परि",
      "वर्त"
    ],
    [
      "प",
      "ीड"
    ],
    [
      "-",
      "राज्यस्य</w>"
    ],
    [
      "ख",
      "ा"
    ],
    [
      "र",
      "ी</w>"
    ],
    [
      "आर",
      "ब्ध"
    ],
    [
      "द",
      "ः</w>"
    ],
    [
      "म्ब",
      "र्</w>"
    ],
    [
      "च",
      "ीन"
    ],
    [
      "क",
      "म्</w>"
    ],
    [
      "ग",
      "ीत"
    ],
    [
      "र्",
      "स्</w>"
    ],
    [
      "स्",
      "तु"
    ],
    [
      "श",
      "्व"
    ],
    [
      "घ",
      "ट"
    ],
    [
      "स्",
      "मात्</w>"
    ],
    [
      "ज",
      "्"
    ],
    [
      "ग",
      "े"
    ],
    [
      "ाय",
      "ा"
    ],
    [
      "क्रीड",
      "ायाः</w>"
    ],
    [
      "उ",
      "परि</w>"
    ],
    [
      "दी",
      "र्घ"
    ],
    [
      "व्यव",
      "स्थ"
    ],
    [
      "ल",
      "ु"
    ],
    [
      "दिश",
      "ि</w>"
    ],
    [
      "य",
      "ति</w>"
    ],
    [
      "त",
      "त्र</w>"
    ],
    [
      "सा",
      "म्"
    ],
    [
      "ित",
      "ा"
    ],
    [
      "अकरो",
      "त्।</w>"
    ],
    [
      "सम",
      "र्थ"
    ],
    [
      "ारा",
      "ष्ट्र"
    ],
    [
      "क्त",
      "ि"
    ],
    [
      "त",
      "म्</w>"
    ],
    [
      "सं",
      "स्"
    ],
    [
      "त",
      "ः।</w>"
    ],
    [
      "क",
      "ी"
    ],
    [
      "प्र",
      "देशस्य</w>"
    ],
    [
      "सम",
      "ये</w>"
    ],
    [
      "श",
      "ै"
    ],
    [
      "अ",
      "द्य"
    ],
    [
      "प",
      "ञ्च"
    ],
    [
      "सर्",
      "वा"
    ],
    [
      "ग",
      "ि"
    ],
    [
      "न्त",
      "े</w>"
    ],
    [
      "ार",
      "ः</w>"
    ],
    [
      "आव",
      "श्य"
    ],
    [
      ".",
      "सी"
    ],
    [
      "प",
      "्ट"
    ],
    [
      "रु",
      "ष"
    ],
    [
      "नि",
      "श्च"
    ],
    [
      "ग्र",
      "े"
    ],
    [
      "सम्",
      "बद्ध"
    ],
    [
      "ए",
      "ता"
    ],
    [
      "स",
      "ञ्च"
    ],
    [
      "विद्य",
      "ाल"
    ],
    [
      "नगर",
      "म्</w>"
    ],
    [
      "ब",
      "्</w>"
    ],
    [
      "बृह",
      "त्त"
    ],
    [
      "मि",
      "।</w>"
    ],
    [
      "सा",
      "ध"
    ],
    [
      "स्ट",
      "े"
    ],
    [
      "पु",
      "रुष"
    ],
    [
      "उ",
      "द्य"
    ],
    [
      "ण",
      "ि"
    ],
    [
      "स्थान",
      "े</w>"
    ],
    [
      "वि",
      "रुद्ध"
    ],
    [
      "इ",
      "ण्ड"
    ],
    [
      "वि",
      "मान"
    ],
    [
      "न",
      "व"
    ],
    [
      "क",
      "े</w>"
    ],
    [
      "ण",
      "े</w>"
    ],
    [
      "अधिक",
      "ांश"
    ],
    [
      "पर",
      "ं</w>"
    ],
    [
      "दू",
      "र"
    ],
    [
      "र",
      "्य"
    ],
    [
      "भू",
      "व"
    ],
    [
      "प",
      "्-"
    ],
    [
      "स",
      "र"
    ],
    [
      "दि",
      "ने</w>"
    ],
    [
      "म",
      "न्त्र"
    ],
    [
      "वि",
      "स्त"
    ],
    [
      "प्र",
      "देशे</w>"
    ],
    [
      "च",
      "्</w>"
    ],
    [
      "ल्",
      "स्</w>"
    ],
    [
      "व",
      "स्त"
    ],
    [
      "सङ्ग",
      "ीत"
    ],
    [
      "न",
      "्या"
    ],
    [
      "आ",
      "ग"
    ],
    [
      "अ",
      "ग्र"
    ],
    [
      "क्",
      "स्</w>"
    ],
    [
      "ज",
      "ै"
    ],
    [
      "द्व",
      "ि"
    ],
    [
      "ब",
      "ै"
    ],
    [
      "करण",
      "ं</w>"
    ],
    [
      "न",
      "ौ"
    ],
    [
      "ड",
      "ो"
    ],
    [
      "ित",
      "ुं</w>"
    ],
    [
      "ज",
      "ू"
    ],
    [
      "ग",
      "्-"
    ],
    [
      "चलच्चित्र",
      "स्य</w>"
    ],
    [
      "वन्त",
      "ः।</w>"
    ],
    [
      "समीप",
      "े</w>"
    ],
    [
      "भ्य",
      "ां</w>"
    ],
    [
      "प्रथम",
      "ं</w>"
    ],
    [
      "द",
      "म्</w>"
    ],
    [
      "नि",
      "ष्"
    ],
    [
      "न",
      "ी-"
    ],
    [
      "निर्",
      "वा"
    ],
    [
      "स्थ",
      "ि"
    ],
    [
      "मा",
      "ध्य"
    ],
    [
      "ी",
      ",</w>"
    ],
    [
      "बाल",
      "्-"
    ],
    [
      "य",
      "त"
    ],
    [
      "ह",
      "ै"
    ],
    [
      "वर्",
      "ग"
    ],
    [
      "ी",
      "ं</w>"
    ],
    [
      "ख",
      "ण्ड"
    ],
    [
      "ित",
      "वान्।</w>"
    ],
    [
      "ब",
      "र्"
    ],
    [
      "प्र",
      "काश"
    ],
    [
      "ु",
      "ः</w>"
    ],
    [
      "अपेक्ष",
      "या</w>"
    ],
    [
      "भार",
      "ते</w>"
    ],
    [
      "अ",
      "भ"
    ],
    [
      "कृत",
      "वान्।</w>"
    ],
    [
      "्य",
      "ाः</w>"
    ],
    [
      "िक",
      "्</w>"
    ],
    [
      "निर्",
      "देश"
    ],
    [
      "प",
      "ञ्"
    ],
    [
      "प",
      "ार"
    ],
    [
      "त्",
      "-"
    ],
    [
      ",०",
      "००</w>"
    ],
    [
      "कि",
      "ञ्च"
    ],
    [
      "प",
      "य"
    ],
    [
      "ल",
      "ी</w>"
    ],
    [
      "क्रीड",
      "ा</w>"
    ],
    [
      "ल",
      "ा</w>"
    ],
    [
      "कारण",
      "ात्</w>"
    ],
    [
      "क",
      "ेन</w>"
    ],
    [
      "मु",
      "द्र"
    ],
    [
      "अन्",
      "ति"
    ],
    [
      "ए",
      "न्"
    ],
    [
      "यो",
      "जन"
    ],
    [
      "१९",
      "५"
    ],
    [
      "त",
      "ी</w>"
    ],
    [
      "न्",
      "स्-"
    ],
    [
      "दिना",
      "ङ्"
    ],
    [
      "अन्त",
      "र्"
    ],
    [
      "अ",
      "र्थ"
    ],
    [
      "एष",
      "ः</w>"
    ],
    [
      "व",
      "ती"
    ],
    [
      "क्र",
      "ो"
    ],
    [
      "उ",
      "च्च"
    ],
    [
      "से",
      "व"
    ],
    [
      "मृ",
      "त्य"
    ],
    [
      "ध",
      "नं</w>"
    ],
    [
      "क",
      "म्प"
    ],
    [
      "सम्",
      "प"
    ],
    [
      "ना",
      "स्"
    ],
    [
      "म",
      "त"
    ],
    [
      "ड",
      "ा"
    ],
    [
      "ब",
      "्-"
    ],
    [
      "त",
      "र"
    ],
    [
      "त्व",
      "ं</w>"
    ],
    [
      "चिकि",
      "त्स"
    ],
    [
      "ं",
      "स"
    ],
    [
      "इत्या",
      "द"
    ],
    [
      "ेश",
      "न्</w>"
    ],
    [
      "च",
      "ा"
    ],
    [
      "त्र",
      "ि"
    ],
    [
      "ीय",
      "ः</w>"
    ],
    [
      "आर",
      "म्भ"
    ],
    [
      "तम",
      "ान"
    ],
    [
      "त्व",
      "ेन</w>"
    ],
    [
      "इ",
      "च्छ"
    ],
    [
      "त",
      "स्मिन्</w>"
    ],
    [
      "फ",
      "े"
    ],
    [
      "्य",
      "ा</w>"
    ],
    [
      "ब",
      "भूव"
    ],
    [
      "ेष",
      "ु,</w>"
    ],
    [
      "ख",
      "्या"
    ],
    [
      "य",
      "द्य"
    ],
    [
      "व",
      "्</w>"
    ],
    [
      "परि",
      "ण"
    ],
    [
      "इत्ये",
      "ते</w>"
    ],
    [
      "क",
      "ानां</w>"
    ],
    [
      "ब",
      "ौ"
    ],
    [
      "अ",
      "सौ</w>"
    ],
    [
      "तथ",
      "ापि</w>"
    ],
    [
      "सम्",
      "पूर्ण"
    ],
    [
      "वि",
      "त्त"
    ],
    [
      "प्र",
      "ि"
    ],
    [
      "अ",
      "ङ्ग"
    ],
    [
      "यद्य",
      "पि</w>"
    ],
    [
      "चलच्चित्र",
      "ं</w>"
    ],
    [
      "शक्",
      "नुव"
    ],
    [
      "पू",
      "र्"
    ],
    [
      "अ",
      "ज"
    ],
    [
      "स",
      "ौ"
    ],
    [
      "य",
      "न्ति।</w>"
    ],
    [
      "क्षेत्र",
      "े</w>"
    ],
    [
      "रा",
      "म"
    ],
    [
      "िक",
      "ाः</w>"
    ],
    [
      "श",
      "ः</w>"
    ],
    [
      "तम",
      "स्य</w>"
    ],
    [
      "निर्",
      "म"
    ],
    [
      "ति",
      "हास"
    ],
    [
      "ब्रि",
      "टि"
    ],
    [
      "उत्",
      "पाद"
    ],
    [
      "पर",
      "ीक्ष"
    ],
    [
      "क",
      "ति"
    ],
    [
      "वय",
      "सि</w>"
    ],
    [
      "के",
      ",</w>"
    ],
    [
      "व",
      "ंश"
    ],
    [
      "ा",
      "र्थं</w>"
    ],
    [
      "न",
      "ाः</w>"
    ],
    [
      "ज",
      "ाल"
    ],
    [
      "व",
      "ेश"
    ],
    [
      "मह",
      "िल"
    ],
    [
      "स",
      "ु</w>"
    ],
    [
      "प",
      "राज"
    ],
    [
      "जन",
      "ानां</w>"
    ],
    [
      "२०",
      "२"
    ],
    [
      "ज्ञ",
      "ान"
    ],
    [
      "अधिक",
      "ार"
    ],
    [
      "वे",
      "द"
    ],
    [
      "अ",
      "ती"
    ],
    [
      "श",
      "े"
    ],
    [
      "निव",
      "ेश"
    ],
    [
      "म्ब",
      "र्-"
    ],
    [
      "म",
      "े</w>"
    ],
    [
      "ते",
      "ः</w>"
    ],
    [
      "कार्य",
      "क्रम"
    ],
    [
      "वर्य",
      "ः</w>"
    ],
    [
      "मि",
      "ल"
    ],
    [
      "पश्च",
      "ात्</w>"
    ],
    [
      "धिक",
      "ार"
    ],
    [
      "च",
      "्-"
    ],
    [
      "अ",
      "र्ह"
    ],
    [
      "नि",
      "या"
    ],
    [
      "न्-",
      "देशस्य</w>"
    ],
    [
      "त",
      "ायाः</w>"
    ],
    [
      "कृ",
      "त्वा</w>"
    ],
    [
      "न",
      "ाय"
    ],
    [
      "ऽ",
      "पि</w>"
    ],
    [
      "स्म",
      "ै</w>"
    ],
    [
      "क्रीड",
      "ायां</w>"
    ],
    [
      "ध",
      "ु"
    ],
    [
      "आ",
      "क्रम"
    ],
    [
      "ित",
      "ः।</w>"
    ],
    [
      "अभव",
      "त्,</w>"
    ],
    [
      "ेण्ट",
      "्</w>"
    ],
    [
      "क्रीड",
      "ा"
    ],
    [
      "िण",
      "ः</w>"
    ],
    [
      "भाग",
      "े</w>"
    ],
    [
      ".",
      "ऐ"
    ],
    [
      "त",
      "ट"
    ],
    [
      "्",
      "म"
    ],
    [
      "ङ्",
      "घ"
    ],
    [
      "स्य",
      "ां</w>"
    ],
    [
      "ह",
      "ि</w>"
    ],
    [
      "आ",
      "न"
    ],
    [
      "स्थ",
      "ल"
    ],
    [
      "त",
      "ेषु</w>"
    ],
    [
      "१९",
      "४"
    ],
    [
      "देश",
      "ः</w>"
    ],
    [
      "ि",
      "-"
    ],
    [
      "वि",
      "क"
    ],
    [
      "ू",
      "नि</w>"
    ],
    [
      "व",
      "्र"
    ],
    [
      "भवि",
      "तुम्</w>"
    ],
    [
      "फ",
      "्"
    ],
    [
      "क्ट",
      "ो"
    ],
    [
      "क्र",
      "ा"
    ],
    [
      "ल",
      "ी-"
    ],
    [
      "या",
      "त्र"
    ],
    [
      "वा",
      ",</w>"
    ],
    [
      "ज",
      "न्"
    ],
    [
      "ग्रा",
      "ह"
    ],
    [
      "वृ",
      "द्ध"
    ],
    [
      "वि",
      "विध"
    ],
    [
      "अधिक",
      "ं</w>"
    ],
    [
      "ट्",
      "स्</w>"
    ],
    [
      "आ",
      "ङ्ग्ल"
    ],
    [
      "उत्",
      "स"
    ],
    [
      "क",
      "ानि</w>"
    ],
    [
      "श्च",
      "न</w>"
    ],
    [
      "घ",
      "ोष"
    ],
    [
      "र",
      "-"
    ],
    [
      "फ़",
      "े"
    ],
    [
      "न",
      "ग"
    ],
    [
      "ब",
      "ल"
    ],
    [
      "र",
      "ी-"
    ],
    [
      "िक",
      "्"
    ],
    [
      "र",
      "च"
    ],
    [
      "ग",
      "ाय"
    ],
    [
      "प्रदेश",
      "ः</w>"
    ],
    [
      "स",
      "फल"
    ],
    [
      "रो",
      "ध"
    ],
    [
      "त",
      "-"
    ],
    [
      "ति",
      "ं</w>"
    ],
    [
      "ण",
      "म्</w>"
    ],
    [
      "म्",
      "स्</w>"
    ],
    [
      "बह",
      "वः</w>"
    ],
    [
      "सामान्य",
      "तया</w>"
    ],
    [
      "वर्",
      "तमान"
    ],
    [
      "सङ्",
      "घ"
    ],
    [
      "र",
      "क्त"
    ],
    [
      "भवे",
      "त्।</w>"
    ],
    [
      "त",
      "ो"
    ],
    [
      "कति",
      "पय"
    ],
    [
      "स्थान",
      "ं</w>"
    ],
    [
      "म",
      "स्"
    ],
    [
      "य",
      "थ"
    ],
    [
      "िक",
      "ा"
    ],
    [
      "निय",
      "न्त्र"
    ],
    [
      "प्र",
      "ेष"
    ],
    [
      "त",
      "ेन</w>"
    ],
    [
      "परि",
      "वार"
    ],
    [
      "र्",
      "ष"
    ],
    [
      "उपयु",
      "ज"
    ],
    [
      "मण्ड",
      "लस्य</w>"
    ],
    [
      "त",
      "ः,</w>"
    ],
    [
      "अमेरिका",
      "देशस्य</w>"
    ],
    [
      "र",
      "ू"
    ],
    [
      "त",
      "त्"
    ],
    [
      "दे",
      "ह"
    ],
    [
      "विश",
      "ि"
    ],
    [
      "पु",
      "रा"
    ],
    [
      "राज्य",
      "ं</w>"
    ],
    [
      "चि",
      "न्त"
    ],
    [
      "म्प",
      "िय"
    ],
    [
      "आ",
      "धार"
    ],
    [
      "िक",
      "ं</w>"
    ],
    [
      "क",
      "ेष"
    ],
    [
      "वर्ष",
      "ात्</w>"
    ],
    [
      "भारतीय",
      "-"
    ],
    [
      "ना",
      "र्थं</w>"
    ],
    [
      "आर",
      "भ्य"
    ],
    [
      "च",
      "र्"
    ],
    [
      "हि",
      "न्दु"
    ],
    [
      "अ",
      "तः</w>"
    ],
    [
      "जन",
      "वर"
    ],
    [
      "एव",
      "ं</w>"
    ],
    [
      "प",
      "्य"
    ],
    [
      "द",
      "लस्य</w>"
    ],
    [
      "१",
      "७"
    ],
    [
      "फ",
      "ु"
    ],
    [
      "दिनाङ्",
      "के,</w>"
    ],
    [
      "व",
      "ाल"
    ],
    [
      "र्थ",
      "म्</w>"
    ],
    [
      "िक",
      "ायाः</w>"
    ],
    [
      "निर्",
      "ण"
    ],
    [
      "क्र",
      "े"
    ],
    [
      "स",
      "ी</w>"
    ],
    [
      "महत्त्व",
      "पूर्ण"
    ],
    [
      "अती",
      "व</w>"
    ],
    [
      "अन्",
      "वेष"
    ],
    [
      "त",
      "ानि</w>"
    ],
    [
      "वर्",
      "ति"
    ],
    [
      "निर्वा",
      "च"
    ],
    [
      "शा",
      "स्त्र"
    ],
    [
      "साहाय",
      "्यं</w>"
    ],
    [
      "ीन",
      "ां</w>"
    ],
    [
      "ै",
      "व</w>"
    ],
    [
      "१",
      "०</w>"
    ],
    [
      "‌",
      "</w>"
    ],
    [
      "लोक",
      "प्रिय"
    ],
    [
      "नगर",
      "पाल"
    ],
    [
      "वि",
      "वाह"
    ],
    [
      "अन्त",
      "ाराष्ट्र"
    ],
    [
      "द",
      "</w>"
    ],
    [
      "कि",
      "मपि</w>"
    ],
    [
      "ट",
      "ै"
    ],
    [
      "इ",
      "व</w>"
    ],
    [
      "शक्नो",
      "ति।</w>"
    ],
    [
      "ाय",
      "ाम्</w>"
    ],
    [
      "श",
      "ू"
    ],
    [
      "रा",
      "त्</w>"
    ],
    [
      "त",
      "मि"
    ],
    [
      "म्",
      "पर"
    ],
    [
      "दा",
      "ह"
    ],
    [
      "ित",
      "ानि</w>"
    ],
    [
      "र्",
      ",</w>"
    ],
    [
      "करो",
      "ति</w>"
    ],
    [
      "च",
      "ो"
    ],
    [
      "म्",
      "रिय"
    ],
    [
      "क्र",
      "ि"
    ],
    [
      "अथ",
      "</w>"
    ],
    [
      "आ",
      "योज"
    ],
    [
      "ा-",
      "देशस्य</w>"
    ],
    [
      "यो",
      "क्त"
    ],
    [
      "विशि",
      "ष्ट"
    ],
    [
      "्",
      "ठ"
    ],
    [
      "त",
      "ान्</w>"
    ],
    [
      "ु",
      "ः।</w>"
    ],
    [
      "ज",
      "्</w>"
    ],
    [
      "त",
      "ाप"
    ],
    [
      "िय",
      "ा"
    ],
    [
      "न",
      "द"
    ],
    [
      "स्ट",
      "ा"
    ],
    [
      "्र",
      "े"
    ],
    [
      "श्च",
      "</w>"
    ],
    [
      "ना",
      "-"
    ],
    [
      "ाल",
      "ि"
    ],
    [
      "एक",
      "ा</w>"
    ],
    [
      "द",
      "दा"
    ],
    [
      "ब्रिटि",
      "श्-"
    ],
    [
      "आ",
      "ह"
    ],
    [
      "प्राप्नो",
      "त्।</w>"
    ],
    [
      "ानु",
      "सार"
    ],
    [
      "घ",
      "्र"
    ],
    [
      "सर्वा",
      "धिक"
    ],
    [
      "यू",
      "रो"
    ],
    [
      "ने",
      "त्र"
    ],
    [
      "ल",
      "्या"
    ],
    [
      "अन्ताराष्ट्र",
      "िय"
    ],
    [
      "कृ",
      "ष"
    ],
    [
      "प्राप्",
      "तुं</w>"
    ],
    [
      "चलच्चित्र",
      "े</w>"
    ],
    [
      "निय",
      "म"
    ],
    [
      "फ",
      "ि"
    ],
    [
      "मान",
      "ं</w>"
    ],
    [
      "पृ",
      "ष्ठ"
    ],
    [
      "ड",
      "ु"
    ],
    [
      "अन",
      "ेन</w>"
    ],
    [
      "द",
      "ण्ड"
    ],
    [
      "कु",
      "मार"
    ],
    [
      "वि",
      "चार"
    ],
    [
      "१",
      "०"
    ],
    [
      "क",
      "ैः</w>"
    ],
    [
      "न",
      "या</w>"
    ],
    [
      "तम",
      "वर्षस्य</w>"
    ],
    [
      "न्",
      "ति"
    ],
    [
      "प्रा",
      "चीन"
    ],
    [
      "क",
      "दा"
    ],
    [
      "प्रार",
      "म्भ"
    ],
    [
      "आ",
      "फ़"
    ],
    [
      "गु",
      "ण"
    ],
    [
      "न्",
      "थ"
    ],
    [
      "बभूव",
      "।</w>"
    ],
    [
      "ट्",
      "बाल्-"
    ],
    [
      "ज",
      "ो"
    ],
    [
      "शक",
      "्यते।</w>"
    ],
    [
      "२०१",
      "०</w>"
    ],
    [
      "अत्य",
      "न्तं</w>"
    ],
    [
      "माध्य",
      "म"
    ],
    [
      "न",
      "ायाः</w>"
    ],
    [
      "कृत",
      "म्।</w>"
    ],
    [
      "र",
      "ा</w>"
    ],
    [
      "व",
      "न"
    ],
    [
      "रा",
      "जन"
    ],
    [
      "विरुद्ध",
      "ं</w>"
    ],
    [
      "वती",
      "।</w>"
    ],
    [
      "इत्येत",
      "योः</w>"
    ],
    [
      "ल",
      "म्ब"
    ],
    [
      "भो",
      "जन"
    ],
    [
      "प्रथम",
      "ः</w>"
    ],
    [
      "प्र",
      "भा"
    ],
    [
      "म",
      "ल"
    ],
    [
      "ना",
      "त्</w>"
    ],
    [
      "ग",
      "न्त"
    ],
    [
      "ङ्",
      "ख"
    ],
    [
      "ानि",
      "।</w>"
    ],
    [
      "हि",
      "न्द"
    ],
    [
      "न",
      "ल्-"
    ],
    [
      "्य",
      "ु"
    ],
    [
      "अ",
      "ङ्क"
    ],
    [
      "-",
      "नगरे</w>"
    ],
    [
      "से",
      "प्ट"
    ],
    [
      "त",
      "व्य"
    ],
    [
      "इत्य",
      "सौ</w>"
    ],
    [
      "र",
      "ङ्ग"
    ],
    [
      "२०",
      "२०</w>"
    ],
    [
      "अभि",
      "न"
    ],
    [
      "न्य",
      "ाय"
    ],
    [
      "भू",
      "मि"
    ],
    [
      "क",
      "्या"
    ],
    [
      "समु",
      "द्र"
    ],
    [
      "य",
      "त्,</w>"
    ],
    [
      "नेत",
      "ृ"
    ],
    [
      "य",
      "न्त्र"
    ],
    [
      "संस्थ",
      "ा</w>"
    ],
    [
      "%",
      "</w>"
    ],
    [
      "व",
      "द"
    ],
    [
      "य",
      "ेषु</w>"
    ],
    [
      "भू",
      "म"
    ],
    [
      "पा",
      "र्"
    ],
    [
      "ाल",
      "्</w>"
    ],
    [
      "नि",
      "वार"
    ],
    [
      "ेष",
      "ाम्</w>"
    ],
    [
      "ल",
      "भ"
    ],
    [
      "स",
      "ङ्क"
    ],
    [
      "ध",
      "ा"
    ],
    [
      "आ",
      "स्ट्र"
    ],
    [
      "सम्",
      "बन्ध"
    ],
    [
      "ब्",
      "रा"
    ],
    [
      "ि",
      ",</w>"
    ],
    [
      "्य",
      "ते</w>"
    ],
    [
      "यु",
      "ग"
    ],
    [
      "अ",
      "ल्प"
    ],
    [
      "समा",
      "प्"
    ],
    [
      "कुर्व",
      "न्ति।</w>"
    ],
    [
      "रण",
      "ं</w>"
    ],
    [
      "ए",
      "श"
    ],
    [
      "आ",
      "फ़"
    ],
    [
      "णा",
      "र्थं</w>"
    ],
    [
      "आर",
      "क्ष"
    ],
    [
      ".",
      "मी"
    ],
    [
      "सै",
      "निक"
    ],
    [
      "एक",
      "स्मिन्</w>"
    ],
    [
      "अ",
      "क्टो"
    ],
    [
      "व",
      "्-"
    ],
    [
      "इत्य",
      "स्याः</w>"
    ],
    [
      "पृ",
      "थ"
    ],
    [
      "राष्ट्रिय",
      "-"
    ],
    [
      "व्याप",
      "ार"
    ],
    [
      "तृ",
      "तीय"
    ],
    [
      "तमि",
      "ळ"
    ],
    [
      "अ",
      "त्र</w>"
    ],
    [
      "२०१",
      "४</w>"
    ],
    [
      "अध्य",
      "क्ष"
    ],
    [
      "य",
      "स्मिन्</w>"
    ],
    [
      "आवश्य",
      "क"
    ],
    [
      "इत्येत",
      "ेषां</w>"
    ],
    [
      "न्त",
      "ु"
    ],
    [
      "आ",
      "चर"
    ],
    [
      "च",
      "क्र"
    ],
    [
      "ध",
      "ा</w>"
    ],
    [
      "ए",
      "ते</w>"
    ],
    [
      "ज",
      "र्म"
    ],
    [
      "अक्टो",
      "ब"
    ],
    [
      "सप्",
      "ता"
    ],
    [
      "क",
      "ू"
    ],
    [
      "क",
      "ै"
    ],
    [
      "ट",
      "ा"
    ],
    [
      "नि",
      "म"
    ],
    [
      "नि",
      "रा"
    ],
    [
      "उ",
      "ल्"
    ],
    [
      "न",
      "ीय"
    ],
    [
      "कृ",
      "ति"
    ],
    [
      ".",
      "श"
    ],
    [
      "ड",
      "्र"
    ],
    [
      "३",
      "०</w>"
    ],
    [
      "यु",
      "ः।</w>"
    ],
    [
      "ो",
      "ह"
    ],
    [
      "वाय",
      "ु"
    ],
    [
      "ता",
      "।</w>"
    ],
    [
      "क्र",
      "य"
    ],
    [
      "भव",
      "ता</w>"
    ],
    [
      "जु",
      "लै"
    ],
    [
      "अध",
      "ु"
    ],
    [
      "अन्त",
      "े</w>"
    ],
    [
      "का",
      "न्"
    ],
    [
      "कर्",
      "म"
    ],
    [
      "फ़",
      "े"
    ],
    [
      "ान",
      "ं</w>"
    ],
    [
      "र",
      "ै"
    ],
    [
      "्",
      "वा</w>"
    ],
    [
      "सेप्ट",
      "े"
    ],
    [
      "क",
      "ला"
    ],
    [
      "ता",
      "म्।</w>"
    ],
    [
      "प्रा",
      "न्त"
    ],
    [
      "१",
      "५"
    ],
    [
      "देश",
      "ं</w>"
    ],
    [
      "-",
      "वि"
    ],
    [
      "मी",
      "टर्</w>"
    ],
    [
      "पा",
      "र्श"
    ],
    [
      "यित",
      "ुम्</w>"
    ],
    [
      "सै",
      "न्य"
    ],
    [
      "सा",
      ".श"
    ],
    [
      "ए",
      "स्"
    ],
    [
      "द",
      "्-"
    ],
    [
      "डि",
      "से"
    ],
    [
      "स",
      "भ"
    ],
    [
      "म",
      "्या"
    ],
    [
      "कदा",
      "चित्</w>"
    ],
    [
      "कार",
      "्या"
    ],
    [
      "राज",
      "धान"
    ],
    [
      "प्रत्येक",
      "ं</w>"
    ],
    [
      "सर्व",
      "ो"
    ],
    [
      "!",
      "</w>"
    ],
    [
      "क",
      "ान्</w>"
    ],
    [
      "उपयोग",
      "ः</w>"
    ],
    [
      "सङ्ख्य",
      "ा</w>"
    ],
    [
      "ए",
      "प्रि"
    ],
    [
      "२०",
      "१९</w>"
    ],
    [
      "ल",
      "्ट"
    ],
    [
      "अन्य",
      "े</w>"
    ],
    [
      "श",
      "ब्"
    ],
    [
      ".एस्",
      "."
    ],
    [
      "प्रति",
      "योग"
    ],
    [
      "ना",
      "ट"
    ],
    [
      "अध",
      "ि"
    ],
    [
      "म",
      "रा"
    ],
    [
      "म",
      "ौ"
    ],
    [
      "आर",
      "भ"
    ],
    [
      "दु",
      "र्"
    ],
    [
      "ृ",
      "ङ्ख"
    ],
    [
      "कौ",
      "ण्ट"
    ],
    [
      "शो",
      "ध"
    ],
    [
      "सा",
      "र्व"
    ],
    [
      "स्थ",
      "ितः</w>"
    ],
    [
      "ल",
      "-"
    ],
    [
      "अ",
      "भ्य"
    ],
    [
      "अभव",
      "न्।</w>"
    ],
    [
      "ार",
      "्</w>"
    ],
    [
      "ड",
      "िय"
    ],
    [
      "ष",
      "ध"
    ],
    [
      "ु",
      "क्त"
    ],
    [
      "ाल",
      "े"
    ],
    [
      "अन्ति",
      "म"
    ],
    [
      "मु",
      "घ"
    ],
    [
      "भाग",
      "ं</w>"
    ],
    [
      "इ",
      "यं</w>"
    ],
    [
      "न",
      "द्याः</w>"
    ],
    [
      "इत्येष",
      "ा</w>"
    ],
    [
      "त्य",
      "ा</w>"
    ],
    [
      "स्",
      "को"
    ],
    [
      "पार्श",
      "्व"
    ],
    [
      "र",
      "म्</w>"
    ],
    [
      "श",
      "्</w>"
    ],
    [
      "अति",
      "रि"
    ],
    [
      "सङ्ग",
      "ण"
    ],
    [
      "क्र",
      "ी"
    ],
    [
      "मण्डल",
      "े</w>"
    ],
    [
      "२०१",
      "३</w>"
    ],
    [
      "ङ्ग",
      "्"
    ],
    [
      "िक",
      "े"
    ],
    [
      "व",
      "स्तु"
    ],
    [
      "कार",
      "ा"
    ],
    [
      "१",
      "६"
    ],
    [
      "श्र",
      "ी"
    ],
    [
      "च",
      ",</w>"
    ],
    [
      "२०१",
      "१</w>"
    ],
    [
      "देश",
      "ेषु</w>"
    ],
    [
      "स्थान",
      "ीय"
    ],
    [
      "ट",
      "र्"
    ],
    [
      "अभव",
      "त्</w>"
    ],
    [
      "बह",
      "िः</w>"
    ],
    [
      "ता",
      "ः।</w>"
    ],
    [
      "ण्ड्-",
      "देशस्य</w>"
    ],
    [
      "शु",
      "ल्"
    ],
    [
      "शि",
      "ल"
    ],
    [
      "े",
      "लिय"
    ],
    [
      "ए",
      "क्"
    ],
    [
      "वि",
      "भ"
    ],
    [
      "न्यू",
      "नी"
    ],
    [
      "द",
      "शक"
    ],
    [
      "उ",
      "पा"
    ],
    [
      "सि",
      "ङ्घ"
    ],
    [
      "तम",
      "ं</w>"
    ],
    [
      "ेण",
      ",</w>"
    ],
    [
      "भव",
      "न्ति,</w>"
    ],
    [
      "ध",
      "्व"
    ],
    [
      "ता",
      ",</w>"
    ],
    [
      "विश",
      "ाल"
    ],
    [
      "श",
      "त"
    ],
    [
      "परिण",
      "ाम"
    ],
    [
      "अ",
      "म्रिय"
    ],
    [
      "ब",
      "ङ्ग"
    ],
    [
      "प्र",
      "भाव"
    ],
    [
      "द्व",
      "ौ</w>"
    ],
    [
      "शी",
      "घ्र"
    ],
    [
      "कर्",
      "ष"
    ],
    [
      "१",
      "५</w>"
    ],
    [
      "उत्",
      "प"
    ],
    [
      "रा",
      "णि</w>"
    ],
    [
      "१",
      "२</w>"
    ],
    [
      "ि",
      "नः</w>"
    ],
    [
      "ह",
      "ृ"
    ],
    [
      "सा",
      "म"
    ],
    [
      "इत्य",
      "तः</w>"
    ],
    [
      "काल",
      "ीन"
    ],
    [
      "नि",
      "र्व"
    ],
    [
      "घा",
      "ट"
    ],
    [
      "या",
      "त्</w>"
    ],
    [
      "प्रति",
      "नि"
    ],
    [
      "कृ",
      "ष्ण"
    ],
    [
      "क",
      "ेषु</w>"
    ],
    [
      "श",
      "क्त"
    ],
    [
      "२०१",
      "७</w>"
    ],
    [
      "आ",
      "ल्"
    ],
    [
      "दि",
      "न"
    ],
    [
      "२०१",
      "२</w>"
    ],
    [
      "न्",
      "शि"
    ],
    [
      "ो",
      "ग"
    ],
    [
      "तद",
      "न"
    ],
    [
      "इत्य",
      "स्मात्</w>"
    ],
    [
      "स",
      "ाय"
    ],
    [
      "इत्या",
      "दि"
    ],
    [
      "ब्र",
      "ु"
    ],
    [
      "शा",
      "ह"
    ],
    [
      "कर्",
      "तुम्</w>"
    ],
    [
      "विशेष",
      "तः</w>"
    ],
    [
      "ी",
      "कृत"
    ],
    [
      "वा",
      "सि"
    ],
    [
      "ण",
      "ानि</w>"
    ],
    [
      "वर्ष",
      "ं</w>"
    ],
    [
      "ा",
      "र्थ"
    ],
    [
      "स्",
      "लि"
    ],
    [
      "ह",
      "ु"
    ],
    [
      "ट",
      "र्-"
    ],
    [
      "व",
      "ु"
    ],
    [
      "मा",
      "ङ्क"
    ],
    [
      "ए",
      "म्"
    ],
    [
      "मि",
      "त्र"
    ],
    [
      "उत्त",
      "म"
    ],
    [
      "एता",
      "दृश"
    ],
    [
      "च",
      "ु"
    ],
    [
      "के",
      "र"
    ],
    [
      "ण",
      "ः</w>"
    ],
    [
      "प्रसिद्ध",
      "ः</w>"
    ],
    [
      "ल",
      "ू"
    ],
    [
      "द",
      "र्"
    ],
    [
      "शक्नुव",
      "न्ति।</w>"
    ],
    [
      "उप",
      "योक्त"
    ],
    [
      "ना",
      "म्</w>"
    ],
    [
      "काल",
      "ं</w>"
    ],
    [
      "अम्रिय",
      "त।</w>"
    ],
    [
      "'",
      "</w>"
    ],
    [
      "क",
      "न्दु"
    ],
    [
      "उ",
      "त</w>"
    ],
    [
      "भ्र",
      "ा"
    ],
    [
      "न्यू",
      "न"
    ],
    [
      "अधु",
      "ना</w>"
    ],
    [
      "क",
      "ीय"
    ],
    [
      "देश",
      "ीय"
    ],
    [
      ".ए",
      "ल्"
    ],
    [
      "प्र",
      "शिक्ष"
    ],
    [
      "न्तर",
      "ं,</w>"
    ],
    [
      ".एस्",
      ".</w>"
    ],
    [
      "व",
      "स्त्र"
    ],
    [
      "नद",
      "ी</w>"
    ],
    [
      "परन्त",
      "ु,</w>"
    ],
    [
      "प्रत्य",
      "ा"
    ],
    [
      "स्व",
      "ीड"
    ],
    [
      "म",
      "ी</w>"
    ],
    [
      "म्पिय",
      "न्शि"
    ],
    [
      "निष्",
      "कास"
    ],
    [
      "इ",
      "ङ्ग्ल"
    ],
    [
      "उ",
      "दाह"
    ],
    [
      "?",
      "</w>"
    ],
    [
      "ूप",
      "ेण</w>"
    ],
    [
      "बहु",
      "धा</w>"
    ],
    [
      "उ",
      "द"
    ],
    [
      "ल्",
      ",</w>"
    ],
    [
      "स्त",
      "ः।</w>"
    ],
    [
      "दृश्य",
      "ते।</w>"
    ],
    [
      "फ",
      "ो"
    ],
    [
      "कि",
      ".मी"
    ],
    [
      "ग",
      "र्"
    ],
    [
      "चे",
      "त्</w>"
    ],
    [
      "का",
      "ङ्"
    ],
    [
      "त",
      "ौ</w>"
    ],
    [
      "वि",
      "ना</w>"
    ],
    [
      "पञ्",
      "जा"
    ],
    [
      "े",
      "द"
    ],
    [
      "प्र",
      "धान"
    ],
    [
      "प",
      "ट"
    ],
    [
      "केष",
      "ु"
    ],
    [
      "र",
      "ाय"
    ],
    [
      "विद्य",
      "मान"
    ],
    [
      "उद्",
      "घाट"
    ],
    [
      "ृ",
      "त्य"
    ],
    [
      "त्",
      "वा,</w>"
    ],
    [
      "सम",
      "ान"
    ],
    [
      "श",
      "री"
    ],
    [
      "च",
      "ी"
    ],
    [
      "स",
      "िय"
    ],
    [
      "ग",
      "ढ"
    ],
    [
      "व",
      "ो"
    ],
    [
      "१",
      "६</w>"
    ],
    [
      "कु",
      "ल"
    ],
    [
      "िक",
      "ः</w>"
    ],
    [
      "इत्येत",
      "ानि</w>"
    ],
    [
      "वा",
      "-"
    ],
    [
      "प",
      "दा"
    ],
    [
      "२०१",
      "८</w>"
    ],
    [
      "क्",
      "स"
    ],
    [
      "संस्थ",
      "ायाः</w>"
    ],
    [
      "मरा",
      "ठ"
    ],
    [
      "क्षेत्र",
      "ं</w>"
    ],
    [
      "ज्ञ",
      "ाय"
    ],
    [
      "न",
      "ानां</w>"
    ],
    [
      "सा",
      "हि"
    ],
    [
      "य",
      "ाः</w>"
    ],
    [
      "इत्ये",
      "ता"
    ],
    [
      "पूर्",
      "णं</w>"
    ],
    [
      "न्त",
      "ु</w>"
    ],
    [
      "सं",
      "युक्त"
    ],
    [
      "ण",
      "-"
    ],
    [
      "रा",
      "ज्ञ"
    ],
    [
      "सदस्य",
      "ः</w>"
    ],
    [
      "ग",
      "्ल"
    ],
    [
      "दृ",
      "ढ"
    ],
    [
      "ल",
      "ाय"
    ],
    [
      "ित",
      "-"
    ],
    [
      "पु",
      "स्त"
    ],
    [
      "स",
      "रो"
    ],
    [
      "पो",
      "र्"
    ],
    [
      "्य",
      "म्</w>"
    ],
    [
      "वृत्त",
      "ि"
    ],
    [
      "र्",
      "प"
    ],
    [
      "इ",
      "दान"
    ],
    [
      "अस्",
      "मा"
    ],
    [
      "य",
      "ति,</w>"
    ],
    [
      ".ए",
      "म्"
    ],
    [
      "आसन्",
      ",</w>"
    ],
    [
      "जन",
      "गण"
    ],
    [
      "आ",
      "र्थ"
    ],
    [
      "न",
      "ं,</w>"
    ],
    [
      "फ़",
      "ि"
    ],
    [
      "ह",
      "र"
    ],
    [
      "य",
      "तु।</w>"
    ],
    [
      "ाण",
      "ाम्</w>"
    ],
    [
      "अ",
      "वा"
    ],
    [
      "प",
      "श्य"
    ],
    [
      "सा",
      "क्ष"
    ],
    [
      "सप्ता",
      "ह"
    ],
    [
      "कथ",
      "्यते।</w>"
    ],
    [
      "आस्ट्र",
      "ेलिय"
    ],
    [
      "फ",
      "्</w>"
    ],
    [
      "ग्र",
      "न्थ"
    ],
    [
      "तम",
      "ः</w>"
    ],
    [
      ".सी",
      ".</w>"
    ],
    [
      "एत",
      "ेषु</w>"
    ],
    [
      "इत्य",
      "नया</w>"
    ],
    [
      "आरभ्य",
      "</w>"
    ],
    [
      "उत्त",
      "रा"
    ],
    [
      "द",
      "ीय"
    ],
    [
      "बह",
      "ु</w>"
    ],
    [
      "सु",
      "रक्ष"
    ],
    [
      "श",
      "न्</w>"
    ],
    [
      "ज",
      "ान"
    ],
    [
      "अन्यतम",
      "ः</w>"
    ],
    [
      "प्रथम",
      "वारं</w>"
    ],
    [
      "सर्व",
      "े</w>"
    ],
    [
      "प्र",
      "श"
    ],
    [
      "क",
      "रूपेण</w>"
    ],
    [
      "ान",
      "न्तरं</w>"
    ],
    [
      "अनेक",
      "ानि</w>"
    ],
    [
      "पुरा",
      "त"
    ],
    [
      "औ",
      "षध"
    ],
    [
      "पा",
      "कि"
    ],
    [
      "चलच्चित्र",
      "ेषु</w>"
    ],
    [
      "स",
      "ृ"
    ],
    [
      "अध्य",
      "य"
    ],
    [
      "य",
      "न्ति</w>"
    ],
    [
      "क",
      "द"
    ],
    [
      "अभि",
      "लेख"
    ],
    [
      "द्व",
      "योः</w>"
    ],
    [
      "समु",
      "दाय"
    ],
    [
      "के",
      "न"
    ],
    [
      "्य",
      "ां</w>"
    ],
    [
      "ट",
      "्ल"
    ],
    [
      "स्",
      "के"
    ],
    [
      "प्र",
      "य"
    ],
    [
      "१",
      "७</w>"
    ],
    [
      "ाप",
      "्"
    ],
    [
      "सङ्",
      "ग्रह"
    ],
    [
      "भ",
      "ी"
    ],
    [
      "अ",
      "ल"
    ],
    [
      "ओ",
      "लि"
    ],
    [
      ".",
      "पी"
    ],
    [
      "ड",
      "्ड"
    ],
    [
      "ू",
      "नां</w>"
    ],
    [
      "सम",
      "स्य"
    ],
    [
      "न",
      "द्य"
    ],
    [
      "न",
      "ेश"
    ],
    [
      "ज",
      "ी</w>"
    ],
    [
      "स्या",
      "त्।</w>"
    ],
    [
      "वि",
      "भाग"
    ],
    [
      "ल्ड",
      "्-"
    ],
    [
      "क",
      "ठ"
    ],
    [
      "मे",
      "ल"
    ],
    [
      "सं",
      "रक्ष"
    ],
    [
      "म",
      "्यू"
    ],
    [
      "म",
      "ां</w>"
    ],
    [
      "वस्त",
      "ूनि</w>"
    ],
    [
      "म",
      "ाल"
    ],
    [
      "मा",
      "त्र"
    ],
    [
      "क",
      "ा</w>"
    ],
    [
      "१",
      "८</w>"
    ],
    [
      ".ए",
      ".</w>"
    ],
    [
      "ब",
      "र्ग"
    ],
    [
      "त",
      ",</w>"
    ],
    [
      "न्त",
      "े,</w>"
    ],
    [
      "पर्यन्त",
      "म्</w>"
    ],
    [
      "ड्",
      "स्</w>"
    ],
    [
      "अ",
      "स्याः</w>"
    ],
    [
      "्य",
      "ते,</w>"
    ],
    [
      "नाम",
      "कस्य</w>"
    ],
    [
      "ी",
      "करण"
    ],
    [
      "इ",
      "तिहास"
    ],
    [
      "धु",
      "निक"
    ],
    [
      "क",
      "श्चन</w>"
    ],
    [
      "१",
      "१</w>"
    ],
    [
      "१",
      "४</w>"
    ],
    [
      "२०१",
      "६</w>"
    ],
    [
      "दू",
      "रे</w>"
    ],
    [
      "त्व",
      "े</w>"
    ],
    [
      "वि",
      "ष्ट"
    ],
    [
      "विश्व",
      "विद्याल"
    ],
    [
      "वि",
      "धान"
    ],
    [
      "आ",
      "रो"
    ],
    [
      "्य",
      "-"
    ],
    [
      "उ",
      "भ"
    ],
    [
      "क",
      "ी</w>"
    ],
    [
      "‌",
      "-"
    ],
    [
      "गु",
      "प्"
    ],
    [
      "सह",
      "ाय"
    ],
    [
      "यु",
      "नै"
    ],
    [
      "विस्त",
      "ृ"
    ],
    [
      "मु",
      "क्त"
    ],
    [
      "सि",
      "ं"
    ],
    [
      "्य",
      "ः</w>"
    ],
    [
      "प",
      "ति"
    ],
    [
      "गृह",
      "्"
    ],
    [
      "अनेक",
      "े</w>"
    ],
    [
      "ट",
      "ी</w>"
    ],
    [
      "ो",
      "ल"
    ],
    [
      ".",
      "बी"
    ],
    [
      "उदाह",
      "रण"
    ],
    [
      "किञ्च",
      "ित्</w>"
    ],
    [
      "परि",
      "मित"
    ],
    [
      "जै",
      "न"
    ],
    [
      "नि",
      "युक्त"
    ],
    [
      "य",
      "्</w>"
    ],
    [
      "भव",
      "न्ति</w>"
    ],
    [
      "ग",
      "ी"
    ],
    [
      "ब्रु",
      "वर"
    ],
    [
      "मूल्य",
      "ं</w>"
    ],
    [
      "स्वा",
      "मि"
    ],
    [
      "पर",
      "ितः</w>"
    ],
    [
      "केषु",
      "चित्</w>"
    ],
    [
      "ेण्ट",
      "्-"
    ],
    [
      ".",
      "आर्"
    ],
    [
      "अव",
      "द"
    ],
    [
      "मन्य",
      "ते।</w>"
    ],
    [
      "ः",
      ")</w>"
    ],
    [
      "न",
      "वे"
    ],
    [
      "इ",
      "ण्ट"
    ],
    [
      "ल",
      "भ्य"
    ],
    [
      "च",
      "ै"
    ],
    [
      "अधिक",
      "ाः</w>"
    ],
    [
      "क्ष",
      "ण"
    ],
    [
      "प्र",
      "सार"
    ],
    [
      "ू",
      "</w>"
    ],
    [
      "सम",
      "्य"
    ],
    [
      "ौ",
      "।</w>"
    ],
    [
      "न्-",
      "नगरे</w>"
    ],
    [
      "२०२",
      "१</w>"
    ],
    [
      "श",
      "ाल"
    ],
    [
      "बङ्ग",
      "ाल"
    ],
    [
      "विश्व",
      "स्य</w>"
    ],
    [
      "ाय",
      "ै</w>"
    ],
    [
      "आ",
      "धुनिक"
    ],
    [
      "स्थित",
      "म्</w>"
    ],
    [
      "ाना",
      "ं,</w>"
    ],
    [
      "निर्मा",
      "णं</w>"
    ],
    [
      "ज्ञ",
      "ाप"
    ],
    [
      "ा",
      "त्र"
    ],
    [
      "ह",
      "स्त"
    ],
    [
      ".ए",
      "न्"
    ],
    [
      "मु",
      "स्लि"
    ],
    [
      ".",
      "डी"
    ],
    [
      "क्षेत्र",
      "स्य</w>"
    ],
    [
      "अस्",
      "थ"
    ],
    [
      "प्र",
      "योग"
    ],
    [
      "सरो",
      "वर"
    ],
    [
      "म",
      "या</w>"
    ],
    [
      "र्ज",
      "ाल"
    ],
    [
      "उत्तर",
      "-"
    ],
    [
      "इ",
      "स्"
    ],
    [
      "ते",
      "भ्यः</w>"
    ],
    [
      "स",
      "दृश"
    ],
    [
      "५",
      "०</w>"
    ],
    [
      ".",
      "टी"
    ],
    [
      "म",
      "-"
    ],
    [
      "न",
      "दी"
    ],
    [
      "वि",
      "कास"
    ],
    [
      "२०१",
      "५</w>"
    ],
    [
      "द्र",
      "ष्ट"
    ],
    [
      "य",
      "ानि</w>"
    ],
    [
      "न्तर",
      "े</w>"
    ],
    [
      "सी",
      "-"
    ],
    [
      "२",
      "५</w>"
    ],
    [
      "उत्स",
      "व"
    ],
    [
      "दूर",
      "दर्श"
    ],
    [
      "इत्या",
      "ख्य"
    ],
    [
      "स्वा",
      "स्थ"
    ],
    [
      "क्षेत्र",
      "ेषु</w>"
    ],
    [
      "ज",
      "्व"
    ],
    [
      "प्र",
      "युक्त"
    ],
    [
      "अह",
      "म्</w>"
    ],
    [
      "भू",
      "त"
    ],
    [
      "हा",
      "र्"
    ],
    [
      "िक",
      "्स्</w>"
    ],
    [
      "इत्येत",
      "ैः</w>"
    ],
    [
      "र",
      "्या"
    ],
    [
      "पु",
      "ट"
    ],
    [
      "प",
      "ित"
    ],
    [
      "ट्",
      "रा"
    ],
    [
      "सम्प",
      "र्"
    ],
    [
      "युनै",
      "टे"
    ],
    [
      "१९",
      "३"
    ],
    [
      "ता",
      "म्</w>"
    ],
    [
      "य",
      "-"
    ],
    [
      "क",
      "म्"
    ],
    [
      "ल",
      "े</w>"
    ],
    [
      "नग",
      "रात्</w>"
    ],
    [
      "स्थित",
      "ं</w>"
    ],
    [
      "चलच्चित्र",
      "म्</w>"
    ],
    [
      "क",
      "िय"
    ],
    [
      "ान",
      "स्य</w>"
    ],
    [
      "्ट",
      "्</w>"
    ],
    [
      "ा",
      "द"
    ],
    [
      "विष",
      "य"
    ],
    [
      "तदन",
      "न्तरं</w>"
    ],
    [
      "दि",
      "ष्ट"
    ],
    [
      "सा.श",
      "."
    ],
    [
      "बौ",
      "द्ध"
    ],
    [
      "पर्व",
      "त"
    ],
    [
      "वस",
      "ाय"
    ],
    [
      "ाल",
      "यः</w>"
    ],
    [
      "क्ष",
      "ि"
    ],
    [
      "इत्येत",
      "ेषु</w>"
    ],
    [
      "गु",
      "ह"
    ],
    [
      "कृत",
      "म्</w>"
    ],
    [
      "वि",
      "भिन्न"
    ],
    [
      "गृह",
      "ीत"
    ],
    [
      "तु",
      ",</w>"
    ],
    [
      "द",
      "ोष"
    ],
    [
      "ज",
      "्-"
    ],
    [
      "िक",
      "ां</w>"
    ],
    [
      "स्म",
      ",</w>"
    ],
    [
      "वै",
      "र"
    ],
    [
      "कार्य",
      "म्</w>"
    ],
    [
      "िक",
      "रूपेण</w>"
    ],
    [
      "ल",
      "म्</w>"
    ],
    [
      "अन्य",
      "ेषु</w>"
    ],
    [
      "ार",
      "ि"
    ],
    [
      "ु",
      "-"
    ],
    [
      "क्रीड",
      "ाः</w>"
    ],
    [
      "ा",
      "न्त"
    ],
    [
      "भाष",
      "ायाः</w>"
    ],
    [
      "ो",
      "प"
    ],
    [
      "कथ",
      "ं</w>"
    ],
    [
      "क",
      "ानि"
    ],
    [
      "व्य",
      "क्ति"
    ],
    [
      "श्र",
      "ु"
    ],
    [
      "निर्",
      "धार"
    ],
    [
      ".",
      "ओ"
    ],
    [
      "आधार",
      "ेण</w>"
    ],
    [
      "क",
      "स्य"
    ],
    [
      "इ",
      "ति,</w>"
    ],
    [
      "म",
      "नो"
    ],
    [
      "िता",
      "ः।</w>"
    ],
    [
      "मि",
      "लि"
    ],
    [
      "ओलि",
      "म्प"
    ],
    [
      "ध",
      "न"
    ],
    [
      "शताब्",
      "द्याः</w>"
    ],
    [
      "व",
      "रण"
    ],
    [
      "१",
      "३</w>"
    ],
    [
      "चिकि",
      "त्"
    ],
    [
      "विद्य",
      "ु"
    ],
    [
      "ना",
      "थ"
    ],
    [
      "प्र",
      "शास"
    ],
    [
      "ता",
      "वत्</w>"
    ],
    [
      "ै",
      "ति"
    ],
    [
      "वृ",
      "ष्ट"
    ],
    [
      "क्ल",
      "ब्</w>"
    ],
    [
      ".",
      "सि"
    ],
    [
      "अ",
      "क्रीड"
    ],
    [
      "वर्य",
      "स्य</w>"
    ],
    [
      "ती",
      "व्र"
    ],
    [
      "फ़",
      "्"
    ],
    [
      "ल्ड",
      "्</w>"
    ],
    [
      "आ",
      "प"
    ],
    [
      "क",
      "ट"
    ],
    [
      "ब",
      "ोर्"
    ],
    [
      "एत",
      "ानि</w>"
    ],
    [
      "तु",
      "ः</w>"
    ],
    [
      "२००",
      "०</w>"
    ],
    [
      "ना",
      "गर"
    ],
    [
      "भ",
      "ु"
    ],
    [
      "मान",
      "व"
    ],
    [
      "अमेरिक",
      "ा-"
    ],
    [
      "ण्ड",
      "ार"
    ],
    [
      "फ़",
      "्"
    ],
    [
      "नूत",
      "न"
    ],
    [
      "ली",
      "ग्</w>"
    ],
    [
      "फ",
      "ोर्"
    ],
    [
      "नास्",
      "ति।</w>"
    ],
    [
      "अग्र",
      "िम"
    ],
    [
      "ना",
      "माङ्क"
    ],
    [
      "क्रीड",
      "ासु</w>"
    ],
    [
      "ज",
      "ग"
    ],
    [
      "सार्व",
      "जन"
    ],
    [
      "त्य",
      "क्त"
    ],
    [
      "अ",
      "र्"
    ],
    [
      "वि",
      "पण"
    ],
    [
      "क्",
      "स्-"
    ],
    [
      "ना",
      "डु"
    ],
    [
      "इती",
      "दम्</w>"
    ],
    [
      "क",
      "ी-"
    ],
    [
      "ल",
      "ण्ड"
    ],
    [
      "प्र",
      "माण"
    ],
    [
      "निर्व",
      "ह"
    ],
    [
      "दक्षिण",
      "-"
    ],
    [
      "ड",
      "ी</w>"
    ],
    [
      "इत्ये",
      "नं</w>"
    ],
    [
      "उप",
      "ाय"
    ],
    [
      "विमान",
      "स्थान"
    ],
    [
      "अनेक",
      "ेषु</w>"
    ],
    [
      "जनवर",
      "ी</w>"
    ],
    [
      "मुख्य",
      "तया</w>"
    ],
    [
      "स्व",
      "ि"
    ],
    [
      "अ",
      "ष्ट"
    ],
    [
      "व्या",
      "वसाय"
    ],
    [
      "अस्",
      "मि।</w>"
    ],
    [
      "वि",
      "द्र"
    ],
    [
      "ाल",
      "्"
    ],
    [
      "ष्",
      "म"
    ],
    [
      "आन",
      "न्द"
    ],
    [
      "फ़",
      "ि"
    ],
    [
      "कि",
      "न्तु</w>"
    ],
    [
      "स्म",
      "</w>"
    ],
    [
      "स्",
      "पे"
    ],
    [
      "भाष",
      "ा</w>"
    ],
    [
      "व्य",
      "क्त"
    ],
    [
      "ित",
      "स्य</w>"
    ],
    [
      "साहि",
      "त्य"
    ],
    [
      "प्र",
      "हार"
    ],
    [
      "ट्",
      "स्-"
    ],
    [
      "ेष",
      "्ठ"
    ],
    [
      "राजन",
      "ैति"
    ],
    [
      "सम्पूर्ण",
      "े</w>"
    ],
    [
      "म",
      "ि</w>"
    ],
    [
      "क",
      "रि"
    ],
    [
      "ला",
      "भ"
    ],
    [
      "गन्त",
      "ुं</w>"
    ],
    [
      "े",
      "-"
    ],
    [
      "ानुसार",
      "ं</w>"
    ],
    [
      "प्र",
      "ती"
    ],
    [
      "दशक",
      "े</w>"
    ],
    [
      "स्",
      "मि"
    ],
    [
      "रोग",
      "ेण</w>"
    ],
    [
      "जन्",
      "म</w>"
    ],
    [
      "क्रीडा",
      "ङ्ग"
    ],
    [
      "सा",
      "मा"
    ],
    [
      "प्र",
      "यत"
    ],
    [
      "एत",
      "ेन</w>"
    ],
    [
      "आ",
      "श्र"
    ],
    [
      "िक",
      "ा-"
    ],
    [
      "अधिक",
      "तया</w>"
    ],
    [
      "प्र",
      "करण"
    ],
    [
      "पर्य",
      "ट"
    ],
    [
      "काङ्",
      "ग्रे"
    ],
    [
      "साम्",
      "राज्यस्य</w>"
    ],
    [
      "माध्यम",
      "ेन</w>"
    ],
    [
      "अ",
      "कुर्व"
    ],
    [
      "न",
      "र्</w>"
    ],
    [
      "जन",
      "ैः</w>"
    ],
    [
      "का",
      "र्-"
    ],
    [
      "निया",
      "-"
    ],
    [
      "वै",
      "द्य"
    ],
    [
      "को",
      "श"
    ],
    [
      "न्",
      "सि"
    ],
    [
      "राज",
      "ा</w>"
    ],
    [
      "अन्यतम",
      "म्</w>"
    ],
    [
      "जुलै",
      "</w>"
    ],
    [
      "दा",
      "तुं</w>"
    ],
    [
      "जू",
      "न्</w>"
    ],
    [
      "द",
      "-"
    ],
    [
      "२००",
      "७</w>"
    ],
    [
      "स्ट",
      "ि"
    ],
    [
      "वर्त",
      "ते</w>"
    ],
    [
      "२००",
      "८</w>"
    ],
    [
      "न",
      "ृत्य"
    ],
    [
      "२००",
      "९</w>"
    ],
    [
      "्र",
      "ो"
    ],
    [
      "अन्त",
      "र्जाल"
    ],
    [
      "पू",
      "र"
    ],
    [
      "अन्ताराष्ट्रिय",
      "-"
    ],
    [
      "सम्य",
      "क्</w>"
    ],
    [
      "कुर्व",
      "न्ति</w>"
    ],
    [
      "समीप",
      "स्थ"
    ],
    [
      ".",
      "ई"
    ],
    [
      "पार",
      "म्पर"
    ],
    [
      "अमेरिक",
      "न्-"
    ],
    [
      "न",
      "ार"
    ],
    [
      "पात्र",
      "ं</w>"
    ],
    [
      "वन्त",
      "ः</w>"
    ],
    [
      "ड",
      "ै"
    ],
    [
      "कि",
      "लो"
    ],
    [
      "भविष्य",
      "ति।</w>"
    ],
    [
      "नाम",
      "ा</w>"
    ],
    [
      "म",
      "ेण्ट्</w>"
    ],
    [
      "जन",
      "ान्</w>"
    ],
    [
      "पा",
      "ण्ड"
    ],
    [
      "ा",
      "।</w>"
    ],
    [
      "ु",
      "द्ध"
    ],
    [
      "काल",
      "स्य</w>"
    ],
    [
      "ग्री",
      "ष्म"
    ],
    [
      "जनगण",
      "न"
    ],
    [
      "क्रीड",
      "काः</w>"
    ],
    [
      "अभव",
      "म्।</w>"
    ],
    [
      "प्र",
      "वेश"
    ],
    [
      "लि",
      "ङ्ग"
    ],
    [
      "इत्य",
      "स्मै</w>"
    ],
    [
      "मा",
      "-"
    ],
    [
      "रा",
      "-"
    ],
    [
      "अ",
      "ल्"
    ],
    [
      "या",
      "र्"
    ],
    [
      "इ",
      "तो"
    ],
    [
      "ृङ्ख",
      "ल"
    ],
    [
      "ालय",
      "स्य</w>"
    ],
    [
      "ग",
      "ौ"
    ],
    [
      "ड",
      "ा-"
    ],
    [
      "सामा",
      "ज"
    ],
    [
      "रा",
      "ग"
    ],
    [
      "प",
      "त"
    ],
    [
      "प्र",
      "चल"
    ],
    [
      "शास",
      "न"
    ],
    [
      "२",
      "४</w>"
    ],
    [
      "सी",
      "त्।</w>"
    ],
    [
      "उ",
      "क्त"
    ],
    [
      "ट",
      "ु"
    ],
    [
      "रे",
      ",</w>"
    ],
    [
      "ीन",
      "ि</w>"
    ],
    [
      "श",
      "ीत"
    ],
    [
      "गु",
      "ज"
    ],
    [
      "क्र",
      "िके"
    ],
    [
      "वि",
      "ह"
    ],
    [
      "अज",
      "ाय"
    ],
    [
      "प्रभा",
      "वि"
    ],
    [
      "ड",
      "ब्ल"
    ],
    [
      "प",
      "ै"
    ],
    [
      "ध",
      "र्म"
    ],
    [
      "वा",
      "णि"
    ],
    [
      "स्थान",
      "ानि</w>"
    ],
    [
      "न",
      "ेषु</w>"
    ],
    [
      "ध",
      "ी"
    ],
    [
      "कि",
      "ं</w>"
    ],
    [
      "म",
      "त्"
    ],
    [
      "विक्र",
      "य"
    ],
    [
      "के",
      "भ्यः</w>"
    ],
    [
      "आ",
      "पण"
    ],
    [
      "ञ्",
      "जन"
    ],
    [
      "प्र",
      "दत्त"
    ],
    [
      "म",
      "र्"
    ],
    [
      "युद्ध",
      "े</w>"
    ],
    [
      "अक्टोब",
      "र्</w>"
    ],
    [
      "न्त",
      "।</w>"
    ],
    [
      "विश्व",
      "विद्यालय"
    ],
    [
      "वृ",
      "क्ष"
    ],
    [
      "ै",
      "ः,</w>"
    ],
    [
      "निर्मित",
      "म्</w>"
    ],
    [
      "ु",
      "ट्बाल्-"
    ],
    [
      "पर",
      "ियो"
    ],
    [
      "ाल",
      "ये</w>"
    ],
    [
      "२००",
      "६</w>"
    ],
    [
      "पर",
      "स्"
    ],
    [
      "द्व",
      "ा"
    ],
    [
      "ज",
      "ना"
    ],
    [
      "सङ्ग",
      "ी"
    ],
    [
      "मार्",
      "च्</w>"
    ],
    [
      "गो",
      "ल"
    ],
    [
      "करो",
      "ति,</w>"
    ],
    [
      "कानि",
      "चन</w>"
    ],
    [
      "चि",
      "ह्न"
    ],
    [
      "ण्ड",
      "ो"
    ],
    [
      "स्व",
      "तन्त्र"
    ],
    [
      "ित",
      "े</w>"
    ],
    [
      "्य",
      ",</w>"
    ],
    [
      "भाष",
      "ायां</w>"
    ],
    [
      "अधिक",
      "ृ"
    ],
    [
      "न्तर",
      "म्</w>"
    ],
    [
      "वि",
      "द"
    ],
    [
      "अध",
      "ः</w>"
    ],
    [
      "क",
      "न्"
    ],
    [
      "पुत्र",
      "ः</w>"
    ],
    [
      "्यन्त",
      "े</w>"
    ],
    [
      "विभ",
      "क्त"
    ],
    [
      "आ",
      "दि"
    ],
    [
      "ै",
      "-"
    ],
    [
      ")",
      ",</w>"
    ],
    [
      "ज",
      "पा"
    ],
    [
      "त",
      "म्।</w>"
    ],
    [
      "ह",
      "ौ"
    ],
    [
      ".",
      ")</w>"
    ],
    [
      "ित",
      "ः,</w>"
    ],
    [
      "मि",
      "श्र"
    ],
    [
      "भार",
      "त"
    ],
    [
      "ट",
      "िक्-"
    ],
    [
      "द",
      "स्य</w>"
    ],
    [
      "ए",
      "का"
    ],
    [
      "ण",
      "ेन</w>"
    ],
    [
      "का",
      "त्</w>"
    ],
    [
      "२००",
      "१</w>"
    ],
    [
      "शि",
      "ष्ट"
    ],
    [
      "रिय",
      "ा-"
    ],
    [
      "घ",
      "ण्ट"
    ],
    [
      "सं",
      "स्थाप"
    ],
    [
      "हि",
      "म"
    ],
    [
      "प",
      "र्"
    ],
    [
      "अस्मा",
      "कं</w>"
    ],
    [
      "उ",
      "ष्ण"
    ],
    [
      "या",
      ",</w>"
    ],
    [
      ".",
      "वी"
    ],
    [
      "गा",
      "न्ध"
    ],
    [
      "द",
      "लं</w>"
    ],
    [
      "मि",
      "दं</w>"
    ],
    [
      "ता",
      "ः,</w>"
    ],
    [
      "क",
      "ेश"
    ],
    [
      "पुन",
      "र्"
    ],
    [
      "ज्",
      "ज"
    ],
    [
      "तथ",
      "ैव</w>"
    ],
    [
      "िता",
      "।</w>"
    ],
    [
      "वर्ष",
      "ीयः</w>"
    ],
    [
      "क",
      "ः,</w>"
    ],
    [
      "अ",
      "मृ"
    ],
    [
      "व्य",
      "य"
    ],
    [
      "प्र",
      "बन्ध"
    ],
    [
      "समूह",
      "ः</w>"
    ],
    [
      "आ",
      "स्ता"
    ],
    [
      "प",
      "त्न"
    ],
    [
      "स्व",
      "य"
    ],
    [
      "गृह",
      "ं</w>"
    ],
    [
      "वा",
      "ण"
    ],
    [
      "जात",
      "म्।</w>"
    ],
    [
      "ए",
      "ल्"
    ],
    [
      "ल",
      "ा-"
    ],
    [
      "डब्ल",
      "्यू"
    ],
    [
      "उल्",
      "लेख"
    ],
    [
      "कारण",
      "ेन</w>"
    ],
    [
      "न",
      "ाय</w>"
    ],
    [
      "आ",
      "गच्छ"
    ],
    [
      "े",
      "न,</w>"
    ],
    [
      "०",
      ",०००</w>"
    ],
    [
      "ल",
      "ः</w>"
    ],
    [
      "विध",
      "ि"
    ],
    [
      "वर्ष",
      "ेषु</w>"
    ],
    [
      "च",
      "ण्ड"
    ],
    [
      "द्व",
      "यं</w>"
    ],
    [
      "ीय",
      "ं</w>"
    ],
    [
      "ः",
      "\"</w>"
    ],
    [
      "म्",
      "म"
    ],
    [
      "य",
      "न्</w>"
    ],
    [
      "दश",
      "लक्ष"
    ],
    [
      "्ट",
      "्-"
    ],
    [
      "अन्",
      "व"
    ],
    [
      "परि",
      "वर्ति"
    ],
    [
      "सु",
      "लभ"
    ],
    [
      "अनु",
      "म"
    ],
    [
      "प",
      "त्त"
    ],
    [
      "ऐ",
      "तिहास"
    ],
    [
      "दि",
      "वस"
    ],
    [
      "ेश",
      "न्-"
    ],
    [
      "प्राप",
      "।</w>"
    ],
    [
      "उपयुज",
      "्यते।</w>"
    ],
    [
      "गुज",
      "रा"
    ],
    [
      "को",
      "टि"
    ],
    [
      "नि",
      "ष्ठ"
    ],
    [
      "आ",
      "सन्</w>"
    ],
    [
      "स्थान",
      "म्</w>"
    ],
    [
      "प्रान्त",
      "स्य</w>"
    ],
    [
      "अतिरि",
      "क्त"
    ],
    [
      "आरम्भ",
      "े</w>"
    ],
    [
      "प",
      "ौ"
    ],
    [
      "्ल",
      "ो"
    ],
    [
      "त्य",
      "ा"
    ],
    [
      "ह",
      "र्"
    ],
    [
      "प्रति",
      "क्रिय"
    ],
    [
      "व",
      "क्त"
    ],
    [
      "ित",
      "वान्</w>"
    ],
    [
      "दान",
      "ं</w>"
    ],
    [
      "कृ",
      "तः</w>"
    ],
    [
      "कद",
      "ापि</w>"
    ],
    [
      "नाम",
      "केन</w>"
    ],
    [
      "व",
      "यं</w>"
    ],
    [
      "इ",
      "दम्</w>"
    ],
    [
      "ण्ड",
      "्"
    ],
    [
      "थ",
      "े"
    ],
    [
      "२",
      "२</w>"
    ],
    [
      "श",
      "ेष"
    ],
    [
      "सेप्टे",
      "म्बर्</w>"
    ],
    [
      "प्राप",
      "्य</w>"
    ],
    [
      "कृत",
      "ः।</w>"
    ],
    [
      "निव",
      "स"
    ],
    [
      "सम",
      "ीक्ष"
    ],
    [
      "प्र",
      "वह"
    ],
    [
      "अ",
      "दः</w>"
    ],
    [
      "कि.मी",
      ".</w>"
    ],
    [
      "प्रा",
      "र्थ"
    ],
    [
      "छ",
      "ात्र"
    ],
    [
      "धि",
      "ं</w>"
    ],
    [
      "का",
      "णां</w>"
    ],
    [
      "स्त",
      "र"
    ],
    [
      "वि",
      "न्या"
    ],
    [
      "वाणि",
      "ज्य"
    ],
    [
      "अ",
      "र्ज"
    ],
    [
      "प्रतियोग",
      "ित"
    ],
    [
      "पक्ष",
      "स्य</w>"
    ],
    [
      "रा",
      "व"
    ],
    [
      "म",
      "न्</w>"
    ],
    [
      "अ",
      "र"
    ],
    [
      "त",
      "ाल"
    ],
    [
      "अनु",
      "भव"
    ],
    [
      "कम्",
      "पे"
    ],
    [
      "व्यवस्थ",
      "ा</w>"
    ],
    [
      "िक",
      "ल्-"
    ],
    [
      "विक",
      "स"
    ],
    [
      "एक",
      "स्य</w>"
    ],
    [
      "संस्",
      "करण"
    ],
    [
      "कर्म",
      "चार"
    ],
    [
      "रोग",
      "स्य</w>"
    ],
    [
      "स्ट",
      "ो"
    ],
    [
      "ार",
      "ूपेण</w>"
    ],
    [
      "न",
      "ष्ट"
    ],
    [
      "प्राप्त",
      "वान्।</w>"
    ],
    [
      "ू",
      "-"
    ],
    [
      "ख",
      "ान्</w>"
    ],
    [
      "इदान",
      "ीं</w>"
    ],
    [
      "प",
      "ट्ट"
    ],
    [
      "मृत्य",
      "ोः</w>"
    ],
    [
      "स्थ",
      "ग"
    ],
    [
      "स्व",
      "कीय"
    ],
    [
      "ण",
      "ाम्</w>"
    ],
    [
      "श्च",
      "ित्</w>"
    ],
    [
      "मार्ग",
      "ः</w>"
    ],
    [
      "२",
      "३</w>"
    ],
    [
      "सामान्य",
      "तः</w>"
    ],
    [
      "स्वा",
      "तन्त्र"
    ],
    [
      "गृह",
      "े</w>"
    ],
    [
      "सम्",
      "भा"
    ],
    [
      "म",
      "न"
    ],
    [
      "प्र",
      "ण"
    ],
    [
      "मृत्य",
      "ु"
    ],
    [
      "प्र",
      "क्रिय"
    ],
    [
      "कार",
      "ः</w>"
    ],
    [
      "म्",
      "‌</w>"
    ],
    [
      "ौ",
      ",</w>"
    ],
    [
      "ा",
      "ः।</w>"
    ],
    [
      "ह",
      "्म"
    ],
    [
      "िय",
      "न्</w>"
    ],
    [
      "पूर्व",
      "-"
    ],
    [
      "ह",
      "्या"
    ],
    [
      "जन",
      "पद"
    ],
    [
      "ान",
      "ी</w>"
    ],
    [
      "महा",
      "द्वीप"
    ],
    [
      "१",
      "३"
    ],
    [
      "निर्मित",
      "ं</w>"
    ],
    [
      "प्",
      "प"
    ],
    [
      "स",
      "ेण्ट"
    ],
    [
      "सर्व",
      "दा</w>"
    ],
    [
      "जन",
      "सङ्ख्या</w>"
    ],
    [
      "मा",
      "द"
    ],
    [
      "फ",
      "ी"
    ],
    [
      "व",
      "ती</w>"
    ],
    [
      "आग",
      "स्ट्</w>"
    ],
    [
      "२",
      "१</w>"
    ],
    [
      "त्र",
      "ी"
    ],
    [
      "शि",
      "र"
    ],
    [
      "एप्रि",
      "ल्</w>"
    ],
    [
      "न्यू",
      "नं</w>"
    ],
    [
      "सङ्",
      "क्रम"
    ],
    [
      "प",
      "ठ"
    ],
    [
      "ती",
      "र्थ"
    ],
    [
      "स्प",
      "ष्ट"
    ],
    [
      "स्ट",
      "ी"
    ],
    [
      "२०२",
      "२</w>"
    ],
    [
      "दृश",
      "्यन्ते।</w>"
    ],
    [
      "इ",
      "ट"
    ],
    [
      "अन्त",
      "ः</w>"
    ],
    [
      "व्यव",
      "हार"
    ],
    [
      "च",
      "कार"
    ],
    [
      "४",
      "०</w>"
    ],
    [
      "इण्ट",
      "र्"
    ],
    [
      "ट्",
      ",</w>"
    ],
    [
      "भू",
      "त्वा</w>"
    ],
    [
      "वेष",
      "्ट"
    ],
    [
      "प्रति",
      "वर्षं</w>"
    ],
    [
      "द्व",
      "े</w>"
    ],
    [
      "वि",
      "कल्प"
    ],
    [
      "ब",
      "ी</w>"
    ],
    [
      "से",
      "ना"
    ],
    [
      "ाय",
      "ि"
    ],
    [
      "नि",
      "री"
    ],
    [
      "देश",
      "े,</w>"
    ],
    [
      "भू",
      "त्।</w>"
    ],
    [
      "म",
      "्य"
    ],
    [
      "स्पर्ध",
      "ायां</w>"
    ],
    [
      "त्म",
      "क"
    ],
    [
      "द्र",
      "ु"
    ],
    [
      "हृ",
      "द"
    ],
    [
      "इत्येत",
      "ं</w>"
    ],
    [
      "उपयोग",
      "ं</w>"
    ],
    [
      "निर्म",
      "ीय"
    ],
    [
      "ं",
      "-"
    ],
    [
      "जी",
      "वि"
    ],
    [
      "इत्येता",
      "भ्यां</w>"
    ],
    [
      "इत्यादि",
      "षु</w>"
    ],
    [
      "श",
      "स्त्र"
    ],
    [
      "नगर",
      "े,</w>"
    ],
    [
      "प्रधान",
      "मन्त्र"
    ],
    [
      "श",
      "ङ्क"
    ],
    [
      "आ",
      "वि"
    ],
    [
      "बा",
      "ध"
    ],
    [
      "संस्थ",
      "या</w>"
    ],
    [
      "कु",
      "र्या"
    ],
    [
      "रा",
      "त्र"
    ],
    [
      "ग",
      "ङ्ग"
    ],
    [
      "क्",
      "लि"
    ],
    [
      "२",
      "६</w>"
    ],
    [
      "श्र",
      "ेण"
    ],
    [
      "अध्यक्ष",
      "ः</w>"
    ],
    [
      "प्रे",
      "र"
    ],
    [
      "स्थ",
      "ा"
    ],
    [
      "न",
      "ल्</w>"
    ],
    [
      "विज",
      "य"
    ],
    [
      "क",
      "र्</w>"
    ],
    [
      "ना",
      "ग"
    ],
    [
      "यि",
      "त्वा</w>"
    ],
    [
      "अद्य",
      "ापि</w>"
    ],
    [
      "पूर्व",
      "मेव</w>"
    ],
    [
      "च",
      "न्द्र"
    ],
    [
      "च्च",
      "</w>"
    ],
    [
      "खा",
      "द्य"
    ],
    [
      "मान",
      "ः</w>"
    ],
    [
      "स्",
      "का"
    ],
    [
      "प्र",
      "भ"
    ],
    [
      "ङ्क",
      "्</w>"
    ],
    [
      "भवि",
      "तुं</w>"
    ],
    [
      "स्",
      "रो"
    ],
    [
      "्य",
      "ेन</w>"
    ],
    [
      "भवे",
      "त्</w>"
    ],
    [
      "रे",
      "।</w>"
    ],
    [
      "क्",
      ",</w>"
    ],
    [
      "रा",
      "णां</w>"
    ],
    [
      "त",
      "ार"
    ],
    [
      "उपयोग",
      "ेन</w>"
    ],
    [
      "आ",
      "य"
    ],
    [
      "ाल",
      "्-"
    ],
    [
      "स",
      "त्र"
    ],
    [
      "डिसे",
      "म्बर्</w>"
    ],
    [
      "िक",
      "ो"
    ],
    [
      "उ",
      "च"
    ],
    [
      "मु",
      "म्ब"
    ],
    [
      "अधिकांश",
      "ाः</w>"
    ],
    [
      "चतु",
      "र्थ"
    ],
    [
      "प्रतिनि",
      "धि"
    ],
    [
      "शै",
      "ल्य"
    ],
    [
      "स",
      "स्य"
    ],
    [
      "अर्ह",
      "ति।</w>"
    ],
    [
      "अप",
      "रा"
    ],
    [
      "आवश्यक",
      "ता</w>"
    ],
    [
      "ति",
      "ष्ठ"
    ],
    [
      "सं",
      "ख्य"
    ],
    [
      "प्र",
      "यु"
    ],
    [
      "अवा",
      "प्"
    ],
    [
      "वर्ष",
      "ेभ्यः</w>"
    ],
    [
      "ट",
      "ी-"
    ],
    [
      "युक्त",
      "ं</w>"
    ],
    [
      "विशेष",
      "स्य</w>"
    ],
    [
      "प",
      "द्ध"
    ],
    [
      "अ",
      "र्ध"
    ],
    [
      "करि",
      "ष्य"
    ],
    [
      "ग्रह",
      "ी"
    ],
    [
      "चतु",
      "र्"
    ],
    [
      "फ",
      "्र"
    ],
    [
      "को",
      "र्"
    ],
    [
      "वर्त",
      "ते,</w>"
    ],
    [
      "मा",
      "णं</w>"
    ],
    [
      "ने",
      ",</w>"
    ],
    [
      "ज",
      "ाय"
    ],
    [
      "कृत",
      "वान्</w>"
    ],
    [
      "श",
      "क्ति"
    ],
    [
      "म्बर्-",
      "मासे</w>"
    ],
    [
      ".",
      "-"
    ],
    [
      "अ",
      "क्ष"
    ],
    [
      "रोग",
      "ः</w>"
    ],
    [
      "प",
      "लाय"
    ],
    [
      "ित",
      "ुम्</w>"
    ],
    [
      "ब",
      "ी-"
    ],
    [
      "१",
      "००</w>"
    ],
    [
      "त",
      "ैः</w>"
    ],
    [
      "एत",
      "ेषां</w>"
    ],
    [
      "प्रति",
      "श"
    ],
    [
      "त",
      "ै"
    ],
    [
      "समा",
      "प"
    ],
    [
      "यूरो",
      "प"
    ],
    [
      "दि",
      "व"
    ],
    [
      "नि",
      "वास"
    ],
    [
      "म",
      "णि"
    ],
    [
      "भव",
      "न्तः</w>"
    ],
    [
      "ीय",
      "ाः</w>"
    ],
    [
      "पुरस्कार",
      "ं</w>"
    ],
    [
      "स्थान",
      "ेषु</w>"
    ],
    [
      "त्य",
      "ं</w>"
    ],
    [
      "नु",
      "या"
    ],
    [
      "पर",
      "म्पर"
    ],
    [
      "य",
      "न्।</w>"
    ],
    [
      "सिङ्घ",
      "्</w>"
    ],
    [
      "भार",
      "तं</w>"
    ],
    [
      "शक्नो",
      "ति</w>"
    ],
    [
      "१",
      "२"
    ],
    [
      "सर्वो",
      "त्त"
    ],
    [
      "निम",
      "ेष"
    ],
    [
      "राज्य",
      "म्</w>"
    ],
    [
      "्ल",
      "े"
    ],
    [
      "निव",
      "सन्ति</w>"
    ],
    [
      "विशेष",
      "ाः</w>"
    ],
    [
      "च",
      "त्"
    ],
    [
      "उपयु",
      "ज्य"
    ],
    [
      "प्ल",
      "े"
    ],
    [
      "ाले",
      "ख"
    ],
    [
      "पर्य",
      "ाप्"
    ],
    [
      "ध",
      "िः</w>"
    ],
    [
      "स",
      "</w>"
    ],
    [
      "द",
      "द"
    ],
    [
      "मह",
      "ाराष्ट्र"
    ],
    [
      "ह",
      "्य"
    ],
    [
      "युद्ध",
      "स्य</w>"
    ],
    [
      "ञ्च",
      "न</w>"
    ],
    [
      "भ्र",
      "म"
    ],
    [
      "प",
      "दं</w>"
    ],
    [
      "सङ्",
      "ख्या"
    ],
    [
      "अन्य",
      "ानि</w>"
    ],
    [
      "श",
      "ान"
    ],
    [
      "विद्य",
      "न्ते।</w>"
    ],
    [
      "प्रमुख",
      "ः</w>"
    ],
    [
      "ग",
      "ू"
    ],
    [
      "ना",
      "श"
    ],
    [
      "न्-",
      "नगरस्य</w>"
    ],
    [
      "ट्र",
      "ो"
    ],
    [
      "क्रीड",
      "कः</w>"
    ],
    [
      "त्",
      "पाद"
    ],
    [
      "ेत",
      "।</w>"
    ],
    [
      "नो",
      "त्।</w>"
    ],
    [
      "ज",
      "ाना"
    ],
    [
      "ित",
      "ानां</w>"
    ],
    [
      "वि",
      "स्"
    ],
    [
      "प्र",
      "ी"
    ],
    [
      "ट्र",
      "े"
    ],
    [
      "जाल",
      "पुट"
    ],
    [
      "उप",
      "लभ्य"
    ],
    [
      "मत्",
      "स्य"
    ],
    [
      "चत्",
      "वार"
    ],
    [
      "ता",
      "-"
    ],
    [
      "समा",
      "ज"
    ],
    [
      "है",
      "द"
    ],
    [
      "अन्य",
      "ैः</w>"
    ],
    [
      "प्राप्",
      "नुव"
    ],
    [
      "मिलि",
      "त्वा</w>"
    ],
    [
      "प्रकार",
      "ः</w>"
    ],
    [
      "प्रश",
      "ंस"
    ],
    [
      "अ",
      "ग्"
    ],
    [
      "विस्त",
      "ार"
    ],
    [
      "ि",
      "ं</w>"
    ],
    [
      "कृ",
      "त्य</w>"
    ],
    [
      "क्षे",
      "प"
    ],
    [
      "वार्",
      "ष"
    ],
    [
      "जीव",
      "नस्य</w>"
    ],
    [
      "च",
      "्या"
    ],
    [
      "द्रष्ट",
      "ुं</w>"
    ],
    [
      "क्रिके",
      "ट्-"
    ],
    [
      "ण",
      "्ठ"
    ],
    [
      "क्रिय",
      "ते।</w>"
    ],
    [
      "रिय",
      "ा</w>"
    ],
    [
      "बाल",
      "्</w>"
    ],
    [
      "न्",
      "स"
    ],
    [
      "वि",
      "त"
    ],
    [
      "वि",
      "स्म"
    ],
    [
      "ग",
      "ार"
    ],
    [
      "्या",
      "म्</w>"
    ],
    [
      "इत्य",
      "पि</w>"
    ],
    [
      "मस्",
      "ति"
    ],
    [
      "फो",
      "ट"
    ],
    [
      "वि",
      "च्छ"
    ],
    [
      "नाम",
      "कं</w>"
    ],
    [
      "१९८",
      "०</w>"
    ],
    [
      "नि",
      "वृत्त"
    ],
    [
      "वा",
      "स्त"
    ],
    [
      "जन",
      "ेषु</w>"
    ],
    [
      "कुर्व",
      "न्</w>"
    ],
    [
      "म",
      "नु"
    ],
    [
      "ड",
      "र"
    ],
    [
      "र्ध",
      "्व"
    ],
    [
      "नगरपाल",
      "िका</w>"
    ],
    [
      "मा",
      "से"
    ],
    [
      "किञ्च",
      "ि"
    ],
    [
      ".",
      "पि"
    ],
    [
      "ङ्",
      "क्त"
    ],
    [
      "भाग",
      "ेषु</w>"
    ],
    [
      "परि",
      "माण"
    ],
    [
      "२००",
      "५</w>"
    ],
    [
      "सङ्",
      "के"
    ],
    [
      "मह",
      "ो"
    ],
    [
      "विश",
      "्"
    ],
    [
      "ाया",
      "ं,</w>"
    ],
    [
      "काल",
      "ः</w>"
    ],
    [
      "श",
      "न्-"
    ],
    [
      "त",
      "ल"
    ],
    [
      "दु",
      "ः"
    ],
    [
      "शाह",
      "्</w>"
    ],
    [
      "त",
      "स्मै</w>"
    ],
    [
      "वन्त",
      "ः,</w>"
    ],
    [
      "सा",
      "ं"
    ],
    [
      "पा",
      "ठ"
    ],
    [
      "ट",
      "न्</w>"
    ],
    [
      "ल्",
      "स्-"
    ],
    [
      "सम",
      "य"
    ],
    [
      "य",
      "र्</w>"
    ],
    [
      "ट",
      "ि</w>"
    ],
    [
      "वर्ष",
      "ाणि</w>"
    ],
    [
      "कठ",
      "ि"
    ],
    [
      "ध",
      "ृ"
    ],
    [
      "्रा",
      "न्स्-"
    ],
    [
      "जल",
      "प्र"
    ],
    [
      "द्व",
      "न्"
    ],
    [
      "ित",
      "वान्,</w>"
    ],
    [
      "दृष्ट",
      "्या</w>"
    ],
    [
      "ण",
      "ा</w>"
    ],
    [
      "क्र",
      "ुद्ध"
    ],
    [
      "ना",
      ",</w>"
    ],
    [
      "त",
      "ानां</w>"
    ],
    [
      "आल्",
      "ब"
    ],
    [
      "आफ़",
      "्-"
    ],
    [
      "मस्ति",
      "ष्"
    ],
    [
      "्य",
      "स्य</w>"
    ],
    [
      "सर्वाधिक",
      "ं</w>"
    ],
    [
      "टे",
      "क्"
    ],
    [
      "जन्",
      "म"
    ],
    [
      "विद्र",
      "ोह"
    ],
    [
      "पत्र",
      "ं</w>"
    ],
    [
      "न",
      "ान"
    ],
    [
      "बा",
      "र्"
    ],
    [
      "शि",
      "ला"
    ],
    [
      "मै",
      "क्रो"
    ],
    [
      "र",
      "ह"
    ],
    [
      "निर्मा",
      "तुं</w>"
    ],
    [
      "ज",
      "ान्</w>"
    ],
    [
      "भविष्य",
      "ति</w>"
    ],
    [
      "निर्",
      "दिष्ट"
    ],
    [
      "ड",
      "े</w>"
    ],
    [
      "क्रम",
      "ेण</w>"
    ],
    [
      "सू",
      "चित"
    ],
    [
      "वर्",
      "-"
    ],
    [
      "प्र",
      "को"
    ],
    [
      "इत्याद",
      "ीनि</w>"
    ],
    [
      "स्ट",
      "र्"
    ],
    [
      "म",
      "न्-"
    ],
    [
      "कार्-",
      "यान"
    ],
    [
      "भवे",
      "युः।</w>"
    ],
    [
      "अमेरिका",
      "देशे</w>"
    ],
    [
      "मि",
      "ति</w>"
    ],
    [
      "चकार",
      "।</w>"
    ],
    [
      "क्र",
      "ाम"
    ],
    [
      "इत्याद",
      "यः</w>"
    ],
    [
      "रूप",
      "ं</w>"
    ],
    [
      "ध",
      "ाव"
    ],
    [
      "निरी",
      "क्ष"
    ],
    [
      "ञ्च",
      "्-"
    ],
    [
      "स्म",
      "ार"
    ],
    [
      "आ",
      "न्"
    ],
    [
      "अनेक",
      "ाः</w>"
    ],
    [
      "इच्छ",
      "ति</w>"
    ],
    [
      "२",
      "७</w>"
    ],
    [
      "२००",
      "४</w>"
    ],
    [
      "२",
      "८</w>"
    ],
    [
      "व",
      "्"
    ],
    [
      "अन्तर्",
      "भवन्ति।</w>"
    ],
    [
      "ज",
      "य"
    ],
    [
      "आवि",
      "ष्"
    ],
    [
      "ति",
      "-"
    ],
    [
      "ित",
      "ं,</w>"
    ],
    [
      "रे",
      "ख"
    ],
    [
      "मन्दि",
      "रं</w>"
    ],
    [
      "ाय",
      "ुक्त"
    ],
    [
      "आ",
      "क्"
    ],
    [
      "कालीन",
      "-"
    ],
    [
      "्यन्त",
      "े,</w>"
    ],
    [
      "भ",
      "ण्डार"
    ],
    [
      "फ़",
      "ुट्बाल्-"
    ],
    [
      "ध्व",
      "नि"
    ],
    [
      "मुस्लि",
      "म्-"
    ],
    [
      "सर्वा",
      "णि</w>"
    ],
    [
      "भि",
      "न्"
    ],
    [
      "द",
      "ै"
    ],
    [
      "पञ्जा",
      "ब्-"
    ],
    [
      "क",
      "ष्ट"
    ],
    [
      "बह",
      "ूनि</w>"
    ],
    [
      "मे",
      "-"
    ],
    [
      "कर्",
      "तव्य"
    ],
    [
      "१९९",
      "०</w>"
    ],
    [
      "ध",
      "ू"
    ],
    [
      "मन्दि",
      "र"
    ],
    [
      "१",
      ","
    ],
    [
      "ओलिम्प",
      "िक्-"
    ],
    [
      "उप",
      "त्य"
    ],
    [
      "वे",
      "ग"
    ],
    [
      "एत",
      "ाः</w>"
    ],
    [
      "१",
      "४"
    ],
    [
      "सा.श.",
      "पू"
    ],
    [
      "संस्",
      "कृ"
    ],
    [
      "न्-",
      "देशे</w>"
    ],
    [
      "का",
      "-"
    ],
    [
      "सी",
      "म"
    ],
    [
      "शब्",
      "द"
    ],
    [
      "व",
      "र्</w>"
    ],
    [
      "न्यू",
      "यार्"
    ],
    [
      "स्वीड",
      "न्-देशस्य</w>"
    ],
    [
      "शि",
      "व"
    ],
    [
      "स",
      "द्य"
    ],
    [
      "युद्ध",
      "ं</w>"
    ],
    [
      "आ",
      "कर्ष"
    ],
    [
      "ाण",
      "ि,</w>"
    ],
    [
      "गु",
      "रु"
    ],
    [
      "अमेरिक",
      "ा-देशस्य</w>"
    ],
    [
      "इस्",
      "ला"
    ],
    [
      "जीव",
      "न"
    ],
    [
      "आ",
      "हार"
    ],
    [
      "ाप",
      "ि,</w>"
    ],
    [
      "े",
      "क्ष"
    ],
    [
      ";",
      "</w>"
    ],
    [
      "र",
      "ाः</w>"
    ],
    [
      "व",
      "ीड"
    ],
    [
      "मुघ",
      "ल"
    ],
    [
      "ह",
      "ाय"
    ],
    [
      "प्रदेश",
      "ेषु</w>"
    ],
    [
      "क्य",
      "ालि"
    ],
    [
      "ण्ट",
      "्</w>"
    ],
    [
      "द्वितीय",
      "ं</w>"
    ],
    [
      "ऋ",
      "ण"
    ],
    [
      "तम",
      "वर्ष"
    ],
    [
      "रे",
      "ल"
    ],
    [
      "व",
      "ल"
    ],
    [
      "ऊ",
      "र्ध्व"
    ],
    [
      "म",
      "मार"
    ],
    [
      "श",
      "िय"
    ],
    [
      "क",
      "्यू"
    ],
    [
      "देह",
      "ली"
    ],
    [
      ".",
      "के"
    ],
    [
      "कम्प",
      "नी</w>"
    ],
    [
      "६",
      "०</w>"
    ],
    [
      "ा",
      "ं,</w>"
    ],
    [
      "त",
      "ेषाम्</w>"
    ],
    [
      "ं",
      "ग्</w>"
    ],
    [
      "आ",
      "स"
    ],
    [
      "कृत",
      "वान्,</w>"
    ],
    [
      "पो",
      "ष"
    ],
    [
      "से",
      "वा"
    ],
    [
      "वि",
      "रोध"
    ],
    [
      "या",
      "व"
    ],
    [
      "रे",
      "ल्-"
    ],
    [
      ".ऐ",
      ".</w>"
    ],
    [
      "कि",
      "म"
    ],
    [
      "महा",
      "विद्यालय"
    ],
    [
      "इतो",
      "ऽपि</w>"
    ],
    [
      "प्",
      "स्</w>"
    ],
    [
      "थ",
      "्</w>"
    ],
    [
      "पाकि",
      "स्त"
    ],
    [
      "च",
      "ौ"
    ],
    [
      "गीत",
      "ानि</w>"
    ],
    [
      "न",
      "ाल"
    ],
    [
      "सर्वकार",
      "ेण</w>"
    ],
    [
      "प्र",
      "ाण"
    ],
    [
      "किलो",
      "मीटर्</w>"
    ],
    [
      "श्र",
      "ेष्ठ"
    ],
    [
      "आ",
      "फ्</w>"
    ],
    [
      "सु",
      "ल्"
    ],
    [
      "तु",
      "ल"
    ],
    [
      "१९७",
      "०</w>"
    ],
    [
      "त",
      "रं</w>"
    ],
    [
      "करो",
      "तु।</w>"
    ],
    [
      "ट",
      "ा</w>"
    ],
    [
      "सम्",
      "प्रति</w>"
    ],
    [
      "सि",
      "स्ट"
    ],
    [
      "प्र",
      "या"
    ],
    [
      "अन",
      "न्तरं,</w>"
    ],
    [
      "को",
      "ऽपि</w>"
    ],
    [
      "ल",
      "ब्ध"
    ],
    [
      "२",
      "९</w>"
    ],
    [
      "देश",
      "ात्</w>"
    ],
    [
      "दुर्ग",
      "ः</w>"
    ],
    [
      "म",
      "द्य"
    ],
    [
      "त्र",
      "यः</w>"
    ],
    [
      "ग्राम",
      "ः</w>"
    ],
    [
      "अ",
      "ण्ड"
    ],
    [
      "सर्वकार",
      "स्य</w>"
    ],
    [
      "जन",
      "ानाम्</w>"
    ],
    [
      "अन्य",
      "ेषां</w>"
    ],
    [
      "नि",
      "म्"
    ],
    [
      "पृथ",
      "क्</w>"
    ],
    [
      "आफ़",
      "्</w>"
    ],
    [
      "वा",
      "हि"
    ],
    [
      "सि",
      "स्</w>"
    ],
    [
      "न्त",
      "ी</w>"
    ],
    [
      "दुः",
      "ख"
    ],
    [
      "ण",
      "ात्</w>"
    ],
    [
      "्ट",
      "ि"
    ],
    [
      "ेश",
      "्व"
    ],
    [
      "ट",
      "्यू"
    ],
    [
      "प्र",
      "चार"
    ],
    [
      "िक्",
      "स्-"
    ],
    [
      "फ़",
      "ै"
    ],
    [
      "त",
      "योः</w>"
    ],
    [
      "िण",
      "ां</w>"
    ],
    [
      "वर्त",
      "त।</w>"
    ],
    [
      "शु",
      "ष्"
    ],
    [
      "मार्ग",
      "े</w>"
    ],
    [
      "वि",
      "राम"
    ],
    [
      "पश्चिम",
      "-"
    ],
    [
      "उत्स",
      "वः</w>"
    ],
    [
      "विश्व",
      "-"
    ],
    [
      "आस्ता",
      "म्।</w>"
    ],
    [
      "अभ",
      "्या"
    ],
    [
      "अजाय",
      "त।</w>"
    ],
    [
      "उपयु",
      "ञ्ज"
    ],
    [
      "शिल",
      "ालेख"
    ],
    [
      "सम्",
      "भाव"
    ],
    [
      "शी",
      "र्ष"
    ],
    [
      "ह",
      "ी"
    ],
    [
      "न",
      "र"
    ],
    [
      "सर्वो",
      "च्च"
    ],
    [
      "परि",
      "च"
    ],
    [
      "दृष्ट",
      "्वा</w>"
    ],
    [
      "वा",
      "स्तु"
    ],
    [
      "ले",
      "क्ट"
    ],
    [
      "प्रति",
      "ष्ठ"
    ],
    [
      "अभि",
      "नेत्र"
    ],
    [
      "२००",
      "३</w>"
    ],
    [
      "नवे",
      "म्बर्</w>"
    ],
    [
      "िक",
      "ायां</w>"
    ],
    [
      "नि",
      "या</w>"
    ],
    [
      "प",
      "िता</w>"
    ],
    [
      "फे",
      "ब्रुवर"
    ],
    [
      "प",
      "्या"
    ],
    [
      "क",
      "ं,</w>"
    ],
    [
      "सङ्गी",
      "तस्य</w>"
    ],
    [
      "ब",
      "ल्-"
    ],
    [
      "अक्रीड",
      "त्।</w>"
    ],
    [
      "इत्ये",
      "तस्य</w>"
    ],
    [
      "प्रारम्भ",
      "िक"
    ],
    [
      "ती",
      "नां</w>"
    ],
    [
      "समूह",
      "स्य</w>"
    ],
    [
      "स्ट",
      "र्</w>"
    ],
    [
      "सम्",
      "मान"
    ],
    [
      ".",
      "डि"
    ],
    [
      "ददा",
      "ति।</w>"
    ],
    [
      "प्रदर्श",
      "ितम्।</w>"
    ],
    [
      "शताब्",
      "द्य"
    ],
    [
      "वा",
      "द्य"
    ],
    [
      "िय",
      "ो-"
    ],
    [
      "ा",
      "मि।</w>"
    ],
    [
      "अवद",
      "त्</w>"
    ],
    [
      "काङ्ग्रे",
      "स्-"
    ],
    [
      "अ",
      "य"
    ],
    [
      "इङ्ग्ल",
      "े"
    ],
    [
      "या",
      "मास"
    ],
    [
      "गृह",
      "ी"
    ],
    [
      "म",
      "ङ्ग"
    ],
    [
      "स्वय",
      "मेव</w>"
    ],
    [
      "सम्",
      "मिल"
    ],
    [
      "च",
      "ार्"
    ],
    [
      "अन्वेष",
      "्ट"
    ],
    [
      "युक्त",
      "ाः</w>"
    ],
    [
      "म्",
      "\"</w>"
    ],
    [
      "म्बर्-",
      "मासस्य</w>"
    ],
    [
      "आ",
      "त्"
    ],
    [
      "अ",
      "पर"
    ],
    [
      "एप्रि",
      "ल्-"
    ],
    [
      "२००",
      "२</w>"
    ],
    [
      "यु",
      "ः</w>"
    ],
    [
      "रि",
      "-"
    ],
    [
      "जा",
      "र्ज"
    ],
    [
      "ड",
      "ा</w>"
    ],
    [
      "स्थाप",
      "ना</w>"
    ],
    [
      "वस्तु",
      "तः</w>"
    ],
    [
      "वासि",
      "नः</w>"
    ],
    [
      "दत्त",
      "ांश"
    ],
    [
      "व",
      "ेत"
    ],
    [
      "मार्",
      "च्-"
    ],
    [
      "ङ्क",
      "्-"
    ],
    [
      "अत्य",
      "धिक"
    ],
    [
      "ग",
      "त्वा</w>"
    ],
    [
      "अत्य",
      "न्त"
    ],
    [
      "स्थान",
      "स्य</w>"
    ],
    [
      "ध",
      "र"
    ],
    [
      ".ए",
      "फ्"
    ],
    [
      "ग",
      "वर्"
    ],
    [
      "श्व",
      "ेत"
    ],
    [
      "ये",
      "त्।</w>"
    ],
    [
      "च",
      "रण"
    ],
    [
      "सह",
      "स्"
    ],
    [
      "अङ्ग",
      "ी"
    ],
    [
      "जीव",
      "नं</w>"
    ],
    [
      "क्ष",
      "म"
    ],
    [
      "य",
      "ः,</w>"
    ],
    [
      "परियो",
      "जन"
    ],
    [
      "िय",
      "ान"
    ],
    [
      "उ",
      "न्न"
    ],
    [
      "बे",
      "ल्"
    ],
    [
      "फ़",
      "ो"
    ],
    [
      "अनु",
      "सार"
    ],
    [
      "च",
      "ालय"
    ],
    [
      "परस्",
      "परं</w>"
    ],
    [
      "गीत",
      "ं</w>"
    ],
    [
      "अ",
      "शो"
    ],
    [
      "स",
      "न्त"
    ],
    [
      "वि",
      "मो"
    ],
    [
      "भ",
      "ौ"
    ],
    [
      "ी",
      "करणं</w>"
    ],
    [
      "यत",
      "ो</w>"
    ],
    [
      "स्थि",
      "तिः</w>"
    ],
    [
      "दि",
      "नं</w>"
    ],
    [
      "प्रतिश",
      "तं</w>"
    ],
    [
      "फ़",
      "्र"
    ],
    [
      "शीघ्र",
      "मेव</w>"
    ],
    [
      "अक्टोब",
      "र्-"
    ],
    [
      "न्द",
      "ोल"
    ],
    [
      "परि",
      "ष"
    ],
    [
      "सह",
      "भाग"
    ],
    [
      "वंश",
      "स्य</w>"
    ],
    [
      "चित्र",
      "ं</w>"
    ],
    [
      "ज्ञा",
      "तुं</w>"
    ],
    [
      "आ",
      "द"
    ],
    [
      "पा",
      "तः</w>"
    ],
    [
      "ममार",
      "।</w>"
    ],
    [
      "न्तु",
      "।</w>"
    ],
    [
      "क्",
      "ला"
    ],
    [
      "प्र",
      "स्ता"
    ],
    [
      "विश्वविद्याल",
      "ये</w>"
    ],
    [
      "ने",
      "ह"
    ],
    [
      "ली",
      "ग्-"
    ],
    [
      "अकुर्व",
      "न्।</w>"
    ],
    [
      "ित",
      "वन्तः।</w>"
    ],
    [
      "उपयोक्त",
      "ुं</w>"
    ],
    [
      "ह",
      "स्ता"
    ],
    [
      "त्य",
      "ाः</w>"
    ],
    [
      "सम्",
      "पाद"
    ],
    [
      "म्पियन्शि",
      "प्</w>"
    ],
    [
      "आ",
      "रे"
    ],
    [
      "स्ट",
      "र्-"
    ],
    [
      "का",
      "ष्ठ"
    ],
    [
      "प्र",
      "ै"
    ],
    [
      "निय",
      "मित"
    ],
    [
      "न्",
      "स्"
    ],
    [
      "ट",
      "ा-"
    ],
    [
      "प्रय",
      "त्न"
    ],
    [
      "ु",
      "ल"
    ],
    [
      "वा",
      "सः</w>"
    ],
    [
      "व्य",
      "ः</w>"
    ],
    [
      "वर्",
      "ल्ड्-"
    ],
    [
      "ार",
      "ोह"
    ],
    [
      "क",
      "ल्"
    ],
    [
      "दर्",
      "भ"
    ],
    [
      "गु",
      "णं</w>"
    ],
    [
      "प्रा",
      "थम"
    ],
    [
      "म",
      "ानि</w>"
    ],
    [
      "पो",
      "लो"
    ],
    [
      "ब्ल",
      "ा"
    ],
    [
      "फ़",
      "्</w>"
    ],
    [
      "पूर्व",
      "म्</w>"
    ],
    [
      "्या",
      "त्</w>"
    ],
    [
      "देह",
      "ली-"
    ],
    [
      "पर",
      "िक"
    ],
    [
      "प्रथम",
      "ा</w>"
    ],
    [
      "ड",
      "ी-"
    ],
    [
      "ओ",
      "डि"
    ],
    [
      "ित",
      "ेषु</w>"
    ],
    [
      "प्रदर्श",
      "नं</w>"
    ],
    [
      "अ",
      "नि"
    ],
    [
      "र",
      "ेण</w>"
    ],
    [
      "ऽ",
      "यं</w>"
    ],
    [
      "2",
      "0"
    ],
    [
      "म",
      "धु"
    ],
    [
      "ङ्ग",
      "्,</w>"
    ],
    [
      "इत्याद",
      "ीनां</w>"
    ],
    [
      "म",
      "र्श"
    ],
    [
      "श",
      "ल्य"
    ],
    [
      "नौ",
      "का"
    ],
    [
      "रो",
      "च"
    ],
    [
      "ट",
      "ल्-"
    ],
    [
      "संस्थ",
      "ाः</w>"
    ],
    [
      "ण्ड",
      "ि"
    ],
    [
      "प",
      "ब्ल"
    ],
    [
      "केर",
      "ळ"
    ],
    [
      "अस्",
      "ति"
    ],
    [
      "अ",
      "मु"
    ],
    [
      "त्व",
      "म्</w>"
    ],
    [
      "उत्तरा",
      "धिकार"
    ],
    [
      "म",
      "ल्ल"
    ],
    [
      "म",
      "ी-"
    ],
    [
      "यथ",
      "ा,</w>"
    ],
    [
      "प्रा",
      "कृति"
    ],
    [
      "टि",
      "-"
    ],
    [
      "व",
      "वृ"
    ],
    [
      "ने",
      "ट्</w>"
    ],
    [
      "सा",
      "गर"
    ],
    [
      "१९९",
      "९</w>"
    ],
    [
      "म",
      "स्य</w>"
    ],
    [
      "ख",
      "्-"
    ],
    [
      "व",
      "ं</w>"
    ],
    [
      "क्र",
      "ै"
    ],
    [
      "शी",
      "ल"
    ],
    [
      "धान",
      "ं</w>"
    ],
    [
      "पार्श्व",
      "े</w>"
    ],
    [
      "ज्ञाय",
      "ते।</w>"
    ],
    [
      "र",
      "</w>"
    ],
    [
      ".एल्",
      ".</w>"
    ],
    [
      "अन्य",
      "ः</w>"
    ],
    [
      "न्यूयार्",
      "क्-"
    ],
    [
      "गच्छ",
      "ति।</w>"
    ],
    [
      "नास्",
      "ति</w>"
    ],
    [
      "अभ्य",
      "न"
    ],
    [
      "अ",
      "श्व"
    ],
    [
      "त्स",
      "ु</w>"
    ],
    [
      "अ",
      "यो"
    ],
    [
      "अ",
      "भूत्।</w>"
    ],
    [
      "यूरो",
      "प्-"
    ],
    [
      "-",
      "राज्ये</w>"
    ],
    [
      "लक्ष",
      "ण"
    ],
    [
      "लि",
      "नो"
    ],
    [
      "आफ़",
      "्</w>"
    ],
    [
      "ा",
      "त्,</w>"
    ],
    [
      "त",
      "न"
    ],
    [
      "राज्य",
      "ेषु</w>"
    ],
    [
      "ा",
      "त्म"
    ],
    [
      "सं",
      "रच"
    ],
    [
      "१९९",
      "८</w>"
    ],
    [
      "मा",
      "सा"
    ],
    [
      "स्वास्थ",
      "्य"
    ],
    [
      "रूप",
      "्य"
    ],
    [
      "सम्प",
      "त्त"
    ],
    [
      "चिकित्",
      "सा"
    ],
    [
      "पर",
      "्</w>"
    ],
    [
      "कार्या",
      "णि</w>"
    ],
    [
      "य",
      "च्च</w>"
    ],
    [
      "करो",
      "ग"
    ],
    [
      "चि",
      "न्ति"
    ],
    [
      "अ",
      "क्"
    ],
    [
      "ज",
      "ाप"
    ],
    [
      "बा",
      "द्-"
    ],
    [
      "विज",
      "ेत"
    ],
    [
      "रो",
      "</w>"
    ],
    [
      "युनैटे",
      "ड्-"
    ],
    [
      "सम",
      "ग्र"
    ],
    [
      "मह",
      "ि"
    ],
    [
      "स्-",
      "नगरे</w>"
    ],
    [
      "ड",
      "ाल"
    ],
    [
      "‌",
      "।</w>"
    ],
    [
      "एक",
      "म्</w>"
    ],
    [
      "नेत",
      "ा</w>"
    ],
    [
      "पद",
      "वी"
    ],
    [
      "ा",
      "भिः</w>"
    ],
    [
      "प्र",
      "दाय"
    ],
    [
      "सि",
      "न्ध"
    ],
    [
      "क्रीड",
      "ां</w>"
    ],
    [
      "सम",
      "स्याः</w>"
    ],
    [
      "निर्म",
      "ितः</w>"
    ],
    [
      "राजधान",
      "ी</w>"
    ],
    [
      "उद्य",
      "ान"
    ],
    [
      "चो",
      "ळ"
    ],
    [
      "द",
      "े</w>"
    ],
    [
      "प",
      "तिः</w>"
    ],
    [
      "प्रति",
      "द्वन्"
    ],
    [
      "से",
      "नायाः</w>"
    ],
    [
      "नूत",
      "नं</w>"
    ],
    [
      "म",
      "ान्</w>"
    ],
    [
      "द",
      "पि</w>"
    ],
    [
      "ट",
      "ू"
    ],
    [
      "पुन",
      "रा"
    ],
    [
      "वि",
      "ण्डो"
    ],
    [
      "मो",
      "द"
    ],
    [
      "भि",
      "त्त"
    ],
    [
      "यि",
      "ष्य"
    ],
    [
      "वि",
      "ल"
    ],
    [
      "यु",
      "व"
    ],
    [
      "ि",
      "भिः</w>"
    ],
    [
      "टि",
      "ङ्ग्</w>"
    ],
    [
      "वि",
      "र"
    ],
    [
      "सैनिक",
      "ाः</w>"
    ],
    [
      "्रे",
      "ञ्च्-"
    ],
    [
      "व्यवस्थ",
      "ायाः</w>"
    ],
    [
      "वै",
      "ज्ञान"
    ],
    [
      "सर्व",
      "ेषु</w>"
    ],
    [
      "हिन्दु",
      "-"
    ],
    [
      "सर्वकार",
      "ः</w>"
    ],
    [
      "ब",
      "र्</w>"
    ],
    [
      "ना",
      "र्"
    ],
    [
      "य",
      "न्ति,</w>"
    ],
    [
      "कृष",
      "ि"
    ],
    [
      "हिन्द",
      "ी"
    ],
    [
      "वि",
      "लम्ब"
    ],
    [
      "ेक",
      "्-"
    ],
    [
      "सूच",
      "ी</w>"
    ],
    [
      "म्भ",
      "ी"
    ],
    [
      "सद",
      "स्याः</w>"
    ],
    [
      "अतिरि",
      "च"
    ],
    [
      "काल",
      "ात्</w>"
    ],
    [
      "प",
      "द्"
    ],
    [
      "का",
      "ः,</w>"
    ],
    [
      "म",
      "तं</w>"
    ],
    [
      "स",
      "र्</w>"
    ],
    [
      "पर",
      "म्प"
    ],
    [
      "दल",
      "ः</w>"
    ],
    [
      "ृ",
      "द्ध"
    ],
    [
      "स",
      "र्-"
    ],
    [
      "थ",
      "ा"
    ],
    [
      "सन्",
      "दर्भ"
    ],
    [
      "ज",
      "लं</w>"
    ],
    [
      "मृ",
      "तः।</w>"
    ],
    [
      "ण्ड",
      "्र"
    ],
    [
      "ज",
      "ा</w>"
    ],
    [
      "काल",
      "े,</w>"
    ],
    [
      "-प्र",
      "देशे</w>"
    ],
    [
      "फ",
      "्-"
    ],
    [
      "अग्र",
      "े</w>"
    ],
    [
      "सङ्क",
      "ट"
    ],
    [
      "द्र",
      "ा"
    ],
    [
      "ड",
      "र्</w>"
    ],
    [
      "मू",
      "र्"
    ],
    [
      "सा.श.पू",
      ".</w>"
    ],
    [
      "अमृ",
      "त।</w>"
    ],
    [
      "कु",
      "रु"
    ],
    [
      "मो",
      "ह"
    ],
    [
      "ल",
      "र्</w>"
    ],
    [
      "ज",
      "ः</w>"
    ],
    [
      "राज्य",
      "-"
    ],
    [
      "सम",
      "र्प"
    ],
    [
      "व",
      "े</w>"
    ],
    [
      "सा",
      "र्ध"
    ],
    [
      "िया-",
      "देशस्य</w>"
    ],
    [
      "ब",
      "ल्</w>"
    ],
    [
      "फ़",
      "ी"
    ],
    [
      "लक्ष",
      "णानि</w>"
    ],
    [
      "ब्र",
      "े"
    ],
    [
      "जन",
      "ेभ्यः</w>"
    ],
    [
      "तथ",
      "ापि,</w>"
    ],
    [
      "क",
      "था</w>"
    ],
    [
      "ाय",
      "ाः,</w>"
    ],
    [
      "परिवार",
      "स्य</w>"
    ],
    [
      "सम",
      "ृद्ध"
    ],
    [
      "ारा",
      "ज्य"
    ],
    [
      "स्",
      "तः</w>"
    ],
    [
      "त",
      "मात्</w>"
    ],
    [
      "ड्",
      ",</w>"
    ],
    [
      "पञ्",
      "च</w>"
    ],
    [
      "नि",
      "ष"
    ],
    [
      "उद्य",
      "ोग"
    ],
    [
      "ु",
      "ं,</w>"
    ],
    [
      "कृत",
      "वन्तः।</w>"
    ],
    [
      "विस्",
      "फोट"
    ],
    [
      "ध",
      "नस्य</w>"
    ],
    [
      "पूर्ण",
      "तया</w>"
    ],
    [
      "द्वितीय",
      "ः</w>"
    ],
    [
      "देश",
      "योः</w>"
    ],
    [
      "प्र",
      "विश"
    ],
    [
      "कौ",
      "श"
    ],
    [
      "मस्",
      "ति।</w>"
    ],
    [
      "अर्थ",
      "ात्</w>"
    ],
    [
      "व",
      "ण"
    ],
    [
      "निर्मित",
      "म्।</w>"
    ],
    [
      "फ़",
      "्-"
    ],
    [
      "विज",
      "यं</w>"
    ],
    [
      "बह",
      "ि"
    ],
    [
      "टु",
      "म्ब"
    ],
    [
      "उत्त",
      "मं</w>"
    ],
    [
      "१९",
      "०"
    ],
    [
      "िक",
      "ानां</w>"
    ],
    [
      "ी",
      "ः</w>"
    ],
    [
      "सर्व",
      "ं</w>"
    ],
    [
      "गृह्",
      "णा"
    ],
    [
      "श",
      "ार"
    ],
    [
      "अर्थ",
      "ः</w>"
    ],
    [
      "प्र",
      "वाह"
    ],
    [
      "द्र",
      "व्य"
    ],
    [
      "त",
      "यः</w>"
    ],
    [
      "गृह्",
      "ण"
    ],
    [
      "निर्वाच",
      "ने</w>"
    ],
    [
      "प्रमुख",
      "ाः</w>"
    ],
    [
      "वि",
      "ज्ञान"
    ],
    [
      "र",
      "ि</w>"
    ],
    [
      "सङ्",
      "घट"
    ],
    [
      "शीघ्र",
      "ं</w>"
    ],
    [
      "रो",
      "ह"
    ],
    [
      "स",
      "त्य"
    ],
    [
      "शुल्",
      "कं</w>"
    ],
    [
      "ान",
      "ा</w>"
    ],
    [
      ".ए",
      "च्"
    ],
    [
      "सञ्च",
      "ाल"
    ],
    [
      "नुया",
      "त्।</w>"
    ],
    [
      "तन्त्र",
      "ांश"
    ],
    [
      "फ़",
      "ी"
    ],
    [
      "-प्र",
      "देशस्य</w>"
    ],
    [
      "अ",
      "ना"
    ],
    [
      "म",
      "ाय"
    ],
    [
      "रूप",
      "ेण,</w>"
    ],
    [
      "वि",
      "भा"
    ],
    [
      "विन्या",
      "स"
    ],
    [
      "सर्व",
      "ेषां</w>"
    ],
    [
      "पृ",
      "च्छ"
    ],
    [
      "रिय",
      "ा"
    ],
    [
      "उल्",
      "लिख"
    ],
    [
      "वि",
      "वाद"
    ],
    [
      "आह",
      "त्य</w>"
    ],
    [
      "र्",
      "स्-"
    ],
    [
      "शास",
      "नं</w>"
    ],
    [
      "द",
      "ीप"
    ],
    [
      "अकरो",
      "त्,</w>"
    ],
    [
      "ल",
      "र्-"
    ],
    [
      "य",
      "त्"
    ],
    [
      "मा",
      "न्"
    ],
    [
      "व्यव",
      "साय"
    ],
    [
      "मन्य",
      "न्ते।</w>"
    ],
    [
      "ट",
      "न्-"
    ],
    [
      "फ़",
      "्ल"
    ],
    [
      "आर्थ",
      "िक"
    ],
    [
      "ग",
      "म्भी"
    ],
    [
      "८",
      "०</w>"
    ],
    [
      "भ",
      "े"
    ],
    [
      "ने",
      "न,</w>"
    ],
    [
      "स्व",
      "ाय"
    ],
    [
      "सप्",
      "त"
    ],
    [
      "पदा",
      "र्थ"
    ],
    [
      "स्व",
      "च्छ"
    ],
    [
      "आरम्भ",
      "ः</w>"
    ],
    [
      "शि",
      "ल्प"
    ],
    [
      "स्",
      "ना"
    ],
    [
      "श",
      "य"
    ],
    [
      "क",
      "प्</w>"
    ],
    [
      "कार्",
      "ड्</w>"
    ],
    [
      "केष",
      "ा"
    ],
    [
      "आ",
      "गत"
    ],
    [
      "स्वाय",
      "त्त"
    ],
    [
      "ह",
      "्"
    ],
    [
      "का",
      "णि</w>"
    ],
    [
      "ग्",
      "न"
    ],
    [
      "स्ट",
      "्"
    ],
    [
      "बृहत्त",
      "मं</w>"
    ],
    [
      "व",
      "ध"
    ],
    [
      "क्ष",
      "ु"
    ],
    [
      "ा",
      "न्तर"
    ],
    [
      "ति",
      "म्</w>"
    ],
    [
      "म",
      "िय"
    ],
    [
      "अर्ह",
      "न्ति।</w>"
    ],
    [
      "कर्",
      "करोग"
    ],
    [
      "२०",
      "०</w>"
    ],
    [
      "महत्त्व",
      "पूर्णं</w>"
    ],
    [
      "थ",
      "ि"
    ],
    [
      "प्रा",
      "सा"
    ],
    [
      "दि",
      "श्य"
    ],
    [
      "प्र",
      "कट"
    ],
    [
      "नगरपाल",
      "िकायाः</w>"
    ],
    [
      "माद",
      "क"
    ],
    [
      "मे",
      "कं</w>"
    ],
    [
      "स्व",
      "स्याः</w>"
    ],
    [
      "परिवर्त",
      "नं</w>"
    ],
    [
      "सं",
      "योज"
    ],
    [
      "त",
      "वान्।</w>"
    ],
    [
      "इ",
      "ति"
    ],
    [
      "द्रु",
      "त"
    ],
    [
      "यामास",
      "।</w>"
    ],
    [
      "सु",
      "ख"
    ],
    [
      "प्रति",
      "वेद"
    ],
    [
      "सम्बद्ध",
      "ाः</w>"
    ],
    [
      "व",
      "न्य"
    ],
    [
      "प",
      "श"
    ],
    [
      "मार्ग",
      "स्य</w>"
    ],
    [
      "जा",
      "तीय"
    ],
    [
      "विशेष",
      "ः</w>"
    ],
    [
      "अव",
      "स"
    ],
    [
      "मासे",
      ",</w>"
    ],
    [
      "ब",
      "ू"
    ],
    [
      "प्रदेश",
      "ं</w>"
    ],
    [
      "आक्रम",
      "ण"
    ],
    [
      "-",
      "नगरस्य</w>"
    ],
    [
      "अ",
      "ंश"
    ],
    [
      "मध्य",
      "े,</w>"
    ],
    [
      "प्रमुख",
      "ं</w>"
    ],
    [
      "के",
      "ट्</w>"
    ],
    [
      "ित",
      "ाः,</w>"
    ],
    [
      "नि",
      "योज"
    ],
    [
      "रात्र",
      "ौ</w>"
    ],
    [
      "चतु",
      "रङ्ग"
    ],
    [
      "इत्येत",
      "ान्</w>"
    ],
    [
      "्व",
      "े"
    ],
    [
      "न्",
      "ट"
    ],
    [
      "जनगणन",
      "ानुसारं</w>"
    ],
    [
      "श",
      "ा-"
    ],
    [
      "ान",
      "ः</w>"
    ],
    [
      "र",
      "चित"
    ],
    [
      "कु",
      "टुम्ब"
    ],
    [
      "ग्री",
      "क्-"
    ],
    [
      "ट्",
      "ज़"
    ],
    [
      "ज",
      "ला"
    ],
    [
      "लघु",
      "-"
    ],
    [
      "ख",
      "े"
    ],
    [
      "उप",
      "युक्त"
    ],
    [
      "कार",
      "णं</w>"
    ],
    [
      "भव",
      "ते</w>"
    ],
    [
      "प्रसिद्ध",
      "म्</w>"
    ],
    [
      "नि",
      "ः"
    ],
    [
      "तद",
      "ीय"
    ],
    [
      "इ",
      "लिनो"
    ],
    [
      "ए",
      "तस्य</w>"
    ],
    [
      "निर",
      "न्तरं</w>"
    ],
    [
      "श",
      "ृ"
    ],
    [
      "सु",
      "निश्च"
    ],
    [
      "अन्त",
      "र्ग"
    ],
    [
      "यो",
      "द्ध"
    ],
    [
      "दि",
      "ति</w>"
    ],
    [
      "१९६",
      "०</w>"
    ],
    [
      "ष्ट",
      "ः</w>"
    ],
    [
      "टे",
      "स्ट्-"
    ],
    [
      "न्",
      "त्य"
    ],
    [
      "यथ",
      "ा"
    ],
    [
      "प",
      "शु"
    ],
    [
      "अव",
      "श्य"
    ],
    [
      "स्व",
      "र्ण"
    ],
    [
      "ग",
      "्य"
    ],
    [
      "फ़",
      "्र"
    ],
    [
      "ाप",
      "ि"
    ],
    [
      "न",
      "ैः</w>"
    ],
    [
      "हा",
      "स्य"
    ],
    [
      "सम्भा",
      "व्य"
    ],
    [
      "भाग",
      "स्य</w>"
    ],
    [
      "इण्ड",
      "िया</w>"
    ],
    [
      "स",
      "न्तु"
    ],
    [
      "पत्र",
      "ाणि</w>"
    ],
    [
      "क्रीड",
      "ा-"
    ],
    [
      "का",
      "श्चन</w>"
    ],
    [
      "अ",
      "का"
    ],
    [
      "सङ्गीत",
      "ं</w>"
    ],
    [
      "आ",
      "ण्ट"
    ],
    [
      "एश",
      "िया-"
    ],
    [
      "क",
      "रः</w>"
    ],
    [
      "अत्य",
      "ु"
    ],
    [
      "वि",
      "मर्श"
    ],
    [
      "अ",
      "भा"
    ],
    [
      "तट",
      "े</w>"
    ],
    [
      "भाग",
      "म्</w>"
    ],
    [
      "ण्ड",
      "र्</w>"
    ],
    [
      "भू",
      "य"
    ],
    [
      "रा",
      "शि"
    ],
    [
      "अ",
      "यम्</w>"
    ],
    [
      "क",
      "ानाम्</w>"
    ],
    [
      "ख",
      "न"
    ],
    [
      "पाकि",
      "स्ता"
    ],
    [
      "९",
      "०</w>"
    ],
    [
      "किय",
      "त्</w>"
    ],
    [
      "मे",
      "घ"
    ],
    [
      "स्प",
      "ोर्"
    ],
    [
      "म",
      "ाः</w>"
    ],
    [
      "आफ़",
      "्-"
    ],
    [
      "उप",
      "हार"
    ],
    [
      "अ",
      "ग"
    ],
    [
      "शक्नुव",
      "न्ति</w>"
    ],
    [
      "मूल",
      "तः</w>"
    ],
    [
      "चलच्चित्र",
      "-"
    ],
    [
      "प्ल",
      "ा"
    ],
    [
      "स्व",
      "ीय"
    ],
    [
      "आचर",
      "्यते।</w>"
    ],
    [
      "च्छ",
      "ाद"
    ],
    [
      "ङ्ग",
      "्ट"
    ],
    [
      "अद्य",
      "त्वे</w>"
    ],
    [
      "व्यक्त",
      "िः</w>"
    ],
    [
      "वि",
      "का"
    ],
    [
      "उप",
      "करण"
    ],
    [
      "त्",
      "काल"
    ],
    [
      "ग्रही",
      "तुं</w>"
    ],
    [
      "न",
      "योः</w>"
    ],
    [
      "स",
      "िक"
    ],
    [
      "दश",
      "कस्य</w>"
    ],
    [
      ".पी",
      ".</w>"
    ],
    [
      "फ़",
      "्ल"
    ],
    [
      "क",
      "रं</w>"
    ],
    [
      "स",
      "ल्"
    ],
    [
      "मुघ",
      "ल्-"
    ],
    [
      "केषा",
      "ञ्चन</w>"
    ],
    [
      "ह",
      "ानि"
    ],
    [
      "सं",
      "शोध"
    ],
    [
      "फ",
      "्रा"
    ],
    [
      "प्रे",
      "क्ष"
    ],
    [
      "अ",
      "ले"
    ],
    [
      "य",
      "्"
    ],
    [
      "तु",
      "ं,</w>"
    ],
    [
      "१",
      "."
    ],
    [
      "प",
      "राम"
    ],
    [
      "क",
      "र्-"
    ],
    [
      "कौण्ट",
      "ी</w>"
    ],
    [
      "ी",
      "म्</w>"
    ],
    [
      "मास",
      "पर्यन्तं</w>"
    ],
    [
      "७",
      "०</w>"
    ],
    [
      "’",
      "</w>"
    ],
    [
      "नगर",
      "ेषु</w>"
    ],
    [
      "िक",
      "न्-"
    ],
    [
      "वन",
      "स्प"
    ],
    [
      "आर्",
      "द्र"
    ],
    [
      "चर्",
      "च्</w>"
    ],
    [
      "वा",
      "त्</w>"
    ],
    [
      "राज",
      "कुमार"
    ],
    [
      "कि",
      "ङ्ग"
    ],
    [
      "सङ्घ",
      "स्य</w>"
    ],
    [
      "प",
      "ान"
    ],
    [
      "चित्र",
      "ाणि</w>"
    ],
    [
      "३",
      "१</w>"
    ],
    [
      "ङ्ग",
      "े"
    ],
    [
      "हस्ता",
      "क्ष"
    ],
    [
      "क्रा",
      "न्त"
    ],
    [
      "जू",
      "न्-"
    ],
    [
      "अ",
      "वृ"
    ],
    [
      "जल",
      "बन्ध"
    ],
    [
      "ाम",
      "ि</w>"
    ],
    [
      "या",
      "च"
    ],
    [
      "आ",
      "त्म"
    ],
    [
      "श",
      "ृङ्खल"
    ],
    [
      "रि",
      "पब्ल"
    ],
    [
      "चे",
      "न्न"
    ],
    [
      "अद्य",
      "</w>"
    ],
    [
      "भूमि",
      "ः</w>"
    ],
    [
      "ज",
      "िय"
    ],
    [
      "-",
      "ए"
    ],
    [
      "द्र",
      "व्या"
    ],
    [
      "प्राय",
      "ेण</w>"
    ],
    [
      "र",
      "न्</w>"
    ],
    [
      "अव",
      "शिष्ट"
    ],
    [
      "स्पर्ध",
      "ाः</w>"
    ],
    [
      "ू",
      "न्</w>"
    ],
    [
      "व्याप",
      "्"
    ],
    [
      "क",
      "क्ष"
    ],
    [
      "निय",
      "न्-"
    ],
    [
      "भाग",
      "ाः</w>"
    ],
    [
      "अ",
      "स्यां</w>"
    ],
    [
      "एक्",
      "स्"
    ],
    [
      "ं",
      "ग्-"
    ],
    [
      "मन्दि",
      "रम्</w>"
    ],
    [
      "फ़",
      "्</w>"
    ],
    [
      "फ़",
      "ो"
    ],
    [
      "र",
      "श"
    ],
    [
      "वि",
      "कि"
    ],
    [
      "स्ट्र",
      "ो"
    ],
    [
      "्",
      "मी"
    ],
    [
      "ब",
      "ाय"
    ],
    [
      "एक",
      "मात्र"
    ],
    [
      "ेक",
      "्ट"
    ],
    [
      "शक",
      "्यते</w>"
    ],
    [
      "भ्य",
      "न्तरे</w>"
    ],
    [
      "पराम",
      "र्श"
    ],
    [
      "बु",
      "द्ध"
    ],
    [
      "सि",
      "क्क"
    ],
    [
      "फ़",
      "ोर्"
    ],
    [
      "1",
      "9"
    ],
    [
      "निर्",
      "दिश"
    ],
    [
      "५",
      "०"
    ],
    [
      "स्पर्ध",
      "ा</w>"
    ],
    [
      "न्य",
      "ाः</w>"
    ],
    [
      "प",
      "थ"
    ],
    [
      "ज",
      "ी-"
    ],
    [
      "परिक",
      "ल्प"
    ],
    [
      "१९९",
      "६</w>"
    ],
    [
      "निम्",
      "न"
    ],
    [
      "गर्",
      "भ"
    ],
    [
      "क्षेत्र",
      "म्</w>"
    ],
    [
      "विक्र",
      "ेत"
    ],
    [
      "मणि",
      "पुर"
    ],
    [
      "शासन",
      "काले</w>"
    ],
    [
      "त्",
      "साह"
    ],
    [
      "्य",
      "मान"
    ],
    [
      "आक्रम",
      "णं</w>"
    ],
    [
      "सम्",
      "मुख"
    ],
    [
      "ं",
      "सा"
    ],
    [
      "स",
      "भा"
    ],
    [
      "ह",
      "्</w>"
    ],
    [
      "स्थाप",
      "यितुं</w>"
    ],
    [
      "प्र",
      "बल"
    ],
    [
      "प्रभा",
      "वः</w>"
    ],
    [
      "अध",
      "ीन"
    ],
    [
      "नागर",
      "िक"
    ],
    [
      "युनैटे",
      "ड्</w>"
    ],
    [
      "प्र",
      "वर्त"
    ],
    [
      "प्रत्य",
      "क्ष"
    ],
    [
      "भ",
      "े।</w>"
    ],
    [
      "य",
      "ेषां</w>"
    ],
    [
      "समा",
      "विष्ट"
    ],
    [
      "रू",
      "पा"
    ],
    [
      "ै",
      "न्-"
    ],
    [
      "तम",
      "ेषु</w>"
    ],
    [
      "प्रसिद्ध",
      "ा</w>"
    ],
    [
      "सं",
      "सद"
    ],
    [
      "अ",
      "ली</w>"
    ],
    [
      "आरो",
      "प"
    ],
    [
      "क",
      "निष्ठ"
    ],
    [
      "त्री",
      "णि</w>"
    ],
    [
      "कृत",
      "ाः</w>"
    ],
    [
      "व्यक्ति",
      "गत"
    ],
    [
      "पद",
      "कं</w>"
    ],
    [
      "रिय",
      "न्-"
    ],
    [
      "ने",
      "ट्"
    ],
    [
      "निया",
      "-राज्यस्य</w>"
    ],
    [
      "्र",
      "ि"
    ],
    [
      "को",
      "</w>"
    ],
    [
      "गच्छ",
      "ति</w>"
    ],
    [
      "स्पर्ध",
      "ासु</w>"
    ],
    [
      "मा",
      "म्</w>"
    ],
    [
      "वि",
      "वरण"
    ],
    [
      "विद्याल",
      "ये</w>"
    ],
    [
      "न",
      "ायां</w>"
    ],
    [
      "ण्ड",
      "ी-"
    ],
    [
      "मृ",
      "ग"
    ],
    [
      "प्र",
      "श्"
    ],
    [
      "फ़",
      "ोर्"
    ],
    [
      "आ",
      "</w>"
    ],
    [
      "जन",
      "ं</w>"
    ],
    [
      "शार",
      "ी"
    ],
    [
      ".",
      "बि"
    ],
    [
      "वि",
      "य"
    ],
    [
      "म्पियन्शि",
      "प्-"
    ],
    [
      "य",
      "्-"
    ],
    [
      "नियम",
      "ाः</w>"
    ],
    [
      "चि",
      "क्रीड"
    ],
    [
      "क",
      "ण्ट"
    ],
    [
      "निर",
      "वह"
    ],
    [
      "ञ्",
      "जि"
    ],
    [
      "शा",
      "ख"
    ],
    [
      "ती",
      "ति</w>"
    ],
    [
      "सङ्घ",
      "र्ष"
    ],
    [
      "गृह",
      "स्य</w>"
    ],
    [
      "पर्यन्त",
      "ं,</w>"
    ],
    [
      "क्",
      "वा"
    ],
    [
      "प्रथम",
      "-"
    ],
    [
      "भिन्न",
      "ाः</w>"
    ],
    [
      "उत्तर",
      "दिशि</w>"
    ],
    [
      "५",
      "००</w>"
    ],
    [
      "महिल",
      "ानां</w>"
    ],
    [
      "कृत",
      "ं</w>"
    ],
    [
      "देश",
      "ाः</w>"
    ],
    [
      "मे",
      "क्स"
    ],
    [
      "शि",
      "ख"
    ],
    [
      "अकरो",
      "त्</w>"
    ],
    [
      "क्रुद्ध",
      "ः</w>"
    ],
    [
      "भव",
      "न्तं</w>"
    ],
    [
      "जात",
      "यः</w>"
    ],
    [
      "म",
      "तस्य</w>"
    ],
    [
      "आह",
      "्व"
    ],
    [
      "च",
      "न्द"
    ],
    [
      "व",
      "-"
    ],
    [
      "ज़",
      "्</w>"
    ],
    [
      "फ",
      "लं</w>"
    ],
    [
      "ध",
      "नम्</w>"
    ],
    [
      "वृद्ध",
      "िः</w>"
    ],
    [
      "ड",
      "ौ"
    ],
    [
      "ू",
      "र्-"
    ],
    [
      "अन्यतम",
      "ा</w>"
    ],
    [
      "पु",
      "ष्"
    ],
    [
      "मि",
      ",</w>"
    ],
    [
      "वस्त",
      "ु</w>"
    ],
    [
      "बर्ग",
      "्-"
    ],
    [
      "ट्र",
      "ि"
    ],
    [
      "पि",
      ",</w>"
    ],
    [
      "अ",
      "ला"
    ],
    [
      "ति",
      "रि"
    ],
    [
      "अ",
      "गच्छ"
    ],
    [
      "इत्येत",
      "ौ</w>"
    ],
    [
      "ज",
      "लस्य</w>"
    ],
    [
      "क्ल",
      "ब्-"
    ],
    [
      "लै",
      "न्-"
    ],
    [
      "शक",
      "्यन्ते।</w>"
    ],
    [
      "ज",
      "हा"
    ],
    [
      "चर्",
      "च"
    ],
    [
      "प्र",
      "ौ"
    ],
    [
      "अन्वेष्ट",
      "ुं</w>"
    ],
    [
      "से",
      "ना</w>"
    ],
    [
      "अग्",
      "नि"
    ],
    [
      "दी",
      "न्</w>"
    ],
    [
      "सु",
      "न्द"
    ],
    [
      "प्रती",
      "क्ष"
    ],
    [
      "राज्ञ",
      "ः</w>"
    ],
    [
      "अभिन",
      "यम्</w>"
    ],
    [
      "सो",
      "सिय"
    ],
    [
      "शताब्द्य",
      "ां</w>"
    ],
    [
      "इत्याख्य",
      "ः</w>"
    ],
    [
      ".",
      "टि"
    ],
    [
      "बर्ग",
      "्</w>"
    ],
    [
      "वैर",
      "स्</w>"
    ],
    [
      "वर्य",
      "ेण</w>"
    ],
    [
      "रु",
      "चि"
    ],
    [
      "ान",
      "गर"
    ],
    [
      "स्",
      "कृति"
    ],
    [
      "कृत",
      "ा</w>"
    ],
    [
      "स",
      "ज्ज"
    ],
    [
      "मूल",
      "्या"
    ],
    [
      "क्षि",
      "प्"
    ],
    [
      "ाय",
      ",</w>"
    ],
    [
      "कार",
      "स्य</w>"
    ],
    [
      "ते",
      "लु"
    ],
    [
      "स्ना",
      "त"
    ],
    [
      "ाल",
      "यं</w>"
    ],
    [
      "महिल",
      "ाः</w>"
    ],
    [
      "इ",
      "रा"
    ],
    [
      "व्य",
      "यः</w>"
    ],
    [
      "सभ",
      "ायाः</w>"
    ],
    [
      "वन्त",
      "ौ।</w>"
    ],
    [
      "सां",
      "स्कृति"
    ],
    [
      "साम्",
      "राज्य"
    ],
    [
      "अ",
      "ब्"
    ],
    [
      "१९९",
      "५</w>"
    ],
    [
      "ति",
      "षु</w>"
    ],
    [
      "की",
      "र्ण"
    ],
    [
      "बे",
      "ङ्ग"
    ],
    [
      "युक्त",
      "ः</w>"
    ],
    [
      "वस्त",
      "ूनां</w>"
    ],
    [
      "िक",
      "या</w>"
    ],
    [
      "स",
      "ां</w>"
    ],
    [
      "स्थल",
      "े</w>"
    ],
    [
      "भ्य",
      "ः,</w>"
    ],
    [
      "स",
      "क्रिय"
    ],
    [
      "व",
      "ी</w>"
    ],
    [
      "सम्",
      "भवतः</w>"
    ],
    [
      "परि",
      "स"
    ],
    [
      "ड",
      "ियो"
    ],
    [
      "-",
      "देशस्य</w>"
    ],
    [
      "जर्म",
      "नी"
    ],
    [
      "जन",
      "ः</w>"
    ],
    [
      "0",
      "</w>"
    ],
    [
      "पा",
      "क"
    ],
    [
      "डे",
      "मो"
    ],
    [
      "समर्थ",
      "नं</w>"
    ],
    [
      "का",
      "ं"
    ],
    [
      "द",
      "ार"
    ],
    [
      "पदवी",
      "ं</w>"
    ],
    [
      "स्व",
      "ेषां</w>"
    ],
    [
      "पूर्व",
      "ं,</w>"
    ],
    [
      "ग्",
      "ने"
    ],
    [
      "अधिक",
      "ः</w>"
    ],
    [
      "ब",
      "्य"
    ],
    [
      "कम्प",
      "नी-"
    ],
    [
      "व",
      "न्</w>"
    ],
    [
      "इत्य",
      "यम्</w>"
    ],
    [
      "स",
      "स्</w>"
    ],
    [
      "जन",
      "सङ्ख्य"
    ],
    [
      "फ",
      "्ल"
    ],
    [
      "कुर्या",
      "त्।</w>"
    ],
    [
      "विश्व",
      "े</w>"
    ],
    [
      "र",
      "न्।</w>"
    ],
    [
      "निर्वा",
      "चित"
    ],
    [
      "निक",
      "ट"
    ],
    [
      "ी",
      "रूपेण</w>"
    ],
    [
      "अ",
      "म्ब"
    ],
    [
      "भू",
      "ष"
    ],
    [
      "श्र",
      "ृङ्खल"
    ],
    [
      "मु",
      "ह"
    ],
    [
      "स",
      "ति</w>"
    ],
    [
      "लो",
      "</w>"
    ],
    [
      "अन्य",
      "त्</w>"
    ],
    [
      "दुर्ग",
      "स्य</w>"
    ],
    [
      "व",
      "त्त"
    ],
    [
      "अपरा",
      "ध"
    ],
    [
      "विश्व",
      "स"
    ],
    [
      "र्",
      "ड्</w>"
    ],
    [
      "क",
      "म्यू"
    ],
    [
      "अधिक",
      "ानि</w>"
    ],
    [
      "ज़",
      "्</w>"
    ],
    [
      "प्रकार",
      "ाः</w>"
    ],
    [
      "कि",
      "शो"
    ],
    [
      "थ",
      "ु"
    ],
    [
      "विश्",
      "वास"
    ],
    [
      "क",
      "ाय</w>"
    ],
    [
      "अ",
      "सफल"
    ],
    [
      "ी",
      "ण"
    ],
    [
      "उत्त",
      "मः</w>"
    ],
    [
      "म्",
      "भा"
    ],
    [
      "ना",
      "र्थ"
    ],
    [
      "प",
      "रा"
    ],
    [
      "योग",
      "्य"
    ],
    [
      "ाण",
      "्ट"
    ],
    [
      "अधिकार",
      "िणः</w>"
    ],
    [
      "स्थ",
      "लं</w>"
    ],
    [
      "मा",
      "ंस"
    ],
    [
      "टि",
      "ङ्ग्-"
    ],
    [
      "१९९",
      "२</w>"
    ],
    [
      "धि",
      "प"
    ],
    [
      "य",
      "ाप"
    ],
    [
      "आ",
      "योजन"
    ],
    [
      "ण्ड्-",
      "देशे</w>"
    ],
    [
      "इत्य",
      "स्य"
    ],
    [
      "ना",
      "ति"
    ],
    [
      "सम",
      "यः</w>"
    ],
    [
      "परि",
      "वह"
    ],
    [
      "प्राप्",
      "नु"
    ],
    [
      "उपयुज",
      "्यन्ते।</w>"
    ],
    [
      "पक्ष",
      "ः</w>"
    ],
    [
      "नौ",
      "क"
    ],
    [
      "औ",
      "रङ्ग"
    ],
    [
      "अन्त",
      "तः</w>"
    ],
    [
      "ऐतिहास",
      "िक"
    ],
    [
      "त्व",
      "स्य</w>"
    ],
    [
      "ध",
      "्या"
    ],
    [
      "उत्प",
      "त्त"
    ],
    [
      ".सि",
      ".</w>"
    ],
    [
      "्व",
      "ी"
    ],
    [
      "प्र",
      "दा"
    ],
    [
      "ए",
      "च्"
    ],
    [
      "रे",
      "ल्"
    ],
    [
      "स्",
      "ति।</w>"
    ],
    [
      "वर्त",
      "न्ते।</w>"
    ],
    [
      "अधिक",
      "ा</w>"
    ],
    [
      "नियन्त्र",
      "णं</w>"
    ],
    [
      "न्या",
      "श"
    ],
    [
      "ह",
      "ित"
    ],
    [
      "दल",
      "ेन</w>"
    ],
    [
      "ता",
      "दृश"
    ],
    [
      "थ",
      "्-"
    ],
    [
      "व्य",
      "यस्य</w>"
    ],
    [
      "ख",
      "्"
    ],
    [
      "उदाहरण",
      "ार्थ"
    ],
    [
      "निवार",
      "यितुं</w>"
    ],
    [
      "क्",
      "ले"
    ],
    [
      "शारी",
      "रिक"
    ],
    [
      "वे",
      "ल्"
    ],
    [
      "प्रति",
      "दिनं</w>"
    ],
    [
      "ट",
      "र्स्</w>"
    ],
    [
      "नाम",
      "िका</w>"
    ],
    [
      "प",
      "क्षिण"
    ],
    [
      "स",
      "ूप"
    ],
    [
      "आल्ब",
      "म्</w>"
    ],
    [
      "खा",
      "द"
    ],
    [
      "करण",
      "ीय"
    ],
    [
      "ज़",
      "ा"
    ],
    [
      "ज्ञा",
      "त"
    ],
    [
      "ह",
      "ाल"
    ],
    [
      "प्रति",
      "रोध"
    ],
    [
      "शल्य",
      "क्रिय"
    ],
    [
      "श",
      "र्"
    ],
    [
      "स्पर्ध",
      "ां</w>"
    ],
    [
      "क",
      "न्न"
    ],
    [
      "विशेष",
      "तया</w>"
    ],
    [
      "कृ",
      "ता।</w>"
    ],
    [
      "ज़",
      "ो"
    ],
    [
      "स्ट",
      "ू"
    ],
    [
      "भव",
      "तः।</w>"
    ],
    [
      "°",
      "</w>"
    ],
    [
      "वि",
      "विद"
    ],
    [
      "कुर्व",
      "न्ति,</w>"
    ],
    [
      "निर्देश",
      "कः</w>"
    ],
    [
      "म",
      "न्द"
    ],
    [
      "प्र",
      "सन्"
    ],
    [
      "बा",
      "ङ्ग्ल"
    ],
    [
      "नेतृ",
      "त्वे</w>"
    ],
    [
      "्ड",
      "्-"
    ],
    [
      "भ",
      "ग"
    ],
    [
      "अन्य",
      "ाः</w>"
    ],
    [
      "सम",
      "ी"
    ],
    [
      "क्रे",
      "तुं</w>"
    ],
    [
      "तम",
      "वर्षात्</w>"
    ],
    [
      "ज",
      "ज्ञ"
    ],
    [
      "क्षेत्र",
      "ाणि</w>"
    ],
    [
      "वि",
      "भागः</w>"
    ],
    [
      "विमो",
      "च"
    ],
    [
      "डे",
      "वि"
    ],
    [
      "स्पर्ध",
      "ायाः</w>"
    ],
    [
      "फ़",
      "ा"
    ],
    [
      "भार",
      "त-"
    ],
    [
      "ग्राम",
      "े</w>"
    ],
    [
      "परिवार",
      "ः</w>"
    ],
    [
      "दे",
      "वः</w>"
    ],
    [
      "नै",
      "व</w>"
    ],
    [
      "अ",
      "ण्ड्</w>"
    ],
    [
      "गुप्",
      "त"
    ],
    [
      "ना",
      "र्थम्</w>"
    ],
    [
      "परम्प",
      "रा"
    ],
    [
      "प्रण",
      "ाल"
    ],
    [
      "ग",
      "ज"
    ],
    [
      "तमिळ",
      "ु"
    ],
    [
      "म",
      "ेषु</w>"
    ],
    [
      "्ड",
      "्</w>"
    ],
    [
      "मन्य",
      "न्ते</w>"
    ],
    [
      "सि",
      "ङ्ग"
    ],
    [
      "ित",
      "ा,</w>"
    ],
    [
      "उपाय",
      "ः</w>"
    ],
    [
      "द्",
      "दा"
    ],
    [
      "सिक्क",
      "ि"
    ],
    [
      "मि",
      "लिय"
    ],
    [
      "े",
      "तुं</w>"
    ],
    [
      "ता",
      "व"
    ],
    [
      "च",
      "य"
    ],
    [
      "दे",
      "व</w>"
    ],
    [
      "ई",
      "-"
    ],
    [
      "सह",
      ",</w>"
    ],
    [
      "केव",
      "लम्</w>"
    ],
    [
      "उ",
      "ड्ड"
    ],
    [
      "ि",
      "षु</w>"
    ],
    [
      "ान",
      "ी-"
    ],
    [
      "शु",
      "द्ध"
    ],
    [
      "मह",
      "ान्</w>"
    ],
    [
      "स",
      "-"
    ],
    [
      "आ",
      "धिकार"
    ],
    [
      "वि",
      "ज्ञाप"
    ],
    [
      "से",
      "न्"
    ],
    [
      "ब",
      "र्-"
    ],
    [
      "अवाप्",
      "नोत्।</w>"
    ],
    [
      "ब्र",
      "ो"
    ],
    [
      "अन",
      "ु</w>"
    ],
    [
      "ी",
      "स्</w>"
    ],
    [
      "ित",
      "ानि।</w>"
    ],
    [
      "न",
      "ीत"
    ],
    [
      "टे",
      "न्"
    ],
    [
      "ख",
      "ु"
    ],
    [
      "सङ्ग",
      "ृह"
    ],
    [
      "निर्माण",
      "स्य</w>"
    ],
    [
      "कु",
      "श"
    ],
    [
      "ेक",
      "्</w>"
    ],
    [
      "गू",
      "ग"
    ],
    [
      "मैक्रो",
      "सा"
    ],
    [
      "समर्थ",
      "ः</w>"
    ],
    [
      "गर",
      "्</w>"
    ],
    [
      "संस्",
      "कृत"
    ],
    [
      "कुर्व",
      "न्तः</w>"
    ],
    [
      "वि",
      "देश"
    ],
    [
      "मा",
      "ता</w>"
    ],
    [
      "ाप",
      "्</w>"
    ],
    [
      "निर्ण",
      "ाय"
    ],
    [
      "यथ",
      "ार्थ"
    ],
    [
      "्य",
      "े</w>"
    ],
    [
      "द्",
      "भिः</w>"
    ],
    [
      "स्त",
      "रे</w>"
    ],
    [
      "देश",
      "ेन</w>"
    ],
    [
      "ीय",
      "ते।</w>"
    ],
    [
      "हा",
      "की-"
    ],
    [
      "सूच",
      "ी"
    ],
    [
      "म",
      "ञ्च"
    ],
    [
      "कस्य",
      "ापि</w>"
    ],
    [
      "सा.श",
      ".</w>"
    ],
    [
      "क",
      "ब"
    ],
    [
      "स्त्र",
      "ी"
    ],
    [
      "त्र",
      "ा</w>"
    ],
    [
      "मी",
      "टर्-"
    ],
    [
      "महि",
      "ला"
    ],
    [
      "दूर",
      "भाष"
    ],
    [
      "इती",
      "मानि</w>"
    ],
    [
      "सं",
      "ल"
    ],
    [
      "ख",
      "ल"
    ],
    [
      "दल",
      "ानि</w>"
    ],
    [
      "एक",
      "ेन</w>"
    ],
    [
      "योजन",
      "ां</w>"
    ],
    [
      "दक्षिण",
      "दिशि</w>"
    ],
    [
      "साम",
      "ग्री"
    ],
    [
      "आङ्ग्ल",
      "-"
    ],
    [
      "वाय",
      "व्य"
    ],
    [
      "अ",
      "मन्य"
    ],
    [
      "तेलु",
      "गु"
    ],
    [
      "राजन",
      "ी"
    ],
    [
      "मा",
      "ताप"
    ],
    [
      "पीड",
      "िताः</w>"
    ],
    [
      "तट",
      "ीय"
    ],
    [
      "न्य",
      "ाया"
    ],
    [
      "र्घ",
      "ट"
    ],
    [
      "सा",
      "स्-"
    ],
    [
      "नाम्",
      "नः</w>"
    ],
    [
      "अ",
      "वर्ध"
    ],
    [
      "ग",
      "्व"
    ],
    [
      "वि",
      "रा"
    ],
    [
      "ली",
      ",</w>"
    ],
    [
      "ो",
      "हि"
    ],
    [
      "ट",
      "्या"
    ],
    [
      "१९४",
      "७</w>"
    ],
    [
      "को",
      "ष"
    ],
    [
      "करो",
      "त्।</w>"
    ],
    [
      "वि",
      "ष्ण"
    ],
    [
      "अ",
      "सोसिय"
    ],
    [
      "द्य",
      "ोग"
    ],
    [
      "१८",
      "५"
    ],
    [
      "पुरुष",
      "ाः</w>"
    ],
    [
      "न",
      "र्-"
    ],
    [
      "सूच",
      "नाः</w>"
    ],
    [
      "मासा",
      "त्</w>"
    ],
    [
      "जनवर",
      "ी-"
    ],
    [
      "बा",
      "स्के"
    ],
    [
      "ना",
      "सीत्।</w>"
    ],
    [
      "व",
      "च"
    ],
    [
      "शा",
      "न्ति"
    ],
    [
      "कार",
      "णा"
    ],
    [
      "र",
      "ज"
    ],
    [
      "वि",
      "लिय"
    ],
    [
      "म",
      "रण"
    ],
    [
      "इ",
      "द"
    ],
    [
      "जात",
      "ः।</w>"
    ],
    [
      "क",
      "ान"
    ],
    [
      "नि",
      "रूप"
    ],
    [
      "ष",
      "ट्</w>"
    ],
    [
      "ु",
      "ञ्ज"
    ],
    [
      ".वी",
      ".</w>"
    ],
    [
      "मनो",
      "र"
    ],
    [
      "ार",
      "ण"
    ],
    [
      "ज",
      "्यते।</w>"
    ],
    [
      "े",
      "त्।</w>"
    ],
    [
      "क",
      "ूप"
    ],
    [
      "वि",
      "त्र"
    ],
    [
      "अध्यय",
      "नं</w>"
    ],
    [
      "बो",
      "ध"
    ],
    [
      "ग",
      "ति"
    ],
    [
      "आवश्य",
      "कं</w>"
    ],
    [
      "वद",
      "ति</w>"
    ],
    [
      "व",
      "त्।</w>"
    ],
    [
      "स",
      "म्</w>"
    ],
    [
      "कृ",
      "ते,</w>"
    ],
    [
      "आरो",
      "ह"
    ],
    [
      "स",
      "न्-"
    ],
    [
      "स",
      "े</w>"
    ],
    [
      "जर्म",
      "नी-"
    ],
    [
      "भूम",
      "ौ</w>"
    ],
    [
      "निर्मित",
      "ाः</w>"
    ],
    [
      "ो",
      "ज"
    ],
    [
      "प्रा",
      "ग्-"
    ],
    [
      "नेश",
      "नल्-"
    ],
    [
      "का",
      "व्य"
    ],
    [
      "ण्ड",
      "े"
    ],
    [
      "आरब्ध",
      "वान्।</w>"
    ],
    [
      "सम्भाव",
      "ना</w>"
    ],
    [
      "वु",
      "ड्-"
    ],
    [
      "निर्माण",
      "म्</w>"
    ],
    [
      "नेतृ",
      "त्वं</w>"
    ],
    [
      "त्य",
      ",</w>"
    ],
    [
      "आ",
      "ख्य"
    ],
    [
      "काल",
      "्"
    ],
    [
      "स्थ",
      "ः</w>"
    ],
    [
      "मान",
      "म्</w>"
    ],
    [
      "वित्त",
      "ीय"
    ],
    [
      "ान",
      "ा-"
    ],
    [
      "अन्य",
      "ेभ्यः</w>"
    ],
    [
      "अस्थ",
      "ाप"
    ],
    [
      "प्रदर्श",
      "ितम्</w>"
    ],
    [
      "इतिहास",
      "े</w>"
    ],
    [
      "पर",
      "्या"
    ],
    [
      "कम्पे",
      "नी-"
    ],
    [
      "यान",
      "ानि</w>"
    ],
    [
      "क्रिय",
      "ा"
    ],
    [
      ".",
      "जी"
    ],
    [
      "कार्यक्रम",
      "ः</w>"
    ],
    [
      "लेक्ट",
      "्र"
    ],
    [
      "पित",
      "ुः</w>"
    ],
    [
      "आग",
      "स्ट्-"
    ],
    [
      "ो",
      "च"
    ],
    [
      "स्व",
      "ाम"
    ],
    [
      "अन",
      "े"
    ],
    [
      "अभ",
      "ियो"
    ],
    [
      "ट",
      "िक"
    ],
    [
      "३",
      "५</w>"
    ],
    [
      "प्रकार",
      "स्य</w>"
    ],
    [
      "सार्वजन",
      "िक"
    ],
    [
      "्",
      "व्यः</w>"
    ],
    [
      "गुण",
      "वत्त"
    ],
    [
      "न्ध",
      "्र"
    ],
    [
      "घा",
      "त"
    ],
    [
      "ाम",
      "।</w>"
    ],
    [
      "चिकित्",
      "सा</w>"
    ],
    [
      "थ",
      "ो"
    ],
    [
      "स",
      "ाल"
    ],
    [
      "क्",
      "सि"
    ],
    [
      "स्टे",
      "ट्-"
    ],
    [
      "ए",
      "ण्ट"
    ],
    [
      "डि",
      "स्"
    ],
    [
      "विविद",
      "े।</w>"
    ],
    [
      "क",
      "ौ</w>"
    ],
    [
      "वार",
      "म्</w>"
    ],
    [
      "वर्ष",
      "पर्यन्तं</w>"
    ],
    [
      "ग",
      "न्</w>"
    ],
    [
      "अभ",
      "िय"
    ],
    [
      "केन्द्र",
      "म्</w>"
    ],
    [
      "स",
      "िक्"
    ],
    [
      "अन",
      "न्तरम्</w>"
    ],
    [
      "कर्",
      "त"
    ],
    [
      "अधिकृ",
      "त"
    ],
    [
      "र",
      "ल्-"
    ],
    [
      "ह",
      "ं</w>"
    ],
    [
      "कतिपय",
      "ेषु</w>"
    ],
    [
      "पराज",
      "य"
    ],
    [
      "सामाज",
      "िक-"
    ],
    [
      "ृङ्ख",
      "ला</w>"
    ],
    [
      "स्थान",
      "ीय-"
    ],
    [
      "मान",
      "ाः</w>"
    ],
    [
      "-",
      "क"
    ],
    [
      "पञ्",
      "जी"
    ],
    [
      "ल",
      "द्दा"
    ],
    [
      "इत्य",
      "स्य,</w>"
    ],
    [
      "त",
      "त्।</w>"
    ],
    [
      "से",
      "वा</w>"
    ],
    [
      "आ",
      "श्व"
    ],
    [
      ".ए",
      "फ़्"
    ],
    [
      "मण्ड",
      "लं</w>"
    ],
    [
      "डिय",
      "ो-"
    ],
    [
      "म",
      "िक्-"
    ],
    [
      "ज़",
      "ि"
    ],
    [
      "ड",
      "र्"
    ],
    [
      "अनेक",
      "ान्</w>"
    ],
    [
      "पूर्व",
      "दिशि</w>"
    ],
    [
      "क्रीड",
      "कानां</w>"
    ],
    [
      "किङ्ग",
      "्ड"
    ],
    [
      "मन्दि",
      "रस्य</w>"
    ],
    [
      "दीर्घ",
      "कालं</w>"
    ],
    [
      "त",
      "या,</w>"
    ],
    [
      "ज",
      "म्"
    ],
    [
      "३",
      "०"
    ],
    [
      "मास",
      "ं</w>"
    ],
    [
      "्रान्स्-",
      "देशस्य</w>"
    ],
    [
      "पी",
      "ठ"
    ],
    [
      "री",
      "स्</w>"
    ],
    [
      "व्र",
      "ण"
    ],
    [
      "ी",
      "त्।</w>"
    ],
    [
      "शास",
      "नस्य</w>"
    ],
    [
      "कृ",
      "त्वा,</w>"
    ],
    [
      "प्रारम्भ",
      "े</w>"
    ],
    [
      "दाय",
      "ि"
    ],
    [
      "ग",
      "्या"
    ],
    [
      "ता",
      "त्</w>"
    ],
    [
      "मूल्या",
      "ङ्क"
    ],
    [
      "प्रार",
      "ब्ध"
    ],
    [
      "आ",
      "न्तर"
    ],
    [
      "र",
      "ल्</w>"
    ],
    [
      "अ",
      "त्र"
    ],
    [
      "सम",
      "यं</w>"
    ],
    [
      "कृत",
      "वती।</w>"
    ],
    [
      "महो",
      "त्स"
    ],
    [
      "जर्म",
      "न्-"
    ],
    [
      "भा",
      "ट"
    ],
    [
      "ग",
      "न्ध"
    ],
    [
      "१९५",
      "०</w>"
    ],
    [
      "किञ्च",
      "न</w>"
    ],
    [
      "ल्",
      ")</w>"
    ],
    [
      "लि",
      "प"
    ],
    [
      "साक्ष",
      "ात्</w>"
    ],
    [
      "भि",
      "ः,</w>"
    ],
    [
      "धा",
      "र्म"
    ],
    [
      "प",
      "ल्ल"
    ],
    [
      "ए",
      "ड्"
    ],
    [
      "भ",
      "गि"
    ],
    [
      "िय",
      "ो</w>"
    ],
    [
      "ग्",
      "ध"
    ],
    [
      "क",
      "म"
    ],
    [
      "द",
      "ास"
    ],
    [
      "आस्ट्रेलिय",
      "ा-"
    ],
    [
      "क",
      "रा"
    ],
    [
      "डे",
      "न्"
    ],
    [
      "ार",
      "े"
    ],
    [
      "वायु",
      "गुण"
    ],
    [
      "को",
      "लम्ब"
    ],
    [
      "े",
      "ते।</w>"
    ],
    [
      "आ",
      "च्छाद"
    ],
    [
      "स्ट",
      "ै"
    ],
    [
      "आ",
      "यो"
    ],
    [
      "िय",
      "ा,</w>"
    ],
    [
      "आ",
      "गम"
    ],
    [
      "आ",
      "त"
    ],
    [
      "सभ",
      "ायां</w>"
    ],
    [
      "ई",
      "स्ट्-"
    ],
    [
      "जा",
      "ता।</w>"
    ],
    [
      "फ",
      "ै"
    ],
    [
      "महत्त्वपूर्ण",
      "ः</w>"
    ],
    [
      "१९९",
      "७</w>"
    ],
    [
      "म्",
      "र"
    ],
    [
      "प्रधानमन्त्र",
      "ी</w>"
    ],
    [
      "अन्य",
      "ान्</w>"
    ],
    [
      "मार्ग",
      "ेण</w>"
    ],
    [
      "पार",
      "ि"
    ],
    [
      "१९९",
      "४</w>"
    ],
    [
      "नो",
      "</w>"
    ],
    [
      "अका",
      "डे"
    ],
    [
      "न्यूनी",
      "कर्तुं</w>"
    ],
    [
      "ण्ट",
      "्-"
    ],
    [
      "स्थल",
      "म्</w>"
    ],
    [
      "सरोवर",
      "ः</w>"
    ],
    [
      "प्रसिद्ध",
      "ाः</w>"
    ],
    [
      "दु",
      "र्घट"
    ],
    [
      "सामाज",
      "िक"
    ],
    [
      "से",
      "न्</w>"
    ],
    [
      "राज",
      "्या"
    ],
    [
      "रक्ष",
      "णं</w>"
    ],
    [
      "ना",
      "पि</w>"
    ],
    [
      "दृश्य",
      "ते</w>"
    ],
    [
      "छ",
      "ाया"
    ],
    [
      "र्",
      "त"
    ],
    [
      "ण",
      "ं,</w>"
    ],
    [
      "भोजन",
      "ं</w>"
    ],
    [
      "पारम्पर",
      "िक"
    ],
    [
      "न्याया",
      "धी"
    ],
    [
      "न्",
      "स्,</w>"
    ],
    [
      "१९९",
      "३</w>"
    ],
    [
      ".ए",
      "फ़्"
    ],
    [
      "द्य",
      "ते।</w>"
    ],
    [
      "रु",
      "-"
    ],
    [
      "री",
      ",</w>"
    ],
    [
      "द्वित",
      "ीय-"
    ],
    [
      "प्राप्नो",
      "त्,</w>"
    ],
    [
      "ज़",
      "ो"
    ],
    [
      "श्",
      "मी"
    ],
    [
      "बाङ्ग्ल",
      "ा"
    ],
    [
      "मार्ग",
      "दर्श"
    ],
    [
      "ॄ",
      "णां</w>"
    ],
    [
      "अप",
      "ाय"
    ],
    [
      "आ",
      "धिप"
    ],
    [
      "प्रत्येक",
      "स्मिन्</w>"
    ],
    [
      "किम",
      "र्थं</w>"
    ],
    [
      "पुरुष",
      "ाणां</w>"
    ],
    [
      "फ़े",
      "डर"
    ],
    [
      "प",
      "ङ्क्त"
    ],
    [
      "ाय",
      "ाम"
    ],
    [
      "ति",
      "रु"
    ],
    [
      "न्",
      "ने"
    ],
    [
      "जपा",
      "न्-देशस्य</w>"
    ],
    [
      "राजनैति",
      "क-"
    ],
    [
      "प्रौ",
      "ढ"
    ],
    [
      "सम्",
      "पूर्णं</w>"
    ],
    [
      "नेह",
      "रू"
    ],
    [
      "सर्व",
      "श्रेष्ठ"
    ],
    [
      "ित",
      "म्,</w>"
    ],
    [
      "प्र",
      "स्तु"
    ],
    [
      "त्य",
      "ज"
    ],
    [
      "कृ",
      "ष्ट"
    ],
    [
      "आ",
      "वेद"
    ],
    [
      "विह",
      "ाय</w>"
    ],
    [
      "फ",
      "्रे"
    ],
    [
      "न",
      "वा"
    ],
    [
      "हिन्द",
      "ी-"
    ],
    [
      "प्रा",
      "क्</w>"
    ],
    [
      "न्यू",
      "</w>"
    ],
    [
      "वास्तु",
      "कल"
    ],
    [
      "ग्र",
      "ो"
    ],
    [
      "ि",
      "नो"
    ],
    [
      "प्राप्नो",
      "ति।</w>"
    ],
    [
      "क",
      "पू"
    ],
    [
      "वैर",
      "स्-"
    ],
    [
      "विभाग",
      "स्य</w>"
    ],
    [
      "ने",
      "पाल"
    ],
    [
      "ण्ड",
      "्रो"
    ],
    [
      "निक",
      "ो"
    ],
    [
      "ड्",
      "रा"
    ],
    [
      "ण्ड",
      "ु"
    ],
    [
      "म",
      "य"
    ],
    [
      "न",
      "ट"
    ],
    [
      "स्क",
      "ू"
    ],
    [
      "त",
      "र्"
    ],
    [
      "अक्",
      "ब"
    ],
    [
      "र्-",
      "नगरे</w>"
    ],
    [
      "उप",
      "निवेश"
    ],
    [
      "ब",
      "स्-"
    ],
    [
      "विविध",
      "ाः</w>"
    ],
    [
      "जन",
      "स्य</w>"
    ],
    [
      "प्रतिद्वन्",
      "द्वि"
    ],
    [
      "य",
      "तु</w>"
    ],
    [
      "म",
      "र्</w>"
    ],
    [
      "बृहत्त",
      "मः</w>"
    ],
    [
      "भवे",
      "त्,</w>"
    ],
    [
      "२",
      "."
    ],
    [
      "वित",
      "रण"
    ],
    [
      "म",
      "ेण्ट"
    ],
    [
      "नी",
      "ल"
    ],
    [
      "सङ्गण",
      "क"
    ],
    [
      "क्रे",
      "डि"
    ],
    [
      "ववृ",
      "ते।</w>"
    ],
    [
      "लि",
      "न्</w>"
    ],
    [
      "परिण",
      "ीत"
    ],
    [
      "एक",
      "दा</w>"
    ],
    [
      "सद्य",
      "ः</w>"
    ],
    [
      "आरब्ध",
      "म्।</w>"
    ],
    [
      "ध",
      "्र"
    ],
    [
      "स्थित",
      "ाः</w>"
    ],
    [
      "्ल",
      "ेष"
    ],
    [
      "वर्ष",
      "ीय"
    ],
    [
      "साम्",
      "राज्यं</w>"
    ],
    [
      "राजनैति",
      "क"
    ],
    [
      "ध्य",
      "ाप"
    ],
    [
      "नव",
      "ीन"
    ],
    [
      "थ",
      "ल"
    ],
    [
      "विशेष",
      "ज्ञ"
    ],
    [
      "परि",
      "ष्"
    ],
    [
      "ाप",
      "्-"
    ],
    [
      "प्र",
      "िया</w>"
    ],
    [
      "अतिरिच",
      "्य</w>"
    ],
    [
      "क",
      "श्चित्</w>"
    ],
    [
      "त",
      "न्"
    ],
    [
      "ओडि",
      "शा-"
    ],
    [
      "ण",
      "ाय</w>"
    ],
    [
      "व",
      "रणं</w>"
    ],
    [
      "ार",
      "ी</w>"
    ],
    [
      "निव",
      "सन्ति।</w>"
    ],
    [
      "जन",
      "संख्य"
    ],
    [
      "नद्य",
      "ः</w>"
    ],
    [
      "इत्य",
      "ु"
    ],
    [
      "इत्य",
      "नयोः</w>"
    ],
    [
      "स्",
      "म्</w>"
    ],
    [
      "आ",
      "या"
    ],
    [
      "न्",
      "नः</w>"
    ],
    [
      "क",
      "प्-"
    ],
    [
      "ख",
      "ि"
    ],
    [
      "दूरदर्श",
      "न-"
    ],
    [
      "निर्मित",
      "ानि</w>"
    ],
    [
      "भाष",
      "ासु</w>"
    ],
    [
      "नास्",
      "ति,</w>"
    ],
    [
      "अ",
      "चि"
    ],
    [
      "त",
      "मा"
    ],
    [
      "ग्राह",
      "क"
    ],
    [
      "जनपद",
      "स्य</w>"
    ],
    [
      "इत्येत",
      "ेन</w>"
    ],
    [
      "स्टे",
      "ट्स्-"
    ],
    [
      "टे",
      "ल्</w>"
    ],
    [
      "आ",
      "ग्रह"
    ],
    [
      "बा",
      "म्ब"
    ],
    [
      "जपा",
      "न्-"
    ],
    [
      ".डी",
      ".</w>"
    ],
    [
      "स",
      "ं</w>"
    ],
    [
      "श",
      "ा</w>"
    ],
    [
      "आ",
      "न्दोल"
    ],
    [
      "विभिन्न",
      "ेषु</w>"
    ],
    [
      "ला",
      ",</w>"
    ],
    [
      "चित्र",
      "स्य</w>"
    ],
    [
      "सिं",
      "ह"
    ],
    [
      "अनु",
      "सर"
    ],
    [
      "सं",
      "विधान"
    ],
    [
      "लु",
      "ण्ठ"
    ],
    [
      "उपा",
      "धिं</w>"
    ],
    [
      "चाल",
      "ु"
    ],
    [
      "कारा",
      "त्म"
    ],
    [
      "ई",
      "</w>"
    ],
    [
      "निर्",
      "वाह"
    ],
    [
      "ू",
      "य"
    ],
    [
      "लै",
      "ङ्ग"
    ],
    [
      "ल",
      "ङ्ग"
    ],
    [
      "२",
      ","
    ],
    [
      "न्यू",
      "-"
    ],
    [
      "अन्",
      "विष्य"
    ],
    [
      "अव",
      "ै"
    ],
    [
      "डिय",
      "ो</w>"
    ],
    [
      "व्य",
      "ग्र"
    ],
    [
      "ी",
      "र्ण"
    ],
    [
      "ए",
      "र्"
    ],
    [
      "पाकिस्त",
      "ान"
    ],
    [
      "स्थान",
      "ान्तर"
    ],
    [
      "मुह",
      "म्म"
    ],
    [
      "अनेक",
      "ेषां</w>"
    ],
    [
      "प्र",
      "वृत्त"
    ],
    [
      "सुल्",
      "त"
    ],
    [
      "प्र",
      "वास"
    ],
    [
      "न",
      "म्,</w>"
    ],
    [
      "शै",
      "ली"
    ],
    [
      "सम्",
      "मेल"
    ],
    [
      "स्प",
      "ि"
    ],
    [
      "स्य",
      "ात्</w>"
    ],
    [
      "ब",
      "ा</w>"
    ],
    [
      "४",
      "०"
    ],
    [
      "बह",
      "्व्यः</w>"
    ],
    [
      "कर्मचार",
      "िणः</w>"
    ],
    [
      "मध्य",
      "-"
    ],
    [
      "क्य",
      "ु"
    ],
    [
      "शैल्य",
      "ाः</w>"
    ],
    [
      "कु",
      "म्भ"
    ],
    [
      "ल्य",
      "ू"
    ],
    [
      "संस्",
      "करणं</w>"
    ],
    [
      "सेव",
      "ाः</w>"
    ],
    [
      "पुरात",
      "त्त्व"
    ],
    [
      "ं",
      ")</w>"
    ],
    [
      "व",
      "ङ्ग"
    ],
    [
      "फ़",
      "्रा"
    ],
    [
      "हाय",
      "ने</w>"
    ],
    [
      "स",
      "स्य</w>"
    ],
    [
      "मन्त्र",
      "ी</w>"
    ],
    [
      "ह",
      "रि"
    ],
    [
      "ब्रा",
      "ह्म"
    ],
    [
      "त्या",
      "ग"
    ],
    [
      "स",
      "ञ्"
    ],
    [
      "आरभ",
      "त।</w>"
    ],
    [
      "उ",
      "द्ध"
    ],
    [
      "सर्व",
      "ान्</w>"
    ],
    [
      "वि",
      "ंश"
    ],
    [
      "दुर्",
      "लभ"
    ],
    [
      "एश",
      "ियन्-"
    ],
    [
      "यू",
      "नि"
    ],
    [
      "नी",
      ",</w>"
    ],
    [
      "जना",
      "ः,</w>"
    ],
    [
      "क्ष",
      "्य"
    ],
    [
      "ब",
      "्यू"
    ],
    [
      "सप्ताह",
      "े</w>"
    ],
    [
      "मार्ग",
      "ाः</w>"
    ],
    [
      "आ",
      "धृ"
    ],
    [
      "पर",
      "े"
    ],
    [
      "क्री",
      "णा"
    ],
    [
      "कि.मी",
      "."
    ],
    [
      "वर्ण",
      "ः</w>"
    ],
    [
      "फ़",
      "ै"
    ],
    [
      "मा",
      "डे"
    ],
    [
      ".ओ",
      ".</w>"
    ],
    [
      "वीड",
      "ियो-"
    ],
    [
      "रो",
      "मन्-"
    ],
    [
      "डेमो",
      "क्रा"
    ],
    [
      "प्र",
      "विष्ट"
    ],
    [
      "प",
      "वित्र"
    ],
    [
      "वती",
      ",</w>"
    ],
    [
      "अस्",
      "मात्</w>"
    ],
    [
      "सम्",
      "रा"
    ],
    [
      "पुन",
      "ः"
    ],
    [
      "ना",
      "सी"
    ],
    [
      "कार",
      "ाः</w>"
    ],
    [
      "१९९",
      "१</w>"
    ],
    [
      "आ",
      "ल"
    ],
    [
      "ा",
      "न्"
    ],
    [
      "न्याय",
      "ालय"
    ],
    [
      "दि",
      "नानि</w>"
    ],
    [
      "स्त",
      "म्भ"
    ],
    [
      "भ",
      "ेद"
    ],
    [
      "लु",
      "प्"
    ],
    [
      "वर्ध",
      "मान"
    ],
    [
      "णि",
      ",</w>"
    ],
    [
      "२",
      "५"
    ],
    [
      "ड",
      "च्-"
    ],
    [
      "नि",
      "।</w>"
    ],
    [
      "लो",
      "कार्"
    ],
    [
      "ए",
      "</w>"
    ],
    [
      "उ",
      "ल्ल"
    ],
    [
      "मे",
      "ट्र"
    ],
    [
      "लक्ष",
      "्य"
    ],
    [
      "मुख्य",
      "ं</w>"
    ],
    [
      "ग",
      "न्-"
    ],
    [
      "ण्ड",
      "्,</w>"
    ],
    [
      "भ",
      "्याम्</w>"
    ],
    [
      "इत्येत",
      "ेषाम्</w>"
    ],
    [
      "व",
      "्स्</w>"
    ],
    [
      "त",
      "रः</w>"
    ],
    [
      "सार्ध",
      "ं</w>"
    ],
    [
      "न्",
      "दि"
    ],
    [
      "महिल",
      "ा-"
    ],
    [
      "प्य",
      "ारि"
    ],
    [
      "थ",
      "ै"
    ],
    [
      "प",
      "शू"
    ],
    [
      "सार्वजन",
      "िक-"
    ],
    [
      "फु",
      "ट्बाल्-"
    ],
    [
      "सर",
      "ल"
    ],
    [
      "अ",
      "वित्त"
    ],
    [
      "यत",
      "ो"
    ],
    [
      "नौका",
      "श्र"
    ],
    [
      "भ्रा",
      "तृ"
    ],
    [
      "सी",
      "मा"
    ],
    [
      "िक",
      "स्य</w>"
    ],
    [
      "मराठ",
      "ा-"
    ],
    [
      "ब्र",
      "ू"
    ],
    [
      "लिख",
      "ित"
    ],
    [
      "नाम",
      "करणं</w>"
    ],
    [
      "त्रि",
      "षु</w>"
    ],
    [
      "उप",
      "महाद्वीप"
    ],
    [
      "नग",
      "राणि</w>"
    ],
    [
      "ह",
      "ू"
    ],
    [
      "ऋ",
      "णं</w>"
    ],
    [
      "क्र",
      "ू"
    ],
    [
      "चालु",
      "क्य"
    ],
    [
      "मनु",
      "ष्य"
    ],
    [
      "निर",
      "मा"
    ],
    [
      "निश्च",
      "ित"
    ],
    [
      "शताब्",
      "द"
    ],
    [
      "ग्र",
      "स्त"
    ],
    [
      "राज्य",
      "पाल"
    ],
    [
      "आरे",
      "भे।</w>"
    ],
    [
      "ो",
      "ऽयं</w>"
    ],
    [
      "ब्या",
      "ण्ड्</w>"
    ],
    [
      "सु",
      "वर्ण"
    ],
    [
      "दे",
      "य"
    ],
    [
      "काल",
      "ी"
    ],
    [
      "उद्",
      "देश"
    ],
    [
      "हैद",
      "रा"
    ],
    [
      "इण्ड",
      "िया-"
    ],
    [
      "ण्ड",
      "ी</w>"
    ],
    [
      "वि",
      "ल्"
    ],
    [
      "दू",
      "ष"
    ],
    [
      "ने",
      "भ्यः</w>"
    ],
    [
      "इ",
      "तीय"
    ],
    [
      "व",
      ",</w>"
    ],
    [
      "या",
      "णां</w>"
    ],
    [
      "त",
      "ी-"
    ],
    [
      "सू",
      "र्य"
    ],
    [
      "पा",
      "त"
    ],
    [
      "त",
      "त्त्व"
    ],
    [
      "वास",
      "रे</w>"
    ],
    [
      "माताप",
      "ित"
    ],
    [
      "ग",
      "ा</w>"
    ],
    [
      "ौ",
      "न्</w>"
    ],
    [
      "निक",
      "्-"
    ],
    [
      "उपत्य",
      "क"
    ],
    [
      "जुलै",
      "-"
    ],
    [
      "न्य",
      "ु"
    ],
    [
      "१८",
      "६"
    ],
    [
      "गच्छ",
      "न्ति।</w>"
    ],
    [
      "ज़",
      "ी"
    ],
    [
      "क्ष",
      "त्र"
    ],
    [
      "लै",
      "न्</w>"
    ],
    [
      "चिक्रीड",
      "।</w>"
    ],
    [
      "पुत्र",
      "स्य</w>"
    ],
    [
      "प्रो",
      "त्साह"
    ],
    [
      "अत्यु",
      "त्त"
    ],
    [
      "पे",
      "य"
    ],
    [
      "व्य",
      "ाः</w>"
    ],
    [
      "कार्य",
      "स्य</w>"
    ],
    [
      "ान",
      "न्तरं,</w>"
    ],
    [
      "बि",
      "न्दु"
    ],
    [
      "अव",
      "काश"
    ],
    [
      "लि",
      "ङ्ग्</w>"
    ],
    [
      "इङ्ग्ल",
      "ै"
    ],
    [
      "१९८",
      "४</w>"
    ],
    [
      "च",
      "ू"
    ],
    [
      "ेष",
      "्ट"
    ],
    [
      "आस्ट्रेलिय",
      "ा-देशस्य</w>"
    ],
    [
      "शि",
      "बि"
    ],
    [
      "दि",
      "ने,</w>"
    ],
    [
      "क्ष",
      "तिः</w>"
    ],
    [
      "१९८",
      "७</w>"
    ],
    [
      "नाम",
      "ानि</w>"
    ],
    [
      "छ",
      "ि"
    ],
    [
      "कस्य",
      "चित्</w>"
    ],
    [
      "ष",
      "्या"
    ],
    [
      "े",
      "न्"
    ],
    [
      "वि",
      "ल्-"
    ],
    [
      "स्त",
      "ः,</w>"
    ],
    [
      "अन्तर्",
      "भवति।</w>"
    ],
    [
      "अमेरिका-",
      "देशे</w>"
    ],
    [
      "र्",
      "ले"
    ],
    [
      "विशेष",
      "ेषु</w>"
    ],
    [
      "कर्",
      "नाट"
    ],
    [
      "पुर",
      "तः</w>"
    ],
    [
      "बा",
      "क्स्-"
    ],
    [
      "प्रा",
      "देश"
    ],
    [
      "देश",
      "म्</w>"
    ],
    [
      "ङ्",
      "का"
    ],
    [
      "कथ",
      "यति</w>"
    ],
    [
      "त",
      "त्र"
    ],
    [
      "समूह",
      "ाः</w>"
    ],
    [
      "काल",
      "ा"
    ],
    [
      "े",
      "य"
    ],
    [
      "कार",
      "ं</w>"
    ],
    [
      "ध्वनि",
      "मुद्र"
    ],
    [
      "तिरि",
      "च"
    ],
    [
      "ड",
      "-"
    ],
    [
      "दिश्य",
      "</w>"
    ],
    [
      "ददा",
      "त्।</w>"
    ],
    [
      "केन्द्र",
      "ं</w>"
    ],
    [
      "र्",
      "ड्-"
    ],
    [
      "प्रको",
      "ष्ठ"
    ],
    [
      "अवश्य",
      "ं</w>"
    ],
    [
      "तु",
      "ल्य"
    ],
    [
      "स्य",
      "ू"
    ],
    [
      "ए",
      "फ्"
    ],
    [
      "क्र",
      "ेत"
    ],
    [
      "टि",
      "स्</w>"
    ],
    [
      "जज्ञ",
      "े।</w>"
    ],
    [
      "चत्वार",
      "ः</w>"
    ],
    [
      "यतो",
      "हि</w>"
    ],
    [
      "नार",
      "ाय"
    ],
    [
      "राष्ट्र",
      "पति"
    ],
    [
      "महिल",
      "ा</w>"
    ],
    [
      "श्र",
      "म"
    ],
    [
      "व",
      "रि"
    ],
    [
      "सिं",
      "हास"
    ],
    [
      "च",
      "र्</w>"
    ],
    [
      "ाप",
      "ु"
    ],
    [
      "समस्य",
      "ा</w>"
    ],
    [
      "सा",
      "व"
    ],
    [
      "अन",
      "्या"
    ],
    [
      "ती",
      "ः</w>"
    ],
    [
      "पुन",
      "रु"
    ],
    [
      "मन्य",
      "ते</w>"
    ],
    [
      "सामान्य",
      "ं</w>"
    ],
    [
      "दुर्",
      "बल"
    ],
    [
      "फि",
      "ल्"
    ],
    [
      "मा",
      "प"
    ],
    [
      "जम्",
      "मू"
    ],
    [
      "तम",
      "ा</w>"
    ],
    [
      "मह",
      "ती</w>"
    ],
    [
      "ज",
      "ाः</w>"
    ],
    [
      "एव",
      "।</w>"
    ],
    [
      "न्यू",
      "नाति"
    ],
    [
      "भाष",
      "ाः</w>"
    ],
    [
      "टि",
      "प्"
    ],
    [
      "ब्र",
      "ह्म"
    ],
    [
      "व्यावसाय",
      "िक-"
    ],
    [
      "स्ट",
      "्रा"
    ],
    [
      "ग्र",
      "ाम्</w>"
    ],
    [
      "३",
      "."
    ],
    [
      "ए",
      "पि"
    ],
    [
      "व्य",
      "यं</w>"
    ],
    [
      "जन",
      "यति।</w>"
    ],
    [
      "कुमार",
      "ः</w>"
    ],
    [
      "गत",
      "वान्।</w>"
    ],
    [
      "स",
      "ः,</w>"
    ],
    [
      "विरुद्ध",
      "म्</w>"
    ],
    [
      "भव",
      "त्।</w>"
    ],
    [
      "ङ्ग",
      "्स्</w>"
    ],
    [
      "श्री",
      "ल"
    ],
    [
      "आर",
      "म्भा"
    ],
    [
      "मा",
      ",</w>"
    ],
    [
      "फ",
      "ा"
    ],
    [
      "को",
      "ल्"
    ],
    [
      "गी",
      "तस्य</w>"
    ],
    [
      "े",
      "न्द्र"
    ],
    [
      "१९७",
      "१</w>"
    ],
    [
      "त्",
      "थ"
    ],
    [
      "प्रथम",
      "स्य</w>"
    ],
    [
      "ल्ल",
      "ी-"
    ],
    [
      "ए",
      "लि"
    ],
    [
      "दिन",
      "ेषु</w>"
    ],
    [
      "त",
      "ः"
    ],
    [
      "सर्व",
      "ाः</w>"
    ],
    [
      "८",
      "५</w>"
    ],
    [
      "कर्",
      "णा"
    ],
    [
      "संस्कृ",
      "तेः</w>"
    ],
    [
      "टे",
      "ड्</w>"
    ],
    [
      "स्",
      "ति"
    ],
    [
      "स्थल",
      "ेषु</w>"
    ],
    [
      "पा",
      "श्च"
    ],
    [
      "छात्र",
      "ाः</w>"
    ],
    [
      "ष",
      "्य</w>"
    ],
    [
      "नि",
      "वासिनः</w>"
    ],
    [
      "हौ",
      "स्</w>"
    ],
    [
      "ने",
      "ट्-"
    ],
    [
      "हो",
      "ली-"
    ],
    [
      "शरी",
      "रस्य</w>"
    ],
    [
      "केर",
      "ल"
    ],
    [
      ".एम्",
      ".</w>"
    ],
    [
      "मै",
      "सू"
    ],
    [
      "समय",
      "े,</w>"
    ],
    [
      "सम्बन्ध",
      "ः</w>"
    ],
    [
      "पीड",
      "ितः</w>"
    ],
    [
      "वि",
      "ध्य"
    ],
    [
      "वर्ष",
      "ा"
    ],
    [
      "वर्ध",
      "यितुं</w>"
    ],
    [
      "लघ",
      "ु</w>"
    ],
    [
      "कू",
      "ट"
    ],
    [
      "उपयुज",
      "्य</w>"
    ],
    [
      "ह",
      "ाल्</w>"
    ],
    [
      "क्यालि",
      "फोर्"
    ],
    [
      "योग",
      "ः</w>"
    ],
    [
      "प्राप्त",
      "म्।</w>"
    ],
    [
      "काश",
      "्मी"
    ],
    [
      "प्रसिद्ध",
      "ं</w>"
    ],
    [
      "सा",
      "-"
    ],
    [
      "पु",
      "र्-"
    ],
    [
      "चण्ड",
      "ी"
    ],
    [
      "ज्ञा",
      "त्वा</w>"
    ],
    [
      "अनु",
      "प"
    ],
    [
      "इत्येत",
      "ां</w>"
    ],
    [
      "दिनाङ्",
      "कात्</w>"
    ],
    [
      "योजन",
      "ा</w>"
    ],
    [
      "मान",
      "स्य</w>"
    ],
    [
      "अप",
      "श्य"
    ],
    [
      "देशीय",
      "ाः</w>"
    ],
    [
      "अभ्यन",
      "यत्।</w>"
    ],
    [
      "गाय",
      "।</w>"
    ],
    [
      "फ",
      "्ट"
    ],
    [
      "विका",
      "सः</w>"
    ],
    [
      "शक्",
      "नु"
    ],
    [
      "द्वि",
      "चक्र"
    ],
    [
      "औ",
      "प"
    ],
    [
      "ब",
      "लं</w>"
    ],
    [
      "पु",
      "ण"
    ],
    [
      "दल",
      "े</w>"
    ],
    [
      "ज",
      "टि"
    ],
    [
      "त",
      "स्मात्</w>"
    ],
    [
      "ट",
      "ो</w>"
    ],
    [
      "काल",
      "िक"
    ],
    [
      "र",
      "वि"
    ],
    [
      "विक्र",
      "ीत"
    ],
    [
      "समुदाय",
      "ः</w>"
    ],
    [
      "व",
      "स्य</w>"
    ],
    [
      "उप",
      "लब्ध"
    ],
    [
      "आ",
      "न्ध्र"
    ],
    [
      "द्वितीय",
      "विश्व"
    ],
    [
      "क्",
      "वे"
    ],
    [
      "ई",
      "शान"
    ],
    [
      "ी",
      "ति</w>"
    ],
    [
      "दीय",
      "ते।</w>"
    ],
    [
      "सं",
      "ह"
    ],
    [
      "उप",
      "चार"
    ],
    [
      "ग्ल",
      "ो"
    ],
    [
      "वर्ष",
      "ाणाम्</w>"
    ],
    [
      "न्य",
      "ा</w>"
    ],
    [
      "अभ्य",
      "र्थ"
    ],
    [
      "ि",
      "नां</w>"
    ],
    [
      "ह",
      "्यू"
    ],
    [
      "नि",
      "न्द"
    ],
    [
      "वा",
      "दि"
    ],
    [
      "पर",
      "म्</w>"
    ],
    [
      "ता",
      "सु</w>"
    ],
    [
      "शि",
      "शु"
    ],
    [
      "विष",
      "येषु</w>"
    ],
    [
      "बहु",
      "वारं</w>"
    ],
    [
      "विश्वविद्यालय",
      "स्य</w>"
    ],
    [
      "जनवर",
      "ी"
    ],
    [
      "परिमित",
      "ं</w>"
    ],
    [
      "द",
      "म्प"
    ],
    [
      "न्",
      "ना</w>"
    ],
    [
      "बर्",
      "ट्</w>"
    ],
    [
      "ल्ल",
      "ा</w>"
    ],
    [
      "कारा",
      "गार"
    ],
    [
      ".",
      "वि"
    ],
    [
      "ङ्ग",
      "ी"
    ],
    [
      "सामान्य",
      "ः</w>"
    ],
    [
      "७",
      "५</w>"
    ],
    [
      "कर्णा",
      "ट"
    ],
    [
      "यु",
      "ः,</w>"
    ],
    [
      "गवर्",
      "नर्</w>"
    ],
    [
      "प्र",
      "ददाति।</w>"
    ],
    [
      "दिव",
      "सः</w>"
    ],
    [
      "ब",
      "ल्"
    ],
    [
      "का",
      "म"
    ],
    [
      "कब",
      "ड्ड"
    ],
    [
      "व्य",
      "ायाम"
    ],
    [
      "ज्य",
      "ेष्ठ"
    ],
    [
      "ता",
      "ं,</w>"
    ],
    [
      "्या",
      "र्थं</w>"
    ],
    [
      "क",
      "त्वेन</w>"
    ],
    [
      "श",
      "त्र"
    ],
    [
      "विष",
      "यः</w>"
    ],
    [
      "सेव",
      "ायाः</w>"
    ],
    [
      "स्थित",
      "स्य</w>"
    ],
    [
      "कन्दु",
      "कं</w>"
    ],
    [
      "स्वि",
      "ट्ज़"
    ],
    [
      "पर",
      "ीत"
    ],
    [
      "अभव",
      "न्,</w>"
    ],
    [
      "ित",
      "ेन</w>"
    ],
    [
      "कठ",
      "ो"
    ],
    [
      "वाद",
      "ः</w>"
    ],
    [
      "रा",
      "ण"
    ],
    [
      "वि",
      "क-"
    ],
    [
      "पर्या",
      "वरण"
    ],
    [
      "ार",
      "ं</w>"
    ],
    [
      "वस्त्र",
      "ाणि</w>"
    ],
    [
      "कार्यक्रम",
      "े</w>"
    ],
    [
      "ड",
      "ि</w>"
    ],
    [
      "टे",
      "ल्-"
    ],
    [
      "वि",
      "भागे</w>"
    ],
    [
      "प्रा",
      "ची"
    ],
    [
      "ओ",
      "प"
    ],
    [
      "नी",
      "स्-"
    ],
    [
      "टे",
      "ड्-"
    ],
    [
      "म्",
      ")</w>"
    ],
    [
      "तमिळ",
      "्-"
    ],
    [
      "मेक्स",
      "िक"
    ],
    [
      "ड",
      "्यू"
    ],
    [
      "क्",
      "लो"
    ],
    [
      "मह",
      "्यं</w>"
    ],
    [
      "पुत्र",
      "ी</w>"
    ],
    [
      "ग्र",
      "ि"
    ],
    [
      "कि",
      "ङ्ग्</w>"
    ],
    [
      "च",
      "ाय"
    ],
    [
      "ष",
      "ष्ठ"
    ],
    [
      "व",
      "।</w>"
    ],
    [
      "र",
      "ान्</w>"
    ],
    [
      "पु",
      "ल"
    ],
    [
      "ज़",
      "ि"
    ],
    [
      "अधिक",
      "म्</w>"
    ],
    [
      "अव",
      "लम्ब"
    ],
    [
      "चि",
      "त्त"
    ],
    [
      "आ",
      "ग्ने"
    ],
    [
      "निर्",
      "गम"
    ],
    [
      "त्",
      "वे"
    ],
    [
      "तु",
      "र्"
    ],
    [
      "अ",
      "म"
    ],
    [
      "उदाहरणार्थ",
      "ं,</w>"
    ],
    [
      "नगर",
      "योः</w>"
    ],
    [
      "युग",
      "स्य</w>"
    ],
    [
      "ष",
      "ाण"
    ],
    [
      "ट",
      "ल्</w>"
    ],
    [
      "क्क",
      "ु"
    ],
    [
      "वि",
      "न्</w>"
    ],
    [
      "गुह",
      "ाः</w>"
    ],
    [
      "सा",
      "र्"
    ],
    [
      "प्रो",
      "ग्रा"
    ],
    [
      "ग्रीष्म",
      "कालीन-"
    ],
    [
      "सिस्ट",
      "म्</w>"
    ],
    [
      "फ़",
      "ा"
    ],
    [
      "शि",
      "वा"
    ],
    [
      "काल",
      "े"
    ],
    [
      "वृष्ट",
      "िः</w>"
    ],
    [
      "स्म",
      "ृ"
    ],
    [
      "अनु",
      "मोद"
    ],
    [
      "सप्",
      "त</w>"
    ],
    [
      "उ",
      "न्"
    ],
    [
      "देव",
      "स्य</w>"
    ],
    [
      "ा",
      "चार"
    ],
    [
      "द",
      "ी</w>"
    ],
    [
      ".सी",
      "."
    ],
    [
      "ाव",
      "ध"
    ],
    [
      "स्व",
      "्य"
    ],
    [
      "आ",
      "फ्-"
    ],
    [
      "भ",
      "य"
    ],
    [
      "प्र",
      "थ"
    ],
    [
      "न",
      "वी"
    ],
    [
      "िय",
      "र्</w>"
    ],
    [
      "त्र",
      "ी</w>"
    ],
    [
      "विचार",
      "ः</w>"
    ],
    [
      "डि",
      "स्क"
    ],
    [
      "प्रवह",
      "ति।</w>"
    ],
    [
      "चर्",
      "च्-"
    ],
    [
      "कार्य",
      "ालय"
    ],
    [
      "न्",
      "सन्</w>"
    ],
    [
      "मे",
      "रिक"
    ],
    [
      "बा",
      "ह्य"
    ],
    [
      "परिणाम",
      "ेन</w>"
    ],
    [
      "१९७",
      "९</w>"
    ],
    [
      "दू",
      "रं</w>"
    ],
    [
      "मुख्य",
      "ः</w>"
    ],
    [
      "लिय",
      "ो"
    ],
    [
      "न",
      "ानाम्</w>"
    ],
    [
      "प्रथम",
      "े</w>"
    ],
    [
      "सा",
      "धार"
    ],
    [
      "वास्त",
      "विक"
    ],
    [
      "जीव",
      "ने</w>"
    ],
    [
      "अभियो",
      "ग"
    ],
    [
      "४",
      "५</w>"
    ],
    [
      "िण",
      "ा</w>"
    ],
    [
      "य",
      "ाय"
    ],
    [
      "फेब्रुवर",
      "ी</w>"
    ],
    [
      "ाप",
      "्ट"
    ],
    [
      "पर्याप्",
      "तं</w>"
    ],
    [
      "भू",
      "मे"
    ],
    [
      "क्रीड",
      "ाल"
    ],
    [
      "त",
      "स्य"
    ],
    [
      "गो",
      "ल्</w>"
    ],
    [
      "कू",
      "ल"
    ],
    [
      "सम्",
      "प्रदाय"
    ],
    [
      "क्रय",
      "णं</w>"
    ],
    [
      "दा",
      "तव्य"
    ],
    [
      "स्थित",
      "ा</w>"
    ],
    [
      "क्रिय",
      "ते</w>"
    ],
    [
      "अधिकांश",
      "ेषु</w>"
    ],
    [
      "्लो",
      "रि"
    ],
    [
      "मादक",
      "द्रव्या"
    ],
    [
      "अवृ",
      "तत्।</w>"
    ],
    [
      "ि",
      "त्वा</w>"
    ],
    [
      "प्रथम",
      "म्</w>"
    ],
    [
      "औरङ्ग",
      "जे"
    ],
    [
      "सं",
      "साध"
    ],
    [
      "वरि",
      "ष्ठ"
    ],
    [
      "वि",
      "वा"
    ],
    [
      "आ",
      "क्राम"
    ],
    [
      "न्",
      "वि"
    ],
    [
      "स्ट",
      "ार्"
    ],
    [
      "गा",
      "मि"
    ],
    [
      "समा",
      "वेश"
    ],
    [
      "वित्त",
      "ीय-"
    ],
    [
      "समर्थ",
      "ाः</w>"
    ],
    [
      "१९५",
      "६</w>"
    ],
    [
      "प्रत्येक",
      "स्य</w>"
    ],
    [
      "विच्छ",
      "ेद"
    ],
    [
      "क्रिय",
      "माण"
    ],
    [
      "ाप",
      "ेक्ष"
    ],
    [
      "कार्",
      "पो"
    ],
    [
      "ल",
      "ाल"
    ],
    [
      "फ़",
      "्रा"
    ],
    [
      "राज्य",
      "ानि</w>"
    ],
    [
      "सम्बद्ध",
      "ः</w>"
    ],
    [
      "वह",
      "ति।</w>"
    ],
    [
      "सहभाग",
      "ि"
    ],
    [
      "श्",
      "वा"
    ],
    [
      "ु",
      "ः,</w>"
    ],
    [
      "उ",
      "परि"
    ],
    [
      "द",
      "िक"
    ],
    [
      "ध",
      "र्"
    ],
    [
      ".टी",
      ".</w>"
    ],
    [
      "त",
      "वाह"
    ],
    [
      "म्-",
      "देशस्य</w>"
    ],
    [
      "विद्य",
      "ते</w>"
    ],
    [
      "प्राप्",
      "तुम्</w>"
    ],
    [
      "मराठ",
      "ा"
    ],
    [
      "अभिनेत्र",
      "ी</w>"
    ],
    [
      "दु",
      "ष्ट"
    ],
    [
      "ा",
      "र्थम्</w>"
    ],
    [
      "श",
      "ौ"
    ],
    [
      "जा",
      "तः</w>"
    ],
    [
      "त",
      "ायां</w>"
    ],
    [
      "क्ष",
      "ति"
    ],
    [
      "शक",
      "्य"
    ],
    [
      "ि",
      "त्य</w>"
    ],
    [
      "१९८",
      "९</w>"
    ],
    [
      "उद्",
      "दिश्य</w>"
    ],
    [
      "मौ",
      "र्य"
    ],
    [
      "क्रम",
      "शः</w>"
    ],
    [
      "तमिळु",
      "नाडु"
    ],
    [
      "पात्र",
      "म्</w>"
    ],
    [
      "अ",
      "क"
    ],
    [
      "व्य",
      "ं</w>"
    ],
    [
      "ज़",
      "्"
    ],
    [
      "इट",
      "ाल"
    ],
    [
      "च्या",
      "म्पियन्शिप्-"
    ],
    [
      "आन्",
      "लैन्-"
    ],
    [
      "े",
      "ट्</w>"
    ],
    [
      "ि",
      "ङ्ग्</w>"
    ],
    [
      "युद्ध",
      "कल"
    ],
    [
      "अ",
      "मी</w>"
    ],
    [
      "अवित्त",
      "।</w>"
    ],
    [
      "हि",
      "ंस"
    ],
    [
      "ान",
      "म्</w>"
    ],
    [
      "रा",
      "व्</w>"
    ],
    [
      "द",
      "ौ"
    ],
    [
      "बा",
      "र्-"
    ],
    [
      "त्य",
      "ां</w>"
    ],
    [
      "३",
      "००</w>"
    ],
    [
      "ग",
      "भी"
    ],
    [
      "स्वी",
      "कृत्य</w>"
    ],
    [
      "म्-",
      "नगरे</w>"
    ],
    [
      "के",
      "ट्-"
    ],
    [
      "या",
      "ळ"
    ],
    [
      "पा",
      "ट"
    ],
    [
      "सप्ता",
      "हा"
    ],
    [
      "पो",
      "लि"
    ],
    [
      "लि",
      "न्-"
    ],
    [
      "गो",
      "</w>"
    ],
    [
      "ह",
      "्-"
    ],
    [
      "सङ्गीत",
      "-"
    ],
    [
      "सूच",
      "्यां</w>"
    ],
    [
      "घ",
      "ट्ट"
    ],
    [
      "उल्लेख",
      "ः</w>"
    ],
    [
      "कु",
      "र्य"
    ],
    [
      "ओ",
      "ल"
    ],
    [
      "अवै",
      "ध"
    ],
    [
      "वार्ष",
      "िक"
    ],
    [
      "इण्ड",
      "ो"
    ],
    [
      "क्ट",
      "ी"
    ],
    [
      "विण्डो",
      "स्</w>"
    ],
    [
      "स्वातन्त्र",
      "्य"
    ],
    [
      "यित",
      "ुं,</w>"
    ],
    [
      "भारतीय",
      "ः</w>"
    ],
    [
      "ङ्ग",
      "-"
    ],
    [
      "१९६",
      "९</w>"
    ],
    [
      "शक्त",
      "िः</w>"
    ],
    [
      "आत्",
      "मह"
    ],
    [
      "अ",
      "लिख"
    ],
    [
      "१९८",
      "३</w>"
    ],
    [
      "१९८",
      "५</w>"
    ],
    [
      "पद",
      "स्य</w>"
    ],
    [
      "निर्वाच",
      "ितः</w>"
    ],
    [
      "श",
      "ंस"
    ],
    [
      "न्याश",
      "नल्-"
    ],
    [
      "िक",
      "ासु</w>"
    ],
    [
      "उत्",
      "कीर्ण"
    ],
    [
      "उत्पत्त",
      "िः</w>"
    ],
    [
      "सेव",
      "ां</w>"
    ],
    [
      "ढ",
      "ुं</w>"
    ],
    [
      "अ",
      "भाव"
    ],
    [
      "मुम्ब",
      "ै-"
    ],
    [
      "स्या",
      "त्,</w>"
    ],
    [
      "ण",
      "ो"
    ],
    [
      "अस्",
      "सा"
    ],
    [
      "न्यू",
      "नः</w>"
    ],
    [
      "ख",
      "ो"
    ],
    [
      "शब्",
      "दः</w>"
    ],
    [
      "सम",
      "ारोह"
    ],
    [
      "पुरस्कार",
      "ः</w>"
    ],
    [
      "ब्",
      "ब"
    ],
    [
      "भ",
      "ग्"
    ],
    [
      "आ",
      "धिक"
    ],
    [
      "ध्य",
      "क्ष"
    ],
    [
      "स",
      "ेण्ट्</w>"
    ],
    [
      "ा",
      "भ्यां</w>"
    ],
    [
      "पाश्च",
      "ा"
    ],
    [
      "प्रा",
      "न्ते</w>"
    ],
    [
      "बेल्",
      "जिय"
    ],
    [
      "ख",
      "ो</w>"
    ],
    [
      "स्थ",
      "ायां</w>"
    ],
    [
      "ट्",
      "बाल्</w>"
    ],
    [
      "म",
      "ीड"
    ],
    [
      "नेट्",
      "वर्"
    ],
    [
      "ए",
      "फ़्"
    ],
    [
      "युनैटेड्-",
      "स्टेट्स्-"
    ],
    [
      "गोल",
      "िका"
    ],
    [
      "वा",
      "शि"
    ],
    [
      "ब्रुवर",
      "ी</w>"
    ],
    [
      "ए",
      "फ़्"
    ],
    [
      "ब",
      "वे"
    ],
    [
      "चलच्चित्र",
      "ाणि</w>"
    ],
    [
      "उल्लेख",
      "नीय"
    ],
    [
      "७",
      "२</w>"
    ],
    [
      "ग",
      "त्या</w>"
    ],
    [
      "म",
      "रु"
    ],
    [
      "वि",
      "नो"
    ],
    [
      "परि",
      "वर्"
    ],
    [
      "ल्",
      "ली"
    ],
    [
      "वि",
      "श्र"
    ],
    [
      "प्रा",
      "ध्याप"
    ],
    [
      "ल",
      "</w>"
    ],
    [
      "ज्व",
      "ाल"
    ],
    [
      "स्थि",
      "तिं</w>"
    ],
    [
      "ेत",
      "</w>"
    ],
    [
      "को",
      "-"
    ],
    [
      "एता",
      "वत्</w>"
    ],
    [
      "वि",
      "निम"
    ],
    [
      "कार्यक्रम",
      "स्य</w>"
    ],
    [
      "मन्दि",
      "राणि</w>"
    ],
    [
      "भूमे",
      "ः</w>"
    ],
    [
      "िक",
      "े</w>"
    ],
    [
      "लो",
      "ह"
    ],
    [
      "यत्",
      "किमपि</w>"
    ],
    [
      "क्",
      "लै"
    ],
    [
      "वा",
      "त"
    ],
    [
      "शक्नो",
      "ति,</w>"
    ],
    [
      "न",
      "ः,</w>"
    ],
    [
      "१८",
      "९"
    ],
    [
      "सू",
      "क्ष"
    ],
    [
      "व्या",
      "घ्र"
    ],
    [
      "र",
      "व"
    ],
    [
      "एक",
      "वारं</w>"
    ],
    [
      "ते",
      "लङ्ग"
    ],
    [
      "फु",
      "फ्"
    ],
    [
      "फुफ्",
      "फु"
    ],
    [
      "उत्सव",
      "स्य</w>"
    ],
    [
      "विशेष",
      "ाणां</w>"
    ],
    [
      "फ़ि",
      "लि"
    ],
    [
      "पाल",
      "ि"
    ],
    [
      "प्रक्रिय",
      "ा</w>"
    ],
    [
      "विद्यु",
      "त्-"
    ],
    [
      ".ए",
      "."
    ],
    [
      "जर्मनी",
      "देशस्य</w>"
    ],
    [
      "वि",
      "वि"
    ],
    [
      "दर्श",
      "यति।</w>"
    ],
    [
      "कम्प",
      "नी"
    ],
    [
      "भूम",
      "िकां</w>"
    ],
    [
      "१",
      "-"
    ],
    [
      "सहस्",
      "र"
    ],
    [
      "सौ",
      "कर"
    ],
    [
      ":",
      "</w>"
    ],
    [
      "ह",
      "रिय"
    ],
    [
      "हरिय",
      "ाण"
    ],
    [
      "निय",
      "न्</w>"
    ],
    [
      "तत्",
      "क्षण"
    ],
    [
      "द्वा",
      "दश"
    ],
    [
      "ज़",
      "ा"
    ],
    [
      "स्विट्ज़",
      "र्"
    ],
    [
      "क्रीड",
      "ितुं</w>"
    ],
    [
      "ई",
      "जि"
    ],
    [
      "अस्थ",
      "ि"
    ],
    [
      "काल",
      "ि"
    ],
    [
      "चण्डी",
      "गढ"
    ],
    [
      "समुदाय",
      "स्य</w>"
    ],
    [
      "ेश",
      "्</w>"
    ],
    [
      "पुरुष",
      "ः</w>"
    ],
    [
      "व",
      "ञ्च"
    ],
    [
      "खण्ड",
      "े</w>"
    ],
    [
      "१९८",
      "२</w>"
    ],
    [
      "जग",
      "ाम।</w>"
    ],
    [
      "े",
      "न्</w>"
    ],
    [
      "गे",
      "म्स्</w>"
    ],
    [
      "कौ",
      "न्सि"
    ],
    [
      "ग",
      "ै"
    ],
    [
      "का",
      "चित्</w>"
    ],
    [
      "शीत",
      "ल"
    ],
    [
      "व्यावसाय",
      "िक"
    ],
    [
      "मै",
      "ल्)</w>"
    ],
    [
      "ट्र",
      "ै"
    ],
    [
      "त",
      "रण"
    ],
    [
      "ओ",
      "क्ल"
    ],
    [
      "ग",
      "वा"
    ],
    [
      "गान्ध",
      "ी-"
    ],
    [
      "स्व",
      "ं</w>"
    ],
    [
      "इ",
      "ष्ट"
    ],
    [
      "स",
      "चि"
    ],
    [
      "प्रार",
      "भ"
    ],
    [
      "ड",
      "ार्"
    ],
    [
      "गन्त",
      "ुम्</w>"
    ],
    [
      "सम्",
      "भव"
    ],
    [
      "य",
      "स्याः</w>"
    ],
    [
      "ज",
      "र्</w>"
    ],
    [
      "आनन्द",
      "ः</w>"
    ],
    [
      "अले",
      "क्"
    ],
    [
      "ल",
      "ौ"
    ],
    [
      "४",
      "००</w>"
    ],
    [
      "ो",
      "द्य"
    ],
    [
      "ति",
      "क"
    ],
    [
      "अधिकांश",
      "ः</w>"
    ]
  ],
  "vocab_size": 5000,
  "num_merges": 5000,
  "actual_merges": 5000,
  "special_tokens": [
    "<unk>",
    "<pad>",
    "<sos>",
    "<eos>"
  ]
}