{
  "merges": [
    [
      "ᱟ",
      "</w>"
    ],
    [
      "ᱟ",
      "ᱹ"
    ],
    [
      "ᱨ",
      "ᱮ"
    ],
    [
      "ᱟ",
      "ᱜ"
    ],
    [
      "ᱚ",
      "</w>"
    ],
    [
      "ᱟ",
      "ᱨ"
    ],
    [
      "ᱱ",
      "</w>"
    ],
    [
      "ᱟᱜ",
      "</w>"
    ],
    [
      "᱾",
      "</w>"
    ],
    [
      "ᱮ",
      "</w>"
    ],
    [
      "ᱤ",
      "</w>"
    ],
    [
      "ᱠ",
      "ᱟ"
    ],
    [
      "ᱟᱨ",
      "</w>"
    ],
    [
      "ᱨᱮ",
      "</w>"
    ],
    [
      "ᱞ",
      "ᱮ"
    ],
    [
      "ᱭ",
      "</w>"
    ],
    [
      "ᱭ",
      "ᱟᱜ</w>"
    ],
    [
      "ᱱ",
      "ᱟ</w>"
    ],
    [
      "ᱫ",
      "</w>"
    ],
    [
      "ᱫ",
      "ᱚ</w>"
    ],
    [
      "ᱠ",
      "ᱷ"
    ],
    [
      "ᱢ",
      "</w>"
    ],
    [
      "ᱨᱮ",
      "ᱭᱟᱜ</w>"
    ],
    [
      "ᱥ",
      "ᱟ"
    ],
    [
      "ᱛ",
      "ᱟ"
    ],
    [
      ",",
      "</w>"
    ],
    [
      "ᱞ",
      "</w>"
    ],
    [
      "ᱚ",
      "ᱨ"
    ],
    [
      "ᱛ",
      "ᱮ</w>"
    ],
    [
      "ᱝ",
      "</w>"
    ],
    [
      "ᱠ",
      "ᱚ</w>"
    ],
    [
      "ᱱ",
      "ᱚ"
    ],
    [
      "ᱱ",
      "ᱟ"
    ],
    [
      "ᱢ",
      "ᱤ"
    ],
    [
      "ᱣ",
      "</w>"
    ],
    [
      "ᱦ",
      "ᱚ"
    ],
    [
      "ᱤ",
      "ᱭ"
    ],
    [
      "ᱵ",
      "ᱟ"
    ],
    [
      "ᱚ",
      "ᱱ</w>"
    ],
    [
      "ᱦ",
      "ᱟ"
    ],
    [
      "ᱢ",
      "ᱮ"
    ],
    [
      "ᱠ",
      "ᱚ"
    ],
    [
      "ᱵ",
      "ᱷ"
    ],
    [
      "ᱡ",
      "ᱟ"
    ],
    [
      "ᱥ",
      "</w>"
    ],
    [
      "ᱴ",
      "ᱟ"
    ],
    [
      "ᱛ",
      "</w>"
    ],
    [
      "ᱥ",
      "ᱮ"
    ],
    [
      "ᱦ",
      "ᱩ"
    ],
    [
      "ᱠᱟ",
      "ᱱᱟ</w>"
    ],
    [
      "ᱞ",
      "ᱟᱹ"
    ],
    [
      "ᱦ",
      "ᱮ"
    ],
    [
      "ᱩ",
      "ᱱ"
    ],
    [
      "ᱟ",
      "ᱱ</w>"
    ],
    [
      "ᱨ",
      "</w>"
    ],
    [
      "ᱼ",
      "ᱟ</w>"
    ],
    [
      "ᱨ",
      "ᱟ"
    ],
    [
      "ᱸ",
      "</w>"
    ],
    [
      "ᱫ",
      "ᱟ"
    ],
    [
      "ᱥ",
      "ᱚ"
    ],
    [
      "ᱜ",
      "</w>"
    ],
    [
      "ᱣ",
      "ᱟ</w>"
    ],
    [
      "ᱟᱹ",
      "</w>"
    ],
    [
      "ᱨ",
      "ᱤ"
    ],
    [
      "ᱞ",
      "ᱟ"
    ],
    [
      "ᱜ",
      "ᱤ"
    ],
    [
      "ᱯ",
      "ᱷ"
    ],
    [
      "ᱵ",
      "ᱮ"
    ],
    [
      "ᱵ",
      "ᱤ"
    ],
    [
      "ᱡ",
      "</w>"
    ],
    [
      "ᱢ",
      "ᱟ"
    ],
    [
      "ᱴᱟ",
      "ᱝ</w>"
    ],
    [
      "ᱢᱤ",
      "ᱫ"
    ],
    [
      "ᱛ",
      "ᱮ"
    ],
    [
      "ᱩ",
      "</w>"
    ],
    [
      "ᱛᱟ",
      "ᱦᱮ"
    ],
    [
      "ᱫ",
      "ᱟ</w>"
    ],
    [
      "ᱢ",
      "ᱩ"
    ],
    [
      "ᱫ",
      "ᱷ"
    ],
    [
      "ᱠ",
      "</w>"
    ],
    [
      "ᱥ",
      "ᱤ"
    ],
    [
      "ᱲ",
      "</w>"
    ],
    [
      "ᱡ",
      "ᱚ"
    ],
    [
      "ᱴ",
      "</w>"
    ],
    [
      "ᱯ",
      "ᱟ"
    ],
    [
      "ᱜ",
      "ᱚ"
    ],
    [
      "ᱦ",
      "ᱤ"
    ],
    [
      "ᱢᱤᱫ",
      "ᱴᱟᱝ</w>"
    ],
    [
      "ᱱᱚ",
      "ᱣᱟ</w>"
    ],
    [
      "ᱫ",
      "ᱚ"
    ],
    [
      "ᱢ",
      "ᱚ"
    ],
    [
      "ᱵ",
      "ᱚ"
    ],
    [
      "ᱛ",
      "ᱷ"
    ],
    [
      "ᱠᱷ",
      "ᱚᱱ</w>"
    ],
    [
      "ᱢᱮ",
      "ᱱ"
    ],
    [
      "ᱧ",
      "</w>"
    ],
    [
      "ᱞᱟᱹ",
      "ᱜᱤ"
    ],
    [
      "ᱠ",
      "ᱤ"
    ],
    [
      "ᱠ",
      "ᱟᱹ"
    ],
    [
      "ᱡᱟ",
      "ᱦᱟ"
    ],
    [
      "ᱮ",
      "ᱭ"
    ],
    [
      "ᱴ",
      "ᱷ"
    ],
    [
      "ᱞᱟᱹᱜᱤ",
      "ᱫ</w>"
    ],
    [
      "ᱞᱮ",
      "ᱱᱟ</w>"
    ],
    [
      "ᱚᱨ",
      "</w>"
    ],
    [
      "ᱞᱮ",
      "ᱠᱟ"
    ],
    [
      "ᱨᱮ",
      "ᱱ</w>"
    ],
    [
      "ᱨ",
      "ᱚ"
    ],
    [
      "ᱯ",
      "ᱚ"
    ],
    [
      "ᱦᱩ",
      "ᱭ"
    ],
    [
      "ᱜ",
      "ᱟ"
    ],
    [
      "ᱞ",
      "ᱚ"
    ],
    [
      "ᱩ",
      "ᱨ"
    ],
    [
      "ᱟ",
      "ᱠᱟ"
    ],
    [
      "ᱢ",
      "ᱟ</w>"
    ],
    [
      "ᱱ",
      "ᱟᱜ</w>"
    ],
    [
      "ᱞ",
      "ᱤ"
    ],
    [
      "ᱟ",
      "ᱢ</w>"
    ],
    [
      "ᱪ",
      "ᱟ"
    ],
    [
      "ᱟᱜ",
      "ᱼᱟ</w>"
    ],
    [
      "ᱱ",
      "ᱤ"
    ],
    [
      "ᱛ",
      "ᱤ"
    ],
    [
      "ᱟ",
      "ᱭ"
    ],
    [
      "ᱪ",
      "ᱷ"
    ],
    [
      "ᱛ",
      "ᱤ</w>"
    ],
    [
      "ᱦᱩᱭ",
      "ᱩ"
    ],
    [
      "ᱫ",
      "ᱤ"
    ],
    [
      "ᱜ",
      "ᱼᱟ</w>"
    ],
    [
      "ᱩᱱ",
      "ᱤ</w>"
    ],
    [
      "ᱥ",
      "ᱟᱹ"
    ],
    [
      "ᱛ",
      "ᱚ"
    ],
    [
      "ᱛ",
      "ᱚ</w>"
    ],
    [
      "ᱵ",
      "</w>"
    ],
    [
      "ᱮ",
      "ᱱ"
    ],
    [
      "ᱴ",
      "ᱤ"
    ],
    [
      "ᱳ",
      "</w>"
    ],
    [
      "ᱰ",
      "</w>"
    ],
    [
      "ᱮ",
      "ᱞ</w>"
    ],
    [
      "ᱟ",
      "ᱣ</w>"
    ],
    [
      "ᱫᱟ",
      "ᱲ"
    ],
    [
      "ᱦᱩ",
      "ᱭ</w>"
    ],
    [
      "ᱰ",
      "ᱤ</w>"
    ],
    [
      "ᱡ",
      "ᱮ"
    ],
    [
      "ᱥ",
      "ᱩ"
    ],
    [
      "ᱟᱨ",
      "ᱚ"
    ],
    [
      "ᱦ",
      "ᱟᱹ"
    ],
    [
      "᱒",
      "᱐"
    ],
    [
      "ᱨ",
      "ᱩ"
    ],
    [
      "ᱞᱮ",
      "ᱫᱟ</w>"
    ],
    [
      "ᱪ",
      "ᱤ"
    ],
    [
      "ᱚ",
      "ᱠ"
    ],
    [
      "ᱠ",
      "ᱮ"
    ],
    [
      "ᱜ",
      "ᱮ</w>"
    ],
    [
      "ᱠ",
      "ᱩ"
    ],
    [
      "ᱥ",
      "ᱴ"
    ],
    [
      "ᱪ",
      "ᱮ"
    ],
    [
      "ᱩ",
      "ᱛ"
    ],
    [
      "ᱤᱭ",
      "ᱟᱹ</w>"
    ],
    [
      "ᱢᱤ",
      "ᱫ</w>"
    ],
    [
      "ᱡ",
      "ᱤ"
    ],
    [
      "ᱳ",
      "ᱭ"
    ],
    [
      "ᱨ",
      "ᱤ</w>"
    ],
    [
      "ᱦᱚ",
      "ᱸ</w>"
    ],
    [
      "ᱛᱟᱦᱮ",
      "ᱸ</w>"
    ],
    [
      "ᱦᱚ",
      "ᱲ</w>"
    ],
    [
      "ᱱᱟ",
      "ᱣ</w>"
    ],
    [
      "ᱭ",
      "ᱚ"
    ],
    [
      "ᱜ",
      "ᱷ"
    ],
    [
      "ᱡ",
      "ᱩ"
    ],
    [
      "ᱣ",
      "ᱟᱜ</w>"
    ],
    [
      "ᱵ",
      "ᱟᱹ"
    ],
    [
      "᱑",
      "᱙"
    ],
    [
      "ᱠᱷ",
      "ᱟᱱ</w>"
    ],
    [
      "ᱞᱮᱠᱟ",
      "ᱛᱮ</w>"
    ],
    [
      "ᱯ",
      "ᱩ"
    ],
    [
      "ᱡᱟᱦᱟ",
      "ᱸ</w>"
    ],
    [
      "ᱟ",
      "ᱭ</w>"
    ],
    [
      "ᱵᱟ",
      "ᱝ</w>"
    ],
    [
      "᱐",
      "</w>"
    ],
    [
      "ᱜ",
      "ᱮ"
    ],
    [
      "ᱢ",
      "ᱟᱨ"
    ],
    [
      "ᱴ",
      "ᱮ"
    ],
    [
      "ᱟ",
      "ᱠᱟᱱᱟ</w>"
    ],
    [
      "ᱛᱟ",
      "ᱭᱚ"
    ],
    [
      "ᱰ",
      "ᱤ"
    ],
    [
      "ᱦ",
      "ᱟ</w>"
    ],
    [
      "ᱦ",
      "ᱟᱨ</w>"
    ],
    [
      "ᱥᱟ",
      "ᱶ"
    ],
    [
      "ᱥᱟ",
      "ᱞ</w>"
    ],
    [
      "ᱛ",
      "ᱟᱹ"
    ],
    [
      "ᱫᱟᱲ",
      "ᱮᱭ"
    ],
    [
      "ᱠ",
      "ᱟ</w>"
    ],
    [
      "ᱴ",
      "ᱚ"
    ],
    [
      "ᱞ",
      "ᱟ</w>"
    ],
    [
      "ᱡ",
      "ᱟᱹ"
    ],
    [
      "ᱟ",
      ",</w>"
    ],
    [
      "ᱦᱩᱭᱩ",
      "ᱜ</w>"
    ],
    [
      "ᱪ",
      "</w>"
    ],
    [
      "ᱚ",
      "ᱱᱟ</w>"
    ],
    [
      "ᱮ",
      "ᱢ</w>"
    ],
    [
      "ᱠ",
      "ᱳ"
    ],
    [
      "ᱞ",
      "ᱳ"
    ],
    [
      "ᱥ",
      "ᱤ</w>"
    ],
    [
      "ᱭ",
      "ᱤ"
    ],
    [
      "ᱠ",
      "ᱚᱨ"
    ],
    [
      "ᱫ",
      "ᱤ</w>"
    ],
    [
      "ᱞ",
      "ᱤ</w>"
    ],
    [
      "ᱮ",
      "ᱴ"
    ],
    [
      "ᱱᱚ",
      "ᱛ</w>"
    ],
    [
      "ᱡ",
      "ᱮ</w>"
    ],
    [
      "ᱵᱷ",
      "ᱟᱨᱚ"
    ],
    [
      "ᱛᱟᱭᱚ",
      "ᱢ</w>"
    ],
    [
      "ᱟᱹ",
      "ᱣ</w>"
    ],
    [
      "ᱭ",
      "ᱟ</w>"
    ],
    [
      "ᱢᱮᱱ",
      "ᱟᱜᱼᱟ</w>"
    ],
    [
      "ᱥᱮ",
      "ᱨ"
    ],
    [
      "ᱠᱚ",
      "ᱣᱟᱜ</w>"
    ],
    [
      "ᱚᱨ",
      "ᱚ"
    ],
    [
      "ᱠᱷ",
      "ᱚ"
    ],
    [
      "ᱪ",
      "ᱚ"
    ],
    [
      "ᱟ",
      "ᱢ"
    ],
    [
      "ᱠᱟ",
      "ᱛᱮ</w>"
    ],
    [
      "ᱯ",
      "</w>"
    ],
    [
      "ᱥᱟᱹ",
      "ᱦᱤ"
    ],
    [
      "ᱶ",
      "ᱟ</w>"
    ],
    [
      "ᱫ",
      "ᱩ"
    ],
    [
      "ᱠᱟ",
      "ᱱ</w>"
    ],
    [
      "ᱪ",
      "ᱟᱹ"
    ],
    [
      "ᱤᱭ",
      "ᱟ</w>"
    ],
    [
      "ᱱᱟ",
      ",</w>"
    ],
    [
      "ᱨ",
      "ᱳ"
    ],
    [
      "ᱮ",
      "ᱱ</w>"
    ],
    [
      "ᱠᱟ",
      "ᱛᱮ"
    ],
    [
      "ᱯ",
      "ᱤ"
    ],
    [
      "ᱡᱽ",
      "</w>"
    ],
    [
      "ᱟᱹ",
      "ᱰᱤ</w>"
    ],
    [
      "ᱨᱮ",
      "ᱱᱟᱜ</w>"
    ],
    [
      "ᱵᱮ",
      "ᱱᱟᱣ</w>"
    ],
    [
      "ᱟ",
      "ᱡ"
    ],
    [
      "ᱟ",
      "ᱝ</w>"
    ],
    [
      "ᱫᱟᱲᱮᱭ",
      "ᱟᱜᱼᱟ</w>"
    ],
    [
      "ᱜ",
      "ᱩ"
    ],
    [
      "ᱵᱷ",
      "ᱤ"
    ],
    [
      "ᱢ",
      "ᱤ</w>"
    ],
    [
      "ᱟᱠᱟ",
      "ᱫᱟ</w>"
    ],
    [
      "ᱤ",
      "ᱧ</w>"
    ],
    [
      "ᱯ",
      "ᱟᱹ"
    ],
    [
      "ᱮᱭ",
      "ᱟ</w>"
    ],
    [
      "ᱱᱚ",
      "ᱶᱟ</w>"
    ],
    [
      "ᱥ",
      "ᱮ</w>"
    ],
    [
      "ᱞᱮ",
      "ᱫᱟ"
    ],
    [
      "ᱛᱟᱦᱮ",
      "ᱸ"
    ],
    [
      "ᱚᱠ",
      "ᱛᱚ</w>"
    ],
    [
      "ᱱ",
      "ᱤ</w>"
    ],
    [
      "ᱠᱚ",
      "ᱫᱚ</w>"
    ],
    [
      "ᱱ",
      "ᱮ"
    ],
    [
      "ᱠᱷ",
      "ᱮ"
    ],
    [
      "ᱥᱟᱹᱦᱤ",
      "ᱛ</w>"
    ],
    [
      "ᱛ",
      "ᱟ</w>"
    ],
    [
      "ᱡ",
      "ᱷ"
    ],
    [
      "ᱪᱤ",
      "ᱛᱟᱹ"
    ],
    [
      "ᱨ",
      "ᱟᱹ"
    ],
    [
      "ᱲ",
      "ᱟ</w>"
    ],
    [
      "ᱫ",
      "ᱮ"
    ],
    [
      "ᱩᱛ",
      "ᱩ"
    ],
    [
      "ᱞᱮ",
      "ᱫ</w>"
    ],
    [
      "ᱱᱟ",
      "ᱭ</w>"
    ],
    [
      "ᱫ",
      "ᱟᱹ"
    ],
    [
      "ᱧ",
      "ᱩᱛᱩ"
    ],
    [
      "ᱦᱩᱭᱩ",
      "ᱜᱼᱟ</w>"
    ],
    [
      "ᱪᱤᱛᱟᱹ",
      "ᱨ</w>"
    ],
    [
      "ᱟ",
      "ᱱᱟᱜ</w>"
    ],
    [
      "ᱥ",
      "ᱚᱱ</w>"
    ],
    [
      "ᱢ",
      "ᱟᱱ</w>"
    ],
    [
      "ᱢᱩ",
      "ᱫᱽ"
    ],
    [
      "ᱵ",
      "ᱟᱨ"
    ],
    [
      "ᱩᱱ",
      "ᱤ"
    ],
    [
      "ᱱ",
      "ᱟᱹ"
    ],
    [
      "ᱮᱴ",
      "ᱟᱜ</w>"
    ],
    [
      "ᱯ",
      "ᱩᱨ"
    ],
    [
      "ᱟᱭ",
      "ᱢᱟ</w>"
    ],
    [
      "ᱟᱹ",
      "ᱱ</w>"
    ],
    [
      "ᱛᱟ",
      "ᱱ</w>"
    ],
    [
      "ᱢᱚ",
      "ᱱ"
    ],
    [
      "ᱯ",
      "ᱨᱚ"
    ],
    [
      "ᱟ",
      "ᱱ"
    ],
    [
      "ᱯ",
      "ᱮ"
    ],
    [
      "ᱵᱷᱟᱨᱚ",
      "ᱛ</w>"
    ],
    [
      "ᱠ",
      "ᱩ</w>"
    ],
    [
      "ᱧ",
      "ᱟᱢ</w>"
    ],
    [
      "ᱴᱚ",
      "ᱴᱷ"
    ],
    [
      "ᱨᱮ",
      "ᱭ</w>"
    ],
    [
      "᱒᱐",
      "᱑"
    ],
    [
      "ᱵᱟᱹ",
      "ᱲ"
    ],
    [
      "ᱡᱟᱦᱟ",
      "ᱸ"
    ],
    [
      "ᱼ",
      "ᱟ,</w>"
    ],
    [
      ")",
      "</w>"
    ],
    [
      "ᱥᱮᱨ",
      "ᱢᱟ</w>"
    ],
    [
      "ᱱᱟ",
      "ᱢ</w>"
    ],
    [
      "ᱛ",
      "ᱤᱭ"
    ],
    [
      "ᱵᱟ",
      "ᱝ"
    ],
    [
      "ᱵᱷ",
      "ᱟ"
    ],
    [
      "ᱵᱮ",
      "ᱣ"
    ],
    [
      "ᱫ",
      "ᱟᱨ"
    ],
    [
      "ᱲ",
      "ᱟᱜ</w>"
    ],
    [
      "ᱳ",
      "ᱣ"
    ],
    [
      "ᱰ",
      "ᱟ"
    ],
    [
      "ᱠᱤ",
      "ᱱ</w>"
    ],
    [
      "᱕",
      "</w>"
    ],
    [
      "ᱠᱤ",
      "ᱪᱷ"
    ],
    [
      "ᱨᱮ",
      ",</w>"
    ],
    [
      "ᱦᱚ",
      "ᱵ</w>"
    ],
    [
      "᱑",
      "</w>"
    ],
    [
      "᱒",
      "</w>"
    ],
    [
      "ᱯᱚ",
      "ᱱᱚᱛ</w>"
    ],
    [
      "ᱨ",
      "ᱚ</w>"
    ],
    [
      "ᱴ",
      "ᱤ</w>"
    ],
    [
      "ᱥᱟᱶ",
      "</w>"
    ],
    [
      "ᱢ",
      "ᱮ</w>"
    ],
    [
      "ᱱ",
      "ᱰ"
    ],
    [
      "ᱞ",
      "ᱳ</w>"
    ],
    [
      "ᱢᱩᱫᱽ",
      "ᱨᱮ</w>"
    ],
    [
      "ᱥᱟ",
      "ᱞ"
    ],
    [
      "ᱦ",
      "ᱚ</w>"
    ],
    [
      "ᱜᱚ",
      "ᱴᱟᱝ</w>"
    ],
    [
      "ᱨ",
      "ᱟ</w>"
    ],
    [
      "ᱵ",
      "ᱩ"
    ],
    [
      "ᱯ",
      "ᱨᱟ"
    ],
    [
      "ᱯ",
      "ᱚᱨ"
    ],
    [
      "ᱱ",
      "ᱩ"
    ],
    [
      "ᱥ",
      "ᱟ</w>"
    ],
    [
      "ᱟᱢ",
      "ᱟᱜ</w>"
    ],
    [
      "ᱲ",
      "ᱟᱣ</w>"
    ],
    [
      "ᱠ",
      "ᱟᱨ"
    ],
    [
      "ᱪᱮ",
      "ᱛᱟᱱ</w>"
    ],
    [
      "ᱰ",
      "ᱷ"
    ],
    [
      "ᱵᱷ",
      "ᱮ"
    ],
    [
      "ᱥ",
      "ᱟᱨ</w>"
    ],
    [
      "ᱡ",
      "ᱳ"
    ],
    [
      "ᱠᱟᱛᱮ",
      "ᱫ</w>"
    ],
    [
      "᱔",
      "</w>"
    ],
    [
      "ᱟᱠᱟ",
      "ᱱ</w>"
    ],
    [
      "ᱴᱚᱴᱷ",
      "ᱟ</w>"
    ],
    [
      "ᱠᱚᱨ",
      "ᱟᱣ</w>"
    ],
    [
      "᱘",
      "</w>"
    ],
    [
      "ᱞᱟ",
      "ᱣ</w>"
    ],
    [
      "ᱦ",
      "ᱟᱨ"
    ],
    [
      "ᱴ",
      "ᱟ</w>"
    ],
    [
      "ᱛ",
      "ᱩ"
    ],
    [
      "ᱯ",
      "ᱳᱭ"
    ],
    [
      "ᱥ",
      "ᱚᱨ"
    ],
    [
      "ᱞᱮᱠᱟ",
      "ᱱ</w>"
    ],
    [
      "ᱤ",
      "ᱡ</w>"
    ],
    [
      "ᱛᱮ",
      ",</w>"
    ],
    [
      "ᱩᱱ",
      "ᱠᱩ</w>"
    ],
    [
      "ᱵ",
      "ᱚᱨ</w>"
    ],
    [
      "᱗",
      "</w>"
    ],
    [
      "ᱞᱮᱫᱟ",
      "ᱭ</w>"
    ],
    [
      "ᱠᱟᱹ",
      "ᱢᱤ</w>"
    ],
    [
      "ᱜ",
      "ᱟᱹ"
    ],
    [
      "ᱢᱩ",
      "ᱪᱟᱹ"
    ],
    [
      "ᱯᱷ",
      "ᱤ"
    ],
    [
      "ᱧ",
      "ᱮᱞ</w>"
    ],
    [
      "᱓",
      "</w>"
    ],
    [
      "ᱦᱚ",
      "ᱲ"
    ],
    [
      "ᱜ",
      "ᱳ"
    ],
    [
      "ᱜᱽ",
      "</w>"
    ],
    [
      "᱖",
      "</w>"
    ],
    [
      "ᱵᱤ",
      "ᱡ</w>"
    ],
    [
      "ᱯᱳᱭ",
      "ᱞᱳ</w>"
    ],
    [
      "ᱞᱚ",
      "ᱛ</w>"
    ],
    [
      "ᱠᱚ",
      "ᱣᱟ</w>"
    ],
    [
      "ᱜ",
      "ᱟ</w>"
    ],
    [
      "ᱥ",
      "ᱳ"
    ],
    [
      "ᱵᱮᱣ",
      "ᱦᱟᱨ</w>"
    ],
    [
      "ᱵᱽ",
      "</w>"
    ],
    [
      "ᱢᱮᱱ",
      "ᱟᱜ</w>"
    ],
    [
      "ᱛ",
      "ᱚᱨ"
    ],
    [
      "ᱛ",
      "ᱚᱨ</w>"
    ],
    [
      "ᱥᱮ",
      "ᱞᱮᱫ</w>"
    ],
    [
      "ᱵ",
      "ᱚᱨ"
    ],
    [
      "ᱦ",
      "ᱚᱨ"
    ],
    [
      "ᱧᱩᱛᱩ",
      "ᱢ</w>"
    ],
    [
      "ᱠᱷ",
      "ᱟ"
    ],
    [
      "ᱛᱷ",
      "ᱟ"
    ],
    [
      "᱒᱐",
      "᱐"
    ],
    [
      "ᱢᱩᱪᱟᱹ",
      "ᱫ</w>"
    ],
    [
      "ᱡᱮ",
      "ᱜᱮ"
    ],
    [
      "ᱛᱷ",
      "ᱟ</w>"
    ],
    [
      "ᱜᱚ",
      "ᱲ"
    ],
    [
      "ᱛᱟ",
      "ᱞᱟ"
    ],
    [
      "ᱠ",
      "ᱟᱹ</w>"
    ],
    [
      "ᱴ",
      "ᱟᱨ</w>"
    ],
    [
      "ᱮ",
      "ᱞ"
    ],
    [
      "ᱠᱷ",
      "ᱤ"
    ],
    [
      "ᱥᱮ",
      "ᱨᱮ"
    ],
    [
      "ᱩ",
      "ᱭ"
    ],
    [
      "ᱮ",
      "ᱛᱚ"
    ],
    [
      "ᱟᱹ",
      "ᱨᱤ</w>"
    ],
    [
      "ᱴᱷ",
      "ᱟ"
    ],
    [
      "\"",
      "</w>"
    ],
    [
      "ᱫ",
      "ᱟᱜ</w>"
    ],
    [
      "ᱥ",
      "ᱟᱨ"
    ],
    [
      "ᱠᱤᱪᱷ",
      "ᱩ</w>"
    ],
    [
      "ᱠᱚ",
      "ᱢ</w>"
    ],
    [
      "ᱴᱷ",
      "ᱮᱱ</w>"
    ],
    [
      "ᱯ",
      "ᱟᱨ"
    ],
    [
      "ᱠᱟᱹ",
      "ᱣ"
    ],
    [
      "ᱚ",
      "ᱞ</w>"
    ],
    [
      "ᱯᱷ",
      "ᱮ"
    ],
    [
      "ᱦᱤ",
      "ᱸ"
    ],
    [
      "ᱯ",
      "ᱳ"
    ],
    [
      "ᱪᱟ",
      "ᱸ"
    ],
    [
      "ᱤ",
      "ᱧ"
    ],
    [
      "ᱞᱮ",
      "ᱠᱟ</w>"
    ],
    [
      "ᱦᱟ",
      "ᱛᱟ"
    ],
    [
      "ᱛᱟᱦᱮ",
      "ᱱᱟ</w>"
    ],
    [
      "ᱚ",
      "ᱱ"
    ],
    [
      "ᱭ",
      "ᱟᱹ</w>"
    ],
    [
      "ᱫ",
      "ᱮᱭᱟ</w>"
    ],
    [
      "ᱲ",
      "ᱤ</w>"
    ],
    [
      "ᱦ",
      "ᱳ"
    ],
    [
      "ᱠᱷ",
      "ᱟᱹ"
    ],
    [
      "ᱟᱡ",
      "ᱟᱜ</w>"
    ],
    [
      "ᱫᱚ",
      "ᱞ</w>"
    ],
    [
      "ᱞᱮ",
      "ᱱ"
    ],
    [
      "ᱞᱟᱹ",
      "ᱲ"
    ],
    [
      "ᱣ",
      "ᱟ"
    ],
    [
      "ᱛᱮ",
      "ᱭ</w>"
    ],
    [
      "ᱰ",
      "ᱮ"
    ],
    [
      "ᱠᱷᱮ",
      "ᱞᱳ"
    ],
    [
      "ᱠᱷ",
      "ᱟ</w>"
    ],
    [
      "ᱹ",
      "</w>"
    ],
    [
      "ᱫᱤ",
      "ᱥᱚ"
    ],
    [
      "ᱵ",
      "ᱟᱨ</w>"
    ],
    [
      "ᱡ",
      "ᱟ</w>"
    ],
    [
      "ᱶ",
      "</w>"
    ],
    [
      "ᱞᱟᱹ",
      "ᱭ</w>"
    ],
    [
      "ᱫᱷ",
      "ᱟᱹ"
    ],
    [
      "ᱫᱽ",
      "</w>"
    ],
    [
      "ᱥᱮᱨᱮ",
      "ᱧ</w>"
    ],
    [
      "ᱦᱚ",
      "ᱛᱮ"
    ],
    [
      "ᱢᱮᱱ",
      "ᱠᱷᱟᱱ</w>"
    ],
    [
      "ᱞ",
      "ᱩ"
    ],
    [
      "ᱮᱛᱚ",
      "ᱦᱚᱵ</w>"
    ],
    [
      "ᱢᱟᱨ",
      "ᱟᱝ</w>"
    ],
    [
      "ᱞᱟᱹ",
      "ᱠ"
    ],
    [
      "ᱵᱟᱹᱲ",
      "ᱛᱤ</w>"
    ],
    [
      "ᱱ",
      "ᱫ"
    ],
    [
      "ᱥᱟᱶ",
      "ᱛᱮ</w>"
    ],
    [
      "ᱥ",
      "ᱛᱤ</w>"
    ],
    [
      "ᱢ",
      "ᱳ"
    ],
    [
      "ᱞᱟᱹᱲ",
      "ᱦᱟᱹ"
    ],
    [
      "ᱥᱟ",
      "ᱱᱟᱢ</w>"
    ],
    [
      "ᱥᱤ",
      "ᱨ"
    ],
    [
      "ᱠ",
      "ᱟᱨ</w>"
    ],
    [
      "ᱵ",
      "ᱤ</w>"
    ],
    [
      "᱐",
      "᱐</w>"
    ],
    [
      "ᱫᱤᱥᱚ",
      "ᱢ</w>"
    ],
    [
      "ᱦᱚᱛᱮ",
      "ᱛᱮ</w>"
    ],
    [
      "ᱡ",
      "ᱤᱭ"
    ],
    [
      "ᱵᱟᱝ",
      "ᱠᱷᱟᱱ</w>"
    ],
    [
      "ᱪᱟ",
      "ᱞᱟᱣ</w>"
    ],
    [
      "ᱥᱟ",
      "ᱦᱟᱨ</w>"
    ],
    [
      "ᱡᱮᱜᱮ",
      "ᱫ</w>"
    ],
    [
      "ᱟᱹ",
      "ᱲ</w>"
    ],
    [
      "ᱦᱤᱸ",
      "ᱥ</w>"
    ],
    [
      "ᱥᱮ",
      "ᱫ</w>"
    ],
    [
      "ᱜᱟ",
      "ᱲ</w>"
    ],
    [
      "ᱥ",
      "ᱤᱭ"
    ],
    [
      "ᱰ",
      "ᱟ</w>"
    ],
    [
      "ᱥᱚ",
      "ᱝ"
    ],
    [
      "ᱚ",
      "ᱲᱟᱜ</w>"
    ],
    [
      "ᱵᱚ",
      "ᱞ</w>"
    ],
    [
      "'",
      "</w>"
    ],
    [
      "ᱥᱟ",
      "ᱫᱷ"
    ],
    [
      "ᱜ",
      "ᱟᱱ</w>"
    ],
    [
      "ᱯᱷ",
      "</w>"
    ],
    [
      "ᱦᱟᱛᱟ",
      "ᱣ</w>"
    ],
    [
      "ᱠᱟᱹ",
      "ᱢᱤ"
    ],
    [
      "ᱧ",
      "ᱟ"
    ],
    [
      "ᱵᱟ",
      "ᱰ"
    ],
    [
      "ᱨᱟ",
      "ᱡᱽ"
    ],
    [
      "ᱛᱤ",
      "ᱨ"
    ],
    [
      "ᱩ",
      "ᱫ</w>"
    ],
    [
      "ᱥᱟ",
      "ᱸ"
    ],
    [
      "᱙",
      "</w>"
    ],
    [
      "ᱞ",
      "ᱮ</w>"
    ],
    [
      "ᱪᱮ",
      "ᱫ</w>"
    ],
    [
      "ᱞᱟᱹᱲᱦᱟᱹ",
      "ᱭ</w>"
    ],
    [
      "ᱛᱤ",
      "ᱨ</w>"
    ],
    [
      "ᱟᱹ",
      "ᱜ</w>"
    ],
    [
      "ᱡ",
      "ᱟᱨ"
    ],
    [
      "ᱡᱟᱦᱟᱸ",
      "ᱭ</w>"
    ],
    [
      "ᱰ",
      "ᱚ"
    ],
    [
      "ᱪᱚ",
      "ᱞᱚᱛ</w>"
    ],
    [
      "ᱱ",
      "ᱤᱭ"
    ],
    [
      "ᱞᱮ",
      "ᱱᱟᱭ</w>"
    ],
    [
      "ᱩᱨ",
      "ᱩ"
    ],
    [
      "ᱢᱟᱨ",
      "ᱠᱤᱱ</w>"
    ],
    [
      "ᱟ",
      "ᱸ"
    ],
    [
      "ᱫᱤ",
      "ᱱ</w>"
    ],
    [
      "ᱫᱚ",
      "ᱦᱚ</w>"
    ],
    [
      "ᱮ",
      "ᱱᱟ</w>"
    ],
    [
      "ᱠᱷ",
      "ᱨᱤ"
    ],
    [
      "ᱡᱟᱹ",
      "ᱥᱛᱤ</w>"
    ],
    [
      "ᱨᱩ",
      "ᱣ"
    ],
    [
      "ᱤ",
      "ᱱ"
    ],
    [
      "ᱲ",
      "ᱟᱝ</w>"
    ],
    [
      "ᱨ",
      "ᱟᱹ</w>"
    ],
    [
      "ᱠᱟᱹᱣ",
      "ᱰᱤ</w>"
    ],
    [
      "ᱟᱹ",
      "ᱭ"
    ],
    [
      "ᱜᱷ",
      "ᱚ"
    ],
    [
      "ᱵᱟ",
      "ᱭ</w>"
    ],
    [
      "ᱵ",
      "ᱟ</w>"
    ],
    [
      "ᱴᱷᱟ",
      "ᱶ</w>"
    ],
    [
      "ᱟᱨ",
      "ᱦᱚᱸ</w>"
    ],
    [
      "ᱵ",
      "ᱳ"
    ],
    [
      "ᱪ",
      "ᱩ"
    ],
    [
      "ᱜ",
      "ᱼᱟ,</w>"
    ],
    [
      "ᱯ",
      "ᱚᱱ</w>"
    ],
    [
      "ᱠᱷ",
      "ᱮᱞ</w>"
    ],
    [
      "ᱡᱚ",
      "ᱠᱷᱚᱱ</w>"
    ],
    [
      "ᱩᱱᱤ",
      "ᱭᱟᱜ</w>"
    ],
    [
      "ᱱ",
      "ᱟᱜ"
    ],
    [
      "ᱨᱮ",
      "ᱥ</w>"
    ],
    [
      "ᱡᱟᱦᱟ",
      "ᱱ</w>"
    ],
    [
      "ᱮ",
      "ᱥ"
    ],
    [
      "ᱡᱩ",
      "ᱠ"
    ],
    [
      "ᱵᱟ",
      "ᱪᱷ"
    ],
    [
      "ᱛᱷ",
      "ᱚ"
    ],
    [
      "ᱱᱚ",
      "ᱝ"
    ],
    [
      "ᱯᱩ",
      "ᱨ</w>"
    ],
    [
      "ᱩ",
      "ᱢᱮ"
    ],
    [
      "ᱛᱟᱦᱮᱸ",
      "ᱠᱟᱱᱟ</w>"
    ],
    [
      "ᱠ",
      "ᱨᱤ"
    ],
    [
      "ᱥᱟᱞ",
      "ᱟᱜ</w>"
    ],
    [
      "ᱛᱟᱦᱮ",
      "ᱱ</w>"
    ],
    [
      "ᱞ",
      "ᱤᱭ"
    ],
    [
      "ᱜ",
      "ᱟᱨ</w>"
    ],
    [
      "ᱟ",
      "ᱣ"
    ],
    [
      "ᱢᱮᱱ",
      "ᱛᱮ</w>"
    ],
    [
      "ᱟᱠᱟ",
      "ᱫᱟ"
    ],
    [
      "ᱢ",
      ",</w>"
    ],
    [
      "ᱯᱚᱨ",
      "ᱤ"
    ],
    [
      "ᱡ",
      "ᱤ</w>"
    ],
    [
      "ᱪᱤ",
      "ᱱ"
    ],
    [
      "ᱯᱟ",
      "ᱥ"
    ],
    [
      "ᱥ",
      "ᱴᱟ"
    ],
    [
      "ᱟ",
      "ᱡ</w>"
    ],
    [
      "ᱠ",
      "ᱤ</w>"
    ],
    [
      "ᱢᱟ",
      "ᱦᱟ</w>"
    ],
    [
      "ᱢ",
      "ᱟᱹ"
    ],
    [
      "ᱪᱟ",
      "ᱞ"
    ],
    [
      "ᱟᱨ",
      "ᱤ</w>"
    ],
    [
      "ᱯ",
      "ᱤᱭ"
    ],
    [
      "ᱢᱟ",
      "ᱭ"
    ],
    [
      "ᱥᱚ",
      "ᱫ"
    ],
    [
      "ᱞᱟᱹ",
      "</w>"
    ],
    [
      "ᱞᱮᱠᱟ",
      "ᱛᱮ,</w>"
    ],
    [
      "ᱱ",
      "ᱟᱨ</w>"
    ],
    [
      "ᱠᱟ",
      "ᱱᱟ,</w>"
    ],
    [
      "ᱩ",
      "ᱯ"
    ],
    [
      "ᱼ",
      "</w>"
    ],
    [
      "ᱱ",
      "ᱤᱭᱟᱹ</w>"
    ],
    [
      "ᱜᱤ",
      "ᱫᱽ"
    ],
    [
      "ᱺ",
      "</w>"
    ],
    [
      "ᱼ",
      "ᱮ</w>"
    ],
    [
      "ᱜ",
      "ᱚᱨ</w>"
    ],
    [
      "ᱯᱷ",
      "ᱩ"
    ],
    [
      "ᱮ",
      "ᱫ</w>"
    ],
    [
      "ᱵᱟᱨ",
      "ᱭᱟ</w>"
    ],
    [
      "ᱥᱟ",
      "ᱣ"
    ],
    [
      "ᱟᱜ",
      "ᱼᱟ,</w>"
    ],
    [
      "ᱛᱚ",
      "ᱠᱷᱚᱱ</w>"
    ],
    [
      "ᱤ",
      "ᱫᱤ</w>"
    ],
    [
      "ᱩ",
      "ᱱ</w>"
    ],
    [
      "ᱵᱚ",
      "ᱱ"
    ],
    [
      "ᱛᱤᱭ",
      "ᱚ</w>"
    ],
    [
      "ᱡ",
      "ᱚ</w>"
    ],
    [
      "ᱢ",
      "ᱵᱚᱨ</w>"
    ],
    [
      "ᱛᱟᱞᱟ",
      "ᱛᱮ</w>"
    ],
    [
      "ᱦ",
      "ᱮ</w>"
    ],
    [
      "ᱵᱤ",
      "ᱨ"
    ],
    [
      "ᱠᱟ",
      "ᱛᱷᱟ</w>"
    ],
    [
      "ᱥᱟ",
      "ᱢ"
    ],
    [
      "ᱫᱚ",
      "ᱥᱟᱨ</w>"
    ],
    [
      "ᱜᱚ",
      "ᱡ</w>"
    ],
    [
      "ᱟ",
      "ᱠᱚ</w>"
    ],
    [
      "ᱦᱚᱨ",
      "ᱟ</w>"
    ],
    [
      "ᱥᱟ",
      "ᱯ"
    ],
    [
      "ᱠᱟ",
      "ᱱᱟᱭ</w>"
    ],
    [
      "ᱮ",
      "ᱨ</w>"
    ],
    [
      "ᱨ",
      "ᱤᱭ"
    ],
    [
      "ᱛ",
      "ᱟᱨ</w>"
    ],
    [
      "ᱫᱟᱲ",
      "ᱮ"
    ],
    [
      "ᱠᱮ",
      "ᱫᱟ</w>"
    ],
    [
      "ᱡᱷ",
      "ᱚ"
    ],
    [
      "ᱦᱚ",
      "ᱭ</w>"
    ],
    [
      "ᱵ",
      "ᱨᱤ"
    ],
    [
      "ᱧ",
      "ᱮ"
    ],
    [
      "ᱫᱷ",
      "ᱟ"
    ],
    [
      "ᱮᱱ",
      "ᱮ"
    ],
    [
      "ᱠᱟᱹ",
      "ᱨ</w>"
    ],
    [
      "ᱞᱮ",
      "ᱱ</w>"
    ],
    [
      "ᱩ",
      "ᱰ"
    ],
    [
      "ᱟ",
      "ᱞ"
    ],
    [
      "ᱨ",
      "ᱟᱱ</w>"
    ],
    [
      "ᱩ",
      "ᱫᱩ"
    ],
    [
      "᱑᱙",
      "᱙"
    ],
    [
      "ᱥ",
      "ᱴ</w>"
    ],
    [
      "ᱫᱟᱲ",
      "ᱮ</w>"
    ],
    [
      "ᱦᱟᱹ",
      "ᱵᱤᱡ</w>"
    ],
    [
      "ᱡᱟ",
      "ᱣ</w>"
    ],
    [
      "ᱥᱴ",
      "ᱨᱚ</w>"
    ],
    [
      "ᱦ",
      "ᱳᱭ"
    ],
    [
      "ᱯᱷ",
      "ᱟᱹ"
    ],
    [
      "ᱡᱤ",
      "ᱛ"
    ],
    [
      "ᱞᱮ",
      "ᱱᱟ,</w>"
    ],
    [
      "ᱫ",
      "ᱮᱞ</w>"
    ],
    [
      "ᱚ",
      "ᱱᱟ"
    ],
    [
      "ᱦᱟᱹ",
      "ᱴᱤ"
    ],
    [
      "ᱢᱩ",
      "ᱬ"
    ],
    [
      "ᱵᱟᱰ",
      "ᱟᱭ</w>"
    ],
    [
      "ᱫᱮ",
      "ᱥ</w>"
    ],
    [
      "ᱜᱟ",
      "ᱫᱮᱞ</w>"
    ],
    [
      "ᱥ",
      "ᱚ</w>"
    ],
    [
      "ᱰ",
      "ᱮ</w>"
    ],
    [
      "ᱥᱟ",
      "ᱭ"
    ],
    [
      "ᱨᱮ",
      "ᱠᱚ</w>"
    ],
    [
      "ᱛᱟᱦᱮᱸ",
      "ᱫ</w>"
    ],
    [
      "ᱢᱚ",
      "ᱜᱼᱟ</w>"
    ],
    [
      "ᱠᱤ",
      "ᱨᱤ"
    ],
    [
      "ᱩᱭ",
      "ᱦᱟᱹ"
    ],
    [
      "ᱜᱚ",
      "ᱴᱟ</w>"
    ],
    [
      "ᱡᱟ",
      "ᱦᱟ</w>"
    ],
    [
      "ᱱᱟᱹ",
      "ᱭ</w>"
    ],
    [
      "ᱩᱨ",
      "ᱩ</w>"
    ],
    [
      "ᱫᱷ",
      "ᱤ"
    ],
    [
      "ᱥᱚᱫ",
      "ᱚᱨ</w>"
    ],
    [
      "ᱫᱷ",
      "ᱚᱨᱚ"
    ],
    [
      "ᱪᱷ",
      "ᱤ"
    ],
    [
      "ᱵᱤ",
      "ᱨᱩ"
    ],
    [
      "ᱯᱨᱟ",
      "ᱭ</w>"
    ],
    [
      "ᱵ",
      "ᱚ</w>"
    ],
    [
      "ᱡᱮ",
      ",</w>"
    ],
    [
      "ᱱ",
      ",</w>"
    ],
    [
      "ᱨᱟᱹ",
      "ᱥ"
    ],
    [
      "ᱠᱟ",
      "ᱭ"
    ],
    [
      "ᱩᱱ",
      "ᱠᱩ"
    ],
    [
      "ᱜᱤᱫᱽ",
      "ᱨᱟᱹ</w>"
    ],
    [
      "ᱣ",
      "ᱟᱱ</w>"
    ],
    [
      "ᱠᱷᱟᱹ",
      "ᱛᱤᱨ</w>"
    ],
    [
      "ᱠᱷᱮᱞᱳ",
      "ᱰ</w>"
    ],
    [
      "ᱦ",
      "ᱟᱜ</w>"
    ],
    [
      "ᱮᱱ",
      "ᱠᱷᱟᱱ</w>"
    ],
    [
      "ᱠᱚ",
      "ᱨᱮ</w>"
    ],
    [
      "ᱴ",
      "ᱳ"
    ],
    [
      "ᱡᱟ",
      "ᱱᱟᱢ</w>"
    ],
    [
      "ᱲ",
      "ᱤ"
    ],
    [
      "ᱞ",
      "ᱩ</w>"
    ],
    [
      "ᱞᱮ",
      "ᱫᱮᱭᱟ</w>"
    ],
    [
      "ᱢᱩ",
      "ᱫ</w>"
    ],
    [
      "ᱢᱮ",
      "ᱱ</w>"
    ],
    [
      "ᱦ",
      "ᱚᱨ</w>"
    ],
    [
      "ᱯᱟᱹ",
      "ᱨ"
    ],
    [
      "ᱦᱮ",
      "ᱡ</w>"
    ],
    [
      "ᱯ",
      "ᱤ</w>"
    ],
    [
      "ᱭ",
      "ᱟ"
    ],
    [
      "ᱜ",
      "ᱤ</w>"
    ],
    [
      "ᱛᱟ",
      "ᱞ"
    ],
    [
      "ᱡᱚ",
      "ᱛᱚ</w>"
    ],
    [
      "ᱩᱯ",
      "ᱨᱩ"
    ],
    [
      "ᱦᱚ",
      "ᱸ"
    ],
    [
      "ᱮ",
      "ᱥ</w>"
    ],
    [
      "ᱯᱟᱥ",
      "ᱱᱟᱣ</w>"
    ],
    [
      "ᱦᱟᱹᱴᱤ",
      "ᱧ</w>"
    ],
    [
      "ᱟᱱ",
      ",</w>"
    ],
    [
      "ᱴᱤ",
      "ᱥ</w>"
    ],
    [
      "ᱢᱚᱱ",
      "ᱮ</w>"
    ],
    [
      "ᱢ",
      "ᱚ</w>"
    ],
    [
      "ᱩᱢᱮ",
      "ᱨ</w>"
    ],
    [
      "ᱨᱟ",
      "ᱠᱟ"
    ],
    [
      "ᱪᱟᱸ",
      "ᱫ"
    ],
    [
      "ᱭᱤ",
      "ᱱ</w>"
    ],
    [
      "ᱯᱷ",
      "ᱳ"
    ],
    [
      "ᱵᱷ",
      "ᱩ"
    ],
    [
      "ᱴ",
      "ᱚᱱ</w>"
    ],
    [
      "ᱢᱤ",
      "ᱴᱟᱨ</w>"
    ],
    [
      "ᱨᱮ",
      "ᱦᱚᱸ</w>"
    ],
    [
      "ᱞᱮᱱ",
      "ᱰ</w>"
    ],
    [
      "ᱫ",
      "ᱨᱮ</w>"
    ],
    [
      "ᱵᱷ",
      "ᱟᱨ</w>"
    ],
    [
      "ᱰᱷ",
      "ᱮᱨ</w>"
    ],
    [
      "ᱴ",
      "ᱟᱨ"
    ],
    [
      "ᱩᱛ",
      "ᱛᱚᱨ</w>"
    ],
    [
      "ᱠᱚ",
      "ᱭ</w>"
    ],
    [
      "ᱠᱷᱤ",
      "ᱱ</w>"
    ],
    [
      "ᱲ",
      "ᱦᱟ"
    ],
    [
      "ᱢᱟ",
      "ᱲᱟᱝ</w>"
    ],
    [
      "ᱱᱟ",
      "ᱣᱟ</w>"
    ],
    [
      "ᱜᱚᱲ",
      "ᱚ</w>"
    ],
    [
      "ᱢ",
      "ᱯᱤᱭ"
    ],
    [
      "ᱟ",
      "ᱠᱷ"
    ],
    [
      "ᱫ",
      "ᱮ</w>"
    ],
    [
      "ᱛᱤᱨ",
      "ᱞᱟᱹ</w>"
    ],
    [
      "ᱢᱚ",
      "ᱜ</w>"
    ],
    [
      "ᱡᱤᱛ",
      "ᱠᱟᱹᱨ</w>"
    ],
    [
      "ᱫᱷᱟᱹ",
      "ᱵᱤᱡ</w>"
    ],
    [
      "ᱡᱚ",
      "ᱢ</w>"
    ],
    [
      "ᱫᱚ",
      "ᱭ</w>"
    ],
    [
      "ᱢᱩ",
      "ᱲ"
    ],
    [
      "ᱦᱮ",
      "ᱫ</w>"
    ],
    [
      "ᱞᱟ",
      "ᱦᱟ</w>"
    ],
    [
      "ᱱ",
      "ᱚ</w>"
    ],
    [
      "ᱦᱳᱭ",
      "ᱳ"
    ],
    [
      "ᱚ",
      "ᱡᱮ</w>"
    ],
    [
      "ᱥᱚ",
      "ᱨᱮᱥ</w>"
    ],
    [
      "᱒᱐",
      "</w>"
    ],
    [
      "ᱡᱟ",
      "ᱸ"
    ],
    [
      "ᱞ",
      "ᱟᱨ</w>"
    ],
    [
      "ᱭ",
      "ᱮ"
    ],
    [
      "ᱵᱷ",
      "ᱚ"
    ],
    [
      "ᱰ",
      "ᱤᱭᱟᱹ</w>"
    ],
    [
      "ᱵᱮ",
      "ᱥ</w>"
    ],
    [
      "ᱮ",
      "ᱢ"
    ],
    [
      "ᱨᱟ",
      "ᱡᱽ</w>"
    ],
    [
      "ᱲ",
      "ᱮ</w>"
    ],
    [
      ",",
      "᱐"
    ],
    [
      "ᱵᱷ",
      "ᱟ</w>"
    ],
    [
      "ᱦᱚ",
      "ᱭ"
    ],
    [
      "ᱯ",
      "ᱟ</w>"
    ],
    [
      "ᱼ",
      "ᱟᱜ</w>"
    ],
    [
      "ᱮ",
      "ᱦᱚᱵ</w>"
    ],
    [
      "ᱟᱹ",
      "ᱣ"
    ],
    [
      "ᱱᱟ",
      "ᱦᱟᱜ</w>"
    ],
    [
      "ᱛᱚᱨ",
      "ᱟ"
    ],
    [
      "ᱪ",
      "ᱟᱨ"
    ],
    [
      "ᱫᱟᱲᱮ",
      "ᱭᱟᱜ</w>"
    ],
    [
      "ᱩᱫᱩ",
      "ᱜ</w>"
    ],
    [
      "ᱟ",
      "ᱭᱟᱜ</w>"
    ],
    [
      "ᱱᱤ",
      "ᱡ</w>"
    ],
    [
      "ᱩᱭᱦᱟᱹ",
      "ᱨ</w>"
    ],
    [
      "ᱥᱟ",
      "ᱢᱟ"
    ],
    [
      "ᱜᱳ",
      "ᱞ</w>"
    ],
    [
      "ᱞᱟᱹᱠ",
      "ᱛᱤ</w>"
    ],
    [
      "ᱵᱷ",
      "ᱟᱨ"
    ],
    [
      "ᱟ",
      "ᱢᱮ"
    ],
    [
      "ᱥᱮ",
      "ᱴᱮ"
    ],
    [
      "ᱠ",
      "ᱮ</w>"
    ],
    [
      "ᱜᱷ",
      "ᱟᱹ"
    ],
    [
      "ᱞ",
      "ᱟᱜ"
    ],
    [
      "ᱧ",
      "ᱩ"
    ],
    [
      "ᱥᱚ",
      "ᱱ"
    ],
    [
      "ᱛᱷᱟ",
      "ᱯᱚᱱ</w>"
    ],
    [
      "ᱫᱷᱚᱨᱚ",
      "ᱢ</w>"
    ],
    [
      "ᱭ",
      "ᱟᱨ</w>"
    ],
    [
      "ᱡ",
      "ᱚᱱ</w>"
    ],
    [
      "ᱢᱤᱫ",
      "ᱦᱚᱲ</w>"
    ],
    [
      "ᱠᱟ",
      "ᱣ"
    ],
    [
      "ᱪ",
      "ᱟᱨ</w>"
    ],
    [
      "ᱜ",
      "ᱮᱞ</w>"
    ],
    [
      "ᱤᱧ",
      "ᱟᱹᱜ</w>"
    ],
    [
      "ᱟ",
      "ᱛ"
    ],
    [
      "ᱞᱮᱫᱟ",
      ",</w>"
    ],
    [
      "ᱩ",
      "ᱪᱷ"
    ],
    [
      "ᱫ",
      ",</w>"
    ],
    [
      "ᱦ",
      "ᱟᱹ</w>"
    ],
    [
      "ᱪᱟᱞ",
      "ᱟᱜ</w>"
    ],
    [
      "ᱩᱱᱠᱩ",
      "ᱣᱟᱜ</w>"
    ],
    [
      "ᱢᱩᱬ",
      "ᱩᱫ</w>"
    ],
    [
      "ᱯᱟᱹᱨ",
      "ᱥᱤ</w>"
    ],
    [
      "ᱟᱹ",
      "ᱨ</w>"
    ],
    [
      "ᱡᱩ",
      "ᱫᱤ</w>"
    ],
    [
      "ᱯᱚ",
      "ᱪᱷᱤ"
    ],
    [
      "᱑᱙",
      "᱘"
    ],
    [
      "ᱜ",
      "ᱮᱭᱟ</w>"
    ],
    [
      "ᱵ",
      "ᱩᱨᱩ</w>"
    ],
    [
      "ᱫᱷ",
      "</w>"
    ],
    [
      "ᱭ",
      ",</w>"
    ],
    [
      "ᱯ",
      "ᱨᱤ"
    ],
    [
      "ᱥᱟᱯ",
      "ᱲᱟᱣ</w>"
    ],
    [
      "ᱦᱚ",
      "ᱱᱚᱛ</w>"
    ],
    [
      "ᱥᱟᱸ",
      "ᱜᱷ"
    ],
    [
      "ᱦᱳ",
      "ᱭ</w>"
    ],
    [
      "ᱟᱡ",
      "ᱟᱨ</w>"
    ],
    [
      "ᱨᱩᱣ",
      "ᱟᱹᱲ</w>"
    ],
    [
      "ᱵᱟ",
      "ᱯ"
    ],
    [
      "ᱵᱷᱟᱨᱚ",
      "ᱛᱤᱭᱚ</w>"
    ],
    [
      "ᱬ",
      "ᱮ</w>"
    ],
    [
      "ᱪ",
      "ᱚ</w>"
    ],
    [
      "ᱟ",
      "ᱯ"
    ],
    [
      "ᱵᱷᱮ",
      "ᱜᱟᱨ</w>"
    ],
    [
      "ᱛᱟᱞ",
      "ᱢᱟ</w>"
    ],
    [
      "ᱟᱜ",
      "ᱮ</w>"
    ],
    [
      "ᱠᱷ",
      "</w>"
    ],
    [
      "ᱜ",
      "ᱚ</w>"
    ],
    [
      "ᱱᱫ",
      "ᱩ</w>"
    ],
    [
      "ᱞᱤ",
      "ᱥ</w>"
    ],
    [
      "ᱛᱮ",
      "ᱠᱚ</w>"
    ],
    [
      "ᱟ",
      "ᱛᱮ</w>"
    ],
    [
      "ᱠᱷ",
      "ᱩ"
    ],
    [
      "ᱵᱟᱹᱲ",
      "ᱤᱡ</w>"
    ],
    [
      "ᱟ",
      "ᱠᱚᱣᱟᱜ</w>"
    ],
    [
      "ᱠᱟ",
      "ᱱᱟ"
    ],
    [
      "᱑",
      "᱘"
    ],
    [
      "ᱱᱚᱝ",
      "ᱠᱟᱱ</w>"
    ],
    [
      "ᱠᱟᱛᱮ",
      "ᱜ</w>"
    ],
    [
      "ᱡ",
      "ᱟᱨ</w>"
    ],
    [
      "ᱵᱤᱨ",
      "ᱫᱟᱹ"
    ],
    [
      "ᱡᱚ",
      "ᱢ"
    ],
    [
      "ᱛ",
      "ᱨᱚ</w>"
    ],
    [
      "ᱥᱮ",
      "ᱱ</w>"
    ],
    [
      "ᱥᱚ",
      "ᱢ"
    ],
    [
      "ᱱᱟ",
      "ᱯᱟ"
    ],
    [
      "ᱠᱷ",
      "ᱟᱱ,</w>"
    ],
    [
      "ᱜ",
      "ᱨᱟ"
    ],
    [
      "ᱫᱷ",
      "ᱚ</w>"
    ],
    [
      "ᱠ",
      "ᱥ</w>"
    ],
    [
      "ᱛᱷ",
      "</w>"
    ],
    [
      "ᱠᱚ",
      "ᱲᱟ</w>"
    ],
    [
      "ᱱ",
      "ᱟᱹᱣ</w>"
    ],
    [
      "ᱫᱷ",
      "ᱟᱣ</w>"
    ],
    [
      "ᱥᱟ",
      "ᱛᱟ"
    ],
    [
      "ᱡᱟ",
      "ᱣ"
    ],
    [
      "ᱟᱨ",
      "ᱚᱱ</w>"
    ],
    [
      "ᱵᱤ",
      "ᱥ"
    ],
    [
      "ᱫᱩ",
      "ᱨᱤ"
    ],
    [
      "ᱟ",
      "ᱱᱟ"
    ],
    [
      "ᱥᱟ",
      "ᱣ</w>"
    ],
    [
      "ᱞᱟ",
      "ᱛᱟᱨ</w>"
    ],
    [
      "ᱦᱟ",
      "ᱢᱮ"
    ],
    [
      "ᱢᱟ",
      "ᱱ"
    ],
    [
      "ᱜᱚ",
      "ᱱᱚ"
    ],
    [
      "ᱚ",
      "ᱡᱮ"
    ],
    [
      "ᱞᱮ",
      "ᱠᱷᱟ</w>"
    ],
    [
      "ᱫ",
      "ᱳ"
    ],
    [
      "ᱴ",
      "ᱩ</w>"
    ],
    [
      "ᱡᱟ",
      "ᱠᱟ"
    ],
    [
      "ᱫᱟᱨ",
      "ᱟᱭ</w>"
    ],
    [
      "ᱪᱟᱸᱫ",
      "ᱳ</w>"
    ],
    [
      "ᱫᱤ",
      "ᱞ</w>"
    ],
    [
      "ᱠᱤᱨᱤ",
      "ᱧ</w>"
    ],
    [
      "ᱩ",
      "ᱯᱚ"
    ],
    [
      "ᱫ",
      "ᱟᱹ</w>"
    ],
    [
      "ᱯ",
      "ᱚᱨᱚ"
    ],
    [
      "ᱡᱩᱠ",
      "ᱛᱚᱨᱟ"
    ],
    [
      "ᱟᱠᱟ",
      "ᱫ</w>"
    ],
    [
      "ᱥᱟᱫᱷ",
      "ᱟᱨᱚ"
    ],
    [
      "ᱢᱩ",
      "ᱫᱨᱮ</w>"
    ],
    [
      "ᱵᱷ",
      "</w>"
    ],
    [
      "ᱚ",
      "ᱵᱷᱤ"
    ],
    [
      "ᱤᱭ",
      "ᱩ"
    ],
    [
      "ᱱ",
      "ᱳ"
    ],
    [
      "ᱦᱤ",
      "ᱱᱫᱩ</w>"
    ],
    [
      "ᱫᱟᱨ",
      "ᱟᱢ</w>"
    ],
    [
      "ᱥᱟᱫᱷ",
      "ᱟᱨᱚᱱ</w>"
    ],
    [
      "᱑᱙",
      "᱗"
    ],
    [
      "ᱰᱤ",
      "ᱧ</w>"
    ],
    [
      "ᱧ",
      "ᱮᱞ"
    ],
    [
      "ᱯ",
      "ᱮ</w>"
    ],
    [
      "ᱱᱤ",
      "ᱛ</w>"
    ],
    [
      "ᱢ",
      "ᱟᱹᱱ</w>"
    ],
    [
      "ᱛ",
      "ᱨᱤ</w>"
    ],
    [
      "ᱤ",
      "ᱝ"
    ],
    [
      "ᱤ",
      "ᱠ</w>"
    ],
    [
      "ᱥᱟ",
      "ᱭ</w>"
    ],
    [
      "ᱰᱷ",
      "ᱤ"
    ],
    [
      "ᱣ",
      "ᱩ"
    ],
    [
      "ᱦᱚᱲ",
      "ᱢᱚ</w>"
    ],
    [
      "ᱟᱠᱟᱫᱟ",
      "ᱭ</w>"
    ],
    [
      "ᱯᱩ",
      "ᱭ"
    ],
    [
      "ᱥᱚ",
      "ᱛᱟ"
    ],
    [
      "ᱥᱴ",
      "ᱮ"
    ],
    [
      "ᱵᱤ",
      "ᱨ</w>"
    ],
    [
      "ᱨᱟᱠᱟ",
      "ᱵ</w>"
    ],
    [
      "ᱞ",
      ",</w>"
    ],
    [
      "ᱡᱩ",
      "ᱜ</w>"
    ],
    [
      "ᱪ",
      "ᱟ</w>"
    ],
    [
      "ᱟᱜ",
      "ᱚ"
    ],
    [
      "ᱠ",
      "ᱞᱟ"
    ],
    [
      "ᱵᱟᱪᱷ",
      "ᱱᱟᱣ</w>"
    ],
    [
      "ᱦᱮ",
      "ᱯᱨᱟ"
    ],
    [
      "ᱪᱤᱱ",
      "ᱦᱟᱹ</w>"
    ],
    [
      "ᱥ",
      "ᱩᱨ"
    ],
    [
      "ᱛᱟᱭᱚ",
      "ᱢ,</w>"
    ],
    [
      "ᱵᱚ",
      "ᱫᱚᱞ</w>"
    ],
    [
      "ᱯᱚᱪᱷᱤ",
      "ᱢ</w>"
    ],
    [
      "ᱠ",
      "ᱤᱭᱟᱹ</w>"
    ],
    [
      "ᱱᱤ",
      "ᱥ</w>"
    ],
    [
      "ᱥᱩ",
      "ᱞ</w>"
    ],
    [
      "ᱵᱤᱨᱫᱟᱹ",
      "ᱜᱟᱲ</w>"
    ],
    [
      "ᱟ",
      "ᱨᱮ</w>"
    ],
    [
      "ᱥᱚ",
      "ᱵᱷᱟ</w>"
    ],
    [
      "ᱥᱟᱞ",
      "ᱨᱮ</w>"
    ],
    [
      "ᱟᱠᱷ",
      "ᱲᱟ</w>"
    ],
    [
      "ᱧᱩᱛᱩ",
      "ᱢᱟᱱ</w>"
    ],
    [
      "ᱩᱪᱷ",
      "ᱟᱹᱱ</w>"
    ],
    [
      "ᱰ",
      "ᱤᱭ"
    ],
    [
      "ᱤ",
      "ᱥ"
    ],
    [
      "ᱰᱟ",
      "ᱦᱟᱨ</w>"
    ],
    [
      "ᱡᱤᱭ",
      "ᱚᱱ</w>"
    ],
    [
      "ᱠᱟᱭ",
      "ᱛᱮ</w>"
    ],
    [
      "ᱰ",
      "ᱳ"
    ],
    [
      "ᱵᱟᱯ",
      "ᱞᱟ</w>"
    ],
    [
      "ᱯᱷ",
      "ᱚ"
    ],
    [
      "ᱦᱩᱭ",
      "ᱞᱮᱱᱟ</w>"
    ],
    [
      "ᱱᱟᱯᱟ",
      "ᱭ</w>"
    ],
    [
      "ᱦ",
      "ᱤ</w>"
    ],
    [
      "ᱥᱩ",
      "ᱢᱩ"
    ],
    [
      "ᱨ",
      "ᱩ</w>"
    ],
    [
      "ᱚ",
      "ᱯᱷ</w>"
    ],
    [
      "ᱨᱟ",
      "ᱱ"
    ],
    [
      "ᱟᱹ",
      "ᱭ</w>"
    ],
    [
      "ᱢᱩᱲ",
      "ᱩᱫ</w>"
    ],
    [
      "ᱲ",
      "ᱤᱡ</w>"
    ],
    [
      "ᱱᱟ",
      "ᱣ"
    ],
    [
      "ᱪᱷ",
      "ᱟ"
    ],
    [
      "ᱥᱟᱛᱟ",
      "ᱢ</w>"
    ],
    [
      "ᱨᱮ",
      "ᱜᱮ</w>"
    ],
    [
      "ᱧ",
      "ᱪᱟ"
    ],
    [
      "ᱟᱜ",
      "ᱼ"
    ],
    [
      "ᱜ",
      "ᱩ</w>"
    ],
    [
      "ᱵᱚ",
      "ᱝ"
    ],
    [
      "ᱮ",
      "ᱢᱟ"
    ],
    [
      "ᱨ",
      "ᱟᱹᱣ</w>"
    ],
    [
      ",᱐",
      "᱐᱐</w>"
    ],
    [
      "ᱥᱩᱢᱩ",
      "ᱝ</w>"
    ],
    [
      "ᱟ",
      "ᱥᱚ"
    ],
    [
      "ᱞᱟ",
      "ᱦᱟ"
    ],
    [
      "ᱟᱠᱟ",
      "ᱱᱟ,</w>"
    ],
    [
      "ᱮ",
      "ᱥᱮ"
    ],
    [
      "ᱲ",
      "ᱚ"
    ],
    [
      "ᱛᱷ",
      "ᱤ"
    ],
    [
      "ᱢ",
      "ᱩᱱ"
    ],
    [
      "ᱥᱩ",
      "ᱨ</w>"
    ],
    [
      "ᱚ",
      "ᱱᱚ"
    ],
    [
      "ᱯᱟ",
      "ᱸ"
    ],
    [
      "ᱥ",
      "ᱴᱤ"
    ],
    [
      "ᱵᱨᱤ",
      "ᱴᱤᱥ</w>"
    ],
    [
      "ᱚᱠ",
      "ᱛᱚ"
    ],
    [
      "ᱜᱟ",
      "ᱱᱚ"
    ],
    [
      "ᱞᱟ",
      "ᱭ</w>"
    ],
    [
      "ᱫᱤ",
      "ᱞ"
    ],
    [
      "ᱥᱤᱨ",
      "ᱡᱟᱹ"
    ],
    [
      "ᱨᱮ",
      "ᱡ</w>"
    ],
    [
      "ᱨ",
      "ᱤᱭᱟ</w>"
    ],
    [
      "ᱥᱟᱢᱟ",
      "ᱝ</w>"
    ],
    [
      "ᱠᱷᱮᱞᱳ",
      "ᱰᱤᱭᱟᱹ</w>"
    ],
    [
      "ᱨᱟ",
      "ᱣ</w>"
    ],
    [
      "ᱡᱟᱹ",
      "ᱛᱤᱭ"
    ],
    [
      "ᱦᱩ",
      "ᱰᱤᱧ</w>"
    ],
    [
      "ᱟᱹ",
      "ᱰᱤ"
    ],
    [
      "ᱵᱟ",
      "ᱫ</w>"
    ],
    [
      "ᱵᱤ",
      "ᱰ"
    ],
    [
      "ᱫᱷ",
      "ᱚ"
    ],
    [
      "ᱡᱟᱠᱟ",
      "ᱛ</w>"
    ],
    [
      "ᱤ",
      "ᱫᱤ"
    ],
    [
      "ᱥᱚ",
      "ᱠ</w>"
    ],
    [
      "ᱠ",
      "ᱮᱱ"
    ],
    [
      "ᱡᱟᱦᱟ",
      "ᱭ</w>"
    ],
    [
      "ᱞᱤ",
      "ᱢ"
    ],
    [
      "᱑᱙",
      "</w>"
    ],
    [
      "ᱠᱷᱮ",
      "ᱞᱚ"
    ],
    [
      "ᱯ",
      "ᱟᱨ</w>"
    ],
    [
      "ᱥᱮ",
      "ᱱ"
    ],
    [
      "ᱢ",
      "ᱛᱮ</w>"
    ],
    [
      "ᱛᱟ",
      "ᱸ"
    ],
    [
      "ᱟᱢᱮ",
      "ᱨᱤ"
    ],
    [
      "ᱥᱚᱨ",
      "ᱠᱟᱨ</w>"
    ],
    [
      "᱑᱙",
      "᱖"
    ],
    [
      "ᱞᱟ",
      "ᱠ"
    ],
    [
      "ᱢ",
      "ᱚᱱ</w>"
    ],
    [
      "ᱴᱟ",
      "ᱣ</w>"
    ],
    [
      "ᱮ",
      "ᱫᱟ</w>"
    ],
    [
      "ᱛ",
      "ᱨᱤ"
    ],
    [
      "ᱮ",
      "ᱠ"
    ],
    [
      "ᱡᱚ",
      "ᱛᱚᱠᱷᱚᱱ</w>"
    ],
    [
      "ᱯ",
      "ᱨᱳ"
    ],
    [
      "ᱥᱟ",
      "ᱵ</w>"
    ],
    [
      "ᱜᱚᱲ",
      "ᱚ"
    ],
    [
      "ᱱ",
      "ᱟᱨ"
    ],
    [
      "ᱫ",
      "ᱚᱨ"
    ],
    [
      "ᱜᱚᱱᱚ",
      "ᱝ</w>"
    ],
    [
      "ᱜᱩ",
      "ᱨ</w>"
    ],
    [
      "ᱥ",
      ",</w>"
    ],
    [
      "ᱧᱟ",
      "ᱢᱚᱜᱼᱟ</w>"
    ],
    [
      "ᱦᱚ",
      "ᱱ</w>"
    ],
    [
      "ᱟᱭ",
      "ᱤ"
    ],
    [
      "ᱴ",
      "ᱩ"
    ],
    [
      "ᱥᱟ",
      "ᱥᱚᱱ</w>"
    ],
    [
      "ᱩᱛ",
      "ᱱᱟᱹᱣ</w>"
    ],
    [
      "ᱴᱤ",
      "ᱡ</w>"
    ],
    [
      "ᱮᱱ",
      "ᱴ</w>"
    ],
    [
      "ᱛᱷᱚ",
      "ᱱᱚᱛ</w>"
    ],
    [
      "ᱢᱚ",
      "ᱦᱟ"
    ],
    [
      "ᱵᱟ",
      "ᱱᱟᱨ</w>"
    ],
    [
      "ᱥᱩ",
      "ᱯᱩᱨ</w>"
    ],
    [
      "ᱛ",
      "ᱨᱮ</w>"
    ],
    [
      "ᱢᱮ",
      "ᱥᱟ</w>"
    ],
    [
      "ᱛᱷ",
      "ᱤ</w>"
    ],
    [
      "᱑",
      "᱐</w>"
    ],
    [
      "ᱥᱮᱴᱮ",
      "ᱨ</w>"
    ],
    [
      "ᱥᱟᱣ",
      "ᱛᱮ</w>"
    ],
    [
      "ᱭᱤ",
      "ᱴ</w>"
    ],
    [
      "ᱨᱟ",
      "ᱭ"
    ],
    [
      "ᱠᱷᱚ",
      "ᱱᱟᱜ</w>"
    ],
    [
      "ᱡᱟ",
      "ᱭ"
    ],
    [
      "ᱡᱚ",
      "ᱫᱤ</w>"
    ],
    [
      "ᱢᱟ",
      "ᱨᱮᱱ</w>"
    ],
    [
      "ᱡᱷᱚ",
      "ᱛᱚ</w>"
    ],
    [
      "ᱵᱚ",
      "ᱞ"
    ],
    [
      "ᱨᱩ",
      "ᱯ</w>"
    ],
    [
      "ᱨᱤ",
      "ᱱ</w>"
    ],
    [
      "ᱞᱟᱹᱠ",
      "ᱛᱤᱭ"
    ],
    [
      "ᱫᱟᱹ",
      "ᱭ"
    ],
    [
      "ᱦᱟ",
      "ᱭ"
    ],
    [
      "ᱨᱟ",
      "ᱭ</w>"
    ],
    [
      "ᱱ",
      "ᱰ</w>"
    ],
    [
      "ᱨᱟ",
      "ᱡᱟ</w>"
    ],
    [
      "ᱢ",
      "ᱚᱨ"
    ],
    [
      "ᱡᱩᱠᱛᱚᱨᱟ",
      "ᱥᱴᱨᱚ</w>"
    ],
    [
      "ᱟᱹ",
      "ᱠᱷᱨᱤ"
    ],
    [
      "ᱩᱱᱤ",
      "ᱫᱚ</w>"
    ],
    [
      "ᱯᱷᱩ",
      "ᱴ"
    ],
    [
      "ᱦᱮᱯᱨᱟ",
      "ᱣ</w>"
    ],
    [
      "ᱯᱟ",
      "ᱱ"
    ],
    [
      "ᱢᱮᱱ",
      "ᱟᱜᱼᱟ,</w>"
    ],
    [
      "ᱞᱮ",
      "ᱠ"
    ],
    [
      "ᱦᱟᱢᱮ",
      "ᱴ</w>"
    ],
    [
      "ᱜᱚ",
      "ᱞ</w>"
    ],
    [
      "ᱟᱱᱟ",
      "ᱴ</w>"
    ],
    [
      "ᱦᱟ",
      "ᱯ"
    ],
    [
      "ᱛ",
      "ᱭ"
    ],
    [
      "ᱠᱤ",
      "ᱞᱳ"
    ],
    [
      "%",
      "</w>"
    ],
    [
      "ᱱᱚ",
      "ᱣᱟ"
    ],
    [
      "ᱯᱩᱭ",
      "ᱞᱩ</w>"
    ],
    [
      "ᱡᱟᱹᱛᱤᱭ",
      "ᱟᱹᱨᱤ</w>"
    ],
    [
      "ᱯᱩᱨ",
      "ᱵᱚ</w>"
    ],
    [
      "ᱦᱩᱭᱩ",
      "ᱜᱼᱟ,</w>"
    ],
    [
      "ᱞᱟ",
      "ᱣ"
    ],
    [
      "ᱵᱚᱨ",
      "ᱱᱚ"
    ],
    [
      "ᱜ",
      "ᱚᱱ</w>"
    ],
    [
      "ᱚᱠ",
      "ᱟ</w>"
    ],
    [
      "ᱛᱟ",
      "ᱞᱟ</w>"
    ],
    [
      "ᱦ",
      "ᱚᱨᱚ"
    ],
    [
      "ᱯᱟ",
      "ᱞ</w>"
    ],
    [
      "ᱨᱩ",
      "ᱠᱷ"
    ],
    [
      "ᱜᱚ",
      "ᱲ</w>"
    ],
    [
      "ᱠᱷᱨᱤ",
      "ᱥᱴᱟ"
    ],
    [
      "ᱸ",
      "ᱜᱟ</w>"
    ],
    [
      "ᱞᱚ",
      "ᱢ</w>"
    ],
    [
      "ᱫᱷ",
      "ᱤ</w>"
    ],
    [
      "ᱢᱚ",
      "ᱬᱮ</w>"
    ],
    [
      "ᱜᱷ",
      "ᱟᱨᱚ"
    ],
    [
      "ᱚᱡᱮ",
      "ᱛᱮ</w>"
    ],
    [
      "ᱯ",
      "ᱮᱭᱟ</w>"
    ],
    [
      "ᱫᱚ",
      "ᱠᱷᱤᱱ</w>"
    ],
    [
      "ᱢ",
      "ᱯᱟ"
    ],
    [
      "ᱠᱟ",
      "ᱣ</w>"
    ],
    [
      "ᱥᱟᱹ",
      "ᱜᱟᱹ"
    ],
    [
      "ᱯᱨᱚ",
      "ᱫᱮᱥ</w>"
    ],
    [
      "ᱟᱹ",
      "ᱞᱤ</w>"
    ],
    [
      "ᱯ",
      "ᱟᱨᱚ"
    ],
    [
      "ᱩ",
      "ᱪᱟᱹ"
    ],
    [
      "ᱥᱚᱨ",
      "ᱠᱟᱨ"
    ],
    [
      "ᱵᱤᱰ",
      "ᱟᱹᱣ</w>"
    ],
    [
      "᱕",
      "᱐</w>"
    ],
    [
      "ᱵᱮ",
      "ᱜᱚᱨ</w>"
    ],
    [
      "ᱠᱟᱹᱢᱤ",
      "ᱭᱟᱹ</w>"
    ],
    [
      "ᱱ",
      "ᱮ</w>"
    ],
    [
      "ᱮ",
      "ᱢᱚᱜ</w>"
    ],
    [
      "ᱜᱟ",
      "ᱛᱮ</w>"
    ],
    [
      "ᱦᱤ",
      "ᱞ</w>"
    ],
    [
      "ᱱᱟ",
      "ᱞ</w>"
    ],
    [
      "ᱦᱤ",
      "ᱞᱳ"
    ],
    [
      "ᱲ",
      "ᱟ"
    ],
    [
      "ᱩ",
      "ᱥᱩᱞ</w>"
    ],
    [
      "ᱪᱚ",
      "ᱞᱚ"
    ],
    [
      "ᱮᱭ",
      "ᱟᱭ</w>"
    ],
    [
      "ᱞᱮᱠᱟ",
      "ᱱᱟᱜ</w>"
    ],
    [
      "ᱜ",
      "ᱼ"
    ],
    [
      "ᱯᱷᱟᱹ",
      "ᱫ</w>"
    ],
    [
      "ᱚ",
      "ᱥᱴ"
    ],
    [
      "ᱯ",
      "ᱩᱱ"
    ],
    [
      "ᱥᱤ",
      "ᱝ</w>"
    ],
    [
      "ᱦᱟ",
      "ᱞᱚᱛ</w>"
    ],
    [
      "ᱵᱟ",
      "ᱨᱮ"
    ],
    [
      "ᱢᱟ",
      "ᱱᱟᱣ</w>"
    ],
    [
      "ᱛᱮ",
      "ᱫ</w>"
    ],
    [
      "ᱴᱷ",
      "ᱟᱹᱣ"
    ],
    [
      "ᱫᱷ",
      "ᱟ</w>"
    ],
    [
      "ᱪᱮ",
      "ᱫᱟᱜ</w>"
    ],
    [
      "ᱡᱩ",
      "ᱱ</w>"
    ],
    [
      "ᱧᱪᱟ",
      "ᱣ</w>"
    ],
    [
      "ᱠᱩ",
      "ᱢ"
    ],
    [
      "ᱥᱮᱨ",
      "ᱣᱟ</w>"
    ],
    [
      "ᱱ",
      "ᱛᱚ</w>"
    ],
    [
      "ᱥ",
      "ᱟᱜ"
    ],
    [
      "ᱱᱤ",
      "ᱠ</w>"
    ],
    [
      "ᱡᱤ",
      "ᱱᱤᱥ</w>"
    ],
    [
      "ᱯᱤ",
      "ᱠ</w>"
    ],
    [
      "ᱡᱚᱢ",
      "ᱟᱜ</w>"
    ],
    [
      "ᱢᱮᱱ",
      "ᱴ</w>"
    ],
    [
      "ᱵᱷ",
      "ᱳ"
    ],
    [
      "ᱛ",
      "ᱟᱨ"
    ],
    [
      "ᱠᱚ",
      "ᱱ"
    ],
    [
      "ᱭ",
      "ᱟᱱ</w>"
    ],
    [
      "ᱥᱴ",
      "ᱟᱨ</w>"
    ],
    [
      "ᱩᱯᱨᱩ",
      "ᱢ</w>"
    ],
    [
      "ᱟᱨ",
      "ᱡᱟᱣ</w>"
    ],
    [
      "ᱛᱟ",
      "ᱭᱟ</w>"
    ],
    [
      "ᱚᱠ",
      "ᱛᱮ</w>"
    ],
    [
      "ᱤ",
      "ᱪ</w>"
    ],
    [
      "ᱤᱭ",
      "ᱟ"
    ],
    [
      "ᱪ",
      "ᱤ</w>"
    ],
    [
      "ᱱᱟ",
      "ᱭ"
    ],
    [
      "ᱚ",
      "ᱱᱩ"
    ],
    [
      "ᱫᱟ",
      "ᱭ</w>"
    ],
    [
      "ᱡᱮ",
      "ᱞᱮ"
    ],
    [
      "ᱜ",
      "ᱟᱹᱰᱤ</w>"
    ],
    [
      "ᱞᱮ",
      "ᱛᱟ"
    ],
    [
      "ᱫᱤᱞ",
      "ᱞᱤ</w>"
    ],
    [
      "ᱪᱷ",
      "ᱟᱹᱲ</w>"
    ],
    [
      "ᱠᱮ",
      "ᱴ</w>"
    ],
    [
      "ᱱᱟᱹ",
      "ᱜ</w>"
    ],
    [
      "ᱠᱤᱞᱳ",
      "ᱢᱤᱴᱟᱨ</w>"
    ],
    [
      "ᱩ",
      "ᱵ</w>"
    ],
    [
      "ᱥ",
      "ᱛᱷ"
    ],
    [
      "ᱠ",
      "ᱚᱨ</w>"
    ],
    [
      "ᱠᱟᱹ",
      "ᱣ</w>"
    ],
    [
      "ᱥᱟᱸᱜᱷ",
      "ᱟᱨ</w>"
    ],
    [
      "ᱠᱟᱹ",
      "ᱨᱤ"
    ],
    [
      "ᱥᱤ",
      "ᱢ"
    ],
    [
      "ᱥᱤ",
      "ᱝ"
    ],
    [
      "ᱨᱟ",
      "ᱡ"
    ],
    [
      "ᱮᱥᱮ",
      "ᱨ</w>"
    ],
    [
      "ᱰ",
      "ᱩ</w>"
    ],
    [
      "ᱫᱩᱨᱤ",
      "ᱵ</w>"
    ],
    [
      "ᱟ",
      "᱾</w>"
    ],
    [
      "ᱛ",
      "ᱩ</w>"
    ],
    [
      "ᱟ",
      "ᱠᱚ"
    ],
    [
      "ᱵᱚᱱ",
      "ᱫᱮ"
    ],
    [
      "ᱵᱤᱨᱩ",
      "ᱫᱷ</w>"
    ],
    [
      "ᱦᱤᱞᱳ",
      "ᱜ</w>"
    ],
    [
      "ᱠᱟᱹ",
      "ᱴᱤᱡ</w>"
    ],
    [
      "ᱯᱷ",
      "ᱟᱨ"
    ],
    [
      "ᱧ",
      "ᱤ"
    ],
    [
      "ᱯᱨᱚ",
      "ᱛᱤ"
    ],
    [
      "ᱵᱩ",
      "ᱡᱷ"
    ],
    [
      "᱑᱙",
      "᱔"
    ],
    [
      "ᱯᱟ",
      "ᱴᱷ"
    ],
    [
      "ᱴᱮ",
      "ᱱ</w>"
    ],
    [
      "ᱞᱤᱢ",
      "ᱯᱤᱠ</w>"
    ],
    [
      "ᱞᱤ",
      "ᱢ</w>"
    ],
    [
      "ᱯᱷ",
      "ᱟ"
    ],
    [
      "ᱲᱦᱟ",
      "ᱣ</w>"
    ],
    [
      "ᱡᱟᱦᱟᱸ",
      "ᱨᱮ</w>"
    ],
    [
      "ᱯᱷ",
      "ᱚᱨ"
    ],
    [
      "ᱮᱱ",
      "ᱮᱢ</w>"
    ],
    [
      "ᱠᱟ",
      "ᱢ</w>"
    ],
    [
      "ᱞᱟ",
      "ᱥ</w>"
    ],
    [
      "ᱞᱟ",
      "ᱭ"
    ],
    [
      "ᱜᱷ",
      "ᱟ"
    ],
    [
      "(",
      "</w>"
    ],
    [
      "ᱧᱮ",
      "ᱞᱚ"
    ],
    [
      "ᱡᱚ",
      "ᱱ"
    ],
    [
      "ᱛᱤ",
      "ᱱᱟᱹᱜ</w>"
    ],
    [
      "ᱦᱚᱲ",
      "ᱠᱚ</w>"
    ],
    [
      "ᱸ",
      "ᱰᱮ</w>"
    ],
    [
      "ᱥᱤᱨᱡᱟᱹ",
      "ᱣ</w>"
    ],
    [
      "ᱠᱷ",
      "ᱚᱨᱚ"
    ],
    [
      "ᱠᱟᱹ",
      "ᱨᱤ</w>"
    ],
    [
      "ᱠᱷᱚ",
      "ᱸ"
    ],
    [
      "ᱥᱟ",
      "ᱱ</w>"
    ],
    [
      "ᱜᱤ",
      "ᱧ</w>"
    ],
    [
      "ᱴᱤ",
      "ᱝ</w>"
    ],
    [
      "ᱮᱱᱮ",
      "ᱡ</w>"
    ],
    [
      "ᱛ",
      "ᱛᱚ</w>"
    ],
    [
      "ᱠᱟᱣ",
      "ᱩᱱ"
    ],
    [
      "ᱫᱟᱨ",
      "ᱟᱭ"
    ],
    [
      "ᱯᱷᱤ",
      "ᱞ"
    ],
    [
      "ᱛᱮ",
      "ᱭᱟᱨ</w>"
    ],
    [
      "ᱟ",
      "ᱥ"
    ],
    [
      "ᱚᱱᱟ",
      "ᱛᱮ</w>"
    ],
    [
      "ᱞᱤ",
      "ᱠᱟ</w>"
    ],
    [
      "ᱟᱹ",
      "ᱲ"
    ],
    [
      "ᱵ",
      "ᱨᱟ"
    ],
    [
      "ᱞᱟᱹᱠᱛᱤᱭ",
      "ᱟᱱ</w>"
    ],
    [
      "ᱯᱷᱮ",
      "ᱰᱟ"
    ],
    [
      "ᱯᱩ",
      "ᱫ</w>"
    ],
    [
      "ᱞᱤ",
      "ᱠ</w>"
    ],
    [
      "ᱠᱳ",
      "ᱴᱤ</w>"
    ],
    [
      "ᱵᱮ",
      "ᱼ"
    ],
    [
      "ᱠ",
      "ᱳ</w>"
    ],
    [
      "ᱴᱷ",
      "ᱟᱣ</w>"
    ],
    [
      "ᱯᱟᱹ",
      "ᱛᱭ"
    ],
    [
      "ᱦᱚ",
      "ᱲᱟᱜ</w>"
    ],
    [
      "ᱵᱟ",
      "ᱲ"
    ],
    [
      "ᱯᱟᱹ",
      "ᱭ</w>"
    ],
    [
      "ᱵᱟᱹ",
      "ᱧ</w>"
    ],
    [
      "ᱴ",
      "ᱨᱟ"
    ],
    [
      "᱒",
      "᱑</w>"
    ],
    [
      "᱑",
      "᱒</w>"
    ],
    [
      "ᱳᱣ",
      "ᱟ"
    ],
    [
      "ᱢᱩ",
      "ᱥ"
    ],
    [
      "ᱞᱟ",
      "ᱭᱤᱱ</w>"
    ],
    [
      "ᱵᱟᱹ",
      "ᱱᱩ"
    ],
    [
      "ᱵᱷ",
      "ᱤ</w>"
    ],
    [
      "ᱱ",
      "ᱼ"
    ],
    [
      "ᱦᱤ",
      "ᱥᱟᱹ"
    ],
    [
      "ᱞᱮ",
      "ᱫ"
    ],
    [
      "ᱦᱤ",
      "ᱛ</w>"
    ],
    [
      "ᱜᱷᱟᱹ",
      "ᱞ</w>"
    ],
    [
      "ᱦᱳᱭᱳ",
      "ᱜ</w>"
    ],
    [
      "ᱩᱨᱩ",
      "ᱭ</w>"
    ],
    [
      "ᱵᱮ",
      "ᱝ"
    ],
    [
      "ᱰ",
      "ᱟᱨ</w>"
    ],
    [
      "ᱩ",
      "ᱛ</w>"
    ],
    [
      "ᱡᱚ",
      "ᱛᱷᱟ"
    ],
    [
      "ᱚ",
      "ᱞᱤᱢᱯᱤᱠ</w>"
    ],
    [
      "ᱜᱩ",
      "ᱴ</w>"
    ],
    [
      "ᱵ",
      "ᱮ</w>"
    ],
    [
      "ᱵᱟ",
      "ᱦᱟ"
    ],
    [
      "ᱯ",
      "ᱟᱹ</w>"
    ],
    [
      "ᱨ",
      "ᱚᱱ</w>"
    ],
    [
      "ᱦᱤ",
      "ᱱ"
    ],
    [
      "ᱜᱷᱚ",
      "ᱴᱚᱱ</w>"
    ],
    [
      "ᱵᱤ",
      "ᱪ</w>"
    ],
    [
      "ᱲ",
      "ᱟᱣ"
    ],
    [
      "ᱨᱮ",
      "ᱭ"
    ],
    [
      "ᱢᱟᱨ",
      "ᱟ"
    ],
    [
      "ᱢᱤ",
      "ᱞ"
    ],
    [
      "ᱠᱚ",
      "ᱞ"
    ],
    [
      "ᱛ",
      "ᱩᱨᱩᱭ</w>"
    ],
    [
      "ᱛ",
      "ᱳ"
    ],
    [
      "ᱨ",
      "ᱟᱜ</w>"
    ],
    [
      "ᱨᱮ",
      "ᱱ"
    ],
    [
      "ᱵᱟᱨᱮ",
      "ᱛᱮ</w>"
    ],
    [
      "ᱠᱩ",
      "ᱲᱤ</w>"
    ],
    [
      "ᱯᱷᱩᱴ",
      "ᱵᱚᱞ</w>"
    ],
    [
      "ᱩ",
      "ᱫ"
    ],
    [
      "ᱥᱤ",
      "ᱯ</w>"
    ],
    [
      "ᱩᱨ",
      "ᱜᱟᱹ"
    ],
    [
      "ᱥᱴ",
      "ᱚ"
    ],
    [
      "ᱞᱮᱠᱟ",
      "ᱛᱮᱭ</w>"
    ],
    [
      "ᱜᱟᱱᱚ",
      "ᱜᱼᱟ</w>"
    ],
    [
      "ᱦᱚ",
      "ᱪᱚ</w>"
    ],
    [
      "ᱦᱟ",
      "ᱣ</w>"
    ],
    [
      "ᱛᱷ",
      "ᱟᱨ</w>"
    ],
    [
      "᱑",
      "᱐"
    ],
    [
      "ᱡᱚ",
      "ᱥ</w>"
    ],
    [
      "ᱥᱮ",
      "ᱯ"
    ],
    [
      "ᱵᱷ",
      "ᱟᱭ"
    ],
    [
      "ᱵᱚ",
      "ᱦᱚ"
    ],
    [
      "ᱵᱚᱨᱱᱚ",
      "ᱱ</w>"
    ],
    [
      "ᱡᱮᱞᱮ",
      "ᱧ</w>"
    ],
    [
      "ᱰ",
      "ᱩ"
    ],
    [
      "ᱧ",
      "ᱡᱟ"
    ],
    [
      "ᱦᱚᱸ",
      "ᱭ</w>"
    ],
    [
      "ᱠᱷ",
      "ᱚᱨ"
    ],
    [
      "ᱟ",
      "ᱲᱟᱜ</w>"
    ],
    [
      "ᱛ",
      "ᱚᱱ</w>"
    ],
    [
      "ᱫᱚ",
      "ᱲ"
    ],
    [
      "ᱥᱚᱛᱟ",
      "ᱵ"
    ],
    [
      "ᱥᱚ",
      "ᱦᱚᱨ</w>"
    ],
    [
      "᱓",
      "᱐</w>"
    ],
    [
      "ᱛᱷ",
      "ᱚ</w>"
    ],
    [
      "ᱛᱷ",
      "ᱟᱭ"
    ],
    [
      "ᱴᱤ",
      "ᱠ</w>"
    ],
    [
      "ᱡᱟᱨ",
      "ᱯᱟ</w>"
    ],
    [
      "ᱩᱱ",
      "ᱠᱚ</w>"
    ],
    [
      "ᱪ",
      "ᱪᱷ"
    ],
    [
      "ᱳᱭ",
      "ᱮ"
    ],
    [
      "ᱜᱟ",
      "ᱰᱟ</w>"
    ],
    [
      "ᱰᱷᱤ",
      "ᱯ</w>"
    ],
    [
      "ᱢᱩᱫᱽ",
      "</w>"
    ],
    [
      "ᱫᱚ",
      "ᱠ"
    ],
    [
      "ᱫᱟᱲᱮᱭ",
      "ᱟᱜᱼᱟ,</w>"
    ],
    [
      "ᱥᱟᱹᱜᱟᱹ",
      "ᱭ</w>"
    ],
    [
      "ᱛᱮ",
      "ᱥᱟᱨ</w>"
    ],
    [
      "ᱥ",
      "ᱚᱨ</w>"
    ],
    [
      "ᱥᱮ",
      "ᱡ</w>"
    ],
    [
      "ᱦᱤ",
      "ᱡᱩᱜ</w>"
    ],
    [
      "ᱥᱟ",
      "ᱥᱚ"
    ],
    [
      "ᱫᱟᱨᱟᱭ",
      "ᱛᱮ</w>"
    ],
    [
      "ᱵᱚ",
      "ᱛᱚᱨ</w>"
    ],
    [
      "ᱩᱱᱤ",
      "ᱭ</w>"
    ],
    [
      "ᱱ",
      "ᱤᱭᱟ</w>"
    ],
    [
      "ᱟᱡ",
      "ᱨᱮᱱ</w>"
    ],
    [
      "ᱵᱟᱪᱷ",
      "ᱟᱣ</w>"
    ],
    [
      "ᱤᱭ",
      "ᱚ</w>"
    ],
    [
      "ᱜ",
      "ᱚᱨ"
    ],
    [
      "ᱡᱷ",
      "ᱩ"
    ],
    [
      "ᱵᱷ",
      "ᱟᱜᱮ</w>"
    ],
    [
      "ᱛᱟ",
      "ᱠ</w>"
    ],
    [
      "ᱟᱹᱠᱷᱨᱤ",
      "ᱧ</w>"
    ],
    [
      "ᱴ",
      "ᱚᱨ</w>"
    ],
    [
      "᱑᱙",
      "᱕"
    ],
    [
      "ᱪᱚᱞᱚ",
      "ᱛ"
    ],
    [
      "ᱡᱚᱛᱷᱟ",
      "ᱛ</w>"
    ],
    [
      "ᱦᱚᱸ",
      ",</w>"
    ],
    [
      "ᱜᱤ",
      "ᱞ</w>"
    ],
    [
      "ᱴᱮ",
      "ᱦᱟ"
    ],
    [
      "ᱦᱚ",
      "ᱯᱚᱱ</w>"
    ],
    [
      "ᱠ",
      "ᱛᱤ</w>"
    ],
    [
      "ᱚ",
      "ᱪᱚ"
    ],
    [
      "ᱤ",
      "ᱱᱰ"
    ],
    [
      "ᱚᱨ",
      "ᱡᱚ</w>"
    ],
    [
      "ᱜ",
      "ᱟᱨ"
    ],
    [
      "ᱰ",
      "ᱮᱱ</w>"
    ],
    [
      "ᱡ",
      "ᱳᱭ"
    ],
    [
      "ᱛᱤ",
      "ᱭ</w>"
    ],
    [
      "ᱵᱟ",
      "ᱢ</w>"
    ],
    [
      "ᱨᱮ",
      "ᱞ</w>"
    ],
    [
      "ᱜᱤ",
      "ᱨᱟᱹ"
    ],
    [
      "ᱮ",
      "ᱠᱟ"
    ],
    [
      "ᱩᱛ",
      "ᱛᱚᱨ"
    ],
    [
      "ᱡᱷᱚ",
      "ᱛᱚᱠᱷᱚᱱ</w>"
    ],
    [
      "ᱨᱚ",
      "ᱝ</w>"
    ],
    [
      "ᱠᱟ",
      "ᱱ"
    ],
    [
      "ᱵᱟ",
      "ᱵᱚ"
    ],
    [
      "ᱫᱚ",
      "ᱥᱚᱠ</w>"
    ],
    [
      "ᱠ",
      "ᱨᱚ"
    ],
    [
      "ᱥᱟ",
      "ᱠᱟᱢ</w>"
    ],
    [
      "ᱯᱷ",
      "ᱩᱨᱜᱟᱹ"
    ],
    [
      "ᱥᱚᱨᱠᱟᱨ",
      "ᱤ</w>"
    ],
    [
      "ᱡᱮ",
      "ᱞᱮᱠᱟ</w>"
    ],
    [
      "ᱨᱤ",
      "ᱡ</w>"
    ],
    [
      "ᱞᱚ",
      "ᱜᱚᱱ</w>"
    ],
    [
      "ᱵ",
      "ᱚᱱ</w>"
    ],
    [
      "᱒",
      "᱒</w>"
    ],
    [
      "ᱵᱷᱟ",
      "ᱵᱽ"
    ],
    [
      "ᱜᱚ",
      "ᱴᱟ"
    ],
    [
      "ᱫ",
      "ᱟᱨ</w>"
    ],
    [
      "ᱡᱚ",
      "ᱭ"
    ],
    [
      "ᱞ",
      "ᱤᱭᱟ</w>"
    ],
    [
      "ᱢᱩᱱ",
      "ᱫᱤᱞ</w>"
    ],
    [
      "ᱣ",
      "ᱟᱹ</w>"
    ],
    [
      "ᱵ",
      "ᱫᱚ</w>"
    ],
    [
      "ᱫᱚᱲ",
      "ᱦᱟ</w>"
    ],
    [
      "ᱞᱮᱛᱟ",
      "ᱲ</w>"
    ],
    [
      "ᱞᱟᱹ",
      "ᱣ</w>"
    ],
    [
      "ᱢᱮᱱ",
      "ᱮᱫ</w>"
    ],
    [
      "ᱡᱤᱭ",
      "ᱟᱹᱞᱤ</w>"
    ],
    [
      "ᱯᱟ",
      "ᱞᱟᱣ</w>"
    ],
    [
      "ᱟᱛ",
      "ᱳ</w>"
    ],
    [
      "ᱪ",
      "ᱳ"
    ],
    [
      "ᱥᱮᱨ",
      "ᱢᱟ"
    ],
    [
      "ᱡᱟ",
      "ᱱᱩ"
    ],
    [
      "ᱛᱟᱦᱮ",
      "ᱱᱟ,</w>"
    ],
    [
      "᱑",
      "᱗"
    ],
    [
      "ᱥᱩ",
      "ᱭ"
    ],
    [
      "ᱥᱮ",
      "ᱪᱮᱫ</w>"
    ],
    [
      "ᱵᱷ",
      "ᱟᱹ"
    ],
    [
      "ᱢᱮ",
      "ᱪ</w>"
    ],
    [
      "ᱲ",
      "ᱟᱢ</w>"
    ],
    [
      "ᱨᱤ",
      "ᱛ</w>"
    ],
    [
      "ᱢᱤ",
      "ᱞ</w>"
    ],
    [
      "ᱜᱚ",
      "ᱢ"
    ],
    [
      "ᱩᱛ",
      "ᱟᱹᱨ</w>"
    ],
    [
      "ᱩᱰ",
      "ᱟᱹᱱ</w>"
    ],
    [
      "ᱧᱩᱛᱩ",
      "ᱢᱛᱮ</w>"
    ],
    [
      "ᱪᱚᱞᱚᱛ",
      "ᱪᱤᱛᱟᱹᱨ</w>"
    ],
    [
      "ᱠ",
      "ᱮᱞ</w>"
    ],
    [
      "ᱫᱚ",
      "ᱦᱚᱭ</w>"
    ],
    [
      "ᱫᱷ",
      "ᱩᱨ"
    ],
    [
      "ᱩᱪᱟᱹ",
      "ᱲ</w>"
    ],
    [
      "ᱵᱟ",
      "ᱵᱟ</w>"
    ],
    [
      "ᱜ",
      "ᱨᱤ"
    ],
    [
      "ᱮ",
      "ᱯᱷ</w>"
    ],
    [
      "ᱞ",
      "ᱤᱭᱟᱹ</w>"
    ],
    [
      "ᱵᱚᱝ",
      "ᱥᱚ</w>"
    ],
    [
      "ᱯᱷ",
      "ᱟᱭ"
    ],
    [
      "ᱥᱚ",
      "ᱝ</w>"
    ],
    [
      "ᱞᱮᱱ",
      "ᱠᱷᱟᱱ</w>"
    ],
    [
      "ᱚ",
      "ᱜ</w>"
    ],
    [
      "ᱯᱩᱨ",
      "ᱟᱹᱣ</w>"
    ],
    [
      "ᱴᱚ",
      "ᱠ</w>"
    ],
    [
      "ᱵᱟᱰ",
      "ᱟᱭ"
    ],
    [
      "ᱯᱟᱸ",
      "ᱡᱟ</w>"
    ],
    [
      "ᱫᱟᱹᱭ",
      "ᱠᱟᱹ</w>"
    ],
    [
      "ᱢᱮ",
      "ᱫ</w>"
    ],
    [
      "ᱯᱷᱟᱹ",
      "ᱫᱽ</w>"
    ],
    [
      "ᱥᱮ",
      "ᱢ"
    ],
    [
      ";",
      "</w>"
    ],
    [
      "ᱞ",
      "ᱟᱱ</w>"
    ],
    [
      "ᱱᱚᱣᱟ",
      "ᱫᱚ</w>"
    ],
    [
      "ᱯᱳ",
      "ᱨ"
    ],
    [
      "ᱩ",
      "ᱭᱤ"
    ],
    [
      "ᱠᱩ",
      "ᱥᱤ"
    ],
    [
      "ᱢᱚ",
      "ᱦᱚ"
    ],
    [
      "ᱵᱚᱦᱚ",
      "ᱜ</w>"
    ],
    [
      "ᱡᱩᱠ",
      "ᱛᱚ</w>"
    ],
    [
      "ᱨᱮ",
      "ᱠᱚᱨ"
    ],
    [
      "ᱰᱚ",
      "ᱞᱟᱨ</w>"
    ],
    [
      "ᱡ",
      "ᱚᱨ"
    ],
    [
      "᱒᱐᱑",
      "᱔</w>"
    ],
    [
      "ᱢᱯᱟ",
      "ᱱᱤ</w>"
    ],
    [
      "ᱜ",
      "ᱨᱮ"
    ],
    [
      "ᱴᱟ",
      "ᱠᱟ</w>"
    ],
    [
      "ᱢᱟ",
      "ᱭᱤ"
    ],
    [
      "᱑",
      "᱕</w>"
    ],
    [
      "ᱥᱚᱛᱟᱵ",
      "ᱫᱤ</w>"
    ],
    [
      "ᱡ",
      ",</w>"
    ],
    [
      "ᱱᱚ",
      "ᱭ</w>"
    ],
    [
      "ᱠᱟ",
      "ᱛᱷ"
    ],
    [
      "ᱱᱟᱜ",
      "ᱟ"
    ],
    [
      "ᱠᱷᱟ",
      "ᱥ</w>"
    ],
    [
      "ᱫ",
      "ᱟᱱ</w>"
    ],
    [
      "ᱦᱳᱭᱳ",
      "ᱜᱼᱟ</w>"
    ],
    [
      "ᱟ",
      "ᱲ"
    ],
    [
      "ᱥᱮᱯ",
      "ᱴᱮ"
    ],
    [
      "ᱵᱚ",
      "ᱭ"
    ],
    [
      "ᱨᱟ",
      "ᱴ</w>"
    ],
    [
      "ᱨᱮ",
      "ᱥᱚᱱ</w>"
    ],
    [
      "ᱫᱷ",
      "ᱚᱨ"
    ],
    [
      "ᱵᱟ",
      "ᱥ</w>"
    ],
    [
      "ᱮ",
      "ᱹ"
    ],
    [
      "ᱚᱥᱴ",
      "ᱨᱮ"
    ],
    [
      "ᱥᱤᱢ",
      "ᱟᱹ</w>"
    ],
    [
      "ᱥᱤ",
      "ᱠ</w>"
    ],
    [
      "ᱨᱟ",
      "ᱥ</w>"
    ],
    [
      "ᱯᱟ",
      "ᱴ</w>"
    ],
    [
      "ᱟᱠᱟᱫᱟ",
      ",</w>"
    ],
    [
      "ᱦᱟᱯ",
      "ᱛᱟ</w>"
    ],
    [
      "ᱱᱚ",
      "ᱜ</w>"
    ],
    [
      "ᱵᱟ",
      "ᱭ"
    ],
    [
      "ᱞᱤ",
      "ᱱ</w>"
    ],
    [
      "ᱢᱟ",
      "ᱦᱟ"
    ],
    [
      "ᱯᱚᱨᱤ",
      "ᱢᱟᱱ</w>"
    ],
    [
      "ᱯᱷᱩᱨᱜᱟᱹ",
      "ᱞ</w>"
    ],
    [
      "ᱫᱚ",
      "ᱜ</w>"
    ],
    [
      "ᱵ",
      "ᱳᱭ"
    ],
    [
      "ᱢᱟᱨ",
      "ᱪ</w>"
    ],
    [
      "ᱠᱩ",
      "ᱞ</w>"
    ],
    [
      "ᱫᱳ",
      "ᱠᱟᱱ</w>"
    ],
    [
      "ᱩᱱ",
      "ᱫᱚ</w>"
    ],
    [
      "ᱯᱤ",
      "ᱫ</w>"
    ],
    [
      "ᱥᱤ",
      "ᱱ</w>"
    ],
    [
      "ᱡᱤ",
      "ᱛᱟᱹ"
    ],
    [
      "ᱥᱛᱷ",
      "ᱟᱱ</w>"
    ],
    [
      "ᱯᱚ",
      "ᱱ"
    ],
    [
      "ᱢᱮ",
      "ᱛ"
    ],
    [
      "ᱚ",
      "ᱥ"
    ],
    [
      "ᱦᱚᱭ",
      "ᱩ"
    ],
    [
      "ᱥᱟᱫᱷᱟᱨᱚ",
      "ᱱᱛᱚ</w>"
    ],
    [
      "ᱫᱤ",
      "ᱥ"
    ],
    [
      "ᱜᱷᱟᱨᱚ",
      "ᱸ"
    ],
    [
      "ᱱᱚ",
      "ᱵᱷᱮ"
    ],
    [
      "ᱥᱟ",
      "ᱱ"
    ],
    [
      "ᱯᱷᱳ",
      "ᱨ"
    ],
    [
      "ᱵᱮ",
      "ᱱ"
    ],
    [
      "ᱵᱮᱣ",
      "ᱦᱟᱨ"
    ],
    [
      "ᱵᱚ",
      "ᱫᱚ"
    ],
    [
      "ᱱᱟᱜ",
      "ᱟᱢ</w>"
    ],
    [
      "ᱟᱹ",
      "ᱨᱩ</w>"
    ],
    [
      "ᱛᱟᱞᱟ",
      "ᱨᱮ</w>"
    ],
    [
      "ᱢᱩ",
      "ᱜᱷ"
    ],
    [
      "ᱥᱟᱹ",
      "ᱨᱤ</w>"
    ],
    [
      "ᱵᱚᱱᱫᱮ",
      "ᱡ</w>"
    ],
    [
      "ᱜᱮ",
      "ᱢ</w>"
    ],
    [
      "ᱢᱟ",
      "ᱞ</w>"
    ],
    [
      "ᱠᱚ",
      "ᱢ"
    ],
    [
      "ᱵᱤ",
      "ᱨᱤ"
    ],
    [
      "ᱴᱷᱟᱹᱣ",
      "ᱠᱟᱹ</w>"
    ],
    [
      "ᱵᱤ",
      "ᱠ</w>"
    ],
    [
      "ᱱᱟ",
      "ᱝ</w>"
    ],
    [
      "ᱪᱟᱸ",
      "ᱜᱟ</w>"
    ],
    [
      "ᱜᱮ",
      "ᱭ</w>"
    ],
    [
      "ᱩᱨ",
      "ᱳ"
    ],
    [
      "ᱠ",
      "ᱨᱳ"
    ],
    [
      "ᱴᱤ",
      "ᱲᱤᱡ</w>"
    ],
    [
      "ᱯᱟ",
      "ᱲᱦᱟᱣ</w>"
    ],
    [
      "ᱳᱣ",
      "ᱟᱨ"
    ],
    [
      "ᱠ",
      "ᱩᱨᱩ"
    ],
    [
      "ᱵᱚ",
      "ᱸᱜᱟ</w>"
    ],
    [
      "ᱟ",
      "ᱫ</w>"
    ],
    [
      "ᱼ",
      "ᱟᱱ</w>"
    ],
    [
      "ᱯᱷ",
      "ᱨᱤ"
    ],
    [
      "ᱞᱤ",
      "ᱜᱽ</w>"
    ],
    [
      "ᱜᱤ",
      "ᱰᱤ</w>"
    ],
    [
      "ᱴᱟ",
      "ᱲᱟᱝ</w>"
    ],
    [
      "ᱴ",
      "ᱟᱹ</w>"
    ],
    [
      "ᱥᱤᱨ",
      "ᱯᱟᱹ</w>"
    ],
    [
      "ᱡᱚ",
      "ᱠᱷᱮ"
    ],
    [
      "ᱟᱹᱰᱤ",
      "ᱜᱟᱱ</w>"
    ],
    [
      "ᱵᱳ",
      "ᱨ"
    ],
    [
      "ᱴᱷ",
      "ᱤ"
    ],
    [
      "ᱦᱟ",
      "ᱦᱟ"
    ],
    [
      "ᱫᱷᱤ",
      "ᱨᱤ</w>"
    ],
    [
      "ᱫᱟ",
      "ᱜᱽ</w>"
    ],
    [
      "ᱪ",
      "ᱚᱨ"
    ],
    [
      "ᱠᱮ",
      "ᱱ</w>"
    ],
    [
      "ᱟ",
      "ᱠ"
    ],
    [
      "᱑",
      "᱕"
    ],
    [
      "ᱣ",
      "ᱟᱨ</w>"
    ],
    [
      "ᱜᱚ",
      "ᱡᱽ</w>"
    ],
    [
      "ᱪᱟ",
      "ᱢᱯᱤᱭ"
    ],
    [
      "᱒᱐᱑",
      "᱐</w>"
    ],
    [
      "ᱴᱟ",
      "ᱱ</w>"
    ],
    [
      "ᱟᱨ",
      "ᱵᱟᱝ</w>"
    ],
    [
      "ᱨᱟ",
      "ᱢ</w>"
    ],
    [
      "ᱞᱟᱹᱜᱤ",
      "ᱫ"
    ],
    [
      "ᱡ",
      "ᱮᱱ"
    ],
    [
      "ᱟ",
      "ᱥ</w>"
    ],
    [
      "ᱥᱮᱯᱴᱮ",
      "ᱢᱵᱚᱨ</w>"
    ],
    [
      "ᱥᱚ",
      "ᱫ</w>"
    ],
    [
      "ᱥ",
      "ᱩ</w>"
    ],
    [
      "ᱣ",
      "ᱟᱨ"
    ],
    [
      "ᱵᱤ",
      "ᱞ</w>"
    ],
    [
      "ᱶ",
      "ᱛᱟ</w>"
    ],
    [
      "ᱯᱚᱨᱚ",
      "ᱵᱽ</w>"
    ],
    [
      "ᱲ",
      "ᱩ</w>"
    ],
    [
      "ᱥᱮ",
      "ᱥ</w>"
    ],
    [
      "ᱮᱭ",
      "ᱟ,</w>"
    ],
    [
      "ᱥᱴ",
      "ᱤ</w>"
    ],
    [
      "ᱣ",
      "ᱟᱨᱤ</w>"
    ],
    [
      "ᱥᱩᱨ",
      "ᱥᱩᱯᱩᱨ</w>"
    ],
    [
      "ᱠᱩ",
      "ᱥᱤ</w>"
    ],
    [
      "ᱨᱤ",
      "ᱠᱟᱹ</w>"
    ],
    [
      "ᱥᱤ",
      "ᱥ</w>"
    ],
    [
      "ᱦᱟᱨ",
      "ᱟᱣ</w>"
    ],
    [
      "ᱮ",
      "ᱢᱟ</w>"
    ],
    [
      "ᱥᱟᱹ",
      "ᱢᱩᱫ</w>"
    ],
    [
      "ᱟ",
      "ᱞ</w>"
    ],
    [
      "ᱟᱢᱮᱨᱤ",
      "ᱠᱟ</w>"
    ],
    [
      "ᱵᱮ",
      "ᱯᱟᱨ</w>"
    ],
    [
      "ᱯ",
      "ᱳᱣ"
    ],
    [
      "ᱠᱤ",
      "ᱛ"
    ],
    [
      "ᱢᱩᱜᱷ",
      "ᱚᱞ</w>"
    ],
    [
      "ᱪᱷ",
      "ᱩ"
    ],
    [
      "ᱤᱭ",
      "ᱟᱱ</w>"
    ],
    [
      "ᱠᱩᱨᱩ",
      "ᱢᱩ"
    ],
    [
      "ᱨ",
      "ᱤᱭᱟᱹ</w>"
    ],
    [
      "ᱛᱟ",
      "ᱞ</w>"
    ],
    [
      "ᱱᱚ",
      "ᱱ"
    ],
    [
      "ᱵᱤ",
      "ᱱ</w>"
    ],
    [
      "ᱟᱜ",
      ",</w>"
    ],
    [
      "ᱪᱟ",
      "ᱞᱟᱣ"
    ],
    [
      "ᱫᱟ",
      ",</w>"
    ],
    [
      "᱒᱐᱑",
      "᱓</w>"
    ],
    [
      "ᱦᱩ",
      "ᱱᱟᱹ"
    ],
    [
      "ᱠᱷ",
      "ᱚ</w>"
    ],
    [
      "ᱯᱚ",
      "ᱛᱚ"
    ],
    [
      "ᱠᱷᱚᱨᱚ",
      "ᱪ</w>"
    ],
    [
      "ᱴᱷ",
      "ᱟ</w>"
    ],
    [
      "ᱯᱷᱮ",
      "ᱨᱟᱣ</w>"
    ],
    [
      "ᱯᱨᱤ",
      "ᱞ</w>"
    ],
    [
      "ᱥ",
      "ᱤᱭᱟ</w>"
    ],
    [
      "ᱪᱟ",
      "ᱥ</w>"
    ],
    [
      "ᱥᱚ",
      "ᱞ"
    ],
    [
      "ᱫᱤ",
      "ᱨ</w>"
    ],
    [
      "ᱠᱚ",
      "ᱣ"
    ],
    [
      "ᱜᱟ",
      "ᱞᱚ"
    ],
    [
      "ᱱ",
      "ᱩ</w>"
    ],
    [
      "ᱥᱩ",
      "ᱢ</w>"
    ],
    [
      "ᱨᱮ",
      "ᱫᱚ</w>"
    ],
    [
      "ᱥᱮ",
      "ᱸ"
    ],
    [
      "ᱦᱤ",
      "ᱴ</w>"
    ],
    [
      "ᱨᱟ",
      "ᱥᱴᱨᱚ</w>"
    ],
    [
      "ᱫᱚ",
      "ᱢ</w>"
    ],
    [
      "ᱰᱤ",
      "ᱥᱮ"
    ],
    [
      "ᱨ",
      "ᱳ</w>"
    ],
    [
      "ᱵᱤ",
      "ᱪᱟᱹ"
    ],
    [
      "ᱡᱤ",
      "ᱨᱟᱹᱣ</w>"
    ],
    [
      "ᱜᱷ",
      "ᱩ"
    ],
    [
      "ᱪᱩ",
      "ᱨᱤᱛ</w>"
    ],
    [
      "ᱵᱟ",
      "ᱧᱪᱟᱣ</w>"
    ],
    [
      "ᱦᱚᱨᱚ",
      "ᱜ</w>"
    ],
    [
      "ᱠᱷᱚ",
      "ᱵᱚᱨ</w>"
    ],
    [
      "ᱞ",
      "ᱟᱨ"
    ],
    [
      "ᱠᱩ",
      "ᱠ"
    ],
    [
      "ᱧᱤ",
      "ᱫᱟᱹ</w>"
    ],
    [
      "ᱧ",
      "ᱟ</w>"
    ],
    [
      "ᱞᱟᱜ",
      "ᱟᱣ</w>"
    ],
    [
      "᱑",
      "᱘</w>"
    ],
    [
      "ᱟᱹ",
      "ᱜᱩ</w>"
    ],
    [
      "ᱦᱮ",
      "ᱸ"
    ],
    [
      "ᱥ",
      "ᱯᱟ"
    ],
    [
      "᱒᱐",
      "᱑᱙</w>"
    ],
    [
      "ᱪᱤ",
      "ᱱ</w>"
    ],
    [
      "᱑",
      "᱖"
    ],
    [
      "ᱥ",
      "ᱳᱭ"
    ],
    [
      "ᱡᱤᱛᱟᱹ",
      "ᱣ</w>"
    ],
    [
      "ᱱᱤ",
      "ᱡᱮ"
    ],
    [
      "ᱯᱮ",
      "ᱨᱮᱡ</w>"
    ],
    [
      "ᱰ",
      "ᱟᱨ"
    ],
    [
      "ᱦᱤ",
      "ᱨ</w>"
    ],
    [
      "ᱯᱟᱱ",
      "ᱛᱷᱟ</w>"
    ],
    [
      "ᱥᱤ",
      "ᱜᱤᱞ</w>"
    ],
    [
      "ᱯᱩ",
      "ᱱ</w>"
    ],
    [
      "ᱦᱟ",
      "ᱥᱟ</w>"
    ],
    [
      "ᱢᱟ",
      "ᱞᱟ</w>"
    ],
    [
      "ᱯᱩᱨ",
      "ᱤ</w>"
    ],
    [
      "᱒᱐᱑",
      "᱘</w>"
    ],
    [
      "ᱪᱟᱸ",
      "ᱫᱚ</w>"
    ],
    [
      "ᱚ",
      "ᱛ"
    ],
    [
      "ᱞᱮ",
      "ᱱᱟ"
    ],
    [
      "ᱵᱚ",
      "ᱱᱚ"
    ],
    [
      "ᱠᱩ",
      "ᱥᱤᱭ"
    ],
    [
      "ᱞ",
      "ᱨᱮ</w>"
    ],
    [
      "ᱝ",
      ",</w>"
    ],
    [
      "᱒᱐᱑",
      "᱑</w>"
    ],
    [
      "?",
      "</w>"
    ],
    [
      "ᱞᱤ",
      "ᱸ"
    ],
    [
      "ᱰᱤᱥᱮ",
      "ᱢᱵᱚᱨ</w>"
    ],
    [
      "᱒᱐᱑",
      "᱗</w>"
    ],
    [
      "ᱯᱟᱹᱛᱭ",
      "ᱟᱹᱣ</w>"
    ],
    [
      "ᱯᱟ",
      "ᱲᱟᱣ</w>"
    ],
    [
      "ᱯᱟ",
      "ᱧᱡᱟ"
    ],
    [
      "ᱵᱟ",
      "ᱸ"
    ],
    [
      "ᱵᱷᱟᱨᱚ",
      "ᱛ"
    ],
    [
      "ᱢᱤ",
      "ᱭᱟᱹ</w>"
    ],
    [
      "ᱥᱟ",
      "ᱥ"
    ],
    [
      "ᱟ",
      "ᱴ"
    ],
    [
      "᱒᱐᱑",
      "᱒</w>"
    ],
    [
      "᱒",
      "᱕</w>"
    ],
    [
      "ᱯᱩ",
      "ᱞᱤᱥ</w>"
    ],
    [
      "ᱱᱚᱵᱷᱮ",
      "ᱢᱵᱚᱨ</w>"
    ],
    [
      "᱑",
      "᱔</w>"
    ],
    [
      "ᱨᱟᱹ",
      "ᱯᱩᱫ</w>"
    ],
    [
      "ᱡᱤ",
      "ᱣ"
    ],
    [
      "ᱤᱭ",
      "ᱟᱹ"
    ],
    [
      "ᱠᱟᱛᱷ",
      "ᱟᱭ</w>"
    ],
    [
      "ᱠᱚ",
      "ᱢᱯᱤᱭ"
    ],
    [
      "ᱥᱟᱹ",
      "ᱨᱤ"
    ],
    [
      "ᱩ",
      "ᱠ</w>"
    ],
    [
      "ᱥᱴ",
      "ᱚ</w>"
    ],
    [
      "ᱦᱟ",
      "ᱭ</w>"
    ],
    [
      "ᱠᱚ",
      "ᱝ"
    ],
    [
      "ᱞᱟᱠ",
      "ᱪᱟᱨ</w>"
    ],
    [
      "ᱠᱟᱹᱨᱤ",
      "ᱜᱚᱞ</w>"
    ],
    [
      "ᱮ",
      "ᱯᱷ"
    ],
    [
      "ᱫᱟᱲᱮᱭ",
      "ᱟᱜᱼ"
    ],
    [
      "ᱠᱟᱹ",
      "ᱦ"
    ],
    [
      "ᱵᱟ",
      "ᱱ</w>"
    ],
    [
      "ᱣ",
      "ᱩᱱ"
    ],
    [
      "ᱡᱚᱠᱷᱮ",
      "ᱡ</w>"
    ],
    [
      "ᱜᱟ",
      "ᱛᱟᱠ</w>"
    ],
    [
      "ᱟᱥᱚ",
      "ᱞ</w>"
    ],
    [
      "ᱥᱤ",
      "ᱠ"
    ],
    [
      "᱒᱐",
      "᱒᱐</w>"
    ],
    [
      "ᱱ",
      "ᱨᱮ</w>"
    ],
    [
      "ᱵᱮ",
      "ᱱᱟᱣ"
    ],
    [
      "ᱴᱮ",
      "ᱠᱟᱣ</w>"
    ],
    [
      "ᱴᱮ",
      "ᱡ</w>"
    ],
    [
      "ᱦᱟᱨ",
      "ᱟ"
    ],
    [
      "ᱢᱟ",
      ",</w>"
    ],
    [
      "᱑",
      "᱑</w>"
    ],
    [
      "ᱢᱩ",
      "ᱴᱷ"
    ],
    [
      "ᱠᱮ",
      "ᱫᱮᱭᱟ</w>"
    ],
    [
      "ᱱ",
      "ᱚᱨ"
    ],
    [
      "ᱴᱷ",
      "ᱤᱠ</w>"
    ],
    [
      "ᱜᱩ",
      "ᱱ</w>"
    ],
    [
      "ᱞᱟᱦᱟ",
      "ᱨᱮ</w>"
    ],
    [
      "ᱠᱟ",
      "ᱥ"
    ],
    [
      "ᱨᱟᱹ",
      "ᱭ</w>"
    ],
    [
      "ᱥ",
      "ᱠᱳ"
    ],
    [
      "ᱚ",
      "ᱸᱰᱮ</w>"
    ],
    [
      "ᱨᱟᱹᱥ",
      "ᱠᱟᱹ</w>"
    ],
    [
      "ᱱᱮ",
      "ᱴ</w>"
    ],
    [
      "ᱮᱥ",
      "ᱤᱭᱟ</w>"
    ],
    [
      "ᱠᱷ",
      "ᱤ</w>"
    ],
    [
      "ᱫᱟ",
      "ᱣ</w>"
    ],
    [
      "ᱡᱟᱦᱟᱸ",
      "ᱫᱚ</w>"
    ],
    [
      "ᱡᱟᱭ",
      "ᱜᱟ</w>"
    ],
    [
      "᱒᱐᱐",
      "᱘</w>"
    ],
    [
      "ᱥᱤ",
      "ᱱ"
    ],
    [
      "ᱦᱩᱱᱟᱹ",
      "ᱨ</w>"
    ],
    [
      "ᱯ",
      "ᱮᱱ"
    ],
    [
      "ᱜᱟ",
      "ᱱ"
    ],
    [
      "ᱴ",
      ",</w>"
    ],
    [
      "ᱵᱚ",
      "ᱛᱚᱨ"
    ],
    [
      "ᱠᱚᱢᱯᱤᱭ",
      "ᱩ"
    ],
    [
      "᱑",
      "᱖</w>"
    ],
    [
      "ᱠᱳ",
      "ᱢᱯᱟᱱᱤ</w>"
    ],
    [
      "ᱢᱟ",
      "ᱞ"
    ],
    [
      "ᱛᱤ",
      "ᱠ</w>"
    ],
    [
      "ᱮ",
      "ᱯᱨᱤᱞ</w>"
    ],
    [
      "ᱯᱟ",
      "ᱠᱤ"
    ],
    [
      "ᱢ",
      "ᱟᱜ"
    ],
    [
      "ᱟ",
      "ᱞᱮ"
    ],
    [
      "ᱢᱤ",
      "ᱭ"
    ],
    [
      "ᱩᱢᱮ",
      "ᱨᱟᱱ</w>"
    ],
    [
      "ᱞᱟ",
      "ᱝ</w>"
    ],
    [
      "ᱞᱮ",
      "ᱠᱷᱟᱱ</w>"
    ],
    [
      "ᱚ",
      "ᱜᱼᱟ</w>"
    ],
    [
      "ᱦ",
      "ᱟᱨᱚ"
    ],
    [
      "ᱯᱩᱨ",
      "ᱟᱹ</w>"
    ],
    [
      "ᱦᱩ",
      "ᱫᱟᱹ</w>"
    ],
    [
      "ᱜ",
      "ᱟᱹᱣ</w>"
    ],
    [
      "ᱢᱮᱱ",
      "ᱠᱷᱟᱱ,</w>"
    ],
    [
      "ᱞᱚ",
      "ᱠ</w>"
    ],
    [
      "ᱡᱟᱹ",
      "ᱛᱤ</w>"
    ],
    [
      "ᱨᱮᱠᱚᱨ",
      "ᱰ</w>"
    ],
    [
      "ᱥᱟᱨ",
      "ᱦᱟᱣ</w>"
    ],
    [
      "ᱵᱟᱦᱟ",
      "ᱞ</w>"
    ],
    [
      "ᱥᱟ",
      "ᱭᱤᱴ</w>"
    ],
    [
      "ᱢᱮ",
      ",</w>"
    ],
    [
      "ᱡᱚ",
      "ᱯ"
    ],
    [
      "ᱞᱟᱹ",
      "ᱴᱩ</w>"
    ],
    [
      "ᱴᱮ",
      "ᱸ"
    ],
    [
      "ᱥ",
      "ᱨᱤ"
    ],
    [
      "ᱛᱤ",
      "ᱞ</w>"
    ],
    [
      "ᱜᱚᱢ",
      "ᱠᱮ</w>"
    ],
    [
      "ᱠᱟ",
      "ᱯ</w>"
    ],
    [
      "ᱱᱚ",
      "ᱛᱚ</w>"
    ],
    [
      "ᱩᱱ",
      "ᱟᱹᱜ</w>"
    ],
    [
      "ᱱᱟ",
      "ᱶᱟ</w>"
    ],
    [
      "ᱠᱷ",
      "ᱳ"
    ],
    [
      "ᱚ",
      "ᱠᱚᱭ</w>"
    ],
    [
      "ᱛᱷ",
      "ᱟᱹ"
    ],
    [
      "ᱥ",
      "ᱛᱟ"
    ],
    [
      "ᱚᱠ",
      "ᱴᱳ"
    ],
    [
      "ᱵᱮ",
      "ᱵᱚ"
    ],
    [
      "ᱨᱤᱭ",
      "ᱚ</w>"
    ],
    [
      "ᱠᱷᱚᱸ",
      "ᱫᱽ"
    ],
    [
      "ᱫᱚᱠ",
      "ᱠᱷᱤᱱ</w>"
    ],
    [
      "ᱯᱷ",
      "ᱤ</w>"
    ],
    [
      "ᱚᱵᱷᱤ",
      "ᱱᱚᱭ</w>"
    ],
    [
      "ᱨᱚ",
      "ᱲ</w>"
    ],
    [
      "ᱟᱹᱭ",
      "ᱠᱟᱹᱣ</w>"
    ],
    [
      "ᱦᱤ",
      "ᱡᱩ"
    ],
    [
      "ᱥᱮᱢ",
      "ᱞᱮᱫ</w>"
    ],
    [
      "ᱡᱟᱹ",
      "ᱲᱤ</w>"
    ],
    [
      "ᱯᱟᱨᱚ",
      "ᱢ</w>"
    ],
    [
      "ᱠᱟᱹ",
      "ᱭ</w>"
    ],
    [
      "ᱛᱟᱦᱮ",
      "ᱫ</w>"
    ],
    [
      "ᱫᱟᱹ",
      "ᱲ</w>"
    ],
    [
      "ᱜᱟ",
      "ᱣ</w>"
    ],
    [
      "ᱠᱤ",
      "ᱝ</w>"
    ],
    [
      "ᱞᱚ",
      "ᱭ</w>"
    ],
    [
      "ᱢᱚᱱ",
      "ᱛᱨᱤ</w>"
    ],
    [
      "᱑",
      "᱗</w>"
    ],
    [
      "ᱯᱚ",
      "ᱛᱤ</w>"
    ],
    [
      "ᱠᱚ",
      "ᱞᱮ"
    ],
    [
      "ᱡᱚ",
      "ᱲᱟᱣ</w>"
    ],
    [
      "ᱛᱟ",
      "ᱦᱮ</w>"
    ],
    [
      "ᱦ",
      "ᱴᱟ</w>"
    ],
    [
      "ᱵᱟᱝ",
      "ᱞᱟ</w>"
    ],
    [
      "ᱦᱮ",
      "ᱸ</w>"
    ],
    [
      "ᱴᱮᱸ",
      "ᱦᱟ"
    ],
    [
      "ᱫᱟ",
      "ᱨᱮ</w>"
    ],
    [
      "ᱟᱯ",
      "ᱱᱟᱨ</w>"
    ],
    [
      "ᱟ",
      "ᱪ"
    ],
    [
      "ᱞᱮ",
      "ᱱᱰ"
    ],
    [
      "ᱟᱜᱚ",
      "ᱥᱴ</w>"
    ],
    [
      "ᱠᱷᱟᱹ",
      "ᱛᱤᱨ"
    ],
    [
      "ᱪᱟ",
      "ᱪ"
    ],
    [
      "ᱡᱚ",
      "ᱭ</w>"
    ],
    [
      "ᱡᱚ",
      "ᱜ</w>"
    ],
    [
      "ᱯᱚ",
      "ᱫᱚ"
    ],
    [
      "ᱛᱚ",
      "ᱞᱟᱥ</w>"
    ],
    [
      "ᱜᱷ",
      "ᱟᱸ"
    ],
    [
      "ᱥᱚᱝ",
      "ᱥ"
    ],
    [
      "ᱥᱩ",
      "ᱵᱤ"
    ],
    [
      "ᱠ",
      "ᱨᱮ"
    ],
    [
      "ᱥᱮ",
      "ᱵᱟ</w>"
    ],
    [
      "ᱨᱟᱹᱥ",
      "ᱤᱭᱟᱹ</w>"
    ],
    [
      "ᱥᱟ",
      "ᱬ"
    ],
    [
      "ᱡᱚ",
      "ᱱᱟ</w>"
    ],
    [
      "ᱢ",
      "ᱥ</w>"
    ],
    [
      "ᱵᱟ",
      "ᱥ"
    ],
    [
      "ᱛᱮ",
      "ᱜᱮ</w>"
    ],
    [
      "ᱱᱤ",
      "ᱛ"
    ],
    [
      "ᱥᱚ",
      "ᱢᱟᱱ</w>"
    ],
    [
      "ᱛᱤ",
      "ᱠᱤ"
    ],
    [
      "ᱢᱩᱴᱷ",
      "ᱟᱹᱱ</w>"
    ],
    [
      "ᱞ",
      "ᱚ</w>"
    ],
    [
      "ᱫᱤ",
      "ᱱᱟᱹ"
    ],
    [
      "ᱧ",
      "ᱤᱭᱟᱹ</w>"
    ],
    [
      "ᱜᱟᱹ",
      "ᱦᱤᱨ</w>"
    ],
    [
      "ᱠᱚᱢᱯᱤᱭᱩ",
      "ᱴᱟᱨ</w>"
    ],
    [
      "ᱡᱩ",
      "ᱞᱟᱭ</w>"
    ],
    [
      "ᱪᱤ",
      "ᱠᱤᱛ"
    ],
    [
      "ᱯᱟ",
      "ᱞ"
    ],
    [
      "ᱫ",
      "ᱩᱨ"
    ],
    [
      "ᱠᱷᱚ",
      "ᱡ</w>"
    ],
    [
      "ᱜᱚᱲ",
      "ᱦᱚᱱ</w>"
    ],
    [
      "ᱢᱚᱱ",
      "ᱫᱤᱨ</w>"
    ],
    [
      "ᱴ",
      "ᱥ</w>"
    ],
    [
      "ᱠᱚᱨ",
      "ᱚᱱ</w>"
    ],
    [
      "ᱯᱟ",
      "ᱢ</w>"
    ],
    [
      "ᱨᱮ",
      "ᱫ</w>"
    ],
    [
      "ᱵᱩᱡᱷ",
      "ᱟᱹᱣ</w>"
    ],
    [
      "ᱴᱮ",
      "ᱠ"
    ],
    [
      "ᱭ",
      "ᱛᱮ</w>"
    ],
    [
      "ᱯᱚ",
      "ᱭ"
    ],
    [
      "ᱤᱭ",
      "ᱩᱨᱳ"
    ],
    [
      "ᱝ",
      "ᱜᱟ"
    ],
    [
      "ᱞ",
      "ᱛᱮ</w>"
    ],
    [
      "ᱝ",
      "ᱜᱚ"
    ],
    [
      "ᱵᱤ",
      "ᱱ"
    ],
    [
      "ᱩ",
      "ᱢ</w>"
    ],
    [
      "ᱯᱚᱨᱚ",
      "ᱵ</w>"
    ],
    [
      "ᱴ",
      "ᱨᱮ"
    ],
    [
      "ᱟᱹᱭ",
      "ᱫᱟᱹ"
    ],
    [
      "ᱰᱟ",
      "ᱠ"
    ],
    [
      "ᱨᱚ",
      "ᱥᱚᱵᱷᱟ</w>"
    ],
    [
      "ᱥᱩ",
      "ᱞ"
    ],
    [
      "ᱡᱟᱣ",
      "ᱜᱮ</w>"
    ],
    [
      "ᱴᱟ",
      "ᱭ"
    ],
    [
      "ᱮᱥ",
      "ᱹ"
    ],
    [
      "ᱠᱟᱹᱦ",
      "ᱱᱤ</w>"
    ],
    [
      "ᱛᱩ",
      "ᱞᱩ"
    ],
    [
      "ᱢᱮ",
      "ᱠ"
    ],
    [
      "ᱫᱷ",
      "ᱟᱨ"
    ],
    [
      "ᱨᱤ",
      "ᱦᱤᱴ</w>"
    ],
    [
      "ᱮ",
      "ᱨᱟ</w>"
    ],
    [
      "ᱥ",
      "ᱩᱱ"
    ],
    [
      "ᱩ",
      "ᱨ</w>"
    ],
    [
      "ᱡᱟ",
      "ᱭ</w>"
    ],
    [
      "᱑",
      "᱓</w>"
    ],
    [
      "ᱥᱤ",
      "ᱞ"
    ],
    [
      "ᱪᱟᱞ",
      "ᱟᱜᱼᱟ</w>"
    ],
    [
      "ᱛ",
      "ᱛᱚ"
    ],
    [
      "ᱰ",
      "ᱟᱭ"
    ],
    [
      "ᱢᱤ",
      "ᱨ</w>"
    ],
    [
      "ᱛ",
      "ᱨᱚ"
    ],
    [
      "᱒᱐᱑",
      "᱖</w>"
    ],
    [
      "ᱞᱮᱫᱟ",
      "ᱭ,</w>"
    ],
    [
      "ᱤᱫᱤ",
      "ᱠᱟᱛᱮ</w>"
    ],
    [
      "ᱟ",
      "ᱲᱮ</w>"
    ],
    [
      "ᱡᱟᱱᱩ",
      "ᱣᱟᱨᱤ</w>"
    ],
    [
      "ᱤᱭ",
      "ᱳ</w>"
    ],
    [
      "ᱠᱩᱥᱤ",
      "ᱭᱟᱜ</w>"
    ],
    [
      "ᱠᱩᱢ",
      "ᱟᱨ</w>"
    ],
    [
      "ᱤᱭ",
      "ᱩ</w>"
    ],
    [
      "ᱱᱚᱝ",
      "ᱠᱟ</w>"
    ],
    [
      "ᱵᱟᱹᱱᱩ",
      "ᱜᱼᱟ</w>"
    ],
    [
      "ᱚᱪᱚ",
      "ᱜ</w>"
    ],
    [
      "ᱴᱚᱴᱷ",
      "ᱟᱨᱮ</w>"
    ],
    [
      "ᱚ",
      "ᱛ</w>"
    ],
    [
      "ᱡᱳᱭ",
      "ᱱᱚ</w>"
    ],
    [
      "ᱱᱟ",
      "ᱢ"
    ],
    [
      "ᱛᱟ",
      "ᱢᱟ</w>"
    ],
    [
      "ᱨ",
      "ᱛᱤ</w>"
    ],
    [
      "ᱱ",
      "ᱥ</w>"
    ],
    [
      "ᱴᱤ",
      "ᱱ</w>"
    ],
    [
      "ᱪ",
      "ᱮᱱ"
    ],
    [
      "ᱧᱮᱞᱚ",
      "ᱜᱼᱟ</w>"
    ],
    [
      "ᱠᱷᱚᱨ",
      "ᱪᱟ</w>"
    ],
    [
      "ᱪᱪᱷ",
      "ᱟ</w>"
    ],
    [
      "ᱢᱚ",
      "ᱱᱮ"
    ],
    [
      "ᱦᱚ",
      "ᱠᱤ</w>"
    ],
    [
      "ᱩ",
      "ᱢᱟᱹᱱ</w>"
    ],
    [
      "ᱤᱱ",
      "ᱴᱟᱨ"
    ],
    [
      "ᱠᱚ",
      "ᱞ</w>"
    ],
    [
      "ᱥᱴ",
      "ᱳ"
    ],
    [
      "ᱛᱚ",
      "ᱱ"
    ],
    [
      "ᱦᱚ",
      "ᱞ</w>"
    ],
    [
      "ᱸ",
      "ᱰ</w>"
    ],
    [
      "ᱵ",
      "ᱨᱚ"
    ],
    [
      "ᱩ",
      "ᱞ"
    ],
    [
      "᱑᱙",
      "᱓"
    ],
    [
      "ᱜᱷᱟᱨᱚᱸ",
      "ᱡᱽ</w>"
    ],
    [
      "ᱢᱤ",
      "ᱱ</w>"
    ],
    [
      "ᱷ",
      "ᱟ"
    ],
    [
      "ᱥᱟᱫᱷᱟᱨᱚ",
      "ᱱᱚᱛᱚ</w>"
    ],
    [
      "ᱫᱷᱟᱹ",
      "ᱵᱤᱪ</w>"
    ],
    [
      "᱒᱐᱑",
      "᱕</w>"
    ],
    [
      "ᱢᱚ",
      "ᱦᱟᱨᱟ"
    ],
    [
      "ᱛᱟ",
      "ᱝ</w>"
    ],
    [
      "ᱯ",
      "ᱨᱮ"
    ],
    [
      "ᱢ",
      "ᱞᱟ</w>"
    ],
    [
      "ᱢᱚ",
      "ᱱᱤ"
    ],
    [
      "ᱜᱟ",
      "ᱭᱟᱱ</w>"
    ],
    [
      "ᱞᱚ",
      "ᱠ"
    ],
    [
      "ᱪᱩ",
      "ᱠᱛᱤ</w>"
    ],
    [
      "ᱟ",
      "ᱞᱮ</w>"
    ],
    [
      "ᱵᱮ",
      "ᱯᱟᱨ"
    ],
    [
      "ᱱᱤ",
      "ᱥ"
    ],
    [
      "ᱚᱠᱴᱳ",
      "ᱵᱚᱨ</w>"
    ],
    [
      "ᱪᱚ",
      "ᱞ</w>"
    ],
    [
      "ᱜᱟ",
      "ᱡᱳ"
    ],
    [
      "ᱢᱟᱨ",
      "ᱥᱟᱞ</w>"
    ],
    [
      "ᱢᱤᱞ",
      "ᱱᱟ"
    ],
    [
      "ᱯᱚᱛᱚ",
      "ᱵ</w>"
    ],
    [
      "ᱩᱨ",
      "ᱤ</w>"
    ],
    [
      "ᱵᱤ",
      "ᱥᱮᱥ</w>"
    ],
    [
      "ᱜᱟ",
      "ᱶᱛᱟ</w>"
    ],
    [
      "ᱡᱟ",
      "ᱯ"
    ],
    [
      "ᱥᱮ",
      "ᱞᱮ"
    ],
    [
      "ᱠᱟ",
      "ᱭ</w>"
    ],
    [
      "ᱤᱧ",
      "ᱤᱧ</w>"
    ],
    [
      "ᱜᱷᱚ",
      "ᱴᱟᱣ</w>"
    ],
    [
      "ᱥᱟᱹ",
      "ᱜᱤᱧ</w>"
    ],
    [
      "ᱠᱷᱟᱹ",
      "ᱞᱤ</w>"
    ],
    [
      "ᱞᱚ",
      "ᱜ</w>"
    ],
    [
      "ᱢᱟᱨᱟ",
      "ᱴᱷᱟ</w>"
    ],
    [
      "ᱛᱷ",
      "ᱮ"
    ],
    [
      "ᱢ",
      "ᱨᱮ</w>"
    ],
    [
      "᱐",
      ",᱐᱐᱐</w>"
    ],
    [
      "ᱱᱰ",
      "ᱚ</w>"
    ],
    [
      "ᱴᱟ",
      "ᱭᱤ"
    ],
    [
      "ᱞᱟ",
      "ᱠᱷ</w>"
    ],
    [
      "ᱤ",
      "ᱨᱟᱹ"
    ],
    [
      "ᱥᱮ",
      "ᱱᱟ</w>"
    ],
    [
      "᱒",
      "᱔</w>"
    ],
    [
      "ᱟᱹ",
      "ᱲᱤ"
    ],
    [
      "ᱯᱟᱨ",
      "ᱟ"
    ],
    [
      "ᱦᱩ",
      "</w>"
    ],
    [
      "ᱸ",
      "ᱰ"
    ],
    [
      "ᱯᱷᱮᱰᱟ",
      "ᱛ</w>"
    ],
    [
      "ᱱᱮ",
      "ᱛᱟ</w>"
    ],
    [
      "ᱛᱚ",
      "ᱞ</w>"
    ],
    [
      "ᱛᱤ",
      "ᱥ</w>"
    ],
    [
      "ᱵᱷᱤ",
      "ᱛᱤᱨ</w>"
    ],
    [
      "ᱯᱷ",
      "ᱟ</w>"
    ],
    [
      "ᱜ",
      ",</w>"
    ],
    [
      "ᱫᱤᱱᱟᱹ",
      "ᱢ</w>"
    ],
    [
      "ᱥᱟ",
      "ᱥ</w>"
    ],
    [
      "ᱨᱩᱠᱷ",
      "ᱤᱭᱟᱹ</w>"
    ],
    [
      "ᱰ",
      "ᱤᱭᱟ</w>"
    ],
    [
      "ᱠᱤᱪᱷ",
      "ᱤ</w>"
    ],
    [
      "ᱵᱮᱣ",
      "ᱦᱟᱨᱚ"
    ],
    [
      "ᱪᱚᱨ",
      "ᱤ"
    ],
    [
      "ᱥᱟᱹ",
      "ᱵᱩ"
    ],
    [
      "ᱵᱷᱟᱭ",
      "ᱨᱟᱥ</w>"
    ],
    [
      "ᱩ",
      "ᱯᱟᱹᱭ</w>"
    ],
    [
      "ᱥᱤ",
      "ᱛᱩ"
    ],
    [
      "ᱪᱷᱟ",
      "ᱰᱟ</w>"
    ],
    [
      "ᱠᱟᱹ",
      "ᱭ"
    ],
    [
      "ᱟᱭ",
      "ᱹ"
    ],
    [
      "ᱵ",
      "ᱟᱜ"
    ],
    [
      "ᱤ",
      "ᱱ</w>"
    ],
    [
      "ᱯᱟᱴᱷ",
      "</w>"
    ],
    [
      "ᱠᱟᱨ",
      "ᱰ</w>"
    ],
    [
      "ᱡᱚᱯ",
      "ᱲᱟᱣ</w>"
    ],
    [
      ".",
      "</w>"
    ],
    [
      "ᱵᱟ",
      "ᱡᱟᱨ</w>"
    ],
    [
      "ᱯᱟ",
      "ᱦᱟ"
    ],
    [
      "ᱨ",
      ",</w>"
    ],
    [
      "ᱼ",
      "ᱨᱮ</w>"
    ],
    [
      "ᱧᱮ",
      "ᱧᱮᱞ"
    ],
    [
      "ᱵᱤᱨᱤ",
      "ᱫ</w>"
    ],
    [
      "ᱰᱚ",
      "ᱜᱚᱨ</w>"
    ],
    [
      "ᱟᱹ",
      "ᱨᱩ"
    ],
    [
      "ᱥᱚ",
      "ᱯᱷ"
    ],
    [
      "ᱨᱚ",
      "ᱞ</w>"
    ],
    [
      "ᱱ",
      "ᱮᱴ"
    ],
    [
      "ᱠ",
      ",</w>"
    ],
    [
      "ᱠᱚ",
      ",</w>"
    ],
    [
      "ᱨᱮ",
      "ᱢ</w>"
    ],
    [
      "ᱭ",
      "ᱟᱹ"
    ],
    [
      "ᱢᱟ",
      "ᱨᱮ</w>"
    ],
    [
      "ᱠ",
      "ᱟᱜ</w>"
    ],
    [
      "ᱧ",
      "ᱩ</w>"
    ],
    [
      "ᱵᱟᱨ",
      "ᱦᱮ</w>"
    ],
    [
      "ᱨᱚ",
      "ᱠ"
    ],
    [
      "ᱫᱟ",
      "ᱢ</w>"
    ],
    [
      "ᱯᱩᱨ",
      "ᱩ"
    ],
    [
      "ᱛᱮ",
      "ᱦᱚᱸ</w>"
    ],
    [
      "ᱨᱮ",
      "ᱭᱟ"
    ],
    [
      "ᱱᱚ",
      "ᱠ"
    ],
    [
      "ᱚᱥᱴᱨᱮ",
      "ᱞᱤᱭᱟ</w>"
    ],
    [
      "ᱡᱟᱸ",
      "ᱦᱟ</w>"
    ],
    [
      "ᱠᱩᱨᱩᱢᱩ",
      "ᱴᱩ</w>"
    ],
    [
      "ᱢᱩᱬ",
      "ᱩᱛ</w>"
    ],
    [
      "ᱠᱟᱹᱣ",
      "ᱰᱤ"
    ],
    [
      "ᱦᱟᱹ",
      "ᱛ</w>"
    ],
    [
      "ᱞᱚ",
      "ᱞᱚ"
    ],
    [
      "ᱫᱚ",
      "ᱦᱚ"
    ],
    [
      "ᱦᱟᱨ",
      "ᱛᱟ</w>"
    ],
    [
      "ᱢᱚ",
      "ᱛ</w>"
    ],
    [
      "ᱯᱟᱹ",
      "ᱦᱤᱞ</w>"
    ],
    [
      "ᱠᱮ",
      "ᱴᱚ"
    ],
    [
      "ᱵᱤᱨᱩ",
      "ᱫ</w>"
    ],
    [
      "ᱟᱜ",
      "ᱟᱢ</w>"
    ],
    [
      "ᱯ",
      "ᱞᱮ"
    ],
    [
      "ᱪᱤᱠᱤᱛ",
      "ᱥᱟ</w>"
    ],
    [
      "ᱡᱳ",
      "ᱜᱟᱡᱳ"
    ],
    [
      "ᱤ",
      "ᱱᱫ"
    ],
    [
      "ᱤᱨᱟᱹ",
      "ᱞ</w>"
    ],
    [
      "ᱠᱳ",
      "ᱨ"
    ],
    [
      "ᱥᱴ",
      "ᱨᱚ"
    ],
    [
      "ᱥᱟ",
      "ᱢᱟᱱ</w>"
    ],
    [
      "᱔",
      "᱐</w>"
    ],
    [
      "ᱴ",
      "ᱚ</w>"
    ],
    [
      "ᱵᱮᱝ",
      "ᱠ</w>"
    ],
    [
      "ᱛᱟᱹ",
      "ᱞᱤᱠᱟ</w>"
    ],
    [
      "ᱜᱩ",
      "ᱯ"
    ],
    [
      "ᱛᱤᱠᱤ",
      "ᱪᱪᱷᱟ</w>"
    ],
    [
      "ᱯᱷᱳ",
      "ᱱ</w>"
    ],
    [
      "ᱯᱳᱣ",
      "ᱨᱚᱥᱚᱵᱷᱟ</w>"
    ],
    [
      "ᱯᱟᱹ",
      "ᱣ"
    ],
    [
      "ᱚᱠᱛᱚ",
      "ᱨᱮ</w>"
    ],
    [
      "ᱥᱮᱨᱢᱟ",
      "ᱠᱤᱭᱟᱹ</w>"
    ],
    [
      "ᱥᱟᱹ",
      "ᱨᱟ</w>"
    ],
    [
      "ᱯᱷᱮ",
      "ᱵ"
    ],
    [
      "ᱣ",
      "ᱮ</w>"
    ],
    [
      "ᱴᱚᱴᱷ",
      "ᱟ"
    ],
    [
      "ᱥᱟᱢ",
      "ᱲᱟᱣ</w>"
    ],
    [
      "ᱰ",
      "ᱮᱱ"
    ],
    [
      "ᱫᱟᱨ",
      "ᱦᱟ</w>"
    ],
    [
      "ᱠ",
      "ᱨᱤ</w>"
    ],
    [
      "ᱯᱚ",
      "ᱥ"
    ],
    [
      "ᱞᱟᱹᱜᱤ",
      "ᱫ,</w>"
    ],
    [
      "ᱩ",
      "ᱰᱷ"
    ],
    [
      "ᱜᱳ",
      "ᱞ"
    ],
    [
      "ᱛᱟᱸ",
      "ᱦᱮ"
    ],
    [
      "ᱦᱤᱱ",
      "ᱫᱤ</w>"
    ],
    [
      "᱑",
      "᱐᱐</w>"
    ],
    [
      "ᱯᱚ",
      "ᱲ"
    ],
    [
      "᱒᱐",
      "᱒᱑</w>"
    ],
    [
      "ᱴᱮ",
      "ᱞᱤ"
    ],
    [
      "ᱠᱞᱟ",
      "ᱵᱽ</w>"
    ],
    [
      "ᱴ",
      "ᱮᱱ"
    ],
    [
      "ᱢᱟᱭ",
      "ᱟᱢ</w>"
    ],
    [
      "ᱨᱮ",
      "ᱹ"
    ],
    [
      "ᱟᱹᱲ",
      "ᱟᱹ</w>"
    ],
    [
      "ᱵᱚᱱᱚ",
      "ᱫᱚᱞ</w>"
    ],
    [
      "ᱜᱟᱞᱚ",
      "ᱪ</w>"
    ],
    [
      "ᱵᱮ",
      "ᱠ"
    ],
    [
      "ᱱᱟᱜᱟ",
      "ᱢᱤᱭᱟᱹ</w>"
    ],
    [
      "ᱟᱜ",
      "ᱼᱮ</w>"
    ],
    [
      "ᱯᱟ",
      "ᱦᱴᱟ</w>"
    ],
    [
      "ᱢᱟ",
      "ᱱᱤ</w>"
    ],
    [
      "ᱢᱚ",
      "ᱥ</w>"
    ],
    [
      "ᱞᱟ",
      "ᱭᱤ"
    ],
    [
      "ᱚ",
      "ᱯᱷᱤ"
    ],
    [
      "ᱜᱷᱟᱸ",
      "ᱨᱚ"
    ],
    [
      "ᱤᱭ",
      "ᱮ"
    ],
    [
      "ᱨᱟ",
      "ᱢ"
    ],
    [
      "ᱛ",
      "ᱨᱟ</w>"
    ],
    [
      "ᱦᱤᱥᱟᱹ",
      "ᱵ</w>"
    ],
    [
      "ᱩᱛᱛᱚᱨ",
      "ᱼ"
    ],
    [
      "ᱨᱟ",
      "ᱡᱚ"
    ],
    [
      "ᱛᱮ",
      "ᱦᱮ"
    ],
    [
      "ᱚᱨ",
      "ᱤᱠ</w>"
    ],
    [
      "ᱜᱮ",
      "ᱢᱮ"
    ],
    [
      "ᱮᱴ",
      "ᱠᱮᱴᱚ"
    ],
    [
      "ᱢᱤᱫ",
      "ᱴᱮᱱ</w>"
    ],
    [
      "ᱠᱤᱪᱷ",
      "ᱩ"
    ],
    [
      "ᱵᱤ",
      "ᱡᱽ"
    ],
    [
      "ᱞᱚ",
      "ᱱᱰ"
    ],
    [
      "ᱫᱤ",
      "ᱥ</w>"
    ],
    [
      "ᱮᱱ",
      "ᱹ"
    ],
    [
      "ᱛᱟ",
      "ᱢᱤᱞᱱᱟ"
    ],
    [
      "ᱡᱤ",
      "ᱱ</w>"
    ],
    [
      "ᱛᱚ",
      "ᱜ</w>"
    ],
    [
      "ᱛᱷᱟᱭ",
      "ᱤ</w>"
    ],
    [
      "ᱠᱷ",
      "ᱮᱱ</w>"
    ],
    [
      "ᱠᱳ",
      "ᱥ</w>"
    ],
    [
      "ᱠᱮ",
      "ᱴᱮᱡ</w>"
    ],
    [
      "ᱚ",
      "ᱵᱚ"
    ],
    [
      "ᱦᱟ",
      "ᱥᱯᱟ"
    ],
    [
      "ᱪᱤᱱ",
      "ᱦᱟᱹ"
    ],
    [
      "ᱡᱮᱜᱮ",
      "ᱛ</w>"
    ],
    [
      "ᱴ",
      "ᱮ</w>"
    ],
    [
      "ᱵᱷᱟᱵᱽ",
      "ᱱᱟ</w>"
    ],
    [
      "ᱟᱭ",
      "ᱳ</w>"
    ],
    [
      "ᱡ",
      "ᱚᱨ</w>"
    ],
    [
      "ᱱᱤᱭ",
      "ᱩ"
    ],
    [
      "ᱠᱚ",
      "ᱢᱤ"
    ],
    [
      "ᱵᱟᱝ",
      "ᱠᱚ</w>"
    ],
    [
      "ᱥᱮ",
      "ᱫᱟᱭ</w>"
    ],
    [
      "ᱞᱟ",
      "ᱢ</w>"
    ],
    [
      "ᱵᱷᱮ",
      "ᱡᱟ</w>"
    ],
    [
      "ᱡᱩ",
      "ᱣ"
    ],
    [
      "ᱠᱷᱮᱞᱚ",
      "ᱰ</w>"
    ],
    [
      "ᱤᱝ",
      "ᱞᱮᱱᱰ</w>"
    ],
    [
      "ᱛᱟ",
      "ᱭ"
    ],
    [
      "ᱢᱟᱹ",
      "ᱦᱤᱛ</w>"
    ],
    [
      "ᱠᱨᱤ",
      "ᱥ"
    ],
    [
      "ᱟᱨ",
      "ᱤᱭᱟᱹ</w>"
    ],
    [
      "ᱟᱢᱮᱨᱤ",
      "ᱠᱟᱱ</w>"
    ],
    [
      "ᱵᱤ",
      "ᱫᱷ"
    ],
    [
      "᱒",
      "᱓</w>"
    ],
    [
      "ᱪᱟ",
      "ᱼ"
    ],
    [
      "ᱧᱟ",
      "ᱢᱟ</w>"
    ],
    [
      "!",
      "</w>"
    ],
    [
      "ᱦᱟᱹ",
      "ᱯᱤᱫ</w>"
    ],
    [
      "ᱫᱷ",
      "ᱩ"
    ],
    [
      "ᱠᱷᱚ",
      "ᱱ"
    ],
    [
      "ᱡᱚ",
      "ᱢᱟ</w>"
    ],
    [
      "ᱰ",
      "ᱮᱞ</w>"
    ],
    [
      "ᱢ",
      "ᱟᱨ</w>"
    ],
    [
      "ᱯᱟ",
      "ᱥ</w>"
    ],
    [
      "ᱥᱴᱮ",
      "ᱥᱚᱱ</w>"
    ],
    [
      "ᱞᱟᱹ",
      "ᱲ</w>"
    ],
    [
      "ᱡᱳ",
      "ᱨ</w>"
    ],
    [
      "ᱵᱟ",
      "ᱦ"
    ],
    [
      "ᱥ",
      "ᱨᱮ</w>"
    ],
    [
      "ᱜᱮ",
      ",</w>"
    ],
    [
      "ᱵᱽ",
      "ᱫᱚ</w>"
    ],
    [
      "ᱛᱟ",
      "ᱠᱚᱣᱟ</w>"
    ],
    [
      "ᱴᱷ",
      "ᱤ</w>"
    ],
    [
      "ᱴ",
      "ᱚᱨ"
    ],
    [
      "ᱥᱤ",
      "ᱞ</w>"
    ],
    [
      "ᱛᱚ",
      "ᱠ</w>"
    ],
    [
      "ᱞᱤ",
      "ᱝ</w>"
    ],
    [
      "ᱟ",
      "ᱰᱟ</w>"
    ],
    [
      "ᱠᱷᱟᱹᱛᱤᱨ",
      "ᱛᱮ</w>"
    ],
    [
      "ᱢᱤᱫ",
      "ᱴᱟᱱ</w>"
    ],
    [
      "ᱦᱮ",
      "ᱪ</w>"
    ],
    [
      "ᱟᱠᱟ",
      "ᱫᱮᱭᱟ</w>"
    ],
    [
      "ᱠᱟᱹ",
      "ᱦᱤᱞ</w>"
    ],
    [
      "ᱡᱟᱯ",
      "ᱟᱱ</w>"
    ],
    [
      "ᱛ",
      "ᱟᱹ</w>"
    ],
    [
      "ᱩᱱᱤ",
      "ᱨᱮᱱ</w>"
    ],
    [
      "ᱛ",
      "ᱟᱜ</w>"
    ],
    [
      "ᱚᱱ",
      "ᱥᱤᱯ</w>"
    ],
    [
      "ᱴᱮᱦᱟ",
      "ᱴ</w>"
    ],
    [
      "ᱥᱟᱯ",
      "ᱲᱟᱣ"
    ],
    [
      "ᱜᱟᱹ",
      "ᱠᱷᱩ"
    ],
    [
      "ᱵᱷ",
      "ᱚᱨ"
    ],
    [
      "ᱫᱚ",
      ",</w>"
    ],
    [
      "ᱨᱟᱡᱽ",
      "ᱟᱹᱨᱤ</w>"
    ],
    [
      "ᱴᱷᱟ",
      "ᱶ"
    ],
    [
      "ᱦᱚᱭᱩ",
      "ᱜ</w>"
    ],
    [
      "ᱨᱩᱣ",
      "ᱟᱹ</w>"
    ],
    [
      "ᱦᱤ",
      "ᱱᱤ</w>"
    ],
    [
      "ᱠᱤᱪᱷ",
      "ᱟ</w>"
    ],
    [
      "ᱢᱟ",
      "ᱱᱟᱜ</w>"
    ],
    [
      "ᱯ",
      "ᱚ</w>"
    ],
    [
      "ᱫᱚ",
      "ᱠᱚ</w>"
    ],
    [
      "ᱪᱟ",
      "ᱪᱟᱞᱟᱣ</w>"
    ],
    [
      "ᱪᱮ",
      "ᱛᱟ"
    ],
    [
      "ᱠᱟ",
      "ᱞ</w>"
    ],
    [
      "ᱪᱮ",
      "ᱢᱯᱤᱭ"
    ],
    [
      "ᱥᱮ",
      "ᱪ</w>"
    ],
    [
      "ᱟ",
      "ᱠ</w>"
    ],
    [
      "ᱜ",
      "ᱟᱹᱱ</w>"
    ],
    [
      "ᱥᱚ",
      "ᱲᱚ"
    ],
    [
      "ᱥᱟ",
      "ᱦᱚ</w>"
    ],
    [
      "ᱫᱩ",
      "ᱞᱟᱹᱲ</w>"
    ],
    [
      "᱒᱐᱐",
      "᱗</w>"
    ],
    [
      "᱑",
      ","
    ],
    [
      "᱒᱐᱐",
      "᱐</w>"
    ],
    [
      "ᱥᱤᱭ",
      "ᱟᱱ</w>"
    ],
    [
      "ᱡᱟᱦᱟᱸ",
      "ᱛᱮ</w>"
    ],
    [
      "ᱠᱷᱨᱤᱥᱴᱟ",
      "ᱵᱫᱚ</w>"
    ],
    [
      "ᱵᱩ",
      "ᱴᱟᱹ</w>"
    ],
    [
      "ᱵᱚ",
      "ᱲ"
    ],
    [
      "ᱱᱤ",
      "ᱦᱟᱹᱛ</w>"
    ],
    [
      "ᱤᱱᱰ",
      "ᱤᱭᱟ</w>"
    ],
    [
      "ᱧᱩ",
      "ᱢ</w>"
    ],
    [
      "ᱜ",
      "ᱮᱭ"
    ],
    [
      "ᱥᱮ",
      "ᱞ"
    ],
    [
      "ᱤᱭ",
      "ᱳ"
    ],
    [
      "ᱥᱟ",
      "ᱯᱟ"
    ],
    [
      "ᱞᱚ",
      "ᱥ</w>"
    ],
    [
      "ᱟᱭ",
      "ᱢᱟᱜ"
    ],
    [
      "ᱡᱩ",
      "ᱜᱽ</w>"
    ],
    [
      "ᱠᱟᱹᱢᱤ",
      "ᱭᱟ</w>"
    ],
    [
      "ᱪᱚ",
      "ᱱᱫ"
    ],
    [
      "ᱧ",
      "ᱟᱢ"
    ],
    [
      "ᱥᱴ",
      "ᱨᱳ"
    ],
    [
      "ᱡᱤ",
      "ᱞ</w>"
    ],
    [
      "ᱱᱟ",
      "ᱱ</w>"
    ],
    [
      "ᱜᱮ",
      "ᱫ</w>"
    ],
    [
      "ᱥᱳ",
      "ᱨ</w>"
    ],
    [
      "ᱢᱩ",
      "ᱢ"
    ],
    [
      "ᱯᱟᱹ",
      "ᱴᱷ"
    ],
    [
      "ᱫᱟ",
      "ᱭ"
    ],
    [
      "ᱵᱚᱭ",
      "ᱦᱟ</w>"
    ],
    [
      "ᱥᱟᱹᱦᱤ",
      "ᱡ</w>"
    ],
    [
      "ᱢᱮ",
      "ᱱᱟ"
    ],
    [
      "ᱚᱱᱚ",
      "ᱞᱤᱭᱟᱹ</w>"
    ],
    [
      "ᱫᱷᱩᱨ",
      "ᱭᱟᱹ</w>"
    ],
    [
      "ᱯᱟ",
      "ᱭ"
    ],
    [
      "ᱜᱨᱟ",
      "ᱢ</w>"
    ],
    [
      "ᱵᱷ",
      "ᱮᱱ"
    ],
    [
      "ᱵᱳᱨ",
      "ᱰ</w>"
    ],
    [
      "ᱟᱭ",
      "ᱳ"
    ],
    [
      "ᱱᱟ",
      "ᱛᱷ</w>"
    ],
    [
      "ᱯᱚᱫᱚ",
      "ᱠ</w>"
    ],
    [
      "ᱥᱩᱭ",
      "ᱰᱮᱱ</w>"
    ],
    [
      "ᱠᱷᱤ",
      "ᱱᱼ"
    ],
    [
      "ᱤᱝ",
      "ᱨᱮ"
    ],
    [
      "ᱜᱟ",
      "ᱲ"
    ],
    [
      "ᱥᱟᱨ",
      "ᱵᱷᱟᱨ</w>"
    ],
    [
      "ᱮ",
      "ᱢᱚᱜᱼᱟ</w>"
    ],
    [
      "ᱢᱮᱱ",
      "ᱮ"
    ],
    [
      "ᱡᱩᱣ",
      "ᱟᱹᱱ</w>"
    ],
    [
      "ᱨᱤ",
      "ᱥ</w>"
    ],
    [
      "ᱠᱚᱨ",
      "ᱱᱟ"
    ],
    [
      "ᱥᱟᱹᱦᱤ",
      "ᱛᱨᱮ</w>"
    ],
    [
      "ᱠᱮ",
      "ᱨᱟ"
    ],
    [
      "ᱭ",
      "ᱟᱹᱲ</w>"
    ],
    [
      "ᱨᱚ",
      "ᱢ</w>"
    ],
    [
      "᱒᱐᱐",
      "᱙</w>"
    ],
    [
      "ᱚ",
      "ᱢ"
    ],
    [
      "ᱩᱨ",
      "ᱜᱟᱹᱱ</w>"
    ],
    [
      "ᱞᱤᱸ",
      "ᱜᱤ"
    ],
    [
      "ᱯᱩᱨ",
      "ᱩᱵ</w>"
    ],
    [
      "ᱦᱟᱥᱯᱟ",
      "ᱛᱟᱞ</w>"
    ],
    [
      "ᱚ",
      "ᱞ"
    ],
    [
      "ᱪ",
      "ᱚᱠ"
    ],
    [
      "ᱵᱷᱟ",
      "ᱵ"
    ],
    [
      "ᱞᱟ",
      ",</w>"
    ],
    [
      "ᱱᱩ",
      "ᱠᱩ</w>"
    ],
    [
      "ᱯᱷ",
      "ᱨᱟᱱ"
    ],
    [
      "ᱡ",
      "ᱟᱹ</w>"
    ],
    [
      "ᱠᱤ",
      "ᱞ</w>"
    ],
    [
      "ᱠᱟᱱᱟ",
      "᱾</w>"
    ],
    [
      "ᱜᱚ",
      "ᱵᱚᱞ</w>"
    ],
    [
      "ᱛ",
      ",</w>"
    ],
    [
      "ᱵᱤᱪᱟᱹ",
      "ᱨ</w>"
    ],
    [
      "ᱵᱷᱟᱨᱚᱛ",
      "ᱤᱭᱟᱹ</w>"
    ],
    [
      "ᱟᱭᱢᱟᱜ",
      "ᱟᱱ</w>"
    ],
    [
      "ᱟᱭ",
      "ᱟ</w>"
    ],
    [
      "ᱥᱤᱛᱩ",
      "ᱝ</w>"
    ],
    [
      "᱖",
      "᱐</w>"
    ],
    [
      "ᱫᱟᱹ",
      "ᱵᱤ</w>"
    ],
    [
      "ᱧᱮᱧᱮᱞ",
      "ᱤᱭᱟᱹ</w>"
    ],
    [
      "ᱴ",
      "ᱩᱨ"
    ],
    [
      "ᱵᱚ",
      "ᱠ"
    ],
    [
      "ᱫᱷ",
      "ᱟᱨᱚ"
    ],
    [
      "ᱪᱚᱨᱤ",
      "ᱛ</w>"
    ],
    [
      "ᱯᱚᱭ",
      "ᱮᱱᱴ</w>"
    ],
    [
      "ᱠᱮ",
      "ᱨᱚᱞ</w>"
    ],
    [
      "ᱥᱴ",
      "ᱟᱨ"
    ],
    [
      "ᱢᱚ",
      "ᱥ"
    ],
    [
      "ᱮᱭ",
      "ᱟᱨ</w>"
    ],
    [
      "ᱦᱟ",
      "ᱢᱟᱞ</w>"
    ],
    [
      "ᱯᱟ",
      "ᱛ</w>"
    ],
    [
      "ᱯᱩ",
      "ᱥᱴ"
    ],
    [
      "ᱞᱤ",
      "ᱯᱤ</w>"
    ],
    [
      "ᱛᱤ",
      "ᱱ</w>"
    ],
    [
      "ᱟᱣ",
      "ᱩ"
    ],
    [
      "ᱫᱟ",
      "ᱵᱟ</w>"
    ],
    [
      "ᱮ",
      "ᱥᱮᱫ</w>"
    ],
    [
      "ᱲ",
      "ᱩᱵ</w>"
    ],
    [
      "ᱢᱮ",
      "ᱛᱟ"
    ],
    [
      "ᱞ",
      "ᱰ</w>"
    ],
    [
      "᱒",
      "᱗</w>"
    ],
    [
      "ᱛᱤ",
      "ᱸ"
    ],
    [
      "ᱥᱤ",
      "ᱫ</w>"
    ],
    [
      "ᱝ",
      "ᱜᱚ</w>"
    ],
    [
      "ᱵᱤ",
      "ᱱᱤᱭ"
    ],
    [
      "ᱥᱩᱵᱤ",
      "ᱫᱷᱟ</w>"
    ],
    [
      "ᱭᱤ",
      "ᱞ</w>"
    ],
    [
      "ᱨᱤ",
      "ᱠ</w>"
    ],
    [
      "ᱡᱟ",
      "ᱛᱤᱭᱚ</w>"
    ],
    [
      "ᱢᱤ",
      "ᱭᱟ</w>"
    ],
    [
      "ᱮᱱ",
      "ᱠᱷᱟᱱ,</w>"
    ],
    [
      "ᱢᱮᱛ",
      "ᱟᱜᱼᱟ</w>"
    ],
    [
      "ᱯᱚ",
      "ᱞ"
    ],
    [
      "ᱱᱤ",
      "ᱨ"
    ],
    [
      "ᱵᱮ",
      "ᱞ</w>"
    ],
    [
      "ᱩᱰ",
      "ᱩᱠ</w>"
    ],
    [
      "ᱫᱩᱨᱤ",
      "ᱵᱽ</w>"
    ],
    [
      "ᱤ",
      "ᱫ"
    ],
    [
      "ᱥᱤᱨ",
      "ᱯᱟᱹᱭ</w>"
    ],
    [
      "ᱢᱚᱨ",
      "ᱥᱩᱢ</w>"
    ],
    [
      "ᱥᱟᱥᱚ",
      "ᱱᱤᱭᱟᱹ</w>"
    ],
    [
      ")",
      ",</w>"
    ],
    [
      "ᱦᱤ",
      "ᱨᱟᱹᱣ</w>"
    ],
    [
      "ᱠ",
      "ᱩᱱ"
    ],
    [
      "ᱩᱫ",
      "ᱜᱟᱹᱣ</w>"
    ],
    [
      "ᱢᱩᱥ",
      "ᱞᱟᱹ</w>"
    ],
    [
      "ᱵ",
      "ᱚᱨᱚ"
    ],
    [
      "ᱵᱟᱹ",
      "ᱭ</w>"
    ],
    [
      "ᱠᱟᱱᱟ",
      "ᱰᱟ</w>"
    ],
    [
      "ᱛᱟᱸ",
      "ᱦᱮ</w>"
    ],
    [
      "ᱞᱟᱹ",
      "ᱭ"
    ],
    [
      "ᱞᱟᱹᱠ",
      "ᱛᱤ"
    ],
    [
      "ᱯᱟ",
      "ᱲ"
    ],
    [
      "ᱡᱟ",
      "ᱱ</w>"
    ],
    [
      "ᱨᱩᱣ",
      "ᱟᱨᱤ</w>"
    ],
    [
      "ᱢ",
      "ᱩ</w>"
    ],
    [
      "ᱯᱨᱚ",
      "ᱛᱤ</w>"
    ],
    [
      "ᱛᱟ",
      "ᱲᱟᱢ</w>"
    ],
    [
      "ᱢᱟ",
      "ᱱᱚ"
    ],
    [
      "ᱟᱭᱤ",
      "ᱱ</w>"
    ],
    [
      "ᱨᱤ",
      "ᱡᱷ"
    ],
    [
      "ᱛᱷᱚ",
      "ᱲᱟ</w>"
    ],
    [
      "ᱫᱷᱟ",
      "ᱨᱮ</w>"
    ],
    [
      "ᱫ",
      "ᱫᱷᱚ</w>"
    ],
    [
      "ᱜᱟ",
      "ᱣ"
    ],
    [
      "ᱟ",
      "ᱪ</w>"
    ],
    [
      "ᱪᱟᱹ",
      "ᱞᱩ</w>"
    ],
    [
      "ᱵᱤ",
      "ᱨᱟᱹ"
    ],
    [
      "ᱠᱟᱨ",
      "ᱛᱮ</w>"
    ],
    [
      "ᱟᱹᱭᱫᱟᱹ",
      "ᱨ</w>"
    ],
    [
      "ᱩᱱ",
      "ᱠᱚᱣᱟᱜ</w>"
    ],
    [
      "ᱭᱮ",
      "ᱰ</w>"
    ],
    [
      "ᱥ",
      "ᱯ"
    ],
    [
      "ᱦᱩ",
      "ᱠᱩ"
    ],
    [
      "ᱩᱰᱷ",
      "ᱟᱹᱣ</w>"
    ],
    [
      "ᱱᱚ",
      "ᱜᱚᱨ</w>"
    ],
    [
      "ᱵ",
      "ᱨᱮ"
    ],
    [
      "ᱫᱷ",
      "ᱚᱱ</w>"
    ],
    [
      "ᱥ",
      "ᱛᱟᱱ</w>"
    ],
    [
      "ᱨᱟ",
      "ᱵᱟᱝ</w>"
    ],
    [
      "ᱮ",
      "ᱱᱟ,</w>"
    ],
    [
      "ᱢᱚᱱ",
      "ᱫᱤᱞ</w>"
    ],
    [
      "ᱮᱱ",
      "ᱴᱤ"
    ],
    [
      "ᱡᱮ",
      "ᱴ</w>"
    ],
    [
      "ᱯᱷᱤᱞ",
      "ᱢ</w>"
    ],
    [
      "ᱯ",
      "ᱞᱟ"
    ],
    [
      "ᱚᱱ",
      "ᱞᱟᱭᱤᱱ</w>"
    ],
    [
      "᱒",
      "᱖</w>"
    ],
    [
      "ᱨᱟᱹᱥ",
      "ᱭᱟᱹ</w>"
    ],
    [
      "ᱪᱷᱩ",
      "ᱴᱤ</w>"
    ],
    [
      "ᱯᱷᱩ",
      "ᱴ</w>"
    ],
    [
      "ᱠ",
      "ᱳᱭ"
    ],
    [
      "ᱠᱚᱝ",
      "ᱜ"
    ],
    [
      "ᱥ",
      "ᱚᱨᱚ"
    ],
    [
      "ᱟ",
      "ᱞᱚᱢ</w>"
    ],
    [
      "ᱟᱹ",
      "ᱨᱤ"
    ],
    [
      "ᱥᱚᱛᱟ",
      "ᱵᱽ"
    ],
    [
      "ᱩᱱ",
      "ᱤᱭ"
    ],
    [
      "ᱡᱟ",
      "ᱝ</w>"
    ],
    [
      "ᱥᱮᱸ",
      "ᱜᱮᱞ</w>"
    ],
    [
      "ᱟᱱ",
      "ᱮ</w>"
    ],
    [
      "ᱴ",
      "ᱟᱜ</w>"
    ],
    [
      "ᱯᱚ",
      "ᱞ</w>"
    ],
    [
      "ᱩ",
      "ᱯᱟ"
    ],
    [
      "ᱱᱰ",
      "ᱳ"
    ],
    [
      "ᱱ",
      "ᱛᱤ</w>"
    ],
    [
      "ᱝ",
      "ᱜᱟ</w>"
    ],
    [
      "ᱴᱩᱨ",
      "ᱱᱟ"
    ],
    [
      "ᱞᱚᱱᱰ",
      "ᱚᱱ</w>"
    ],
    [
      "ᱯᱚᱨᱤ",
      "ᱥᱮᱵᱟ</w>"
    ],
    [
      "ᱜᱩ",
      "ᱡᱩᱜ</w>"
    ],
    [
      "ᱧ",
      "ᱡᱽ</w>"
    ],
    [
      "ᱦᱤᱡᱩ",
      "ᱜᱼᱟ</w>"
    ],
    [
      "ᱦᱟᱹ",
      "ᱱ</w>"
    ],
    [
      "ᱪᱷ",
      "ᱟᱹ"
    ],
    [
      "ᱟ",
      "ᱞᱟ"
    ],
    [
      "ᱛᱮᱦᱮ",
      "ᱧ</w>"
    ],
    [
      "ᱧᱟ",
      "ᱯᱟᱢ</w>"
    ],
    [
      "᱒᱐᱐",
      "᱖</w>"
    ],
    [
      "ᱱᱮ",
      "ᱥ"
    ],
    [
      "ᱪ",
      "ᱟᱜ</w>"
    ],
    [
      "ᱛᱮ",
      "ᱱᱟᱜ</w>"
    ],
    [
      "ᱱᱚ",
      "ᱢ</w>"
    ],
    [
      "ᱨᱮ",
      "ᱴᱤ"
    ],
    [
      "ᱥᱤ",
      "ᱨᱤᱡ</w>"
    ],
    [
      "ᱩ",
      "ᱥᱟᱹᱨᱟ</w>"
    ],
    [
      "ᱤᱱᱫ",
      "ᱳ"
    ],
    [
      "ᱱᱤᱭ",
      "ᱩ</w>"
    ],
    [
      "ᱱᱟ",
      "ᱥᱮ</w>"
    ],
    [
      "ᱠᱟ",
      "ᱴᱷ"
    ],
    [
      "ᱨᱚ",
      "ᱜ</w>"
    ],
    [
      "ᱵᱤᱡᱽ",
      "ᱞᱤ</w>"
    ],
    [
      "ᱢᱩᱲ",
      "ᱩᱛ</w>"
    ],
    [
      "ᱟᱨ",
      "ᱟᱜ</w>"
    ],
    [
      "ᱭᱤ",
      "ᱡ</w>"
    ],
    [
      "ᱟ",
      "ᱥᱤ</w>"
    ],
    [
      "ᱨᱮᱭᱟ",
      "ᱲ</w>"
    ],
    [
      "ᱱᱟ",
      "ᱥ</w>"
    ],
    [
      "ᱚ",
      "ᱢ</w>"
    ],
    [
      "ᱥᱚᱲᱚ",
      "ᱠ</w>"
    ],
    [
      "ᱤᱱ",
      "ᱟᱹ</w>"
    ],
    [
      "ᱟᱞ",
      "ᱜᱟ</w>"
    ],
    [
      "ᱵᱮ",
      "ᱲᱟ</w>"
    ],
    [
      "ᱫ",
      "ᱚᱱ</w>"
    ],
    [
      "ᱟ",
      "ᱯᱷᱨᱤ"
    ],
    [
      "ᱨᱩ",
      "ᱢ</w>"
    ],
    [
      "ᱵᱤᱱᱤᱭ",
      "ᱳ"
    ],
    [
      "ᱛᱟ",
      "ᱨᱮ</w>"
    ],
    [
      "ᱥᱟ",
      "ᱧᱪᱟᱣ</w>"
    ],
    [
      "ᱠᱷᱚᱸᱫᱽ",
      "ᱨᱚ"
    ],
    [
      "᱑",
      "᱓"
    ],
    [
      "ᱧ",
      "ᱡ</w>"
    ],
    [
      "ᱵᱮ",
      "ᱲᱦᱟ"
    ],
    [
      "ᱮ",
      "ᱰ"
    ],
    [
      "ᱥᱤ",
      "ᱹ"
    ],
    [
      "ᱵᱮ",
      "ᱱ</w>"
    ],
    [
      "ᱨᱟ",
      "ᱦᱟ</w>"
    ],
    [
      "ᱥᱟ",
      "ᱡᱟᱣ</w>"
    ],
    [
      "ᱥᱚ",
      "ᱦᱮᱫ</w>"
    ],
    [
      "ᱱᱤᱡᱮ",
      "ᱨᱟᱜ</w>"
    ],
    [
      "ᱞ",
      "ᱚᱱ</w>"
    ],
    [
      "ᱴᱮ",
      "ᱰ</w>"
    ],
    [
      "᱒᱐᱐",
      "᱕</w>"
    ],
    [
      "ᱡᱮ",
      "ᱱ</w>"
    ],
    [
      "ᱢᱚᱱ",
      "ᱮᱭᱟ</w>"
    ],
    [
      "ᱞᱟᱹ",
      "ᱞᱤᱥ</w>"
    ],
    [
      "ᱱᱚ",
      "ᱰᱮ</w>"
    ],
    [
      "ᱪᱟ",
      "ᱯ</w>"
    ],
    [
      "ᱠᱳ",
      "ᱰ</w>"
    ],
    [
      "ᱠᱮ",
      "ᱫ</w>"
    ],
    [
      "ᱯᱟᱦᱟ",
      "ᱴᱟ</w>"
    ],
    [
      "ᱮ",
      "ᱯ"
    ],
    [
      "ᱱᱟᱹ",
      "ᱭ"
    ],
    [
      "᱒",
      "᱘</w>"
    ],
    [
      "ᱛᱤ",
      "ᱥ"
    ],
    [
      "ᱢᱟᱭ",
      "ᱠᱨᱳ"
    ],
    [
      "ᱱ",
      "ᱳ</w>"
    ],
    [
      "ᱯᱳ",
      "ᱱ</w>"
    ],
    [
      "ᱠᱟᱹᱢᱤ",
      "ᱦᱚᱨᱟ</w>"
    ],
    [
      "ᱜ",
      "ᱳ</w>"
    ],
    [
      "ᱵᱟᱲ",
      "ᱛᱤ</w>"
    ],
    [
      "ᱠᱚᱣ",
      "ᱟ,</w>"
    ],
    [
      "ᱰᱤ",
      "ᱝ</w>"
    ],
    [
      "ᱠᱟᱣᱩᱱ",
      "ᱴ</w>"
    ],
    [
      "ᱯᱚ",
      "ᱱᱚ"
    ],
    [
      "ᱠᱮᱱ",
      "ᱥᱟᱨ</w>"
    ],
    [
      "ᱮᱞ",
      "ᱠᱷᱟ</w>"
    ],
    [
      "ᱟᱹᱲᱤ",
      "ᱥ</w>"
    ],
    [
      "ᱠᱨᱤ",
      "ᱠᱮᱴ</w>"
    ],
    [
      "ᱩ",
      "ᱯᱟᱹ"
    ],
    [
      "ᱱᱟ",
      "ᱭᱚ"
    ],
    [
      "ᱵᱚᱨ",
      "ᱜᱚ</w>"
    ],
    [
      "ᱢᱟᱭ",
      "ᱟᱝ</w>"
    ],
    [
      "ᱮ",
      "ᱢᱚ"
    ],
    [
      "ᱨᱟ",
      "ᱡ</w>"
    ],
    [
      "ᱫᱚ",
      "ᱜᱼᱟ</w>"
    ],
    [
      "ᱫ",
      "ᱛᱮ</w>"
    ],
    [
      "ᱛᱟᱭᱚ",
      "ᱢᱛᱮ</w>"
    ],
    [
      "ᱢᱤ",
      "ᱥ"
    ],
    [
      "ᱮ",
      "ᱠᱷᱮᱱ</w>"
    ],
    [
      "ᱡᱚ",
      "ᱠᱷᱟ</w>"
    ],
    [
      "ᱜ",
      "ᱩᱱ"
    ],
    [
      "ᱛ",
      "ᱩᱨ"
    ],
    [
      "ᱡᱟᱦᱟ",
      "ᱨᱮ</w>"
    ],
    [
      "ᱟᱠᱟ",
      "ᱱᱟ"
    ],
    [
      "ᱥᱚᱛᱟᱵᱽ",
      "ᱫᱤ</w>"
    ],
    [
      "ᱵᱟ",
      "ᱫᱤ</w>"
    ],
    [
      "ᱚᱠᱛᱚ",
      ",</w>"
    ],
    [
      "ᱰᱤᱭ",
      "ᱳ</w>"
    ],
    [
      "ᱠᱚᱝᱜ",
      "ᱨᱮᱥ</w>"
    ],
    [
      "ᱧᱟ",
      "ᱢᱚᱜ</w>"
    ],
    [
      "ᱵᱤ",
      "ᱪᱷ"
    ],
    [
      "ᱟᱞᱮ",
      "ᱭᱟᱜ</w>"
    ],
    [
      "ᱵᱮ",
      "ᱨ"
    ],
    [
      "ᱵᱟᱹ",
      "ᱥᱤ</w>"
    ],
    [
      "ᱫᱟᱲᱮᱭ",
      "ᱟ"
    ],
    [
      "ᱦᱟᱦᱟ",
      "ᱲᱟᱜ</w>"
    ],
    [
      "ᱠᱚ",
      "ᱴ</w>"
    ],
    [
      "ᱞᱤ",
      ",</w>"
    ],
    [
      "ᱫ",
      "ᱼᱟ</w>"
    ],
    [
      "ᱥᱚ",
      "ᱢᱟ"
    ],
    [
      "ᱛᱟᱞᱟ",
      "ᱢᱟᱞᱟ</w>"
    ],
    [
      "ᱨᱩ",
      "ᱯ"
    ],
    [
      "ᱥᱤ",
      "ᱠᱟᱹᱨ</w>"
    ],
    [
      "ᱮᱱ",
      "ᱦᱚᱸ</w>"
    ],
    [
      "ᱵᱟᱹ",
      "ᱱᱤᱡ</w>"
    ],
    [
      "ᱰᱤ",
      "ᱹ"
    ],
    [
      "ᱮᱭ",
      "ᱤᱪ</w>"
    ],
    [
      "ᱡᱚ",
      "ᱜᱟᱣ</w>"
    ],
    [
      "ᱩ",
      "ᱫᱽ"
    ],
    [
      "ᱫᱤ",
      "ᱥᱟᱹ"
    ],
    [
      "ᱰ",
      "ᱮᱴ"
    ],
    [
      "ᱵᱟ",
      "ᱱ"
    ],
    [
      "ᱵᱚᱱ",
      "ᱫᱚ</w>"
    ],
    [
      "ᱥᱟ",
      "ᱪᱟᱨ"
    ],
    [
      "ᱭ",
      "ᱮ</w>"
    ],
    [
      "ᱯᱤ",
      "ᱝ</w>"
    ],
    [
      "ᱜᱮ",
      "ᱞ"
    ],
    [
      "ᱪᱳ",
      "ᱞ</w>"
    ],
    [
      "ᱛᱚ",
      "ᱵᱮ</w>"
    ],
    [
      "ᱢᱩ",
      "ᱠᱷ"
    ],
    [
      "ᱵ",
      "ᱳᱣ"
    ],
    [
      "ᱠᱩᱠ",
      "ᱞᱤ</w>"
    ],
    [
      "ᱥᱟ",
      "ᱵᱟᱫ</w>"
    ],
    [
      "ᱨᱚ",
      "ᱱ"
    ],
    [
      "ᱮᱢ",
      "ᱚᱱ</w>"
    ],
    [
      "ᱥᱟᱭ",
      "ᱦᱤᱸᱥ</w>"
    ],
    [
      "ᱮᱛᱚ",
      "ᱦᱚ"
    ],
    [
      "ᱥᱤᱭ",
      "ᱮ"
    ],
    [
      "ᱪᱚ",
      "ᱠ</w>"
    ],
    [
      "ᱨ",
      "ᱟᱜ"
    ],
    [
      "ᱯᱩ",
      "ᱛᱷᱤ</w>"
    ],
    [
      "ᱩᱛ",
      "ᱟᱹ"
    ],
    [
      "ᱮᱱ",
      "ᱰ</w>"
    ],
    [
      "ᱱᱤ",
      "ᱛᱚᱜ</w>"
    ],
    [
      "ᱵᱟ",
      "ᱥᱤ</w>"
    ],
    [
      "ᱨᱟᱡᱽ",
      "ᱜᱟᱲ</w>"
    ],
    [
      "ᱢᱟ",
      "ᱢᱞᱟ</w>"
    ],
    [
      "ᱨᱮᱭ",
      "ᱟᱜᱼᱮ</w>"
    ],
    [
      "ᱚᱨ",
      "ᱠ</w>"
    ],
    [
      "ᱜᱩᱯ",
      "ᱛᱚ</w>"
    ],
    [
      "ᱴᱟ",
      "ᱞ</w>"
    ],
    [
      "ᱵᱤ",
      "ᱹ"
    ],
    [
      "ᱡᱟᱨ",
      "ᱢᱟᱱᱤ</w>"
    ],
    [
      "ᱛᱷᱟ",
      "ᱯᱚ"
    ],
    [
      "ᱦᱟᱨ",
      "ᱟ</w>"
    ],
    [
      "ᱥᱟᱹᱵᱩ",
      "ᱫ</w>"
    ],
    [
      "ᱱᱤᱛ",
      "ᱦᱚᱸ</w>"
    ],
    [
      "ᱯᱷᱚᱨ",
      "ᱟᱥᱤ</w>"
    ],
    [
      "ᱨᱮ",
      "ᱦᱚᱸ,</w>"
    ],
    [
      "ᱝ",
      "ᱠ</w>"
    ],
    [
      "ᱞᱚ",
      "ᱞᱚ</w>"
    ],
    [
      "ᱮᱠᱟ",
      "ᱞ</w>"
    ],
    [
      "ᱚ",
      "ᱲ"
    ],
    [
      "ᱫᱷᱟᱨᱚ",
      "ᱱᱟ</w>"
    ],
    [
      "ᱟᱜ",
      "-"
    ],
    [
      "ᱵᱮ",
      "ᱱᱰ</w>"
    ],
    [
      "ᱥᱟ",
      "ᱥᱟ"
    ],
    [
      "ᱥᱟᱢ",
      "ᱚᱨᱤᱠ</w>"
    ],
    [
      "ᱰᱤ",
      "ᱜᱽ"
    ],
    [
      "ᱵᱟᱹᱲ",
      "ᱛᱤ"
    ],
    [
      "ᱫᱷᱟᱹ",
      "ᱨᱛᱤ</w>"
    ],
    [
      "ᱥᱤ",
      "ᱴᱤ</w>"
    ],
    [
      "ᱥᱮ",
      "ᱱᱟ"
    ],
    [
      "ᱢᱤ",
      "ᱠ</w>"
    ],
    [
      "ᱨᱟ",
      "ᱯᱟ"
    ],
    [
      "ᱥ",
      "ᱛᱤ"
    ],
    [
      "ᱢᱚ",
      "ᱞ</w>"
    ],
    [
      "ᱟᱸ",
      "ᱡᱚᱢ</w>"
    ],
    [
      "ᱵᱮ",
      "ᱞ"
    ],
    [
      "ᱛ",
      "ᱳ</w>"
    ],
    [
      "ᱴ",
      "ᱮᱞ</w>"
    ],
    [
      "ᱥᱚ",
      "ᱭ"
    ],
    [
      "ᱵᱟ",
      "ᱛᱟ"
    ],
    [
      "ᱟᱹ",
      "ᱜᱩ"
    ],
    [
      "ᱜᱚᱲᱚ",
      "ᱭ</w>"
    ],
    [
      "ᱛᱩ",
      "ᱢᱟᱹ"
    ],
    [
      "ᱫᱚ",
      "ᱲᱦᱟ"
    ],
    [
      "ᱫᱟᱲᱮᱭ",
      "ᱟᱱ</w>"
    ],
    [
      "ᱫᱮ",
      "ᱵᱤ</w>"
    ],
    [
      "ᱡᱚ",
      "ᱱᱚ"
    ],
    [
      "ᱥ",
      "ᱨᱤ</w>"
    ],
    [
      "ᱡᱟᱸ",
      "ᱜᱟ</w>"
    ],
    [
      "ᱠᱟᱛᱮ",
      ",</w>"
    ],
    [
      "᱑",
      "᱔"
    ],
    [
      "ᱨᱟ",
      "ᱱᱤ</w>"
    ],
    [
      "ᱴ",
      "ᱳ</w>"
    ],
    [
      "ᱫᱤ",
      "ᱠ</w>"
    ],
    [
      "ᱮᱢᱟ",
      "ᱫᱮ</w>"
    ],
    [
      "ᱥᱟᱶ",
      "ᱟᱨ</w>"
    ],
    [
      "ᱛᱟ",
      "ᱢᱤᱞ</w>"
    ],
    [
      "ᱜᱨᱤ",
      "ᱠ</w>"
    ],
    [
      "ᱵᱷᱤ",
      "ᱴᱟ"
    ],
    [
      "ᱱᱮ",
      "ᱦᱚᱨ</w>"
    ],
    [
      "ᱴᱩᱨᱱᱟ",
      "ᱢᱮᱱᱴ</w>"
    ],
    [
      "ᱢᱩᱢ",
      "ᱵᱟᱭ</w>"
    ],
    [
      "ᱠᱤᱨᱤ",
      "ᱧᱤᱭᱟᱹ</w>"
    ],
    [
      "ᱞ",
      "ᱥ</w>"
    ],
    [
      "ᱢᱟ",
      "ᱱᱚᱛ</w>"
    ],
    [
      "ᱥᱩ",
      "ᱪᱤ</w>"
    ],
    [
      "ᱣ",
      "ᱩᱱ</w>"
    ],
    [
      "ᱥᱮ",
      "ᱱᱚᱜ</w>"
    ],
    [
      "ᱥᱟᱜ",
      "ᱟ"
    ],
    [
      "ᱺ",
      "ᱰᱤ</w>"
    ],
    [
      "ᱞᱚ",
      "ᱝ"
    ],
    [
      "ᱦᱟ",
      "ᱣ"
    ],
    [
      "ᱠᱮ",
      "ᱞᱤ"
    ],
    [
      "᱒᱐",
      "᱐</w>"
    ],
    [
      "ᱠᱷᱨᱤᱥᱴᱟ",
      "ᱵᱽᱫᱚ</w>"
    ],
    [
      "ᱠᱤ",
      "ᱢ</w>"
    ],
    [
      "ᱚ",
      "ᱯᱟ"
    ],
    [
      "ᱫ",
      "ᱟᱜ"
    ],
    [
      "ᱛᱟ",
      "ᱭ</w>"
    ],
    [
      "ᱥᱟ",
      "ᱨᱮᱡ</w>"
    ],
    [
      "ᱥᱟᱸ",
      "ᱫᱮᱥ</w>"
    ],
    [
      "ᱞᱚᱞᱚ",
      "ᱥᱚᱝ</w>"
    ],
    [
      "ᱮᱭ",
      "ᱟᱨ"
    ],
    [
      "ᱳ",
      "ᱲᱤ"
    ],
    [
      "ᱵᱟᱹ",
      "ᱭ"
    ],
    [
      "ᱥᱤ",
      "ᱥᱴ"
    ],
    [
      "ᱯᱩᱨ",
      "ᱟᱹ"
    ],
    [
      "ᱥᱤ",
      "ᱸ"
    ],
    [
      "ᱥᱟ",
      "ᱝ"
    ],
    [
      "ᱮᱯᱷ",
      "ᱹ"
    ],
    [
      "ᱵᱚᱞ",
      "ᱚᱱ</w>"
    ],
    [
      "ᱛᱟᱦᱮᱸ",
      "ᱱ</w>"
    ],
    [
      "ᱠᱷᱟ",
      "ᱛᱤᱨ</w>"
    ],
    [
      "ᱥᱚ",
      "ᱢᱚ"
    ],
    [
      "ᱵᱟ",
      "ᱡᱮᱴ</w>"
    ],
    [
      "ᱱᱟᱜ",
      "ᱟᱨ</w>"
    ],
    [
      "ᱟ",
      "ᱵ"
    ],
    [
      "ᱱ",
      "ᱩᱱᱟᱹᱜ</w>"
    ],
    [
      "ᱢᱮ",
      "ᱭ"
    ],
    [
      "ᱠᱮ",
      "ᱫᱟ,</w>"
    ],
    [
      "ᱟᱢ",
      "ᱨᱮᱱ</w>"
    ],
    [
      "ᱤ",
      "ᱵᱷ"
    ],
    [
      "ᱫᱮ",
      "ᱵ</w>"
    ],
    [
      "ᱪᱤ",
      "ᱱᱟ</w>"
    ],
    [
      "ᱡᱚ",
      "ᱠ"
    ],
    [
      "ᱥᱴᱨᱳ",
      "ᱠ</w>"
    ],
    [
      "ᱛᱚᱱ",
      "ᱛᱨᱚ</w>"
    ],
    [
      "ᱰ",
      "ᱳ</w>"
    ],
    [
      "ᱫᱽ",
      "ᱫᱷᱚ</w>"
    ],
    [
      "ᱠᱟᱛᱮ",
      "ᱭ</w>"
    ],
    [
      "ᱞᱟᱹ",
      "ᱣ"
    ],
    [
      "ᱡᱟᱨ",
      "ᱢᱟᱱ</w>"
    ],
    [
      "ᱦᱩ",
      "ᱫᱤᱥ</w>"
    ],
    [
      "ᱲ",
      "ᱟᱱ</w>"
    ],
    [
      "ᱱᱟ",
      "ᱣᱟᱱ</w>"
    ],
    [
      "᱒",
      "᱙</w>"
    ],
    [
      "ᱛ",
      "ᱤᱭᱟ</w>"
    ],
    [
      "ᱥ",
      "ᱯᱤ"
    ],
    [
      "ᱵᱷ",
      "ᱟᱜ"
    ],
    [
      "᱑᱙᱘",
      "᱐</w>"
    ],
    [
      "ᱜᱷᱚ",
      "ᱴᱚ"
    ],
    [
      "ᱮᱢ",
      "ᱹ"
    ],
    [
      "ᱮᱭ",
      "ᱤ"
    ],
    [
      "ᱡᱟᱹ",
      "ᱨᱤ</w>"
    ],
    [
      "ᱞᱟ",
      "ᱯᱷ"
    ],
    [
      "ᱥᱚᱨ",
      "ᱤ</w>"
    ],
    [
      "ᱡᱤ",
      "ᱛ</w>"
    ],
    [
      "ᱟᱢ",
      ",</w>"
    ],
    [
      "᱒᱐᱐",
      "᱔</w>"
    ],
    [
      "ᱢᱚᱦᱟᱨᱟ",
      "ᱥᱴᱨᱚ</w>"
    ],
    [
      "ᱴᱚᱴᱷᱟ",
      "ᱠᱤᱭᱟᱹ</w>"
    ],
    [
      "ᱠᱤᱪᱷᱩ",
      "ᱜᱟᱱ</w>"
    ],
    [
      "ᱥᱚ",
      "ᱞ</w>"
    ],
    [
      "ᱪᱟᱸᱫ",
      "ᱳ"
    ],
    [
      "ᱱᱚᱱ",
      "ᱫᱚ</w>"
    ],
    [
      "ᱥ",
      "ᱱᱟᱭ"
    ],
    [
      "ᱫ",
      "ᱩ</w>"
    ],
    [
      "ᱱᱩ",
      "ᱭ</w>"
    ],
    [
      "ᱨᱟ",
      ",</w>"
    ],
    [
      "ᱰ",
      ",</w>"
    ],
    [
      "ᱛᱩᱞᱩ",
      "ᱡ</w>"
    ],
    [
      "ᱜᱟ",
      "ᱭ"
    ],
    [
      "ᱨᱤ",
      "ᱧ</w>"
    ],
    [
      "ᱞᱤᱭ",
      "ᱚᱱ</w>"
    ],
    [
      "ᱨᱚ",
      "ᱜᱼᱟ</w>"
    ],
    [
      "ᱠᱮᱨᱟ",
      "ᱞᱟ</w>"
    ],
    [
      "᱐",
      "ᱼ"
    ],
    [
      "ᱥᱳ",
      "ᱥᱤᱭᱮ"
    ],
    [
      "ᱱᱮ",
      "ᱥ</w>"
    ],
    [
      "ᱥ",
      "ᱼ"
    ],
    [
      "ᱤᱧ",
      "ᱟᱜ</w>"
    ],
    [
      "ᱞᱩ",
      "ᱝ</w>"
    ],
    [
      "ᱯᱩᱥᱴ",
      "ᱟᱹᱣ</w>"
    ],
    [
      "ᱴᱮ",
      "ᱥᱴ</w>"
    ],
    [
      "ᱝ",
      "ᱥᱚ</w>"
    ],
    [
      "᱒᱐",
      "᱒᱒</w>"
    ],
    [
      "ᱠᱟ",
      "ᱞ"
    ],
    [
      "ᱵᱟᱦ",
      "ᱨᱮ</w>"
    ],
    [
      "ᱟ",
      "ᱫᱟ"
    ],
    [
      "ᱢᱩ",
      "ᱨ"
    ],
    [
      "ᱛᱩ",
      "ᱞᱟᱹ"
    ],
    [
      "ᱦᱚ",
      "ᱫ</w>"
    ],
    [
      "ᱪᱟ",
      "ᱞ</w>"
    ],
    [
      "ᱪᱤᱱ",
      "ᱛᱟᱹ</w>"
    ],
    [
      "ᱞᱟᱯᱷ",
      "ᱟᱝ</w>"
    ],
    [
      "ᱛ",
      "ᱩᱱ"
    ],
    [
      "ᱢᱩ",
      "ᱫ"
    ],
    [
      "ᱨᱩᱠᱷ",
      "ᱭᱟᱹ</w>"
    ],
    [
      "ᱫᱷ",
      "ᱩ</w>"
    ],
    [
      "ᱥᱟᱸᱜᱷ",
      "ᱟᱨᱤᱭᱟᱹ</w>"
    ],
    [
      "ᱩᱨᱩ",
      "ᱢ</w>"
    ],
    [
      "ᱣᱟ",
      "ᱞ</w>"
    ],
    [
      "᱒",
      ","
    ],
    [
      "ᱸ",
      "ᱰᱮ"
    ],
    [
      "ᱥ",
      "ᱳ</w>"
    ],
    [
      "ᱟᱠᱟ",
      "ᱱᱟᱭ</w>"
    ],
    [
      "ᱞᱟᱹᱜᱤᱫ",
      "ᱛᱮ</w>"
    ],
    [
      "ᱢᱟᱹ",
      "ᱱ"
    ],
    [
      "ᱛᱟᱦᱮᱸ",
      "ᱜ</w>"
    ],
    [
      "ᱚ",
      "ᱠᱟ"
    ],
    [
      "᱒᱐᱐",
      "᱑</w>"
    ],
    [
      "ᱢ",
      "ᱵ"
    ],
    [
      "ᱮ",
      "ᱛ"
    ],
    [
      "ᱯᱳᱨ",
      "ᱴ</w>"
    ],
    [
      "ᱡᱟᱸ",
      "ᱜᱮ</w>"
    ],
    [
      "ᱞᱟ",
      "ᱞ</w>"
    ],
    [
      "ᱱᱟ",
      "ᱥᱟᱣ</w>"
    ],
    [
      "ᱨᱤᱭ",
      "ᱟᱱ</w>"
    ],
    [
      "ᱵᱮ",
      "ᱭ"
    ],
    [
      "ᱚᱱᱟ",
      "ᱠᱚ</w>"
    ],
    [
      "ᱢᱟ",
      "ᱞᱚ"
    ],
    [
      "ᱥᱤᱥᱴ",
      "ᱮᱢ</w>"
    ],
    [
      "ᱠᱚ",
      "ᱠᱚ</w>"
    ],
    [
      "ᱫᱩ",
      "ᱠ</w>"
    ],
    [
      "ᱞᱤ",
      "ᱪᱟᱹ"
    ],
    [
      "ᱟ",
      "ᱝ"
    ],
    [
      "ᱛᱤ",
      "ᱧ</w>"
    ],
    [
      "ᱠᱟᱥ",
      "ᱢᱤᱨ</w>"
    ],
    [
      "ᱟᱹ",
      "ᱛᱩ</w>"
    ],
    [
      "ᱚᱯᱷᱤ",
      "ᱥ</w>"
    ],
    [
      "ᱛᱟᱦᱮᱸ",
      "ᱱᱟ</w>"
    ],
    [
      "ᱥᱟᱶ",
      "ᱛᱟ</w>"
    ],
    [
      "ᱯᱤᱭ",
      "ᱚ</w>"
    ],
    [
      "ᱣ",
      "ᱟᱭ</w>"
    ],
    [
      "ᱥᱮ",
      "ᱛᱟᱜ</w>"
    ],
    [
      "ᱪᱟᱪ",
      "ᱞᱟᱣ</w>"
    ],
    [
      "ᱟ",
      "ᱠᱚᱣᱟ</w>"
    ],
    [
      "ᱮᱞ",
      "ᱵᱟᱢ</w>"
    ],
    [
      "ᱠ",
      "ᱞᱤ"
    ],
    [
      "ᱠᱷᱚ",
      "ᱞ</w>"
    ],
    [
      "ᱟᱭ",
      ",</w>"
    ],
    [
      "ᱯᱨᱚ",
      "ᱡᱟ"
    ],
    [
      "ᱨᱟ",
      "ᱛᱟᱝ</w>"
    ],
    [
      "ᱪᱮ",
      "ᱫ"
    ],
    [
      "ᱜᱩ",
      "ᱥᱴᱤ</w>"
    ],
    [
      "ᱵᱟ",
      "ᱫᱽ</w>"
    ],
    [
      "ᱱᱟ",
      "ᱠᱷᱟ</w>"
    ],
    [
      "ᱜᱩ",
      "ᱡ"
    ],
    [
      "ᱞ",
      ")</w>"
    ],
    [
      "ᱯᱟᱨ",
      "ᱴᱤ</w>"
    ],
    [
      "ᱫᱷᱟ",
      "ᱥᱟᱣ</w>"
    ],
    [
      "ᱟ",
      "ᱱᱟ</w>"
    ],
    [
      "ᱟᱸ",
      "ᱥ</w>"
    ],
    [
      "ᱚ",
      "ᱪᱚ</w>"
    ],
    [
      "ᱛᱷᱤ",
      "ᱨ</w>"
    ],
    [
      "ᱥᱟᱣ",
      "ᱟᱨ</w>"
    ],
    [
      "ᱵᱷᱤᱴᱟ",
      "ᱢᱤᱱ</w>"
    ],
    [
      "᱘",
      "᱐</w>"
    ],
    [
      "ᱸ",
      "ᱜᱮ"
    ],
    [
      "ᱯᱟ",
      "ᱱᱰ"
    ],
    [
      "ᱥᱟ",
      "ᱫᱚᱢ</w>"
    ],
    [
      "ᱵᱮ",
      "ᱠ</w>"
    ],
    [
      "ᱡᱤ",
      "ᱠ</w>"
    ],
    [
      "ᱠᱟᱹᱢᱤ",
      "ᱭ"
    ],
    [
      "ᱨᱮ",
      "ᱴ</w>"
    ],
    [
      "ᱢ",
      "ᱼ"
    ],
    [
      "ᱜᱮ",
      "ᱢᱥ</w>"
    ],
    [
      "ᱥᱮ",
      "ᱱᱟᱜ</w>"
    ],
    [
      "ᱢᱚ",
      "ᱰᱮᱞ</w>"
    ],
    [
      "ᱚ",
      "ᱫᱷᱤ"
    ],
    [
      "ᱨᱮ",
      "ᱥ"
    ],
    [
      "ᱮ",
      "ᱠᱟᱣᱩᱱᱴ</w>"
    ],
    [
      "ᱥᱟ",
      "ᱺ"
    ],
    [
      "ᱵᱟᱲ",
      "ᱟᱭ</w>"
    ],
    [
      "ᱤᱭ",
      "ᱩᱱᱤ"
    ],
    [
      "ᱨᱚ",
      "ᱯᱚ"
    ],
    [
      "ᱰᱷ",
      "ᱮ"
    ],
    [
      "ᱱᱤ",
      ",</w>"
    ],
    [
      "ᱜᱤ",
      "ᱵᱷᱟᱨ</w>"
    ],
    [
      "ᱰᱤᱭ",
      "ᱟᱢ</w>"
    ],
    [
      "ᱱᱟᱭᱚ",
      "ᱠ</w>"
    ],
    [
      "ᱵᱚ",
      "ᱛᱤ</w>"
    ],
    [
      "ᱢᱟᱭᱤ",
      "ᱞ</w>"
    ],
    [
      "ᱵᱚᱲ",
      "ᱦᱮ</w>"
    ],
    [
      "ᱫᱟ",
      "ᱯᱨᱟ"
    ],
    [
      "ᱟ",
      "ᱴᱚᱠ</w>"
    ],
    [
      "ᱥᱟ",
      "ᱛ"
    ],
    [
      "ᱨᱟᱡᱽ",
      "ᱡᱚ</w>"
    ],
    [
      "ᱮᱴ",
      "ᱟᱜ"
    ],
    [
      "ᱵᱤᱨᱩ",
      "ᱫᱷ"
    ],
    [
      "ᱵᱮᱣᱦᱟᱨ",
      "ᱟ</w>"
    ],
    [
      "ᱥᱤᱭ",
      "ᱚ</w>"
    ],
    [
      "ᱦᱟ",
      "ᱞᱟ</w>"
    ],
    [
      "ᱦᱟᱹ",
      "ᱵᱤᱪ</w>"
    ],
    [
      "ᱛᱟᱹ",
      "ᱨᱤ</w>"
    ],
    [
      "ᱪᱚ",
      "ᱱ"
    ],
    [
      "ᱛᱮ",
      "ᱞᱮ"
    ],
    [
      "ᱵᱟᱹ",
      "ᱜᱤ</w>"
    ],
    [
      "ᱟᱹ",
      "ᱨ"
    ],
    [
      "ᱠᱚ",
      "ᱨᱮᱱ</w>"
    ],
    [
      "ᱦᱮ",
      "ᱞ"
    ],
    [
      "ᱠ",
      "ᱨᱟ"
    ],
    [
      "ᱤ",
      "ᱫ</w>"
    ],
    [
      "ᱛᱩᱢᱟᱹ",
      "ᱞ</w>"
    ],
    [
      "ᱚᱨ",
      "ᱥᱚᱝ</w>"
    ],
    [
      "ᱱ",
      "ᱟᱹ</w>"
    ],
    [
      "ᱜᱟ",
      "ᱸ"
    ],
    [
      "ᱥᱮ",
      "ᱴ</w>"
    ],
    [
      "ᱤᱭ",
      "ᱟᱨ</w>"
    ],
    [
      "ᱦᱩᱠᱩ",
      "ᱢ</w>"
    ],
    [
      "ᱫ",
      "ᱚᱨ</w>"
    ],
    [
      "ᱨᱟ",
      "ᱸ"
    ],
    [
      "ᱠ",
      "ᱟᱜᱚ"
    ],
    [
      "ᱛᱷ",
      "ᱟᱨ"
    ],
    [
      "ᱡᱩ",
      "ᱢᱤᱫ</w>"
    ],
    [
      "ᱢᱟ",
      "ᱨᱮᱱᱟᱜ</w>"
    ],
    [
      "ᱚᱱᱚ",
      "ᱞ</w>"
    ],
    [
      "ᱜᱷᱚ",
      "ᱴ"
    ],
    [
      "ᱦᱩᱭ",
      "ᱞᱮᱱ</w>"
    ],
    [
      "ᱮᱥ",
      "ᱤᱭᱟᱹ</w>"
    ],
    [
      "ᱜᱮ",
      "ᱠᱚ</w>"
    ],
    [
      "ᱦᱟᱛᱟ",
      "ᱣ"
    ],
    [
      "ᱢᱟ",
      "ᱭ</w>"
    ],
    [
      "ᱡᱤ",
      "ᱞᱟ</w>"
    ],
    [
      "ᱡ",
      "ᱳ</w>"
    ],
    [
      "ᱦᱟ",
      "ᱱ</w>"
    ],
    [
      "ᱢᱮᱱᱟ",
      "ᱭᱟ</w>"
    ],
    [
      "ᱠ",
      "ᱴᱚᱨ</w>"
    ],
    [
      "ᱨᱟ",
      "ᱥᱴᱨᱚ"
    ],
    [
      "᱑᱙᱙",
      "᱐</w>"
    ],
    [
      "ᱦᱚ",
      "ᱪᱚ"
    ],
    [
      "ᱱᱟᱹ",
      "ᱛ</w>"
    ],
    [
      "ᱫᱩ",
      "ᱲᱩᱵ</w>"
    ],
    [
      "ᱵᱚᱫᱚ",
      "ᱞᱛᱮ</w>"
    ],
    [
      "ᱥᱩ",
      "ᱴᱤᱝ</w>"
    ],
    [
      "ᱤᱭ",
      "ᱚᱨᱠ</w>"
    ],
    [
      "ᱤ",
      "ᱛᱟ"
    ],
    [
      "ᱛ",
      "ᱚᱨᱚ"
    ],
    [
      "ᱥᱚ",
      "ᱲ"
    ],
    [
      "ᱧ",
      "ᱟᱹ</w>"
    ],
    [
      "ᱠᱚ",
      "ᱦᱚᱸ</w>"
    ],
    [
      "ᱛᱷᱚ",
      "ᱠ</w>"
    ],
    [
      "ᱮ",
      "ᱠᱮᱱ</w>"
    ],
    [
      "ᱵᱟᱹ",
      "ᱛᱤᱞ</w>"
    ],
    [
      "ᱛᱮ",
      "ᱛᱮᱫ</w>"
    ],
    [
      "ᱦᱟ",
      "ᱣᱩ"
    ],
    [
      "ᱫ",
      "ᱨᱚ</w>"
    ],
    [
      "ᱵᱩ",
      "ᱞ</w>"
    ],
    [
      "ᱥᱚ",
      "ᱱᱟ</w>"
    ],
    [
      "ᱟᱹᱭ",
      "ᱩᱨ"
    ],
    [
      "ᱛᱟ",
      "ᱞᱤᱠᱟ</w>"
    ],
    [
      "ᱥᱟᱞ",
      "ᱮ</w>"
    ],
    [
      "ᱛᱤ",
      ",</w>"
    ],
    [
      "ᱵᱤᱥ",
      "ᱥᱚ"
    ],
    [
      "ᱜ",
      "ᱩᱨᱩ</w>"
    ],
    [
      "ᱥᱟᱶ",
      "ᱦᱮᱫ</w>"
    ],
    [
      "ᱟᱯ",
      "ᱱᱟᱨ"
    ],
    [
      "ᱪᱟᱼ",
      "ᱪᱟᱞᱟᱣ</w>"
    ],
    [
      "ᱥᱚᱞ",
      "ᱦᱮ</w>"
    ],
    [
      "ᱟ",
      "ᱞᱤ</w>"
    ],
    [
      "ᱰᱤᱜᱽ",
      "ᱨᱤ</w>"
    ],
    [
      "ᱡᱚ",
      "ᱛᱚᱱ</w>"
    ],
    [
      "ᱯᱷᱮᱰᱟ",
      "ᱨᱮᱥᱚᱱ</w>"
    ],
    [
      "ᱥᱮᱨᱮ",
      "ᱧ"
    ],
    [
      "ᱱᱟ",
      "ᱞ"
    ],
    [
      "ᱯᱤ",
      "ᱥ</w>"
    ],
    [
      "ᱜᱟ",
      "ᱞ"
    ],
    [
      "ᱭ",
      "ᱟᱨ"
    ],
    [
      "ᱵᱚᱞ",
      "ᱚ</w>"
    ],
    [
      "ᱥ",
      "ᱠᱨᱤ"
    ],
    [
      "ᱴ",
      "ᱨᱤ"
    ],
    [
      "ᱱᱟᱨ",
      "ᱟᱭ"
    ],
    [
      "ᱮᱱ",
      "ᱛᱮ</w>"
    ],
    [
      "ᱯᱳ",
      "ᱞᱳ</w>"
    ],
    [
      "ᱠᱷᱚ",
      "ᱱᱮ</w>"
    ],
    [
      "ᱟᱨ",
      "ᱹ"
    ],
    [
      "ᱢ",
      "ᱢᱚ"
    ],
    [
      "ᱝ",
      "ᱥ</w>"
    ],
    [
      "ᱰᱳ",
      "ᱠ</w>"
    ],
    [
      "ᱟᱹᱭ",
      "ᱩᱨ</w>"
    ],
    [
      "ᱥᱤ",
      "ᱱᱮ"
    ],
    [
      "ᱪᱷ",
      "ᱚ"
    ],
    [
      "ᱫᱚᱨ",
      "ᱭᱟ</w>"
    ],
    [
      "ᱥᱮ",
      "ᱞ</w>"
    ],
    [
      "ᱥᱟ",
      "ᱭᱤ"
    ],
    [
      "ᱥ",
      "ᱠᱮ"
    ],
    [
      "ᱴ",
      "ᱨᱚ"
    ],
    [
      "ᱢᱚᱱᱮ",
      "ᱭ</w>"
    ],
    [
      "ᱯᱷᱨᱟᱱ",
      "ᱥ</w>"
    ],
    [
      "᱑᱙᱙",
      "᱙</w>"
    ],
    [
      "ᱠᱤ",
      "ᱪ"
    ],
    [
      "ᱜᱚ",
      "ᱱᱚᱝ"
    ],
    [
      "ᱪᱮ",
      "ᱬᱮ</w>"
    ],
    [
      "ᱟ",
      "ᱲᱟᱝ</w>"
    ],
    [
      "ᱡᱤ",
      "ᱵ"
    ],
    [
      "ᱢᱤ",
      "ᱨ"
    ],
    [
      "ᱫᱚ",
      "ᱱ"
    ],
    [
      "ᱤᱝᱨᱮ",
      "ᱡᱤ</w>"
    ],
    [
      "ᱤ",
      "ᱥᱤᱱ</w>"
    ],
    [
      "ᱜ",
      "ᱚᱨᱚ"
    ],
    [
      "ᱵᱚᱛᱚᱨ",
      "ᱟᱱ</w>"
    ],
    [
      "ᱞᱤᱭ",
      "ᱟᱱ</w>"
    ],
    [
      "ᱯᱤ",
      "ᱹ"
    ],
    [
      "ᱮᱴᱠᱮᱴᱚ",
      "ᱲᱮ</w>"
    ],
    [
      "ᱩᱱ",
      "ᱠᱤᱱ</w>"
    ],
    [
      "ᱵᱟᱹ",
      "ᱦᱩ</w>"
    ],
    [
      "ᱠ",
      "ᱨᱟᱱ"
    ],
    [
      "ᱩᱯᱨᱩ",
      "ᱢᱟ</w>"
    ],
    [
      "ᱠᱚᱞᱮ",
      "ᱡᱽ</w>"
    ],
    [
      "ᱥᱚᱨ",
      "ᱟ"
    ],
    [
      "ᱛᱤᱸ",
      "ᱜᱩ</w>"
    ],
    [
      "ᱵᱟ",
      "ᱜᱽ"
    ],
    [
      "ᱥᱩᱞ",
      "ᱛᱟᱱ</w>"
    ],
    [
      "ᱯᱟ",
      "ᱣ"
    ],
    [
      "ᱠ",
      "ᱥᱚᱱ</w>"
    ],
    [
      "ᱠᱟ",
      "ᱥ</w>"
    ],
    [
      "ᱵᱮᱯᱟᱨ",
      "ᱤᱭᱟᱹ</w>"
    ],
    [
      "ᱵᱟ",
      "ᱱᱩ"
    ],
    [
      "ᱡᱷ",
      "ᱤ"
    ],
    [
      "ᱯᱷᱮᱵ",
      "ᱨᱩᱣᱟᱨᱤ</w>"
    ],
    [
      "ᱫᱩ",
      "ᱥ</w>"
    ],
    [
      "ᱵᱚᱨ",
      "ᱟ"
    ],
    [
      "ᱱᱤ",
      "ᱨᱟᱹᱭ</w>"
    ],
    [
      "ᱡᱳ",
      "ᱜ</w>"
    ],
    [
      "ᱵᱤᱨᱟᱹ",
      "ᱫᱟᱹ"
    ],
    [
      "ᱟᱥᱚ",
      "ᱠᱟᱭᱛᱮ</w>"
    ],
    [
      "ᱱ",
      "ᱴ</w>"
    ],
    [
      "ᱯᱷᱟᱭ",
      "ᱱᱟᱞ</w>"
    ],
    [
      "ᱟ",
      "ᱵᱚ"
    ],
    [
      "ᱟ",
      "ᱥᱟ"
    ],
    [
      "ᱪᱩ",
      "ᱨ</w>"
    ],
    [
      "ᱡᱤᱛ",
      "ᱠᱟᱹ"
    ],
    [
      "ᱫᱤᱥ",
      "ᱟᱹ</w>"
    ],
    [
      "ᱵᱟᱛᱟ",
      "ᱣ</w>"
    ],
    [
      "ᱥᱚ",
      "ᱛᱚᱠ</w>"
    ],
    [
      "ᱟᱹᱨᱩ",
      "ᱯᱷᱮᱨᱟᱣ</w>"
    ],
    [
      "ᱛᱷ",
      "ᱳ"
    ],
    [
      "ᱡᱟᱦᱟ",
      "ᱱᱟᱜ</w>"
    ],
    [
      "᱑᱙",
      "᱐"
    ],
    [
      "ᱥᱮᱱ",
      "ᱴ</w>"
    ],
    [
      "ᱵ",
      "ᱨᱳ"
    ],
    [
      "ᱴᱷ",
      "ᱮ"
    ],
    [
      "ᱢᱟᱨ",
      "ᱟᱣ</w>"
    ],
    [
      "ᱢᱮ",
      "ᱞ</w>"
    ],
    [
      "ᱵᱷᱟ",
      "ᱨᱮ</w>"
    ],
    [
      "ᱢᱩ",
      "ᱫᱤᱞ</w>"
    ],
    [
      "ᱟᱱ",
      "ᱥᱤᱯ</w>"
    ],
    [
      "ᱮ",
      "ᱹ</w>"
    ],
    [
      "ᱠᱤ",
      "ᱨ"
    ],
    [
      "ᱲ",
      "ᱩ"
    ],
    [
      "ᱲ",
      "ᱟᱹ</w>"
    ],
    [
      "ᱚᱵᱷᱤ",
      "ᱱᱮᱛᱟ</w>"
    ],
    [
      "ᱠᱤ",
      "ᱱᱟᱜ</w>"
    ],
    [
      "᱙",
      "᱐</w>"
    ],
    [
      "ᱵᱤ",
      "ᱫᱽ"
    ],
    [
      "ᱜᱤ",
      "ᱡ</w>"
    ],
    [
      "ᱱᱰ",
      "ᱟᱨ</w>"
    ],
    [
      "ᱯᱟᱹᱴᱷ",
      "ᱩ"
    ],
    [
      "ᱜ",
      "ᱩᱨ"
    ],
    [
      "ᱮᱱ",
      "ᱥ</w>"
    ],
    [
      "ᱵᱮ",
      "ᱵᱷᱟᱨ</w>"
    ],
    [
      "ᱥᱟᱪᱟᱨ",
      "ᱦᱮᱫ</w>"
    ],
    [
      "ᱫ",
      "ᱨᱟ"
    ],
    [
      "ᱵᱷᱤ",
      "ᱛᱨᱤ</w>"
    ],
    [
      "ᱛᱷ",
      "ᱩ"
    ],
    [
      "ᱛᱟ",
      "ᱱ"
    ],
    [
      "ᱟ",
      "ᱴ</w>"
    ],
    [
      "ᱱᱚ",
      "ᱸᱰᱮ</w>"
    ],
    [
      "ᱯ",
      "ᱩᱛ"
    ],
    [
      "ᱵᱚ",
      "ᱠᱥ</w>"
    ],
    [
      "ᱡᱟ",
      "ᱯᱟ"
    ],
    [
      "ᱥᱚ",
      "ᱜ</w>"
    ],
    [
      "ᱢᱟᱨ",
      "ᱤ</w>"
    ],
    [
      "ᱥ",
      "ᱳᱣ"
    ],
    [
      "ᱯᱚᱥ",
      "ᱪᱤ"
    ],
    [
      "ᱵᱤ",
      "ᱡ"
    ],
    [
      "ᱡᱮ",
      "ᱱᱟ"
    ],
    [
      "ᱢᱤ",
      "ᱥ</w>"
    ],
    [
      "ᱯᱩᱱ",
      "ᱭᱟ</w>"
    ],
    [
      "ᱵᱚ",
      "ᱸ"
    ],
    [
      "ᱵᱟ",
      "ᱱᱩ</w>"
    ],
    [
      "᱑᱙᱗",
      "᱐</w>"
    ],
    [
      "ᱥᱟᱜ",
      "ᱚᱨ</w>"
    ],
    [
      "ᱯᱟᱧᱡᱟ",
      "ᱵ</w>"
    ],
    [
      "ᱯ",
      "ᱩ</w>"
    ],
    [
      "ᱥᱴᱤ",
      "ᱠ</w>"
    ],
    [
      "ᱞ",
      "ᱟᱜ</w>"
    ],
    [
      "ᱥᱩ",
      "ᱯᱟᱨ"
    ],
    [
      "ᱤᱧ",
      "ᱨᱮᱱ</w>"
    ],
    [
      "ᱯᱚᱨᱤ",
      "ᱥᱚᱫ</w>"
    ],
    [
      "ᱵᱟᱵᱚ",
      "ᱫ</w>"
    ],
    [
      "ᱟᱠᱚ",
      "ᱨᱮᱱ</w>"
    ],
    [
      "ᱥᱤ",
      "ᱠᱷ</w>"
    ],
    [
      "᱒᱐᱐",
      "᱓</w>"
    ],
    [
      "ᱟ",
      "ᱠᱷᱨᱤ"
    ],
    [
      "ᱜᱤ",
      "ᱨ"
    ],
    [
      "ᱥᱚ",
      "ᱢᱤ"
    ],
    [
      "ᱠᱚ",
      "ᱜᱮ</w>"
    ],
    [
      "ᱯᱚᱨ",
      "ᱟ"
    ],
    [
      "ᱡ",
      "ᱳᱣ"
    ],
    [
      "ᱥᱟᱥᱟ",
      "ᱝ</w>"
    ],
    [
      "ᱦᱚ",
      "ᱦᱚ</w>"
    ],
    [
      "ᱢᱚ",
      "ᱜᱼᱟ,</w>"
    ],
    [
      "ᱮ",
      "ᱥᱳᱥᱤᱭᱮ"
    ],
    [
      "ᱯᱷ",
      "ᱟᱭᱤ"
    ],
    [
      "ᱢᱮᱱ",
      "ᱛᱮᱭ</w>"
    ],
    [
      "ᱱᱚ",
      "ᱭ"
    ],
    [
      "ᱞᱤᱭ",
      "ᱚ</w>"
    ],
    [
      "ᱯᱷ",
      "ᱞᱳ"
    ],
    [
      "ᱯᱚ",
      "ᱫ</w>"
    ],
    [
      "᱑᱙᱙",
      "᱘</w>"
    ],
    [
      "ᱥᱮ",
      "ᱹ"
    ],
    [
      "ᱡᱟ",
      "ᱱ"
    ],
    [
      "ᱞᱤᱪᱟᱹ",
      "ᱲ</w>"
    ],
    [
      "ᱯᱷᱤᱞ",
      "ᱰ</w>"
    ],
    [
      "ᱵᱟ",
      "ᱠᱚ</w>"
    ],
    [
      "᱗",
      "᱐</w>"
    ],
    [
      "ᱠᱳ",
      "ᱞ"
    ],
    [
      "ᱵᱮᱱ",
      "ᱰᱤ</w>"
    ],
    [
      "ᱛᱮ",
      "ᱧ</w>"
    ],
    [
      "ᱪ",
      ",</w>"
    ],
    [
      "ᱢᱮ",
      "ᱹ"
    ],
    [
      "ᱝ",
      "ᱜᱤ"
    ],
    [
      "ᱞᱤᱸᱜᱤ",
      "ᱱ</w>"
    ],
    [
      "ᱰᱤ",
      "ᱥ"
    ],
    [
      "ᱞᱤᱭ",
      "ᱩ"
    ],
    [
      "ᱦᱚ",
      "ᱠ</w>"
    ],
    [
      "ᱨᱤᱡᱷ",
      "ᱟᱹᱣ</w>"
    ],
    [
      "ᱢᱟ",
      "ᱪᱮᱫ</w>"
    ],
    [
      "ᱛᱤ",
      "ᱨᱮ</w>"
    ],
    [
      "ᱜᱷᱟᱸᱨᱚ",
      "ᱡᱽ</w>"
    ],
    [
      "ᱱ",
      "ᱮᱭ"
    ],
    [
      "ᱵᱤ",
      "ᱞ"
    ],
    [
      "ᱡᱚ",
      "ᱛᱚ"
    ],
    [
      "ᱠᱷᱚ",
      "ᱭ</w>"
    ],
    [
      "ᱨᱮ",
      "ᱵᱮᱱ</w>"
    ],
    [
      "ᱯᱷᱳᱨ",
      "ᱱᱤᱭᱟ</w>"
    ],
    [
      "ᱞᱮᱠ",
      "ᱟᱜᱮ</w>"
    ],
    [
      "ᱵ",
      "ᱩᱨᱩ"
    ],
    [
      "ᱮ",
      "ᱦᱚ"
    ],
    [
      "ᱛᱟᱹ",
      "ᱨ</w>"
    ],
    [
      "ᱜᱚ",
      "ᱢ</w>"
    ],
    [
      "ᱫᱷᱟ",
      "ᱯ</w>"
    ],
    [
      "ᱲ",
      "ᱮ"
    ],
    [
      "ᱠᱚ",
      "ᱭᱮ"
    ],
    [
      "ᱥᱚ",
      "ᱯᱚ"
    ],
    [
      "ᱥᱚᱢ",
      "ᱨᱟᱴ</w>"
    ],
    [
      "ᱱᱚ",
      "ᱡᱚᱨ</w>"
    ],
    [
      "ᱥᱚ",
      "ᱛ"
    ],
    [
      "ᱵᱟᱝ",
      "ᱞᱟ"
    ],
    [
      "ᱥᱤ",
      "ᱢᱟᱹ"
    ],
    [
      "ᱤᱵᱷ",
      "ᱮᱱᱴ</w>"
    ],
    [
      "ᱡ",
      "ᱟᱜ"
    ],
    [
      "ᱜᱷ",
      "ᱟᱣ</w>"
    ],
    [
      "ᱫᱚᱦᱚ",
      "ᱭᱟ</w>"
    ],
    [
      "ᱥᱩ",
      "ᱫ</w>"
    ],
    [
      "ᱫᱚ",
      "ᱠᱷᱤᱱᱼ"
    ],
    [
      "ᱦᱩ",
      "ᱫᱤ</w>"
    ],
    [
      "ᱫᱟ",
      "ᱥ</w>"
    ],
    [
      "ᱰ",
      "ᱟᱹ"
    ],
    [
      "ᱯᱤ",
      "ᱪᱷ"
    ],
    [
      "ᱥᱚᱱ",
      "ᱛᱚᱨ</w>"
    ],
    [
      "ᱦᱤᱥᱟᱹ",
      "ᱵ"
    ],
    [
      "ᱯᱟᱹᱣ",
      "ᱨᱟᱹ</w>"
    ],
    [
      "ᱵᱷᱤ",
      "ᱥᱚᱱ</w>"
    ],
    [
      "ᱛᱟ",
      "ᱠᱤᱭᱟᱹ</w>"
    ],
    [
      "ᱦᱚᱲ",
      "ᱮ</w>"
    ],
    [
      "ᱥᱮᱞᱮ",
      "ᱫᱚᱜ</w>"
    ],
    [
      "ᱡ",
      "ᱼ"
    ],
    [
      "ᱡᱚᱱ",
      "ᱛᱚᱨ</w>"
    ],
    [
      "ᱨᱟᱡᱚ",
      "ᱥᱛᱷᱟᱱ</w>"
    ],
    [
      "ᱨᱤ",
      ",</w>"
    ],
    [
      "ᱛᱚ",
      "ᱛ"
    ],
    [
      "ᱯᱟᱹᱨ",
      "ᱥᱤ"
    ],
    [
      "ᱢᱩ",
      "ᱞ</w>"
    ],
    [
      "ᱠᱚᱨ",
      "ᱟ"
    ],
    [
      "ᱱᱤ",
      "ᱥᱟᱹ"
    ],
    [
      "ᱯᱩᱨ",
      "ᱟ</w>"
    ],
    [
      "ᱥᱟ",
      "ᱦᱟ</w>"
    ],
    [
      "ᱛᱷᱟᱹ",
      "ᱱᱤᱛ</w>"
    ],
    [
      "ᱨᱚ",
      "ᱠ</w>"
    ],
    [
      "ᱢᱮ",
      "ᱥ"
    ],
    [
      "ᱦᱤ",
      "ᱥᱤᱫ</w>"
    ],
    [
      "᱒",
      "ᱼ"
    ],
    [
      "ᱥᱟᱯᱟ",
      "ᱵ</w>"
    ],
    [
      "ᱣ",
      "ᱟᱹᱨ</w>"
    ],
    [
      "ᱡᱟᱸ",
      "ᱦᱟᱭ</w>"
    ],
    [
      "ᱞᱟ",
      "ᱣᱟ</w>"
    ],
    [
      "ᱵᱤ",
      "ᱞᱟᱹ"
    ],
    [
      "ᱫᱚ",
      "ᱦᱚᱭ"
    ],
    [
      "ᱥᱟᱹ",
      "ᱠ"
    ],
    [
      "ᱢᱚ",
      "ᱛᱤ</w>"
    ],
    [
      "ᱯᱷᱤ",
      "ᱞᱤᱢ</w>"
    ],
    [
      "ᱞᱚ",
      "ᱝ</w>"
    ],
    [
      "ᱰ",
      "ᱥ</w>"
    ],
    [
      "ᱞᱟᱹᱜᱤᱫ",
      "ᱼᱮ</w>"
    ],
    [
      "ᱦᱟ",
      "ᱡᱟᱨ</w>"
    ],
    [
      "ᱨᱤ",
      "ᱡᱽ</w>"
    ],
    [
      "ᱵᱤᱫᱷ",
      "ᱟᱱ</w>"
    ],
    [
      "ᱫᱷᱟᱨ",
      "ᱟ</w>"
    ],
    [
      "ᱥ",
      "ᱯᱮ"
    ],
    [
      "ᱠᱟᱨ",
      "ᱤ</w>"
    ],
    [
      "ᱞᱮ",
      "ᱴ</w>"
    ],
    [
      "ᱥᱚᱝᱥ",
      "ᱛᱷᱟ</w>"
    ],
    [
      "ᱨᱮ",
      "ᱴᱤᱝ</w>"
    ],
    [
      "ᱱᱤ",
      "ᱣ"
    ],
    [
      "ᱨᱚᱯᱚ",
      "ᱲ</w>"
    ],
    [
      "ᱹ",
      "᱕</w>"
    ],
    [
      "ᱢᱤᱫ",
      "ᱵᱟᱨ</w>"
    ],
    [
      "ᱠᱮ",
      "ᱞ"
    ],
    [
      "᱒᱐᱐",
      "᱒</w>"
    ],
    [
      "ᱵᱮ",
      "ᱥ"
    ],
    [
      "ᱵᱚ",
      "ᱜᱼᱟ</w>"
    ],
    [
      "ᱫᱚ",
      "ᱦ"
    ],
    [
      "ᱨᱮ",
      "ᱸᱜᱮ"
    ],
    [
      "ᱥᱟ",
      "ᱱᱟᱢ"
    ],
    [
      "ᱯᱟᱠᱤ",
      "ᱥᱛᱟᱱ</w>"
    ],
    [
      "ᱯᱨᱚᱛᱤ",
      "ᱱᱤ"
    ],
    [
      "ᱞᱟ",
      "ᱱ"
    ],
    [
      "ᱡ",
      "ᱟᱜ</w>"
    ],
    [
      "ᱛᱤ",
      "ᱠᱤᱪᱷᱟ</w>"
    ],
    [
      "ᱢ",
      "ᱳᱣ"
    ],
    [
      "ᱦᱤ",
      "ᱢᱟ"
    ],
    [
      "ᱵᱚ",
      "ᱥ"
    ],
    [
      "ᱢᱟ",
      "ᱲ"
    ],
    [
      "ᱪᱟ",
      "ᱣ</w>"
    ],
    [
      "ᱜᱚᱴᱟ",
      "ᱭ</w>"
    ],
    [
      "ᱡᱚ",
      "ᱛ"
    ],
    [
      "ᱠᱚ",
      "ᱴᱷᱮᱱ</w>"
    ],
    [
      "ᱵᱷ",
      "ᱚᱠ"
    ],
    [
      "ᱯᱟᱨ",
      "ᱥᱟᱞ</w>"
    ],
    [
      "ᱵᱤᱪᱷ",
      "ᱱᱟᱹᱣ</w>"
    ],
    [
      "ᱫᱚ",
      "ᱠᱟᱱ</w>"
    ],
    [
      "ᱟ",
      "ᱫᱮ</w>"
    ],
    [
      "ᱰ",
      "ᱨᱟ"
    ],
    [
      "ᱱᱚ",
      "ᱢᱵᱚᱨ</w>"
    ],
    [
      "᱕",
      "᱐᱐</w>"
    ],
    [
      "ᱩ",
      "ᱪ"
    ],
    [
      "ᱡᱮ",
      "ᱦᱮ"
    ],
    [
      "ᱵ",
      ",</w>"
    ],
    [
      "ᱵᱮ",
      "ᱱᱟᱣᱟ</w>"
    ],
    [
      "ᱩᱭᱤ",
      "ᱱᱰᱳ"
    ],
    [
      "ᱴᱮᱸᱦᱟ",
      "ᱴ</w>"
    ],
    [
      "ᱡᱟᱦᱟᱸ",
      "ᱱ</w>"
    ],
    [
      "ᱜᱷ",
      "ᱟᱱᱮ</w>"
    ],
    [
      "ᱟᱫᱟ",
      "ᱞᱚᱛ</w>"
    ],
    [
      "ᱥᱳ",
      "ᱯᱨᱳ"
    ],
    [
      "ᱵᱚ",
      "ᱱᱟ</w>"
    ],
    [
      "ᱫᱚ",
      "ᱠᱷᱚᱞ</w>"
    ],
    [
      "ᱯ",
      "ᱮᱴ"
    ],
    [
      "ᱦᱟᱦᱟ",
      "ᱲᱟ</w>"
    ],
    [
      "ᱜᱟᱱᱚ",
      "ᱜ</w>"
    ],
    [
      "ᱠᱮ",
      "ᱢ"
    ],
    [
      "ᱢᱮ",
      "ᱭᱟ</w>"
    ],
    [
      "ᱮᱛ",
      "ᱦᱚᱵ</w>"
    ],
    [
      "ᱠᱷᱮᱞᱚ",
      "ᱸᱰ</w>"
    ],
    [
      "ᱠᱷᱚ",
      "ᱛᱤ</w>"
    ],
    [
      "ᱯᱮ",
      "ᱨᱮ"
    ],
    [
      "ᱦᱮᱸ",
      "ᱫᱮ</w>"
    ],
    [
      "ᱵᱷ",
      "ᱟᱱ"
    ],
    [
      "ᱤ",
      ",</w>"
    ],
    [
      "ᱠ",
      "ᱩᱨ"
    ],
    [
      "ᱤᱱᱴᱟᱨ",
      "ᱱᱮᱴ</w>"
    ],
    [
      "ᱥᱠᱳ",
      "ᱨ</w>"
    ],
    [
      "ᱥᱚᱢ",
      "ᱵᱷᱚ"
    ],
    [
      "ᱭᱚ",
      "ᱝ</w>"
    ],
    [
      "ᱭᱤ",
      "ᱥ</w>"
    ],
    [
      "ᱯᱩ",
      "ᱸ"
    ],
    [
      "ᱧᱮᱞᱚ",
      "ᱜ</w>"
    ],
    [
      "ᱢᱮ",
      "ᱫ"
    ],
    [
      "ᱨᱟᱡᱽ",
      "ᱵᱚᱝᱥᱚ</w>"
    ],
    [
      "ᱯᱚ",
      "ᱛ"
    ],
    [
      "ᱠᱚ",
      "ᱭ"
    ],
    [
      "ᱠᱩ",
      "ᱢᱩ"
    ],
    [
      "ᱪᱟᱢᱯᱤᱭ",
      "ᱚᱱᱥᱤᱯ</w>"
    ],
    [
      "᱑᱙᱔",
      "᱗</w>"
    ],
    [
      "ᱥᱳ",
      "ᱱᱟ</w>"
    ],
    [
      "ᱵᱷᱤ",
      "ᱞ</w>"
    ],
    [
      "ᱢᱟ",
      "ᱱᱟᱣ"
    ],
    [
      "ᱠᱚᱨᱱᱟ",
      "ᱴᱚᱠ</w>"
    ],
    [
      "ᱱ",
      "ᱮᱞ</w>"
    ],
    [
      "ᱵᱟ",
      "ᱲᱦᱟᱣ</w>"
    ],
    [
      "ᱤᱭᱩᱨᱳ",
      "ᱯ</w>"
    ],
    [
      "ᱛᱟᱦᱮᱸ",
      "ᱠᱟᱱᱟ,</w>"
    ],
    [
      "ᱵᱤᱨᱟᱹᱫᱟᱹ",
      "ᱞᱤ</w>"
    ],
    [
      "ᱪᱟ",
      "ᱱᱟ"
    ],
    [
      "ᱭᱚ",
      "ᱜ</w>"
    ],
    [
      "ᱦᱚᱲ",
      "ᱞᱮᱠᱷᱟ</w>"
    ],
    [
      "ᱟ",
      "ᱯᱷ"
    ],
    [
      "ᱦᱟ",
      "ᱢ</w>"
    ],
    [
      "ᱥᱴ",
      "ᱚᱱ</w>"
    ],
    [
      "ᱢᱟ",
      "ᱥ</w>"
    ],
    [
      "ᱢᱟ",
      "ᱱᱟ</w>"
    ],
    [
      "ᱠᱟ",
      ",</w>"
    ],
    [
      "ᱯᱷᱟᱨ",
      "ᱟᱠ</w>"
    ],
    [
      "ᱦᱤᱱ",
      "ᱫᱩ"
    ],
    [
      "ᱯᱟᱴᱷ",
      "ᱚᱠ"
    ],
    [
      "ᱠᱨᱤ",
      "ᱛ</w>"
    ],
    [
      "ᱛᱤ",
      "ᱨᱩ"
    ],
    [
      "ᱥᱚ",
      "ᱨᱮ"
    ],
    [
      "ᱦᱟᱹ",
      "ᱠᱩ</w>"
    ],
    [
      "ᱦᱳ",
      "ᱞᱤ</w>"
    ],
    [
      "ᱱᱤ",
      "ᱭᱟᱜ</w>"
    ],
    [
      "ᱟᱹ",
      "ᱢᱟᱹ"
    ],
    [
      "ᱟᱡ",
      "ᱷᱟ"
    ],
    [
      "ᱵᱮᱣᱦᱟᱨᱚ",
      "ᱜ</w>"
    ],
    [
      "ᱮᱭᱤ",
      "ᱪ"
    ],
    [
      "ᱢᱮ",
      "ᱞᱟᱱ</w>"
    ],
    [
      "᱾",
      "\"</w>"
    ],
    [
      "ᱲ",
      "ᱤᱭᱟᱹ</w>"
    ],
    [
      "ᱟᱨ",
      ",</w>"
    ],
    [
      "ᱝ",
      "ᱠ"
    ],
    [
      "ᱥᱟᱨ",
      "ᱟ</w>"
    ],
    [
      "ᱴᱷ",
      "ᱮᱱ"
    ],
    [
      "ᱨᱤ",
      "ᱱᱤᱡ</w>"
    ],
    [
      "ᱥᱟᱺ",
      "ᱜᱤᱧ</w>"
    ],
    [
      "ᱞᱟ",
      "ᱸ"
    ],
    [
      "ᱠᱷᱤ",
      "ᱥᱴᱟ"
    ],
    [
      "ᱱᱤ",
      "ᱭ</w>"
    ],
    [
      "ᱡᱟ",
      "ᱱᱟᱝ</w>"
    ],
    [
      "ᱢᱮ",
      "ᱴ"
    ],
    [
      "ᱵᱷᱩ",
      "ᱢᱤ</w>"
    ],
    [
      "ᱜᱚ",
      "ᱪ</w>"
    ],
    [
      "ᱥᱩᱱ",
      "ᱩᱢ</w>"
    ],
    [
      "ᱵᱷᱳ",
      "ᱴ</w>"
    ],
    [
      "ᱵᱟ",
      "ᱫᱟ"
    ],
    [
      "ᱞᱟ",
      "ᱫᱟ"
    ],
    [
      "ᱞᱮᱱᱟ",
      "᱾</w>"
    ],
    [
      "ᱵ",
      "ᱥᱟᱭᱤᱴ</w>"
    ],
    [
      "ᱟᱨ",
      "ᱩ"
    ],
    [
      "ᱟᱭ",
      "ᱩᱢᱟᱹᱱ</w>"
    ],
    [
      "ᱟᱥ",
      "ᱲᱟ</w>"
    ],
    [
      "ᱟᱠ",
      "ᱵᱚᱨ</w>"
    ],
    [
      "ᱨᱟᱡᱽ",
      "ᱯᱟᱴ</w>"
    ],
    [
      "ᱰ",
      "ᱟ,</w>"
    ],
    [
      "ᱛᱟᱨ",
      "ᱟ</w>"
    ],
    [
      "ᱠᱟ",
      "ᱸ"
    ],
    [
      "ᱠᱷᱮᱞᱚ",
      "ᱰᱤᱭᱟᱹ</w>"
    ],
    [
      "ᱵᱷ",
      "ᱤᱭᱮ"
    ],
    [
      "ᱡᱤ",
      "ᱵᱟᱱᱩ</w>"
    ],
    [
      "ᱛᱟᱢᱤᱞᱱᱟ",
      "ᱲᱩ</w>"
    ],
    [
      "ᱨᱟᱯᱟ",
      "ᱪᱟᱜ</w>"
    ],
    [
      "ᱵᱷᱟ",
      "ᱞᱮ</w>"
    ],
    [
      "ᱫᱚ",
      "ᱯ"
    ],
    [
      "ᱮ",
      "ᱞᱟ"
    ],
    [
      "ᱠᱤ",
      "ᱴ</w>"
    ],
    [
      "ᱥᱤᱭ",
      "ᱟᱥ</w>"
    ],
    [
      "ᱠᱚᱞ",
      "ᱯᱚ"
    ],
    [
      "ᱯᱤ",
      "ᱞ</w>"
    ],
    [
      "ᱤ",
      "ᱥ</w>"
    ],
    [
      "ᱠᱩ",
      "ᱭ"
    ],
    [
      "ᱫᱷᱟᱹ",
      "ᱨ</w>"
    ],
    [
      "ᱣᱩᱱ",
      "ᱰ</w>"
    ],
    [
      "ᱩ",
      "ᱠᱩ</w>"
    ],
    [
      "ᱥ",
      "ᱛᱟ</w>"
    ],
    [
      "ᱪᱮᱱ",
      "ᱱᱟᱭ</w>"
    ],
    [
      "ᱜᱷ",
      "ᱳ"
    ],
    [
      "ᱩᱭᱤᱱᱰᱳ",
      "ᱡ</w>"
    ],
    [
      "ᱵᱮ",
      "ᱜᱚᱨ"
    ],
    [
      "ᱥᱟᱹ",
      "ᱜᱩᱱ</w>"
    ],
    [
      "ᱯᱟᱹᱴᱷᱩ",
      "ᱣᱟᱹ</w>"
    ],
    [
      "ᱡᱷᱩ",
      "ᱸ"
    ],
    [
      "ᱨᱮ",
      "ᱧ</w>"
    ],
    [
      "ᱯᱮ",
      "ᱥᱟ"
    ],
    [
      "ᱵᱳᱣ",
      "ᱫᱷᱚ</w>"
    ],
    [
      "ᱟ",
      "ᱠᱷᱚ"
    ],
    [
      "ᱫᱷ",
      "ᱟᱨ</w>"
    ],
    [
      "ᱠᱮᱞᱤ",
      "ᱯᱷᱳᱨᱱᱤᱭᱟ</w>"
    ],
    [
      "ᱯᱟᱠᱤ",
      "ᱥᱛᱷᱟᱱ</w>"
    ],
    [
      "ᱠ",
      "ᱠᱷᱚ</w>"
    ],
    [
      "ᱯᱟᱨ",
      "ᱠ</w>"
    ],
    [
      "ᱵᱩ",
      "ᱡᱩᱱ</w>"
    ],
    [
      "ᱴᱷ",
      "</w>"
    ],
    [
      "ᱠᱳᱨ",
      "ᱴ</w>"
    ],
    [
      "ᱛᱷ",
      "ᱚᱨ</w>"
    ],
    [
      "ᱢᱮᱠ",
      "ᱥᱤ"
    ],
    [
      "ᱛᱟ",
      ",</w>"
    ],
    [
      "ᱲ",
      "ᱟ,</w>"
    ],
    [
      "ᱰᱤ",
      "ᱴ</w>"
    ],
    [
      "ᱢᱤ",
      "ᱢᱤᱫ</w>"
    ],
    [
      "ᱠᱷ",
      "ᱟᱱ"
    ],
    [
      "ᱢᱚᱱ",
      "ᱳ"
    ],
    [
      "ᱪᱟ",
      "ᱵᱟ</w>"
    ],
    [
      "ᱜᱚ",
      "ᱱ"
    ],
    [
      "ᱱᱤᱭ",
      "ᱚ</w>"
    ],
    [
      "ᱨᱩ",
      "ᱭᱟᱹᱲ</w>"
    ],
    [
      "ᱡᱳ",
      "ᱜᱽ</w>"
    ],
    [
      "ᱟᱠᱚ",
      ",</w>"
    ],
    [
      "ᱯᱷᱤ",
      "ᱞᱤ"
    ],
    [
      "ᱯᱷᱩ",
      "ᱥ"
    ],
    [
      "ᱯᱩ",
      "ᱡᱟᱹ</w>"
    ],
    [
      "ᱢᱮᱱ",
      "ᱟᱜᱼ"
    ],
    [
      "ᱢᱮ",
      "ᱭᱟ"
    ],
    [
      "ᱵᱟᱸ",
      "ᱫᱷ</w>"
    ],
    [
      "ᱜ",
      "ᱳᱣ"
    ],
    [
      "ᱢᱟᱭᱤ",
      "ᱞ)</w>"
    ],
    [
      "ᱡᱚ",
      "ᱝ</w>"
    ],
    [
      "ᱥᱴᱮ",
      "ᱰᱤᱭᱟᱢ</w>"
    ],
    [
      "ᱚ",
      "ᱠ</w>"
    ],
    [
      "ᱠᱤ",
      "ᱥᱟᱹ"
    ],
    [
      "ᱵᱟᱨ",
      "ᱟ"
    ],
    [
      "ᱥᱤ",
      "ᱞᱤ"
    ],
    [
      "ᱜᱷᱩ",
      "ᱲᱤ</w>"
    ],
    [
      "ᱜᱤᱨᱟᱹ",
      "ᱵᱟᱥ</w>"
    ],
    [
      "ᱛᱮ",
      "ᱭᱟᱜ</w>"
    ],
    [
      "ᱯᱷ",
      "ᱮᱱ"
    ],
    [
      "ᱠᱷ",
      "ᱳ</w>"
    ],
    [
      "ᱵᱤᱥ",
      "ᱱᱩ</w>"
    ],
    [
      "ᱳᱭ",
      "ᱟ"
    ],
    [
      "ᱦᱚᱭᱩ",
      "ᱜᱼᱟ</w>"
    ],
    [
      "ᱵᱟᱹᱱᱩ",
      "ᱜ</w>"
    ],
    [
      "ᱵᱤ",
      "ᱡ,</w>"
    ],
    [
      "ᱫᱚᱲᱦᱟ",
      "ᱛᱮ</w>"
    ],
    [
      "ᱟ",
      "ᱥᱟ</w>"
    ],
    [
      "ᱥᱚ",
      "ᱱᱚᱛ</w>"
    ],
    [
      "ᱜᱮ",
      "ᱞᱟᱝ</w>"
    ],
    [
      "ᱥᱚᱯᱷ",
      "ᱴ"
    ],
    [
      "ᱵᱷᱤ",
      "ᱰᱤᱭᱳ</w>"
    ],
    [
      "ᱠᱟᱣ",
      "ᱰᱤ</w>"
    ],
    [
      "ᱠᱷᱟ",
      "ᱱᱟ</w>"
    ],
    [
      "ᱫᱚᱯ",
      "ᱛᱚᱨ</w>"
    ],
    [
      "ᱢᱚ",
      "ᱦᱤ"
    ],
    [
      "ᱯ",
      ",</w>"
    ],
    [
      "ᱠᱷᱟ",
      "ᱥ"
    ],
    [
      "ᱡᱟᱠᱟ",
      "ᱫ</w>"
    ],
    [
      "ᱪᱤ",
      "ᱨ</w>"
    ],
    [
      "ᱩᱰ",
      "ᱟᱹᱣ</w>"
    ],
    [
      "ᱟᱠᱚ",
      "ᱴ</w>"
    ],
    [
      "ᱜᱤᱨᱟᱹ",
      "ᱵᱟᱹᱥᱤ</w>"
    ],
    [
      "ᱵᱷ",
      "ᱚ</w>"
    ],
    [
      "/",
      "</w>"
    ],
    [
      "ᱱᱚ",
      "ᱛᱷᱤ</w>"
    ],
    [
      "ᱡᱷ",
      "ᱤᱡ</w>"
    ],
    [
      "ᱭᱤ",
      "ᱠ</w>"
    ],
    [
      "ᱜᱩ",
      "ᱞᱤ</w>"
    ],
    [
      "ᱢᱤ",
      "ᱝ</w>"
    ],
    [
      "ᱠᱩ",
      "ᱴ"
    ],
    [
      "ᱫᱷᱩᱨ",
      "ᱤᱭᱟᱹ</w>"
    ],
    [
      "ᱵᱷᱟ",
      "ᱲᱟ</w>"
    ],
    [
      "ᱡ",
      "ᱩᱨᱤ</w>"
    ],
    [
      "ᱜᱚ",
      "ᱫ</w>"
    ],
    [
      "ᱢᱚ",
      "ᱧ"
    ],
    [
      "ᱱᱟᱨᱟᱭ",
      "ᱚᱱ</w>"
    ],
    [
      "ᱠᱮ",
      "ᱹ"
    ],
    [
      "ᱥᱟᱬ",
      "ᱮᱥᱤᱭᱟᱹ</w>"
    ],
    [
      "ᱡᱟᱯᱟ",
      "ᱱᱤ</w>"
    ],
    [
      "ᱵᱤᱨᱩᱫᱷ",
      "ᱨᱮ</w>"
    ],
    [
      "ᱵᱟ",
      "ᱵᱟ"
    ],
    [
      "ᱴᱚ",
      "ᱢ</w>"
    ],
    [
      "ᱥᱤ",
      "ᱠᱤᱢ</w>"
    ],
    [
      "ᱥ",
      "ᱴᱷ"
    ],
    [
      "ᱜ",
      "ᱨᱩᱯ</w>"
    ],
    [
      "᱑᱙᱖",
      "᱐</w>"
    ],
    [
      "ᱯᱷᱩ",
      "ᱥ</w>"
    ],
    [
      "ᱡᱩᱠ",
      "ᱛᱤ</w>"
    ],
    [
      "ᱵ",
      "ᱩᱱ"
    ],
    [
      "ᱠᱳ",
      "ᱣ"
    ],
    [
      "ᱴ",
      "ᱥ"
    ],
    [
      "ᱥᱚᱨᱟ",
      "ᱥᱚᱨᱤ</w>"
    ],
    [
      "ᱫᱟᱹ",
      "ᱭ</w>"
    ],
    [
      "ᱠᱟᱹᱢᱤ",
      "ᱭ</w>"
    ],
    [
      "ᱢᱩ",
      "ᱞ"
    ],
    [
      "ᱥᱮ",
      "ᱨ</w>"
    ],
    [
      "ᱞᱚ",
      "ᱜᱼᱟ</w>"
    ],
    [
      "ᱟᱡᱷᱟ",
      "ᱴ</w>"
    ],
    [
      "ᱵᱟᱝ",
      ",</w>"
    ],
    [
      "ᱥᱤᱱᱮ",
      "ᱢᱟ</w>"
    ],
    [
      "ᱢᱟ",
      "ᱛᱨᱟ</w>"
    ],
    [
      "ᱵᱟ",
      "ᱦᱟ</w>"
    ],
    [
      "ᱲᱚ",
      "ᱜ</w>"
    ],
    [
      "ᱟᱯᱷᱨᱤ",
      "ᱠᱟ</w>"
    ],
    [
      "ᱜᱚ",
      "ᱰᱟ</w>"
    ],
    [
      "ᱡᱟ",
      "ᱛᱤᱭ"
    ],
    [
      "ᱥᱤ",
      "ᱱᱰ"
    ],
    [
      "ᱯᱮ",
      "ᱨᱟ"
    ],
    [
      "ᱵᱟᱵᱚ",
      "ᱛ</w>"
    ],
    [
      "ᱪᱮ",
      "ᱠ</w>"
    ],
    [
      "ᱡᱟᱣ",
      "ᱨᱟ</w>"
    ],
    [
      "ᱯᱟ",
      "ᱥᱮ</w>"
    ],
    [
      "ᱫᱟᱯᱨᱟ",
      "ᱢ</w>"
    ],
    [
      "ᱪ",
      "ᱚᱱ</w>"
    ],
    [
      "ᱡᱤᱭ",
      "ᱚᱱ"
    ],
    [
      "ᱢᱮ",
      "ᱨᱤ"
    ],
    [
      "ᱪᱟ",
      "ᱯᱟᱞ</w>"
    ],
    [
      "ᱩᱭ",
      "ᱠᱤ"
    ],
    [
      "ᱵᱷᱟ",
      "ᱥ"
    ],
    [
      "ᱥᱚ",
      "ᱠ"
    ],
    [
      "ᱨᱟ",
      "ᱠᱷᱟ</w>"
    ],
    [
      "᱓",
      "᱕</w>"
    ],
    [
      "ᱥᱟ",
      "ᱵᱷᱟ"
    ],
    [
      "ᱥᱚᱫ",
      "ᱚᱨ"
    ],
    [
      "᱐",
      "%</w>"
    ],
    [
      "ᱛᱷ",
      "ᱚᱱ</w>"
    ],
    [
      "ᱜᱟ",
      "ᱭ</w>"
    ],
    [
      "ᱡᱚ",
      "ᱠ</w>"
    ],
    [
      "ᱢᱟ",
      "ᱞᱟ"
    ],
    [
      "ᱱᱫ",
      "ᱚᱨ</w>"
    ],
    [
      "ᱢᱟ",
      "ᱲᱟ"
    ],
    [
      "ᱨᱟᱹ",
      "ᱥᱤᱭ"
    ],
    [
      "ᱯᱨᱳ",
      "ᱜᱨᱟᱢ</w>"
    ],
    [
      "ᱥᱟᱹᱨᱤ",
      "ᱭᱟᱜ</w>"
    ],
    [
      "ᱨᱤ",
      "ᱛᱩ</w>"
    ],
    [
      "ᱵᱟ",
      "ᱢ"
    ],
    [
      "ᱠᱟᱣᱩᱱ",
      "ᱴᱤ</w>"
    ],
    [
      "᱓",
      "᱑</w>"
    ],
    [
      "ᱜᱤ",
      "ᱫ"
    ],
    [
      "ᱟᱪ",
      "ᱨᱮᱱ</w>"
    ],
    [
      "ᱵᱮ",
      "ᱱᱟ"
    ],
    [
      "ᱡᱮᱱᱟ",
      "ᱨᱮᱞ</w>"
    ],
    [
      "ᱲᱚ",
      "ᱢ</w>"
    ],
    [
      "ᱮᱠᱟ",
      "ᱰᱮ"
    ],
    [
      "ᱥᱟ",
      "ᱰᱮ</w>"
    ],
    [
      "ᱵᱟ",
      "ᱦᱤ"
    ],
    [
      "ᱠᱷᱚ",
      "ᱱ,</w>"
    ],
    [
      "ᱵᱚᱨ",
      ",</w>"
    ],
    [
      "ᱠᱮ",
      "ᱴ"
    ],
    [
      "ᱢᱤ",
      "ᱱ"
    ],
    [
      "ᱜᱤᱫᱽ",
      "ᱨᱟᱹ"
    ],
    [
      "ᱞᱩ",
      "ᱠ"
    ],
    [
      "ᱥᱚ",
      "ᱴ</w>"
    ],
    [
      "ᱟᱨ",
      "ᱴ</w>"
    ],
    [
      "ᱦᱮᱯᱨᱟ",
      "ᱣ"
    ],
    [
      "ᱥᱟ",
      "ᱵ"
    ],
    [
      "ᱜ",
      "ᱮᱭᱟ,</w>"
    ],
    [
      "ᱡᱳ",
      "ᱜ"
    ],
    [
      "ᱧᱩ",
      "ᱢᱟᱱ</w>"
    ],
    [
      "ᱢᱤ",
      "ᱛ</w>"
    ],
    [
      "ᱵᱤ",
      "ᱦᱟᱨ</w>"
    ],
    [
      "ᱬ",
      "</w>"
    ],
    [
      "ᱯᱚ",
      "ᱫᱽ"
    ],
    [
      "ᱥ",
      "ᱯᱳᱨ"
    ],
    [
      "ᱮ",
      "ᱲᱟᱣ</w>"
    ],
    [
      "ᱥ",
      "ᱟᱹ</w>"
    ],
    [
      "ᱛᱮ",
      "ᱢ</w>"
    ],
    [
      "ᱴ",
      "ᱤᱭᱩ"
    ],
    [
      "ᱦᱩ",
      "ᱢᱟᱭ"
    ],
    [
      "ᱥ",
      "ᱠᱩᱞ</w>"
    ],
    [
      "ᱵᱚ",
      "ᱼ"
    ],
    [
      "ᱪᱟᱱᱟ",
      "ᱪ</w>"
    ],
    [
      "ᱝ",
      "ᱨᱮ</w>"
    ],
    [
      "ᱢᱮ",
      "ᱥᱟ"
    ],
    [
      "ᱮᱥᱳᱥᱤᱭᱮ",
      "ᱥᱚᱱ</w>"
    ],
    [
      "ᱵᱮᱵᱚ",
      "ᱦᱟᱨ</w>"
    ],
    [
      "ᱢᱚ",
      "ᱦᱟ</w>"
    ],
    [
      "ᱜᱷᱚᱴᱚ",
      "ᱱᱟ</w>"
    ],
    [
      "ᱵᱷᱟ",
      "ᱵ</w>"
    ],
    [
      "ᱵᱮ",
      "ᱨ</w>"
    ],
    [
      "ᱨᱳ",
      "ᱢ</w>"
    ],
    [
      "ᱯ",
      "ᱟᱜ</w>"
    ],
    [
      "ᱢᱟ",
      "ᱢ</w>"
    ],
    [
      "ᱟᱸ",
      "ᱫᱳ"
    ],
    [
      "ᱡᱚ",
      "ᱡᱚᱢ</w>"
    ],
    [
      "ᱵᱮᱣᱦᱟᱨᱚ",
      "ᱜᱼᱟ</w>"
    ],
    [
      "ᱛᱚ",
      ",</w>"
    ],
    [
      "ᱥᱚᱨᱠᱟᱨ",
      "ᱟᱜ</w>"
    ],
    [
      "ᱵᱷ",
      "ᱮᱱᱮ"
    ],
    [
      "ᱴᱮ",
      "ᱫ</w>"
    ],
    [
      "ᱛᱟᱭᱚ",
      "ᱢ"
    ],
    [
      "ᱵᱟᱰᱟᱭ",
      "ᱚᱜᱼᱟ</w>"
    ],
    [
      "ᱵᱟ",
      "ᱡᱟᱣ</w>"
    ],
    [
      "ᱱᱟ",
      "ᱱ"
    ],
    [
      "ᱫᱚᱨ",
      "ᱵᱟᱨ</w>"
    ],
    [
      "ᱥᱟᱹᱨᱤ",
      "ᱜᱮ</w>"
    ],
    [
      "ᱵᱮ",
      "ᱵ"
    ],
    [
      "ᱪᱚᱱᱫ",
      "ᱨᱚ"
    ],
    [
      "᱑",
      "᱒"
    ],
    [
      "ᱥᱳᱭ",
      "ᱞᱤ</w>"
    ],
    [
      "ᱠᱚ",
      "ᱨᱮᱫ</w>"
    ],
    [
      "᱐",
      "᱐᱐</w>"
    ],
    [
      "ᱠᱚᱞ",
      "ᱯᱚ</w>"
    ],
    [
      "ᱵᱷᱟ",
      "ᱜᱽ</w>"
    ],
    [
      "ᱢᱤ",
      "ᱞᱟᱹᱣ</w>"
    ],
    [
      "ᱰᱮᱴ",
      "ᱟ</w>"
    ],
    [
      "ᱵᱟᱨ",
      "ᱜ</w>"
    ],
    [
      "ᱨᱟᱹ",
      "ᱜᱤ</w>"
    ],
    [
      "ᱯᱟᱨᱟ",
      "ᱵ</w>"
    ],
    [
      "ᱴ",
      "ᱟᱹ"
    ],
    [
      "ᱨᱳ",
      "ᱥ</w>"
    ],
    [
      "ᱟᱹ",
      "ᱫᱤ"
    ],
    [
      "ᱢᱚᱱᱤ",
      "ᱯᱩᱨ</w>"
    ],
    [
      "ᱯ",
      "ᱮᱞ</w>"
    ],
    [
      "ᱡᱟᱹ",
      "ᱭ</w>"
    ],
    [
      "ᱯᱟ",
      "ᱴ"
    ],
    [
      "ᱚᱱᱟ",
      "ᱫᱚ</w>"
    ],
    [
      "ᱟ",
      "ᱰᱤ</w>"
    ],
    [
      "ᱯᱩᱨᱟᱹ",
      "ᱯᱩᱨᱤ</w>"
    ],
    [
      "ᱦᱤ",
      "ᱥ</w>"
    ],
    [
      "ᱴᱤ",
      "ᱵᱷ</w>"
    ],
    [
      "ᱞᱤ",
      "ᱭ</w>"
    ],
    [
      "ᱩᱪᱷ",
      "ᱟᱹ"
    ],
    [
      "᱑",
      "ᱼ"
    ],
    [
      "ᱜ",
      "ᱨᱤ</w>"
    ],
    [
      "ᱛᱚ",
      "ᱢ</w>"
    ],
    [
      "ᱞᱤ",
      "ᱜ</w>"
    ],
    [
      "ᱡᱟᱹ",
      "ᱛᱤ"
    ],
    [
      "ᱮᱠ",
      "ᱥ"
    ],
    [
      "ᱛᱷ",
      "ᱟᱱ</w>"
    ],
    [
      "ᱭ",
      "ᱟᱹᱨ</w>"
    ],
    [
      "ᱛ",
      "ᱨᱟ"
    ],
    [
      "ᱠᱩᱢᱩ",
      "ᱴ</w>"
    ],
    [
      "ᱟᱹᱢᱟᱹ",
      "ᱞᱤᱭᱟᱹ</w>"
    ],
    [
      "ᱡᱚ",
      "ᱜᱼᱟ</w>"
    ],
    [
      "ᱵᱟᱹᱲ",
      "ᱤ"
    ],
    [
      "ᱵᱷᱤ",
      "ᱥ</w>"
    ],
    [
      "ᱮ",
      ",</w>"
    ],
    [
      "ᱵᱤ",
      "ᱥ</w>"
    ],
    [
      "ᱦᱟ",
      "ᱱ"
    ],
    [
      "ᱥᱤ",
      "ᱯᱟᱹ"
    ],
    [
      "ᱡᱳᱜᱟᱡᱳ",
      "ᱜ</w>"
    ],
    [
      "ᱠᱟ",
      "ᱴ"
    ],
    [
      "ᱥᱩᱨ",
      "ᱼ"
    ],
    [
      "ᱝ",
      "ᱜᱚᱞ</w>"
    ],
    [
      "ᱟᱨ",
      "ᱡᱤ</w>"
    ],
    [
      "᱑᱙᱙",
      "᱕</w>"
    ],
    [
      "ᱵᱷᱩ",
      "ᱢᱤ"
    ],
    [
      "ᱞᱮ",
      "ᱹ"
    ],
    [
      "ᱡᱚ",
      "ᱯᱚ"
    ],
    [
      "ᱦ",
      "</w>"
    ],
    [
      "ᱥᱮ",
      "ᱭᱟᱨ</w>"
    ],
    [
      "ᱥᱤᱱ",
      "ᱫᱷᱩ</w>"
    ],
    [
      "ᱡᱟᱹ",
      "ᱱᱤᱡ</w>"
    ],
    [
      "ᱥᱟ",
      "ᱫ</w>"
    ],
    [
      "ᱢᱚ",
      "ᱪᱟ</w>"
    ],
    [
      "ᱡᱷ",
      "ᱟᱹ"
    ],
    [
      "ᱥᱴ",
      "ᱨᱤ"
    ],
    [
      "ᱛᱤᱥ",
      "ᱦᱚᱸ</w>"
    ],
    [
      "ᱜᱷᱚ",
      "ᱸ"
    ],
    [
      "ᱵᱤᱥ",
      "ᱥᱚ</w>"
    ],
    [
      "ᱥᱤ",
      "ᱞᱟ"
    ],
    [
      "ᱨᱮ",
      "ᱰ</w>"
    ],
    [
      "ᱦᱩ",
      "ᱲ"
    ],
    [
      "ᱤ",
      "ᱞᱤ"
    ],
    [
      "ᱸᱰ",
      "ᱟᱣ</w>"
    ],
    [
      "ᱪ",
      "ᱚᱱᱟ</w>"
    ],
    [
      "ᱥᱚ",
      "ᱢ</w>"
    ],
    [
      "ᱯᱮ",
      "ᱲᱟ</w>"
    ],
    [
      "ᱥᱮ",
      "ᱫ,</w>"
    ],
    [
      "ᱤ",
      "ᱝ</w>"
    ],
    [
      "ᱥᱚᱯᱚ",
      "ᱦᱚᱫ</w>"
    ],
    [
      "ᱟᱭᱤ",
      "ᱥ</w>"
    ],
    [
      "ᱮᱱᱮ",
      "ᱪ</w>"
    ],
    [
      "ᱥᱩ",
      "ᱠᱨᱤ</w>"
    ],
    [
      "ᱡ",
      "ᱩ</w>"
    ],
    [
      "᱑᱙",
      "᱕᱐</w>"
    ],
    [
      "ᱰ",
      "ᱮᱞ"
    ],
    [
      "ᱞᱮᱫᱟ",
      "ᱠᱚ</w>"
    ],
    [
      "ᱱᱚ",
      "ᱞ</w>"
    ],
    [
      "ᱦᱳ",
      "ᱴᱮᱞ</w>"
    ],
    [
      "ᱯᱟ",
      "ᱠ</w>"
    ],
    [
      "ᱟᱜ-",
      "ᱟ᱾</w>"
    ],
    [
      "ᱤᱭ",
      "ᱩᱱᱤᱭ"
    ],
    [
      "᱑᱘",
      "᱕"
    ],
    [
      "ᱞᱮᱠᱟ",
      "ᱛᱮᱠᱚ</w>"
    ],
    [
      "ᱥᱤᱝ",
      "ᱦᱚ</w>"
    ],
    [
      "ᱡᱳᱜᱟᱡᱳ",
      "ᱜᱽ</w>"
    ],
    [
      "ᱵᱤ",
      "ᱫ</w>"
    ],
    [
      "ᱛᱚ",
      "ᱦᱚ"
    ],
    [
      "ᱠᱟᱹᱣ",
      "ᱟᱱ</w>"
    ],
    [
      "ᱠᱤ",
      "ᱱᱟ</w>"
    ],
    [
      "ᱤᱭᱩᱨᱳ",
      "ᱯᱤᱭᱚ</w>"
    ],
    [
      "ᱯᱟᱨᱟ",
      "ᱵᱽ</w>"
    ],
    [
      "ᱡ",
      "ᱼᱮ</w>"
    ],
    [
      "ᱤ",
      "ᱢ"
    ],
    [
      "ᱯᱚ",
      "ᱧ"
    ],
    [
      "ᱤ",
      "ᱣ"
    ],
    [
      "ᱠᱩ",
      "ᱲ"
    ],
    [
      "ᱡᱚᱭ",
      "ᱱᱚ</w>"
    ],
    [
      "ᱥᱱᱟᱭ",
      "ᱩ</w>"
    ],
    [
      "ᱠᱩ",
      "ᱞᱤ</w>"
    ],
    [
      "ᱱᱚ",
      "ᱜᱼᱟ</w>"
    ],
    [
      "ᱵᱟᱨ",
      "ᱜᱽ</w>"
    ],
    [
      "ᱠᱚᱣ",
      "ᱟᱭ</w>"
    ],
    [
      "ᱥᱟ",
      "ᱯᱷᱟ</w>"
    ],
    [
      "ᱭ",
      "ᱟᱨᱤ</w>"
    ],
    [
      "ᱵᱤ",
      "ᱢᱟᱱ</w>"
    ],
    [
      "ᱵ",
      "ᱞᱤ"
    ],
    [
      "ᱼ",
      "ᱨᱮᱭᱟᱜ</w>"
    ],
    [
      "ᱢᱤ",
      "ᱞᱤᱭᱚᱱ</w>"
    ],
    [
      "ᱮ",
      "ᱧ"
    ],
    [
      "ᱦᱟᱹᱴᱤ",
      "ᱧ"
    ],
    [
      "ᱮ",
      "ᱥᱤᱭᱟᱱ</w>"
    ],
    [
      "ᱠᱟᱹ",
      "ᱴᱤ"
    ],
    [
      "ᱩᱯᱚ",
      "ᱡᱟᱹᱛᱤ</w>"
    ],
    [
      "ᱞᱮᱫ",
      "ᱮᱭᱟᱭ</w>"
    ],
    [
      "ᱠᱟᱴᱷ",
      "ᱟᱢ"
    ],
    [
      "ᱫᱟᱲᱮᱭᱟᱜᱼ",
      "ᱟᱢ</w>"
    ],
    [
      "ᱠᱟᱹ",
      "ᱨ"
    ],
    [
      "ᱩᱱ",
      "ᱩᱫᱩᱜ</w>"
    ],
    [
      "ᱜᱮᱭ",
      "ᱟᱱ</w>"
    ],
    [
      "ᱡᱟᱦᱟ",
      "ᱡ</w>"
    ],
    [
      "᱑᱙᱙",
      "᱖</w>"
    ],
    [
      "ᱞᱮᱠᱟ",
      ",</w>"
    ],
    [
      "ᱥᱤ",
      "ᱧ</w>"
    ],
    [
      "ᱪᱮᱛᱟ",
      "ᱱᱨᱮ</w>"
    ],
    [
      "᱑᱙᱙",
      "᱒</w>"
    ],
    [
      "ᱯᱳ",
      "ᱱ"
    ],
    [
      "ᱰᱷᱤ",
      "ᱨ</w>"
    ],
    [
      "ᱥᱚᱝ",
      "ᱚᱥ"
    ],
    [
      "ᱯᱚᱥᱪᱤ",
      "ᱢ</w>"
    ],
    [
      "ᱜᱚ",
      "ᱛᱤ</w>"
    ],
    [
      "ᱥᱟ",
      "ᱦᱟᱨ"
    ],
    [
      "ᱮ",
      "ᱞᱤ"
    ],
    [
      "ᱢᱤ",
      "ᱡᱳ"
    ],
    [
      "ᱫᱷᱚᱨ",
      "ᱚᱱ</w>"
    ],
    [
      "ᱟᱹ",
      "ᱱᱟᱹᱭ"
    ],
    [
      "ᱛᱟᱦᱮᱸ",
      "ᱫ,</w>"
    ],
    [
      "ᱫᱟᱲ",
      "ᱤᱭ"
    ],
    [
      "ᱫᱷ",
      "ᱳ"
    ],
    [
      "ᱜᱷᱚᱴ",
      "ᱟᱜᱼᱟ</w>"
    ],
    [
      "ᱳᱣ",
      "ᱟᱞ"
    ],
    [
      "ᱥᱤᱯᱟᱹ",
      "ᱦᱤ</w>"
    ],
    [
      "ᱞᱟᱹ",
      "ᱜ</w>"
    ],
    [
      "ᱫ",
      "ᱳ</w>"
    ],
    [
      "ᱡᱟ",
      "ᱶ"
    ],
    [
      "ᱤᱥ",
      "ᱞᱟ"
    ],
    [
      "ᱵᱨᱟ",
      "ᱡᱤᱞ</w>"
    ],
    [
      "ᱞᱟᱹᱣ",
      "ᱠᱟᱹ</w>"
    ],
    [
      "᱔",
      "᱕</w>"
    ],
    [
      "ᱱ",
      "ᱚᱨᱚ"
    ],
    [
      "ᱴᱮᱸᱦᱟ",
      "ᱰ</w>"
    ],
    [
      "ᱦᱚ",
      "ᱛᱮ</w>"
    ],
    [
      "ᱛᱤᱭ",
      "ᱟᱱ</w>"
    ],
    [
      "ᱴᱤ",
      "ᱵᱷᱤ</w>"
    ],
    [
      "ᱜᱤ",
      "ᱨᱤ</w>"
    ],
    [
      "ᱴᱤ",
      "ᱠᱟ</w>"
    ],
    [
      "ᱚ",
      "ᱥᱟᱨ</w>"
    ],
    [
      "ᱥ",
      "ᱠ"
    ],
    [
      "ᱟᱹ",
      "ᱜᱼᱟ</w>"
    ],
    [
      "ᱥ",
      "ᱠᱚ</w>"
    ],
    [
      "ᱯᱩᱨ",
      ",</w>"
    ],
    [
      "ᱥᱤ",
      "ᱵ</w>"
    ],
    [
      "ᱯᱷ",
      "ᱨᱟ"
    ],
    [
      ",᱐",
      "᱐,᱐᱐᱐</w>"
    ],
    [
      "ᱴ",
      "ᱚᱠ"
    ],
    [
      "ᱴᱤ",
      "ᱹ"
    ],
    [
      "ᱵᱷᱤ",
      "ᱢ</w>"
    ],
    [
      "ᱞᱟᱜ",
      "ᱤᱫ</w>"
    ],
    [
      "ᱛᱟ",
      "ᱦᱚ"
    ],
    [
      "ᱫᱮ",
      "ᱥᱤ</w>"
    ],
    [
      "ᱱᱤᱥᱟᱹ",
      "ᱱ</w>"
    ],
    [
      "ᱦᱟ",
      "ᱨᱮ</w>"
    ],
    [
      "ᱞᱮᱱ",
      "ᱠᱷᱟᱱ,</w>"
    ],
    [
      "ᱦᱮ",
      "ᱱ"
    ],
    [
      "ᱟᱹ",
      ",</w>"
    ],
    [
      "ᱥᱤ",
      "ᱠᱷ"
    ],
    [
      "ᱡᱚᱱ",
      "ᱛᱨᱚ</w>"
    ],
    [
      "ᱡᱟᱹ",
      "ᱯᱤᱫ</w>"
    ],
    [
      "ᱥᱟᱬ",
      "ᱮᱥ</w>"
    ],
    [
      "ᱴᱮᱠ",
      "ᱥᱟᱥ</w>"
    ],
    [
      "ᱡᱟ",
      "ᱱᱟ"
    ],
    [
      "ᱮ",
      "ᱢᱟᱱ</w>"
    ],
    [
      "ᱥᱟ",
      "ᱥᱮ"
    ],
    [
      "ᱢᱚᱱ",
      "ᱛᱨᱤ"
    ],
    [
      "ᱥᱟ",
      "ᱱᱟ</w>"
    ],
    [
      "ᱧᱮᱞ",
      "ᱛᱮ</w>"
    ],
    [
      "ᱡᱳ",
      "ᱜᱽ"
    ],
    [
      "ᱥᱤ",
      "ᱯᱷᱤ"
    ],
    [
      "ᱤ",
      "ᱠᱷ"
    ],
    [
      "ᱡᱤᱣ",
      "ᱟᱹᱞᱤ</w>"
    ],
    [
      "ᱴᱚ",
      "ᱜ</w>"
    ],
    [
      "ᱟᱜ",
      "ᱷᱟ"
    ],
    [
      "ᱢᱟ",
      "ᱫ"
    ],
    [
      "ᱯᱟᱥ",
      "ᱱᱟᱣ"
    ],
    [
      "ᱥᱩᱨᱼ",
      "ᱥᱩᱯᱩᱨ</w>"
    ],
    [
      "ᱠᱷᱮᱞᱚ",
      "ᱸ"
    ],
    [
      "ᱢᱚ",
      "ᱞ"
    ],
    [
      "ᱠᱩ",
      "ᱸ"
    ],
    [
      "ᱵᱨᱤ",
      "ᱴᱮᱱ</w>"
    ],
    [
      "ᱠ",
      "ᱼ"
    ],
    [
      "ᱦᱤᱥᱟᱹᱵ",
      "ᱛᱮ</w>"
    ],
    [
      "ᱢᱳ",
      "ᱨ"
    ],
    [
      "ᱠᱳ",
      "ᱨᱤᱭᱟ</w>"
    ],
    [
      "ᱚᱱ",
      "ᱢᱟᱱ</w>"
    ],
    [
      "ᱥᱩ",
      "ᱫᱷ"
    ],
    [
      "ᱱᱤ",
      "ᱝ</w>"
    ],
    [
      "ᱜᱮᱢᱮ",
      "ᱨ</w>"
    ],
    [
      "ᱠᱷ",
      "ᱟᱡ"
    ],
    [
      "ᱩᱰ",
      "ᱩ"
    ],
    [
      "ᱱᱚᱠ",
      "ᱥᱟ</w>"
    ],
    [
      "ᱵᱮᱱ",
      "ᱟᱜᱼᱟ</w>"
    ],
    [
      "ᱣ",
      ",</w>"
    ],
    [
      "ᱛᱟᱦᱮ",
      "ᱠᱟᱱᱟ</w>"
    ],
    [
      "ᱱᱮ",
      "ᱸ"
    ],
    [
      "ᱡ",
      "ᱤᱭᱟ</w>"
    ],
    [
      "ᱤᱭᱩᱱᱤᱭ",
      "ᱚᱱ</w>"
    ],
    [
      "ᱛᱟᱦᱮᱸ",
      "ᱠᱟᱱ</w>"
    ],
    [
      "ᱵ",
      "ᱩᱨ"
    ],
    [
      "ᱜ",
      "ᱨᱚ"
    ],
    [
      "ᱨᱳ",
      "ᱜᱽ</w>"
    ],
    [
      "ᱨᱮᱹ",
      "ᱞ</w>"
    ],
    [
      "ᱥᱟᱢ",
      "ᱴᱟᱣ</w>"
    ],
    [
      "ᱴᱮᱞᱤ",
      "ᱵᱷᱤᱥᱚᱱ</w>"
    ],
    [
      "ᱯᱨᱚ",
      "ᱥᱛᱟ"
    ],
    [
      "ᱜᱼ",
      "ᱟ"
    ],
    [
      "ᱫᱩ",
      "ᱣᱟᱹᱨ</w>"
    ],
    [
      "ᱦᱩ",
      "ᱢ</w>"
    ],
    [
      "ᱠᱚᱨ",
      "ᱟᱣ"
    ],
    [
      "ᱴ",
      "ᱨᱮᱱ</w>"
    ],
    [
      "ᱱ",
      "ᱳᱭ"
    ],
    [
      "ᱠᱷᱚᱸᱫᱽ",
      "ᱨᱚᱱ</w>"
    ],
    [
      "ᱵᱮ",
      "ᱹ"
    ],
    [
      "ᱮᱯ",
      "ᱮᱢ</w>"
    ],
    [
      "ᱦᱩᱭ",
      "ᱮᱱᱟ</w>"
    ],
    [
      "ᱦᱤ",
      "ᱫᱤ"
    ],
    [
      "ᱟ",
      "ᱠᱷᱟ"
    ],
    [
      "ᱜᱮ",
      "ᱥᱟᱭ</w>"
    ],
    [
      "ᱵ",
      "ᱨᱩ"
    ],
    [
      "ᱜᱩᱡ",
      "ᱨᱟᱴ</w>"
    ],
    [
      "ᱮ",
      "ᱥᱤ"
    ],
    [
      "ᱠᱳ",
      "ᱪ</w>"
    ],
    [
      "ᱜᱷᱟ",
      "ᱴ</w>"
    ],
    [
      "ᱩ",
      "ᱥ"
    ],
    [
      "ᱢᱤ",
      "ᱰᱤᱭᱟ</w>"
    ],
    [
      "ᱰᱤ",
      "ᱡᱤ"
    ],
    [
      "ᱥᱟ",
      "ᱥᱚᱱ"
    ],
    [
      "ᱞᱮ",
      "ᱠᱷᱟ"
    ],
    [
      "ᱞᱮᱫ",
      "ᱮᱭᱟ,</w>"
    ],
    [
      "ᱞ",
      "ᱩᱭ"
    ],
    [
      "ᱥᱟᱹᱠ",
      "ᱭᱟᱹ"
    ],
    [
      "ᱨᱳ",
      "ᱢᱟᱱ</w>"
    ],
    [
      "ᱟ",
      "ᱫᱷᱟ</w>"
    ],
    [
      "ᱫᱤᱥᱟᱹ",
      "ᱢ</w>"
    ],
    [
      "ᱡᱤ",
      "ᱝ</w>"
    ],
    [
      "ᱜ",
      "-"
    ],
    [
      "ᱯᱩᱨᱩ",
      "ᱵᱽ</w>"
    ],
    [
      "ᱟᱠᱟᱱᱟ",
      "᱾</w>"
    ],
    [
      "ᱛᱷ",
      "ᱟᱹᱭ"
    ],
    [
      "ᱯᱚᱱ",
      "ᱰᱤ"
    ],
    [
      "ᱯᱨᱚ",
      "ᱥᱟᱥᱚ"
    ],
    [
      "᱑᱙᱙",
      "᱔</w>"
    ],
    [
      "ᱢᱮᱛ",
      "ᱟᱜ</w>"
    ],
    [
      "ᱥᱟᱢ",
      "ᱨᱟᱡᱽᱡᱚ</w>"
    ],
    [
      "ᱞᱚ",
      "ᱵ</w>"
    ],
    [
      "ᱥᱟ",
      "ᱦᱚ"
    ],
    [
      "ᱪᱟ",
      "ᱯᱟ"
    ],
    [
      "ᱞᱮᱛᱟ",
      "ᱲ"
    ],
    [
      "ᱠᱚᱨ",
      "ᱯᱳ"
    ],
    [
      "ᱟ",
      "ᱛᱮᱫ</w>"
    ],
    [
      "ᱟᱹ",
      "ᱥᱩᱞ</w>"
    ],
    [
      "ᱯᱷᱳᱨ",
      "ᱰ</w>"
    ],
    [
      "ᱳᱭ",
      "ᱟᱨ"
    ],
    [
      "ᱞᱮᱱᱟ",
      "ᱭ,</w>"
    ],
    [
      "ᱦᱩᱭ",
      "ᱫᱟᱲᱮᱭᱟᱜᱼᱟ</w>"
    ],
    [
      "ᱡᱷᱩ",
      "ᱠᱤ</w>"
    ],
    [
      "ᱯᱟ",
      "ᱱᱰᱚ</w>"
    ],
    [
      "ᱯᱳᱭ",
      "ᱞᱳ"
    ],
    [
      "ᱚᱠ",
      "ᱴᱚ"
    ],
    [
      "ᱢᱩᱥ",
      "ᱞᱤᱢ</w>"
    ],
    [
      "ᱼ",
      "ᱟᱱᱟᱜ</w>"
    ],
    [
      "ᱱ",
      "ᱚᱨ</w>"
    ],
    [
      "ᱵᱷᱚ",
      "ᱜᱚ"
    ],
    [
      "ᱛᱟᱢᱤᱞᱱᱟ",
      "ᱰᱩ</w>"
    ],
    [
      "ᱵᱤ",
      "ᱵᱮ"
    ],
    [
      "ᱪᱟᱹ",
      "ᱥᱤ</w>"
    ],
    [
      "ᱜᱼ",
      "ᱟ᱾</w>"
    ],
    [
      "ᱴᱷᱤ",
      "ᱠᱟᱹ"
    ],
    [
      "ᱠᱨᱤᱥ",
      "ᱱᱚ</w>"
    ],
    [
      "ᱥᱚ",
      "ᱫᱽ</w>"
    ],
    [
      "ᱥ",
      "ᱠᱚ"
    ],
    [
      "ᱨᱚ",
      "ᱦᱚᱲ</w>"
    ],
    [
      "ᱜᱮ",
      "ᱥ</w>"
    ],
    [
      "ᱵᱟ",
      "ᱞ"
    ],
    [
      "ᱢᱟᱨ",
      "ᱠ</w>"
    ],
    [
      "ᱠᱚ",
      "ᱞᱟ</w>"
    ],
    [
      "ᱨᱤ",
      "ᱭ</w>"
    ],
    [
      "ᱵᱟ",
      "ᱭᱤᱞ</w>"
    ],
    [
      "ᱱᱟ",
      "ᱦᱟ"
    ],
    [
      "ᱴᱤ",
      ",</w>"
    ],
    [
      "ᱲᱤ",
      "ᱪ</w>"
    ],
    [
      "ᱵᱟᱹ",
      "ᱭᱛᱮ</w>"
    ],
    [
      "ᱯᱚ",
      "ᱞᱤ"
    ],
    [
      "ᱥᱚᱲ",
      "ᱠᱚ</w>"
    ],
    [
      "ᱮ",
      "ᱰᱮ"
    ],
    [
      "ᱨᱩ",
      "ᱜᱤ</w>"
    ],
    [
      "ᱠᱟ",
      "ᱨᱮ</w>"
    ],
    [
      "ᱴᱷ",
      "ᱚᱱ</w>"
    ],
    [
      "ᱚᱯᱟ",
      "ᱨᱮᱥᱚᱱ</w>"
    ],
    [
      "ᱱᱚ",
      "ᱶ"
    ],
    [
      "ᱨᱤᱭ",
      "ᱟᱞ</w>"
    ],
    [
      "ᱟᱹ",
      "ᱪᱩᱨ</w>"
    ],
    [
      "ᱥᱟᱜᱟ",
      "ᱲᱚᱢ</w>"
    ],
    [
      "ᱱᱤ",
      "ᱡᱽ</w>"
    ],
    [
      "ᱧ",
      "ᱚᱜ</w>"
    ],
    [
      "ᱠᱚ",
      "ᱞᱚ"
    ],
    [
      "ᱵᱷᱟᱹ",
      "ᱞᱟᱹᱭ</w>"
    ],
    [
      "ᱥᱟᱭ",
      "ᱠᱮᱞ</w>"
    ],
    [
      "ᱠᱤᱨᱤ",
      "ᱧ"
    ],
    [
      "ᱢᱟᱦᱟ",
      "ᱨᱮ</w>"
    ],
    [
      "ᱠᱤ",
      "ᱠ"
    ],
    [
      "ᱵᱤ",
      "ᱢᱟ</w>"
    ],
    [
      "ᱜᱚ",
      "ᱛᱚ</w>"
    ],
    [
      "᱑",
      "ᱹ"
    ],
    [
      "ᱯᱮ",
      "ᱥᱤ</w>"
    ],
    [
      "ᱟᱨᱚ",
      "ᱵ</w>"
    ],
    [
      "ᱰ",
      "ᱨᱟᱭ"
    ],
    [
      "ᱵᱟ",
      "ᱵᱮᱨ</w>"
    ],
    [
      "ᱠᱟᱹ",
      "ᱦᱤᱱᱤ</w>"
    ],
    [
      "ᱴ",
      "ᱨᱮ</w>"
    ],
    [
      "ᱠᱟ",
      "ᱴ</w>"
    ],
    [
      "ᱨᱟ",
      "ᱞ</w>"
    ],
    [
      "ᱦᱤ",
      "ᱨ"
    ],
    [
      "ᱥᱚ",
      "ᱵᱷᱟ"
    ],
    [
      "ᱩᱞ",
      "ᱴᱟᱹ</w>"
    ],
    [
      "ᱯᱩ",
      "ᱨᱚᱢ</w>"
    ],
    [
      "ᱤ",
      "ᱥᱴ</w>"
    ],
    [
      "ᱯᱷ",
      "ᱞᱟ"
    ],
    [
      "ᱫ",
      "ᱮᱭᱟ,</w>"
    ],
    [
      "ᱱᱤ",
      "ᱡᱮ</w>"
    ],
    [
      "ᱠ",
      "ᱛᱚ</w>"
    ],
    [
      "ᱯᱮᱥᱟ",
      "ᱫᱟᱨ</w>"
    ],
    [
      "ᱢᱮ",
      "ᱛᱟ</w>"
    ],
    [
      "ᱞ",
      "ᱼ"
    ],
    [
      "ᱦᱩᱲ",
      "ᱟᱹᱜ</w>"
    ],
    [
      "ᱤ",
      "ᱹ"
    ],
    [
      "ᱭ",
      "ᱮᱱᱟ</w>"
    ],
    [
      "ᱯᱷ",
      "ᱨᱮ"
    ],
    [
      "ᱰᱮ",
      "ᱢᱳ"
    ],
    [
      "ᱠᱷᱟ",
      "ᱸᱰᱟᱣ</w>"
    ],
    [
      "ᱵᱚᱱᱫᱮ",
      "ᱡᱽ</w>"
    ],
    [
      "ᱟᱢᱮ",
      "ᱢ</w>"
    ],
    [
      "ᱫᱽ",
      "ᱫᱷᱚ"
    ],
    [
      "ᱪᱷ",
      "ᱚᱛ"
    ],
    [
      "ᱛᱚᱛ",
      "ᱛᱷᱚ</w>"
    ],
    [
      "ᱛᱟ",
      "ᱱᱟ"
    ],
    [
      "ᱠᱨᱮ",
      "ᱰᱤᱴ</w>"
    ],
    [
      "᱕",
      "%</w>"
    ],
    [
      "ᱴᱷᱟᱶ",
      "ᱨᱮ</w>"
    ],
    [
      "ᱪᱩ",
      "ᱲᱟᱹ</w>"
    ],
    [
      "ᱥᱚ",
      "ᱱ,</w>"
    ],
    [
      "ᱤᱫ",
      "ᱤᱭ"
    ],
    [
      "ᱵᱚ",
      "ᱞᱚ"
    ],
    [
      "ᱦᱟᱹ",
      "ᱛᱤ</w>"
    ],
    [
      "ᱪᱷ",
      "ᱟ</w>"
    ],
    [
      "ᱞᱮ",
      "ᱠ</w>"
    ],
    [
      "ᱠᱟ",
      "ᱛᱟ</w>"
    ],
    [
      "ᱪᱮᱱ",
      "ᱮᱞ</w>"
    ],
    [
      "ᱵᱟ",
      "ᱞᱟ"
    ],
    [
      "ᱝ",
      "ᱜᱩ"
    ],
    [
      "ᱜᱷᱚᱸ",
      "ᱜᱚᱨ</w>"
    ],
    [
      "ᱤᱠᱷ",
      "ᱟᱹᱱ</w>"
    ],
    [
      "ᱢᱮᱱᱮ",
      "ᱡᱟᱨ</w>"
    ],
    [
      "ᱵᱟᱨ",
      "ᱚᱱ</w>"
    ],
    [
      "ᱰᱤ",
      "ᱜᱨᱤ</w>"
    ],
    [
      "ᱢᱮ",
      "ᱞᱟ</w>"
    ],
    [
      "ᱱᱰ",
      "ᱟ</w>"
    ],
    [
      "ᱨᱮᱱ",
      "ᱴ</w>"
    ],
    [
      "ᱢᱟᱱ",
      "ᱮ</w>"
    ],
    [
      "ᱫᱤ",
      "ᱯ</w>"
    ],
    [
      "ᱞᱤ",
      "ᱞ</w>"
    ],
    [
      "ᱤᱭᱟ",
      "ᱱᱟ</w>"
    ],
    [
      "ᱮᱠᱟᱰᱮ",
      "ᱢᱤ</w>"
    ],
    [
      "ᱞᱩ",
      "ᱠ</w>"
    ],
    [
      "ᱜᱟᱱ",
      "ᱫᱷᱤ</w>"
    ],
    [
      "'",
      ",</w>"
    ],
    [
      "ᱵᱤ",
      "ᱞᱚᱢ</w>"
    ],
    [
      "ᱵᱟ",
      "ᱦᱚᱱ</w>"
    ],
    [
      "ᱠᱩ",
      "ᱲᱤ"
    ],
    [
      "ᱠᱩᱥᱤᱭ",
      "ᱟᱜᱼᱟ</w>"
    ],
    [
      "ᱢᱮ",
      "ᱜᱷᱟ"
    ],
    [
      "ᱪᱤᱱ",
      "ᱛᱟᱹ"
    ],
    [
      "ᱳᱭ",
      "ᱟᱨ</w>"
    ],
    [
      "ᱛᱚ",
      "ᱯᱟ</w>"
    ],
    [
      "ᱣ",
      "ᱟᱹ"
    ],
    [
      "ᱨ",
      "ᱼ"
    ],
    [
      "ᱩᱯᱚ",
      "ᱱᱤ"
    ],
    [
      "ᱞᱤ",
      "ᱵᱷ"
    ],
    [
      "ᱣᱩ",
      "ᱰ</w>"
    ],
    [
      "ᱞᱟᱫᱟ",
      "ᱠᱷ</w>"
    ],
    [
      "ᱡᱟ",
      "ᱛᱮ</w>"
    ],
    [
      "ᱱᱟ",
      "ᱥᱮᱱᱟᱜ</w>"
    ],
    [
      "ᱠᱤ",
      "ᱨ</w>"
    ],
    [
      "ᱛᱩᱱ",
      "ᱠᱷᱤ</w>"
    ],
    [
      "ᱠᱚ",
      "ᱜ</w>"
    ],
    [
      "ᱥᱟᱵᱷᱟ",
      "ᱵᱤᱠ</w>"
    ],
    [
      "ᱨᱤ",
      "ᱝ</w>"
    ],
    [
      "ᱛ",
      "ᱛᱨᱚ</w>"
    ],
    [
      "ᱵᱮ",
      "ᱫ</w>"
    ],
    [
      "ᱵᱩ",
      "ᱠ</w>"
    ],
    [
      "ᱳᱣᱟᱨ",
      "ᱠ</w>"
    ],
    [
      "ᱡᱟᱹ",
      "ᱛ</w>"
    ],
    [
      "ᱟ",
      "ᱫᱮᱭᱟ</w>"
    ],
    [
      "ᱫᱟ",
      "ᱞ</w>"
    ],
    [
      "ᱦᱩᱢᱟᱭ",
      "ᱩᱱ</w>"
    ],
    [
      "ᱢᱤ",
      "ᱴᱟᱨ"
    ],
    [
      "ᱡᱟᱹ",
      "ᱨᱩ"
    ],
    [
      "ᱥᱟᱨ",
      "ᱤ</w>"
    ],
    [
      "ᱟᱯᱱᱟᱨ",
      "ᱟᱜ</w>"
    ],
    [
      "ᱥᱟ",
      "ᱥᱚᱠ</w>"
    ],
    [
      "ᱧᱩ",
      "ᱨ</w>"
    ],
    [
      "ᱭᱤ",
      "ᱱ"
    ],
    [
      "ᱭ",
      "ᱮᱞ</w>"
    ],
    [
      "ᱢᱤ",
      "ᱥᱤ"
    ],
    [
      "ᱯᱷᱟ",
      "ᱨᱮᱱ"
    ],
    [
      "ᱦᱳ",
      "ᱢ</w>"
    ],
    [
      "᱔",
      "᱐᱐</w>"
    ],
    [
      "ᱴᱤ",
      "ᱢ</w>"
    ],
    [
      "ᱤᱧ",
      "ᱮ</w>"
    ],
    [
      "ᱤ",
      "ᱦᱩᱫᱤ</w>"
    ],
    [
      "ᱠᱟᱹᱭ",
      "ᱫᱩᱥ</w>"
    ],
    [
      "ᱱᱤᱭ",
      "ᱚᱢ</w>"
    ],
    [
      "ᱠᱮ",
      "ᱨᱳ"
    ],
    [
      "ᱵᱷ",
      "ᱮᱱ</w>"
    ],
    [
      "ᱯᱷᱩᱥ",
      "ᱯᱷᱩᱥ</w>"
    ],
    [
      "ᱶ",
      "ᱟᱜ</w>"
    ],
    [
      "ᱞᱟᱹ",
      "ᱭᱟ</w>"
    ],
    [
      "ᱠᱷᱮᱞᱚᱸ",
      "ᱰᱤᱭᱟᱹ</w>"
    ],
    [
      "ᱥ",
      "ᱥᱚ</w>"
    ],
    [
      "ᱪᱟᱢᱯᱤᱭ",
      "ᱟᱱᱥᱤᱯ</w>"
    ],
    [
      "ᱴ",
      "ᱨᱤ</w>"
    ],
    [
      "ᱵᱟᱭ",
      "ᱳ"
    ],
    [
      "ᱜᱷᱟᱹ",
      "ᱲᱤ</w>"
    ],
    [
      "ᱫᱮ",
      "ᱡᱚᱜ</w>"
    ],
    [
      "ᱦᱚᱸ",
      "ᱠᱚ</w>"
    ],
    [
      "ᱜᱩ",
      "ᱡᱽ"
    ],
    [
      "ᱛᱟᱦᱚ",
      "ᱞᱮ</w>"
    ],
    [
      "ᱥ",
      "ᱛᱷᱟ</w>"
    ],
    [
      "ᱚ",
      "ᱞᱟ"
    ],
    [
      "ᱠᱚᱭᱮ",
      "ᱠ</w>"
    ],
    [
      "ᱠᱞᱟ",
      "ᱵ</w>"
    ],
    [
      "ᱦᱚᱲ",
      "ᱢᱚ"
    ],
    [
      "ᱥᱟᱱᱟᱢ",
      "ᱟᱜ</w>"
    ],
    [
      "ᱵ",
      "ᱟᱜ</w>"
    ],
    [
      "᱗",
      "᱕</w>"
    ],
    [
      "ᱛᱨᱤ",
      "ᱠ</w>"
    ],
    [
      "ᱜᱩ",
      "ᱞᱟᱹ"
    ],
    [
      "ᱯᱤ",
      "ᱲ"
    ],
    [
      "ᱞᱟ",
      "ᱭᱚᱝ</w>"
    ],
    [
      "ᱯᱤ",
      "ᱛ</w>"
    ],
    [
      "ᱥᱟ",
      "ᱨᱮ"
    ],
    [
      "ᱪᱤ",
      "ᱠᱤᱪᱷᱟ</w>"
    ],
    [
      "ᱟᱨ",
      "ᱡᱮᱱ"
    ],
    [
      "0",
      "0"
    ],
    [
      "ᱪᱷᱤ",
      "ᱢ</w>"
    ],
    [
      "ᱟᱢ",
      "ᱵᱮ"
    ],
    [
      "ᱫ",
      "ᱼ"
    ],
    [
      "ᱟᱠᱷᱟ",
      "ᱲᱟ</w>"
    ],
    [
      "ᱵᱚ",
      "ᱛ</w>"
    ],
    [
      "ᱠ",
      "ᱨᱤᱭᱟ</w>"
    ],
    [
      "ᱯᱷᱟᱭᱤ",
      "ᱞ</w>"
    ],
    [
      "ᱞᱳ",
      "ᱠ"
    ],
    [
      "ᱠᱟᱴᱷᱟᱢ",
      "ᱳ</w>"
    ],
    [
      "ᱤ",
      "ᱼ"
    ],
    [
      "ᱟ",
      "ᱱᱚᱱᱫᱚ</w>"
    ],
    [
      "ᱠᱟᱜᱚ",
      "ᱡᱽ</w>"
    ],
    [
      "ᱠᱩᱥᱤᱭ",
      "ᱟᱱ</w>"
    ],
    [
      "ᱥᱤ",
      "ᱨ</w>"
    ],
    [
      "ᱵᱷ",
      "ᱚᱨᱚ"
    ],
    [
      "ᱠᱤ",
      "ᱝ"
    ],
    [
      "᱓",
      "᱐᱐</w>"
    ],
    [
      "ᱤᱱᱫᱳ",
      "ᱼ"
    ],
    [
      "ᱥᱤᱨ",
      "ᱟᱹ</w>"
    ],
    [
      "ᱮ",
      "ᱱᱟ"
    ],
    [
      "ᱯ",
      "ᱨ"
    ],
    [
      "ᱛᱩ",
      "ᱱ</w>"
    ],
    [
      "ᱟᱠᱷᱚ",
      "ᱲᱟ</w>"
    ],
    [
      "ᱱᱤ",
      "ᱛᱤ</w>"
    ],
    [
      "ᱨᱤᱭ",
      "ᱟᱨ</w>"
    ],
    [
      "ᱚ",
      "ᱝ"
    ],
    [
      "ᱵᱩ",
      "ᱡ</w>"
    ],
    [
      "᱓",
      "ᱼ"
    ],
    [
      "ᱯᱮ",
      "ᱱᱟᱞ"
    ],
    [
      "ᱟ",
      "ᱵᱚ</w>"
    ],
    [
      "ᱠᱚ",
      "ᱨᱮᱱᱟᱜ</w>"
    ],
    [
      "ᱱᱮᱥ",
      "ᱱᱟᱞ</w>"
    ],
    [
      "ᱜᱷ",
      "ᱚᱨ"
    ],
    [
      "ᱩᱰ",
      "ᱟᱹᱜ</w>"
    ],
    [
      "ᱡᱟᱦᱟ",
      "ᱫᱚ</w>"
    ],
    [
      "ᱡᱟᱹ",
      "ᱥᱛᱤ"
    ],
    [
      "ᱦᱚᱲ",
      "ᱜᱮ</w>"
    ],
    [
      "ᱠᱳ",
      "ᱞ</w>"
    ],
    [
      "ᱟᱠᱷᱨᱤ",
      "ᱧ</w>"
    ],
    [
      "ᱠᱷᱩ",
      "ᱞᱟᱹᱣ</w>"
    ],
    [
      "ᱟᱹ",
      "ᱛᱩ"
    ],
    [
      "ᱥᱴᱮ",
      "ᱴ</w>"
    ],
    [
      "ᱥᱳ",
      "ᱨ"
    ],
    [
      "ᱟ",
      "ᱵᱮ"
    ],
    [
      "ᱵᱚ",
      "ᱪ"
    ],
    [
      "ᱫᱩ",
      "ᱞᱟᱹᱲ"
    ],
    [
      "ᱥᱮ",
      "ᱛᱟ</w>"
    ],
    [
      "ᱥᱚ",
      "ᱦᱚ"
    ],
    [
      "ᱢᱟᱹᱱ",
      "ᱢᱤ</w>"
    ],
    [
      "ᱱᱮᱸ",
      "ᱦᱚᱨ</w>"
    ],
    [
      "ᱢ",
      "ᱵᱟ"
    ],
    [
      "ᱚ",
      "ᱼ"
    ],
    [
      "ᱱᱤ",
      "ᱴ</w>"
    ],
    [
      "ᱡᱟᱣ",
      "ᱠᱮ</w>"
    ],
    [
      "ᱥᱮᱹ",
      "ᱨᱮᱹ"
    ],
    [
      "ᱪᱚᱱ",
      "ᱰᱤ"
    ],
    [
      "ᱨᱚ",
      "ᱝᱜᱚ"
    ],
    [
      "ᱡᱟ",
      "ᱢ</w>"
    ],
    [
      "ᱟᱣᱩ",
      "ᱴ</w>"
    ],
    [
      "ᱵᱟᱜᱽ",
      "ᱣᱟᱱ</w>"
    ],
    [
      "ᱯᱨᱚᱥᱟᱥᱚ",
      "ᱱᱤᱠ</w>"
    ],
    [
      "ᱵᱷᱤ",
      "ᱛᱟᱹᱨ</w>"
    ],
    [
      "ᱛᱷ",
      "ᱤᱭ"
    ],
    [
      "ᱢᱩᱨ",
      "ᱥᱩᱢ</w>"
    ],
    [
      "ᱤ",
      "ᱨᱟ"
    ],
    [
      "ᱯᱩ",
      "ᱞ</w>"
    ],
    [
      "ᱥᱮᱞ",
      "ᱥᱤᱭᱟᱥ</w>"
    ],
    [
      "ᱪᱮᱢᱯᱤᱭ",
      "ᱚᱱᱥᱤᱯ</w>"
    ],
    [
      "ᱥᱳᱯᱨᱳ",
      "ᱫ</w>"
    ],
    [
      "ᱰᱤ",
      "ᱥ</w>"
    ],
    [
      "ᱠᱷᱚ",
      "ᱱᱰ</w>"
    ],
    [
      "ᱠᱟ",
      "ᱵᱟ"
    ],
    [
      "ᱫᱷ",
      "ᱚᱱ"
    ],
    [
      "ᱵᱩ",
      "ᱞᱩᱝ</w>"
    ],
    [
      "ᱥᱟᱹ",
      "ᱣ</w>"
    ],
    [
      "ᱮ",
      "ᱱᱟᱭ</w>"
    ],
    [
      "ᱮᱰᱮ",
      "ᱠᱷᱟᱱ</w>"
    ],
    [
      "ᱚᱡᱮ",
      "ᱫᱚ</w>"
    ],
    [
      "ᱩ",
      "ᱫᱟᱹ"
    ],
    [
      "ᱰ",
      "ᱚᱨ"
    ],
    [
      "ᱴᱟᱨ",
      "ᱱᱟᱨ</w>"
    ],
    [
      "ᱵᱟᱵᱚ",
      "ᱫᱛᱮ</w>"
    ],
    [
      "ᱫᱷᱚᱨ",
      "ᱢᱚ</w>"
    ],
    [
      "ᱴᱮᱦᱟ",
      "ᱸ"
    ],
    [
      "ᱜᱤ",
      "ᱛᱤᱞ</w>"
    ],
    [
      "ᱢᱩ",
      "ᱱᱟ</w>"
    ],
    [
      "ᱮ",
      "ᱭ</w>"
    ],
    [
      "ᱪᱟᱪ",
      "ᱞᱟᱣ"
    ],
    [
      "ᱜᱟᱹᱠᱷᱩ",
      "ᱲ</w>"
    ],
    [
      "ᱨᱟ",
      "ᱡᱟ"
    ],
    [
      "ᱫ",
      "ᱨᱚ"
    ],
    [
      "ᱢ",
      "ᱵᱮ</w>"
    ],
    [
      "ᱯ",
      "ᱮᱱ</w>"
    ],
    [
      "ᱞᱮᱛᱟᱲ",
      "ᱜᱮ</w>"
    ],
    [
      "ᱵᱟᱰᱟᱭ",
      "ᱟ</w>"
    ],
    [
      "ᱞᱟ",
      "ᱠ</w>"
    ],
    [
      "ᱥᱚ",
      "ᱧ"
    ],
    [
      "ᱴᱤ",
      "ᱯᱩ</w>"
    ],
    [
      "ᱰᱟᱠ",
      "ᱛᱟᱨ</w>"
    ],
    [
      "ᱠᱨᱚ",
      "ᱢᱚᱱ</w>"
    ],
    [
      "ᱦ",
      "ᱳ</w>"
    ],
    [
      "ᱡᱮ",
      "ᱠᱷᱚᱱ</w>"
    ],
    [
      "ᱵᱟᱨ",
      "ᱴ</w>"
    ],
    [
      "ᱯᱤ",
      "ᱠ"
    ],
    [
      "ᱯᱨᱳ",
      "ᱴᱤᱱ</w>"
    ],
    [
      "ᱡᱤ",
      "ᱠᱟ</w>"
    ],
    [
      "ᱰ",
      "ᱚᱱ</w>"
    ],
    [
      "ᱥᱯ",
      "ᱮᱱ</w>"
    ],
    [
      "ᱢᱟᱲ",
      "ᱛᱮ</w>"
    ],
    [
      "ᱥᱮᱱ",
      "ᱴᱟᱨ</w>"
    ],
    [
      "ᱵᱤ",
      "ᱡᱚᱭ</w>"
    ],
    [
      "ᱚ",
      "ᱥᱳ"
    ],
    [
      "ᱢᱤᱡᱳ",
      "ᱨᱟᱢ</w>"
    ],
    [
      "ᱭ",
      "ᱟᱹᱭ</w>"
    ],
    [
      "ᱮᱞ",
      "ᱹ"
    ],
    [
      "᱑᱙᱙",
      "᱗</w>"
    ],
    [
      "ᱱᱳ",
      "ᱴ</w>"
    ],
    [
      "ᱤᱭ",
      "ᱟᱨ"
    ],
    [
      "ᱳᱲᱤ",
      "ᱥᱟ</w>"
    ],
    [
      "ᱵᱮᱲᱦᱟ",
      "ᱭ</w>"
    ],
    [
      "ᱢᱤ",
      "ᱞᱤ"
    ],
    [
      "ᱵᱮ",
      "ᱥᱤᱠ</w>"
    ],
    [
      "ᱴᱨᱟ",
      "ᱠ</w>"
    ],
    [
      "ᱞᱟᱹᱠᱛᱤᱭ",
      "ᱟᱱᱟᱜ</w>"
    ],
    [
      "ᱯᱩᱨ",
      "ᱩᱱ</w>"
    ],
    [
      "ᱠᱷ",
      "ᱟᱨ"
    ],
    [
      "ᱠ",
      "ᱤᱭᱩ"
    ],
    [
      "ᱯᱚ",
      "ᱛᱤ"
    ],
    [
      "ᱨᱮ",
      "ᱠᱤᱱ</w>"
    ],
    [
      "ᱠᱚᱞᱯᱚ",
      "ᱱᱟ</w>"
    ],
    [
      "ᱯᱩᱨ",
      "ᱵᱟ"
    ],
    [
      "ᱜᱚᱴᱟ",
      "ᱵᱩᱴᱟᱹ</w>"
    ],
    [
      "ᱠᱚᱞᱮ",
      "ᱡ</w>"
    ],
    [
      "᱑᱙᱙",
      "᱓</w>"
    ],
    [
      "ᱛᱟᱨ",
      "ᱟ"
    ],
    [
      "ᱥᱤᱯᱷᱤ",
      "ᱞᱤᱥ</w>"
    ],
    [
      "ᱥᱴᱚ",
      "ᱠ</w>"
    ],
    [
      "ᱯᱮ",
      "ᱨᱤᱥ</w>"
    ],
    [
      "ᱟᱨᱡᱮᱱ",
      "ᱴᱤ"
    ],
    [
      "ᱡᱚᱠ",
      "ᱠᱷᱟ</w>"
    ],
    [
      "ᱯᱩᱱ",
      "ᱟᱜ</w>"
    ],
    [
      "ᱪᱟ",
      "ᱣ"
    ],
    [
      "ᱜᱚ",
      "ᱵᱷᱚᱨ"
    ],
    [
      "ᱪᱷᱟᱹ",
      "ᱴ"
    ],
    [
      "ᱢᱟᱹ",
      "ᱞᱤᱠ</w>"
    ],
    [
      "ᱦᱟᱛᱟ",
      "ᱣᱟ</w>"
    ],
    [
      "ᱱᱤ",
      "ᱨᱟ"
    ],
    [
      "ᱟ",
      "ᱯ</w>"
    ],
    [
      "ᱩᱛ",
      "ᱛᱚᱨᱟ"
    ],
    [
      "ᱵᱷᱟᱵ",
      "ᱱᱟ</w>"
    ],
    [
      "ᱥᱚᱝ",
      "ᱥᱚᱫ</w>"
    ],
    [
      "ᱠᱮ",
      "ᱥᱚᱱ</w>"
    ],
    [
      "ᱛᱮ",
      "ᱫᱚ</w>"
    ],
    [
      "ᱦᱟ",
      "ᱥᱟᱱ</w>"
    ],
    [
      "ᱥᱩᱫᱷ",
      "ᱨᱟᱹᱣ</w>"
    ],
    [
      "ᱦᱟᱹ",
      "ᱥᱩ</w>"
    ],
    [
      "ᱫᱟᱲᱮ",
      "ᱭ</w>"
    ],
    [
      "ᱟᱨᱩ",
      "ᱯᱷᱮᱨᱟᱣ</w>"
    ],
    [
      "ᱡᱤᱣ",
      "ᱤ</w>"
    ],
    [
      "ᱳᱣ",
      "ᱟᱨ</w>"
    ],
    [
      "ᱚ",
      "ᱰᱟᱨ</w>"
    ],
    [
      "ᱜᱟᱹ",
      "ᱞᱤᱢ</w>"
    ],
    [
      "ᱦᱟᱣᱩ",
      "ᱥ</w>"
    ],
    [
      "ᱪᱟ",
      "ᱞᱩᱠ"
    ],
    [
      "ᱢᱢᱚ",
      "ᱫ</w>"
    ],
    [
      "ᱠᱷᱚᱸᱫᱽᱨᱚ",
      "ᱫᱽ</w>"
    ],
    [
      "ᱨᱩ",
      "ᱯᱟᱹ</w>"
    ],
    [
      "ᱵᱟᱸ",
      "ᱫᱮ</w>"
    ],
    [
      "ᱴᱟ",
      "ᱭ</w>"
    ],
    [
      "ᱠᱮ",
      "ᱫᱟᱭ</w>"
    ],
    [
      "ᱡ",
      "ᱚᱨᱚ"
    ],
    [
      "ᱞᱚ",
      "ᱱ"
    ],
    [
      "᱓",
      ","
    ],
    [
      "ᱴ",
      "ᱼ"
    ],
    [
      "ᱞᱮ",
      "ᱥ</w>"
    ],
    [
      "ᱜᱮᱢᱮ",
      "ᱧ</w>"
    ],
    [
      "ᱮᱥ",
      "ᱴ</w>"
    ],
    [
      "ᱱᱮ",
      "ᱫᱟᱨ"
    ],
    [
      "ᱴᱷ",
      "ᱟᱹᱭ</w>"
    ],
    [
      "ᱡᱚ",
      "ᱫ"
    ],
    [
      "ᱛᱟᱸ",
      "ᱦᱮᱫ</w>"
    ],
    [
      "ᱧ",
      "ᱮᱱᱮ"
    ],
    [
      "᱕",
      "ᱼ"
    ],
    [
      "ᱛᱟᱹ",
      "ᱢᱤᱞ</w>"
    ],
    [
      "ᱥᱤ",
      ",</w>"
    ],
    [
      "ᱧ",
      ",</w>"
    ],
    [
      "ᱢᱚᱦᱚ",
      "ᱛᱟᱱ</w>"
    ],
    [
      "ᱞᱟ",
      "ᱨᱮ</w>"
    ],
    [
      "ᱤᱱᱰ",
      "ᱤᱭᱟᱱ</w>"
    ],
    [
      "ᱵᱤᱱᱤᱭᱳ",
      "ᱜᱽ</w>"
    ],
    [
      "ᱦᱚᱲ",
      ",</w>"
    ],
    [
      "ᱞᱤᱸ",
      "ᱜᱤ</w>"
    ],
    [
      "ᱮ",
      "ᱸ"
    ],
    [
      "ᱤ",
      "ᱞᱮᱠ"
    ],
    [
      "ᱰᱷᱤ",
      "ᱯ"
    ],
    [
      "ᱡ",
      "ᱩᱱ"
    ],
    [
      "ᱚᱱ",
      "ᱠᱟᱱ</w>"
    ],
    [
      "ᱵᱷᱟᱨᱚ",
      "ᱛᱨᱮ</w>"
    ],
    [
      "ᱡᱟᱹ",
      "ᱯᱩᱫ</w>"
    ],
    [
      "ᱠᱨᱚ",
      "ᱢ</w>"
    ],
    [
      "ᱰᱟ",
      "ᱴᱟ</w>"
    ],
    [
      "ᱫᱟ",
      "ᱭᱟ</w>"
    ],
    [
      "᱘",
      "᱕</w>"
    ],
    [
      "ᱛᱚ",
      "ᱣᱟ</w>"
    ],
    [
      "ᱵᱷᱤ",
      "ᱠ"
    ],
    [
      "ᱟᱜᱷᱟ",
      "ᱛ</w>"
    ],
    [
      "ᱮ",
      "ᱨᱤ"
    ],
    [
      "ᱤᱛᱟ",
      "ᱞᱤ</w>"
    ],
    [
      "ᱡᱟᱨ",
      "ᱞᱮᱱᱰ</w>"
    ],
    [
      "ᱤ",
      "ᱥᱟᱹ"
    ],
    [
      "ᱩᱯᱟᱹ",
      "ᱥ</w>"
    ],
    [
      "ᱠᱷᱟ",
      "ᱡᱽ"
    ],
    [
      "ᱫᱷᱟᱹ",
      "ᱱᱤ</w>"
    ],
    [
      "ᱠᱷᱤ",
      "ᱱᱟ"
    ],
    [
      "ᱟᱲ",
      "ᱮ"
    ],
    [
      "ᱯᱟᱴᱷᱚᱠ",
      "ᱤᱭᱟᱹ</w>"
    ],
    [
      "ᱟ",
      "ᱞᱮᱠ"
    ],
    [
      "᱑᱙᱘",
      "᱗</w>"
    ],
    [
      "ᱛᱟᱹ",
      "ᱞᱤᱢ</w>"
    ],
    [
      "᱑᱙᱗",
      "᱙</w>"
    ],
    [
      "ᱥᱚᱝ",
      "ᱵᱤᱫᱷᱟᱱ</w>"
    ],
    [
      "ᱨᱤ",
      "ᱯᱟ"
    ],
    [
      "ᱵᱟ",
      "ᱱᱤ</w>"
    ],
    [
      "ᱥ",
      "ᱢᱤ"
    ],
    [
      "ᱥᱟᱹᱠᱭᱟᱹ",
      "ᱛ</w>"
    ],
    [
      "ᱵᱷᱤ",
      "ᱛ</w>"
    ],
    [
      "ᱢᱮ",
      "ᱜᱟ"
    ],
    [
      "ᱨᱟ",
      "ᱥ"
    ],
    [
      "ᱰᱟ",
      "ᱵ"
    ],
    [
      "ᱧᱤ",
      "ᱨ</w>"
    ],
    [
      "ᱛᱩ",
      "ᱞ"
    ],
    [
      "ᱡᱤᱭ",
      "ᱟᱢ</w>"
    ],
    [
      "ᱮ",
      "ᱱᱤ"
    ],
    [
      "ᱴᱚ",
      "ᱥ</w>"
    ],
    [
      "ᱫᱷ",
      "ᱟᱣ"
    ],
    [
      "ᱟᱛ",
      "ᱳ"
    ],
    [
      "ᱛᱮ",
      "ᱞᱟ</w>"
    ],
    [
      "ᱞᱟ",
      "ᱵᱷ</w>"
    ],
    [
      "ᱮ",
      "ᱯᱮ"
    ],
    [
      "ᱫ",
      "ᱼᱮ</w>"
    ],
    [
      "ᱝ",
      "ᱜᱤ</w>"
    ],
    [
      "ᱥᱮᱨ",
      "ᱟ</w>"
    ],
    [
      "ᱠᱟ",
      "ᱢ"
    ],
    [
      "ᱤ",
      "ᱨᱟᱱ</w>"
    ],
    [
      "ᱨᱤ",
      "ᱠᱟᱹ"
    ],
    [
      "ᱥᱤᱨ",
      "ᱡᱚᱱ</w>"
    ],
    [
      "ᱢᱮ",
      "ᱴᱟᱣ</w>"
    ],
    [
      "ᱟᱸᱫᱳ",
      "ᱲ</w>"
    ],
    [
      "ᱥᱚ",
      "ᱪᱤ"
    ],
    [
      "ᱢᱳ",
      "ᱵᱟᱭᱤᱞ</w>"
    ],
    [
      "ᱟ",
      "ᱥᱚᱱ</w>"
    ],
    [
      "ᱚ",
      "ᱱᱟᱣ</w>"
    ],
    [
      "ᱯᱟ",
      "ᱛᱷ"
    ],
    [
      "ᱵᱚ",
      "ᱞᱤ"
    ],
    [
      "ᱥᱩ",
      "ᱯᱟᱨ</w>"
    ],
    [
      "ᱮᱥ",
      "ᱹ</w>"
    ],
    [
      "ᱝ",
      "ᱠᱚ"
    ],
    [
      "ᱨᱟ",
      "ᱥᱤᱭᱟ</w>"
    ],
    [
      "ᱯᱟᱹᱣ",
      "ᱲᱤ</w>"
    ],
    [
      "ᱮᱭ",
      "ᱟᱱ</w>"
    ],
    [
      "ᱦᱟ",
      "ᱢᱞᱟ</w>"
    ],
    [
      "ᱡᱚᱛ",
      "ᱱᱟᱣ</w>"
    ],
    [
      "ᱵᱷᱟ",
      "ᱵᱽ</w>"
    ],
    [
      "ᱛᱷᱟᱹᱭ",
      "ᱤ</w>"
    ],
    [
      "ᱜᱟᱸ",
      "ᱛᱟᱠ</w>"
    ],
    [
      "᱓",
      "᱒</w>"
    ],
    [
      "ᱩᱭ",
      "ᱞᱤᱭ"
    ],
    [
      "ᱯᱚᱱᱚ",
      "ᱛᱨᱮ</w>"
    ],
    [
      "ᱯᱩᱱ",
      "ᱭᱟᱹ</w>"
    ],
    [
      "ᱵᱟᱨ",
      "ᱤ</w>"
    ],
    [
      "ᱵᱚ",
      "ᱱᱫᱚᱨ</w>"
    ],
    [
      "ᱠᱩ",
      "ᱥᱛᱤ</w>"
    ],
    [
      "ᱣ",
      "ᱟᱹᱨᱤ</w>"
    ],
    [
      "ᱥᱤ",
      "ᱨᱤᱡᱽ</w>"
    ],
    [
      "ᱥ",
      "ᱱᱤ</w>"
    ],
    [
      "ᱵᱷᱩ",
      "ᱜᱟᱹ"
    ],
    [
      "ᱰ",
      "ᱨᱚ</w>"
    ],
    [
      "ᱠᱟ",
      "ᱢᱤ</w>"
    ],
    [
      "ᱨᱟᱹᱥ",
      "ᱠᱟᱹ"
    ],
    [
      "ᱚᱱᱚ",
      "ᱬ"
    ],
    [
      "ᱟ",
      "ᱫᱤ"
    ],
    [
      "ᱴᱤ",
      "ᱠᱤᱴ</w>"
    ],
    [
      "ᱵᱳᱭ",
      "ᱫᱷᱚ</w>"
    ],
    [
      "ᱴᱷᱮᱱ",
      "ᱮ</w>"
    ],
    [
      "ᱴᱟ",
      "ᱣ"
    ],
    [
      "ᱰᱤ",
      "ᱳ</w>"
    ],
    [
      "ᱚᱨ",
      "ᱰᱟᱨ</w>"
    ],
    [
      "ᱵᱤᱱᱤᱭᱳ",
      "ᱜ</w>"
    ],
    [
      "ᱠᱮ",
      "ᱯ"
    ],
    [
      "ᱤ",
      "ᱥᱴᱟᱨ</w>"
    ],
    [
      "ᱦᱟ",
      "ᱠ</w>"
    ],
    [
      "ᱢ",
      "ᱟᱜ</w>"
    ],
    [
      "ᱥᱚᱭ",
      "ᱫᱟ</w>"
    ],
    [
      "ᱝᱜᱟ",
      "ᱱᱟ</w>"
    ],
    [
      "ᱦᱚᱨ",
      "ᱤ"
    ],
    [
      "ᱜ",
      "ᱩᱨᱩ"
    ],
    [
      "ᱫᱚ",
      "ᱞ"
    ],
    [
      "ᱵᱷᱮᱱᱮ",
      "ᱜᱟᱨ</w>"
    ],
    [
      "ᱥᱤ",
      "ᱰ"
    ],
    [
      "ᱞᱮ",
      "ᱜᱼᱟ</w>"
    ],
    [
      "ᱟᱹᱱᱟᱹᱭ",
      "ᱠᱟᱹᱣ</w>"
    ],
    [
      "ᱟ",
      "ᱰᱮ"
    ],
    [
      "ᱨᱤ",
      "ᱨᱮ</w>"
    ],
    [
      "ᱥᱚᱯᱷ",
      "ᱴ</w>"
    ],
    [
      "ᱞᱟᱹᱜᱤ",
      "ᱛ</w>"
    ],
    [
      "ᱲ",
      "ᱟᱭ</w>"
    ],
    [
      "ᱞᱮᱠ",
      "ᱨᱳᱥ</w>"
    ],
    [
      "ᱫᱚᱦ",
      "ᱲᱟ</w>"
    ],
    [
      "ᱨᱟᱹᱥᱤᱭ",
      "ᱟᱹᱭ</w>"
    ],
    [
      "ᱢᱮᱜᱷᱟ",
      "ᱞᱚᱭ</w>"
    ],
    [
      "ᱱᱤ",
      "ᱞ</w>"
    ],
    [
      "ᱠᱚ",
      "ᱜᱼᱟ</w>"
    ],
    [
      "ᱚᱱᱚ",
      "ᱲ"
    ],
    [
      "ᱪᱮ",
      "ᱞᱟ</w>"
    ],
    [
      "ᱵᱟᱝᱞᱟ",
      "ᱫᱮᱥ</w>"
    ],
    [
      "ᱜᱨᱮ",
      "ᱴ</w>"
    ],
    [
      "ᱪᱟᱞᱩᱠ",
      "ᱠᱚ</w>"
    ],
    [
      "ᱱᱟᱦᱟ",
      "ᱪᱟᱨ</w>"
    ],
    [
      "ᱠ",
      "ᱟᱜᱼᱟ</w>"
    ],
    [
      "ᱨᱳ",
      "ᱢᱟᱱ"
    ],
    [
      "ᱦᱤ",
      "ᱝ"
    ],
    [
      "ᱦᱟᱹ",
      "ᱛᱭ"
    ],
    [
      "ᱠᱷᱟ",
      "ᱴᱚ</w>"
    ],
    [
      "ᱜᱳ",
      "ᱥᱴᱤ</w>"
    ],
    [
      "ᱩᱯᱟ",
      "ᱫᱟᱱ</w>"
    ],
    [
      "ᱥᱟᱹ",
      "ᱨ"
    ],
    [
      "ᱱᱟ",
      "ᱥ"
    ],
    [
      "ᱥᱮᱹᱨᱮᱹ",
      "ᱧ</w>"
    ],
    [
      "ᱦᱟᱭ",
      "ᱫᱨᱟ"
    ],
    [
      "ᱯᱚ",
      "ᱫ"
    ],
    [
      "ᱪ",
      "ᱳᱣ"
    ],
    [
      "ᱯᱟᱹᱨᱥᱤ",
      "ᱛᱮ</w>"
    ],
    [
      "ᱵᱤ",
      "ᱡᱚᱭ"
    ],
    [
      "ᱵᱟ",
      "ᱱᱟ</w>"
    ],
    [
      "ᱥᱚᱢ",
      "ᱚᱨ"
    ],
    [
      "ᱯᱷ",
      "ᱟᱨ</w>"
    ],
    [
      "ᱯᱟᱸ",
      "ᱡᱟᱭ</w>"
    ],
    [
      "ᱯᱟᱲ",
      "ᱟᱜᱼᱟ</w>"
    ],
    [
      "ᱫᱟᱲᱤᱭ",
      "ᱟᱜᱼᱟ</w>"
    ],
    [
      "ᱯᱟᱧᱡᱟ",
      "ᱵᱽ</w>"
    ],
    [
      "ᱥᱟᱸ",
      "ᱜᱮ</w>"
    ],
    [
      "ᱲ",
      "ᱚ</w>"
    ],
    [
      "ᱰᱟ",
      "ᱝ"
    ],
    [
      "ᱯᱳ",
      "ᱥᱴ</w>"
    ],
    [
      "ᱲ",
      ",</w>"
    ],
    [
      "ᱱᱚ",
      "ᱛᱮ</w>"
    ],
    [
      "ᱰᱤᱡᱤ",
      "ᱴᱟᱞ</w>"
    ],
    [
      "ᱥᱩ",
      "ᱛᱨᱚ</w>"
    ],
    [
      "ᱯᱷ",
      "ᱚᱨ</w>"
    ],
    [
      "ᱭᱤ",
      "ᱵᱷ</w>"
    ],
    [
      "ᱫᱩ",
      "ᱨ</w>"
    ],
    [
      "ᱤᱧ",
      "ᱫᱚ</w>"
    ],
    [
      "ᱠᱳ",
      "ᱣᱟ"
    ],
    [
      "ᱦᱮ",
      "ᱨ</w>"
    ],
    [
      "ᱥᱟᱞ",
      "ᱨᱮ,</w>"
    ],
    [
      "ᱵᱟ",
      "ᱦᱤᱱᱤ</w>"
    ],
    [
      "ᱵᱟᱹᱭ",
      "ᱨᱤ</w>"
    ],
    [
      "ᱫᱟ",
      "ᱸ"
    ],
    [
      "ᱥᱴ",
      "ᱩᱰ"
    ],
    [
      "ᱴ",
      "ᱛᱤ</w>"
    ],
    [
      "ᱴ",
      "ᱨᱳ"
    ],
    [
      "ᱜᱟᱣ",
      "ᱛᱟ</w>"
    ],
    [
      "ᱥᱚ",
      "ᱛᱛᱚ"
    ],
    [
      "ᱯᱮᱱᱟᱞ",
      "ᱴᱤ</w>"
    ],
    [
      "ᱰᱮ",
      "ᱵᱷᱤ"
    ],
    [
      "ᱥ",
      "ᱠᱤ</w>"
    ],
    [
      "ᱨᱤ",
      "ᱛ"
    ],
    [
      "ᱨᱮ",
      "ᱠ"
    ],
    [
      "ᱠᱩ",
      "ᱢᱟᱨ"
    ],
    [
      "ᱡᱚ",
      "ᱜᱚ"
    ],
    [
      "ᱜᱼ",
      "ᱟᱭ</w>"
    ],
    [
      "ᱥᱯᱳᱨ",
      "ᱴᱥ</w>"
    ],
    [
      "ᱵᱤ",
      "ᱥᱤ</w>"
    ],
    [
      "ᱥ",
      "'</w>"
    ],
    [
      "ᱥᱨᱤ",
      "ᱞᱚᱝ"
    ],
    [
      "ᱵᱮ",
      ",</w>"
    ],
    [
      "ᱨᱩᱯ",
      "ᱛᱮ</w>"
    ],
    [
      "ᱵᱷᱚᱜᱚ",
      "ᱵᱟᱱ</w>"
    ],
    [
      "ᱤᱭ",
      "ᱟᱹᱭ</w>"
    ],
    [
      "ᱡᱟᱹ",
      "ᱣ</w>"
    ],
    [
      "ᱠᱟᱹ",
      "ᱪ</w>"
    ],
    [
      "᱑᱘",
      "᱖"
    ],
    [
      "ᱵᱮᱲᱦᱟ",
      "ᱭᱛᱮ</w>"
    ],
    [
      "ᱥᱩ",
      "ᱢᱤ</w>"
    ],
    [
      "ᱦᱤ",
      "ᱞᱟᱹᱜ</w>"
    ],
    [
      "ᱯᱩᱨ",
      "ᱟᱱ</w>"
    ],
    [
      "ᱩᱛ",
      "ᱱᱟᱹ"
    ],
    [
      "ᱡᱚᱯᱚ",
      "ᱲᱟᱣ</w>"
    ],
    [
      "ᱫᱤᱥ",
      "ᱣᱟᱹ</w>"
    ],
    [
      "ᱳᱭ",
      "ᱮ</w>"
    ],
    [
      "ᱣ",
      "ᱨᱮ</w>"
    ],
    [
      "ᱪᱚᱞᱚ",
      "ᱠ"
    ],
    [
      "ᱚ",
      "ᱵ</w>"
    ],
    [
      "ᱴᱤ",
      "ᱠᱟᱹ</w>"
    ],
    [
      "᱒",
      "ᱹ"
    ],
    [
      "ᱟᱹ",
      "ᱰᱤᱧ</w>"
    ],
    [
      "ᱪᱟ",
      "ᱪᱟᱞᱟᱣ"
    ],
    [
      "ᱡᱚᱢ",
      "ᱢᱩ</w>"
    ],
    [
      "ᱯᱚ",
      "ᱨᱮ</w>"
    ],
    [
      "ᱡᱟᱶ",
      "ᱟᱭ</w>"
    ],
    [
      "ᱵᱷ",
      "ᱟᱡ"
    ],
    [
      "᱑᱙᱘",
      "᱔</w>"
    ],
    [
      "ᱧᱮᱱᱮ",
      "ᱞᱚᱢ</w>"
    ],
    [
      "ᱥᱟ",
      "ᱦᱤ"
    ],
    [
      "ᱚ",
      "ᱛᱮ"
    ],
    [
      "ᱠᱟ",
      "ᱲᱟ</w>"
    ],
    [
      "ᱤᱭ",
      "ᱟ,</w>"
    ],
    [
      "ᱳᱭ",
      "ᱛᱤ"
    ],
    [
      "ᱲᱟ",
      "ᱣᱟ</w>"
    ],
    [
      "ᱯᱚᱱᱰᱤ",
      "ᱛ</w>"
    ],
    [
      "ᱰᱤ",
      "ᱭ</w>"
    ],
    [
      "ᱥᱟᱶ",
      "ᱛᱮᱭ</w>"
    ],
    [
      "ᱱᱟ",
      "ᱞᱤ</w>"
    ],
    [
      "ᱠᱟᱨ",
      "ᱴ</w>"
    ],
    [
      "ᱞᱟᱦᱟ",
      "ᱱᱛᱤ</w>"
    ],
    [
      "ᱟᱛ",
      "ᱩ</w>"
    ],
    [
      "ᱟᱹᱲ",
      "ᱛᱤ</w>"
    ],
    [
      "ᱠᱷᱚ",
      "ᱵᱚᱨ"
    ],
    [
      "ᱤ",
      "ᱱᱤ"
    ],
    [
      "ᱫᱮ",
      "ᱵᱽ</w>"
    ],
    [
      "ᱫ",
      "ᱟᱹᱣ</w>"
    ],
    [
      "ᱡᱟᱨ",
      "ᱯᱟ"
    ],
    [
      "ᱥᱚ",
      "ᱭ</w>"
    ],
    [
      "ᱥᱮᱴᱮ",
      "ᱨᱚᱜ</w>"
    ],
    [
      "ᱵᱟᱪᱷ",
      "ᱚᱱᱟᱣ</w>"
    ],
    [
      "ᱤ",
      "ᱛᱩᱱ</w>"
    ],
    [
      "ᱤᱭᱳ",
      "ᱨᱳ"
    ],
    [
      "ᱠᱷᱨᱤ",
      "ᱥᱴᱚ"
    ],
    [
      "ᱡ",
      "ᱮᱞ</w>"
    ],
    [
      "ᱫᱤ",
      "ᱧᱟ</w>"
    ],
    [
      "ᱚ",
      "ᱰᱮ</w>"
    ],
    [
      "ᱡᱷᱩ",
      "ᱠ</w>"
    ],
    [
      "e",
      "</w>"
    ],
    [
      "ᱦᱤᱢᱟ",
      "ᱞᱚᱭ</w>"
    ],
    [
      "ᱫᱤ",
      "ᱥᱩ"
    ],
    [
      "ᱨᱩᱣ",
      "ᱟᱹ"
    ],
    [
      "ᱢᱮ",
      "ᱰᱤ"
    ],
    [
      "ᱵᱚᱸ",
      "ᱜᱟ"
    ],
    [
      "ᱫᱤ",
      "ᱱ"
    ],
    [
      "ᱢᱮ",
      "ᱪ"
    ],
    [
      "ᱧᱮ",
      "ᱯᱮᱞ</w>"
    ],
    [
      "ᱯᱷ",
      "ᱮᱭᱟᱨ</w>"
    ],
    [
      "ᱰ",
      "ᱚᱞ</w>"
    ],
    [
      "ᱛᱟᱦᱮ",
      "ᱜ</w>"
    ],
    [
      "ᱠᱟᱱᱟ",
      "ᱭ,</w>"
    ],
    [
      "ᱚᱱ",
      "ᱫᱷ"
    ],
    [
      "ᱴ",
      "ᱠᱟ</w>"
    ],
    [
      "ᱜᱚᱲᱚ",
      "ᱛᱮ</w>"
    ],
    [
      "ᱝ",
      "ᱜᱮ"
    ],
    [
      "ᱛᱚᱨ",
      "ᱚ</w>"
    ],
    [
      "ᱢᱮ",
      "ᱴ</w>"
    ],
    [
      "ᱯᱩ",
      "ᱛ</w>"
    ],
    [
      "ᱳᱭᱮ",
      "ᱵᱥᱟᱭᱤᱴ</w>"
    ],
    [
      "ᱟᱵᱚ",
      "ᱣᱟᱜ</w>"
    ],
    [
      "ᱪᱟᱹ",
      "ᱠᱨᱤ</w>"
    ],
    [
      "ᱤᱭᱩ",
      "ᱹ"
    ],
    [
      "ᱳ",
      "ᱡᱚᱱ</w>"
    ],
    [
      "ᱡᱟᱦᱟ",
      "ᱛᱮ</w>"
    ],
    [
      "ᱦᱚ",
      "ᱴᱚᱜ</w>"
    ],
    [
      "ᱟᱪ",
      "ᱠᱟ</w>"
    ],
    [
      "ᱢᱮᱠᱥᱤ",
      "ᱠᱳ</w>"
    ],
    [
      "ᱜ",
      "ᱼ</w>"
    ],
    [
      "ᱜ",
      "ᱞᱳ"
    ],
    [
      "ᱠᱟᱛᱮ",
      "ᱧ</w>"
    ],
    [
      "ᱞᱮ",
      "ᱠᱷ"
    ],
    [
      "᱑᱙᱘",
      "᱙</w>"
    ],
    [
      "ᱠᱚᱱ",
      "ᱱᱚ"
    ],
    [
      "ᱠᱷᱚᱱ",
      "ᱦᱚᱸ</w>"
    ],
    [
      "ᱡᱟᱦᱟ",
      "ᱡᱽ</w>"
    ],
    [
      "ᱚᱵᱷᱤ",
      "ᱱᱮ"
    ],
    [
      "ᱟ",
      "ᱫᱷᱤ"
    ],
    [
      "ᱮᱴ",
      "ᱟᱨ</w>"
    ],
    [
      "ᱵᱟᱹᱲ",
      "ᱤᱪ</w>"
    ],
    [
      "ᱟᱜ",
      "ᱩ"
    ],
    [
      "ᱥᱴ",
      "ᱨᱤᱭᱚ</w>"
    ],
    [
      "ᱮᱞᱟ",
      "ᱠᱟ</w>"
    ],
    [
      "ᱵᱤᱥ",
      "ᱲᱤ</w>"
    ],
    [
      "ᱤᱱ",
      "ᱥᱴᱤ"
    ],
    [
      "ᱠᱤᱥᱟᱹ",
      "ᱲ</w>"
    ],
    [
      "ᱵᱷᱟ",
      "ᱥ</w>"
    ],
    [
      "ᱜ",
      "ᱳᱭ"
    ],
    [
      "ᱵᱤ",
      "ᱱᱤ"
    ],
    [
      "ᱞᱮ",
      "ᱸᱜᱟ</w>"
    ],
    [
      "ᱯᱨᱚᱡᱟ",
      "ᱛᱤ</w>"
    ],
    [
      "ᱫᱟᱹ",
      "ᱜᱟᱲ</w>"
    ],
    [
      "ᱡᱷᱟᱹ",
      "ᱞ</w>"
    ],
    [
      "ᱞᱳ",
      "ᱨ</w>"
    ],
    [
      "ᱴᱷᱤ",
      "ᱠᱟᱹ</w>"
    ],
    [
      "ᱠᱩᱢ",
      "ᱲᱩ</w>"
    ],
    [
      "ᱫᱽ",
      "ᱨᱟ</w>"
    ],
    [
      "ᱮᱥ",
      "ᱠᱟᱨ</w>"
    ],
    [
      "ᱡᱮᱜᱮ",
      "ᱫ"
    ],
    [
      "ᱠᱟᱨ",
      "ᱚᱱ</w>"
    ],
    [
      "ᱯᱷᱮ",
      "ᱵᱽ"
    ],
    [
      "ᱟ",
      "ᱦᱚ"
    ],
    [
      "ᱤᱥ",
      "ᱞᱟᱢ</w>"
    ],
    [
      "ᱮ",
      "ᱲᱮ</w>"
    ],
    [
      "ᱜᱤᱫ",
      "ᱨᱟᱹ</w>"
    ],
    [
      "ᱜᱟᱞ",
      "ᱢᱟᱨᱟᱣ</w>"
    ],
    [
      "ᱜᱟᱞᱚ",
      "ᱪ"
    ],
    [
      "ᱥᱤᱞᱟ",
      "ᱞᱤᱯᱤ</w>"
    ],
    [
      "ᱡᱷ",
      "ᱟ</w>"
    ],
    [
      "ᱵᱷᱩ",
      "ᱞ</w>"
    ],
    [
      "ᱰᱚ",
      "ᱵ"
    ],
    [
      "ᱠᱚ",
      "ᱢᱯᱟᱱᱤ</w>"
    ],
    [
      "ᱥᱚ",
      "ᱸ"
    ],
    [
      "ᱞᱤᱭ",
      "ᱩ</w>"
    ],
    [
      "ᱥᱟ",
      "ᱯᱷ"
    ],
    [
      "ᱠ",
      "ᱟᱜᱮ</w>"
    ],
    [
      "ᱥᱚ",
      "ᱥ"
    ],
    [
      "ᱥᱤᱠᱷ",
      "ᱱᱟᱹᱛ</w>"
    ],
    [
      "ᱳ",
      "ᱨ</w>"
    ],
    [
      "ᱩ",
      "ᱢ"
    ],
    [
      "ᱮ",
      "ᱫᱟ,</w>"
    ],
    [
      "ᱱᱮ",
      "ᱯᱟᱞ</w>"
    ],
    [
      "ᱦᱮ",
      "ᱣᱟ</w>"
    ],
    [
      "ᱥᱟ",
      "ᱦᱟᱣ</w>"
    ],
    [
      "ᱯᱩᱛ",
      "ᱨᱚ</w>"
    ],
    [
      "ᱫᱤᱥ",
      "ᱦᱩᱫᱤᱥ</w>"
    ],
    [
      "ᱥᱤ",
      "ᱹ</w>"
    ],
    [
      "ᱯᱨᱚ",
      "ᱡᱳ"
    ],
    [
      "ᱜᱷᱟᱹ",
      "ᱲᱤᱡ</w>"
    ],
    [
      "ᱭᱮ",
      "ᱫᱟ</w>"
    ],
    [
      "ᱡᱟᱣ",
      "ᱟᱭ</w>"
    ],
    [
      "ᱟᱡ",
      "ᱟᱨ"
    ],
    [
      "ᱡᱚ",
      "ᱥ"
    ],
    [
      "᱓",
      "᱖</w>"
    ],
    [
      "ᱵᱚᱠ",
      "ᱥᱤᱝ</w>"
    ],
    [
      "ᱫ",
      "ᱤᱭᱟ</w>"
    ],
    [
      "ᱜᱚ",
      "ᱞ"
    ],
    [
      "ᱛᱩᱞᱟᱹ",
      "ᱡᱚᱠᱷᱟ</w>"
    ],
    [
      "ᱵᱤ",
      "ᱠᱚᱞᱯᱚ</w>"
    ],
    [
      "ᱱᱤ",
      "ᱠᱳ"
    ],
    [
      "᱑᱙᱙",
      "᱑</w>"
    ],
    [
      "ᱥᱴ",
      "ᱩ"
    ],
    [
      "ᱰᱤ",
      "ᱱ</w>"
    ],
    [
      "ᱛ",
      "ᱤᱭᱟᱹ</w>"
    ],
    [
      "ᱵᱤᱞᱟᱹ",
      "ᱛ</w>"
    ],
    [
      "ᱨᱚ",
      "ᱝ"
    ],
    [
      "ᱵᱟᱰᱟᱭ",
      "ᱚᱜ</w>"
    ],
    [
      "ᱵᱤ",
      "ᱫᱮᱥᱤ</w>"
    ],
    [
      "ᱡ",
      "ᱜᱟᱨ</w>"
    ],
    [
      "ᱴᱤ",
      "ᱧ</w>"
    ],
    [
      "ᱬ",
      "ᱟ</w>"
    ],
    [
      "ᱜᱚ",
      "ᱸ"
    ],
    [
      "ᱯᱟ",
      "ᱠᱚᱴ</w>"
    ],
    [
      "᱑᱙᱘",
      "᱒</w>"
    ],
    [
      "ᱨᱤᱭ",
      "ᱟ"
    ],
    [
      "ᱡᱤ",
      "ᱱ"
    ],
    [
      "ᱜᱟ",
      "ᱫᱮ"
    ],
    [
      "ᱥᱤᱝ",
      "ᱴᱚᱱ</w>"
    ],
    [
      "ᱠᱷᱟᱡ",
      "ᱱᱟ</w>"
    ],
    [
      "ᱱᱫ",
      "ᱨᱚ</w>"
    ],
    [
      "ᱧᱟ",
      "ᱢᱚᱜᱼᱟ,</w>"
    ],
    [
      "ᱟᱛ",
      "ᱢᱟ</w>"
    ],
    [
      "ᱥᱟ",
      ",</w>"
    ],
    [
      "ᱥᱟᱥᱮ",
      "ᱛ</w>"
    ],
    [
      "ᱪᱷᱟᱹ",
      "ᱲᱮ</w>"
    ],
    [
      "ᱡᱮᱦᱮ",
      "ᱛᱩ</w>"
    ],
    [
      "ᱡᱳᱜ",
      "ᱢᱟᱱ</w>"
    ],
    [
      "ᱵᱮᱠ",
      "ᱴᱮ"
    ],
    [
      "ᱦᱤᱸ",
      "ᱥᱨᱮ</w>"
    ],
    [
      "ᱤᱫᱤ",
      "ᱜ</w>"
    ],
    [
      "᱑᱘",
      "᱙"
    ],
    [
      "ᱪᱮ",
      "ᱱ</w>"
    ],
    [
      "ᱠᱟᱱ",
      "ᱥᱟᱥ</w>"
    ],
    [
      "ᱱᱟᱹ",
      "ᱲᱤ</w>"
    ],
    [
      "ᱪᱮ",
      "ᱸ"
    ],
    [
      "ᱰ",
      "ᱚ</w>"
    ],
    [
      "ᱛᱮᱞᱮ",
      "ᱝᱜᱟᱱᱟ</w>"
    ],
    [
      "ᱯ",
      "ᱮᱭ"
    ],
    [
      "ᱯᱨᱟ",
      "ᱜᱽ</w>"
    ],
    [
      "ᱯᱟ",
      "ᱞᱟᱣᱟ</w>"
    ],
    [
      "ᱠᱟ",
      "ᱛᱷᱟ"
    ],
    [
      "ᱦᱟ",
      "ᱞᱚ"
    ],
    [
      "ᱛ",
      "ᱛᱤᱠ</w>"
    ],
    [
      "ᱠᱩᱨᱩᱢᱩ",
      "ᱴᱩ"
    ],
    [
      "ᱠ",
      "ᱴ</w>"
    ],
    [
      "ᱚᱱᱩ",
      "ᱢᱚᱛᱤ</w>"
    ],
    [
      "ᱥᱤᱭ",
      "ᱟ"
    ],
    [
      "ᱦᱤ",
      "ᱫᱟ</w>"
    ],
    [
      "ᱢᱟ",
      "ᱱᱟᱣᱟ</w>"
    ],
    [
      "᱓",
      "᱓</w>"
    ],
    [
      "ᱚ",
      "ᱱᱟᱭ</w>"
    ],
    [
      "ᱟ",
      "ᱠᱳ"
    ],
    [
      "ᱠᱚ",
      "ᱭᱚᱜ</w>"
    ],
    [
      "ᱦᱟᱢᱮ",
      "ᱥᱟ</w>"
    ],
    [
      "ᱠᱷᱟᱥ",
      "ᱠᱟᱨᱛᱮ</w>"
    ],
    [
      "ᱛᱩᱞᱩ",
      "ᱪ</w>"
    ],
    [
      "ᱛᱟᱹ",
      "ᱞᱤ"
    ],
    [
      "ᱴᱮ",
      "ᱵᱤᱞ</w>"
    ],
    [
      "ᱠᱩ",
      "ᱨ</w>"
    ],
    [
      "ᱟ",
      "ᱯᱷᱤ"
    ],
    [
      "ᱤᱱᱫᱳ",
      "ᱱᱮ"
    ],
    [
      "ᱯᱤ",
      "ᱰᱤᱭᱟ</w>"
    ],
    [
      "ᱯᱚᱨᱟ",
      "ᱢᱚᱥ</w>"
    ],
    [
      "᱖",
      "ᱼ"
    ],
    [
      "ᱴᱚ",
      "ᱞ</w>"
    ],
    [
      "ᱛᱟᱦᱮ",
      "ᱱᱟ"
    ],
    [
      "ᱠᱮ",
      "ᱥ</w>"
    ],
    [
      "ᱞᱚᱠ",
      "ᱠᱷᱚ</w>"
    ],
    [
      "ᱟᱹᱭ",
      "ᱠᱟᱹ"
    ],
    [
      "ᱳ",
      "ᱠᱞᱟ"
    ],
    [
      "ᱵ",
      "ᱞᱚᱠ</w>"
    ],
    [
      "ᱢᱮᱭᱟ",
      "ᱫ</w>"
    ],
    [
      "ᱥᱟ",
      "ᱢ</w>"
    ],
    [
      "ᱢᱟ",
      "ᱱᱟ"
    ],
    [
      "ᱠᱷᱟᱡᱽ",
      "ᱱᱟ</w>"
    ],
    [
      "ᱟ",
      "ᱦᱟᱨ</w>"
    ],
    [
      "ᱟᱹ",
      "ᱠᱤᱞ</w>"
    ],
    [
      "ᱞᱟᱸ",
      "ᱫᱟ</w>"
    ],
    [
      "ᱰᱤ",
      "ᱡᱟ"
    ],
    [
      "ᱴ",
      "ᱟᱨᱤ</w>"
    ],
    [
      "ᱟᱥᱚ",
      "ᱞᱨᱮ</w>"
    ],
    [
      "ᱱᱚ",
      "ᱣᱟᱭ</w>"
    ],
    [
      "ᱴ",
      "ᱞᱮᱱᱰ</w>"
    ],
    [
      "ᱜᱚᱲᱚ",
      "ᱢ</w>"
    ],
    [
      "ᱨᱟᱡᱽ",
      "ᱯᱚᱱᱚᱛ</w>"
    ],
    [
      "ᱵᱷᱩᱜᱟᱹ",
      "ᱜ</w>"
    ],
    [
      "ᱟᱞᱮᱠ",
      "ᱡᱟ"
    ],
    [
      "ᱨᱮᱸᱜᱮ",
      "ᱡ</w>"
    ],
    [
      "ᱜᱤᱨᱟᱹ",
      "ᱵᱟ"
    ],
    [
      "ᱟ",
      "ᱯᱟᱛ</w>"
    ],
    [
      "ᱮ",
      "ᱨ"
    ],
    [
      "ᱢᱮ",
      "ᱞ"
    ],
    [
      "ᱩᱛᱛᱚᱨᱼ",
      "ᱯᱩᱨᱵᱚ</w>"
    ],
    [
      "ᱩ",
      "ᱯ</w>"
    ],
    [
      "ᱩᱫᱽ",
      "ᱜᱟᱹᱣ</w>"
    ],
    [
      "ᱛᱟ",
      "ᱠ"
    ],
    [
      "ᱯᱚᱨᱤ",
      "ᱠᱚᱞᱯᱚᱱᱟ</w>"
    ],
    [
      "ᱢᱩᱥ",
      "ᱠᱤᱞ</w>"
    ],
    [
      "ᱥ",
      "ᱛᱷᱟᱯᱚ"
    ],
    [
      "ᱚᱠᱴᱚ",
      "ᱵᱚᱨ</w>"
    ],
    [
      "ᱟᱹ",
      "ᱜᱤᱵᱷᱟᱨ</w>"
    ],
    [
      "ᱥ",
      "ᱱᱚ"
    ],
    [
      "ᱡᱮ",
      "ᱹ"
    ],
    [
      "ᱞᱳ",
      "ᱰ</w>"
    ],
    [
      "ᱠᱚ",
      "ᱢᱚᱜᱼᱟ</w>"
    ],
    [
      "ᱜᱟ",
      "ᱺᱰᱤ</w>"
    ],
    [
      "ᱲ",
      "ᱥᱤ</w>"
    ],
    [
      "ᱟᱜ",
      "ᱩ</w>"
    ],
    [
      "ᱜᱟᱱ",
      "ᱛᱮ</w>"
    ],
    [
      "ᱥᱟᱭᱤ",
      "ᱰ</w>"
    ],
    [
      "ᱜᱚ",
      "ᱝᱜᱟ</w>"
    ],
    [
      "᱑᱙᱘",
      "᱘</w>"
    ],
    [
      "ᱥᱟᱛ",
      "ᱵᱟᱦᱚᱱ</w>"
    ],
    [
      "ᱜᱨᱟ",
      "ᱦᱚᱠ</w>"
    ],
    [
      "ᱥᱟ",
      "ᱱᱟᱜ</w>"
    ],
    [
      "ᱪᱚᱱᱫ",
      "ᱨᱚ</w>"
    ],
    [
      "ᱢᱩᱠᱷ",
      "ᱤᱭᱟᱹ</w>"
    ],
    [
      "ᱟ",
      "ᱫ"
    ],
    [
      "ᱨᱩ",
      "ᱯᱚ"
    ],
    [
      "ᱠᱟ",
      "ᱯᱩᱨ</w>"
    ],
    [
      "ᱢᱮ",
      "ᱥᱟᱞ</w>"
    ],
    [
      "ᱩᱱᱠᱩ",
      "ᱨᱮᱱ</w>"
    ],
    [
      "᱗",
      "᱔</w>"
    ],
    [
      "ᱵᱷᱤ",
      "ᱲ</w>"
    ],
    [
      "ᱥ",
      "ᱞᱳ"
    ],
    [
      "ᱦᱚ",
      "ᱯᱚ"
    ],
    [
      "ᱠᱷᱮ",
      "ᱞ"
    ],
    [
      "ᱟ",
      "ᱱᱚᱱ"
    ],
    [
      "ᱫᱷᱟ",
      "ᱥ"
    ],
    [
      "ᱛᱩ",
      "ᱞᱟᱹᱣ</w>"
    ],
    [
      "ᱠᱚ",
      "ᱛᱮ</w>"
    ],
    [
      "ᱚᱲ",
      "ᱟᱜ"
    ],
    [
      "ᱵᱚᱪ",
      "ᱪᱚᱱ</w>"
    ],
    [
      "ᱟᱜ",
      "ᱼ</w>"
    ],
    [
      "ᱠᱷᱚ",
      "ᱫᱟ</w>"
    ],
    [
      "ᱞᱮᱫ",
      "ᱼᱟ</w>"
    ],
    [
      "ᱡᱤ",
      "ᱞᱮᱱᱰ</w>"
    ],
    [
      "ᱩᱛᱛᱚᱨᱼ",
      "ᱯᱚᱪᱷᱤᱢ</w>"
    ],
    [
      "᱗",
      "᱒</w>"
    ],
    [
      "ᱞᱟᱹᱲᱦᱟᱹ",
      "ᱭ"
    ],
    [
      "ᱯᱤᱲ",
      "ᱦᱤ</w>"
    ],
    [
      "ᱢᱤ",
      "ᱼ"
    ],
    [
      "ᱟᱸ",
      "ᱜᱤᱵᱷᱟᱨ</w>"
    ],
    [
      "ᱠᱤ",
      "ᱱ"
    ],
    [
      "ᱡᱤ",
      "ᱹ"
    ],
    [
      "ᱵ",
      "ᱞᱟ"
    ],
    [
      "ᱞᱮ",
      "ᱥᱚᱱ</w>"
    ],
    [
      "ᱟ",
      "."
    ],
    [
      "ᱱᱟᱹ",
      "ᱧ</w>"
    ],
    [
      "ᱵᱮᱭ",
      "ᱟᱢ</w>"
    ],
    [
      "ᱢᱮ",
      "ᱨᱩ"
    ],
    [
      "ᱳ",
      "ᱰᱳᱠ</w>"
    ],
    [
      "ᱞᱟᱭ",
      "ᱴᱤᱥ</w>"
    ],
    [
      "ᱡᱚ",
      "ᱝ"
    ],
    [
      "ᱨᱤ",
      "ᱠᱟᱹᱭ</w>"
    ],
    [
      "ᱠᱷᱮ",
      "ᱛ</w>"
    ],
    [
      "ᱨᱟᱥᱴᱨᱚ",
      "ᱯᱚᱛᱤ</w>"
    ],
    [
      "ᱨᱮ",
      "ᱡᱤ"
    ],
    [
      "ᱪᱟᱸ",
      "ᱫᱽ</w>"
    ],
    [
      "ᱦ",
      "ᱟᱜ"
    ],
    [
      "ᱱᱤᱭ",
      "ᱟᱹ"
    ],
    [
      "ᱱᱤ",
      "ᱱ"
    ],
    [
      "ᱡᱩ",
      "ᱫᱤ"
    ],
    [
      "ᱨᱳ",
      "ᱰ</w>"
    ],
    [
      "ᱛᱨᱤ",
      "ᱯᱩᱨᱟ</w>"
    ],
    [
      "ᱛᱚ",
      "ᱵᱮ,</w>"
    ],
    [
      "ᱡᱤ",
      "ᱵᱤ</w>"
    ],
    [
      "ᱢᱤᱭ",
      "ᱩᱱᱤ"
    ],
    [
      "ᱥᱟ",
      "ᱫᱽ</w>"
    ],
    [
      "᱖",
      "᱔</w>"
    ],
    [
      "ᱢᱟ",
      "ᱥ"
    ],
    [
      "ᱥᱩ",
      "ᱦᱤ</w>"
    ],
    [
      "ᱢᱳᱨ",
      "ᱡᱚ</w>"
    ],
    [
      "ᱯᱷ",
      "ᱟᱱ"
    ],
    [
      "ᱳᱣ",
      "ᱟᱱ</w>"
    ],
    [
      "ᱟᱨ",
      "ᱢᱤᱫᱴᱟᱝ</w>"
    ],
    [
      "ᱢᱩ",
      "ᱨᱟᱹᱭ</w>"
    ],
    [
      "ᱛᱤ",
      "ᱵ"
    ],
    [
      "ᱧᱩ",
      "ᱦᱩᱢ</w>"
    ],
    [
      "ᱵᱤᱨᱫᱟᱹ",
      "ᱜᱟᱲ"
    ],
    [
      "ᱯᱚᱨ",
      "ᱫᱟ</w>"
    ],
    [
      "ᱵᱤᱫᱷ",
      "ᱟᱱ"
    ],
    [
      "ᱡ",
      "ᱮᱱᱮ"
    ],
    [
      "ᱰ",
      "ᱟᱱ"
    ],
    [
      "ᱭᱤ",
      "ᱰ</w>"
    ],
    [
      "ᱥᱟ",
      "ᱦᱟ"
    ],
    [
      "ᱯ",
      "ᱞᱮ</w>"
    ],
    [
      "ᱟ",
      "ᱫᱚᱢ</w>"
    ],
    [
      "ᱥᱴᱳ",
      "ᱠ</w>"
    ],
    [
      "ᱱᱚ",
      "ᱠᱚᱞ</w>"
    ],
    [
      "ᱱᱤ",
      "ᱣᱩ"
    ],
    [
      "ᱪᱚᱞᱚᱠ",
      "ᱪᱤᱛᱟᱹᱨ</w>"
    ],
    [
      "ᱥᱤᱠ",
      "ᱟᱜ"
    ],
    [
      "ᱚ",
      "ᱰᱳᱠ</w>"
    ],
    [
      "ᱼ",
      "ᱵᱟᱵᱟ</w>"
    ],
    [
      "ᱠ",
      "ᱤᱭᱚ</w>"
    ],
    [
      "ᱟᱨ",
      "ᱥ</w>"
    ],
    [
      "ᱡᱳᱣ",
      "ᱱᱚ</w>"
    ],
    [
      "ᱟᱨᱡᱮᱱᱴᱤ",
      "ᱱᱟ</w>"
    ],
    [
      "ᱠᱳ",
      "ᱥᱤᱥ</w>"
    ],
    [
      "ᱥ",
      "ᱥᱟ</w>"
    ],
    [
      "ᱥᱤᱱᱰ",
      "ᱨᱳᱢ</w>"
    ],
    [
      "ᱰᱷᱮ",
      "ᱨ"
    ],
    [
      "ᱥᱟᱨ",
      "ᱤ"
    ],
    [
      "ᱵᱮᱜᱚᱨ",
      ",</w>"
    ],
    [
      "ᱥᱟ",
      "ᱦᱤᱛ</w>"
    ],
    [
      "ᱢᱮᱱ",
      "ᱛᱮᱠᱚ</w>"
    ],
    [
      "ᱢᱟ",
      "ᱣᱩᱱ"
    ],
    [
      "ᱵᱚᱝ",
      "ᱥᱚ"
    ],
    [
      "ᱡᱚ",
      "ᱴᱮᱫ</w>"
    ],
    [
      "ᱣ",
      "ᱮ"
    ],
    [
      "ᱳᱭ",
      "ᱮᱞ"
    ],
    [
      "ᱠ",
      "ᱞᱳ"
    ],
    [
      "ᱫᱷᱤ",
      "ᱨᱤ"
    ],
    [
      "ᱯᱩᱭ",
      "ᱞᱳ</w>"
    ],
    [
      "ᱯᱳ",
      "ᱨ</w>"
    ],
    [
      "᱑᱙᱗",
      "᱑</w>"
    ],
    [
      "ᱚᱱᱟ",
      "ᱛᱟᱭᱚᱢ</w>"
    ],
    [
      "ᱢᱤᱫ",
      "ᱼ"
    ],
    [
      "ᱠᱷᱚᱸ",
      "ᱜᱚᱨ</w>"
    ],
    [
      "ᱵᱷ",
      "ᱚᱠᱛᱚ</w>"
    ],
    [
      "ᱵ",
      "ᱩ</w>"
    ],
    [
      "ᱨᱤ",
      "ᱰᱟ</w>"
    ],
    [
      "ᱭᱮ",
      "ᱴ</w>"
    ],
    [
      "ᱴᱟᱭᱤ",
      "ᱯ</w>"
    ],
    [
      "ᱦᱟᱹ",
      "ᱨ"
    ],
    [
      "ᱵᱟᱱᱩ",
      "ᱜᱼᱟ</w>"
    ],
    [
      "ᱠᱟᱛᱮ",
      "ᱫ,</w>"
    ],
    [
      "ᱱ",
      "ᱛᱮ</w>"
    ],
    [
      "ᱞᱟᱜ",
      "ᱟ</w>"
    ],
    [
      "ᱥᱤ",
      "ᱜᱤ"
    ],
    [
      "ᱨᱟ",
      "ᱛ</w>"
    ],
    [
      "᱘",
      "᱖</w>"
    ],
    [
      "ᱛᱮ",
      "ᱱ</w>"
    ],
    [
      "ᱟ",
      "ᱢᱟ</w>"
    ],
    [
      "ᱵᱷᱟᱵᱽ",
      "ᱛᱮ</w>"
    ],
    [
      "ᱯᱩ",
      "ᱞ"
    ],
    [
      "ᱵᱚᱝ",
      "ᱜᱚ</w>"
    ],
    [
      "ᱥ",
      "ᱱᱩ"
    ],
    [
      "ᱟᱹ",
      "ᱭᱤᱱ</w>"
    ],
    [
      "ᱵ",
      "ᱟᱹ</w>"
    ],
    [
      "ᱵᱟ",
      "ᱦᱮᱨ</w>"
    ],
    [
      "ᱯᱟᱹ",
      "ᱰᱩ</w>"
    ],
    [
      "ᱢᱳ",
      "ᱴᱚᱨ</w>"
    ],
    [
      "ᱠᱷᱨᱤᱥᱴᱟ",
      "ᱱ</w>"
    ],
    [
      "ᱦᱟᱨ",
      "ᱤ"
    ],
    [
      "᱘",
      "᱓</w>"
    ],
    [
      "ᱳᱣ",
      "ᱮ"
    ],
    [
      "ᱞᱟ",
      "."
    ],
    [
      "ᱠᱤ",
      "ᱠ</w>"
    ],
    [
      "ᱳᱠᱞᱟ",
      "ᱦᱳ"
    ],
    [
      "ᱢᱟ",
      "ᱭᱟ</w>"
    ],
    [
      "ᱛᱟᱹ",
      "ᱯᱤᱥ</w>"
    ],
    [
      "ᱠᱚ",
      "ᱶᱟᱜ</w>"
    ],
    [
      "ᱛᱮ",
      "ᱞ</w>"
    ],
    [
      "ᱢᱟᱨᱟ",
      "ᱝ"
    ],
    [
      "ᱠᱩ",
      "ᱞ"
    ],
    [
      "ᱠᱚ",
      "ᱞᱤ"
    ],
    [
      "ᱯᱚᱨ",
      "ᱛᱩ"
    ],
    [
      "ᱜ",
      "ᱠᱟᱱ</w>"
    ],
    [
      "᱓",
      "᱔</w>"
    ],
    [
      "ᱛ",
      "ᱨᱤᱭᱚ</w>"
    ],
    [
      "ᱵᱚ",
      "ᱢ</w>"
    ],
    [
      "ᱛᱤ",
      "ᱨᱤ</w>"
    ],
    [
      "ᱮᱱ",
      "ᱛᱮ"
    ],
    [
      "᱑᱙᱘",
      "᱓</w>"
    ],
    [
      "ᱠᱟ",
      "ᱧ"
    ],
    [
      "ᱤᱭ",
      "ᱚ"
    ],
    [
      "ᱵᱚ",
      "ᱥᱚᱱ"
    ],
    [
      "ᱥᱩ",
      "ᱛ"
    ],
    [
      "ᱥᱚᱝ",
      "ᱜᱷ"
    ],
    [
      "ᱦᱩ",
      "ᱞ</w>"
    ],
    [
      "ᱡᱩ",
      "ᱨᱤ"
    ],
    [
      "ᱥᱚᱱ",
      "ᱱᱟ"
    ],
    [
      "ᱮᱠ",
      "ᱞᱟ</w>"
    ],
    [
      "ᱞᱮ",
      "ᱯᱷ"
    ],
    [
      "ᱛᱤ",
      "ᱵᱟ"
    ],
    [
      "ᱫᱮ",
      "ᱡ</w>"
    ],
    [
      "ᱵᱟ",
      "ᱦᱚ"
    ],
    [
      "ᱴᱤ",
      "ᱯᱤ"
    ],
    [
      "ᱮ",
      "ᱫᱟᱭ</w>"
    ],
    [
      "ᱳ",
      "ᱥ</w>"
    ],
    [
      "ᱯᱚᱨ",
      "ᱡᱟᱭ</w>"
    ],
    [
      "ᱮᱢᱟ",
      "ᱭ</w>"
    ],
    [
      "᱔",
      ","
    ],
    [
      "ᱰᱚ",
      "ᱞᱟᱨ"
    ],
    [
      "ᱯᱷᱤ",
      "ᱱ"
    ],
    [
      "ᱦ",
      "ᱨᱤ"
    ],
    [
      "ᱴᱟᱭ",
      "ᱯᱷᱚ"
    ],
    [
      "ᱰᱮᱢᱳ",
      "ᱠᱨᱮ"
    ],
    [
      "ᱵᱷᱤ",
      "ᱱᱟᱹ</w>"
    ],
    [
      "ᱞᱮᱫᱟ",
      "᱾</w>"
    ],
    [
      "ᱪᱚᱱᱰᱤ",
      "ᱜᱚᱲ</w>"
    ],
    [
      "ᱪᱟ",
      "ᱞᱟ"
    ],
    [
      "ᱵ",
      "ᱼᱟ</w>"
    ],
    [
      "ᱵᱟ",
      "ᱠᱷ"
    ],
    [
      "ᱠᱤᱪ",
      "ᱨᱤᱡ</w>"
    ],
    [
      "ᱡᱤ",
      "ᱵᱽ"
    ],
    [
      "᱔",
      "᱓</w>"
    ],
    [
      "ᱠᱚᱨᱟ",
      "ᱣᱟ</w>"
    ],
    [
      "ᱴ",
      "ᱟᱹᱣ</w>"
    ],
    [
      "ᱫᱚ",
      "ᱛᱛᱚ</w>"
    ],
    [
      "ᱠᱩᱠ",
      "ᱢᱩ</w>"
    ],
    [
      "ᱵᱚ",
      "ᱠᱚ"
    ],
    [
      "ᱣ",
      "ᱟᱱᱟᱜ</w>"
    ],
    [
      "ᱟᱭ",
      "ᱚ"
    ],
    [
      "ᱥᱮ",
      "ᱫᱛᱮ</w>"
    ],
    [
      "ᱯᱚᱲ",
      "ᱦᱚᱱ</w>"
    ],
    [
      "ᱠᱚᱢᱤ",
      "ᱥᱚᱱ</w>"
    ],
    [
      "ᱡᱷ",
      "ᱮ</w>"
    ],
    [
      "᱑᱙᱕",
      "᱖</w>"
    ],
    [
      "ᱴ",
      "ᱨᱟᱱ"
    ],
    [
      "ᱯᱮ",
      "ᱨᱟ</w>"
    ],
    [
      "ᱵᱷᱟ",
      "ᱵᱚᱱᱟ</w>"
    ],
    [
      "ᱢᱟᱱ",
      "ᱣᱟ</w>"
    ],
    [
      "ᱛᱚᱦᱚ",
      "ᱵᱤᱞ</w>"
    ],
    [
      "ᱥᱚ",
      "ᱵᱷ"
    ],
    [
      "ᱦᱮ",
      "ᱲ"
    ],
    [
      "ᱞᱟ",
      "ᱦᱳ"
    ],
    [
      "ᱵᱟ",
      "ᱡᱤ</w>"
    ],
    [
      "ᱛᱤ",
      "ᱛᱮ</w>"
    ],
    [
      "ᱵᱚᱨ",
      "ᱢᱚᱱ</w>"
    ],
    [
      "ᱣᱟᱨ",
      "ᱰ</w>"
    ],
    [
      "ᱛᱩ",
      "ᱥᱟᱨ</w>"
    ],
    [
      "ᱢᱚ",
      "ᱛ"
    ],
    [
      "ᱦᱩᱭ",
      "ᱫᱟᱲᱮᱭᱟᱜ</w>"
    ],
    [
      "ᱮᱭᱤᱪ",
      "ᱹ"
    ],
    [
      "ᱵᱟ",
      "ᱵ</w>"
    ],
    [
      "ᱵ",
      "ᱳ</w>"
    ],
    [
      "ᱡᱷᱩᱸ",
      "ᱠᱤ</w>"
    ],
    [
      "ᱨᱤ",
      "ᱞᱤ"
    ],
    [
      "ᱢᱚ",
      "ᱫᱫᱷᱚ</w>"
    ],
    [
      "ᱰᱮ",
      "ᱞᱤᱵᱷ"
    ],
    [
      "ᱯᱨᱳ",
      "ᱜᱨᱟ"
    ],
    [
      "ᱰ",
      "ᱨᱳ"
    ],
    [
      "᱑᱙᱖",
      "᱙</w>"
    ],
    [
      "ᱦᱚ",
      "ᱱᱚ"
    ],
    [
      "ᱜᱷᱟᱨᱚ",
      "ᱧᱡᱽ</w>"
    ],
    [
      "ᱟ",
      "ᱵᱟᱫ</w>"
    ],
    [
      "᱑᱙᱖",
      "᱔</w>"
    ],
    [
      "ᱵᱤ",
      "ᱠ"
    ],
    [
      "ᱥᱟᱱ",
      "ᱛᱤ</w>"
    ],
    [
      "ᱚᱛ",
      "ᱢᱚᱱ</w>"
    ],
    [
      "ᱛᱟ",
      "ᱢ</w>"
    ],
    [
      "ᱵᱚ",
      "ᱞᱤ</w>"
    ],
    [
      "ᱵᱮ",
      "ᱥᱚᱨᱠᱟᱨᱤ</w>"
    ],
    [
      "᱔",
      "᱒</w>"
    ],
    [
      "ᱠᱳ",
      "ᱴ"
    ],
    [
      "ᱟᱰᱮ",
      "ᱯᱟᱥᱮ</w>"
    ],
    [
      "ᱢᱟᱭᱠᱨᱳ",
      "ᱥᱚᱯᱷᱴ</w>"
    ],
    [
      "ᱵᱷ",
      "ᱩᱨ"
    ],
    [
      "ᱜᱚ",
      "ᱡ"
    ],
    [
      "ᱯᱚᱨ",
      "ᱵᱚ</w>"
    ],
    [
      "᱔",
      "᱘</w>"
    ],
    [
      "ᱟ",
      "ᱫᱚ</w>"
    ],
    [
      "ᱫᱮ",
      "ᱥ"
    ],
    [
      "ᱥᱤ",
      "ᱴ</w>"
    ],
    [
      "ᱯᱩ",
      "ᱞᱤ"
    ],
    [
      "ᱵᱷᱳ",
      "ᱨ</w>"
    ],
    [
      "ᱧᱮ",
      "ᱧᱮᱞ</w>"
    ],
    [
      "ᱫᱷ",
      "ᱟᱭ</w>"
    ],
    [
      "ᱪᱟᱸᱫᱳ",
      "ᱨᱮ</w>"
    ],
    [
      "ᱴ",
      "ᱩᱭ"
    ],
    [
      "ᱴᱟᱭᱤ",
      "ᱢ</w>"
    ],
    [
      "ᱠ",
      "ᱞᱟᱨ"
    ],
    [
      "ᱢᱩᱫᱽ",
      "ᱨᱮ,</w>"
    ],
    [
      "ᱱᱮ",
      "ᱣ"
    ],
    [
      "᱑᱙᱗",
      "᱗</w>"
    ],
    [
      "᱘",
      "᱔</w>"
    ],
    [
      "ᱯ",
      "ᱚᱨ</w>"
    ],
    [
      "ᱵᱷᱩ",
      "ᱛ</w>"
    ],
    [
      "ᱴᱤ",
      "ᱵᱤ</w>"
    ],
    [
      "ᱦᱮ",
      "ᱱᱰ"
    ],
    [
      "ᱵᱚᱨᱚ",
      "ᱯᱷ</w>"
    ],
    [
      "ᱛᱟᱦᱮᱸ",
      ",</w>"
    ],
    [
      "ᱥᱚ",
      "ᱯᱤᱝ</w>"
    ],
    [
      "ᱵᱷᱤ",
      "ᱝ</w>"
    ],
    [
      "ᱟᱭ",
      "ᱟᱨ"
    ],
    [
      "ᱵᱷᱟᱨ",
      "ᱡᱤ"
    ],
    [
      "ᱜᱷᱟᱹ",
      "ᱴᱤ</w>"
    ],
    [
      "ᱠᱚ",
      "ᱲᱟᱢ</w>"
    ],
    [
      "ᱲ",
      "ᱳ</w>"
    ],
    [
      "ᱵᱤᱥᱥᱚ",
      "ᱠᱟᱯ</w>"
    ],
    [
      "ᱱᱮᱴ",
      "ᱵᱚᱞ</w>"
    ],
    [
      "ᱦᱚ",
      "ᱴᱚ</w>"
    ],
    [
      "ᱭ",
      "ᱮᱫ</w>"
    ],
    [
      "ᱠ",
      "ᱤᱭᱟ</w>"
    ],
    [
      "ᱠᱟᱹ",
      "ᱴᱩ"
    ],
    [
      "ᱢᱮ",
      "ᱨᱟ</w>"
    ],
    [
      "ᱜᱤᱨᱟᱹ",
      "ᱵᱟᱥᱤ</w>"
    ],
    [
      "ᱢᱤᱫ",
      "ᱴᱟ"
    ],
    [
      "ᱥᱟᱹ",
      "ᱢᱩᱫᱽ</w>"
    ],
    [
      "ᱴᱟ",
      "ᱥ</w>"
    ],
    [
      "ᱟᱹᱠᱷᱨᱤ",
      "ᱧ"
    ],
    [
      "ᱢᱚ",
      "ᱭ"
    ],
    [
      "ᱤᱫᱤ",
      "ᱭ</w>"
    ],
    [
      "ᱠ",
      "ᱚᱱ</w>"
    ],
    [
      "ᱫᱟ",
      "ᱢᱟᱱ</w>"
    ],
    [
      "ᱛᱮᱞᱮ",
      "ᱜᱩ</w>"
    ],
    [
      "ᱠᱞᱟ",
      "ᱭ"
    ],
    [
      "ᱵᱟ",
      "ᱱᱟ"
    ],
    [
      "ᱵᱤᱪᱟᱹ",
      "ᱨᱤᱭᱟᱹ</w>"
    ],
    [
      "ᱰᱟ",
      "ᱨᱮ</w>"
    ],
    [
      "ᱠᱨᱟᱱ",
      "ᱛᱤᱭᱚ</w>"
    ],
    [
      "ᱵᱚ",
      "ᱥ</w>"
    ],
    [
      "ᱵᱚ",
      "ᱜ</w>"
    ],
    [
      "ᱡᱚ",
      "ᱦᱚᱲ</w>"
    ],
    [
      "ᱪᱟᱞᱟᱣ",
      "ᱮᱱ</w>"
    ],
    [
      "᱔",
      "ᱼ"
    ],
    [
      "ᱵᱷᱮ",
      "ᱲ</w>"
    ],
    [
      "ᱢᱚ",
      "ᱠ</w>"
    ],
    [
      "ᱜᱚ",
      "ᱜ</w>"
    ],
    [
      "ᱛᱷᱟ",
      "ᱱᱤᱛ</w>"
    ],
    [
      "ᱛᱷᱟᱹ",
      "ᱱᱤᱭᱚ</w>"
    ],
    [
      "ᱛᱟᱱ",
      "ᱛᱨᱤᱠ</w>"
    ],
    [
      "ᱠᱟᱹ",
      "ᱥᱱᱤ</w>"
    ],
    [
      "᱓",
      "ᱹ"
    ],
    [
      "ᱸ",
      "ᱫᱽ</w>"
    ],
    [
      "ᱫᱩ",
      "ᱥᱤ</w>"
    ],
    [
      "ᱵᱟ",
      "ᱞᱮ</w>"
    ],
    [
      "ᱵᱷᱤᱠ",
      "ᱴᱳ"
    ],
    [
      "ᱞ",
      "ᱚᱨ"
    ],
    [
      "ᱭᱤ",
      "ᱪ</w>"
    ],
    [
      "ᱰᱟᱠ",
      "ᱛᱚᱨ</w>"
    ],
    [
      "ᱠᱷᱩ",
      "ᱛᱤ</w>"
    ],
    [
      "ᱫᱚ",
      "ᱱᱰᱚ</w>"
    ],
    [
      "ᱱᱤ",
      "ᱧ</w>"
    ],
    [
      "ᱜ-",
      "ᱟ᱾</w>"
    ],
    [
      "ᱟᱭ",
      "ᱼ"
    ],
    [
      "ᱫ",
      "ᱨᱟ</w>"
    ],
    [
      "ᱤᱭᱟᱹ",
      "ᱠᱚ</w>"
    ],
    [
      "ᱰᱤᱭ",
      "ᱟᱱ</w>"
    ],
    [
      "ᱟᱸ",
      "ᱴ</w>"
    ],
    [
      "ᱠᱟ",
      "ᱴᱤᱡ</w>"
    ],
    [
      "ᱟ",
      "ᱠᱟᱨ</w>"
    ],
    [
      "ᱩ",
      "ᱞ</w>"
    ],
    [
      "ᱛ",
      "ᱛᱤ</w>"
    ],
    [
      "ᱳᱭᱛᱤ",
      "ᱡᱽ"
    ],
    [
      "ᱮᱢ",
      "ᱟᱜ</w>"
    ],
    [
      "ᱥᱤ",
      "ᱢ</w>"
    ],
    [
      "᱓",
      "᱗</w>"
    ],
    [
      "ᱥᱟ",
      "ᱪᱮᱫ</w>"
    ],
    [
      "ᱢ",
      "ᱳᱭ"
    ],
    [
      "ᱯᱚᱪᱷᱤ",
      "ᱢ"
    ],
    [
      "ᱴᱷᱟ",
      "ᱲᱚ</w>"
    ],
    [
      "ᱥᱤᱝ",
      "ᱜᱟ"
    ],
    [
      "ᱩ",
      "ᱴ</w>"
    ],
    [
      "ᱵᱤᱫᱽ",
      "ᱫᱟᱹᱜᱟᱲ</w>"
    ],
    [
      "ᱢᱟ",
      "ᱠᱟ"
    ],
    [
      "ᱪᱟᱯᱟ",
      "ᱫ</w>"
    ],
    [
      "ᱥᱚᱨ",
      "ᱟᱣ</w>"
    ],
    [
      "ᱡᱷ",
      "ᱟᱞ"
    ],
    [
      "ᱠᱟᱵᱟ",
      "ᱰᱤ</w>"
    ],
    [
      "ᱜᱤᱨ",
      "ᱡᱟᱹ</w>"
    ],
    [
      "ᱵᱟᱹᱲᱛᱤ",
      "ᱜ</w>"
    ],
    [
      "ᱟᱨ",
      "ᱰ</w>"
    ],
    [
      "ᱨ",
      "ᱥᱤ</w>"
    ],
    [
      "ᱜᱟᱭ",
      "ᱱᱟ"
    ],
    [
      "ᱩᱫᱩ",
      "ᱜᱟ</w>"
    ],
    [
      "ᱰᱟ",
      "ᱪ</w>"
    ],
    [
      "ᱥᱱᱩ",
      "ᱠᱟᱨ</w>"
    ],
    [
      "ᱨᱚ",
      "ᱦᱚ"
    ],
    [
      "ᱨ",
      "ᱳᱭ"
    ],
    [
      "ᱫᱚᱠ",
      "ᱠᱷᱤᱱᱼ"
    ],
    [
      "ᱤᱝ",
      "ᱨᱮᱡ</w>"
    ],
    [
      "ᱥᱮᱞᱮ",
      "ᱫᱚᱜᱼᱟ</w>"
    ],
    [
      "ᱫᱟᱲᱮᱭᱟᱜᱼ",
      "ᱟ᱾</w>"
    ],
    [
      "ᱱᱚ",
      "ᱣ"
    ],
    [
      "ᱨᱚ",
      "ᱭᱮᱰ</w>"
    ],
    [
      "ᱦᱩ",
      "ᱞ"
    ],
    [
      "ᱥᱳ",
      "ᱵᱷᱤᱭᱮ"
    ],
    [
      "ᱛᱷᱮ",
      "ᱨᱟ"
    ],
    [
      "ᱤᱭᱩ",
      "ᱱᱟᱭ"
    ],
    [
      "ᱠᱮ",
      "ᱥᱤ</w>"
    ],
    [
      "ᱱᱚ",
      "ᱱ</w>"
    ],
    [
      "ᱥᱩᱭ",
      "ᱡᱟᱨᱞᱮᱱᱰ</w>"
    ],
    [
      "1",
      "9"
    ],
    [
      "ᱚᱨᱚ",
      "ᱢ</w>"
    ],
    [
      "ᱠᱤ",
      "ᱢᱤ</w>"
    ],
    [
      "ᱩᱫ",
      "ᱜᱟᱹ"
    ],
    [
      "ᱵᱤᱵᱮ",
      "ᱪᱚᱱᱟ</w>"
    ],
    [
      "ᱞᱮ",
      "ᱢ</w>"
    ],
    [
      "ᱞᱩ",
      "ᱜᱽ"
    ],
    [
      "ᱚᱵᱚ",
      "ᱵᱟᱦᱤ"
    ],
    [
      "ᱢᱚᱦᱚ",
      "ᱞ</w>"
    ],
    [
      "᱑᱙᱗",
      "᱕</w>"
    ],
    [
      "ᱜ",
      "ᱨᱳ"
    ],
    [
      "ᱠᱚ",
      "ᱨᱮ,</w>"
    ],
    [
      "ᱳᱣ",
      "ᱟᱭᱤ"
    ],
    [
      "ᱪᱚ",
      "ᱢ"
    ],
    [
      "ᱥᱟᱨ",
      "ᱵᱷᱤᱥ</w>"
    ],
    [
      "ᱥᱤ",
      "ᱵᱤᱞ</w>"
    ],
    [
      "ᱡᱩ",
      "ᱫᱟᱹ</w>"
    ],
    [
      "ᱦᱩᱭ",
      "ᱞᱮᱱᱟ,</w>"
    ],
    [
      "ᱥᱤ",
      "ᱨᱳ"
    ],
    [
      "ᱫᱟᱹ",
      "ᱵᱽ</w>"
    ],
    [
      "ᱢᱤᱭ",
      "ᱩ"
    ],
    [
      "ᱩᱯᱨᱩ",
      "ᱢᱚᱜᱼᱟ</w>"
    ],
    [
      "ᱪᱚᱱᱫᱨᱚ",
      "ᱜᱩᱯᱛᱚ</w>"
    ],
    [
      "ᱯᱟᱹ",
      "ᱨᱤ</w>"
    ],
    [
      "ᱫᱚ",
      "ᱢ"
    ],
    [
      "ᱯᱩ",
      "ᱸᱰ</w>"
    ],
    [
      "ᱞᱤ",
      "ᱧ</w>"
    ],
    [
      "ᱦᱟᱹᱛᱭ",
      "ᱟᱹᱨ</w>"
    ],
    [
      "ᱵᱟ",
      "ᱛᱷᱟᱱ</w>"
    ],
    [
      "ᱢᱮ",
      "ᱱᱟ</w>"
    ],
    [
      "ᱯᱤ",
      "ᱱ</w>"
    ],
    [
      "ᱛᱤᱵᱟ",
      "ᱪᱚᱠ</w>"
    ],
    [
      "ᱯᱟᱛᱷ",
      "ᱟᱢ</w>"
    ],
    [
      "ᱨᱳ",
      "ᱞᱟᱨ</w>"
    ],
    [
      "ᱠᱨᱤ",
      "ᱛᱤ</w>"
    ],
    [
      "᱖",
      "᱕</w>"
    ],
    [
      "ᱥᱤ",
      "ᱞᱟ</w>"
    ],
    [
      "ᱧ",
      "ᱩᱨ"
    ],
    [
      "ᱥᱟᱭ",
      "ᱟᱨ</w>"
    ],
    [
      "ᱥᱳᱵᱷᱤᱭᱮ",
      "ᱛ</w>"
    ],
    [
      "ᱯᱷ",
      "ᱟᱸ"
    ],
    [
      "ᱡᱟᱱᱩ",
      "ᱭᱟᱨᱤ</w>"
    ],
    [
      "ᱛᱤ",
      "ᱧᱟᱹ</w>"
    ],
    [
      "ᱥ",
      "ᱛᱚ"
    ],
    [
      "ᱞᱤ",
      "ᱢᱤ"
    ],
    [
      "ᱠᱩᱢ",
      "ᱵᱷᱚ</w>"
    ],
    [
      "ᱩᱰ",
      "ᱟᱹ"
    ],
    [
      "ᱡᱟ",
      "ᱞ</w>"
    ],
    [
      "ᱡᱤ",
      ",</w>"
    ],
    [
      "ᱯᱷ",
      "ᱮᱞ"
    ],
    [
      "ᱫᱤ",
      ",</w>"
    ],
    [
      "ᱧᱩ",
      "ᱢᱟᱱᱟᱜ</w>"
    ],
    [
      "ᱜᱚᱵᱷᱚᱨ",
      "ᱱᱚᱨ</w>"
    ],
    [
      "ᱟᱣ",
      "ᱛᱟᱨᱮ</w>"
    ],
    [
      "ᱛᱟᱹ",
      "ᱨᱩ"
    ],
    [
      "ᱦᱟᱹ",
      "ᱞᱤ</w>"
    ],
    [
      "ᱤᱱ",
      "ᱥᱴᱟ"
    ],
    [
      "ᱡᱤ",
      "ᱨᱟᱹ"
    ],
    [
      "᱑᱙᱔",
      "᱘</w>"
    ],
    [
      "ᱟᱠᱷ",
      "ᱚᱨ</w>"
    ],
    [
      "ᱟᱲᱮ",
      "ᱨᱮ</w>"
    ],
    [
      "ᱥ",
      "ᱠᱟᱨ</w>"
    ],
    [
      "ᱫᱟᱲᱮᱭ",
      "ᱟ</w>"
    ],
    [
      "ᱯᱚᱨ",
      "ᱟᱢᱮ"
    ],
    [
      "ᱤ",
      "ᱠᱟᱹ</w>"
    ],
    [
      "ᱨ",
      "ᱭᱟᱹ</w>"
    ],
    [
      "ᱥᱴ",
      "ᱚᱠ"
    ],
    [
      "ᱦᱮ",
      "ᱡ"
    ],
    [
      "ᱞᱩ",
      "ᱭ</w>"
    ],
    [
      "ᱦᱚᱨ",
      "ᱤ</w>"
    ],
    [
      "ᱥᱮᱨ",
      "ᱣᱟ"
    ],
    [
      "ᱟᱹᱰᱤ",
      "ᱜᱮ</w>"
    ],
    [
      "ᱯᱟᱧᱡᱟ",
      "ᱵᱤ</w>"
    ],
    [
      "ᱠᱷ",
      "ᱚᱨ</w>"
    ],
    [
      "ᱚᱡᱮ",
      "ᱛᱮ,</w>"
    ],
    [
      "ᱛᱷ",
      "ᱟᱹ</w>"
    ],
    [
      "ᱜᱚᱢ",
      "ᱠᱮ"
    ],
    [
      "ᱵᱮᱵᱚ",
      "ᱥᱛᱟ</w>"
    ],
    [
      "᱑᱙᱘",
      "᱕</w>"
    ],
    [
      "᱑᱙᱘",
      "᱑</w>"
    ],
    [
      "ᱩᱱ",
      "ᱜᱮ</w>"
    ],
    [
      "ᱠᱩ",
      "ᱪᱤ"
    ],
    [
      "ᱥᱤ",
      "ᱥ"
    ],
    [
      "ᱮᱴᱠᱮᱴᱚ",
      "ᱬᱮ</w>"
    ],
    [
      "ᱱᱰ",
      "ᱳ</w>"
    ],
    [
      "ᱢᱤ",
      "ᱛᱚ</w>"
    ],
    [
      "ᱯᱨᱚ",
      "ᱪᱟᱨ</w>"
    ],
    [
      "᱕",
      "᱕</w>"
    ],
    [
      "ᱟᱹᱭᱠᱟᱹ",
      "ᱣᱟ</w>"
    ],
    [
      "ᱠ",
      "ᱞᱮ"
    ],
    [
      "ᱧ",
      "ᱪ"
    ],
    [
      "ᱵᱟ",
      "ᱛᱟᱱ</w>"
    ],
    [
      "ᱜᱷᱟᱨᱚᱸ",
      "ᱡ</w>"
    ],
    [
      "ᱥᱴᱷ",
      "ᱟᱱ</w>"
    ],
    [
      "ᱢᱚ",
      "ᱱᱚ"
    ],
    [
      "ᱵᱮ",
      "ᱶ"
    ],
    [
      "ᱠᱚᱱᱱᱚ",
      "ᱲ</w>"
    ],
    [
      "ᱢᱚ",
      "ᱫ"
    ],
    [
      "ᱜᱟᱹᱠᱷᱩ",
      "ᱲᱤᱭᱟᱹ</w>"
    ],
    [
      "ᱧᱩᱛᱩ",
      "ᱢ"
    ],
    [
      "ᱠᱟᱨ",
      "ᱟ</w>"
    ],
    [
      "ᱛᱟᱸᱦᱮ",
      "ᱠᱟᱱᱟ</w>"
    ],
    [
      "ᱚ",
      "ᱞᱤ"
    ],
    [
      "ᱰ",
      "ᱚᱠ"
    ],
    [
      "ᱥᱨᱤᱞᱚᱝ",
      "ᱠᱟ</w>"
    ],
    [
      "ᱪᱟᱸ",
      "ᱜᱟ"
    ],
    [
      "ᱦᱟ",
      "ᱥᱩ</w>"
    ],
    [
      "ᱮᱱ",
      "ᱹ</w>"
    ],
    [
      "ᱮᱥᱤ",
      "ᱰ</w>"
    ],
    [
      "ᱰ",
      "ᱼ"
    ],
    [
      "ᱟᱱ",
      "ᱟᱜ,</w>"
    ],
    [
      "ᱵᱷᱟᱹ",
      "ᱜᱤ</w>"
    ],
    [
      "ᱟᱭ",
      "ᱢᱟ"
    ],
    [
      "ᱜᱚ",
      "ᱱᱮᱥ</w>"
    ],
    [
      "ᱤᱧ",
      "ᱡᱤᱱ</w>"
    ],
    [
      "ᱵᱟᱨ",
      "ᱦᱚᱲ</w>"
    ],
    [
      "ᱫᱟᱲᱮᱭᱟᱜᱼ",
      "ᱟᱭ</w>"
    ],
    [
      "ᱟᱢ",
      "ᱵᱟ"
    ],
    [
      "ᱵᱤᱫᱷᱟᱱ",
      "ᱥᱚᱵᱷᱟ</w>"
    ],
    [
      "ᱵᱚᱨᱚ",
      "ᱝ</w>"
    ],
    [
      "ᱟᱹᱨ",
      "ᱡᱤ</w>"
    ],
    [
      "ᱢᱟᱞ",
      "ᱵᱷᱩᱢᱤ</w>"
    ],
    [
      "ᱯᱚᱨ",
      "ᱫᱮᱥ</w>"
    ],
    [
      "ᱡᱳ",
      "ᱱ</w>"
    ],
    [
      "ᱞᱮᱠᱟ",
      "ᱭ</w>"
    ],
    [
      "ᱚ",
      "ᱛᱤ"
    ]
  ],
  "vocab_size": 5000,
  "num_merges": 5000,
  "actual_merges": 5000,
  "special_tokens": [
    "<unk>",
    "<pad>",
    "<sos>",
    "<eos>"
  ]
}