{
  "merges": [
    [
      "ं",
      "</w>"
    ],
    [
      "े",
      "</w>"
    ],
    [
      "ी",
      "</w>"
    ],
    [
      "ो",
      "</w>"
    ],
    [
      "ि",
      "</w>"
    ],
    [
      "ह",
      "ि"
    ],
    [
      "ु",
      "</w>"
    ],
    [
      "।",
      "</w>"
    ],
    [
      "ा",
      "</w>"
    ],
    [
      "ि",
      "य"
    ],
    [
      "न",
      "ि</w>"
    ],
    [
      "ा",
      "र"
    ],
    [
      "म",
      "े"
    ],
    [
      ",",
      "</w>"
    ],
    [
      "ज",
      "े</w>"
    ],
    [
      "न",
      "</w>"
    ],
    [
      "ा",
      "ं</w>"
    ],
    [
      "ं",
      "द"
    ],
    [
      "मे",
      "ं</w>"
    ],
    [
      "त",
      "</w>"
    ],
    [
      "ज",
      "ी</w>"
    ],
    [
      "ल",
      "</w>"
    ],
    [
      "आ",
      "ह"
    ],
    [
      "र",
      "</w>"
    ],
    [
      "ऐ",
      "ं</w>"
    ],
    [
      "ख",
      "े</w>"
    ],
    [
      "ा",
      "इ"
    ],
    [
      "आह",
      "े"
    ],
    [
      "स",
      "्"
    ],
    [
      "ज",
      "ो</w>"
    ],
    [
      "र",
      "ा"
    ],
    [
      "र",
      "्"
    ],
    [
      "क",
      "</w>"
    ],
    [
      "क",
      "र"
    ],
    [
      "ि",
      "ल"
    ],
    [
      "ह",
      "ु"
    ],
    [
      "ो",
      "।</w>"
    ],
    [
      "आहे",
      "।</w>"
    ],
    [
      "त",
      "े</w>"
    ],
    [
      "म",
      "ा"
    ],
    [
      "्",
      "ह"
    ],
    [
      "न",
      "ि"
    ],
    [
      "ई",
      "</w>"
    ],
    [
      "म",
      "</w>"
    ],
    [
      "ं",
      "हि"
    ],
    [
      "ण",
      "</w>"
    ],
    [
      "म",
      "ु"
    ],
    [
      "स",
      "ां</w>"
    ],
    [
      "ल",
      "ाइ"
    ],
    [
      "आ",
      "हि"
    ],
    [
      "ख",
      "ां</w>"
    ],
    [
      "ण",
      "ु</w>"
    ],
    [
      "ा",
      "ल"
    ],
    [
      "व",
      "े"
    ],
    [
      "ी",
      "अ"
    ],
    [
      "र",
      "ु</w>"
    ],
    [
      "ज",
      "े"
    ],
    [
      "व",
      "ा"
    ],
    [
      "य",
      "ो</w>"
    ],
    [
      "स",
      "</w>"
    ],
    [
      "ं",
      "ग"
    ],
    [
      "लाइ",
      "</w>"
    ],
    [
      "स",
      "ि"
    ],
    [
      "र",
      "ि"
    ],
    [
      "व",
      "ि"
    ],
    [
      "ट",
      "</w>"
    ],
    [
      "्",
      "य"
    ],
    [
      "ू",
      "ं</w>"
    ],
    [
      "िय",
      "ो</w>"
    ],
    [
      "त",
      "ा"
    ],
    [
      "ार",
      "</w>"
    ],
    [
      "ल",
      "ा"
    ],
    [
      "ीअ",
      "</w>"
    ],
    [
      "आहि",
      "नि"
    ],
    [
      "स",
      "ा"
    ],
    [
      "ي",
      "</w>"
    ],
    [
      "ंद",
      "ो</w>"
    ],
    [
      "ंहि",
      "ं"
    ],
    [
      "ु",
      "नि</w>"
    ],
    [
      "द",
      "</w>"
    ],
    [
      "कर",
      "े</w>"
    ],
    [
      "ह",
      "ा"
    ],
    [
      "क",
      "ु</w>"
    ],
    [
      "ू",
      "</w>"
    ],
    [
      "त",
      "व"
    ],
    [
      "ि",
      "र"
    ],
    [
      "तव",
      "्ह"
    ],
    [
      "न",
      "ी</w>"
    ],
    [
      "इ",
      "ह"
    ],
    [
      "ं",
      "ड"
    ],
    [
      "न",
      "ा"
    ],
    [
      "जे",
      "क"
    ],
    [
      "र",
      "ी"
    ],
    [
      "क",
      "ा"
    ],
    [
      "हि",
      "कु</w>"
    ],
    [
      "तव्ह",
      "ां</w>"
    ],
    [
      "श",
      "ा"
    ],
    [
      "आह",
      "े</w>"
    ],
    [
      "ंहि",
      "ं</w>"
    ],
    [
      "इ",
      "न</w>"
    ],
    [
      "आहिनि",
      "।</w>"
    ],
    [
      "प",
      "ंहिं"
    ],
    [
      "ो",
      ",</w>"
    ],
    [
      "य",
      "ा</w>"
    ],
    [
      "क",
      "ु"
    ],
    [
      "ह",
      "</w>"
    ],
    [
      ".",
      "</w>"
    ],
    [
      "ब",
      "ा"
    ],
    [
      "हि",
      "क</w>"
    ],
    [
      "व",
      "ार"
    ],
    [
      "ن",
      "</w>"
    ],
    [
      "म",
      "ि"
    ],
    [
      "थ",
      "ी</w>"
    ],
    [
      "हि",
      "ं</w>"
    ],
    [
      "क",
      "्"
    ],
    [
      "प",
      "ा"
    ],
    [
      "र",
      "ी</w>"
    ],
    [
      "आहे",
      ",</w>"
    ],
    [
      "क",
      "े"
    ],
    [
      "ंद",
      "ा</w>"
    ],
    [
      "ल",
      "्"
    ],
    [
      "भ",
      "ार"
    ],
    [
      "ल",
      "ि"
    ],
    [
      "क",
      "यो</w>"
    ],
    [
      "िय",
      "ा"
    ],
    [
      "स",
      "घ"
    ],
    [
      "क",
      "ार"
    ],
    [
      "क",
      "ि"
    ],
    [
      "0",
      "</w>"
    ],
    [
      "ब",
      "ि</w>"
    ],
    [
      "ं",
      ",</w>"
    ],
    [
      "द",
      "ा"
    ],
    [
      "स",
      "ु"
    ],
    [
      "ॾ",
      "हिं</w>"
    ],
    [
      "प",
      "ु"
    ],
    [
      "प",
      "ो"
    ],
    [
      "र",
      "ू"
    ],
    [
      "िय",
      "ो।</w>"
    ],
    [
      "ज",
      "ंहिं</w>"
    ],
    [
      "म",
      "ू"
    ],
    [
      "ज",
      "ा</w>"
    ],
    [
      "िय",
      "ा</w>"
    ],
    [
      "िल",
      "्"
    ],
    [
      "प",
      "ार"
    ],
    [
      "ॾ",
      "ि"
    ],
    [
      "प",
      "</w>"
    ],
    [
      "ए",
      "</w>"
    ],
    [
      "व",
      "ध"
    ],
    [
      "त",
      "ि</w>"
    ],
    [
      "िय",
      "ुनि</w>"
    ],
    [
      "ई",
      "।</w>"
    ],
    [
      "क",
      "ो"
    ],
    [
      "ंद",
      "ी</w>"
    ],
    [
      "हु",
      "न</w>"
    ],
    [
      "न",
      "्ह"
    ],
    [
      "े",
      "श"
    ],
    [
      "क",
      "य"
    ],
    [
      "ट",
      "्"
    ],
    [
      "ट",
      "ि"
    ],
    [
      "य",
      "</w>"
    ],
    [
      "म",
      "ां</w>"
    ],
    [
      "म",
      "ु</w>"
    ],
    [
      "त",
      "ौ"
    ],
    [
      "इह",
      "ो</w>"
    ],
    [
      "स",
      "ि</w>"
    ],
    [
      "2",
      "0"
    ],
    [
      "ंद",
      "ड़"
    ],
    [
      "ह",
      "ू"
    ],
    [
      "त",
      "ी</w>"
    ],
    [
      "ह",
      "ो।</w>"
    ],
    [
      "1",
      "9"
    ],
    [
      "र",
      "ो"
    ],
    [
      "थ",
      "ी"
    ],
    [
      "त",
      "े"
    ],
    [
      "ब",
      "ि"
    ],
    [
      "स",
      "भ"
    ],
    [
      "वे",
      "ंदो</w>"
    ],
    [
      "र",
      "े"
    ],
    [
      "स",
      "ी"
    ],
    [
      "ब",
      "</w>"
    ],
    [
      "ंग",
      "</w>"
    ],
    [
      "िय",
      "ूं</w>"
    ],
    [
      "म",
      "िल"
    ],
    [
      "ग",
      "ॾ"
    ],
    [
      "ज",
      "</w>"
    ],
    [
      "و",
      "</w>"
    ],
    [
      "ल",
      "ी</w>"
    ],
    [
      "ब",
      "्"
    ],
    [
      "कर",
      "ण</w>"
    ],
    [
      "ल",
      "ु</w>"
    ],
    [
      "ई",
      "ं</w>"
    ],
    [
      "ज",
      "ा"
    ],
    [
      "ज",
      "ि"
    ],
    [
      "व",
      "ियो</w>"
    ],
    [
      "म",
      "ी"
    ],
    [
      "ड",
      "</w>"
    ],
    [
      "ल",
      "ॻ"
    ],
    [
      "पंहिं",
      "जे</w>"
    ],
    [
      "भार",
      "त</w>"
    ],
    [
      "स",
      "े"
    ],
    [
      "ी",
      "क</w>"
    ],
    [
      "फ़",
      "िल्"
    ],
    [
      "प",
      "ि"
    ],
    [
      "य",
      "ा"
    ],
    [
      "ह",
      "ी</w>"
    ],
    [
      "थ",
      "िय"
    ],
    [
      "म",
      "ी</w>"
    ],
    [
      "म",
      "ौ"
    ],
    [
      "म",
      "्"
    ],
    [
      "्य",
      "</w>"
    ],
    [
      "द",
      "ी</w>"
    ],
    [
      "त",
      "ी"
    ],
    [
      "ज़",
      "ा"
    ],
    [
      "च",
      "</w>"
    ],
    [
      "पार",
      "ां</w>"
    ],
    [
      "ड",
      "ि"
    ],
    [
      "थ",
      "ा"
    ],
    [
      "श",
      "ि"
    ],
    [
      "श",
      "ु"
    ],
    [
      "ता",
      "ईं</w>"
    ],
    [
      "ंदड़",
      "</w>"
    ],
    [
      "न",
      "ा</w>"
    ],
    [
      "मे",
      "ं,</w>"
    ],
    [
      "वध",
      "ीक</w>"
    ],
    [
      "कर",
      "णु</w>"
    ],
    [
      "स",
      "ं"
    ],
    [
      "न्ह",
      "नि</w>"
    ],
    [
      ")",
      "</w>"
    ],
    [
      "पो",
      "इ"
    ],
    [
      "र",
      "ु"
    ],
    [
      "स्",
      "ट"
    ],
    [
      "गॾ",
      "ु</w>"
    ],
    [
      "मा",
      "ण"
    ],
    [
      "स",
      "ू"
    ],
    [
      "्",
      "त"
    ],
    [
      "ड",
      "़"
    ],
    [
      "ब",
      "ै"
    ],
    [
      "िय",
      "ल</w>"
    ],
    [
      "प",
      "हि"
    ],
    [
      "ज़",
      "</w>"
    ],
    [
      "भ",
      "ा"
    ],
    [
      "उ",
      "न</w>"
    ],
    [
      "र",
      "नि</w>"
    ],
    [
      "ख",
      "े"
    ],
    [
      "तौ",
      "रु</w>"
    ],
    [
      "क़",
      "ा"
    ],
    [
      "श",
      "</w>"
    ],
    [
      "म",
      "ार"
    ],
    [
      "ख़",
      "ा"
    ],
    [
      "ॾ",
      "ी"
    ],
    [
      "ल",
      "े"
    ],
    [
      "ग",
      "ु"
    ],
    [
      "ट",
      "ी"
    ],
    [
      "प",
      "ै"
    ],
    [
      "जेक",
      "ो</w>"
    ],
    [
      "हि",
      "न</w>"
    ],
    [
      "इ",
      "स्"
    ],
    [
      "फ़िल्",
      "म</w>"
    ],
    [
      "स",
      "र"
    ],
    [
      "न",
      "े"
    ],
    [
      "व",
      "</w>"
    ],
    [
      "म",
      "ो"
    ],
    [
      "स",
      "ी</w>"
    ],
    [
      "य",
      "ू"
    ],
    [
      "ठ",
      "ा"
    ],
    [
      "ज",
      "ू"
    ],
    [
      "हि",
      "ड़"
    ],
    [
      "न",
      "नि</w>"
    ],
    [
      "कु",
      "झ"
    ],
    [
      "ر",
      "</w>"
    ],
    [
      "ह",
      "र</w>"
    ],
    [
      "त",
      "ि"
    ],
    [
      "ट",
      "ि</w>"
    ],
    [
      "र",
      "हि"
    ],
    [
      "ार",
      "ु</w>"
    ],
    [
      "प",
      "र</w>"
    ],
    [
      "त",
      "िर"
    ],
    [
      "ह",
      "े"
    ],
    [
      "स",
      "ंद"
    ],
    [
      "ा",
      "ं"
    ],
    [
      "ज",
      "़"
    ],
    [
      "ो",
      "ल"
    ],
    [
      "व",
      "ॾ"
    ],
    [
      "ज",
      "ॾहिं</w>"
    ],
    [
      "रा",
      "ंद"
    ],
    [
      "व",
      "ञ"
    ],
    [
      "मि",
      "ल</w>"
    ],
    [
      "रा",
      "ज"
    ],
    [
      "ह",
      "ी"
    ],
    [
      "ष",
      "्"
    ],
    [
      "द",
      "ौ"
    ],
    [
      "र",
      "ख"
    ],
    [
      "थ",
      "ो</w>"
    ],
    [
      "थ",
      "ो।</w>"
    ],
    [
      "त",
      "र"
    ],
    [
      "प",
      "ू"
    ],
    [
      "न",
      "्"
    ],
    [
      "फ़",
      "</w>"
    ],
    [
      "क",
      "ई</w>"
    ],
    [
      "20",
      "1"
    ],
    [
      "ट",
      "े"
    ],
    [
      "ण",
      "े</w>"
    ],
    [
      "\"",
      "</w>"
    ],
    [
      "ण",
      "ी</w>"
    ],
    [
      "पोइ",
      "</w>"
    ],
    [
      "ार",
      "ी</w>"
    ],
    [
      "उ",
      "न्हनि</w>"
    ],
    [
      "त",
      "ो</w>"
    ],
    [
      "हु",
      "आ"
    ],
    [
      "ल",
      "ी"
    ],
    [
      "उ",
      "</w>"
    ],
    [
      "श",
      "्"
    ],
    [
      "इ",
      "ं"
    ],
    [
      "व",
      "ियो।</w>"
    ],
    [
      "कुझ",
      "ु</w>"
    ],
    [
      "ब",
      "े"
    ],
    [
      "कय",
      "ो।</w>"
    ],
    [
      "द",
      "ु"
    ],
    [
      "पंहिं",
      "जी</w>"
    ],
    [
      "व",
      "ठ"
    ],
    [
      "क़",
      "्"
    ],
    [
      "अ",
      "ॻ"
    ],
    [
      "हु",
      "ई।</w>"
    ],
    [
      "स",
      "िल"
    ],
    [
      "मू",
      "ं"
    ],
    [
      "ج",
      "ي</w>"
    ],
    [
      "ॿ",
      "ि"
    ],
    [
      "द",
      "ी"
    ],
    [
      "5",
      "</w>"
    ],
    [
      "न",
      "ाल"
    ],
    [
      "प",
      "े"
    ],
    [
      "क",
      "ा</w>"
    ],
    [
      "द",
      "ु</w>"
    ],
    [
      "ंड",
      "</w>"
    ],
    [
      "ज",
      "ी"
    ],
    [
      "शा",
      "मिल</w>"
    ],
    [
      "ज",
      "ु"
    ],
    [
      "स",
      "ो"
    ],
    [
      "त",
      "ा</w>"
    ],
    [
      "ह",
      "ू</w>"
    ],
    [
      "च",
      "ा"
    ],
    [
      "ا",
      "</w>"
    ],
    [
      "ल",
      "ा</w>"
    ],
    [
      "म",
      "ै"
    ],
    [
      "न",
      "ी"
    ],
    [
      "ते",
      "मा"
    ],
    [
      "त",
      "ो"
    ],
    [
      "आहिनि",
      ",</w>"
    ],
    [
      "इस्",
      "तेमा"
    ],
    [
      "इह",
      "ा</w>"
    ],
    [
      "۾",
      "</w>"
    ],
    [
      "ण",
      "ो</w>"
    ],
    [
      "ब",
      "र</w>"
    ],
    [
      "व",
      "ी"
    ],
    [
      "ट",
      "ी</w>"
    ],
    [
      "मूं",
      "खे</w>"
    ],
    [
      "ह",
      "े</w>"
    ],
    [
      "क",
      "नि</w>"
    ],
    [
      "न",
      "े</w>"
    ],
    [
      "प",
      "र"
    ],
    [
      "ख",
      "ा"
    ],
    [
      "ब",
      "ु"
    ],
    [
      "क",
      "ार</w>"
    ],
    [
      "मु",
      "ख"
    ],
    [
      "ए",
      "ं</w>"
    ],
    [
      "्य",
      "ा"
    ],
    [
      "न",
      "ु</w>"
    ],
    [
      "प",
      "ी"
    ],
    [
      "द",
      "ि"
    ],
    [
      "द",
      "ा</w>"
    ],
    [
      "ब",
      "ी"
    ],
    [
      "क",
      "िर"
    ],
    [
      "ं",
      "।</w>"
    ],
    [
      "2",
      "</w>"
    ],
    [
      "1",
      "</w>"
    ],
    [
      "क",
      "ो</w>"
    ],
    [
      "स",
      "ाल"
    ],
    [
      "प",
      "्"
    ],
    [
      "मु",
      "ंहिं"
    ],
    [
      "न",
      "ु"
    ],
    [
      "मौ",
      "जू"
    ],
    [
      "ल",
      "े</w>"
    ],
    [
      "ध",
      "ा"
    ],
    [
      "अ",
      "च"
    ],
    [
      "इ",
      "लाइ"
    ],
    [
      "य",
      "ो।</w>"
    ],
    [
      "0",
      "0</w>"
    ],
    [
      "ट",
      "र</w>"
    ],
    [
      ".",
      "ए"
    ],
    [
      "फ",
      "़"
    ],
    [
      "म",
      "द"
    ],
    [
      "ल",
      "नि</w>"
    ],
    [
      "के",
      "तिर"
    ],
    [
      "्य",
      "ू"
    ],
    [
      "आहि",
      "नि</w>"
    ],
    [
      "स",
      "े</w>"
    ],
    [
      "ह",
      "ो</w>"
    ],
    [
      "ई",
      ",</w>"
    ],
    [
      "क",
      "ी</w>"
    ],
    [
      "र",
      "िय"
    ],
    [
      "इलाइ",
      "क़"
    ],
    [
      "म",
      "ं"
    ],
    [
      "र",
      "ू</w>"
    ],
    [
      "द",
      "ीअ</w>"
    ],
    [
      "ي",
      ".</w>"
    ],
    [
      "4",
      "</w>"
    ],
    [
      "ا",
      "ن</w>"
    ],
    [
      "छ",
      "ॾ"
    ],
    [
      "रू",
      "प</w>"
    ],
    [
      "द",
      "े"
    ],
    [
      "آ",
      "ه"
    ],
    [
      "हु",
      "नि</w>"
    ],
    [
      "अ",
      "ं"
    ],
    [
      "द",
      "ि</w>"
    ],
    [
      "ो",
      "ं</w>"
    ],
    [
      "संद",
      "सि</w>"
    ],
    [
      "घ",
      "टि</w>"
    ],
    [
      "ंद",
      "ा"
    ],
    [
      "3",
      "</w>"
    ],
    [
      "ती",
      "य</w>"
    ],
    [
      "ं",
      "ढ"
    ],
    [
      "ي",
      "و"
    ],
    [
      "6",
      "</w>"
    ],
    [
      "अ",
      "</w>"
    ],
    [
      "ल",
      "ो"
    ],
    [
      "म",
      "ंद"
    ],
    [
      "र",
      "ह"
    ],
    [
      "र",
      "ो</w>"
    ],
    [
      "व",
      "र्"
    ],
    [
      "7",
      "</w>"
    ],
    [
      "ार",
      "े</w>"
    ],
    [
      "त",
      "ु</w>"
    ],
    [
      "वार",
      "ी</w>"
    ],
    [
      "थ",
      "ा</w>"
    ],
    [
      "ड",
      "े"
    ],
    [
      "पि",
      "णु</w>"
    ],
    [
      "फ़",
      "्"
    ],
    [
      "म",
      "ह"
    ],
    [
      "भार",
      "तीय</w>"
    ],
    [
      "ॿ",
      "ु"
    ],
    [
      "ह",
      "ो,</w>"
    ],
    [
      "जेक",
      "ॾहिं</w>"
    ],
    [
      "ग",
      "</w>"
    ],
    [
      "ॾी",
      "ं"
    ],
    [
      "ज़",
      "ि"
    ],
    [
      "माण",
      "्"
    ],
    [
      "च",
      "ि"
    ],
    [
      "क",
      "ंहिं</w>"
    ],
    [
      "थी",
      "।</w>"
    ],
    [
      "ڪ",
      "</w>"
    ],
    [
      "हु",
      "ं</w>"
    ],
    [
      "ीअ",
      "ं</w>"
    ],
    [
      "ब",
      "ॉ"
    ],
    [
      "ण",
      "ी"
    ],
    [
      "8",
      "</w>"
    ],
    [
      "माण्",
      "हुनि</w>"
    ],
    [
      "तौ",
      "र</w>"
    ],
    [
      "व",
      "ाइ"
    ],
    [
      "व",
      "ा</w>"
    ],
    [
      "ग",
      "ा"
    ],
    [
      "दौ",
      "रा"
    ],
    [
      "द",
      "र्"
    ],
    [
      "म",
      "र्"
    ],
    [
      "घ",
      "ु"
    ],
    [
      "म",
      "ा</w>"
    ],
    [
      "क",
      "ई।</w>"
    ],
    [
      "जे",
      "तो"
    ],
    [
      "क़",
      "ि"
    ],
    [
      "ठा",
      "हि"
    ],
    [
      "ग",
      "ो"
    ],
    [
      "मुख",
      "्य</w>"
    ],
    [
      "त",
      "्"
    ],
    [
      "न",
      "ो</w>"
    ],
    [
      "ब",
      "ू"
    ],
    [
      "ंद",
      "े</w>"
    ],
    [
      "ل",
      "</w>"
    ],
    [
      "त",
      "री"
    ],
    [
      "क",
      "ं"
    ],
    [
      "ज",
      "ो"
    ],
    [
      "क",
      "ॉ"
    ],
    [
      "माण",
      "्ह"
    ],
    [
      "य",
      "ो"
    ],
    [
      "ا",
      "ر"
    ],
    [
      "प",
      "ं"
    ],
    [
      "स",
      "ो</w>"
    ],
    [
      "व",
      "री</w>"
    ],
    [
      "ब",
      "ी</w>"
    ],
    [
      "द",
      "ेश"
    ],
    [
      "छ",
      "ा"
    ],
    [
      "हि",
      "स्"
    ],
    [
      "ट",
      "ा"
    ],
    [
      "िल",
      "े</w>"
    ],
    [
      "हुआ",
      "।</w>"
    ],
    [
      "क",
      "ल</w>"
    ],
    [
      "िल",
      "ा"
    ],
    [
      "ु",
      ",</w>"
    ],
    [
      "ल",
      "ो</w>"
    ],
    [
      "इ",
      "ला"
    ],
    [
      "म",
      "हि"
    ],
    [
      "इस्तेमा",
      "ल</w>"
    ],
    [
      "था",
      "।</w>"
    ],
    [
      "जेक",
      "े</w>"
    ],
    [
      "थ",
      "ि"
    ],
    [
      "ं",
      "ट</w>"
    ],
    [
      "ार",
      "नि</w>"
    ],
    [
      "ر",
      "ي"
    ],
    [
      "े",
      ",</w>"
    ],
    [
      "ष्",
      "ट्"
    ],
    [
      "शु",
      "रू</w>"
    ],
    [
      "व",
      "क़्"
    ],
    [
      "ार",
      "ा"
    ],
    [
      "स्",
      "ता"
    ],
    [
      "र",
      "े</w>"
    ],
    [
      "फ़",
      "ा"
    ],
    [
      "ॾ",
      "ा"
    ],
    [
      "ञ",
      "ा"
    ],
    [
      "सभ",
      "</w>"
    ],
    [
      "क",
      "ू"
    ],
    [
      "वार",
      "े</w>"
    ],
    [
      "च",
      "यो</w>"
    ],
    [
      "श",
      "न</w>"
    ],
    [
      "जेतो",
      "णी"
    ],
    [
      "ज़",
      "ी</w>"
    ],
    [
      "ढ",
      "़"
    ],
    [
      "र",
      "त</w>"
    ],
    [
      "नि",
      ",</w>"
    ],
    [
      "ाइ",
      "ण</w>"
    ],
    [
      "र",
      "ा</w>"
    ],
    [
      "क",
      "ंदा</w>"
    ],
    [
      "ि",
      "नी</w>"
    ],
    [
      "क",
      "े</w>"
    ],
    [
      "उ",
      "नि</w>"
    ],
    [
      "वि",
      "च"
    ],
    [
      "ब",
      "ु</w>"
    ],
    [
      "ॻ",
      "ाल"
    ],
    [
      "ا",
      "ئ"
    ],
    [
      "न",
      ",</w>"
    ],
    [
      "सा",
      "ल</w>"
    ],
    [
      "ख़ा",
      "सि</w>"
    ],
    [
      "ं",
      "ध"
    ],
    [
      "स",
      "ा</w>"
    ],
    [
      "डि",
      "॒"
    ],
    [
      "िय",
      "ो,</w>"
    ],
    [
      "जेक",
      "ा</w>"
    ],
    [
      "सि",
      "ल</w>"
    ],
    [
      "क",
      "ै"
    ],
    [
      "शु",
      "रू"
    ],
    [
      "ंद",
      "</w>"
    ],
    [
      "वि",
      "च</w>"
    ],
    [
      "िय",
      "नि</w>"
    ],
    [
      "म",
      "नि</w>"
    ],
    [
      "द",
      "ार</w>"
    ],
    [
      "शुरू",
      "आ"
    ],
    [
      "अ",
      "हिड़"
    ],
    [
      "नाल",
      "े</w>"
    ],
    [
      "ज",
      "हिड़"
    ],
    [
      "र",
      "ि</w>"
    ],
    [
      "ड",
      "॒"
    ],
    [
      "20",
      "0"
    ],
    [
      "सभ",
      "िनी</w>"
    ],
    [
      "थ",
      "</w>"
    ],
    [
      "ज",
      "ूं</w>"
    ],
    [
      "भ",
      "े"
    ],
    [
      "ه",
      "ن</w>"
    ],
    [
      "पहि",
      "री"
    ],
    [
      "ख़",
      "्त"
    ],
    [
      "हि",
      "ंद"
    ],
    [
      "सघ",
      "े</w>"
    ],
    [
      "रांद",
      "ि</w>"
    ],
    [
      "हा",
      "सिल</w>"
    ],
    [
      "ार",
      "्"
    ],
    [
      "य",
      "ूं</w>"
    ],
    [
      "त",
      "ुनि</w>"
    ],
    [
      "ज़",
      "रू"
    ],
    [
      "क़",
      "ी"
    ],
    [
      "ग्र",
      "ा"
    ],
    [
      "म",
      "श"
    ],
    [
      "कार",
      "ी</w>"
    ],
    [
      "उ",
      "त्त"
    ],
    [
      "ार",
      "ी"
    ],
    [
      "ब",
      "ण"
    ],
    [
      "ي",
      "ن"
    ],
    [
      "माण्ह",
      "ू</w>"
    ],
    [
      "न",
      "ंढ"
    ],
    [
      "म",
      "ञ"
    ],
    [
      "व",
      "ी</w>"
    ],
    [
      "ا",
      "ن"
    ],
    [
      "त",
      "ु"
    ],
    [
      "،",
      "</w>"
    ],
    [
      "ह",
      "ाल"
    ],
    [
      "ण",
      "ि</w>"
    ],
    [
      "ट",
      "े</w>"
    ],
    [
      "रा",
      "ॼ"
    ],
    [
      "ल",
      "ै"
    ],
    [
      "ज",
      "ीअं</w>"
    ],
    [
      "ला",
      "ॻ"
    ],
    [
      "م",
      "</w>"
    ],
    [
      "ख़",
      "री"
    ],
    [
      "ॼ",
      "ा"
    ],
    [
      "म",
      "त</w>"
    ],
    [
      "ं",
      "ब"
    ],
    [
      "ग्र",
      "े"
    ],
    [
      "िय",
      "त</w>"
    ],
    [
      "ॾ",
      "िय"
    ],
    [
      "9",
      "</w>"
    ],
    [
      "ड़",
      "</w>"
    ],
    [
      "वे",
      "ंदी</w>"
    ],
    [
      "त",
      "नि</w>"
    ],
    [
      "ंद",
      "ो।</w>"
    ],
    [
      "न",
      "ल</w>"
    ],
    [
      "उ",
      "हे</w>"
    ],
    [
      "ग",
      "ी</w>"
    ],
    [
      "अ",
      "म"
    ],
    [
      "म",
      "हा"
    ],
    [
      "प",
      "ेश"
    ],
    [
      "पहिरी",
      "ं</w>"
    ],
    [
      "स",
      "ब"
    ],
    [
      "क",
      "ि</w>"
    ],
    [
      "ॻाल",
      "्ह"
    ],
    [
      "साल",
      "नि</w>"
    ],
    [
      "ग़",
      "ै"
    ],
    [
      "स्",
      "ट</w>"
    ],
    [
      "ग",
      "ि"
    ],
    [
      "मु",
      "ता"
    ],
    [
      "प्र",
      "ो"
    ],
    [
      "ا",
      "ه"
    ],
    [
      "ओ",
      "ल"
    ],
    [
      "ाइ",
      "णु</w>"
    ],
    [
      "ॿ",
      "ा"
    ],
    [
      "े",
      "।</w>"
    ],
    [
      "ब",
      "द"
    ],
    [
      "प",
      "व"
    ],
    [
      "पहि",
      "रिय"
    ],
    [
      "ी",
      ",</w>"
    ],
    [
      "ट",
      "ो"
    ],
    [
      "ي",
      "و</w>"
    ],
    [
      "सु",
      "ञा"
    ],
    [
      "य",
      "ो,</w>"
    ],
    [
      "रा",
      "ष्ट्"
    ],
    [
      "बै",
      "दि</w>"
    ],
    [
      "स",
      "ु</w>"
    ],
    [
      "सभ",
      "ु</w>"
    ],
    [
      "क",
      "र</w>"
    ],
    [
      "म",
      "ूं</w>"
    ],
    [
      "मार",
      "्"
    ],
    [
      "म",
      "ज़"
    ],
    [
      "वे",
      "ई</w>"
    ],
    [
      "य",
      "ल</w>"
    ],
    [
      "स्",
      "त</w>"
    ],
    [
      "च",
      "े"
    ],
    [
      "ॾ",
      "े"
    ],
    [
      "क़",
      "र"
    ],
    [
      "ख",
      "</w>"
    ],
    [
      "य",
      "ुनि</w>"
    ],
    [
      "ओ",
      "भ"
    ],
    [
      "क़ा",
      "ब"
    ],
    [
      "ी",
      "।</w>"
    ],
    [
      "क",
      "िल"
    ],
    [
      "ब",
      "र"
    ],
    [
      "म",
      "थ"
    ],
    [
      "आ",
      "ई"
    ],
    [
      "मश",
      "हू"
    ],
    [
      "क़",
      "ाइ"
    ],
    [
      "फ़",
      "ी</w>"
    ],
    [
      "ॿ",
      "ियनि</w>"
    ],
    [
      "ॾ",
      "ख"
    ],
    [
      "स",
      "र</w>"
    ],
    [
      "स",
      "ंग"
    ],
    [
      "آه",
      "ي.</w>"
    ],
    [
      "ज",
      "न"
    ],
    [
      "सु",
      "ठ"
    ],
    [
      "पहिरिय",
      "ों</w>"
    ],
    [
      "व",
      "र</w>"
    ],
    [
      "ख़",
      "्"
    ],
    [
      "सू",
      "ब"
    ],
    [
      "ह",
      "ो"
    ],
    [
      "स",
      "ाइ"
    ],
    [
      "फ़",
      "ौ"
    ],
    [
      "ब",
      "हि"
    ],
    [
      "ंद",
      "ियूं</w>"
    ],
    [
      "ह",
      "ै"
    ],
    [
      "क",
      "र्"
    ],
    [
      "िया",
      "।</w>"
    ],
    [
      "द",
      "नि</w>"
    ],
    [
      "हे",
      "ठ"
    ],
    [
      "न",
      "िया"
    ],
    [
      "देश",
      "</w>"
    ],
    [
      "राज",
      "्य</w>"
    ],
    [
      "छा",
      "का"
    ],
    [
      "ह",
      "ि</w>"
    ],
    [
      "र",
      ",</w>"
    ],
    [
      "कं",
      "प"
    ],
    [
      "इह",
      "े</w>"
    ],
    [
      "ट",
      "ु</w>"
    ],
    [
      "ब",
      "ो"
    ],
    [
      "न",
      "ो"
    ],
    [
      "व",
      "रि"
    ],
    [
      "ज़",
      "ु</w>"
    ],
    [
      "ही",
      "ं</w>"
    ],
    [
      "रहि",
      "या</w>"
    ],
    [
      ",",
      "0"
    ],
    [
      "۽",
      "</w>"
    ],
    [
      "इ",
      "ंड"
    ],
    [
      "ग",
      "ी"
    ],
    [
      "वार",
      "ो</w>"
    ],
    [
      "व",
      "ार</w>"
    ],
    [
      "क",
      "मु</w>"
    ],
    [
      "न",
      "मू"
    ],
    [
      "क्",
      "स</w>"
    ],
    [
      "च",
      "ो"
    ],
    [
      "लि",
      "ख"
    ],
    [
      "ल",
      "ु"
    ],
    [
      "ज़",
      "ो</w>"
    ],
    [
      "भ",
      "ॻ"
    ],
    [
      "मा",
      "न</w>"
    ],
    [
      "श",
      "ह"
    ],
    [
      "क",
      "ृ"
    ],
    [
      "हु",
      "ननि</w>"
    ],
    [
      "को",
      "शि"
    ],
    [
      "ंग",
      "ा"
    ],
    [
      "छाका",
      "णि</w>"
    ],
    [
      "च",
      "ी"
    ],
    [
      "ज",
      "ै"
    ],
    [
      "आ",
      "ख़"
    ],
    [
      "मद",
      "द</w>"
    ],
    [
      "प",
      "हु"
    ],
    [
      "ज",
      "ाइ"
    ],
    [
      "च",
      "ू"
    ],
    [
      "उ",
      "प"
    ],
    [
      "हू",
      "ंदो</w>"
    ],
    [
      "तरी",
      "क़"
    ],
    [
      "ड",
      "्"
    ],
    [
      "र",
      "िया"
    ],
    [
      "केतिर",
      "नि</w>"
    ],
    [
      "स",
      "त"
    ],
    [
      "अ",
      "ध"
    ],
    [
      "س",
      "</w>"
    ],
    [
      "ा",
      "ई</w>"
    ],
    [
      "आ",
      "मु</w>"
    ],
    [
      "का",
      "म"
    ],
    [
      "त्र",
      "</w>"
    ],
    [
      "क़ि",
      "स्"
    ],
    [
      "ह",
      "म"
    ],
    [
      "वठ",
      "ी</w>"
    ],
    [
      "व",
      "टि</w>"
    ],
    [
      "अ",
      "क्"
    ],
    [
      "ॻ",
      "ो"
    ],
    [
      "ک",
      "ي</w>"
    ],
    [
      "क",
      "ंदो</w>"
    ],
    [
      "श",
      "हर</w>"
    ],
    [
      "ब",
      "ंद"
    ],
    [
      "ड",
      "ी"
    ],
    [
      "मु",
      "ख़्त"
    ],
    [
      "त",
      "र्"
    ],
    [
      "म",
      "ल"
    ],
    [
      "फ",
      "्"
    ],
    [
      "इलाइक़",
      "े</w>"
    ],
    [
      "कार",
      "्"
    ],
    [
      "मु",
      "ल्"
    ],
    [
      "ت",
      "</w>"
    ],
    [
      "ॻ",
      "ो</w>"
    ],
    [
      "श",
      "े"
    ],
    [
      "पार",
      "्"
    ],
    [
      "व",
      "ाल"
    ],
    [
      "रहि",
      "यो</w>"
    ],
    [
      "थिय",
      "ण</w>"
    ],
    [
      "न",
      "िया</w>"
    ],
    [
      "सि",
      "ं"
    ],
    [
      "अ",
      "सां</w>"
    ],
    [
      "ह",
      "नि</w>"
    ],
    [
      "पंहिं",
      "जो</w>"
    ],
    [
      "%",
      "</w>"
    ],
    [
      "ग",
      "र</w>"
    ],
    [
      "र्",
      "ट</w>"
    ],
    [
      "कार",
      "ु</w>"
    ],
    [
      "ह",
      "ल"
    ],
    [
      "ت",
      "ي</w>"
    ],
    [
      "च",
      "ु"
    ],
    [
      "न",
      "ू"
    ],
    [
      "क",
      "म</w>"
    ],
    [
      "मौजू",
      "दु</w>"
    ],
    [
      "छ",
      "ा</w>"
    ],
    [
      "ا",
      "ل"
    ],
    [
      "ه",
      "ڪ</w>"
    ],
    [
      "बि",
      "॒"
    ],
    [
      "इ",
      "न्हनि</w>"
    ],
    [
      "िर",
      "ी</w>"
    ],
    [
      "ण",
      "ि"
    ],
    [
      "स",
      "ला"
    ],
    [
      "ه",
      "</w>"
    ],
    [
      "॒",
      "</w>"
    ],
    [
      "बु",
      "निया"
    ],
    [
      "य",
      "त</w>"
    ],
    [
      "ट्",
      "र"
    ],
    [
      "जे",
      "।</w>"
    ],
    [
      "स",
      "नि</w>"
    ],
    [
      "अ",
      "दा"
    ],
    [
      "पु",
      "र</w>"
    ],
    [
      "अ",
      "द"
    ],
    [
      "ॿ",
      "ो"
    ],
    [
      "ट्",
      "रे"
    ],
    [
      "राष्ट्",
      "री"
    ],
    [
      "ा",
      "प"
    ],
    [
      "ख़",
      "ु"
    ],
    [
      "ते",
      ",</w>"
    ],
    [
      "अ",
      "ंद"
    ],
    [
      "स्",
      "त"
    ],
    [
      "ड़",
      "ी</w>"
    ],
    [
      "खे",
      "सि</w>"
    ],
    [
      "ट",
      "ु"
    ],
    [
      "न",
      "ज़"
    ],
    [
      "क",
      "म"
    ],
    [
      "अॻ",
      "ु</w>"
    ],
    [
      "ڪ",
      "ر"
    ],
    [
      "राष्ट्री",
      "य</w>"
    ],
    [
      "ट",
      "नि</w>"
    ],
    [
      "द",
      "्"
    ],
    [
      "र",
      "स्"
    ],
    [
      "ब",
      "च"
    ],
    [
      "वे",
      "ई।</w>"
    ],
    [
      "थ",
      "ो,</w>"
    ],
    [
      "कि",
      ",</w>"
    ],
    [
      "त",
      "इ"
    ],
    [
      "ॾि",
      "स"
    ],
    [
      "न",
      "िय"
    ],
    [
      "ا",
      "ي"
    ],
    [
      "त",
      "मा"
    ],
    [
      "य",
      "र</w>"
    ],
    [
      "वञ",
      "े</w>"
    ],
    [
      "अ",
      "टि"
    ],
    [
      "ू",
      "ं।</w>"
    ],
    [
      "ो",
      "र</w>"
    ],
    [
      "स",
      "ै"
    ],
    [
      "ڻ",
      "</w>"
    ],
    [
      "च",
      "ौ"
    ],
    [
      "टी",
      "म</w>"
    ],
    [
      "च",
      "ै"
    ],
    [
      "थि",
      "ए</w>"
    ],
    [
      "ج",
      "و</w>"
    ],
    [
      ",0",
      "00</w>"
    ],
    [
      "वॾ",
      "ी</w>"
    ],
    [
      "क",
      "ला"
    ],
    [
      "ं",
      "स</w>"
    ],
    [
      "19",
      "9"
    ],
    [
      "वॾ",
      "ो</w>"
    ],
    [
      "रु",
      "ॻो</w>"
    ],
    [
      "कय",
      "ो,</w>"
    ],
    [
      "ॿु",
      "धा"
    ],
    [
      "संग",
      "ी"
    ],
    [
      "ज़",
      "िले</w>"
    ],
    [
      ";",
      "</w>"
    ],
    [
      "न",
      "दी</w>"
    ],
    [
      "अ",
      "हि"
    ],
    [
      "ख़",
      "र्"
    ],
    [
      "सघ",
      "ि"
    ],
    [
      "स",
      "त</w>"
    ],
    [
      "ज़",
      "नि</w>"
    ],
    [
      "बा",
      "ब"
    ],
    [
      "ه",
      "و"
    ],
    [
      "1",
      "8"
    ],
    [
      "ब",
      "र्"
    ],
    [
      "ठ",
      "</w>"
    ],
    [
      "लॻ",
      "ा"
    ],
    [
      "ार",
      "ो</w>"
    ],
    [
      "कय",
      "ल</w>"
    ],
    [
      "ड॒",
      "हिं</w>"
    ],
    [
      "يو",
      ".</w>"
    ],
    [
      "ड़",
      "े</w>"
    ],
    [
      "न",
      "ती"
    ],
    [
      "ॻाल्ह",
      "ि</w>"
    ],
    [
      "ग",
      "र्"
    ],
    [
      "क़",
      "</w>"
    ],
    [
      "ेश",
      "न</w>"
    ],
    [
      "मी",
      "टर</w>"
    ],
    [
      "म",
      "ाइ"
    ],
    [
      "अ",
      "लॻ"
    ],
    [
      "न",
      "ीअ</w>"
    ],
    [
      "थ",
      "ियो।</w>"
    ],
    [
      "आ",
      "म</w>"
    ],
    [
      "क़",
      "ी</w>"
    ],
    [
      "वे",
      "ंदा</w>"
    ],
    [
      "पा",
      "ण</w>"
    ],
    [
      "अटि",
      "कल</w>"
    ],
    [
      "व",
      "िया</w>"
    ],
    [
      "इला",
      "क़"
    ],
    [
      "ख",
      "़"
    ],
    [
      "वॾ",
      "े</w>"
    ],
    [
      "थ",
      "ियो</w>"
    ],
    [
      "ज",
      "नि</w>"
    ],
    [
      "नि",
      "र्"
    ],
    [
      "ई",
      "ंदड़</w>"
    ],
    [
      "र",
      "ाइ"
    ],
    [
      "ٽ",
      "</w>"
    ],
    [
      "ंदड़",
      "ु</w>"
    ],
    [
      "हा",
      "णे</w>"
    ],
    [
      "वार",
      "नि</w>"
    ],
    [
      "बॉ",
      "ल</w>"
    ],
    [
      "क",
      "ी"
    ],
    [
      "ग",
      "े"
    ],
    [
      "ॿ",
      "</w>"
    ],
    [
      "म",
      "रा"
    ],
    [
      "ॾीं",
      "हुं</w>"
    ],
    [
      "ज़",
      "</w>"
    ],
    [
      "न",
      "व"
    ],
    [
      "ण",
      "ीअ</w>"
    ],
    [
      "ॾि",
      "नो</w>"
    ],
    [
      "फ़",
      "ु</w>"
    ],
    [
      "मिल",
      "ी</w>"
    ],
    [
      "जै",
      "न</w>"
    ],
    [
      "घ",
      "ण"
    ],
    [
      "रु",
      ",</w>"
    ],
    [
      "प",
      "रि"
    ],
    [
      "कु",
      "ल</w>"
    ],
    [
      "त",
      "ॾहिं</w>"
    ],
    [
      "द",
      "र"
    ],
    [
      "2",
      "0</w>"
    ],
    [
      "वक़्",
      "ति</w>"
    ],
    [
      "ी",
      "ं</w>"
    ],
    [
      "मुख़्त",
      "लि"
    ],
    [
      "ज",
      "ॻ"
    ],
    [
      "पोइ",
      ",</w>"
    ],
    [
      "क़",
      "्त"
    ],
    [
      "का",
      "न</w>"
    ],
    [
      "रांद",
      "ी"
    ],
    [
      "मु",
      "क़र"
    ],
    [
      "द",
      "ो"
    ],
    [
      "आ",
      "बा"
    ],
    [
      "त",
      "िय"
    ],
    [
      "जि",
      "ते</w>"
    ],
    [
      "हा",
      "सिल"
    ],
    [
      "त",
      "ूं</w>"
    ],
    [
      "ॿु",
      "ध"
    ],
    [
      "हू",
      "ंदा</w>"
    ],
    [
      "!",
      "</w>"
    ],
    [
      "मौजू",
      "द</w>"
    ],
    [
      "िल",
      "ी"
    ],
    [
      "अ",
      "भ"
    ],
    [
      "रा",
      "जा</w>"
    ],
    [
      "नमू",
      "ने</w>"
    ],
    [
      "टि",
      "ंग</w>"
    ],
    [
      "स",
      "र्"
    ],
    [
      "कोशि",
      "श</w>"
    ],
    [
      "ॿ",
      "े"
    ],
    [
      "हू",
      "ंदी</w>"
    ],
    [
      "स",
      "वाइ"
    ],
    [
      "घ",
      "णो</w>"
    ],
    [
      "ल",
      "ू"
    ],
    [
      "हिंद",
      "ू</w>"
    ],
    [
      "लाॻ",
      "ाप"
    ],
    [
      "जेतोणी",
      "कि</w>"
    ],
    [
      "ठ",
      "हि"
    ],
    [
      "दौरा",
      "नि</w>"
    ],
    [
      "अच",
      "ी</w>"
    ],
    [
      "व",
      "ै"
    ],
    [
      "घ",
      "र</w>"
    ],
    [
      "ॾा",
      "ढ"
    ],
    [
      "19",
      "8"
    ],
    [
      "घु",
      "रि"
    ],
    [
      "नि",
      "।</w>"
    ],
    [
      "ध",
      "र्"
    ],
    [
      "ر",
      "و"
    ],
    [
      "इस्तेमा",
      "लु</w>"
    ],
    [
      "जेतोणी",
      "कि,</w>"
    ],
    [
      "ड",
      "ा"
    ],
    [
      "ह",
      "द</w>"
    ],
    [
      "ारी",
      "ख़"
    ],
    [
      "य",
      "ु"
    ],
    [
      "औ",
      "र"
    ],
    [
      "ڊ",
      "</w>"
    ],
    [
      "वा",
      "प"
    ],
    [
      "ार",
      "ि"
    ],
    [
      "ज",
      "ु</w>"
    ],
    [
      "ल",
      ",</w>"
    ],
    [
      "थ",
      "ो"
    ],
    [
      "अ",
      "ंदा"
    ],
    [
      "ज़ा",
      "हि"
    ],
    [
      "ي",
      "ن</w>"
    ],
    [
      "म",
      "न</w>"
    ],
    [
      "स्",
      "था"
    ],
    [
      "सघ",
      "ो</w>"
    ],
    [
      "क़",
      "बू"
    ],
    [
      "मुंहिं",
      "जी</w>"
    ],
    [
      "सघ",
      "ंदा</w>"
    ],
    [
      "हु",
      "ई,</w>"
    ],
    [
      "ज़रू",
      "रत</w>"
    ],
    [
      "ंदा",
      "।</w>"
    ],
    [
      "क",
      "ॾहिं</w>"
    ],
    [
      "ब",
      "या"
    ],
    [
      "ॾ",
      "ां"
    ],
    [
      "च",
      "ार</w>"
    ],
    [
      "व",
      "े</w>"
    ],
    [
      "वक़्",
      "त</w>"
    ],
    [
      "ॿा",
      "हि"
    ],
    [
      "ट",
      "र"
    ],
    [
      "द",
      "ारु</w>"
    ],
    [
      "ड़",
      "ी</w>"
    ],
    [
      "स",
      "दीअ</w>"
    ],
    [
      "थिय",
      "णु</w>"
    ],
    [
      "ंद",
      "ी।</w>"
    ],
    [
      "प",
      "िय"
    ],
    [
      "स",
      "ॼ"
    ],
    [
      "मशहू",
      "रु</w>"
    ],
    [
      "हासिल",
      "ु</w>"
    ],
    [
      "19",
      "7"
    ],
    [
      "व",
      "र"
    ],
    [
      "हिस्",
      "सो</w>"
    ],
    [
      "म",
      "ार</w>"
    ],
    [
      "न",
      "दीअ</w>"
    ],
    [
      "ॿि",
      "ए</w>"
    ],
    [
      "स",
      "रु</w>"
    ],
    [
      "वे",
      "झ"
    ],
    [
      "ग",
      "्"
    ],
    [
      "स्ता",
      "न</w>"
    ],
    [
      "घ",
      "ा"
    ],
    [
      "ं",
      "द्र"
    ],
    [
      "ज",
      "ारी</w>"
    ],
    [
      "हु",
      "ई</w>"
    ],
    [
      "प",
      "ाल"
    ],
    [
      "न",
      "त</w>"
    ],
    [
      "ل",
      "ا"
    ],
    [
      "चू",
      "ंड"
    ],
    [
      "मु",
      "क़ाब"
    ],
    [
      "सूब",
      "े</w>"
    ],
    [
      "थी",
      ",</w>"
    ],
    [
      "थिय",
      "ल</w>"
    ],
    [
      "व",
      "ियो,</w>"
    ],
    [
      "रा",
      "ई</w>"
    ],
    [
      "प",
      "ियो</w>"
    ],
    [
      "मञ",
      "ियो</w>"
    ],
    [
      "ट",
      "ू"
    ],
    [
      "नाल",
      "ो</w>"
    ],
    [
      "मु",
      "नि</w>"
    ],
    [
      "फ़",
      "्त"
    ],
    [
      "उत्त",
      "र</w>"
    ],
    [
      "मुता",
      "सि"
    ],
    [
      "ट",
      "ा</w>"
    ],
    [
      "द",
      "ारी</w>"
    ],
    [
      "ध",
      "्या"
    ],
    [
      "अ",
      "ला"
    ],
    [
      "ोल",
      "्ह"
    ],
    [
      "व",
      "त</w>"
    ],
    [
      "ंड",
      "ी</w>"
    ],
    [
      "र",
      "ल</w>"
    ],
    [
      "हेठ",
      "ि</w>"
    ],
    [
      "क",
      "मा"
    ],
    [
      "पै",
      "दा</w>"
    ],
    [
      "म",
      "स"
    ],
    [
      "अ",
      "ह"
    ],
    [
      "ओभ",
      "र</w>"
    ],
    [
      "द",
      "िल्"
    ],
    [
      "ॿि",
      "न्ह"
    ],
    [
      "ड़",
      "</w>"
    ],
    [
      "त",
      "ह"
    ],
    [
      "मे",
      "ंट</w>"
    ],
    [
      "वा",
      "न</w>"
    ],
    [
      "न",
      "ेश"
    ],
    [
      "क्र",
      "ि"
    ],
    [
      "मंद",
      "रु</w>"
    ],
    [
      "र",
      "ही</w>"
    ],
    [
      "था",
      ",</w>"
    ],
    [
      "खा",
      "ध"
    ],
    [
      "मर्",
      "क"
    ],
    [
      "ऊ",
      "ं</w>"
    ],
    [
      "प्र",
      "देश</w>"
    ],
    [
      "व",
      "क़्त"
    ],
    [
      "भॻ",
      "ि</w>"
    ],
    [
      "मा",
      "म"
    ],
    [
      "ड़",
      "ो</w>"
    ],
    [
      "द",
      "ू"
    ],
    [
      "सघ",
      "नि</w>"
    ],
    [
      "के",
      "ट</w>"
    ],
    [
      "द",
      "ो</w>"
    ],
    [
      "ड",
      "ी</w>"
    ],
    [
      "ا",
      "س"
    ],
    [
      "1",
      "0"
    ],
    [
      "ख़",
      "िला"
    ],
    [
      "इ",
      "एं</w>"
    ],
    [
      "'",
      "</w>"
    ],
    [
      "ن",
      "د"
    ],
    [
      "श",
      "ी</w>"
    ],
    [
      "म",
      "्ह"
    ],
    [
      "का",
      "ं"
    ],
    [
      "ॾां",
      "हुं</w>"
    ],
    [
      "पै",
      "सा</w>"
    ],
    [
      "र",
      "-"
    ],
    [
      "िय",
      "ां</w>"
    ],
    [
      "इलाइक़",
      "नि</w>"
    ],
    [
      "छॾ",
      "ियो।</w>"
    ],
    [
      "प",
      "ी</w>"
    ],
    [
      "जि",
      "नि</w>"
    ],
    [
      "छ",
      "ि"
    ],
    [
      "ॻ",
      "ोल्ह"
    ],
    [
      "و",
      "ر"
    ],
    [
      "दा",
      "न</w>"
    ],
    [
      "मं",
      "झ"
    ],
    [
      "व",
      "सी"
    ],
    [
      "ा",
      "ई"
    ],
    [
      "ण",
      "ा</w>"
    ],
    [
      "फ़",
      "ी"
    ],
    [
      "1",
      "7"
    ],
    [
      "पु",
      "रा"
    ],
    [
      "मुंहिं",
      "जे</w>"
    ],
    [
      "ॾि",
      "सी</w>"
    ],
    [
      "क",
      "ंदड़</w>"
    ],
    [
      "म",
      ",</w>"
    ],
    [
      "वा",
      "य"
    ],
    [
      "थ",
      "े</w>"
    ],
    [
      "स",
      "ल्"
    ],
    [
      "गु",
      "ज़"
    ],
    [
      "ना",
      "ड"
    ],
    [
      "कर",
      "े,</w>"
    ],
    [
      "शा",
      "ह</w>"
    ],
    [
      "ज",
      "ंग</w>"
    ],
    [
      "काम",
      "या"
    ],
    [
      "िय",
      "लु</w>"
    ],
    [
      "ल",
      "ि</w>"
    ],
    [
      "दु",
      "निया</w>"
    ],
    [
      "फ़",
      "ाइ"
    ],
    [
      "क",
      "रा"
    ],
    [
      "फ",
      "े"
    ],
    [
      "ڪ",
      "ي"
    ],
    [
      "द",
      "िल"
    ],
    [
      "?",
      "</w>"
    ],
    [
      "मा",
      "ली</w>"
    ],
    [
      "क",
      "ई,</w>"
    ],
    [
      ":",
      "</w>"
    ],
    [
      "ण",
      "नि</w>"
    ],
    [
      "त",
      "ै"
    ],
    [
      "िय",
      "न</w>"
    ],
    [
      "हि",
      "ं"
    ],
    [
      "यू",
      "ं।</w>"
    ],
    [
      "अ",
      "ख"
    ],
    [
      "श",
      "युनि</w>"
    ],
    [
      "र्",
      "ड</w>"
    ],
    [
      "फ़",
      "ै"
    ],
    [
      "ग",
      "ढ़"
    ],
    [
      "च",
      "ी</w>"
    ],
    [
      "स",
      "न</w>"
    ],
    [
      "ॾे",
      "ख"
    ],
    [
      "लॻ",
      "ि"
    ],
    [
      "ब",
      "रि"
    ],
    [
      "मुंहिं",
      "जो</w>"
    ],
    [
      "ज़",
      "त</w>"
    ],
    [
      "ॾि",
      "नी</w>"
    ],
    [
      "ज़",
      "मी"
    ],
    [
      "ड",
      "ो"
    ],
    [
      "व",
      "िया।</w>"
    ],
    [
      "ॾख",
      "ण</w>"
    ],
    [
      "पं",
      "जा"
    ],
    [
      "अ",
      "र्"
    ],
    [
      "मु",
      "ग़"
    ],
    [
      "आ",
      "ज़ा"
    ],
    [
      "त",
      ",</w>"
    ],
    [
      "भा",
      "ङ"
    ],
    [
      "े",
      "ं</w>"
    ],
    [
      "ॿि",
      "नि</w>"
    ],
    [
      "ंदड़",
      "नि</w>"
    ],
    [
      "ट",
      "ै"
    ],
    [
      "हि",
      "मा"
    ],
    [
      "स",
      ",</w>"
    ],
    [
      "اه",
      "و</w>"
    ],
    [
      "ब",
      "ाल"
    ],
    [
      "थी",
      "ंदो</w>"
    ],
    [
      "आ",
      "र"
    ],
    [
      "ड़",
      "ियल</w>"
    ],
    [
      "छ",
      "ो</w>"
    ],
    [
      "सुञा",
      "तो</w>"
    ],
    [
      "1",
      "5"
    ],
    [
      "ट",
      "ाइ"
    ],
    [
      "स",
      "मा"
    ],
    [
      "तरी",
      "न</w>"
    ],
    [
      "मथ",
      "ां</w>"
    ],
    [
      "र",
      "म</w>"
    ],
    [
      "रि",
      "ए</w>"
    ],
    [
      "ंगा",
      "ल</w>"
    ],
    [
      "सल्",
      "त"
    ],
    [
      "हि",
      "दा"
    ],
    [
      "ئ",
      "ي</w>"
    ],
    [
      "ए",
      "श"
    ],
    [
      ".ए",
      "स"
    ],
    [
      "फ़",
      "े"
    ],
    [
      "लॻि",
      "भॻि</w>"
    ],
    [
      "स",
      "मे"
    ],
    [
      "ब्",
      "रि"
    ],
    [
      "फ़",
      "ि"
    ],
    [
      "आहि",
      "यो।</w>"
    ],
    [
      "ء",
      "ِ"
    ],
    [
      "बाब",
      "ति</w>"
    ],
    [
      "दौरा",
      "न</w>"
    ],
    [
      "1",
      "6"
    ],
    [
      "ा",
      "यो</w>"
    ],
    [
      "घ",
      "टि"
    ],
    [
      "ब",
      "ंगाल</w>"
    ],
    [
      "वार",
      "ु</w>"
    ],
    [
      "सि",
      "।</w>"
    ],
    [
      "अलॻ",
      "ि</w>"
    ],
    [
      "अ",
      "ञ"
    ],
    [
      "ल",
      "र</w>"
    ],
    [
      "स्",
      "कू"
    ],
    [
      "अं",
      "ग्रे"
    ],
    [
      "सर",
      "कार</w>"
    ],
    [
      "स",
      "मु"
    ],
    [
      "ना",
      "ग"
    ],
    [
      "इ",
      "म्"
    ],
    [
      "स",
      "िया"
    ],
    [
      "सिं",
      "ह</w>"
    ],
    [
      "ओल",
      "ह</w>"
    ],
    [
      "मी",
      "र</w>"
    ],
    [
      "ॾि",
      "ठ"
    ],
    [
      "शुरूआ",
      "ती</w>"
    ],
    [
      "प्र",
      "े"
    ],
    [
      "ह",
      "वा"
    ],
    [
      "द",
      "े</w>"
    ],
    [
      "पा",
      "णीअ</w>"
    ],
    [
      "क़िस्",
      "म</w>"
    ],
    [
      "च",
      "ङ"
    ],
    [
      "ॾ",
      "ी</w>"
    ],
    [
      "ख़",
      "बर</w>"
    ],
    [
      "द",
      "फ़"
    ],
    [
      "किर",
      "दार</w>"
    ],
    [
      "आहि",
      "यो,</w>"
    ],
    [
      "फ",
      "ा"
    ],
    [
      "सर",
      "ि</w>"
    ],
    [
      "क",
      "या</w>"
    ],
    [
      "प",
      "र्"
    ],
    [
      "ता",
      "ई"
    ],
    [
      "ख",
      "ि"
    ],
    [
      "भ",
      "ू"
    ],
    [
      "ءِ",
      "</w>"
    ],
    [
      "सघ",
      "ंदो</w>"
    ],
    [
      "श",
      "ो"
    ],
    [
      "श",
      "ा</w>"
    ],
    [
      "स",
      "िय"
    ],
    [
      "र",
      "िली"
    ],
    [
      "ک",
      "ان</w>"
    ],
    [
      "मल",
      "्ह"
    ],
    [
      "त",
      "ीअ</w>"
    ],
    [
      "ए",
      "न"
    ],
    [
      "मुख़्तलि",
      "फ़</w>"
    ],
    [
      "संगी",
      "त</w>"
    ],
    [
      "ड़",
      "नि</w>"
    ],
    [
      "ं",
      "बर</w>"
    ],
    [
      "शि",
      "प</w>"
    ],
    [
      "िर",
      "ि</w>"
    ],
    [
      "-",
      "</w>"
    ],
    [
      "ना",
      "ट"
    ],
    [
      "पेश",
      "ि</w>"
    ],
    [
      "कर",
      "ियो।</w>"
    ],
    [
      "ز",
      "</w>"
    ],
    [
      "मू",
      "जि"
    ],
    [
      "ं",
      "क</w>"
    ],
    [
      "ज़",
      "ी"
    ],
    [
      "ाल",
      "ी</w>"
    ],
    [
      "लै",
      "ंड</w>"
    ],
    [
      "त",
      "ारीख़"
    ],
    [
      "त",
      "र</w>"
    ],
    [
      "त",
      "ियुनि</w>"
    ],
    [
      "अ",
      "दा</w>"
    ],
    [
      "ल",
      "ीअ</w>"
    ],
    [
      "ख",
      "ु"
    ],
    [
      "मरा",
      "ठ"
    ],
    [
      "मुता",
      "बि"
    ],
    [
      "वार",
      "ा</w>"
    ],
    [
      "दि",
      ",</w>"
    ],
    [
      "ह",
      "ु</w>"
    ],
    [
      "क़",
      "िल"
    ],
    [
      "ي",
      "ڪ"
    ],
    [
      "ا",
      "ر</w>"
    ],
    [
      "ज",
      "वा"
    ],
    [
      "क",
      ",</w>"
    ],
    [
      "रा",
      "ब</w>"
    ],
    [
      "आ",
      "र्"
    ],
    [
      "ंग",
      "्"
    ],
    [
      "न",
      "ौ"
    ],
    [
      "ि",
      "जी</w>"
    ],
    [
      "अम",
      "री"
    ],
    [
      "स्ट",
      "े"
    ],
    [
      "1",
      "0</w>"
    ],
    [
      "ज",
      "ंग"
    ],
    [
      "ध",
      "ी</w>"
    ],
    [
      "िया",
      ",</w>"
    ],
    [
      "तिय",
      "ारु</w>"
    ],
    [
      "सघि",
      "जे</w>"
    ],
    [
      "ख़",
      "ि"
    ],
    [
      "ज",
      "ब"
    ],
    [
      "क",
      "ंदे</w>"
    ],
    [
      "क",
      "ल"
    ],
    [
      "रा",
      "ज</w>"
    ],
    [
      "ल्",
      "ड</w>"
    ],
    [
      "वि",
      "क"
    ],
    [
      "सा",
      "न</w>"
    ],
    [
      "फ",
      "ि"
    ],
    [
      "बै",
      "दि,</w>"
    ],
    [
      "मा",
      "न"
    ],
    [
      "जाइ",
      "</w>"
    ],
    [
      "मह",
      "ारा"
    ],
    [
      "सत",
      "ह</w>"
    ],
    [
      "پ",
      "ن"
    ],
    [
      "19",
      "6"
    ],
    [
      "ल",
      "ॉ"
    ],
    [
      "तर",
      "ह</w>"
    ],
    [
      "य",
      "नि</w>"
    ],
    [
      "ल",
      "ं"
    ],
    [
      "वा",
      "ध"
    ],
    [
      "वि",
      "श्"
    ],
    [
      "त्र",
      "ी</w>"
    ],
    [
      "हा",
      "के</w>"
    ],
    [
      "م",
      "ا"
    ],
    [
      "श",
      "ी"
    ],
    [
      "ो",
      "ब"
    ],
    [
      "थिय",
      "ूं।</w>"
    ],
    [
      ".",
      "सी"
    ],
    [
      "प्र",
      "ा"
    ],
    [
      "ख़",
      "त"
    ],
    [
      "सल्त",
      "नत</w>"
    ],
    [
      "ट",
      "ीअ</w>"
    ],
    [
      "ॿ",
      "ोल"
    ],
    [
      "मु",
      "ं"
    ],
    [
      "भ",
      "ी"
    ],
    [
      "सुठ",
      "ो</w>"
    ],
    [
      "क्र",
      "ो"
    ],
    [
      "ज़रू",
      "री</w>"
    ],
    [
      "न",
      "र</w>"
    ],
    [
      "लाइ",
      ",</w>"
    ],
    [
      "रि",
      "एं</w>"
    ],
    [
      "ह",
      "ा</w>"
    ],
    [
      "दा",
      "द</w>"
    ],
    [
      "सं",
      "स्"
    ],
    [
      "रांदी",
      "ग"
    ],
    [
      "फ",
      "</w>"
    ],
    [
      "कु",
      "मार</w>"
    ],
    [
      "शा",
      "य"
    ],
    [
      "हु",
      "अ"
    ],
    [
      "च",
      "े</w>"
    ],
    [
      "पु",
      "ठ"
    ],
    [
      "ग्रा",
      "ह"
    ],
    [
      "ॾिय",
      "ण</w>"
    ],
    [
      "त",
      "ब्"
    ],
    [
      "कार",
      "नि</w>"
    ],
    [
      "ग़",
      "ु"
    ],
    [
      "हुआ",
      ",</w>"
    ],
    [
      "ئ",
      "ي.</w>"
    ],
    [
      "शुरूआ",
      "त</w>"
    ],
    [
      "आख़",
      "िरी</w>"
    ],
    [
      "ज़",
      "रिए</w>"
    ],
    [
      "ट्",
      "स</w>"
    ],
    [
      "ॾि",
      "न"
    ],
    [
      "क़",
      "ौ"
    ],
    [
      "घ",
      "</w>"
    ],
    [
      "च",
      "ु</w>"
    ],
    [
      "रा",
      "त</w>"
    ],
    [
      "हू",
      "अ</w>"
    ],
    [
      "ख",
      "ो"
    ],
    [
      "पा",
      "णी</w>"
    ],
    [
      "इ",
      "</w>"
    ],
    [
      "व",
      "ु"
    ],
    [
      "लाइ",
      "न</w>"
    ],
    [
      "क़ाइ",
      "मु</w>"
    ],
    [
      "ग",
      "ां"
    ],
    [
      "दे",
      "व"
    ],
    [
      "ख़री",
      "द</w>"
    ],
    [
      "स",
      "दी</w>"
    ],
    [
      "ु",
      "ट"
    ],
    [
      "ब",
      "ारे</w>"
    ],
    [
      "म",
      "े</w>"
    ],
    [
      "ताई",
      "ं,</w>"
    ],
    [
      "आहि",
      "या"
    ],
    [
      "ब",
      "रा"
    ],
    [
      "सिल",
      "ो</w>"
    ],
    [
      "वक़्त",
      "ु</w>"
    ],
    [
      "ू",
      "ं,</w>"
    ],
    [
      "ार",
      "ा</w>"
    ],
    [
      "क",
      "ाल"
    ],
    [
      "ं",
      "ज</w>"
    ],
    [
      "ग",
      "॒"
    ],
    [
      "मुतासि",
      "रु</w>"
    ],
    [
      "5",
      "0</w>"
    ],
    [
      "अ",
      "ॼ"
    ],
    [
      "ड़",
      "ीअ</w>"
    ],
    [
      "त",
      "ं"
    ],
    [
      "अध",
      "ि"
    ],
    [
      "आ",
      "उ"
    ],
    [
      "क़",
      "ु"
    ],
    [
      "ला",
      "ई</w>"
    ],
    [
      "त्र",
      "ि"
    ],
    [
      "मंझ",
      "ि</w>"
    ],
    [
      "पा",
      "से</w>"
    ],
    [
      "ॿ",
      "ध"
    ],
    [
      "सा",
      "म्ह"
    ],
    [
      "म",
      "क़ा"
    ],
    [
      "न",
      "द"
    ],
    [
      "हु",
      "कू"
    ],
    [
      "स",
      "म"
    ],
    [
      "ग़",
      "ल"
    ],
    [
      "ا",
      "د"
    ],
    [
      "ए",
      "स"
    ],
    [
      "गढ़",
      "</w>"
    ],
    [
      "ड",
      "ॉ"
    ],
    [
      "सी",
      "ड़"
    ],
    [
      "ن",
      ".</w>"
    ],
    [
      "आबा",
      "दी</w>"
    ],
    [
      "ब",
      "नि</w>"
    ],
    [
      "उ",
      "हो</w>"
    ],
    [
      "ي",
      "ا</w>"
    ],
    [
      "पा",
      "ल</w>"
    ],
    [
      "धर्",
      "म</w>"
    ],
    [
      "प",
      "ा</w>"
    ],
    [
      "न",
      "ाइ"
    ],
    [
      "19",
      "4"
    ],
    [
      "छॾ",
      "ियो</w>"
    ],
    [
      "िया",
      "ई</w>"
    ],
    [
      "वेझ",
      "ो</w>"
    ],
    [
      "मौजू",
      "द"
    ],
    [
      "व",
      "न</w>"
    ],
    [
      "संद",
      "नि</w>"
    ],
    [
      "त",
      "ाल"
    ],
    [
      "बहि",
      "तरीन</w>"
    ],
    [
      "ज़ि",
      "ंद"
    ],
    [
      "मि",
      "साल</w>"
    ],
    [
      "ध",
      "</w>"
    ],
    [
      "रांद",
      "ियुनि</w>"
    ],
    [
      "किल",
      "ो"
    ],
    [
      "अञ",
      "ा</w>"
    ],
    [
      "सब",
      "बि</w>"
    ],
    [
      "भ",
      "</w>"
    ],
    [
      "3",
      "0</w>"
    ],
    [
      "वार",
      "्"
    ],
    [
      "पिय",
      "न"
    ],
    [
      "तमा",
      "मु</w>"
    ],
    [
      "वा",
      "ंग"
    ],
    [
      "कर",
      "ियो</w>"
    ],
    [
      "बि",
      "ल</w>"
    ],
    [
      "पी",
      "उ</w>"
    ],
    [
      "ॿिन्ह",
      "ी</w>"
    ],
    [
      "क़ा",
      "नू"
    ],
    [
      "कुझ",
      "</w>"
    ],
    [
      "आ",
      "ला</w>"
    ],
    [
      "ॉ",
      "र्"
    ],
    [
      "रा",
      "ं"
    ],
    [
      "दिल्",
      "ली</w>"
    ],
    [
      "केतिर",
      "ा</w>"
    ],
    [
      "ह",
      "ाइ"
    ],
    [
      "बा",
      "द</w>"
    ],
    [
      "त",
      "रु</w>"
    ],
    [
      "इं",
      "टर"
    ],
    [
      "नती",
      "जे</w>"
    ],
    [
      "साम्ह",
      "ूं</w>"
    ],
    [
      "ट्",
      "रो"
    ],
    [
      "नि",
      "क</w>"
    ],
    [
      "भ",
      "र"
    ],
    [
      "सा",
      "हि"
    ],
    [
      "र",
      "ॉ"
    ],
    [
      "ह",
      "ार</w>"
    ],
    [
      "स",
      "ही</w>"
    ],
    [
      "न",
      "थो</w>"
    ],
    [
      "ई",
      "ंदा</w>"
    ],
    [
      "्य",
      "ा</w>"
    ],
    [
      "ह",
      "त</w>"
    ],
    [
      "थी",
      "ंदी</w>"
    ],
    [
      "पू",
      "रो</w>"
    ],
    [
      "त",
      "मिल"
    ],
    [
      "द",
      "र</w>"
    ],
    [
      "इं",
      "ति"
    ],
    [
      "मं",
      "ज़"
    ],
    [
      "पहि",
      "रिएं</w>"
    ],
    [
      "वा",
      "पार"
    ],
    [
      "क़",
      "ति</w>"
    ],
    [
      "ग",
      "ै"
    ],
    [
      "कंप",
      "नी</w>"
    ],
    [
      "त",
      "ल"
    ],
    [
      "ी",
      "न</w>"
    ],
    [
      "ज",
      "य"
    ],
    [
      "ख़ा",
      "न</w>"
    ],
    [
      "रख",
      "ियो</w>"
    ],
    [
      "अहिड़",
      "ी</w>"
    ],
    [
      "ग़",
      "ा"
    ],
    [
      "च",
      "व"
    ],
    [
      "क़ौ",
      "मी</w>"
    ],
    [
      "ं",
      "ट"
    ],
    [
      "ज़",
      "ा</w>"
    ],
    [
      "ए",
      "क्"
    ],
    [
      "आ",
      "न"
    ],
    [
      "ता",
      "न</w>"
    ],
    [
      "सवाइ",
      ",</w>"
    ],
    [
      "मंद",
      "र</w>"
    ],
    [
      "वा",
      "स्"
    ],
    [
      "दे",
      "व</w>"
    ],
    [
      "सा",
      "ॻ"
    ],
    [
      "उ",
      "मे"
    ],
    [
      "बू",
      "त</w>"
    ],
    [
      "ंग",
      "ा</w>"
    ],
    [
      "س",
      "ان</w>"
    ],
    [
      "जॻ",
      "हि</w>"
    ],
    [
      "ॼा",
      "ण</w>"
    ],
    [
      "ा",
      "ए</w>"
    ],
    [
      "उ",
      "न"
    ],
    [
      "मै",
      "च</w>"
    ],
    [
      "के",
      "रल</w>"
    ],
    [
      "प",
      "क</w>"
    ],
    [
      "ग़ै",
      "रु</w>"
    ],
    [
      "म्",
      "ब"
    ],
    [
      "क़",
      "दी"
    ],
    [
      "पू",
      "री</w>"
    ],
    [
      "बा",
      "द"
    ],
    [
      "अ",
      "र"
    ],
    [
      "अ",
      "नु"
    ],
    [
      "किलो",
      "मीटर</w>"
    ],
    [
      "पियन",
      "शिप</w>"
    ],
    [
      "हि",
      "ंदी</w>"
    ],
    [
      "हिंद",
      "ु"
    ],
    [
      "गु",
      "ज"
    ],
    [
      "ख",
      "ट"
    ],
    [
      "जो",
      "ड़"
    ],
    [
      "201",
      "4</w>"
    ],
    [
      "ع",
      "</w>"
    ],
    [
      "अॻ",
      "ि"
    ],
    [
      "इंड",
      "िया</w>"
    ],
    [
      "स",
      "म</w>"
    ],
    [
      "इ",
      "न"
    ],
    [
      "ख़र्",
      "च</w>"
    ],
    [
      "विच",
      "ु"
    ],
    [
      "आ",
      "मद"
    ],
    [
      "लि",
      "स</w>"
    ],
    [
      "ब्",
      "ज़ो</w>"
    ],
    [
      "गॾ",
      "ो"
    ],
    [
      "नु",
      "मा"
    ],
    [
      "ग",
      "ीअ</w>"
    ],
    [
      "त",
      "स्"
    ],
    [
      "मुताबि",
      "क़"
    ],
    [
      "मुग़",
      "ल</w>"
    ],
    [
      "ति",
      "हा"
    ],
    [
      "छ",
      "ो"
    ],
    [
      "दौ",
      "र</w>"
    ],
    [
      "ब",
      "चा"
    ],
    [
      "मा",
      "ने</w>"
    ],
    [
      "अभ",
      "्या"
    ],
    [
      "ज़मी",
      "न</w>"
    ],
    [
      "टि",
      "क</w>"
    ],
    [
      "फ़िल्",
      "मुनि</w>"
    ],
    [
      "गी",
      "त</w>"
    ],
    [
      "इला",
      "ज</w>"
    ],
    [
      "क",
      "ंदी</w>"
    ],
    [
      "पर",
      "े</w>"
    ],
    [
      "खे",
      "ॾ"
    ],
    [
      "ू",
      "अ</w>"
    ],
    [
      "हवा",
      "ई</w>"
    ],
    [
      "आहि",
      "यो</w>"
    ],
    [
      "मस",
      "इ"
    ],
    [
      "ज",
      "ड॒हिं</w>"
    ],
    [
      "ह",
      "ं</w>"
    ],
    [
      "ब्",
      "रा"
    ],
    [
      "श",
      "इ</w>"
    ],
    [
      "यू",
      "रो"
    ],
    [
      "च",
      "नि</w>"
    ],
    [
      "अद",
      "ाइ"
    ],
    [
      "तरीक़",
      "े</w>"
    ],
    [
      "द",
      "ारनि</w>"
    ],
    [
      "पंजा",
      "ब</w>"
    ],
    [
      "ण",
      "ण</w>"
    ],
    [
      "ट",
      "ोल"
    ],
    [
      "ॾीं",
      "हनि</w>"
    ],
    [
      "पा",
      "कि"
    ],
    [
      "कि",
      "न"
    ],
    [
      "ॾिय",
      "णु</w>"
    ],
    [
      "پ",
      "ي"
    ],
    [
      "हु",
      "ज"
    ],
    [
      "19",
      "</w>"
    ],
    [
      "बी",
      "मार"
    ],
    [
      "अक्",
      "सरि</w>"
    ],
    [
      "ख़री",
      "दारी</w>"
    ],
    [
      "तब्",
      "दी"
    ],
    [
      "हिस्",
      "से</w>"
    ],
    [
      "ए",
      "ं"
    ],
    [
      "आ",
      "इ"
    ],
    [
      "बंद",
      "ि</w>"
    ],
    [
      "सर",
      "कारी</w>"
    ],
    [
      "ين",
      "د"
    ],
    [
      "ل",
      "ي"
    ],
    [
      "ध्या",
      "न</w>"
    ],
    [
      "ठा",
      "हे</w>"
    ],
    [
      "म",
      "ध"
    ],
    [
      "ॾाढ",
      "ो</w>"
    ],
    [
      "क",
      "ंद"
    ],
    [
      "कार",
      "्य"
    ],
    [
      "र",
      "ै"
    ],
    [
      "त",
      "ो।</w>"
    ],
    [
      "स",
      "फ़"
    ],
    [
      "बरि",
      "ता"
    ],
    [
      "को",
      "न</w>"
    ],
    [
      "प",
      "संद"
    ],
    [
      "मुल्",
      "क</w>"
    ],
    [
      "ई",
      "अ</w>"
    ],
    [
      "वध",
      "ी</w>"
    ],
    [
      "क़",
      "िले</w>"
    ],
    [
      "रो",
      "ॻ"
    ],
    [
      "ا",
      "ب"
    ],
    [
      "व",
      "्या"
    ],
    [
      "फ़",
      "क़ति</w>"
    ],
    [
      "ज",
      "य</w>"
    ],
    [
      "ा",
      ",</w>"
    ],
    [
      "ॾि",
      "नी"
    ],
    [
      "िय",
      "ो"
    ],
    [
      "ڪ",
      "يو</w>"
    ],
    [
      "भा",
      "उ</w>"
    ],
    [
      "क",
      "ला</w>"
    ],
    [
      "ॾ",
      "हाके</w>"
    ],
    [
      "र",
      "स</w>"
    ],
    [
      "तव्ह",
      "ां"
    ],
    [
      "कम",
      "ल</w>"
    ],
    [
      "ا",
      "م"
    ],
    [
      "स",
      "मू"
    ],
    [
      "से",
      "ना</w>"
    ],
    [
      "क्",
      "ल"
    ],
    [
      "ल",
      "फ़्"
    ],
    [
      "हि",
      "ते</w>"
    ],
    [
      "हुकू",
      "मत</w>"
    ],
    [
      "ज़",
      "िल"
    ],
    [
      "श",
      "ल</w>"
    ],
    [
      "و",
      "يو.</w>"
    ],
    [
      "भ",
      "ु"
    ],
    [
      "हुआ",
      "</w>"
    ],
    [
      "च",
      "ार"
    ],
    [
      "कि",
      "ता"
    ],
    [
      "यू",
      "नि"
    ],
    [
      "घ",
      "ो"
    ],
    [
      "स",
      "व"
    ],
    [
      "महि",
      "ल</w>"
    ],
    [
      "म",
      "क़्"
    ],
    [
      "ज़",
      "ीअ</w>"
    ],
    [
      "मुक़र",
      "रु</w>"
    ],
    [
      "ख़िला",
      "फ़</w>"
    ],
    [
      "र",
      "क़"
    ],
    [
      "श",
      "ू"
    ],
    [
      "फ़ौ",
      "ज"
    ],
    [
      "प",
      "रे"
    ],
    [
      "क",
      "हा"
    ],
    [
      "ॿुधा",
      "यो</w>"
    ],
    [
      "ह",
      "वाल"
    ],
    [
      "भ",
      "ाल"
    ],
    [
      "अ",
      "मे"
    ],
    [
      "हे",
      "ं</w>"
    ],
    [
      "त",
      "ू"
    ],
    [
      "बुनिया",
      "द</w>"
    ],
    [
      "तमिल",
      "नाड"
    ],
    [
      "ॿ",
      "ारनि</w>"
    ],
    [
      "भे",
      "ट</w>"
    ],
    [
      "ه",
      "و</w>"
    ],
    [
      "न",
      "एं</w>"
    ],
    [
      "च",
      "ाल"
    ],
    [
      "क़ाइ",
      "म</w>"
    ],
    [
      "न्",
      "न"
    ],
    [
      "लि",
      "क</w>"
    ],
    [
      "कार्",
      "ड</w>"
    ],
    [
      "र्",
      "स</w>"
    ],
    [
      "म",
      "ॉ"
    ],
    [
      "लाॻाप",
      "ियल</w>"
    ],
    [
      "ज़",
      "ो"
    ],
    [
      "हिदा",
      "य"
    ],
    [
      "ऑ",
      "फ़</w>"
    ],
    [
      "ता",
      "ई</w>"
    ],
    [
      "पू",
      "र्"
    ],
    [
      "ڪ",
      "و"
    ],
    [
      "لا",
      "ءِ</w>"
    ],
    [
      "बि",
      "ना</w>"
    ],
    [
      "र",
      "न</w>"
    ],
    [
      "स",
      "ल"
    ],
    [
      "घुरि",
      "जे।</w>"
    ],
    [
      "थी",
      "ंदड़</w>"
    ],
    [
      "ڪر",
      "ي</w>"
    ],
    [
      "सला",
      "ह</w>"
    ],
    [
      "फ",
      "ो"
    ],
    [
      "मक़ा",
      "मी</w>"
    ],
    [
      "मो",
      "किल"
    ],
    [
      "آه",
      "ن.</w>"
    ],
    [
      "बुनिया",
      "दी</w>"
    ],
    [
      "ण",
      "ु"
    ],
    [
      "थ",
      "्"
    ],
    [
      "घ",
      "रा"
    ],
    [
      "ار",
      "ي</w>"
    ],
    [
      "महारा",
      "ष्ट्"
    ],
    [
      "ज",
      "ल्"
    ],
    [
      "दी",
      "न</w>"
    ],
    [
      "ए",
      "म"
    ],
    [
      "ॿ",
      "ियो</w>"
    ],
    [
      "अ",
      "रि"
    ],
    [
      "र",
      "ह</w>"
    ],
    [
      "कृ",
      "ष्"
    ],
    [
      "प",
      "तो</w>"
    ],
    [
      "नि",
      "शा"
    ],
    [
      "का",
      "नी</w>"
    ],
    [
      "अॼ",
      "ु</w>"
    ],
    [
      "चै",
      "ं"
    ],
    [
      "वि",
      "क्र"
    ],
    [
      "ध",
      "ार</w>"
    ],
    [
      "रो",
      "क"
    ],
    [
      "आ",
      "लि"
    ],
    [
      "अंद",
      "रि</w>"
    ],
    [
      "अ",
      "ॾा"
    ],
    [
      "हि",
      "फ़ा"
    ],
    [
      "मक़्",
      "स"
    ],
    [
      "पं",
      "ज</w>"
    ],
    [
      "नेश",
      "नल</w>"
    ],
    [
      "समे",
      "ति</w>"
    ],
    [
      "ह",
      "फ़्"
    ],
    [
      "मौ",
      "त</w>"
    ],
    [
      "क",
      "़"
    ],
    [
      "व",
      "ह"
    ],
    [
      "ि",
      "त</w>"
    ],
    [
      "न",
      "ियुनि</w>"
    ],
    [
      "ख़",
      "</w>"
    ],
    [
      "ठाहि",
      "यो</w>"
    ],
    [
      "ॿ",
      "ी</w>"
    ],
    [
      "न",
      "्यू"
    ],
    [
      "थि",
      "ए"
    ],
    [
      "वञ",
      "े।</w>"
    ],
    [
      "तइ",
      "दाद</w>"
    ],
    [
      "न",
      "गर</w>"
    ],
    [
      "िय",
      "र</w>"
    ],
    [
      "वञ",
      "ण</w>"
    ],
    [
      "फ़",
      "ो"
    ],
    [
      "ॾेख",
      "ार"
    ],
    [
      "बि",
      ",</w>"
    ],
    [
      "ॿ",
      "ार</w>"
    ],
    [
      "सं",
      "भा"
    ],
    [
      "ना",
      "थ</w>"
    ],
    [
      "र्",
      "ड"
    ],
    [
      "मथ",
      "े</w>"
    ],
    [
      "ब",
      "रु</w>"
    ],
    [
      "व",
      "ं"
    ],
    [
      "शा",
      "मिल"
    ],
    [
      "ॾ",
      "ु"
    ],
    [
      "201",
      "3</w>"
    ],
    [
      "नाट",
      "क</w>"
    ],
    [
      "राॼ",
      "ु</w>"
    ],
    [
      "र्",
      "ना"
    ],
    [
      "तिर",
      "ो</w>"
    ],
    [
      "अ",
      "ल"
    ],
    [
      "गॾो",
      "गॾु</w>"
    ],
    [
      "तौ",
      "रु,</w>"
    ],
    [
      "वि",
      "र्"
    ],
    [
      "ॾ",
      "ो</w>"
    ],
    [
      "चा",
      "ही"
    ],
    [
      "د",
      "</w>"
    ],
    [
      "ري",
      "ڪ"
    ],
    [
      "मू",
      "र्"
    ],
    [
      "ड़",
      "ा</w>"
    ],
    [
      "शा",
      "ही</w>"
    ],
    [
      "सा",
      "ं"
    ],
    [
      "मौ",
      "क़"
    ],
    [
      "न",
      "ईं</w>"
    ],
    [
      "क",
      "ीअं</w>"
    ],
    [
      "सा",
      "म्"
    ],
    [
      "श",
      "यूं</w>"
    ],
    [
      "अह",
      "मु</w>"
    ],
    [
      "ाल",
      "य</w>"
    ],
    [
      "शा",
      "दी</w>"
    ],
    [
      "कार",
      "ोब"
    ],
    [
      "स्कू",
      "ल</w>"
    ],
    [
      "टि",
      "श</w>"
    ],
    [
      "ट",
      ",</w>"
    ],
    [
      "ट्र",
      "ै"
    ],
    [
      "ग",
      "िर"
    ],
    [
      "स्",
      "ट्रे"
    ],
    [
      "ब",
      "ज"
    ],
    [
      "सि",
      "रि"
    ],
    [
      "शामिल",
      "ु</w>"
    ],
    [
      "धा",
      "नी</w>"
    ],
    [
      "म्",
      "प"
    ],
    [
      "अं",
      "तर्"
    ],
    [
      "कां",
      "ग्रे"
    ],
    [
      "ंद",
      "ु"
    ],
    [
      "मुल्",
      "कनि</w>"
    ],
    [
      "उ",
      "त्"
    ],
    [
      "م",
      "و"
    ],
    [
      "ज",
      "न</w>"
    ],
    [
      "ढ",
      "ंढ"
    ],
    [
      "वि",
      "झ"
    ],
    [
      "अमे",
      "रि"
    ],
    [
      "रे",
      "ल"
    ],
    [
      "क़",
      "र्"
    ],
    [
      "ا",
      ".</w>"
    ],
    [
      "ह",
      "ली</w>"
    ],
    [
      "ब",
      "ार</w>"
    ],
    [
      "फ़",
      "ा</w>"
    ],
    [
      "शुरूआ",
      "ति</w>"
    ],
    [
      "रक़",
      "म</w>"
    ],
    [
      "तमिलनाड",
      "ु</w>"
    ],
    [
      "श्र",
      "ी"
    ],
    [
      "बा",
      "ग़"
    ],
    [
      "भ",
      "रि"
    ],
    [
      "क",
      "ढ"
    ],
    [
      "र",
      "ण"
    ],
    [
      "वा",
      "क़ि"
    ],
    [
      "म",
      "ो</w>"
    ],
    [
      "201",
      "1</w>"
    ],
    [
      "ॿ",
      "िया</w>"
    ],
    [
      "ब्रि",
      "टिश</w>"
    ],
    [
      "मशहू",
      "र</w>"
    ],
    [
      "ब",
      "ेश"
    ],
    [
      "ज़ि",
      "क्र"
    ],
    [
      "अ",
      "प"
    ],
    [
      "ज़",
      "न</w>"
    ],
    [
      "ट",
      "न</w>"
    ],
    [
      "ख़",
      "तर"
    ],
    [
      ")",
      ",</w>"
    ],
    [
      "ब",
      "ो</w>"
    ],
    [
      "पा",
      "ंड"
    ],
    [
      "ज़",
      "े</w>"
    ],
    [
      ".",
      ")</w>"
    ],
    [
      "अच",
      "े</w>"
    ],
    [
      "कि",
      "ंग</w>"
    ],
    [
      "बया",
      "नु</w>"
    ],
    [
      "ख़",
      "राब</w>"
    ],
    [
      ".",
      "आई"
    ],
    [
      "उमे",
      "द</w>"
    ],
    [
      "पु",
      "टु</w>"
    ],
    [
      "द्य",
      "ो"
    ],
    [
      "स्था",
      "न</w>"
    ],
    [
      "जी",
      "त</w>"
    ],
    [
      "दफ़",
      "ो</w>"
    ],
    [
      "पै",
      "माने</w>"
    ],
    [
      "बा",
      "नी</w>"
    ],
    [
      "रिया",
      "सत</w>"
    ],
    [
      "ا",
      "ڪ"
    ],
    [
      "र",
      "ंग"
    ],
    [
      "ड",
      "िया</w>"
    ],
    [
      "पु",
      "लिस</w>"
    ],
    [
      "मु",
      "ंब"
    ],
    [
      "ली",
      "म</w>"
    ],
    [
      "फ़",
      "हि"
    ],
    [
      "पो",
      "र्ट</w>"
    ],
    [
      "क",
      "प"
    ],
    [
      "स",
      "म्"
    ],
    [
      "र",
      "वा"
    ],
    [
      "पहु",
      "च"
    ],
    [
      "श",
      "्त"
    ],
    [
      "ه",
      "ن"
    ],
    [
      "ब",
      "ह"
    ],
    [
      "फ़",
      "र्"
    ],
    [
      "व",
      "स्"
    ],
    [
      "क़",
      "त</w>"
    ],
    [
      "ण",
      "ु,</w>"
    ],
    [
      "ी",
      "य</w>"
    ],
    [
      "ह",
      "ला"
    ],
    [
      "س",
      "ي"
    ],
    [
      "शह",
      "रु</w>"
    ],
    [
      "टि",
      "नि</w>"
    ],
    [
      "वा",
      "ह"
    ],
    [
      "श",
      "िल"
    ],
    [
      "दु",
      "कान</w>"
    ],
    [
      "खे",
      "ल</w>"
    ],
    [
      "आ",
      "यो"
    ],
    [
      "अॻ",
      "वा"
    ],
    [
      "त",
      "ल</w>"
    ],
    [
      "जहिड़",
      "नि</w>"
    ],
    [
      "ची",
      "न</w>"
    ],
    [
      "इलाक़",
      "नि</w>"
    ],
    [
      "कांग्रे",
      "स</w>"
    ],
    [
      "त",
      "ां</w>"
    ],
    [
      "श",
      "ै"
    ],
    [
      "वञ",
      "णु</w>"
    ],
    [
      "द",
      "हि"
    ],
    [
      "हफ़्",
      "ते</w>"
    ],
    [
      "प",
      "हा"
    ],
    [
      "ि",
      "र</w>"
    ],
    [
      "ली",
      "ग</w>"
    ],
    [
      "द्ध",
      "</w>"
    ],
    [
      "19",
      "5"
    ],
    [
      "के",
      "त"
    ],
    [
      "प",
      "ियो।</w>"
    ],
    [
      "ब",
      "ंद</w>"
    ],
    [
      "त",
      "मिल</w>"
    ],
    [
      "टू",
      "र्ना"
    ],
    [
      "महाराष्ट्",
      "र</w>"
    ],
    [
      "भा",
      "ष"
    ],
    [
      "1",
      "2"
    ],
    [
      "आन",
      "ंद</w>"
    ],
    [
      "राॼ",
      "</w>"
    ],
    [
      "ॿो",
      "ली</w>"
    ],
    [
      "ंड",
      "्"
    ],
    [
      "ख",
      "िला"
    ],
    [
      "जे",
      ",</w>"
    ],
    [
      "ٿ",
      "ي</w>"
    ],
    [
      "ं",
      "सी</w>"
    ],
    [
      "1",
      "5</w>"
    ],
    [
      "ठाहि",
      "ण</w>"
    ],
    [
      "सं",
      "भाल"
    ],
    [
      "व",
      "जू"
    ],
    [
      "ठा",
      "ही"
    ],
    [
      "स्ता",
      "नी</w>"
    ],
    [
      "ख़त",
      "मु</w>"
    ],
    [
      "विचु",
      "ड़"
    ],
    [
      "अ",
      "ण"
    ],
    [
      "आ",
      "ल"
    ],
    [
      "ंद्र",
      "</w>"
    ],
    [
      "प",
      "ॉ"
    ],
    [
      "ल्",
      "स</w>"
    ],
    [
      "बण",
      "िजी</w>"
    ],
    [
      "पि",
      "क</w>"
    ],
    [
      "कमा",
      "ई</w>"
    ],
    [
      "ब",
      "ल</w>"
    ],
    [
      "प्रो",
      "ग्रा"
    ],
    [
      "ज़ाहि",
      "रु</w>"
    ],
    [
      "पो",
      "र्"
    ],
    [
      "1",
      "2</w>"
    ],
    [
      "ध",
      "ी"
    ],
    [
      "अंतर्",
      "राष्ट्रीय</w>"
    ],
    [
      "क़ी",
      "मत</w>"
    ],
    [
      "रिली",
      "ज़</w>"
    ],
    [
      "वि",
      "रो"
    ],
    [
      "يو",
      "ن</w>"
    ],
    [
      "1",
      "3"
    ],
    [
      "ड़",
      "ा</w>"
    ],
    [
      "रि",
      "स्त</w>"
    ],
    [
      "ई",
      "ंदो</w>"
    ],
    [
      "श",
      "ॉ"
    ],
    [
      "ओ",
      "</w>"
    ],
    [
      "गुज",
      "रात</w>"
    ],
    [
      "दर्",
      "जे</w>"
    ],
    [
      "य",
      "लु</w>"
    ],
    [
      "स",
      "ौ"
    ],
    [
      "ओ",
      "लि"
    ],
    [
      "विच",
      "ु</w>"
    ],
    [
      "वांग",
      "ु"
    ],
    [
      "हिस्",
      "सनि</w>"
    ],
    [
      "मा",
      "ल</w>"
    ],
    [
      "क़िल",
      "ो</w>"
    ],
    [
      "هو",
      ".</w>"
    ],
    [
      "न",
      "वा"
    ],
    [
      "घ",
      "रु</w>"
    ],
    [
      "या",
      "।</w>"
    ],
    [
      "मा",
      "ना</w>"
    ],
    [
      "ह",
      "ॉ"
    ],
    [
      "क्रि",
      "केट</w>"
    ],
    [
      "त",
      "ार"
    ],
    [
      "ॿाहि",
      "रि</w>"
    ],
    [
      "िय",
      "म</w>"
    ],
    [
      "र",
      "िया</w>"
    ],
    [
      "ॾे",
      "ई</w>"
    ],
    [
      "वाप",
      "सि</w>"
    ],
    [
      "कय",
      "लु</w>"
    ],
    [
      "म",
      "ज"
    ],
    [
      "ट",
      "ो</w>"
    ],
    [
      "फ़ै",
      "सिलो</w>"
    ],
    [
      "ठहि",
      "यल</w>"
    ],
    [
      "ज",
      "दी"
    ],
    [
      "ॾ",
      "े</w>"
    ],
    [
      "मु",
      "कमल</w>"
    ],
    [
      "ल",
      "िया"
    ],
    [
      "मं",
      "त्री</w>"
    ],
    [
      "द",
      "ार"
    ],
    [
      "ॾिठ",
      "ो</w>"
    ],
    [
      "कि",
      "ल</w>"
    ],
    [
      "सि",
      "क्क"
    ],
    [
      "ف",
      "ل"
    ],
    [
      "प",
      "ति</w>"
    ],
    [
      "ॻो",
      "ठ"
    ],
    [
      "सि",
      "ख"
    ],
    [
      "वठ",
      "णु</w>"
    ],
    [
      "दौ",
      "रु</w>"
    ],
    [
      "श",
      "र्"
    ],
    [
      "ت",
      "ه</w>"
    ],
    [
      "लि",
      "ंग</w>"
    ],
    [
      "सॼ",
      "ी</w>"
    ],
    [
      "कॉ",
      "ले"
    ],
    [
      "छॾ",
      "े</w>"
    ],
    [
      "शा",
      "स्"
    ],
    [
      "सुठ",
      "ी</w>"
    ],
    [
      "ء",
      "َ"
    ],
    [
      "अदाइ",
      "गी</w>"
    ],
    [
      "जा",
      "च</w>"
    ],
    [
      "ज़ा",
      "म</w>"
    ],
    [
      "प्र",
      "ां"
    ],
    [
      "शाय",
      "दि</w>"
    ],
    [
      "कु",
      "ं"
    ],
    [
      "झ",
      "ंग"
    ],
    [
      "ंब",
      "रु</w>"
    ],
    [
      "ب",
      "ر"
    ],
    [
      "ءَ",
      "</w>"
    ],
    [
      "फ",
      "हि"
    ],
    [
      "ल",
      "्ह"
    ],
    [
      "वठ",
      "ण</w>"
    ],
    [
      "यूनि",
      "वर्"
    ],
    [
      "गि",
      "॒"
    ],
    [
      "त",
      "ियूं</w>"
    ],
    [
      "क़बू",
      "लु</w>"
    ],
    [
      "ॾिन",
      "ो।</w>"
    ],
    [
      "कि",
      "न</w>"
    ],
    [
      "ज़",
      "ार</w>"
    ],
    [
      "ॾी",
      "ंदा</w>"
    ],
    [
      ".",
      "पी"
    ],
    [
      "ख",
      "णी</w>"
    ],
    [
      "क",
      "श्"
    ],
    [
      "ाल",
      "े"
    ],
    [
      "श",
      "तर"
    ],
    [
      "कंप",
      "्यू"
    ],
    [
      "कय",
      "ा"
    ],
    [
      "सब",
      "बु</w>"
    ],
    [
      "ख़्",
      "त</w>"
    ],
    [
      "जु",
      "दा</w>"
    ],
    [
      "ठ",
      "ि</w>"
    ],
    [
      "माम",
      "लनि</w>"
    ],
    [
      "तारीख़",
      "</w>"
    ],
    [
      "पे",
      "ई</w>"
    ],
    [
      "मुक़र",
      "र</w>"
    ],
    [
      "ल",
      "ख</w>"
    ],
    [
      "महि",
      "ने</w>"
    ],
    [
      "ट",
      "र्"
    ],
    [
      "प",
      "थ"
    ],
    [
      "ि",
      "क</w>"
    ],
    [
      "घटि",
      "ताई</w>"
    ],
    [
      "से",
      "वा</w>"
    ],
    [
      "सवाइ",
      "</w>"
    ],
    [
      "नज़",
      "र</w>"
    ],
    [
      "ने",
      "ट"
    ],
    [
      "उ",
      "म"
    ],
    [
      "प्",
      "ले"
    ],
    [
      "व",
      "ल</w>"
    ],
    [
      "अ",
      "फ़"
    ],
    [
      "त",
      "क"
    ],
    [
      "अ",
      "क"
    ],
    [
      "म",
      "छ"
    ],
    [
      "ना",
      "सि"
    ],
    [
      "रख",
      "णु</w>"
    ],
    [
      "क्र",
      "े"
    ],
    [
      "201",
      "2</w>"
    ],
    [
      "फ़ौ",
      "ज</w>"
    ],
    [
      "वा",
      "हि"
    ],
    [
      "अ",
      "वार्"
    ],
    [
      "किर",
      "ो"
    ],
    [
      "ज़",
      "े"
    ],
    [
      "धा",
      "न</w>"
    ],
    [
      "िय",
      "ों</w>"
    ],
    [
      "जु",
      "ड़ियल</w>"
    ],
    [
      "و",
      "ر</w>"
    ],
    [
      "ग",
      "़"
    ],
    [
      "ह",
      "र"
    ],
    [
      "भे",
      "रो</w>"
    ],
    [
      "कर",
      "ी</w>"
    ],
    [
      "संस्",
      "कृ"
    ],
    [
      "सभ",
      "ा</w>"
    ],
    [
      "रांदीग",
      "रनि</w>"
    ],
    [
      "पर",
      "ग॒"
    ],
    [
      "आ",
      "द"
    ],
    [
      "2",
      "1</w>"
    ],
    [
      "बेश",
      "ि"
    ],
    [
      "मु",
      "स्"
    ],
    [
      "चा",
      "हि"
    ],
    [
      "अ",
      "सर</w>"
    ],
    [
      "टे",
      "स्ट</w>"
    ],
    [
      "किन",
      "ारे</w>"
    ],
    [
      "सघ",
      "ंदी</w>"
    ],
    [
      "अरि",
      "से</w>"
    ],
    [
      "सो",
      "च"
    ],
    [
      "इं",
      "त"
    ],
    [
      "म",
      "य"
    ],
    [
      "ख़ा",
      "स</w>"
    ],
    [
      "ह",
      "ार"
    ],
    [
      "यूनिवर्",
      "सि"
    ],
    [
      "ले",
      "ख"
    ],
    [
      "ती",
      "र्"
    ],
    [
      "ठाहि",
      "णु</w>"
    ],
    [
      "म",
      "िया</w>"
    ],
    [
      "तु",
      "र्"
    ],
    [
      "सि",
      "स</w>"
    ],
    [
      "श",
      "ि</w>"
    ],
    [
      "क़दी",
      "म</w>"
    ],
    [
      "तमा",
      "म</w>"
    ],
    [
      "इ",
      "न्ह"
    ],
    [
      "0",
      ",000</w>"
    ],
    [
      "ओल",
      "ं"
    ],
    [
      "अ",
      "ल्"
    ],
    [
      "फ़ौ",
      "जी</w>"
    ],
    [
      "जहिड़",
      "ी</w>"
    ],
    [
      "अहिड़",
      "ो</w>"
    ],
    [
      "ग़ै",
      "र</w>"
    ],
    [
      "रा",
      "म"
    ],
    [
      "ऑ",
      "न"
    ],
    [
      "ण",
      "णु</w>"
    ],
    [
      "सभ",
      "ई</w>"
    ],
    [
      "घण",
      "ई</w>"
    ],
    [
      "वा",
      "उनि</w>"
    ],
    [
      "हु",
      "जे।</w>"
    ],
    [
      "पाकि",
      "स्तान</w>"
    ],
    [
      "ना",
      "हे"
    ],
    [
      "बा",
      "ई</w>"
    ],
    [
      "ह",
      "ंध"
    ],
    [
      "پن",
      "هن"
    ],
    [
      "ग",
      "ु</w>"
    ],
    [
      "रख",
      "ण</w>"
    ],
    [
      "शिल",
      "ाले"
    ],
    [
      "शतर",
      "ंज</w>"
    ],
    [
      "वि",
      "रि"
    ],
    [
      "س",
      "ٽ"
    ],
    [
      "क",
      "ट"
    ],
    [
      "ध",
      "ो</w>"
    ],
    [
      "भ",
      "ो"
    ],
    [
      "ज",
      "हा"
    ],
    [
      "इं",
      "सा"
    ],
    [
      "ॾिनी",
      "।</w>"
    ],
    [
      "क",
      "ॾ"
    ],
    [
      "बर",
      "सा"
    ],
    [
      "व",
      "ण"
    ],
    [
      "रा",
      "म</w>"
    ],
    [
      "हुअ",
      "णु</w>"
    ],
    [
      "द",
      "ाइ"
    ],
    [
      "ण",
      "प</w>"
    ],
    [
      "च",
      "म"
    ],
    [
      "लॻ",
      "ी</w>"
    ],
    [
      "द",
      "स्त"
    ],
    [
      "भ",
      "ि"
    ],
    [
      "यो",
      "ग</w>"
    ],
    [
      "वा",
      "ल</w>"
    ],
    [
      "अ",
      "सु"
    ],
    [
      "स",
      "ीअ</w>"
    ],
    [
      "ग्र",
      "ी</w>"
    ],
    [
      "हिं",
      "-"
    ],
    [
      "स्",
      "को"
    ],
    [
      "ष",
      "</w>"
    ],
    [
      "पुठ",
      "ियां</w>"
    ],
    [
      "सि",
      "ंध"
    ],
    [
      "टे",
      "ड</w>"
    ],
    [
      "कर",
      "णो</w>"
    ],
    [
      "बै",
      "ंक</w>"
    ],
    [
      "कार्य",
      "क्र"
    ],
    [
      "मध",
      "्य</w>"
    ],
    [
      "ज़ा",
      "ती</w>"
    ],
    [
      "सिल",
      "े</w>"
    ],
    [
      "त",
      "्य</w>"
    ],
    [
      "जू",
      "न</w>"
    ],
    [
      "प्",
      "त</w>"
    ],
    [
      "मै",
      "दान</w>"
    ],
    [
      "र",
      "ंग</w>"
    ],
    [
      "ह",
      "ौ"
    ],
    [
      "ची",
      "नी</w>"
    ],
    [
      "آه",
      "ي</w>"
    ],
    [
      "इलाक़",
      "े</w>"
    ],
    [
      "अदा",
      "कारी</w>"
    ],
    [
      "डा",
      "य"
    ],
    [
      "म",
      "ती</w>"
    ],
    [
      "विच",
      "ें</w>"
    ],
    [
      "इ",
      "जा"
    ],
    [
      "आहिया",
      "ं।</w>"
    ],
    [
      "ध",
      "ि"
    ],
    [
      "हा",
      "ल</w>"
    ],
    [
      ".",
      "डी"
    ],
    [
      "अ",
      "सरु</w>"
    ],
    [
      "ओ",
      "ं</w>"
    ],
    [
      "जेक",
      "्"
    ],
    [
      "इलाइक़",
      "ो</w>"
    ],
    [
      "नंढ",
      "ी</w>"
    ],
    [
      "मार्",
      "च</w>"
    ],
    [
      "वञ",
      "ी</w>"
    ],
    [
      "ओलं",
      "पिक</w>"
    ],
    [
      "ॻो",
      "ठ</w>"
    ],
    [
      "द्",
      "दीन</w>"
    ],
    [
      "नंढ",
      "े</w>"
    ],
    [
      "बया",
      "न</w>"
    ],
    [
      "बज",
      "ट</w>"
    ],
    [
      "्य",
      "नि</w>"
    ],
    [
      "अच",
      "ण</w>"
    ],
    [
      "ज",
      "ंहिं"
    ],
    [
      "कि",
      "थे</w>"
    ],
    [
      "सु",
      "ध"
    ],
    [
      "ॻ",
      "</w>"
    ],
    [
      "भाङ",
      "े</w>"
    ],
    [
      "रा",
      "नी</w>"
    ],
    [
      "मौजूद",
      "ह</w>"
    ],
    [
      "ॿ",
      "ी"
    ],
    [
      "آ",
      "م"
    ],
    [
      "श",
      "ख़्"
    ],
    [
      "काम",
      "िया"
    ],
    [
      "उ",
      "द्यो"
    ],
    [
      "कामया",
      "ब</w>"
    ],
    [
      "खाध",
      "े</w>"
    ],
    [
      "प",
      "ट"
    ],
    [
      "آم",
      "ريڪ"
    ],
    [
      "ख",
      "ंड</w>"
    ],
    [
      "त",
      "ला"
    ],
    [
      "र",
      "ीअ</w>"
    ],
    [
      "ल्",
      "ल"
    ],
    [
      "ॾिस",
      "ण</w>"
    ],
    [
      "ट",
      "ल</w>"
    ],
    [
      "फ़हि",
      "रिस्त</w>"
    ],
    [
      "एश",
      "िया</w>"
    ],
    [
      "वा",
      "मी</w>"
    ],
    [
      "हु",
      "यूं।</w>"
    ],
    [
      "दिल",
      "ि</w>"
    ],
    [
      "1",
      "4"
    ],
    [
      "ف",
      "</w>"
    ],
    [
      "इ",
      "तिहा"
    ],
    [
      "क़बू",
      "ल</w>"
    ],
    [
      "मु",
      "म"
    ],
    [
      "उ",
      "हि"
    ],
    [
      "व",
      "नि</w>"
    ],
    [
      "म्",
      "स</w>"
    ],
    [
      "ब",
      "िल्"
    ],
    [
      "ह",
      "क़ी"
    ],
    [
      "पार्",
      "टी</w>"
    ],
    [
      "मुंब",
      "ई</w>"
    ],
    [
      "मु",
      "न"
    ],
    [
      "ॾी",
      "ंदो</w>"
    ],
    [
      "मह",
      "सू"
    ],
    [
      "परे",
      "शा"
    ],
    [
      "जदी",
      "द</w>"
    ],
    [
      "स्ट",
      "ोर</w>"
    ],
    [
      "و",
      "ي"
    ],
    [
      "ن",
      "گ"
    ],
    [
      "ड",
      "ियो</w>"
    ],
    [
      "री",
      ",</w>"
    ],
    [
      "ग्राह",
      "क</w>"
    ],
    [
      "म",
      "र"
    ],
    [
      "बि",
      "ज"
    ],
    [
      "बच",
      "त</w>"
    ],
    [
      "नी",
      ",</w>"
    ],
    [
      "त",
      "बा"
    ],
    [
      "थिय",
      "ो,</w>"
    ],
    [
      "ग",
      "ोल"
    ],
    [
      "अहि",
      "मु</w>"
    ],
    [
      "पै",
      "दा"
    ],
    [
      "कि",
      "मी</w>"
    ],
    [
      "घ",
      "णे</w>"
    ],
    [
      "त",
      "ार</w>"
    ],
    [
      "म",
      "ही"
    ],
    [
      "लाॻ",
      "ू</w>"
    ],
    [
      "अ",
      "ली</w>"
    ],
    [
      "ग",
      "ंगा</w>"
    ],
    [
      "जेक",
      "ड॒हिं</w>"
    ],
    [
      "मु",
      "ला"
    ],
    [
      "खा",
      "ते</w>"
    ],
    [
      "के",
      "ति"
    ],
    [
      "म",
      "ई</w>"
    ],
    [
      "گ",
      "ه"
    ],
    [
      "ب",
      "ي"
    ],
    [
      "स्ट",
      "र</w>"
    ],
    [
      "ब",
      "॒</w>"
    ],
    [
      "ॻ",
      "ा"
    ],
    [
      "छ",
      "ह</w>"
    ],
    [
      "किर",
      "दारु</w>"
    ],
    [
      "अ",
      "शो"
    ],
    [
      "गु",
      "प्त</w>"
    ],
    [
      "र",
      "ियो</w>"
    ],
    [
      "वी",
      "र</w>"
    ],
    [
      "आ",
      "स"
    ],
    [
      "वसी",
      "ले</w>"
    ],
    [
      "साल",
      "िया"
    ],
    [
      "मा",
      "उ"
    ],
    [
      "निर्",
      "मा"
    ],
    [
      "मराठ",
      "ा</w>"
    ],
    [
      "ज़ाहि",
      "र</w>"
    ],
    [
      "्य",
      "ू</w>"
    ],
    [
      "खे",
      "नि</w>"
    ],
    [
      "अंदा",
      "ज़</w>"
    ],
    [
      "त",
      "ह</w>"
    ],
    [
      "त",
      "न</w>"
    ],
    [
      "ज",
      "ं"
    ],
    [
      "व",
      "िय"
    ],
    [
      "1",
      ","
    ],
    [
      "ध",
      "ु"
    ],
    [
      "चैं",
      "पियनशिप</w>"
    ],
    [
      "त",
      "ंहिं</w>"
    ],
    [
      "य",
      "ां</w>"
    ],
    [
      "ध",
      "ीअ</w>"
    ],
    [
      "न",
      "ार"
    ],
    [
      "अ",
      "ंग"
    ],
    [
      "و",
      "ن</w>"
    ],
    [
      "अॻि",
      "ते</w>"
    ],
    [
      "ऑन",
      "लाइन</w>"
    ],
    [
      "न",
      "वी</w>"
    ],
    [
      "प",
      "री"
    ],
    [
      "से",
      "ं"
    ],
    [
      "ब",
      "ग़ा"
    ],
    [
      "ाल",
      "ि"
    ],
    [
      "ج",
      "يڪ"
    ],
    [
      "चो",
      "ल</w>"
    ],
    [
      "त",
      "हि"
    ],
    [
      "बा",
      "क़ी</w>"
    ],
    [
      "अमरी",
      "का</w>"
    ],
    [
      "जु",
      "र्"
    ],
    [
      "ंड",
      "र</w>"
    ],
    [
      "व",
      "ई</w>"
    ],
    [
      "सा",
      "ई</w>"
    ],
    [
      "केतिर",
      "ियूं</w>"
    ],
    [
      "अ",
      "प्र"
    ],
    [
      "स",
      "ह"
    ],
    [
      "ल",
      "्यू"
    ],
    [
      "थ",
      "ु"
    ],
    [
      "अदा",
      "कार"
    ],
    [
      "ढंढ",
      "</w>"
    ],
    [
      "हि",
      "क"
    ],
    [
      "रहि",
      "यो।</w>"
    ],
    [
      "शह",
      "रनि</w>"
    ],
    [
      "भार",
      "ी</w>"
    ],
    [
      "ड",
      "ल</w>"
    ],
    [
      "न्",
      "स</w>"
    ],
    [
      "2",
      "2</w>"
    ],
    [
      "नु",
      "माइ"
    ],
    [
      "सि",
      "ंग</w>"
    ],
    [
      "क",
      "न</w>"
    ],
    [
      "मुस्",
      "लि"
    ],
    [
      "केति",
      "राई</w>"
    ],
    [
      "टूर्ना",
      "मेंट</w>"
    ],
    [
      "म",
      "ंड"
    ],
    [
      "ज़ा",
      "ल</w>"
    ],
    [
      "ड",
      "े</w>"
    ],
    [
      "ब",
      "ंग"
    ],
    [
      "र",
      "च"
    ],
    [
      "2",
      "5</w>"
    ],
    [
      "हिमा",
      "यत</w>"
    ],
    [
      "स",
      "रा"
    ],
    [
      "से",
      "न</w>"
    ],
    [
      "न",
      "।</w>"
    ],
    [
      "ई",
      "सा</w>"
    ],
    [
      "सि",
      "ए"
    ],
    [
      "و",
      ".</w>"
    ],
    [
      "बि॒",
      "यनि</w>"
    ],
    [
      "श्र",
      "ी</w>"
    ],
    [
      "स",
      "द"
    ],
    [
      "आमद",
      "नी</w>"
    ],
    [
      "मज़",
      "बूत</w>"
    ],
    [
      "इ",
      "ज़ा"
    ],
    [
      "ज",
      "र्"
    ],
    [
      "ऐ",
      "ला"
    ],
    [
      "ह",
      "थ"
    ],
    [
      "ंग",
      ",</w>"
    ],
    [
      "हाल",
      "त</w>"
    ],
    [
      "क़",
      "ब्ज़ो</w>"
    ],
    [
      "हिदाय",
      "त"
    ],
    [
      "मा",
      "हि"
    ],
    [
      "सॼ",
      "े</w>"
    ],
    [
      "स्ट",
      "ा"
    ],
    [
      "कया",
      "।</w>"
    ],
    [
      "आ",
      "म"
    ],
    [
      "अक्",
      "सरु</w>"
    ],
    [
      "रि",
      "था</w>"
    ],
    [
      "मुक़ाब",
      "ले</w>"
    ],
    [
      ".ए",
      "ल"
    ],
    [
      "ब",
      "ीअ</w>"
    ],
    [
      "आ",
      "ई</w>"
    ],
    [
      "सु",
      "ल्"
    ],
    [
      "साइ",
      "ट</w>"
    ],
    [
      "जी",
      "वन</w>"
    ],
    [
      "ह",
      ",</w>"
    ],
    [
      "स्ट्रे",
      "ल"
    ],
    [
      "रा",
      "ज़ी</w>"
    ],
    [
      "कॾ",
      "हिं-"
    ],
    [
      "बो",
      "र्ड</w>"
    ],
    [
      "ह",
      "थ</w>"
    ],
    [
      "का",
      "फ़ी</w>"
    ],
    [
      "ए",
      "सो"
    ],
    [
      "इजा",
      "ज़त</w>"
    ],
    [
      "बेशि",
      "तरु</w>"
    ],
    [
      "राज",
      "स्थान</w>"
    ],
    [
      "ख",
      "ं"
    ],
    [
      "मुक़ाब",
      "लो</w>"
    ],
    [
      "ले",
      "क्"
    ],
    [
      "ू",
      "री</w>"
    ],
    [
      "ंदा",
      ",</w>"
    ],
    [
      "फ़",
      "ू"
    ],
    [
      "गो",
      "ल</w>"
    ],
    [
      "ल",
      ")</w>"
    ],
    [
      "پنهن",
      "جي</w>"
    ],
    [
      "शह",
      "री</w>"
    ],
    [
      "1",
      "6</w>"
    ],
    [
      "लो",
      "क"
    ],
    [
      "ज़",
      "्"
    ],
    [
      "स्ट",
      "ो"
    ],
    [
      "ट",
      "रु</w>"
    ],
    [
      "मा",
      "उ</w>"
    ],
    [
      "ण",
      "ा"
    ],
    [
      "ख",
      "ो</w>"
    ],
    [
      "क़",
      "ु</w>"
    ],
    [
      "बण",
      "जी</w>"
    ],
    [
      "ई",
      ".</w>"
    ],
    [
      "श्",
      "ते</w>"
    ],
    [
      "स",
      "ारा"
    ],
    [
      "सि",
      "पा"
    ],
    [
      "उ",
      "हा</w>"
    ],
    [
      "म्",
      "म"
    ],
    [
      "से",
      "प्"
    ],
    [
      "बा",
      "ल</w>"
    ],
    [
      "ंद",
      "ो,</w>"
    ],
    [
      "वाय",
      "ती</w>"
    ],
    [
      "ज़",
      "ु"
    ],
    [
      "अहिड़",
      "े</w>"
    ],
    [
      "1",
      "4</w>"
    ],
    [
      "ा",
      "न</w>"
    ],
    [
      "\"",
      "।</w>"
    ],
    [
      "सि",
      "ने"
    ],
    [
      "विक",
      "ल्"
    ],
    [
      "क",
      "प</w>"
    ],
    [
      "201",
      "7</w>"
    ],
    [
      "ग",
      "ं"
    ],
    [
      "ै",
      "ल</w>"
    ],
    [
      "प्रो",
      "जेक्"
    ],
    [
      "ऑ",
      "र्ड"
    ],
    [
      "वा",
      "द</w>"
    ],
    [
      "म",
      "णि"
    ],
    [
      "माण्ह",
      "ूअ</w>"
    ],
    [
      "पू",
      "ॼ"
    ],
    [
      "व",
      "ती</w>"
    ],
    [
      "क",
      "म्प"
    ],
    [
      "अशो",
      "क</w>"
    ],
    [
      "मुन",
      "क़ि"
    ],
    [
      "पि",
      "ंग</w>"
    ],
    [
      "इस्",
      "तै"
    ],
    [
      "प",
      "्य"
    ],
    [
      "201",
      "8</w>"
    ],
    [
      "ب",
      "ر</w>"
    ],
    [
      "वरि",
      "तो।</w>"
    ],
    [
      "क़ाब",
      "िल"
    ],
    [
      "बै",
      "ंडी</w>"
    ],
    [
      "डि",
      "ग्री</w>"
    ],
    [
      "ॾीं",
      "हं</w>"
    ],
    [
      "बा",
      "वजू"
    ],
    [
      "कंप्यू",
      "टर</w>"
    ],
    [
      "ज़ा",
      "ब्"
    ],
    [
      "न",
      "ओं</w>"
    ],
    [
      "य",
      "र"
    ],
    [
      "नु",
      "क़्"
    ],
    [
      "पेश",
      "े"
    ],
    [
      "क",
      "हिड़"
    ],
    [
      "क",
      "ुनि</w>"
    ],
    [
      "ॾिस",
      "णु</w>"
    ],
    [
      "ان",
      "هن</w>"
    ],
    [
      "ॿध",
      "ल</w>"
    ],
    [
      "ग",
      "ू"
    ],
    [
      "क़",
      "द"
    ],
    [
      "मिल",
      "े</w>"
    ],
    [
      "िर",
      "ां</w>"
    ],
    [
      "प्र",
      "ी"
    ],
    [
      "ॿि",
      "एं</w>"
    ],
    [
      "मुम",
      "किन</w>"
    ],
    [
      "का",
      "उ"
    ],
    [
      "मार्",
      "शल</w>"
    ],
    [
      "आलि",
      "मी</w>"
    ],
    [
      "स",
      "री</w>"
    ],
    [
      "ڪ",
      "م"
    ],
    [
      "थी",
      "ंदा</w>"
    ],
    [
      "201",
      "6</w>"
    ],
    [
      "ब",
      "ार"
    ],
    [
      "मा",
      "नी</w>"
    ],
    [
      "न",
      "-"
    ],
    [
      "्",
      "म"
    ],
    [
      "ता",
      "उनि</w>"
    ],
    [
      "मु",
      "श्"
    ],
    [
      "आहे",
      ".</w>"
    ],
    [
      "ओ",
      "डि"
    ],
    [
      "क्",
      "टो"
    ],
    [
      "ति",
      "क</w>"
    ],
    [
      "अक",
      "बर</w>"
    ],
    [
      "शा",
      "ं"
    ],
    [
      "ट्",
      "रि"
    ],
    [
      "वाध",
      "ारो</w>"
    ],
    [
      "र",
      "हे</w>"
    ],
    [
      "क़ा",
      "बिल</w>"
    ],
    [
      "मल्ह",
      "ायो</w>"
    ],
    [
      "इ",
      "न्"
    ],
    [
      "बॉ",
      "क्स</w>"
    ],
    [
      "ला",
      "ल</w>"
    ],
    [
      "और",
      "तुनि</w>"
    ],
    [
      "कर्",
      "नाटक</w>"
    ],
    [
      "1",
      "8</w>"
    ],
    [
      "प्र",
      "ति"
    ],
    [
      "वे",
      "ंदियूं</w>"
    ],
    [
      "द्व",
      "ार"
    ],
    [
      "उ",
      "तर</w>"
    ],
    [
      "यू",
      "ं,</w>"
    ],
    [
      "हाल",
      "ति</w>"
    ],
    [
      "ت",
      "ر"
    ],
    [
      "س",
      "ي</w>"
    ],
    [
      "्",
      "हि"
    ],
    [
      "रा",
      "जा"
    ],
    [
      "छ",
      "ॾी"
    ],
    [
      "स्ट",
      "ी"
    ],
    [
      "राॼ",
      "धानी</w>"
    ],
    [
      "कय",
      "ूं</w>"
    ],
    [
      "कश्",
      "मीर</w>"
    ],
    [
      "सा",
      "मान</w>"
    ],
    [
      "वे",
      "ंदो।</w>"
    ],
    [
      "कॾहिं-",
      "कॾहिं</w>"
    ],
    [
      "मु",
      "ख़"
    ],
    [
      "अप्र",
      "ैल</w>"
    ],
    [
      "मे",
      "ं"
    ],
    [
      "4",
      "0</w>"
    ],
    [
      "थ",
      "ियूं</w>"
    ],
    [
      "पव",
      "ंदो</w>"
    ],
    [
      "क़िस्",
      "मनि</w>"
    ],
    [
      "ाइ",
      "ल</w>"
    ],
    [
      "दौरा",
      "नि,</w>"
    ],
    [
      "ह",
      "ारा"
    ],
    [
      "मर्",
      "दनि</w>"
    ],
    [
      "च",
      "र</w>"
    ],
    [
      "फ़",
      "ुट"
    ],
    [
      "इ",
      "श"
    ],
    [
      "मार",
      "ी</w>"
    ],
    [
      "रख",
      "ी</w>"
    ],
    [
      "स्",
      "क्र"
    ],
    [
      "फ़",
      "िल्"
    ],
    [
      "ॾख",
      "णु</w>"
    ],
    [
      "1",
      "00</w>"
    ],
    [
      "1",
      "3</w>"
    ],
    [
      "ए",
      "ल"
    ],
    [
      ".",
      "आर"
    ],
    [
      "नद",
      "ियुनि</w>"
    ],
    [
      "बग़ा",
      "वत</w>"
    ],
    [
      "सिया",
      "सी</w>"
    ],
    [
      "ر",
      "ي</w>"
    ],
    [
      "ٽ",
      "ي"
    ],
    [
      "ता",
      "ल</w>"
    ],
    [
      "हिफ़ा",
      "ज़त</w>"
    ],
    [
      "अ",
      "हम"
    ],
    [
      "तरीक़",
      "ो</w>"
    ],
    [
      "अं",
      "तर"
    ],
    [
      "रि",
      "कॉ"
    ],
    [
      "ब",
      "े</w>"
    ],
    [
      "ॾाढ",
      "ी</w>"
    ],
    [
      "मौ",
      "तु</w>"
    ],
    [
      "मंद",
      "रनि</w>"
    ],
    [
      "मुस्लि",
      "म</w>"
    ],
    [
      "पा",
      "स</w>"
    ],
    [
      "डि",
      "सं"
    ],
    [
      "ण",
      "-"
    ],
    [
      "घरा",
      "णे</w>"
    ],
    [
      "م",
      "ي"
    ],
    [
      "तू",
      "फ़ा"
    ],
    [
      "र",
      "ेशन</w>"
    ],
    [
      "जन",
      "वरी</w>"
    ],
    [
      "हिमा",
      "ल"
    ],
    [
      "संभा",
      "ल</w>"
    ],
    [
      "प",
      "ई</w>"
    ],
    [
      "प",
      "नि</w>"
    ],
    [
      ".ए",
      ".</w>"
    ],
    [
      "घ",
      "ट"
    ],
    [
      "श",
      "रह</w>"
    ],
    [
      "एसो",
      "सिए"
    ],
    [
      "वि",
      "कि"
    ],
    [
      "क",
      "पू"
    ],
    [
      "ज",
      "र</w>"
    ],
    [
      "ब",
      "िल"
    ],
    [
      "ने",
      "ट</w>"
    ],
    [
      "अ",
      "स"
    ],
    [
      "अ",
      "ना"
    ],
    [
      "प",
      "ु</w>"
    ],
    [
      "मु",
      "नासि"
    ],
    [
      "त",
      "क़"
    ],
    [
      "प",
      "िया</w>"
    ],
    [
      "नि",
      "वे"
    ],
    [
      "कहा",
      "णी</w>"
    ],
    [
      "ए",
      "च"
    ],
    [
      "پ",
      "و"
    ],
    [
      "ل",
      "ائ"
    ],
    [
      "ॾ",
      "ो"
    ],
    [
      "प",
      "े</w>"
    ],
    [
      ".",
      "टी"
    ],
    [
      "ॾि",
      "नल</w>"
    ],
    [
      "वर्",
      "ल्ड</w>"
    ],
    [
      "रा",
      "व</w>"
    ],
    [
      "शास्",
      "त्र"
    ],
    [
      "।",
      "\"</w>"
    ],
    [
      "खाध",
      "ो</w>"
    ],
    [
      "ड",
      "ु"
    ],
    [
      "म",
      "था"
    ],
    [
      "न",
      "था</w>"
    ],
    [
      "एश",
      "ियाई</w>"
    ],
    [
      "अ",
      "णि"
    ],
    [
      "ग",
      "ौ"
    ],
    [
      "क",
      "ंदड़नि</w>"
    ],
    [
      "जहिड़",
      "ा</w>"
    ],
    [
      "न",
      "र्"
    ],
    [
      "सू",
      "र</w>"
    ],
    [
      "विरि",
      "हा"
    ],
    [
      "ज़िक्र",
      "ु</w>"
    ],
    [
      "व",
      "ॉ"
    ],
    [
      "मिल",
      "ंदी</w>"
    ],
    [
      "ट्रै",
      "क</w>"
    ],
    [
      "ا",
      "م</w>"
    ],
    [
      "ना",
      "म</w>"
    ],
    [
      "रस्",
      "ते</w>"
    ],
    [
      "ॿ",
      "ीं</w>"
    ],
    [
      "पूॼ",
      "ा</w>"
    ],
    [
      "बहि",
      "रो</w>"
    ],
    [
      "वु",
      "ड</w>"
    ],
    [
      "घ",
      "ि</w>"
    ],
    [
      ".",
      "बी"
    ],
    [
      "इ",
      "मार"
    ],
    [
      "अंग्रे",
      "ज़नि</w>"
    ],
    [
      "ि",
      "म</w>"
    ],
    [
      "आउ",
      "ं</w>"
    ],
    [
      "و",
      "ن"
    ],
    [
      "भरि",
      "सां</w>"
    ],
    [
      "स्",
      "के"
    ],
    [
      "ड",
      "ु</w>"
    ],
    [
      "य",
      "क</w>"
    ],
    [
      "पो",
      "लो</w>"
    ],
    [
      "किरो",
      "ड़</w>"
    ],
    [
      "डे",
      "॒"
    ],
    [
      "ि",
      "-"
    ],
    [
      "राज",
      "॒"
    ],
    [
      "थ",
      "िया।</w>"
    ],
    [
      "थ",
      "े"
    ],
    [
      "दि",
      "ल</w>"
    ],
    [
      "न",
      "शी"
    ],
    [
      "पव",
      "े</w>"
    ],
    [
      "इस्",
      "ला"
    ],
    [
      "दे",
      "वी</w>"
    ],
    [
      "किर",
      "ी</w>"
    ],
    [
      "मा",
      "यू"
    ],
    [
      "ल",
      "ियत</w>"
    ],
    [
      "समु",
      "झ"
    ],
    [
      "प",
      "ख"
    ],
    [
      "कर्",
      "म"
    ],
    [
      "हम",
      "लो</w>"
    ],
    [
      "दर्",
      "जु</w>"
    ],
    [
      "ई",
      "ंदी</w>"
    ],
    [
      "क्",
      "टर</w>"
    ],
    [
      "ब",
      ",</w>"
    ],
    [
      "प्र",
      "दर्"
    ],
    [
      "गर्",
      "मी"
    ],
    [
      "सा",
      "ं,</w>"
    ],
    [
      "ध",
      "ो"
    ],
    [
      "ख़ि",
      "ल</w>"
    ],
    [
      "सला",
      "ह"
    ],
    [
      "अमरी",
      "की</w>"
    ],
    [
      "ش",
      "رو"
    ],
    [
      "ि",
      ",</w>"
    ],
    [
      "ेश",
      "</w>"
    ],
    [
      "ट",
      "्यू"
    ],
    [
      "बे",
      "॒"
    ],
    [
      "ल",
      "िय"
    ],
    [
      "पु",
      "ट</w>"
    ],
    [
      "सुञा",
      "णप</w>"
    ],
    [
      ".सी",
      ".</w>"
    ],
    [
      "वा",
      "दी</w>"
    ],
    [
      "ॾि",
      "ए</w>"
    ],
    [
      "सीड़",
      "प"
    ],
    [
      "मु",
      "है"
    ],
    [
      "मुहै",
      "या</w>"
    ],
    [
      "सम",
      "झ"
    ],
    [
      "एसोसिए",
      "शन</w>"
    ],
    [
      "ل",
      "ي</w>"
    ],
    [
      "ॻाल",
      "्हि"
    ],
    [
      "ब",
      "ंदी</w>"
    ],
    [
      "म",
      "कानी</w>"
    ],
    [
      "कृष्",
      "ण</w>"
    ],
    [
      "फ़िल्",
      "म"
    ],
    [
      "ज",
      "ंदड़</w>"
    ],
    [
      "अंदा",
      "ज़ो</w>"
    ],
    [
      "मिल",
      "ंदो</w>"
    ],
    [
      "201",
      "0</w>"
    ],
    [
      "हु",
      "जे</w>"
    ],
    [
      "अॻ",
      "ू"
    ],
    [
      "पु",
      "छ"
    ],
    [
      "फ़",
      "्"
    ],
    [
      "बरा",
      "बर</w>"
    ],
    [
      "सि",
      "हत</w>"
    ],
    [
      "हि",
      "सो</w>"
    ],
    [
      "स",
      "ियत</w>"
    ],
    [
      "19",
      "3"
    ],
    [
      "गॾ",
      "ु,</w>"
    ],
    [
      "न",
      "ग"
    ],
    [
      "ली",
      ",</w>"
    ],
    [
      "म",
      "ंग"
    ],
    [
      "फ",
      "ै"
    ],
    [
      "रु",
      "आ"
    ],
    [
      "उ",
      "ते</w>"
    ],
    [
      "ख़िला",
      "फ़ु</w>"
    ],
    [
      "अला",
      "म"
    ],
    [
      "लॻ",
      "े</w>"
    ],
    [
      "का",
      "ल</w>"
    ],
    [
      "ا",
      "ل</w>"
    ],
    [
      "ئ",
      "ر</w>"
    ],
    [
      "फ़ी",
      "स</w>"
    ],
    [
      "सुल्",
      "तान</w>"
    ],
    [
      "ओडि",
      "शा</w>"
    ],
    [
      "आ",
      "ंध"
    ],
    [
      "आज़ा",
      "दी</w>"
    ],
    [
      "साल",
      "ु</w>"
    ],
    [
      "हिंदु",
      "स्तानी</w>"
    ],
    [
      "वरि",
      "तो</w>"
    ],
    [
      "रा",
      "न</w>"
    ],
    [
      "म",
      "क़"
    ],
    [
      "मु",
      "हि"
    ],
    [
      "दु",
      "का"
    ],
    [
      "वे",
      "ई,</w>"
    ],
    [
      "दु",
      "र्"
    ],
    [
      "गर्मी",
      "प"
    ],
    [
      "तब्दी",
      "ल</w>"
    ],
    [
      "ي",
      "ل</w>"
    ],
    [
      "आ",
      "वा"
    ],
    [
      "द",
      "ॿा"
    ],
    [
      "अद",
      "ाल"
    ],
    [
      "स",
      "ॉ"
    ],
    [
      "नंढ",
      "ो</w>"
    ],
    [
      "बद",
      "िरां</w>"
    ],
    [
      "व",
      "न"
    ],
    [
      "को",
      "र्ट</w>"
    ],
    [
      "हा",
      "ई</w>"
    ],
    [
      "गॾ",
      "ियल</w>"
    ],
    [
      "इ",
      "ंग्"
    ],
    [
      "दा",
      "ख़िल</w>"
    ],
    [
      "و",
      "ا"
    ],
    [
      "म",
      "शु"
    ],
    [
      "6",
      "0</w>"
    ],
    [
      "डे",
      "॒</w>"
    ],
    [
      "खे",
      "त्र</w>"
    ],
    [
      "अवार्",
      "ड</w>"
    ],
    [
      "ना",
      ",</w>"
    ],
    [
      "े",
      "ई</w>"
    ],
    [
      "वि",
      "ध"
    ],
    [
      "भ",
      "ॼ"
    ],
    [
      "स",
      "क़ा"
    ],
    [
      "शि",
      "क"
    ],
    [
      "इस्तै",
      "माल</w>"
    ],
    [
      "क़र",
      "ारु</w>"
    ],
    [
      "जन",
      "मु</w>"
    ],
    [
      "वापार",
      "ी</w>"
    ],
    [
      "ॿ",
      "ंध"
    ],
    [
      "सक़ा",
      "फ़"
    ],
    [
      "स्ट",
      "ार</w>"
    ],
    [
      "म",
      "तल"
    ],
    [
      "मौ",
      "सम</w>"
    ],
    [
      "ं",
      "-"
    ],
    [
      "ु",
      "क"
    ],
    [
      "ख",
      "ा</w>"
    ],
    [
      "लॻ",
      "ो</w>"
    ],
    [
      "सा",
      "बि"
    ],
    [
      "फ़",
      "र"
    ],
    [
      "र",
      "ही"
    ],
    [
      "राष्ट्",
      "र"
    ],
    [
      "कॉले",
      "ज</w>"
    ],
    [
      "फ़",
      "</w>"
    ],
    [
      "स्",
      "ती</w>"
    ],
    [
      "को",
      "ड</w>"
    ],
    [
      "1",
      "1</w>"
    ],
    [
      "मूजि",
      "बि,</w>"
    ],
    [
      "शा",
      "न"
    ],
    [
      "तो",
      "र</w>"
    ],
    [
      "मज़",
      "ह"
    ],
    [
      "प",
      "खि"
    ],
    [
      "इंति",
      "ज़ा"
    ],
    [
      "च",
      "ार्"
    ],
    [
      "बाद",
      "शाह</w>"
    ],
    [
      "ب",
      "ي</w>"
    ],
    [
      "ह",
      "वा</w>"
    ],
    [
      "इ",
      "ल्"
    ],
    [
      "सूब",
      "नि</w>"
    ],
    [
      "द",
      "त</w>"
    ],
    [
      "स",
      "ार"
    ],
    [
      "यो",
      "ग"
    ],
    [
      "सर",
      "गर्"
    ],
    [
      "1",
      "7</w>"
    ],
    [
      "ल",
      "-"
    ],
    [
      "ओल",
      "ही</w>"
    ],
    [
      "केत",
      "रनि</w>"
    ],
    [
      "मि",
      "क</w>"
    ],
    [
      "मो",
      "ट"
    ],
    [
      "शू",
      "टिंग</w>"
    ],
    [
      "छ",
      "्"
    ],
    [
      "ج",
      "ن"
    ],
    [
      "मह",
      "दू"
    ],
    [
      "हु",
      "कु"
    ],
    [
      "इ",
      "द"
    ],
    [
      "ते",
      "लु"
    ],
    [
      "201",
      "5</w>"
    ],
    [
      "ल",
      "ड़"
    ],
    [
      "रो",
      "ज़ा"
    ],
    [
      "ड़",
      "े</w>"
    ],
    [
      "हिदा",
      "यत</w>"
    ],
    [
      "हु",
      "ते</w>"
    ],
    [
      "क्",
      "शन</w>"
    ],
    [
      "वि",
      "ञा"
    ],
    [
      "ड्",
      "राइ"
    ],
    [
      "शु",
      "रुआ"
    ],
    [
      "द",
      "ग"
    ],
    [
      "चि",
      "ं"
    ],
    [
      "भॻ",
      "वान</w>"
    ],
    [
      "वध",
      "ि</w>"
    ],
    [
      "अंग्रे",
      "ज़ी</w>"
    ],
    [
      "क",
      "ंदड़ु</w>"
    ],
    [
      "िय",
      "ूं।</w>"
    ],
    [
      "वे",
      "ब"
    ],
    [
      "र",
      "ियल</w>"
    ],
    [
      "नि",
      "ंग</w>"
    ],
    [
      "विश्",
      "व</w>"
    ],
    [
      "वि",
      "ष्"
    ],
    [
      "2",
      "4</w>"
    ],
    [
      "रिली",
      "ज़</w>"
    ],
    [
      "स्",
      "टि"
    ],
    [
      "म",
      "्यू"
    ],
    [
      "अह",
      "म</w>"
    ],
    [
      "आज़ा",
      "द</w>"
    ],
    [
      "कि",
      "ड़ो</w>"
    ],
    [
      "ल",
      "ंब"
    ],
    [
      "इंड",
      "ो"
    ],
    [
      "ऊ",
      "न्ह"
    ],
    [
      "ते",
      "ज़</w>"
    ],
    [
      "स्",
      "व"
    ],
    [
      "अच",
      "णु</w>"
    ],
    [
      "पहु",
      "ची</w>"
    ],
    [
      "ري",
      "ن</w>"
    ],
    [
      "ب",
      "ين"
    ],
    [
      "परग॒",
      "णे</w>"
    ],
    [
      "रांदी",
      "गर</w>"
    ],
    [
      "टे",
      "ली"
    ],
    [
      "आहे",
      ";</w>"
    ],
    [
      "प",
      "ढ़"
    ],
    [
      "अ",
      "के"
    ],
    [
      "जि",
      "थे</w>"
    ],
    [
      "असु",
      "लु</w>"
    ],
    [
      "ढ",
      "ि"
    ],
    [
      "ड",
      "ब्"
    ],
    [
      "क्",
      "ला"
    ],
    [
      "अॻ",
      "ियां</w>"
    ],
    [
      "ल",
      "क्ष"
    ],
    [
      "ह",
      "थिय"
    ],
    [
      "आद",
      "मशु"
    ],
    [
      "ॿे",
      "ट</w>"
    ],
    [
      "प",
      "द्"
    ],
    [
      "प्रां",
      "त</w>"
    ],
    [
      "छ",
      "डि॒"
    ],
    [
      "कि",
      "रा"
    ],
    [
      "ज़",
      "ाल"
    ],
    [
      "ड़",
      "ि"
    ],
    [
      "ज़िंद",
      "गीअ</w>"
    ],
    [
      "मी",
      "डिया</w>"
    ],
    [
      "जो",
      "ॻ"
    ],
    [
      "का",
      "व"
    ],
    [
      "उत्त",
      "री</w>"
    ],
    [
      "ड॒",
      "ख"
    ],
    [
      "गि",
      "र्"
    ],
    [
      "िर",
      "ियल</w>"
    ],
    [
      "मज",
      "बू"
    ],
    [
      "द्वार",
      "ां</w>"
    ],
    [
      "ने",
      "ठि</w>"
    ],
    [
      "छ",
      "</w>"
    ],
    [
      "त्",
      "म"
    ],
    [
      "मी",
      "ल)</w>"
    ],
    [
      "پ",
      "ه"
    ],
    [
      "آمريڪ",
      "ا</w>"
    ],
    [
      "ह",
      "ीअ</w>"
    ],
    [
      "ं",
      "स"
    ],
    [
      "घ",
      "े"
    ],
    [
      "कु",
      "टु"
    ],
    [
      "तव्ह",
      "ीं</w>"
    ],
    [
      "बा",
      "ज़ी</w>"
    ],
    [
      "ॿो",
      "ॾ"
    ],
    [
      "ज",
      "्"
    ],
    [
      "स्",
      "ट्"
    ],
    [
      "घ",
      "े</w>"
    ],
    [
      ".एस",
      ".</w>"
    ],
    [
      "दो",
      "स्त</w>"
    ],
    [
      "क",
      "था</w>"
    ],
    [
      "मु",
      "सल"
    ],
    [
      "सिक्क",
      "िम</w>"
    ],
    [
      "कला",
      "क</w>"
    ],
    [
      "प्रा",
      "ग</w>"
    ],
    [
      "ڪ",
      "ئي</w>"
    ],
    [
      "ائ",
      "ي</w>"
    ],
    [
      "ت",
      "ع"
    ],
    [
      "टा",
      "भे"
    ],
    [
      "व",
      "िल"
    ],
    [
      "तीर्",
      "थ"
    ],
    [
      "अमेरि",
      "का</w>"
    ],
    [
      "ज",
      "मा</w>"
    ],
    [
      "प",
      "ढ़"
    ],
    [
      "स्ट",
      "ेशन</w>"
    ],
    [
      "च",
      "ंद्र"
    ],
    [
      "मुं",
      "हुं</w>"
    ],
    [
      "आ",
      "र्ट</w>"
    ],
    [
      "और",
      "ंग"
    ],
    [
      "प",
      "क"
    ],
    [
      "अभ्या",
      "स</w>"
    ],
    [
      "वास्",
      "ते</w>"
    ],
    [
      "डि",
      "ट</w>"
    ],
    [
      "सि",
      "न</w>"
    ],
    [
      "ائ",
      "ين</w>"
    ],
    [
      "هو",
      "ءَ</w>"
    ],
    [
      "ऑ",
      "फ</w>"
    ],
    [
      "घु",
      "र्"
    ],
    [
      "क़",
      "त्"
    ],
    [
      "घ",
      "रू</w>"
    ],
    [
      "कोशि",
      "श"
    ],
    [
      "अ",
      "व"
    ],
    [
      "ाइ",
      "न</w>"
    ],
    [
      "फ",
      "ी"
    ],
    [
      "प्र",
      "ि"
    ],
    [
      "ज",
      "ना</w>"
    ],
    [
      "मार",
      "े</w>"
    ],
    [
      "शि",
      "वा"
    ],
    [
      "प्",
      "ला"
    ],
    [
      "थिए",
      "।</w>"
    ],
    [
      "सि",
      ",</w>"
    ],
    [
      "ڪر",
      "ڻ</w>"
    ],
    [
      "اه",
      "ي</w>"
    ],
    [
      "क",
      "्यू"
    ],
    [
      "क़ानू",
      "न</w>"
    ],
    [
      "म्",
      "बर</w>"
    ],
    [
      "ॻोल्ह",
      "ा</w>"
    ],
    [
      "गां",
      "धी</w>"
    ],
    [
      "पु",
      "रु</w>"
    ],
    [
      "तव",
      "ारीख़"
    ],
    [
      "अलॻ",
      "ि-"
    ],
    [
      "अलॻि-",
      "अलॻि</w>"
    ],
    [
      "हिमाल",
      "य</w>"
    ],
    [
      "ऑ",
      "स्ट्रेल"
    ],
    [
      "आ",
      "यो</w>"
    ],
    [
      "उम",
      "िरि</w>"
    ],
    [
      "मर्क",
      "ज़</w>"
    ],
    [
      "ه",
      "ر</w>"
    ],
    [
      "आ",
      "य"
    ],
    [
      "जु",
      "लाई</w>"
    ],
    [
      "ंड",
      "ी"
    ],
    [
      "20",
      "19</w>"
    ],
    [
      "रह",
      "ण</w>"
    ],
    [
      "फ़ाइ",
      "दो</w>"
    ],
    [
      "घ",
      "णी</w>"
    ],
    [
      "मुख",
      "्य"
    ],
    [
      "पै",
      "सो</w>"
    ],
    [
      "च",
      "ढ़"
    ],
    [
      "अक्",
      "सर</w>"
    ],
    [
      "तर",
      "क़्"
    ],
    [
      "वांगु",
      "रु</w>"
    ],
    [
      "मो",
      "ट</w>"
    ],
    [
      "मै",
      "दा"
    ],
    [
      "हू",
      "ंदियूं</w>"
    ],
    [
      "यूनिवर्सि",
      "टी</w>"
    ],
    [
      "झ",
      "ा</w>"
    ],
    [
      "न",
      "ॉ"
    ],
    [
      "समु",
      "ंड</w>"
    ],
    [
      "ती",
      ",</w>"
    ],
    [
      "वॾ",
      "ा</w>"
    ],
    [
      "ف",
      "ي"
    ],
    [
      "و",
      "يند"
    ],
    [
      "त्र",
      "ा</w>"
    ],
    [
      "पंहिं",
      "जा</w>"
    ],
    [
      "फ",
      "ु"
    ],
    [
      "टे",
      "क्"
    ],
    [
      "ने",
      "ह"
    ],
    [
      "स",
      "ॾ"
    ],
    [
      "जब",
      "लनि</w>"
    ],
    [
      "च",
      "ा</w>"
    ],
    [
      "क्त",
      "</w>"
    ],
    [
      "ज़िंद",
      "गी</w>"
    ],
    [
      "पु",
      "रा</w>"
    ],
    [
      "ल",
      "ख"
    ],
    [
      "ग़ै",
      "र-"
    ],
    [
      "वाक़ि",
      "ए</w>"
    ],
    [
      "शि",
      "व</w>"
    ],
    [
      "0",
      "%</w>"
    ],
    [
      "ڪ",
      "ار"
    ],
    [
      "و",
      "ڌ"
    ],
    [
      "तूफ़ा",
      "न</w>"
    ],
    [
      "विचुड़",
      "ंदड़</w>"
    ],
    [
      "20",
      "0</w>"
    ],
    [
      "रु",
      "प"
    ],
    [
      "च",
      "टाभे"
    ],
    [
      "अंतर",
      "राष्ट्रीय</w>"
    ],
    [
      "आबा",
      "दीअ</w>"
    ],
    [
      "ॿिन्ह",
      "ीं</w>"
    ],
    [
      "रेल",
      "वे</w>"
    ],
    [
      "प",
      "वि"
    ],
    [
      "मह",
      "फ़ू"
    ],
    [
      "ठ",
      "ी</w>"
    ],
    [
      "वं",
      "श</w>"
    ],
    [
      "ما",
      "ڻ"
    ],
    [
      "پ",
      "</w>"
    ],
    [
      "मे",
      "घ"
    ],
    [
      "मुतासि",
      "र</w>"
    ],
    [
      "ॻो",
      "ठा"
    ],
    [
      "समा",
      "ज</w>"
    ],
    [
      "त",
      "जुर्"
    ],
    [
      ")",
      "।</w>"
    ],
    [
      "ता",
      "क़त</w>"
    ],
    [
      "नाहे",
      "।</w>"
    ],
    [
      "ब",
      "ा</w>"
    ],
    [
      "चाहि",
      "यो</w>"
    ],
    [
      "उ",
      "द"
    ],
    [
      "ंद",
      "े,</w>"
    ],
    [
      "प",
      "ल</w>"
    ],
    [
      "स",
      "दा"
    ],
    [
      "फ़",
      "ु"
    ],
    [
      ".",
      "मी"
    ],
    [
      "सर",
      "कार"
    ],
    [
      "ध्या",
      "नु</w>"
    ],
    [
      "डे",
      "ल्"
    ],
    [
      "टै",
      "क्स</w>"
    ],
    [
      "अॾा",
      "वत</w>"
    ],
    [
      "री",
      "ज़</w>"
    ],
    [
      "मो",
      "कल</w>"
    ],
    [
      "बरिता",
      "नवी</w>"
    ],
    [
      "म",
      "ियुनि</w>"
    ],
    [
      "ज़",
      "न</w>"
    ],
    [
      "व",
      "्य"
    ],
    [
      "ध",
      "न</w>"
    ],
    [
      "मुनासि",
      "ब</w>"
    ],
    [
      "शा",
      "गिर्"
    ],
    [
      "प्रोग्रा",
      "म</w>"
    ],
    [
      "क",
      "ल्"
    ],
    [
      "मर्क",
      "ज़ी</w>"
    ],
    [
      "म",
      "र</w>"
    ],
    [
      "अं",
      "जा"
    ],
    [
      "पू",
      "रे</w>"
    ],
    [
      "फ़ौज",
      "ि</w>"
    ],
    [
      "ب",
      "</w>"
    ],
    [
      "م",
      "بر</w>"
    ],
    [
      "فل",
      "م</w>"
    ],
    [
      "नेश",
      "्"
    ],
    [
      "ऐला",
      "नु</w>"
    ],
    [
      "सा",
      "थी</w>"
    ],
    [
      "चूंड",
      "ियो</w>"
    ],
    [
      "ब",
      "स</w>"
    ],
    [
      "बचा",
      "उ</w>"
    ],
    [
      "चा",
      "ई</w>"
    ],
    [
      "नुक़्",
      "सान</w>"
    ],
    [
      "म",
      "न"
    ],
    [
      "रि",
      "ंग</w>"
    ],
    [
      "रु",
      "-"
    ],
    [
      "आख़",
      "िर</w>"
    ],
    [
      "क्रे",
      "डिट</w>"
    ],
    [
      "ط",
      "ور</w>"
    ],
    [
      "िर",
      "ो</w>"
    ],
    [
      "अभ",
      "ि"
    ],
    [
      "पव",
      "ंदो।</w>"
    ],
    [
      "नि",
      "ग"
    ],
    [
      "अ",
      "ठ</w>"
    ],
    [
      "कार्यक्र",
      "म</w>"
    ],
    [
      "श",
      "ु</w>"
    ],
    [
      ".ए",
      "म"
    ],
    [
      "गि",
      "॒</w>"
    ],
    [
      "ऊ",
      "ं"
    ],
    [
      "थ",
      "ियुनि</w>"
    ],
    [
      "मा",
      "लू"
    ],
    [
      "यूरो",
      "प</w>"
    ],
    [
      "व",
      "ई।</w>"
    ],
    [
      "भाष",
      "ा</w>"
    ],
    [
      "स",
      "ियुनि</w>"
    ],
    [
      "अ",
      "वामी</w>"
    ],
    [
      "अख",
      "ियुनि</w>"
    ],
    [
      "खे",
      "त्र"
    ],
    [
      "से",
      "ल्"
    ],
    [
      "क",
      "ौ"
    ],
    [
      "स",
      "न"
    ],
    [
      "खिला",
      "ड़ी</w>"
    ],
    [
      "ॿुध",
      "</w>"
    ],
    [
      "व्या",
      "ज</w>"
    ],
    [
      "का",
      "न्ह"
    ],
    [
      "ब",
      "त</w>"
    ],
    [
      "ڏ",
      "هن</w>"
    ],
    [
      "जा",
      "नव"
    ],
    [
      "कुटु",
      "ं"
    ],
    [
      "20",
      "20</w>"
    ],
    [
      "सं",
      "जी"
    ],
    [
      "अला",
      "उ"
    ],
    [
      "स",
      "ार</w>"
    ],
    [
      "शास्त्र",
      "ीय</w>"
    ],
    [
      "द्र",
      "</w>"
    ],
    [
      "स",
      "ख़्त</w>"
    ],
    [
      "इंड",
      "ियन</w>"
    ],
    [
      "तइ",
      "</w>"
    ],
    [
      "्या",
      "ल</w>"
    ],
    [
      "ट",
      "ूं</w>"
    ],
    [
      "द्व",
      "ी"
    ],
    [
      "م",
      "ش"
    ],
    [
      "ن",
      "ي"
    ],
    [
      "ڪ",
      "ند"
    ],
    [
      "सारा",
      "ह</w>"
    ],
    [
      "य",
      "ाल"
    ],
    [
      "रा",
      "ति</w>"
    ],
    [
      "पसंद",
      "ि</w>"
    ],
    [
      "बद",
      "िल"
    ],
    [
      "न",
      "क़ा"
    ],
    [
      "ह",
      "फ़्त"
    ],
    [
      "भाङ",
      "नि</w>"
    ],
    [
      "ॾेखार",
      "ियो</w>"
    ],
    [
      "ख",
      "ोल"
    ],
    [
      "काउ",
      "ं"
    ],
    [
      "स",
      "ल</w>"
    ],
    [
      "रांदीग",
      "रु</w>"
    ],
    [
      "टि",
      "एं</w>"
    ],
    [
      "वा",
      "सी</w>"
    ],
    [
      "मू",
      "ल</w>"
    ],
    [
      "व",
      "रु</w>"
    ],
    [
      "ड़",
      "े"
    ],
    [
      "م",
      "ل"
    ],
    [
      "ेश",
      "्"
    ],
    [
      "क",
      "मनि</w>"
    ],
    [
      "र",
      "गा"
    ],
    [
      "हि",
      "युनि</w>"
    ],
    [
      "सुठ",
      "े</w>"
    ],
    [
      "को",
      "न्ह"
    ],
    [
      "ं",
      "क"
    ],
    [
      "ए",
      "ंड</w>"
    ],
    [
      "कपू",
      "र</w>"
    ],
    [
      "बा",
      "ंग्"
    ],
    [
      "ब्",
      "रह"
    ],
    [
      "ल",
      "ियल</w>"
    ],
    [
      "विर्",
      "हा"
    ],
    [
      "ज़",
      "ार"
    ],
    [
      "ड",
      "्यू"
    ],
    [
      "अहिड़",
      "ा</w>"
    ],
    [
      "स",
      "मि"
    ],
    [
      "ڪ",
      "يو.</w>"
    ],
    [
      "ह",
      "लाइ"
    ],
    [
      "मर्क",
      "ज़ु</w>"
    ],
    [
      "गे",
      "म</w>"
    ],
    [
      "टा",
      "ए</w>"
    ],
    [
      "स",
      "मर्"
    ],
    [
      "सं",
      "घ</w>"
    ],
    [
      "रा",
      "ॻ"
    ],
    [
      "चू",
      "ंड</w>"
    ],
    [
      "च",
      "स्"
    ],
    [
      "रह",
      "णु</w>"
    ],
    [
      "ै",
      "ंड</w>"
    ],
    [
      "हवाल",
      "े</w>"
    ],
    [
      "पवि",
      "त्र</w>"
    ],
    [
      "बांग्",
      "ला"
    ],
    [
      "मुख़",
      "ालि"
    ],
    [
      "ॿी",
      "हर</w>"
    ],
    [
      "आ",
      "ग"
    ],
    [
      "अ",
      "नि</w>"
    ],
    [
      "दर्",
      "ज</w>"
    ],
    [
      "क्रो",
      "स</w>"
    ],
    [
      "ا",
      "و"
    ],
    [
      "م",
      "ن"
    ],
    [
      "मद",
      "दी</w>"
    ],
    [
      "प",
      "न</w>"
    ],
    [
      "च",
      "र्"
    ],
    [
      "ब",
      "ल्"
    ],
    [
      "ाइ",
      "</w>"
    ],
    [
      "टि",
      "व</w>"
    ],
    [
      "दि",
      "क</w>"
    ],
    [
      "शिक",
      "स्त</w>"
    ],
    [
      ".ए",
      "फ"
    ],
    [
      "दा",
      "ख़"
    ],
    [
      "श",
      "ं"
    ],
    [
      "सो",
      "चे</w>"
    ],
    [
      "हु",
      "जे,</w>"
    ],
    [
      "मान",
      "सू"
    ],
    [
      "दा",
      "वा</w>"
    ],
    [
      "रह",
      "ंदो</w>"
    ],
    [
      "ق",
      "ي</w>"
    ],
    [
      "अ",
      "फ़्"
    ],
    [
      "आ",
      "बि"
    ],
    [
      "ब",
      "॒"
    ],
    [
      "ही",
      "उ</w>"
    ],
    [
      "मद",
      "दु</w>"
    ],
    [
      "ि",
      "क"
    ],
    [
      "ॾीं",
      "ह</w>"
    ],
    [
      "चै",
      "म्"
    ],
    [
      "ी",
      "र</w>"
    ],
    [
      "स",
      "द</w>"
    ],
    [
      "न",
      "र"
    ],
    [
      "डि॒",
      "य"
    ],
    [
      "ंड्",
      "रो"
    ],
    [
      "लिख",
      "ियल</w>"
    ],
    [
      "ख़ा",
      "न"
    ],
    [
      "सीड़",
      "प</w>"
    ],
    [
      "डब्",
      "ल्यू"
    ],
    [
      "आउ",
      "ट</w>"
    ],
    [
      "जल्",
      "द</w>"
    ],
    [
      "क़र्",
      "ज़</w>"
    ],
    [
      "आ",
      "सिपा"
    ],
    [
      "ت",
      "ائين</w>"
    ],
    [
      "ر",
      "ه"
    ],
    [
      "का",
      "ह</w>"
    ],
    [
      "सा",
      "मा"
    ],
    [
      "ह",
      "ां</w>"
    ],
    [
      "अधि",
      "कार"
    ],
    [
      "साॻ",
      "ि"
    ],
    [
      "घ",
      "रनि</w>"
    ],
    [
      "मा",
      "लि"
    ],
    [
      "5",
      "00</w>"
    ],
    [
      "जहिड़",
      "े</w>"
    ],
    [
      "ٿ",
      "و.</w>"
    ],
    [
      "ي",
      "ڪ</w>"
    ],
    [
      "वाइ",
      "रस</w>"
    ],
    [
      "ग",
      "ा</w>"
    ],
    [
      "इ",
      "जी</w>"
    ],
    [
      "रो",
      "ड</w>"
    ],
    [
      "ह",
      "मे"
    ],
    [
      "र",
      "सि</w>"
    ],
    [
      "आंध",
      "्"
    ],
    [
      "चव",
      "णु</w>"
    ],
    [
      "महि",
      "ननि</w>"
    ],
    [
      "नुमा",
      "ई</w>"
    ],
    [
      "पै",
      "सनि</w>"
    ],
    [
      "रिकॉ",
      "र्ड</w>"
    ],
    [
      "सा",
      "फ़</w>"
    ],
    [
      "दिल",
      "चस्"
    ],
    [
      "ग",
      "वर्"
    ],
    [
      "विञा",
      "ए</w>"
    ],
    [
      "च",
      "ारु</w>"
    ],
    [
      "ती",
      "ब</w>"
    ],
    [
      "क्ल",
      "ब</w>"
    ],
    [
      "डाय",
      "रे"
    ],
    [
      "क्ष",
      "</w>"
    ],
    [
      "उ",
      "त"
    ],
    [
      "उन",
      "जे</w>"
    ],
    [
      "ख़्त",
      "िय"
    ],
    [
      "ुट",
      "बॉल</w>"
    ],
    [
      "स",
      "री"
    ],
    [
      "के",
      "र"
    ],
    [
      "त",
      "य"
    ],
    [
      "0",
      "-"
    ],
    [
      "ॿाहि",
      "र</w>"
    ],
    [
      "लै",
      "क्रोस</w>"
    ],
    [
      "मुताबिक़",
      "ु,</w>"
    ],
    [
      "ج",
      "ه"
    ],
    [
      "ٽ",
      "ر</w>"
    ],
    [
      "ه",
      "ئي.</w>"
    ],
    [
      "ل",
      "و"
    ],
    [
      ".ए",
      "फ़"
    ],
    [
      "या",
      ",</w>"
    ],
    [
      "च",
      "ंद</w>"
    ],
    [
      "स",
      "ज़ा</w>"
    ],
    [
      "तरीक़",
      "नि</w>"
    ],
    [
      "मिल",
      "ी।</w>"
    ],
    [
      "ट्र",
      "ॉ"
    ],
    [
      "छॾ",
      "ियो,</w>"
    ],
    [
      "उ",
      "ंड"
    ],
    [
      "न",
      "ारा"
    ],
    [
      "मा",
      "ल"
    ],
    [
      "वा",
      "क़"
    ],
    [
      "हू",
      "ंदो।</w>"
    ],
    [
      "ख",
      "्"
    ],
    [
      "म",
      "नो"
    ],
    [
      "िय",
      "ूं,</w>"
    ],
    [
      "प्रोजेक्",
      "ट</w>"
    ],
    [
      "है",
      "दर</w>"
    ],
    [
      "चाही",
      "ंदा</w>"
    ],
    [
      "रह",
      "ंदा</w>"
    ],
    [
      "आ",
      "यो।</w>"
    ],
    [
      "द",
      "ह</w>"
    ],
    [
      "बद",
      "िला"
    ],
    [
      "2",
      "6</w>"
    ],
    [
      "ش",
      "ن</w>"
    ],
    [
      "दहि",
      "लीअ</w>"
    ],
    [
      "म",
      "ीअ</w>"
    ],
    [
      "तेलु",
      "गु</w>"
    ],
    [
      "क़ानू",
      "नी</w>"
    ],
    [
      "ज",
      "ॉ"
    ],
    [
      "बंद",
      "रगा"
    ],
    [
      "सि",
      "धो</w>"
    ],
    [
      "द",
      "स्ता"
    ],
    [
      "थ",
      "िया</w>"
    ],
    [
      "सिने",
      "मा</w>"
    ],
    [
      "च",
      "ां"
    ],
    [
      "ु",
      "नि,</w>"
    ],
    [
      "र",
      "फ़्त"
    ],
    [
      "सि",
      "स्ट"
    ],
    [
      "औरंग",
      "ज़े"
    ],
    [
      "198",
      "0</w>"
    ],
    [
      "1",
      "."
    ],
    [
      ".मी",
      ".</w>"
    ],
    [
      "सु",
      "बु"
    ],
    [
      "निय",
      "म</w>"
    ],
    [
      "द",
      ",</w>"
    ],
    [
      "स",
      "ड़"
    ],
    [
      "ग़ु",
      "फ़ा</w>"
    ],
    [
      "ر",
      "ا"
    ],
    [
      "मार",
      "ीअ</w>"
    ],
    [
      "व",
      "हिं"
    ],
    [
      "रि",
      "पोर्ट</w>"
    ],
    [
      "नेट",
      "वर्"
    ],
    [
      "एं",
      "टी"
    ],
    [
      "रा",
      "बि"
    ],
    [
      "र",
      "खे</w>"
    ],
    [
      "सिय",
      "ारे</w>"
    ],
    [
      "ख़र्",
      "चनि</w>"
    ],
    [
      "या",
      "द</w>"
    ],
    [
      "प",
      "ण</w>"
    ],
    [
      "इंग्",
      "लैंड</w>"
    ],
    [
      "किता",
      "ब</w>"
    ],
    [
      "जि",
      "न</w>"
    ],
    [
      "स",
      "हू"
    ],
    [
      "प",
      "चु</w>"
    ],
    [
      "ا",
      "ص"
    ],
    [
      "सिरि",
      "श्ते</w>"
    ],
    [
      "द",
      "रा"
    ],
    [
      "ए",
      "तिर"
    ],
    [
      "जानव",
      "रनि</w>"
    ],
    [
      "चे",
      "न्न"
    ],
    [
      "हाल",
      "ा"
    ],
    [
      "रि",
      "क</w>"
    ],
    [
      "ग",
      "ॾि"
    ],
    [
      "वेब",
      "साइट</w>"
    ],
    [
      "ह",
      "ण</w>"
    ],
    [
      "अ",
      "ख़"
    ],
    [
      "ताल",
      "ु"
    ],
    [
      "स्को",
      "र</w>"
    ],
    [
      "सिल",
      "सिले</w>"
    ],
    [
      "रि",
      "वा"
    ],
    [
      "2",
      "3</w>"
    ],
    [
      "ज",
      "ो,</w>"
    ],
    [
      "सूब",
      "ो</w>"
    ],
    [
      "औरंगज़े",
      "ब</w>"
    ],
    [
      "ज",
      "ण</w>"
    ],
    [
      "नद",
      "ियूं</w>"
    ],
    [
      "ॻोल्ह",
      "े</w>"
    ],
    [
      "रिया",
      "स"
    ],
    [
      "सा",
      "त"
    ],
    [
      "र",
      "तु</w>"
    ],
    [
      "परि",
      "वार</w>"
    ],
    [
      "डॉ",
      "लर</w>"
    ],
    [
      "तव्हां",
      "खे</w>"
    ],
    [
      "कारोब",
      "ारी</w>"
    ],
    [
      "न",
      "थी</w>"
    ],
    [
      "ٿ",
      "ي.</w>"
    ],
    [
      "ش",
      "</w>"
    ],
    [
      "आ",
      "</w>"
    ],
    [
      "वि",
      "जय"
    ],
    [
      "अॻवा",
      "नी</w>"
    ],
    [
      "200",
      "9</w>"
    ],
    [
      "मक़्स",
      "द</w>"
    ],
    [
      "स",
      "हा"
    ],
    [
      "जु",
      "ड़"
    ],
    [
      "ण",
      ",</w>"
    ],
    [
      "बे",
      "ह"
    ],
    [
      "ठ",
      "ो</w>"
    ],
    [
      "20",
      "00</w>"
    ],
    [
      "मे",
      "ज़"
    ],
    [
      "ज़",
      "ती</w>"
    ],
    [
      "जवा",
      "ब</w>"
    ],
    [
      "ग़",
      "</w>"
    ],
    [
      "जि",
      "स्"
    ],
    [
      "उ",
      "सि"
    ],
    [
      "एक्",
      "स"
    ],
    [
      "शिवा",
      "जी</w>"
    ],
    [
      "म",
      "ल</w>"
    ],
    [
      "आम",
      "तौरु</w>"
    ],
    [
      "ٽ",
      "ن</w>"
    ],
    [
      "نگ",
      "</w>"
    ],
    [
      "م",
      "ار"
    ],
    [
      "न्ह",
      "ी</w>"
    ],
    [
      "वि",
      "ष"
    ],
    [
      "वार",
      "ियूं</w>"
    ],
    [
      "स्ट",
      "ॉ"
    ],
    [
      "र्",
      "य</w>"
    ],
    [
      "अदा",
      "कार</w>"
    ],
    [
      "रा",
      "व"
    ],
    [
      "ते",
      "ज़ीअ</w>"
    ],
    [
      "ज़",
      "ा"
    ],
    [
      "सि",
      "ख</w>"
    ],
    [
      "ब",
      "हा"
    ],
    [
      "ह",
      "ं"
    ],
    [
      "वाप",
      "ार</w>"
    ],
    [
      "मु",
      "ह"
    ],
    [
      "व",
      "रनि</w>"
    ],
    [
      "समा",
      "जी</w>"
    ],
    [
      "200",
      "7</w>"
    ],
    [
      "चङ",
      "ी</w>"
    ],
    [
      "ज",
      ",</w>"
    ],
    [
      "राज",
      "पू"
    ],
    [
      "ंग",
      "ल</w>"
    ],
    [
      "प",
      "ल"
    ],
    [
      "ऑर्ड",
      "र</w>"
    ],
    [
      "पु",
      "ल"
    ],
    [
      "ए",
      "फ़"
    ],
    [
      "तर",
      "क़ी</w>"
    ],
    [
      "डेल्",
      "टा</w>"
    ],
    [
      "वाइ",
      "ती</w>"
    ],
    [
      "आसिपा",
      "सि</w>"
    ],
    [
      "ڪ",
      "ئي.</w>"
    ],
    [
      "सि",
      "ताईं</w>"
    ],
    [
      "उत्त",
      "रा"
    ],
    [
      "गा",
      "वस्"
    ],
    [
      "मुंहिं",
      "जा</w>"
    ],
    [
      "ॿ",
      "ई</w>"
    ],
    [
      "200",
      "8</w>"
    ],
    [
      "मा",
      "मू"
    ],
    [
      "मे",
      "ल</w>"
    ],
    [
      "आंध्",
      "र</w>"
    ],
    [
      "्य",
      "ो"
    ],
    [
      "ू",
      "र</w>"
    ],
    [
      "लो",
      "क</w>"
    ],
    [
      "श",
      "क्त"
    ],
    [
      "िल",
      "ा</w>"
    ],
    [
      "मर्",
      "द</w>"
    ],
    [
      "ऊ",
      "</w>"
    ],
    [
      "ख़",
      "बर"
    ],
    [
      "प",
      "ीअ"
    ],
    [
      "ए",
      "ल्"
    ],
    [
      "ड",
      "न</w>"
    ],
    [
      "ल",
      "ाल"
    ],
    [
      "न",
      "ै"
    ],
    [
      "ज़िल",
      "नि</w>"
    ],
    [
      "5",
      "%</w>"
    ],
    [
      "ंड",
      "ा</w>"
    ],
    [
      "इश",
      "ारो</w>"
    ],
    [
      "सफ़",
      "र</w>"
    ],
    [
      "आख़",
      "िर"
    ],
    [
      "चिं",
      "ता</w>"
    ],
    [
      "پي",
      "د"
    ],
    [
      "ج",
      "</w>"
    ],
    [
      "گ",
      "ي"
    ],
    [
      "و",
      "يو</w>"
    ],
    [
      "सा",
      "गर</w>"
    ],
    [
      "वाध",
      "ारे</w>"
    ],
    [
      "आ",
      "यल</w>"
    ],
    [
      "आयो",
      "जि"
    ],
    [
      "वा",
      "स</w>"
    ],
    [
      "रहि",
      "नुमाई</w>"
    ],
    [
      "भर",
      "ियल</w>"
    ],
    [
      "पि",
      "ण</w>"
    ],
    [
      "मह",
      "ल</w>"
    ],
    [
      "लॻा",
      "यो</w>"
    ],
    [
      "ॻोठ",
      "ु</w>"
    ],
    [
      "प",
      "ृ"
    ],
    [
      "िर",
      "े</w>"
    ],
    [
      "ऑ",
      "क्टो"
    ],
    [
      "दि",
      "मा"
    ],
    [
      "चैम्",
      "पियनशिप</w>"
    ],
    [
      "औ",
      "रत</w>"
    ],
    [
      "क",
      "ंदा।</w>"
    ],
    [
      "थिय",
      "नि</w>"
    ],
    [
      "यू",
      "नाइ"
    ],
    [
      "आ",
      "दि"
    ],
    [
      "चाल",
      "ुक"
    ],
    [
      "ग़ु",
      "फ़ा"
    ],
    [
      "स",
      "चु"
    ],
    [
      "ए",
      "स</w>"
    ],
    [
      "م",
      "ان</w>"
    ],
    [
      "ڪي",
      "تر"
    ],
    [
      "लिया",
      "ती</w>"
    ],
    [
      "गावस्",
      "कर</w>"
    ],
    [
      "लॻा",
      "ए</w>"
    ],
    [
      "सिल",
      "े"
    ],
    [
      "मो",
      "ह"
    ],
    [
      "नेह",
      "रू</w>"
    ],
    [
      "दो",
      "स्"
    ],
    [
      "200",
      "6</w>"
    ],
    [
      "क",
      "मज़"
    ],
    [
      "शि",
      "व"
    ],
    [
      "इ",
      "ब्"
    ],
    [
      "दा",
      "ई</w>"
    ],
    [
      "साॻि",
      "ए</w>"
    ],
    [
      "हि",
      "सा"
    ],
    [
      "कर",
      "े।</w>"
    ],
    [
      "मी",
      "ल</w>"
    ],
    [
      "तक़",
      "री"
    ],
    [
      "ब",
      "ाइ"
    ],
    [
      "सि",
      "क</w>"
    ],
    [
      "गं",
      "भी"
    ],
    [
      "ॼा",
      "ण"
    ],
    [
      "मौक़",
      "ो</w>"
    ],
    [
      "ट्",
      "रा"
    ],
    [
      "स्",
      "वी"
    ],
    [
      "र",
      "दि</w>"
    ],
    [
      "ख़ु",
      "द"
    ],
    [
      "न",
      "स</w>"
    ],
    [
      "श",
      "नि</w>"
    ],
    [
      "पूर्",
      "व</w>"
    ],
    [
      "इज़ा",
      "फ़ी</w>"
    ],
    [
      "ڪم",
      "پن"
    ],
    [
      "वि",
      "जय</w>"
    ],
    [
      "तह",
      "क़ी"
    ],
    [
      "कॉ",
      "र्"
    ],
    [
      "तारीख़",
      "ी</w>"
    ],
    [
      "अहि",
      "सा"
    ],
    [
      "शिलाले",
      "ख</w>"
    ],
    [
      "लॻ",
      "ो।</w>"
    ],
    [
      "यू",
      "ना"
    ],
    [
      "मा",
      "ं"
    ],
    [
      "2",
      "8</w>"
    ],
    [
      "सि",
      "न्"
    ],
    [
      "सिय",
      "स</w>"
    ],
    [
      "क़र",
      "ार</w>"
    ],
    [
      "मिल",
      "ण</w>"
    ],
    [
      "शाय",
      "द</w>"
    ],
    [
      "यूनाइ",
      "टेड</w>"
    ],
    [
      "्ह",
      "</w>"
    ],
    [
      "य",
      "े</w>"
    ],
    [
      "निय",
      "मनि</w>"
    ],
    [
      "प",
      ",</w>"
    ],
    [
      "गु",
      "फ़ा"
    ],
    [
      "पु",
      "री</w>"
    ],
    [
      "वि",
      "द्य"
    ],
    [
      "डि॒",
      "स"
    ],
    [
      "दौरा",
      "न,</w>"
    ],
    [
      "ख",
      "ंड"
    ],
    [
      "दौ",
      "रो</w>"
    ],
    [
      "ी",
      "ंदड़</w>"
    ],
    [
      "ख",
      "ार"
    ],
    [
      "इ",
      "ंद"
    ],
    [
      "झ",
      "ू"
    ],
    [
      "ंड",
      "ि"
    ],
    [
      "ब",
      "म</w>"
    ],
    [
      "अ",
      "सि"
    ],
    [
      "ाई",
      "ंदा</w>"
    ],
    [
      "इ",
      "रा"
    ],
    [
      ".ए",
      "न"
    ],
    [
      "विश्",
      "व"
    ],
    [
      "ड",
      ",</w>"
    ],
    [
      "विकल्",
      "प</w>"
    ],
    [
      "ॿ",
      "ू"
    ],
    [
      "दिल्",
      "लीअ</w>"
    ],
    [
      "जी",
      "त"
    ],
    [
      "शि",
      "न</w>"
    ],
    [
      "महदू",
      "द</w>"
    ],
    [
      "अ",
      "थ"
    ],
    [
      "परेशा",
      "न</w>"
    ],
    [
      "सचु",
      "पचु</w>"
    ],
    [
      "ج",
      "ا</w>"
    ],
    [
      "थिय",
      "लु</w>"
    ],
    [
      "पर",
      "ॻ"
    ],
    [
      "प",
      "ाइ"
    ],
    [
      "ह",
      "रिया"
    ],
    [
      "कॉ",
      "ल</w>"
    ],
    [
      "मेघ",
      "ालय</w>"
    ],
    [
      "च",
      "ो</w>"
    ],
    [
      "199",
      "0</w>"
    ],
    [
      "ड़",
      "नि</w>"
    ],
    [
      "फ़ो",
      "न</w>"
    ],
    [
      "अलाउ",
      "द्दीन</w>"
    ],
    [
      "माम",
      "ले</w>"
    ],
    [
      "श",
      "नु</w>"
    ],
    [
      "स",
      "बूत</w>"
    ],
    [
      "उत्त",
      "र-"
    ],
    [
      "दर",
      "ती</w>"
    ],
    [
      "ट",
      "ुनि</w>"
    ],
    [
      "ॿध",
      "लु</w>"
    ],
    [
      "ॿ",
      "ियूं</w>"
    ],
    [
      "ट्",
      "रां"
    ],
    [
      "सू",
      "बाई</w>"
    ],
    [
      "ए",
      "ड"
    ],
    [
      "क",
      "ट</w>"
    ],
    [
      "बि",
      "रा"
    ],
    [
      "अंद",
      "र</w>"
    ],
    [
      "इं",
      "स्टा"
    ],
    [
      "हु",
      "जनि</w>"
    ],
    [
      "पैदा",
      "वार</w>"
    ],
    [
      "बरिता",
      "निया</w>"
    ],
    [
      "ج",
      "و"
    ],
    [
      "आहिया",
      "ं,</w>"
    ],
    [
      "प",
      "ध"
    ],
    [
      "है",
      "दरा"
    ],
    [
      "र",
      "हा"
    ],
    [
      "ृ",
      "त"
    ],
    [
      "र",
      "ेश"
    ],
    [
      "राजा",
      "उनि</w>"
    ],
    [
      "चौ",
      "रसि</w>"
    ],
    [
      "ाई",
      "अ</w>"
    ],
    [
      "2",
      "7</w>"
    ],
    [
      "ग्राह",
      "कनि</w>"
    ],
    [
      "व",
      "िया,</w>"
    ],
    [
      "िर",
      "ा</w>"
    ],
    [
      "ज़",
      "ख़्"
    ],
    [
      "ट",
      "ण</w>"
    ],
    [
      "पृ",
      "थ्"
    ],
    [
      "मै",
      "सूर</w>"
    ],
    [
      "भू",
      "मि"
    ],
    [
      "खे",
      "ॾी</w>"
    ],
    [
      "हो",
      "ली</w>"
    ],
    [
      "क्",
      "स"
    ],
    [
      "मुख़्तलि",
      "फ़ु</w>"
    ],
    [
      "ड़",
      "ियुनि</w>"
    ],
    [
      "सा",
      "मु"
    ],
    [
      "वे",
      "ढ़"
    ],
    [
      "को",
      "शा"
    ],
    [
      "ल्",
      "टी</w>"
    ],
    [
      "اس",
      "ٽ"
    ],
    [
      "अदाल",
      "त</w>"
    ],
    [
      "ट",
      "ियुनि</w>"
    ],
    [
      "हु",
      "क्"
    ],
    [
      "च",
      "्"
    ],
    [
      "वा",
      "ह</w>"
    ],
    [
      "ॿ",
      "ार"
    ],
    [
      "द",
      "वाउनि</w>"
    ],
    [
      "आ",
      "ई।</w>"
    ],
    [
      "तक",
      "नी"
    ],
    [
      "न",
      "ंबर</w>"
    ],
    [
      "कु",
      "मार"
    ],
    [
      "क",
      "ंदो।</w>"
    ],
    [
      "पेशे",
      "वर</w>"
    ],
    [
      "से",
      "ट</w>"
    ],
    [
      "फ़",
      "तह</w>"
    ],
    [
      "मा",
      "ननि</w>"
    ],
    [
      "इम्",
      "कान</w>"
    ],
    [
      "तार",
      "ि</w>"
    ],
    [
      "य",
      "न</w>"
    ],
    [
      "ना",
      "का"
    ],
    [
      "त",
      "ो,</w>"
    ],
    [
      "वि",
      "ज्ञ"
    ],
    [
      "सी",
      "ं</w>"
    ],
    [
      "बि",
      "हार</w>"
    ],
    [
      "द्वी",
      "प</w>"
    ],
    [
      ".एल",
      ".</w>"
    ],
    [
      "ब्",
      "रे"
    ],
    [
      "आख़",
      "िरि</w>"
    ],
    [
      "शुरुआ",
      "त</w>"
    ],
    [
      "स्",
      "वा"
    ],
    [
      "सोच",
      "ियो</w>"
    ],
    [
      "शा",
      "स"
    ],
    [
      "پ",
      "ار"
    ],
    [
      "شرو",
      "ع</w>"
    ],
    [
      "साम्",
      "राज्य</w>"
    ],
    [
      "न",
      "्या"
    ],
    [
      "स्",
      "टिक</w>"
    ],
    [
      "नव",
      "ंबर</w>"
    ],
    [
      "ति",
      ",</w>"
    ],
    [
      "ॿुधा",
      "ए</w>"
    ],
    [
      "रही",
      "।</w>"
    ],
    [
      "कै",
      "ं"
    ],
    [
      "मामू",
      "ली</w>"
    ],
    [
      "बहि",
      "तरु</w>"
    ],
    [
      "क",
      "नाड"
    ],
    [
      "अ",
      "ॾ"
    ],
    [
      "मणि",
      "पुर</w>"
    ],
    [
      "तस्",
      "दी"
    ],
    [
      "व",
      "्"
    ],
    [
      "श",
      "ो</w>"
    ],
    [
      "ह",
      "ल्"
    ],
    [
      "मही",
      "ने</w>"
    ],
    [
      "ॿोल",
      "ीअ</w>"
    ],
    [
      "ग",
      "र"
    ],
    [
      "शा",
      "ह"
    ],
    [
      "197",
      "0</w>"
    ],
    [
      "सघ",
      "े।</w>"
    ],
    [
      "सा",
      "मू"
    ],
    [
      "झ",
      "ा"
    ],
    [
      "हुअ",
      "ण</w>"
    ],
    [
      "भी",
      "म</w>"
    ],
    [
      "बांग्ला",
      "देश</w>"
    ],
    [
      "र",
      "वायती</w>"
    ],
    [
      "प",
      "स"
    ],
    [
      "व",
      "ग़ै"
    ],
    [
      "्य",
      "ु"
    ],
    [
      "क",
      "ब्ज़ो</w>"
    ],
    [
      "बीमार",
      "ी</w>"
    ],
    [
      "सर",
      "हद</w>"
    ],
    [
      "आहे",
      "!</w>"
    ],
    [
      "कार्",
      "ट</w>"
    ],
    [
      "केतिर",
      "ो</w>"
    ],
    [
      "सा",
      "ह</w>"
    ],
    [
      "कोशा",
      "ण"
    ],
    [
      "ग़ल",
      "त</w>"
    ],
    [
      "وڌ",
      "يڪ</w>"
    ],
    [
      "मिल",
      "ियन</w>"
    ],
    [
      "दॿा",
      "उ</w>"
    ],
    [
      "य",
      "क़ी"
    ],
    [
      "थ",
      "न</w>"
    ],
    [
      "से",
      "ना"
    ],
    [
      "मल",
      "याल"
    ],
    [
      "इस्",
      "प"
    ],
    [
      "जल्",
      "दी</w>"
    ],
    [
      "छा",
      "ड़ीअ</w>"
    ],
    [
      "जब",
      "ल</w>"
    ],
    [
      "यु",
      "क्त</w>"
    ],
    [
      "नती",
      "जो</w>"
    ],
    [
      "टोल",
      "े</w>"
    ],
    [
      "चङ",
      "ो</w>"
    ],
    [
      "रा",
      "यो</w>"
    ],
    [
      "रख",
      "ो।</w>"
    ],
    [
      "शि",
      "का"
    ],
    [
      "तह",
      "त</w>"
    ],
    [
      "लॻा",
      "तारि</w>"
    ],
    [
      "बिल्",
      "कुल</w>"
    ],
    [
      "و",
      "ئي.</w>"
    ],
    [
      "ي",
      "،</w>"
    ],
    [
      "मे",
      "ला"
    ],
    [
      "ि",
      "का</w>"
    ],
    [
      "न्",
      "ना</w>"
    ],
    [
      "लॻ",
      "ंदो</w>"
    ],
    [
      "ा",
      "यो।</w>"
    ],
    [
      "उ",
      "ॾा"
    ],
    [
      "परी",
      "वार</w>"
    ],
    [
      "पुठ",
      "ि"
    ],
    [
      "दस्त",
      "ूरी</w>"
    ],
    [
      "ऑ",
      "ग"
    ],
    [
      "आज़ा",
      "दीअ</w>"
    ],
    [
      "इम्",
      "कानी</w>"
    ],
    [
      "वै",
      "दिक</w>"
    ],
    [
      "व",
      "ो"
    ],
    [
      "सी",
      "ज़न</w>"
    ],
    [
      "ण",
      "ो"
    ],
    [
      "ल",
      "म</w>"
    ],
    [
      "ी",
      "ंदा</w>"
    ],
    [
      "ह",
      "मिल"
    ],
    [
      "सिस्ट",
      "म</w>"
    ],
    [
      "खा",
      "तो</w>"
    ],
    [
      "ई",
      "स्ट</w>"
    ],
    [
      "प",
      "ना"
    ],
    [
      "तबा",
      "ह</w>"
    ],
    [
      "स्",
      "पे"
    ],
    [
      "कि",
      ".मी.</w>"
    ],
    [
      "इंसा",
      "नी</w>"
    ],
    [
      ".",
      "वी"
    ],
    [
      "भ",
      "रो"
    ],
    [
      "य",
      "ों</w>"
    ],
    [
      "लि",
      "न</w>"
    ],
    [
      "घटि",
      "जी</w>"
    ],
    [
      "ओलि",
      "हि</w>"
    ],
    [
      "ٽ",
      "ي</w>"
    ],
    [
      "ه",
      "ئ"
    ],
    [
      "ख",
      "पे"
    ],
    [
      "ह",
      "ोल"
    ],
    [
      "कामया",
      "बु</w>"
    ],
    [
      "ओ",
      "चि"
    ],
    [
      "कुटुं",
      "ब</w>"
    ],
    [
      "अम",
      "ल</w>"
    ],
    [
      "ते",
      "ल"
    ],
    [
      "हफ़्त",
      "नि</w>"
    ],
    [
      "फ",
      "ाइ"
    ],
    [
      "न",
      "क़"
    ],
    [
      "धा",
      "न"
    ],
    [
      "मो",
      "क"
    ],
    [
      "रा",
      "ब्"
    ],
    [
      "मुताबिक़",
      "ु</w>"
    ],
    [
      "आ",
      "ब"
    ],
    [
      "सि",
      "ंड्रो"
    ],
    [
      "संगी",
      "त"
    ],
    [
      "ॾु",
      "ख"
    ],
    [
      "पार्",
      "क</w>"
    ],
    [
      "ड",
      "र</w>"
    ],
    [
      "ड्",
      "स</w>"
    ],
    [
      "हाल",
      "ां"
    ],
    [
      "थ",
      "िर"
    ],
    [
      "शा",
      "सन</w>"
    ],
    [
      "उ",
      "पा"
    ],
    [
      "सरकार",
      "ि</w>"
    ],
    [
      "सुबु",
      "ह</w>"
    ],
    [
      "ट",
      "ॉ"
    ],
    [
      "मै",
      "ने"
    ],
    [
      "ण",
      "्"
    ],
    [
      "वास्",
      "तु"
    ],
    [
      "ठ",
      "ीक</w>"
    ],
    [
      "م",
      "ن</w>"
    ],
    [
      "ٿ",
      "يو.</w>"
    ],
    [
      "रे",
      "टिंग</w>"
    ],
    [
      "अदाकार",
      "ा</w>"
    ],
    [
      "200",
      "1</w>"
    ],
    [
      "आ",
      "ज़"
    ],
    [
      "म",
      "नी</w>"
    ],
    [
      "जा",
      "पा"
    ],
    [
      "टेली",
      "वि"
    ],
    [
      "तवारीख़",
      "ी</w>"
    ],
    [
      "ल",
      "ू</w>"
    ],
    [
      "ज़ाब्",
      "तो</w>"
    ],
    [
      "ो",
      "ह</w>"
    ],
    [
      "म",
      "ज़ा"
    ],
    [
      "ंद",
      "ी,</w>"
    ],
    [
      "थी",
      "ंदो।</w>"
    ],
    [
      "अधिकार",
      "ियुनि</w>"
    ],
    [
      "म",
      "िल्"
    ],
    [
      "मि",
      "र्"
    ],
    [
      "दुका",
      "ननि</w>"
    ],
    [
      "उप",
      "महा"
    ],
    [
      "तइ",
      "लीम</w>"
    ],
    [
      "क",
      "ाइ"
    ],
    [
      "कि",
      "नि</w>"
    ],
    [
      "नी",
      "ति</w>"
    ],
    [
      "दे",
      "र</w>"
    ],
    [
      "स्",
      "वी</w>"
    ],
    [
      "8",
      "0</w>"
    ],
    [
      "ु",
      "-"
    ],
    [
      "प",
      "्त"
    ],
    [
      "र",
      "ण</w>"
    ],
    [
      "ग़",
      "री"
    ],
    [
      "गुज़",
      "िरियल</w>"
    ],
    [
      "इंडो",
      "-"
    ],
    [
      "जेतो",
      "ण"
    ],
    [
      "शिलाले",
      "ख"
    ],
    [
      "टे",
      "ल</w>"
    ],
    [
      "साबि",
      "त</w>"
    ],
    [
      "ॻ",
      "ु</w>"
    ],
    [
      "को",
      "ल"
    ],
    [
      "मुग़",
      "लनि</w>"
    ],
    [
      "क़",
      "बी"
    ],
    [
      "वापार",
      "ु</w>"
    ],
    [
      "वि",
      "का"
    ],
    [
      "पुरा",
      "णे</w>"
    ],
    [
      "अभ्या",
      "सु</w>"
    ],
    [
      "निय",
      "न</w>"
    ],
    [
      "मंद",
      "</w>"
    ],
    [
      "स्टे",
      "ड"
    ],
    [
      "परि",
      "ष"
    ],
    [
      "ॿ",
      "ियों</w>"
    ],
    [
      "ह",
      "रि"
    ],
    [
      "पे",
      "रिय"
    ],
    [
      "प",
      "ू</w>"
    ],
    [
      "छ",
      "ू"
    ],
    [
      "मानसू",
      "न</w>"
    ],
    [
      "अ",
      "न"
    ],
    [
      "च",
      "ल</w>"
    ],
    [
      "महसू",
      "स</w>"
    ],
    [
      "पुल",
      "के"
    ],
    [
      "पुलके",
      "शिन</w>"
    ],
    [
      "पि",
      "ए</w>"
    ],
    [
      "ट",
      "रनि</w>"
    ],
    [
      "शि",
      "किल"
    ],
    [
      "मुला",
      "क़ा"
    ],
    [
      "ॿुध",
      "ी</w>"
    ],
    [
      "विरो",
      "ध</w>"
    ],
    [
      "ش",
      "هر</w>"
    ],
    [
      "مش",
      "هو"
    ],
    [
      "مشهو",
      "ر</w>"
    ],
    [
      "آ",
      "ر"
    ],
    [
      "ما",
      "ل</w>"
    ],
    [
      "ا",
      "ت</w>"
    ],
    [
      "ڻ",
      "ي</w>"
    ],
    [
      "बे",
      "सिन</w>"
    ],
    [
      "त",
      "क</w>"
    ],
    [
      "सव",
      "लो</w>"
    ],
    [
      "र",
      "क्ष"
    ],
    [
      "ब्",
      "लॉ"
    ],
    [
      "हॉ",
      "की</w>"
    ],
    [
      "कला",
      "कनि</w>"
    ],
    [
      "उ",
      "न्ह"
    ],
    [
      "बंग",
      "ाली</w>"
    ],
    [
      "ण",
      "ियुनि</w>"
    ],
    [
      "मि",
      "न</w>"
    ],
    [
      "स्",
      "क्"
    ],
    [
      "बाग़",
      "</w>"
    ],
    [
      "घुरि",
      "जे</w>"
    ],
    [
      "पु",
      "र्"
    ],
    [
      "त्रि",
      "पुरा</w>"
    ],
    [
      "ट्ट",
      "ी</w>"
    ],
    [
      "फ़िल्",
      "म</w>"
    ],
    [
      "ंड",
      "ो</w>"
    ],
    [
      "बीमार",
      "ीअ</w>"
    ],
    [
      "ट्रो",
      "ल</w>"
    ],
    [
      "सु",
      "पर"
    ],
    [
      "इला",
      "जु</w>"
    ],
    [
      "फ़",
      "े</w>"
    ],
    [
      "ई",
      "ंदे</w>"
    ],
    [
      "194",
      "7</w>"
    ],
    [
      "समे",
      "त</w>"
    ],
    [
      "सी",
      ",</w>"
    ],
    [
      "ख़र्",
      "चु</w>"
    ],
    [
      "को",
      "र्"
    ],
    [
      "ज़",
      "ोर</w>"
    ],
    [
      "सि",
      "र्"
    ],
    [
      "پيد",
      "ا</w>"
    ],
    [
      "ه",
      "ي</w>"
    ],
    [
      "اس",
      "تع"
    ],
    [
      "नि",
      "क"
    ],
    [
      "वाहि",
      "द</w>"
    ],
    [
      "रां",
      "सी"
    ],
    [
      "द्र",
      "ा"
    ],
    [
      "स",
      "रनि</w>"
    ],
    [
      "ती",
      "।</w>"
    ],
    [
      "क़",
      "ै"
    ],
    [
      "मिल",
      "ियो।</w>"
    ],
    [
      "र",
      "ं"
    ],
    [
      "मञ",
      "णु</w>"
    ],
    [
      "संस्कृ",
      "त</w>"
    ],
    [
      "पु",
      "रम</w>"
    ],
    [
      "मु",
      "क़ा"
    ],
    [
      "यो",
      "जना</w>"
    ],
    [
      "उप",
      "ति</w>"
    ],
    [
      "ई",
      "ंद"
    ],
    [
      "उ",
      "र्"
    ],
    [
      "ख़ि",
      "ता"
    ],
    [
      "व",
      "हि"
    ],
    [
      "मा",
      "हौ"
    ],
    [
      "वि",
      "धान</w>"
    ],
    [
      "उप",
      "निवे"
    ],
    [
      "वॾ",
      "नि</w>"
    ],
    [
      "बरसा",
      "त</w>"
    ],
    [
      "त",
      "कर"
    ],
    [
      "प",
      "ह"
    ],
    [
      "س",
      "ا"
    ],
    [
      "ॻ",
      "ु"
    ],
    [
      "ड",
      "रेशन</w>"
    ],
    [
      "ू",
      "प</w>"
    ],
    [
      "पु",
      "रस्"
    ],
    [
      "चेन्न",
      "ई</w>"
    ],
    [
      "महि",
      "सू"
    ],
    [
      "द",
      "गी</w>"
    ],
    [
      "ना",
      "क</w>"
    ],
    [
      "ल",
      "ड़"
    ],
    [
      "िय",
      "</w>"
    ],
    [
      "रख",
      "ियो।</w>"
    ],
    [
      "ब्रा",
      "ह"
    ],
    [
      "प्र",
      "धान</w>"
    ],
    [
      "नौ",
      "करी</w>"
    ],
    [
      "री",
      "ं</w>"
    ],
    [
      "सं",
      "युक्त</w>"
    ],
    [
      "रिय",
      "न</w>"
    ],
    [
      "त",
      "ग"
    ],
    [
      "सिंड्रो",
      "म</w>"
    ],
    [
      "पृथ्",
      "वी"
    ],
    [
      "2",
      ","
    ],
    [
      "कंप",
      "नीअ</w>"
    ],
    [
      "सेल्",
      "सियस</w>"
    ],
    [
      "मसइ",
      "लनि</w>"
    ],
    [
      "अ",
      "घ</w>"
    ],
    [
      "9",
      "0</w>"
    ],
    [
      "सफ़",
      "रु</w>"
    ],
    [
      "सामु",
      "ंडी</w>"
    ],
    [
      "बिज",
      "ली</w>"
    ],
    [
      "अंद",
      "रू"
    ],
    [
      "रहि",
      "जी</w>"
    ],
    [
      "बॉ",
      "क्"
    ],
    [
      "इन",
      "करे</w>"
    ],
    [
      "س",
      "ال"
    ],
    [
      "ٽ",
      "ر"
    ],
    [
      "बंद",
      "ोब"
    ],
    [
      "ब",
      "ल"
    ],
    [
      "सू",
      "रत</w>"
    ],
    [
      "स्क्र",
      "ीन</w>"
    ],
    [
      "रा",
      "जे"
    ],
    [
      "बी",
      "ठ"
    ],
    [
      "क",
      "व"
    ],
    [
      "रख",
      "ंदा</w>"
    ],
    [
      "दस्ता",
      "वे"
    ],
    [
      "ट",
      "ियों</w>"
    ],
    [
      "ाल",
      "ु</w>"
    ],
    [
      "टी",
      ",</w>"
    ],
    [
      "सं",
      "क्र"
    ],
    [
      "200",
      "5</w>"
    ],
    [
      "मै",
      "न</w>"
    ],
    [
      "रो",
      "के</w>"
    ],
    [
      "ॻोल्ह",
      "ण</w>"
    ],
    [
      "5",
      "0"
    ],
    [
      "रा",
      "ट</w>"
    ],
    [
      "पु",
      "त्र</w>"
    ],
    [
      "तु",
      "ल"
    ],
    [
      "पसंद",
      "</w>"
    ],
    [
      "वा",
      "ऊं</w>"
    ],
    [
      "अॻ",
      "ु,</w>"
    ],
    [
      "सॼ",
      "ो</w>"
    ],
    [
      "7",
      "0</w>"
    ],
    [
      "मुश्",
      "किल</w>"
    ],
    [
      "श",
      "राब</w>"
    ],
    [
      "स",
      "फ़ा"
    ],
    [
      "िल",
      "ी</w>"
    ],
    [
      "जन",
      "जा"
    ],
    [
      "डि",
      "ंग</w>"
    ],
    [
      "ॾख",
      "ण-"
    ],
    [
      "सात",
      "वाह"
    ],
    [
      "ड",
      "ा</w>"
    ],
    [
      "सर",
      "अंजा"
    ],
    [
      "असि",
      "राइ"
    ],
    [
      "बाल",
      "ु</w>"
    ],
    [
      "ख़त",
      "म</w>"
    ],
    [
      "जहिड़",
      "ो"
    ],
    [
      "भु",
      "ॻ"
    ],
    [
      "ख़तर",
      "े</w>"
    ],
    [
      "استع",
      "مال</w>"
    ],
    [
      "सू",
      "अ"
    ],
    [
      "सब",
      "ब</w>"
    ],
    [
      "झ",
      "े</w>"
    ],
    [
      "ब",
      "री</w>"
    ],
    [
      "तेल",
      "ंगा"
    ],
    [
      "ॻोठ",
      "नि</w>"
    ],
    [
      "गा",
      "य"
    ],
    [
      "लि",
      "हा"
    ],
    [
      "क",
      "ंदियूं</w>"
    ],
    [
      "च",
      "क्र"
    ],
    [
      "िल",
      "ि"
    ],
    [
      "चंद्र",
      "गुप्त</w>"
    ],
    [
      "कि",
      "श"
    ],
    [
      "प्रदर्",
      "शन</w>"
    ],
    [
      "ले",
      "ट</w>"
    ],
    [
      "ठा",
      "ही</w>"
    ],
    [
      "वे",
      "ं"
    ],
    [
      "क़ु",
      "दरती</w>"
    ],
    [
      "हंध",
      "ु</w>"
    ],
    [
      "क्",
      "ट</w>"
    ],
    [
      "वा",
      "नी</w>"
    ],
    [
      "तहक़ी",
      "क़</w>"
    ],
    [
      "शान",
      "दार</w>"
    ],
    [
      "मूजि",
      "बि</w>"
    ],
    [
      "का",
      ",</w>"
    ],
    [
      "हिंदु",
      "स्तान</w>"
    ],
    [
      "फ",
      "िल्"
    ],
    [
      "बुनिया",
      "दु</w>"
    ],
    [
      "क़ी",
      "म"
    ],
    [
      "ध",
      "े</w>"
    ],
    [
      "य",
      "ार"
    ],
    [
      "स्",
      "ट्रो"
    ],
    [
      "ना",
      "हे</w>"
    ],
    [
      "थिय",
      "ूं,</w>"
    ],
    [
      "ज",
      "ीअ"
    ],
    [
      ".आई",
      ".</w>"
    ],
    [
      "जि",
      "ंहिं</w>"
    ],
    [
      "ن",
      "و"
    ],
    [
      "و",
      "ڏ"
    ],
    [
      "ن",
      "ه</w>"
    ],
    [
      "ب",
      "ه</w>"
    ],
    [
      "س",
      "و"
    ],
    [
      "न",
      "म</w>"
    ],
    [
      "वि",
      "भा"
    ],
    [
      "हैदरा",
      "बाद</w>"
    ],
    [
      ".पी",
      ".</w>"
    ],
    [
      "भा",
      "उ"
    ],
    [
      "निर्मा",
      "णु</w>"
    ],
    [
      "घा",
      "ट</w>"
    ],
    [
      "200",
      "4</w>"
    ],
    [
      "वञ",
      "नि</w>"
    ],
    [
      "द्",
      "दा"
    ],
    [
      "टि",
      "स</w>"
    ],
    [
      "कर",
      "ियर</w>"
    ],
    [
      "ः",
      "</w>"
    ],
    [
      "रख",
      "ो</w>"
    ],
    [
      "रो",
      "श"
    ],
    [
      "प",
      "हल"
    ],
    [
      "लफ़्",
      "ज़ु</w>"
    ],
    [
      "ख़ु",
      "द</w>"
    ],
    [
      "य",
      ",</w>"
    ],
    [
      "इब्",
      "ति"
    ],
    [
      "पव",
      "ंदी</w>"
    ],
    [
      "ॻ",
      "ंढ"
    ],
    [
      "शे",
      "वा</w>"
    ],
    [
      "वा",
      ",</w>"
    ],
    [
      "अहिड़",
      "नि</w>"
    ],
    [
      "सेप्",
      "ट"
    ],
    [
      "म",
      "-"
    ],
    [
      "इंटर",
      "नेशनल</w>"
    ],
    [
      "पेरिय",
      "ार</w>"
    ],
    [
      "त",
      "ू</w>"
    ],
    [
      "छो",
      "किर"
    ],
    [
      "प",
      "द"
    ],
    [
      "रोॻ",
      "ु</w>"
    ],
    [
      "फ",
      "ुटबॉल</w>"
    ],
    [
      "क्",
      "लाइ"
    ],
    [
      "बी",
      "र</w>"
    ],
    [
      "इंस्टा",
      "कार्ट</w>"
    ],
    [
      "घ",
      "रि</w>"
    ],
    [
      "बाल",
      "ा"
    ],
    [
      "जि",
      "ंसी</w>"
    ],
    [
      "री",
      "का</w>"
    ],
    [
      "घु",
      "र</w>"
    ],
    [
      "दा",
      "स</w>"
    ],
    [
      "रांद",
      "</w>"
    ],
    [
      "ट",
      "णु</w>"
    ],
    [
      "महा",
      "न</w>"
    ],
    [
      "तेलंगा",
      "ना</w>"
    ],
    [
      "दार",
      "ीअ</w>"
    ],
    [
      "या",
      "दि</w>"
    ],
    [
      "ष",
      "ि</w>"
    ],
    [
      "कर",
      "ो"
    ],
    [
      "इ",
      "लेक्"
    ],
    [
      "बहा",
      "दु"
    ],
    [
      "म",
      "क़बूलु</w>"
    ],
    [
      "उ",
      "भ"
    ],
    [
      "दर्",
      "जो</w>"
    ],
    [
      "सि",
      "फ़"
    ],
    [
      "ति",
      "ब्"
    ],
    [
      "क",
      "पि"
    ],
    [
      "जाइ",
      "ज़ो</w>"
    ],
    [
      "मज़ह",
      "बी</w>"
    ],
    [
      "फ",
      "ी</w>"
    ],
    [
      "चौ",
      "ध"
    ],
    [
      "तिर",
      "ु"
    ],
    [
      "संजी",
      "दह</w>"
    ],
    [
      "मुलाक़ा",
      "त</w>"
    ],
    [
      "ख़तर",
      "ो</w>"
    ],
    [
      "अच",
      "े।</w>"
    ],
    [
      "ल",
      "क़"
    ],
    [
      "मय",
      "ार</w>"
    ],
    [
      "समू",
      "ह</w>"
    ],
    [
      "ए",
      "जे"
    ],
    [
      "व",
      "डे॒</w>"
    ],
    [
      "निर्",
      "भ"
    ],
    [
      "ना",
      "मज़"
    ],
    [
      "डि॒",
      "नी</w>"
    ],
    [
      "रख",
      "ंदड़</w>"
    ],
    [
      "अ",
      "ल</w>"
    ],
    [
      "ग्र",
      "ं"
    ],
    [
      "2",
      "9</w>"
    ],
    [
      "म",
      "ियत</w>"
    ],
    [
      "हवाल",
      "ो</w>"
    ],
    [
      "टी",
      "पू</w>"
    ],
    [
      "ड़",
      "ियुनि</w>"
    ],
    [
      "मौ",
      "र्य</w>"
    ],
    [
      "ब",
      "ंध"
    ],
    [
      "ध",
      "ु</w>"
    ],
    [
      "20",
      "21</w>"
    ],
    [
      "दु",
      "श्"
    ],
    [
      "मुनक़ि",
      "द</w>"
    ],
    [
      "पु",
      "झा</w>"
    ],
    [
      "त्",
      "व</w>"
    ],
    [
      "पथ",
      "र</w>"
    ],
    [
      "प",
      "ार</w>"
    ],
    [
      "ड",
      "र्"
    ],
    [
      "ڪمپن",
      "ي</w>"
    ],
    [
      "ان",
      "گ"
    ],
    [
      "वसी",
      "लनि</w>"
    ],
    [
      "ंग",
      "ी</w>"
    ],
    [
      "कारोब",
      "ार</w>"
    ],
    [
      "ब",
      "न</w>"
    ],
    [
      "मंड",
      "ल</w>"
    ],
    [
      "जि",
      "न्हनि</w>"
    ],
    [
      ".",
      "ओ"
    ],
    [
      "वध",
      "ाइणु</w>"
    ],
    [
      "इंटर",
      "नेट</w>"
    ],
    [
      "क",
      "ियत</w>"
    ],
    [
      "पृथ्वी",
      "राज</w>"
    ],
    [
      "पुरा",
      "णो</w>"
    ],
    [
      "नेटवर्",
      "क</w>"
    ],
    [
      "फ़्",
      "त</w>"
    ],
    [
      "प्रो",
      "ड"
    ],
    [
      "हू",
      "ंदी।</w>"
    ],
    [
      "ख़्",
      "वा"
    ],
    [
      "ऑक्टो",
      "बर</w>"
    ],
    [
      "हल",
      "ंदड़</w>"
    ],
    [
      "मौजूद",
      "गी</w>"
    ],
    [
      "हिफ़ा",
      "ज़ती</w>"
    ],
    [
      "ई",
      "साई</w>"
    ],
    [
      "बण",
      "ाए</w>"
    ],
    [
      "बु",
      "क</w>"
    ],
    [
      "मु",
      "सा"
    ],
    [
      "सू",
      "र"
    ],
    [
      "द",
      "ियुनि</w>"
    ],
    [
      "स",
      "लो</w>"
    ],
    [
      "लिख",
      "ियो</w>"
    ],
    [
      "सरा",
      "सरी</w>"
    ],
    [
      "मूर्",
      "ति</w>"
    ],
    [
      "ता",
      "क़"
    ],
    [
      "मराठ",
      "नि</w>"
    ],
    [
      "ख़",
      "्याल</w>"
    ],
    [
      "ारि",
      "श</w>"
    ],
    [
      "अंदरू",
      "नी</w>"
    ],
    [
      "नेश्",
      "नल</w>"
    ],
    [
      "ڪ",
      "ن</w>"
    ],
    [
      "چ",
      "</w>"
    ],
    [
      "ي",
      "ڻ</w>"
    ],
    [
      "ز",
      "ن</w>"
    ],
    [
      "ج",
      "ي"
    ],
    [
      "ل",
      "ين"
    ],
    [
      "ڪو",
      "ڊ</w>"
    ],
    [
      "सै",
      "ला"
    ],
    [
      "घ",
      "ु</w>"
    ],
    [
      "वी",
      "डियो</w>"
    ],
    [
      "हक़ी",
      "क़त</w>"
    ],
    [
      "मलयाल",
      "म</w>"
    ],
    [
      "क",
      "न्न"
    ],
    [
      "जा",
      "ं"
    ],
    [
      "लड़",
      "ाई</w>"
    ],
    [
      "ॿोल",
      "ियुनि</w>"
    ],
    [
      "झ",
      "े"
    ],
    [
      "वे",
      "यर</w>"
    ],
    [
      "वि",
      "स</w>"
    ],
    [
      "मंद",
      "रु,</w>"
    ],
    [
      "रोज़ा",
      "नी</w>"
    ],
    [
      "ष",
      "ा"
    ],
    [
      "ग",
      "ण"
    ],
    [
      "य",
      "ण</w>"
    ],
    [
      "च",
      "ंडी"
    ],
    [
      "ज़",
      "ारनि</w>"
    ],
    [
      "म्म",
      "द</w>"
    ],
    [
      "ठाहि",
      "यल</w>"
    ],
    [
      "छि",
      "प</w>"
    ],
    [
      "बहि",
      "तर</w>"
    ],
    [
      "ॾिन",
      "ो,</w>"
    ],
    [
      "डि",
      "ज़"
    ],
    [
      "पू",
      "र"
    ],
    [
      "ऑस्ट्रेल",
      "िया</w>"
    ],
    [
      "मा",
      "यूं</w>"
    ],
    [
      "प",
      "ो</w>"
    ],
    [
      "तिर",
      "ी</w>"
    ],
    [
      "इ",
      "ख़्तिय"
    ],
    [
      "वग़ै",
      "रह</w>"
    ],
    [
      "घ",
      "रेल"
    ],
    [
      "घरेल",
      "ू</w>"
    ],
    [
      "देश",
      "ी</w>"
    ],
    [
      "ई",
      "स्वी</w>"
    ],
    [
      "पुरा",
      "णी</w>"
    ],
    [
      "न",
      "ू</w>"
    ],
    [
      "फ्",
      "रे"
    ],
    [
      "स्",
      "पोर्"
    ],
    [
      "अ",
      "घि</w>"
    ],
    [
      "पु",
      "ॼ"
    ],
    [
      "ह",
      "र्"
    ],
    [
      "डिसं",
      "बर</w>"
    ],
    [
      "रि",
      "वाइती</w>"
    ],
    [
      "वेझ",
      "े</w>"
    ],
    [
      "क़",
      "ब्"
    ],
    [
      "उन",
      "जी</w>"
    ],
    [
      "پ",
      "ڻ</w>"
    ],
    [
      "اد",
      "ي</w>"
    ],
    [
      "क़ाबिल",
      "ियत</w>"
    ],
    [
      "मो",
      "टी</w>"
    ],
    [
      "उ",
      "म्"
    ],
    [
      "वठ",
      "ंदा</w>"
    ],
    [
      "19",
      "0"
    ],
    [
      "ल",
      "द्दा"
    ],
    [
      "दु",
      ",</w>"
    ],
    [
      "बा",
      "यो"
    ],
    [
      "हो",
      "टल</w>"
    ],
    [
      "ार्",
      "ड</w>"
    ],
    [
      "लॻ",
      "ाइणु</w>"
    ],
    [
      "नि",
      "भा"
    ],
    [
      "इब्ति",
      "दाई</w>"
    ],
    [
      "मॉ",
      "डल</w>"
    ],
    [
      "विरिहा",
      "यो</w>"
    ],
    [
      "आल",
      "मी</w>"
    ],
    [
      "व",
      ",</w>"
    ],
    [
      "अर",
      "ब</w>"
    ],
    [
      "ॻाल्हि",
      "-"
    ],
    [
      "ॿ",
      "ारु</w>"
    ],
    [
      "घु",
      "र"
    ],
    [
      "ख",
      "ी</w>"
    ],
    [
      "बु",
      "ल"
    ],
    [
      "अच",
      "नि</w>"
    ],
    [
      "त्म",
      "क</w>"
    ],
    [
      "रस्",
      "तो</w>"
    ],
    [
      "जो",
      "ड़े</w>"
    ],
    [
      "उ",
      "छ"
    ],
    [
      "दो",
      "ज"
    ],
    [
      "मे",
      "ं।</w>"
    ],
    [
      "ओभ",
      "िरि</w>"
    ],
    [
      "टा",
      "ई</w>"
    ],
    [
      "ड",
      "िली"
    ],
    [
      "هئ",
      "ا.</w>"
    ],
    [
      "ڙ",
      "</w>"
    ],
    [
      "م",
      "ر</w>"
    ],
    [
      "م",
      "ي</w>"
    ],
    [
      "केर",
      "ला</w>"
    ],
    [
      "िया",
      "ती</w>"
    ],
    [
      "ज़िक्र",
      "</w>"
    ],
    [
      "खेॾ",
      "ियो</w>"
    ],
    [
      "मी",
      "ं"
    ],
    [
      "व",
      "यो</w>"
    ],
    [
      "ख",
      "टी"
    ],
    [
      "मुनक़ि",
      "दु</w>"
    ],
    [
      "अ",
      "गि॒"
    ],
    [
      "हाल",
      "तुनि</w>"
    ],
    [
      "मुहि",
      "म</w>"
    ],
    [
      "बै",
      "ं"
    ],
    [
      "ाल",
      "ैंड</w>"
    ],
    [
      "नु",
      "क़"
    ],
    [
      "ली",
      "वुड</w>"
    ],
    [
      "प",
      "ंहि"
    ],
    [
      "मै",
      "चनि</w>"
    ],
    [
      "ह",
      "ों</w>"
    ],
    [
      "ग",
      "नि</w>"
    ],
    [
      "ट",
      "री</w>"
    ],
    [
      "प्र",
      "भा"
    ],
    [
      "सदा",
      "ईं</w>"
    ],
    [
      "प",
      "ना</w>"
    ],
    [
      "फ़",
      "ो</w>"
    ],
    [
      "स",
      "न्"
    ],
    [
      "2",
      "4"
    ],
    [
      "क",
      "ण</w>"
    ],
    [
      "ख़",
      "ू"
    ],
    [
      "तै",
      "लीम</w>"
    ],
    [
      "के",
      "तर"
    ],
    [
      "سال",
      "ن</w>"
    ],
    [
      "कर",
      "नि</w>"
    ],
    [
      "ख़",
      "रा"
    ],
    [
      "ख़",
      "ा"
    ],
    [
      "गो",
      "वा</w>"
    ],
    [
      "क़",
      "दु"
    ],
    [
      "अ",
      "ंड"
    ],
    [
      "शा",
      "या</w>"
    ],
    [
      "मौ",
      "ज़"
    ],
    [
      ".",
      "5</w>"
    ],
    [
      "पर",
      "ॾे"
    ],
    [
      "क",
      "ूं</w>"
    ],
    [
      "मा",
      "ला"
    ],
    [
      "क़",
      "े</w>"
    ],
    [
      "ता",
      ",</w>"
    ],
    [
      "आ",
      "फ़ी"
    ],
    [
      "पव",
      "ंदी।</w>"
    ],
    [
      "सामू",
      "ंडी</w>"
    ],
    [
      "अ",
      "सां"
    ],
    [
      "अ",
      "प</w>"
    ],
    [
      "किर",
      "दारनि</w>"
    ],
    [
      "हम",
      "ले</w>"
    ],
    [
      "कं",
      "ट्रोल</w>"
    ],
    [
      "वध",
      "ाइण</w>"
    ],
    [
      "मार",
      "ण</w>"
    ],
    [
      "ने",
      "ता</w>"
    ],
    [
      "दोस्",
      "तनि</w>"
    ],
    [
      "जंग",
      "ी</w>"
    ],
    [
      "निशा",
      "न</w>"
    ],
    [
      "ग़ै",
      "रु-"
    ],
    [
      "वर्",
      "मन</w>"
    ],
    [
      "महफ़ू",
      "ज़</w>"
    ],
    [
      "श्त",
      "ो</w>"
    ],
    [
      "हि",
      "मथा"
    ],
    [
      "न",
      "ियूं</w>"
    ],
    [
      "खा",
      "ं,</w>"
    ],
    [
      "ग",
      "न</w>"
    ],
    [
      "त",
      "िल"
    ],
    [
      "सी",
      "ल</w>"
    ],
    [
      "मं",
      "त्र"
    ],
    [
      "दर",
      "वा"
    ],
    [
      "राज",
      "्यनि</w>"
    ],
    [
      "पेश",
      "</w>"
    ],
    [
      "मसइ",
      "लो</w>"
    ],
    [
      "रांद",
      "ियूं</w>"
    ],
    [
      "मि",
      "ज़ो"
    ],
    [
      "अध",
      "ि</w>"
    ],
    [
      "उत",
      "री</w>"
    ],
    [
      "भुॻ",
      "तान</w>"
    ],
    [
      "خ",
      "ت"
    ],
    [
      "آه",
      "ن</w>"
    ],
    [
      "س",
      "ند"
    ],
    [
      "टर्",
      "नर</w>"
    ],
    [
      "ले",
      "किनि</w>"
    ],
    [
      "चे",
      "क</w>"
    ],
    [
      "लो",
      "र</w>"
    ],
    [
      "हरिया",
      "णा</w>"
    ],
    [
      "ग",
      "ल</w>"
    ],
    [
      "जे",
      "तिरो</w>"
    ],
    [
      "घण",
      "ा</w>"
    ],
    [
      "अहम",
      "ियत</w>"
    ],
    [
      "सा",
      "नी</w>"
    ],
    [
      "ह",
      "या"
    ],
    [
      "तस्दी",
      "क़</w>"
    ],
    [
      "जा",
      "न"
    ],
    [
      "मराठ",
      "ी</w>"
    ],
    [
      "विष्",
      "णु</w>"
    ],
    [
      "म",
      "री</w>"
    ],
    [
      "घा",
      "टी</w>"
    ],
    [
      "बि॒",
      "न्ही</w>"
    ],
    [
      "न",
      "्यू</w>"
    ],
    [
      "ाल",
      ",</w>"
    ],
    [
      "ल्",
      "हि"
    ],
    [
      "नंढ",
      "नि</w>"
    ],
    [
      "कु",
      "लु</w>"
    ],
    [
      "उ",
      "ंड</w>"
    ],
    [
      "गर्मीप",
      "दु</w>"
    ],
    [
      "कर",
      "ु</w>"
    ],
    [
      "करा",
      "यो</w>"
    ],
    [
      "ख़",
      "्य"
    ],
    [
      "भ",
      "ले</w>"
    ],
    [
      "श्री",
      "लं"
    ],
    [
      "प",
      "कि</w>"
    ],
    [
      "टाइ",
      "म्स</w>"
    ],
    [
      "नज़",
      "रु</w>"
    ],
    [
      "त",
      "म</w>"
    ],
    [
      "औ",
      "सत</w>"
    ],
    [
      "मंज़",
      "र</w>"
    ],
    [
      "म",
      "टे</w>"
    ],
    [
      "लफ़्",
      "ज़</w>"
    ],
    [
      "सिंध",
      "ु</w>"
    ],
    [
      "सु",
      "फ़"
    ],
    [
      "फ़ु",
      "ट</w>"
    ],
    [
      "ज",
      "ंदो</w>"
    ],
    [
      "दोज",
      "हद</w>"
    ],
    [
      "डे",
      "टा</w>"
    ],
    [
      "कि",
      "क"
    ],
    [
      "व",
      "यो।</w>"
    ],
    [
      "टी",
      "न</w>"
    ],
    [
      "सघ",
      "जे</w>"
    ],
    [
      "ويند",
      "و</w>"
    ],
    [
      "पहि",
      "र"
    ],
    [
      "कं",
      "टे"
    ],
    [
      "ष",
      "ण</w>"
    ],
    [
      "कर",
      "ि"
    ],
    [
      "19",
      "हीं</w>"
    ],
    [
      "सा",
      "म"
    ],
    [
      "डि॒",
      "नो</w>"
    ],
    [
      "रांसी",
      "सी</w>"
    ],
    [
      "राष्ट्र",
      "पति</w>"
    ],
    [
      "हा",
      "दि"
    ],
    [
      "वसी",
      "ह</w>"
    ],
    [
      "ट",
      "ियूं</w>"
    ],
    [
      "टी",
      "ं</w>"
    ],
    [
      "फ़",
      "इ"
    ],
    [
      "ड",
      "ै"
    ],
    [
      "भ",
      "ु</w>"
    ],
    [
      "बि॒",
      "यो</w>"
    ],
    [
      "ॾि",
      "सो</w>"
    ],
    [
      "भार",
      "ती</w>"
    ],
    [
      "मु",
      "र्"
    ],
    [
      "हा",
      "णो"
    ],
    [
      "नाग",
      "ालैंड</w>"
    ],
    [
      "प्र",
      "भाउ</w>"
    ],
    [
      "पंजा",
      "बी</w>"
    ],
    [
      "ट",
      "म</w>"
    ],
    [
      "ए",
      "तिरो</w>"
    ],
    [
      "हु",
      "मायूं</w>"
    ],
    [
      "ॾी",
      "ंदड़</w>"
    ],
    [
      "ग्रा",
      "म</w>"
    ],
    [
      "मक़्स",
      "दु</w>"
    ],
    [
      "बा",
      "न</w>"
    ],
    [
      "खे",
      "ती</w>"
    ],
    [
      "भे",
      "रा</w>"
    ],
    [
      "ंद",
      "ो"
    ],
    [
      "5",
      "7</w>"
    ],
    [
      "रोॻ",
      "</w>"
    ],
    [
      "\"",
      ",</w>"
    ],
    [
      "स्टॉ",
      "क</w>"
    ],
    [
      "पी",
      "य</w>"
    ],
    [
      "बु",
      "ख़"
    ],
    [
      "तस्",
      "वी"
    ],
    [
      "जं",
      "हि</w>"
    ],
    [
      "ن",
      "ال"
    ],
    [
      "س",
      "ٽ</w>"
    ],
    [
      "प",
      "टेल</w>"
    ],
    [
      "उत्तरा",
      "खंड</w>"
    ],
    [
      "माउ",
      "-"
    ],
    [
      "ड़",
      "ियूं</w>"
    ],
    [
      "तहि",
      "वारु</w>"
    ],
    [
      "ड्",
      "रा"
    ],
    [
      "कनाड",
      "ा</w>"
    ],
    [
      "मुख",
      "</w>"
    ],
    [
      "दर",
      "ॿार</w>"
    ],
    [
      "सो",
      "भ</w>"
    ],
    [
      "ड॒",
      "हाके</w>"
    ],
    [
      "बा",
      "हि</w>"
    ],
    [
      "खे",
      ",</w>"
    ],
    [
      "श",
      "ीअ</w>"
    ],
    [
      "ष्",
      "ण"
    ],
    [
      "दिलचस्",
      "पी</w>"
    ],
    [
      "ए",
      ",</w>"
    ],
    [
      "टि",
      "न</w>"
    ],
    [
      "ध",
      "ा</w>"
    ],
    [
      "थो",
      "रो</w>"
    ],
    [
      "फ़ि",
      "स</w>"
    ],
    [
      "ण",
      "ियूं</w>"
    ],
    [
      "श",
      "क</w>"
    ],
    [
      "अञ",
      "ां</w>"
    ],
    [
      "त",
      "ब"
    ],
    [
      "व",
      "ो</w>"
    ],
    [
      "सं",
      "जय</w>"
    ],
    [
      "मे",
      "ंब"
    ],
    [
      "ई",
      "ंदड़ु</w>"
    ],
    [
      "आ",
      "णे</w>"
    ],
    [
      "शै",
      "ली</w>"
    ],
    [
      "ध",
      "ार्"
    ],
    [
      "शिकिल",
      "ि</w>"
    ],
    [
      "मि",
      "ं"
    ],
    [
      "रह",
      "नि</w>"
    ],
    [
      "फ",
      "ू"
    ],
    [
      "नि",
      "स्"
    ],
    [
      "वा",
      "ड़</w>"
    ],
    [
      "बै",
      "क"
    ],
    [
      "اب",
      "</w>"
    ],
    [
      "اص",
      "ل</w>"
    ],
    [
      "ائ",
      "ي"
    ],
    [
      "آ",
      "ھ"
    ],
    [
      "ए",
      "ॾो</w>"
    ],
    [
      "झ",
      "</w>"
    ],
    [
      "स्टे",
      "ट</w>"
    ],
    [
      "वे",
      "ठ"
    ],
    [
      "ेश्",
      "वर</w>"
    ],
    [
      "मिल",
      "ियो</w>"
    ],
    [
      ".",
      "के"
    ],
    [
      "चो",
      "प"
    ],
    [
      "लिहा",
      "ज़</w>"
    ],
    [
      "फ़",
      "ो"
    ],
    [
      "आ",
      "खा"
    ],
    [
      "नंढ",
      "ा</w>"
    ],
    [
      "दी",
      ",</w>"
    ],
    [
      "गी",
      "तनि</w>"
    ],
    [
      "च",
      "यो,</w>"
    ],
    [
      "चंडी",
      "गढ़</w>"
    ],
    [
      "ज",
      "ज़्"
    ],
    [
      "19",
      "50</w>"
    ],
    [
      "हमिल",
      "ो</w>"
    ],
    [
      "भूमि",
      "का</w>"
    ],
    [
      "केतिर",
      "ी</w>"
    ],
    [
      "पखि",
      "ड़ियल</w>"
    ],
    [
      "ॻो",
      "ल्हि"
    ],
    [
      "प्रे",
      "स</w>"
    ],
    [
      "त",
      "मि"
    ],
    [
      "तह",
      "री"
    ],
    [
      "ज",
      "णु</w>"
    ],
    [
      "ं",
      "त</w>"
    ],
    [
      "हु",
      "ं,</w>"
    ],
    [
      "उ",
      "स्ता"
    ],
    [
      "द",
      "री</w>"
    ],
    [
      "देव",
      "ता</w>"
    ],
    [
      "या",
      "त्रा</w>"
    ],
    [
      "दाइ",
      "मी</w>"
    ],
    [
      "ट",
      "स</w>"
    ],
    [
      "बदिला",
      "उ</w>"
    ],
    [
      "थी",
      "ं</w>"
    ],
    [
      "चा",
      "हे</w>"
    ],
    [
      "अम",
      "लु</w>"
    ],
    [
      "मिज़ो",
      "रम</w>"
    ],
    [
      "चम",
      "ड़ीअ</w>"
    ],
    [
      "मि",
      "ंट</w>"
    ],
    [
      "क",
      "टे</w>"
    ],
    [
      "ٿ",
      "و</w>"
    ],
    [
      "آ",
      "ئ"
    ],
    [
      "I",
      "</w>"
    ],
    [
      "शे",
      "यर</w>"
    ],
    [
      "इन्ह",
      "ीअ</w>"
    ],
    [
      "प",
      "ठ"
    ],
    [
      "ोल",
      "े</w>"
    ],
    [
      "श",
      "ह</w>"
    ],
    [
      "से",
      "ंट</w>"
    ],
    [
      "वे",
      "ंदी।</w>"
    ],
    [
      "च",
      "ारी</w>"
    ],
    [
      "3",
      "00</w>"
    ],
    [
      "मि",
      "न"
    ],
    [
      "ड॒ख",
      "ण</w>"
    ],
    [
      "ख़",
      "ारि"
    ],
    [
      "आ",
      "णणु</w>"
    ],
    [
      "किश",
      "ोर</w>"
    ],
    [
      "पो",
      "एं</w>"
    ],
    [
      "लाॻाप",
      "ियलु</w>"
    ],
    [
      "मे",
      "ट्"
    ],
    [
      "पहुच",
      "ण</w>"
    ],
    [
      "जी",
      ",</w>"
    ],
    [
      "हि",
      "कु"
    ],
    [
      "अर्",
      "थ"
    ],
    [
      "इम्",
      "का"
    ],
    [
      "अफ़",
      "सो"
    ],
    [
      "श",
      "ौ"
    ],
    [
      "वह",
      "ंदी</w>"
    ],
    [
      "नि",
      "रा"
    ],
    [
      "ज़मी",
      "नी</w>"
    ],
    [
      "हक़ी",
      "क़ी</w>"
    ],
    [
      "हा",
      "सन</w>"
    ],
    [
      "ल",
      "कर</w>"
    ],
    [
      "ब्रह",
      "्म"
    ],
    [
      "झ",
      "ु"
    ],
    [
      "मि",
      "टीअ</w>"
    ],
    [
      "1",
      "-"
    ],
    [
      "ग्र",
      "ह</w>"
    ],
    [
      "माम",
      "ला</w>"
    ],
    [
      "फ़ाइ",
      "नल</w>"
    ],
    [
      "छ",
      "ु"
    ],
    [
      "लंब",
      "े</w>"
    ],
    [
      "वञ",
      "े,</w>"
    ],
    [
      "उ",
      "सू"
    ],
    [
      "वि",
      "टा"
    ],
    [
      "मुख़ालि",
      "फ़</w>"
    ],
    [
      "कु",
      "श्"
    ],
    [
      "ख़",
      "त</w>"
    ],
    [
      "औ",
      "स"
    ],
    [
      "कमज़",
      "ोर</w>"
    ],
    [
      "गे",
      "ंद</w>"
    ],
    [
      "साम्",
      "राज</w>"
    ],
    [
      "ٺ",
      "اه"
    ],
    [
      "۾",
      "،</w>"
    ],
    [
      "ه",
      "ي"
    ],
    [
      "ا",
      "يو"
    ],
    [
      "پ",
      "ر</w>"
    ],
    [
      "ج",
      "اري</w>"
    ],
    [
      "क़र्",
      "ज़ु</w>"
    ],
    [
      "प",
      "ौ"
    ],
    [
      "इ",
      "दारनि</w>"
    ],
    [
      "वि",
      "ंग</w>"
    ],
    [
      "च",
      "ोल"
    ],
    [
      "मौक़",
      "े</w>"
    ],
    [
      "ब",
      "च्च"
    ],
    [
      "पुर्",
      "तग"
    ],
    [
      "ने",
      "क"
    ],
    [
      "नी",
      "तिक</w>"
    ],
    [
      "ज़",
      "रियो</w>"
    ],
    [
      "परिष",
      "द</w>"
    ],
    [
      "इंतिज़ा",
      "मिया</w>"
    ],
    [
      "अॻू",
      "णे</w>"
    ],
    [
      "प",
      "ल्ल"
    ],
    [
      "से",
      "ल</w>"
    ],
    [
      "आ",
      "स्था"
    ],
    [
      "आवा",
      "ज़</w>"
    ],
    [
      "3",
      "5</w>"
    ],
    [
      "मजबू",
      "रु</w>"
    ],
    [
      "आ",
      "या</w>"
    ],
    [
      "ज़",
      "ो"
    ],
    [
      "हथ",
      "नि</w>"
    ],
    [
      "सीड़प",
      "कारी</w>"
    ],
    [
      "क़ाब",
      "िले</w>"
    ],
    [
      "सुफ़",
      "्ह"
    ],
    [
      "ू",
      "ं"
    ],
    [
      "ए",
      "थ"
    ],
    [
      "हिक",
      "-"
    ],
    [
      "अ",
      "पी"
    ],
    [
      "अख",
      "ियूं</w>"
    ],
    [
      "و",
      "ي</w>"
    ],
    [
      "ور",
      "ي</w>"
    ],
    [
      "ج",
      "ن</w>"
    ],
    [
      "उप",
      "-"
    ],
    [
      "इंत",
      "ज़ा"
    ],
    [
      "हुज",
      "णु</w>"
    ],
    [
      "आहिनि",
      ";</w>"
    ],
    [
      "बे",
      "ड"
    ],
    [
      "जे",
      "ल</w>"
    ],
    [
      "पाल",
      "ी</w>"
    ],
    [
      "रच",
      "ना</w>"
    ],
    [
      "ओलि",
      "ही</w>"
    ],
    [
      "नंढ",
      "ि"
    ],
    [
      "ए",
      "यर"
    ],
    [
      "त्त",
      "ा</w>"
    ],
    [
      "रोक",
      "ण</w>"
    ],
    [
      "ू",
      ",</w>"
    ],
    [
      "थ",
      "नि</w>"
    ],
    [
      "गिर",
      "फ़्त"
    ],
    [
      "रफ़्त",
      "ार</w>"
    ],
    [
      "क",
      "द"
    ],
    [
      "किर",
      "ण</w>"
    ],
    [
      "म्ब",
      "े</w>"
    ],
    [
      "मिल",
      "णु</w>"
    ],
    [
      "ट",
      ")</w>"
    ],
    [
      "जिस्",
      "मानी</w>"
    ],
    [
      "सालिया",
      "नी</w>"
    ],
    [
      "स",
      "चि"
    ],
    [
      "ाल",
      "ा</w>"
    ],
    [
      "गु",
      "रु</w>"
    ],
    [
      "ॾ",
      "ियो।</w>"
    ],
    [
      "बि॒",
      "ए</w>"
    ],
    [
      "च",
      "ई</w>"
    ],
    [
      "ट्रां",
      "स"
    ],
    [
      "तु",
      "ग़ल"
    ],
    [
      "ॾी",
      "ंदे</w>"
    ],
    [
      "पा",
      "ड़े"
    ],
    [
      "बाद",
      "शा"
    ],
    [
      "ड",
      "ाइ"
    ],
    [
      "या",
      "द"
    ],
    [
      "ते",
      "ंदु"
    ],
    [
      "वास्तु",
      "कला</w>"
    ],
    [
      "س",
      "ڀ"
    ],
    [
      "ع",
      "ام</w>"
    ],
    [
      "२",
      "०"
    ],
    [
      "क्",
      "सी"
    ],
    [
      "हि",
      "नि</w>"
    ],
    [
      "सिल",
      "सिलो</w>"
    ],
    [
      "ह",
      "ारी</w>"
    ],
    [
      "लॻा",
      "।</w>"
    ],
    [
      "क़त्",
      "ल</w>"
    ],
    [
      "म्",
      "मे"
    ],
    [
      "अमेरि",
      "की</w>"
    ],
    [
      "अ",
      "ट"
    ],
    [
      "क",
      "नि।</w>"
    ],
    [
      "न",
      "\"</w>"
    ],
    [
      "लिख",
      "िया</w>"
    ],
    [
      "ऑग",
      "स्ट</w>"
    ],
    [
      "क",
      "था"
    ],
    [
      "डि",
      "वी"
    ],
    [
      "ठाहि",
      "यो।</w>"
    ],
    [
      "आदमशु",
      "मारी</w>"
    ],
    [
      "लं",
      "बी</w>"
    ],
    [
      "मु",
      "ग़"
    ],
    [
      "कला",
      "कारनि</w>"
    ],
    [
      "मतल",
      "ब</w>"
    ],
    [
      "ंद",
      "े"
    ],
    [
      "घण",
      "नि</w>"
    ],
    [
      "श्",
      "व"
    ],
    [
      "संगी",
      "तु</w>"
    ],
    [
      "महि",
      "र"
    ],
    [
      "राजपू",
      "त</w>"
    ],
    [
      "ली",
      "ला</w>"
    ],
    [
      "वि",
      "ल</w>"
    ],
    [
      "य",
      "ार</w>"
    ],
    [
      "ॿोॾ",
      "ि</w>"
    ],
    [
      "माइ",
      "क्रो"
    ],
    [
      "कार",
      "्त"
    ],
    [
      "ॾ",
      "ह</w>"
    ],
    [
      "कय",
      "लि</w>"
    ],
    [
      "नेट",
      "बॉल</w>"
    ],
    [
      "स्",
      "नू"
    ],
    [
      "ढ",
      "े"
    ],
    [
      "ख़ा",
      "सियत</w>"
    ],
    [
      "گ",
      "ر"
    ],
    [
      "اي",
      "ئر</w>"
    ],
    [
      "जेतोण",
      "े"
    ],
    [
      "ठ",
      "ह"
    ],
    [
      "कर्म",
      "चार"
    ],
    [
      "क़दु",
      "रु</w>"
    ],
    [
      "भे",
      "ण</w>"
    ],
    [
      "म",
      "स्"
    ],
    [
      "ल",
      "ियुनि</w>"
    ],
    [
      "इ",
      "ना"
    ],
    [
      "दफ़",
      "ा</w>"
    ],
    [
      ".डी",
      ".</w>"
    ],
    [
      "शा",
      "दीअ</w>"
    ],
    [
      "य",
      "ी</w>"
    ],
    [
      "ार",
      "ीअ</w>"
    ],
    [
      "ज",
      "हां</w>"
    ],
    [
      "विच",
      "ारु</w>"
    ],
    [
      "ज़",
      "ि"
    ],
    [
      "-",
      "ए"
    ],
    [
      "व",
      "ण</w>"
    ],
    [
      "अ",
      "ॾो</w>"
    ],
    [
      "प्य",
      "ार</w>"
    ],
    [
      "फ़ौज",
      "ियुनि</w>"
    ],
    [
      "का",
      "ई</w>"
    ],
    [
      "ग",
      "ह"
    ],
    [
      "मोकिल",
      "ियो</w>"
    ],
    [
      "त्त",
      "</w>"
    ],
    [
      "स्टेड",
      "ियम</w>"
    ],
    [
      "ट",
      "ू</w>"
    ],
    [
      "ब",
      "हाल</w>"
    ],
    [
      "लाॻ",
      "त</w>"
    ],
    [
      "ु",
      "सि।</w>"
    ],
    [
      "सा",
      "हु</w>"
    ],
    [
      "ज़ाल",
      "ुनि</w>"
    ],
    [
      "अलाम",
      "तूं</w>"
    ],
    [
      "क",
      "मी</w>"
    ],
    [
      "म",
      "ना</w>"
    ],
    [
      "न",
      "री</w>"
    ],
    [
      "200",
      "3</w>"
    ],
    [
      "र",
      "ुनि</w>"
    ],
    [
      "स्कू",
      "लनि</w>"
    ],
    [
      "गंभी",
      "र</w>"
    ],
    [
      "पे",
      "ची"
    ],
    [
      "माउ-",
      "पीउ</w>"
    ],
    [
      "संभा",
      "जी</w>"
    ],
    [
      "बा",
      "ज़</w>"
    ],
    [
      "ठाहि",
      "या</w>"
    ],
    [
      "व",
      "ृ"
    ],
    [
      "ड़",
      "ु</w>"
    ],
    [
      "प्र",
      "जा"
    ],
    [
      "गा",
      "ॾी</w>"
    ],
    [
      "सरअंजा",
      "मी</w>"
    ],
    [
      "ह",
      "द"
    ],
    [
      "क",
      "प्"
    ],
    [
      "ह",
      "ारि"
    ],
    [
      "ख़",
      "बरु</w>"
    ],
    [
      "रो",
      "लर</w>"
    ],
    [
      "ल",
      "ड</w>"
    ],
    [
      "आहि",
      "यां</w>"
    ],
    [
      "جيڪ",
      "و</w>"
    ],
    [
      "ام",
      "ل</w>"
    ],
    [
      "ئ",
      "ن"
    ],
    [
      "रि",
      "वायती</w>"
    ],
    [
      "कंद",
      "े,</w>"
    ],
    [
      "कामया",
      "बीअ</w>"
    ],
    [
      "खट",
      "ियो।</w>"
    ],
    [
      "द",
      "फ़्त"
    ],
    [
      "जंहिं",
      "जो</w>"
    ],
    [
      "टे",
      "न</w>"
    ],
    [
      "स्",
      "ते</w>"
    ],
    [
      "जन",
      "ता</w>"
    ],
    [
      "सु",
      "हि"
    ],
    [
      "श्र",
      "े"
    ],
    [
      "आ",
      "धार</w>"
    ],
    [
      "श",
      "ब्"
    ],
    [
      "क",
      "ॿ"
    ],
    [
      "गा",
      "ॾ"
    ],
    [
      "जन",
      "रल</w>"
    ],
    [
      "भ",
      "ञ"
    ],
    [
      "मि",
      "त</w>"
    ],
    [
      "वार",
      "ि"
    ],
    [
      "च",
      "यो।</w>"
    ],
    [
      "र",
      "ियुनि</w>"
    ],
    [
      "ज़िल",
      "ा</w>"
    ],
    [
      "व",
      "यूं।</w>"
    ],
    [
      "म्म",
      "ू</w>"
    ],
    [
      "रा",
      "उ</w>"
    ],
    [
      "सं",
      "घ"
    ],
    [
      "ज़",
      "ारु</w>"
    ],
    [
      "थिय",
      "णो</w>"
    ],
    [
      "ब",
      "ारी</w>"
    ],
    [
      "यू",
      ".एस"
    ],
    [
      "मौ",
      "ति</w>"
    ],
    [
      "कर",
      "ियो,</w>"
    ],
    [
      "ओ",
      "सरि</w>"
    ],
    [
      "अॾा",
      "व"
    ],
    [
      "चूंड",
      "ुनि</w>"
    ],
    [
      "मुख़्त",
      "िय"
    ],
    [
      "ॾेख",
      "ारी"
    ],
    [
      "मु",
      "हा"
    ],
    [
      "कि",
      "ड़े</w>"
    ],
    [
      "िर",
      "नि</w>"
    ],
    [
      "विटा",
      "मिन</w>"
    ],
    [
      "जि",
      "दोजहद</w>"
    ],
    [
      "गै",
      "स</w>"
    ],
    [
      "अपी",
      "ल</w>"
    ],
    [
      "फा",
      "सी</w>"
    ],
    [
      "किक",
      "बॉक्"
    ],
    [
      "सुञा",
      "पि"
    ],
    [
      "मस",
      "ल"
    ],
    [
      "पा",
      "शी</w>"
    ],
    [
      "तह",
      "ति</w>"
    ],
    [
      "ه",
      "ا"
    ],
    [
      "پ",
      "ري"
    ],
    [
      "ش",
      "امل</w>"
    ],
    [
      "ب",
      "م</w>"
    ],
    [
      "ॿु",
      "द्ध</w>"
    ],
    [
      "अदा",
      "कारु</w>"
    ],
    [
      "ज़ाहि",
      "री</w>"
    ],
    [
      "आ",
      "दर्"
    ],
    [
      "वध",
      "ंदड़</w>"
    ],
    [
      "नक़ा",
      "दनि</w>"
    ],
    [
      "ना",
      "उनि</w>"
    ],
    [
      "ना",
      "।</w>"
    ],
    [
      "हुज",
      "ण</w>"
    ],
    [
      "वी",
      "चार</w>"
    ],
    [
      "तीर्",
      "थ</w>"
    ],
    [
      "ठहि",
      "यलु</w>"
    ],
    [
      "ढि",
      "घे</w>"
    ],
    [
      "साइ",
      "किल</w>"
    ],
    [
      "ॿे",
      "टु</w>"
    ],
    [
      "तर्",
      "तीब</w>"
    ],
    [
      "लि",
      "स्ट</w>"
    ],
    [
      "टोल",
      "नि</w>"
    ],
    [
      "घ",
      "ि"
    ],
    [
      "बच्च",
      "न</w>"
    ],
    [
      "ए",
      "क"
    ],
    [
      "मो",
      "कल"
    ],
    [
      "पहि",
      "ं"
    ],
    [
      "भॼ",
      "ी</w>"
    ],
    [
      "क्",
      "वार्"
    ],
    [
      "बरसा",
      "ति</w>"
    ],
    [
      "सा",
      "द</w>"
    ],
    [
      "द",
      "ू</w>"
    ],
    [
      "कर",
      "ाइण</w>"
    ],
    [
      "मा",
      "त</w>"
    ],
    [
      "इस्ला",
      "म</w>"
    ],
    [
      "मंद",
      "िर</w>"
    ],
    [
      "कामिया",
      "ब</w>"
    ],
    [
      "अ",
      "ंग</w>"
    ],
    [
      "सं",
      "त</w>"
    ],
    [
      "सातवाह",
      "न</w>"
    ],
    [
      "व",
      "ल"
    ],
    [
      "3",
      "0"
    ],
    [
      "स",
      "व</w>"
    ],
    [
      "ह",
      "ज़ार"
    ],
    [
      "वठ",
      "ो</w>"
    ],
    [
      "सघ",
      "ि</w>"
    ],
    [
      "يو",
      "ي"
    ],
    [
      "ڏ",
      "ن"
    ],
    [
      "گ",
      "ڏ"
    ],
    [
      "ث",
      "ر</w>"
    ],
    [
      "ڪ",
      "م</w>"
    ],
    [
      "न",
      ")</w>"
    ],
    [
      "कमा",
      "ल</w>"
    ],
    [
      "मे",
      "ले</w>"
    ],
    [
      "मा",
      "ला</w>"
    ],
    [
      "न",
      "स्"
    ],
    [
      "देश",
      "नि</w>"
    ],
    [
      "दर्",
      "जा"
    ],
    [
      "पं",
      "जनि</w>"
    ],
    [
      "ढ",
      "ां"
    ],
    [
      "नर्",
      "म"
    ],
    [
      "फ़",
      "ार्"
    ],
    [
      "भा",
      "ती</w>"
    ],
    [
      "आ",
      "णण</w>"
    ],
    [
      "बाब",
      "त</w>"
    ],
    [
      "नाल",
      "ा</w>"
    ],
    [
      "सक़ाफ़",
      "ती</w>"
    ],
    [
      "ॿे",
      "टनि</w>"
    ],
    [
      "ंड",
      "नि</w>"
    ],
    [
      "200",
      "2</w>"
    ],
    [
      "ह",
      "क़</w>"
    ],
    [
      "पर",
      "ं"
    ],
    [
      "मछ",
      "ी</w>"
    ],
    [
      "ं",
      "भ"
    ],
    [
      "ॾि",
      "णु</w>"
    ],
    [
      "र",
      "ंड"
    ],
    [
      "आयोजि",
      "त</w>"
    ],
    [
      "मा",
      ",</w>"
    ],
    [
      "ह",
      "ार्"
    ],
    [
      "राज",
      "्य"
    ],
    [
      "शिका",
      "यत</w>"
    ],
    [
      "आमद",
      "नीअ</w>"
    ],
    [
      "फ़",
      "त</w>"
    ],
    [
      "सु",
      "ंद"
    ],
    [
      "डिसं",
      "बरु</w>"
    ],
    [
      "मुसल",
      "माननि</w>"
    ],
    [
      "ज",
      "म्मू</w>"
    ],
    [
      "ट्",
      "री</w>"
    ],
    [
      "ॾेख",
      "ारे</w>"
    ],
    [
      "फ़",
      "ार"
    ],
    [
      "नि",
      "-"
    ],
    [
      "ध",
      "ार"
    ],
    [
      "196",
      "0</w>"
    ],
    [
      ".वी",
      ".</w>"
    ],
    [
      "ई",
      "-"
    ],
    [
      "क्",
      "सि"
    ],
    [
      "3",
      ","
    ],
    [
      "नशी",
      "ली</w>"
    ],
    [
      "अ",
      "सू"
    ],
    [
      "ऊन्ह",
      "ारे</w>"
    ],
    [
      "बि॒",
      "यों</w>"
    ],
    [
      "वे",
      "यूं</w>"
    ],
    [
      "सलाह",
      "कार</w>"
    ],
    [
      "मा",
      "लियाती</w>"
    ],
    [
      "च",
      "ला"
    ],
    [
      "ख",
      "ण"
    ],
    [
      "ख़",
      "त्"
    ],
    [
      "नवा",
      "ब</w>"
    ],
    [
      "पुठि",
      "ते</w>"
    ],
    [
      "तेंदु",
      "लकर</w>"
    ],
    [
      "पार",
      "ी</w>"
    ],
    [
      "आहे",
      "?</w>"
    ],
    [
      "ن",
      "يا</w>"
    ],
    [
      "ان",
      "د"
    ],
    [
      "ري",
      "ا</w>"
    ],
    [
      "ए",
      "ॾी</w>"
    ],
    [
      "खपे",
      "।</w>"
    ],
    [
      "स्नू",
      "कर</w>"
    ],
    [
      "मूजि",
      "ब</w>"
    ],
    [
      "तला",
      "उ</w>"
    ],
    [
      "हा",
      "कि"
    ],
    [
      "क़द",
      "म</w>"
    ],
    [
      "हमे",
      "शह</w>"
    ],
    [
      "ला",
      ",</w>"
    ],
    [
      "कार",
      "ीअ</w>"
    ],
    [
      "क़",
      "तार</w>"
    ],
    [
      "ॾि",
      "ना</w>"
    ],
    [
      "इलाइक़",
      "ा</w>"
    ],
    [
      "लै",
      "ंड"
    ],
    [
      "भ",
      "गि॒</w>"
    ],
    [
      "2",
      "5"
    ],
    [
      "बरि",
      "पा</w>"
    ],
    [
      "ज़",
      "र"
    ],
    [
      "म",
      "ि</w>"
    ],
    [
      "पहिरी",
      "ं,</w>"
    ],
    [
      "स्",
      "कै"
    ],
    [
      "क़दी",
      "मी</w>"
    ],
    [
      "ता",
      "ज़ो</w>"
    ],
    [
      "भ",
      "ंड"
    ],
    [
      "म",
      "ण</w>"
    ],
    [
      "मुह",
      "म्मद</w>"
    ],
    [
      "सी",
      "रीज़</w>"
    ],
    [
      "फ़",
      "ि"
    ],
    [
      "घ",
      "ी</w>"
    ],
    [
      "डि",
      "स्"
    ],
    [
      "बण",
      "ायो</w>"
    ],
    [
      "दा",
      "नु</w>"
    ],
    [
      "जुड़",
      "ियलु</w>"
    ],
    [
      "न",
      "वी"
    ],
    [
      "शा",
      "हू"
    ],
    [
      "सा",
      "फ़ु</w>"
    ],
    [
      "प",
      "ट्ट"
    ],
    [
      "रे",
      "ट</w>"
    ],
    [
      "लेख",
      "क</w>"
    ],
    [
      "अ",
      "ॾे</w>"
    ],
    [
      "ो",
      "व</w>"
    ],
    [
      "ध",
      "्"
    ],
    [
      "3",
      "1</w>"
    ],
    [
      "क़ी",
      "द</w>"
    ],
    [
      "सा",
      "ॼ"
    ],
    [
      "रोक",
      "णु</w>"
    ],
    [
      "थो",
      "री</w>"
    ],
    [
      "इं",
      "कार</w>"
    ],
    [
      "सहू",
      "लिय"
    ],
    [
      "महसू",
      "सु</w>"
    ],
    [
      "सिं",
      "घ</w>"
    ],
    [
      "و",
      "و"
    ],
    [
      "م",
      "ع"
    ],
    [
      "ال",
      "بم</w>"
    ],
    [
      "पी",
      "डिया</w>"
    ],
    [
      "निर्भ",
      "रु</w>"
    ],
    [
      "जहा",
      "ज़</w>"
    ],
    [
      "ज़ा",
      "बि"
    ],
    [
      "चु",
      "को</w>"
    ],
    [
      "लाइ",
      "ट</w>"
    ],
    [
      "जोॻ",
      "ी</w>"
    ],
    [
      "क",
      "ियल</w>"
    ],
    [
      "णु",
      "।</w>"
    ],
    [
      "ौ",
      "र</w>"
    ],
    [
      "भा",
      "व"
    ],
    [
      "सुध",
      "ारो</w>"
    ],
    [
      "इस्ला",
      "मी</w>"
    ],
    [
      "क",
      "ीअ</w>"
    ],
    [
      "हाला",
      "त</w>"
    ],
    [
      "टी",
      "वी</w>"
    ],
    [
      "वी",
      "चारु</w>"
    ],
    [
      "रा",
      "णी</w>"
    ],
    [
      "मेज़",
      "बानी</w>"
    ],
    [
      "वध",
      "ाए</w>"
    ],
    [
      "क",
      "न्"
    ],
    [
      "महि",
      "ला</w>"
    ],
    [
      "क्",
      "टरु</w>"
    ],
    [
      "सम्",
      "राट</w>"
    ],
    [
      "वा",
      "सियुनि</w>"
    ],
    [
      "तस्",
      "वीर</w>"
    ],
    [
      "र",
      "िल"
    ],
    [
      "व",
      "की"
    ],
    [
      "ज़ि",
      "मे"
    ],
    [
      "मि",
      "स्"
    ],
    [
      "नव",
      "ंबरु</w>"
    ],
    [
      "आहिनि",
      ":</w>"
    ],
    [
      "चालुक",
      "्य</w>"
    ],
    [
      "ख़ा",
      "ने</w>"
    ],
    [
      "अधि",
      "कारी</w>"
    ],
    [
      "मि",
      "ंग</w>"
    ],
    [
      "जी",
      "व"
    ],
    [
      "यूरो",
      "पीय</w>"
    ],
    [
      "रा",
      "य"
    ],
    [
      "रि",
      "था"
    ],
    [
      "ख़",
      "ो"
    ],
    [
      "पहु",
      "चा"
    ],
    [
      "प",
      "ब्"
    ],
    [
      "संस्कृ",
      "ति</w>"
    ],
    [
      "सरी",
      "र</w>"
    ],
    [
      "कुश्",
      "ती</w>"
    ],
    [
      "किर",
      "ो</w>"
    ],
    [
      "अहि",
      "मियत</w>"
    ],
    [
      "त",
      "ख़्त</w>"
    ],
    [
      "बच",
      "ी</w>"
    ],
    [
      "नज़",
      "रिए</w>"
    ],
    [
      "0",
      "0"
    ],
    [
      "س",
      "ن</w>"
    ],
    [
      "ان",
      "ي</w>"
    ],
    [
      "پو",
      "ءِ</w>"
    ],
    [
      "लु",
      "ग़"
    ],
    [
      "मिल",
      "िया</w>"
    ],
    [
      "पे",
      "ट</w>"
    ],
    [
      "बंदोब",
      "स्त</w>"
    ],
    [
      "पु",
      "र,</w>"
    ],
    [
      "ए",
      "ल</w>"
    ],
    [
      "क़ाबिल",
      "ु</w>"
    ],
    [
      "म",
      "स</w>"
    ],
    [
      "च",
      "ाइ"
    ],
    [
      "चङ",
      "ा</w>"
    ],
    [
      "ार",
      "त</w>"
    ],
    [
      "मि",
      "र</w>"
    ],
    [
      "कंप",
      "नियुनि</w>"
    ],
    [
      "फ़िल्",
      "मूं</w>"
    ],
    [
      "जे",
      "सिताईं</w>"
    ],
    [
      "ज़ि",
      "म्मे"
    ],
    [
      "ब",
      "हाल"
    ],
    [
      "आ",
      "या।</w>"
    ],
    [
      "ब्राह",
      "्म"
    ]
  ],
  "vocab_size": 5000,
  "num_merges": 5000,
  "actual_merges": 5000,
  "special_tokens": [
    "<unk>",
    "<pad>",
    "<sos>",
    "<eos>"
  ]
}