{
  "merges": [
    [
      "்",
      "</w>"
    ],
    [
      "ு",
      "</w>"
    ],
    [
      "்",
      "க"
    ],
    [
      "ம",
      "்</w>"
    ],
    [
      "ி",
      "ல"
    ],
    [
      "ி",
      "ய"
    ],
    [
      ".",
      "</w>"
    ],
    [
      "்",
      "த"
    ],
    [
      "ந",
      "்த"
    ],
    [
      "்",
      "ற"
    ],
    [
      "ர",
      "்"
    ],
    [
      "ு",
      "ம்</w>"
    ],
    [
      "ன",
      "்</w>"
    ],
    [
      "ை",
      "</w>"
    ],
    [
      ",",
      "</w>"
    ],
    [
      "ர",
      "ு"
    ],
    [
      "ில",
      "்</w>"
    ],
    [
      "்க",
      "ள"
    ],
    [
      "்",
      "ப"
    ],
    [
      "த",
      "ு"
    ],
    [
      "்",
      "ட"
    ],
    [
      "ை",
      "ய"
    ],
    [
      "ா",
      "க"
    ],
    [
      "வ",
      "ி"
    ],
    [
      "த",
      "ு</w>"
    ],
    [
      "ற",
      "்ற"
    ],
    [
      "ி",
      "ற"
    ],
    [
      "க",
      "ள"
    ],
    [
      "ி",
      "</w>"
    ],
    [
      "ா",
      "ன"
    ],
    [
      "ர",
      "்</w>"
    ],
    [
      "ட",
      "ு"
    ],
    [
      "ல",
      "்</w>"
    ],
    [
      "ண",
      "்ட"
    ],
    [
      "ன",
      "்ற"
    ],
    [
      "த",
      "ி"
    ],
    [
      "ி",
      "ன்</w>"
    ],
    [
      "ள",
      "்"
    ],
    [
      "க",
      "ு"
    ],
    [
      "ம",
      "ு"
    ],
    [
      "து",
      ".</w>"
    ],
    [
      "ா",
      "ர்"
    ],
    [
      "ள்",
      "ள"
    ],
    [
      "ங",
      "்க"
    ],
    [
      "ங",
      "்கள"
    ],
    [
      "்",
      ",</w>"
    ],
    [
      "ாக",
      "</w>"
    ],
    [
      "ி",
      "ர"
    ],
    [
      "வ",
      "ர"
    ],
    [
      "க",
      "ா"
    ],
    [
      "ப",
      "்</w>"
    ],
    [
      "ான",
      "</w>"
    ],
    [
      "ந்த",
      "</w>"
    ],
    [
      "ட",
      "ி"
    ],
    [
      "க",
      "்</w>"
    ],
    [
      "ச",
      "ெ"
    ],
    [
      "ம",
      "ா"
    ],
    [
      "ு",
      "க்க"
    ],
    [
      "ம",
      "்ப"
    ],
    [
      "்",
      ".</w>"
    ],
    [
      "ப்ப",
      "ட்ட"
    ],
    [
      "ிய",
      "</w>"
    ],
    [
      "ப",
      "ோ"
    ],
    [
      "ர",
      "ு</w>"
    ],
    [
      "வ",
      "ா"
    ],
    [
      "ார்",
      ".</w>"
    ],
    [
      "ப",
      "ெ"
    ],
    [
      "ர",
      "ி"
    ],
    [
      "ு",
      "ம"
    ],
    [
      "ி",
      "ன"
    ],
    [
      "்",
      "ச"
    ],
    [
      "ப",
      "ா"
    ],
    [
      "ம",
      "ற்ற"
    ],
    [
      "ே",
      "</w>"
    ],
    [
      "இ",
      "ரு"
    ],
    [
      "ஒ",
      "ரு</w>"
    ],
    [
      "ன",
      "்ப"
    ],
    [
      "அ",
      "வ"
    ],
    [
      "ா",
      "</w>"
    ],
    [
      "மற்ற",
      "ும்</w>"
    ],
    [
      "க",
      "ி"
    ],
    [
      "உ",
      "ள்ள"
    ],
    [
      "ர",
      "்கள"
    ],
    [
      "க",
      "ொ"
    ],
    [
      "த",
      "்</w>"
    ],
    [
      "ு",
      "வ"
    ],
    [
      "த",
      "ா"
    ],
    [
      "க",
      "ிற"
    ],
    [
      "கள",
      "்</w>"
    ],
    [
      "ர",
      "ா"
    ],
    [
      "ி",
      "க்க"
    ],
    [
      "வ",
      "ெ"
    ],
    [
      "ற",
      "்க"
    ],
    [
      "ந்த",
      "ு</w>"
    ],
    [
      "செ",
      "ய"
    ],
    [
      "ல",
      "ா"
    ],
    [
      "டு",
      "த்த"
    ],
    [
      "த",
      "ொ"
    ],
    [
      "ை",
      "க்க"
    ],
    [
      "த்த",
      "ில்</w>"
    ],
    [
      "எ",
      "ன்ற"
    ],
    [
      "ி",
      "ரு"
    ],
    [
      "ங்கள",
      "்</w>"
    ],
    [
      "ா",
      "ல"
    ],
    [
      "ப",
      "ு"
    ],
    [
      "ஸ",
      "்</w>"
    ],
    [
      "ப",
      "ிர"
    ],
    [
      "ம",
      "ே"
    ],
    [
      "ந",
      "ா"
    ],
    [
      "ப்ப",
      "ட"
    ],
    [
      "ப",
      "ி"
    ],
    [
      "வ",
      "ே"
    ],
    [
      "2",
      "0"
    ],
    [
      "ு",
      "ள்ள"
    ],
    [
      "ம",
      "ி"
    ],
    [
      "இ",
      "ந்த</w>"
    ],
    [
      "ிய",
      "ா"
    ],
    [
      "ுக்க",
      "ு</w>"
    ],
    [
      "க",
      "ோ"
    ],
    [
      "ன",
      ".</w>"
    ],
    [
      "இ",
      "ந்த"
    ],
    [
      "த",
      "ன"
    ],
    [
      "ந",
      "ில"
    ],
    [
      "ா",
      "ல்</w>"
    ],
    [
      "ச",
      "்</w>"
    ],
    [
      "ப்ப",
      "டு"
    ],
    [
      "கு",
      "ற"
    ],
    [
      "ச",
      "ி"
    ],
    [
      "அவ",
      "ர்</w>"
    ],
    [
      "எ",
      "ன்ப"
    ],
    [
      "ற",
      "்ப"
    ],
    [
      "இ",
      "து</w>"
    ],
    [
      "த",
      "ே"
    ],
    [
      "வ",
      "ு"
    ],
    [
      "ட",
      "ை"
    ],
    [
      "ற",
      "ு"
    ],
    [
      "ச",
      "ு"
    ],
    [
      "ை",
      "ப்</w>"
    ],
    [
      "ம",
      "்.</w>"
    ],
    [
      "ப",
      "ொ"
    ],
    [
      "1",
      "9"
    ],
    [
      "அ",
      "வர"
    ],
    [
      "கொ",
      "ண்ட"
    ],
    [
      "அ",
      "ம"
    ],
    [
      "ம",
      "ூ"
    ],
    [
      "ர்",
      ".</w>"
    ],
    [
      "ப",
      "ல"
    ],
    [
      "ைய",
      "ா"
    ],
    [
      "ச",
      "ா"
    ],
    [
      "ள",
      "்</w>"
    ],
    [
      "ப",
      "ய"
    ],
    [
      "ை",
      "க்</w>"
    ],
    [
      "்கள",
      "்</w>"
    ],
    [
      "ந",
      "ீ"
    ],
    [
      "கிற",
      "து.</w>"
    ],
    [
      "மு",
      "த"
    ],
    [
      "வி",
      "ள"
    ],
    [
      "்",
      "ய"
    ],
    [
      "ல",
      "ை"
    ],
    [
      "த",
      "ிய"
    ],
    [
      "த",
      "ற்க"
    ],
    [
      "ு",
      "ட"
    ],
    [
      "உள்ள",
      "</w>"
    ],
    [
      "ம",
      "ான</w>"
    ],
    [
      "த்த",
      "ின்</w>"
    ],
    [
      "ி",
      "ட"
    ],
    [
      "ச",
      "ே"
    ],
    [
      "து",
      ",</w>"
    ],
    [
      "க்க",
      "ு</w>"
    ],
    [
      "ம",
      "ாக</w>"
    ],
    [
      "ன",
      "்"
    ],
    [
      "தொ",
      "ட"
    ],
    [
      "க",
      "ூ"
    ],
    [
      "வ",
      "ில்</w>"
    ],
    [
      "கா",
      "ல"
    ],
    [
      "ஸ",
      "்ட"
    ],
    [
      "வ",
      "ீ"
    ],
    [
      "ி",
      "ப்ப"
    ],
    [
      "ட",
      "்ச"
    ],
    [
      "வ",
      "ழ"
    ],
    [
      "ும",
      "்,</w>"
    ],
    [
      "இரு",
      "ந்த"
    ],
    [
      "க்க",
      "ு"
    ],
    [
      "வ",
      "ும்</w>"
    ],
    [
      "ை",
      "கள"
    ],
    [
      "வி",
      "ன்</w>"
    ],
    [
      "ைய",
      "ில்</w>"
    ],
    [
      "ப",
      "ே"
    ],
    [
      "ய",
      "்"
    ],
    [
      "க",
      "ர"
    ],
    [
      "ஸ",
      "்"
    ],
    [
      "ந",
      "ி"
    ],
    [
      "ும",
      "்.</w>"
    ],
    [
      "த்த",
      "ு</w>"
    ],
    [
      "த்த",
      "ை</w>"
    ],
    [
      "வ",
      "ு</w>"
    ],
    [
      "ன",
      "ர்.</w>"
    ],
    [
      "ிற",
      "்க"
    ],
    [
      "அ",
      "தி"
    ],
    [
      "ைய",
      "ும்</w>"
    ],
    [
      "ஆ",
      "ண்ட"
    ],
    [
      "ன்ற",
      "ு</w>"
    ],
    [
      "ம",
      "ீ"
    ],
    [
      "ோ",
      "</w>"
    ],
    [
      "ி",
      "கள"
    ],
    [
      "ர",
      "ிய"
    ],
    [
      "என்ப",
      "து</w>"
    ],
    [
      "ை",
      "ப்ப"
    ],
    [
      "ல",
      "்"
    ],
    [
      "அ",
      "த"
    ],
    [
      "இ",
      "ர"
    ],
    [
      "என்ற",
      "ு</w>"
    ],
    [
      "அ",
      "ல்ல"
    ],
    [
      "ட",
      "்</w>"
    ],
    [
      "ண",
      "்"
    ],
    [
      "க",
      "</w>"
    ],
    [
      "ப",
      "ிற"
    ],
    [
      "ர்கள",
      "்</w>"
    ],
    [
      "ட்ட",
      "ு"
    ],
    [
      "த",
      "ெ"
    ],
    [
      "க்க",
      "</w>"
    ],
    [
      "ந",
      "ிற"
    ],
    [
      "விள",
      "ையா"
    ],
    [
      "முத",
      "ல்</w>"
    ],
    [
      "க்க",
      "ப்பட்ட"
    ],
    [
      "ில",
      "்,</w>"
    ],
    [
      "ழ",
      "்"
    ],
    [
      "ட",
      "ிய"
    ],
    [
      "அல்ல",
      "து</w>"
    ],
    [
      "வெ",
      "ள"
    ],
    [
      "ஆ",
      "ம்</w>"
    ],
    [
      "ட",
      "்"
    ],
    [
      "மு",
      "ற"
    ],
    [
      "0",
      "</w>"
    ],
    [
      "ந",
      "ோ"
    ],
    [
      "தி",
      "ர"
    ],
    [
      "கி",
      "ன்ற"
    ],
    [
      "இ",
      "ல்</w>"
    ],
    [
      "செய",
      "்ய"
    ],
    [
      "இ",
      "ட"
    ],
    [
      "ஆ",
      "க"
    ],
    [
      "ழ",
      "ு"
    ],
    [
      "வ",
      "ை</w>"
    ],
    [
      "பய",
      "ன்ப"
    ],
    [
      "ப",
      "கு"
    ],
    [
      "த",
      "ி</w>"
    ],
    [
      "ல",
      "ி"
    ],
    [
      "ச",
      "ில"
    ],
    [
      "த்த",
      "ு"
    ],
    [
      "ஏ",
      "ற்ப"
    ],
    [
      "வ",
      "து</w>"
    ],
    [
      "வ",
      "ை"
    ],
    [
      "ுட",
      "ன்</w>"
    ],
    [
      "ட்ட",
      "ு</w>"
    ],
    [
      "ந",
      "ட"
    ],
    [
      "எ",
      "ன"
    ],
    [
      "மே",
      "ல"
    ],
    [
      "க்க",
      "ும்</w>"
    ],
    [
      "க",
      "ே"
    ],
    [
      "ரு",
      "ம்ப"
    ],
    [
      "அ",
      "ற"
    ],
    [
      "ப்ப",
      "ு</w>"
    ],
    [
      "ட",
      "</w>"
    ],
    [
      "ப்ப",
      "ு"
    ],
    [
      "ிய",
      "ில்</w>"
    ],
    [
      "த்த",
      "ிற்க"
    ],
    [
      "என்ற",
      "</w>"
    ],
    [
      "ண்",
      "ண"
    ],
    [
      "ர",
      "ண"
    ],
    [
      "போ",
      "ட்ட"
    ],
    [
      "ப",
      "ட"
    ],
    [
      "ச",
      "ிற"
    ],
    [
      "த்த",
      "</w>"
    ],
    [
      "அ",
      "ன"
    ],
    [
      "பயன்ப",
      "டுத்த"
    ],
    [
      "ை",
      "த்</w>"
    ],
    [
      "ம",
      "ைய"
    ],
    [
      "ம",
      "ான"
    ],
    [
      "20",
      "1"
    ],
    [
      "அ",
      "ண"
    ],
    [
      "ந",
      "ே"
    ],
    [
      "ம",
      "்,</w>"
    ],
    [
      "பெ",
      "ற்ற"
    ],
    [
      "ப்படு",
      "கிறது.</w>"
    ],
    [
      "ட்ட",
      "</w>"
    ],
    [
      "ிரு",
      "ந்து</w>"
    ],
    [
      "ஞ",
      "்ச"
    ],
    [
      "ஃ",
      "ப"
    ],
    [
      "ற",
      "ு</w>"
    ],
    [
      "இர",
      "ண்ட"
    ],
    [
      "த",
      "</w>"
    ],
    [
      "ந",
      "கர"
    ],
    [
      "சே",
      "ர்"
    ],
    [
      "ப்பட்ட",
      "து.</w>"
    ],
    [
      "இ",
      "த"
    ],
    [
      "ம",
      "ாக"
    ],
    [
      "ில",
      "ும்</w>"
    ],
    [
      "ைய",
      "</w>"
    ],
    [
      "உ",
      "ரு"
    ],
    [
      "தன",
      "து</w>"
    ],
    [
      "அ",
      "ர"
    ],
    [
      "ம",
      "க்க"
    ],
    [
      "செய",
      "்த"
    ],
    [
      "ா",
      "ம"
    ],
    [
      "ங்கள",
      "ில்</w>"
    ],
    [
      "ப",
      "ண"
    ],
    [
      "ப்பட்ட",
      "</w>"
    ],
    [
      "க",
      "ட"
    ],
    [
      "லா",
      "ம்.</w>"
    ],
    [
      "த",
      "ோ"
    ],
    [
      "ுள்ள",
      "து.</w>"
    ],
    [
      "ர",
      "ோ"
    ],
    [
      "வ",
      "ரு"
    ],
    [
      "பல",
      "</w>"
    ],
    [
      "இரு",
      "க்க"
    ],
    [
      "க",
      "்"
    ],
    [
      "கள",
      "ில்</w>"
    ],
    [
      "வே",
      "ண்ட"
    ],
    [
      "ு",
      ",</w>"
    ],
    [
      "க",
      "ிர"
    ],
    [
      "ட",
      "ு</w>"
    ],
    [
      "ை",
      "ச்</w>"
    ],
    [
      "ய",
      "ா"
    ],
    [
      ")",
      "</w>"
    ],
    [
      "க",
      "ட்ட"
    ],
    [
      "ப",
      "ார்"
    ],
    [
      "ம",
      "ன"
    ],
    [
      "ிய",
      "ின்</w>"
    ],
    [
      "ில",
      "ிருந்து</w>"
    ],
    [
      "மேல",
      "ும்</w>"
    ],
    [
      "கின்ற",
      "ன.</w>"
    ],
    [
      "வ",
      "க"
    ],
    [
      "ம",
      "்"
    ],
    [
      "பொ",
      "ரு"
    ],
    [
      "ப்ப",
      "ா"
    ],
    [
      "மி",
      "க"
    ],
    [
      "வர",
      "ை</w>"
    ],
    [
      "க",
      "ண"
    ],
    [
      "அ",
      "ழ"
    ],
    [
      "ல",
      "ை</w>"
    ],
    [
      "ல",
      "்,</w>"
    ],
    [
      "அ",
      "டி"
    ],
    [
      "தே",
      "ச"
    ],
    [
      "த",
      "ாக</w>"
    ],
    [
      "சில",
      "</w>"
    ],
    [
      "மூ",
      "ல"
    ],
    [
      "ட",
      "ி</w>"
    ],
    [
      "ர்",
      "வ"
    ],
    [
      "நிற",
      "ுவ"
    ],
    [
      "20",
      "0"
    ],
    [
      "வெள",
      "ிய"
    ],
    [
      "ஆ",
      "ன"
    ],
    [
      "மா",
      "நில"
    ],
    [
      "ய",
      "்</w>"
    ],
    [
      "ர்",
      ",</w>"
    ],
    [
      "ரி",
      "க்க"
    ],
    [
      "த",
      "ீ"
    ],
    [
      "வ",
      "ர்</w>"
    ],
    [
      "த",
      "ை</w>"
    ],
    [
      "ங்க",
      "ு"
    ],
    [
      "ின",
      "ார்.</w>"
    ],
    [
      "தொட",
      "ர்"
    ],
    [
      "ை",
      "கள்</w>"
    ],
    [
      "ப்பட",
      "ும்</w>"
    ],
    [
      "ச",
      "ோ"
    ],
    [
      "ி",
      "கள்</w>"
    ],
    [
      "வ",
      "ிய"
    ],
    [
      "உ",
      "ட"
    ],
    [
      "குற",
      "ிப்ப"
    ],
    [
      "நே",
      "ர"
    ],
    [
      "மு",
      "க்க"
    ],
    [
      "க",
      "ரு"
    ],
    [
      "ைய",
      "ை</w>"
    ],
    [
      "ர",
      "ிய</w>"
    ],
    [
      "ஸ",
      "்த"
    ],
    [
      "து",
      "வ"
    ],
    [
      "ல்ல",
      "ை"
    ],
    [
      "ம",
      "ண"
    ],
    [
      "ட",
      "ெ"
    ],
    [
      "வ",
      "ில"
    ],
    [
      "ம",
      "ொ"
    ],
    [
      "த",
      "லை"
    ],
    [
      "ப",
      "ர"
    ],
    [
      "இ",
      "ய"
    ],
    [
      "செ",
      "ல"
    ],
    [
      "அற",
      "ி"
    ],
    [
      "ச",
      "ூ"
    ],
    [
      "ை",
      "ப்பட"
    ],
    [
      "அ",
      "ன்று</w>"
    ],
    [
      "ச",
      "ீ"
    ],
    [
      "போ",
      "ன்ற"
    ],
    [
      "கள",
      "ை</w>"
    ],
    [
      "அ",
      "ள"
    ],
    [
      "ற்ற",
      "ு"
    ],
    [
      "ார்",
      ",</w>"
    ],
    [
      "த்த",
      "ிர"
    ],
    [
      "தற்க",
      "ு</w>"
    ],
    [
      "அம",
      "ெ"
    ],
    [
      "பெ",
      "ரும்ப"
    ],
    [
      "அ",
      "ந்த</w>"
    ],
    [
      "கு",
      "ழ"
    ],
    [
      "ங",
      "்</w>"
    ],
    [
      "ஆக",
      "ிய"
    ],
    [
      "ம",
      "ெ"
    ],
    [
      "ா",
      "ர"
    ],
    [
      "த",
      "ர"
    ],
    [
      "ிரு",
      "ந்த"
    ],
    [
      "வ",
      "ல"
    ],
    [
      "ி",
      "ட்ட"
    ],
    [
      "ிற",
      "து.</w>"
    ],
    [
      "உள்ள",
      "து.</w>"
    ],
    [
      "ல",
      "</w>"
    ],
    [
      "ஸ",
      "்க"
    ],
    [
      "அவர",
      "து</w>"
    ],
    [
      "நீ",
      "ங்கள்</w>"
    ],
    [
      "வ",
      "ள"
    ],
    [
      "உ",
      "ய"
    ],
    [
      "ச",
      "ொ"
    ],
    [
      "ர்கள",
      "்.</w>"
    ],
    [
      "நிறுவ",
      "ன"
    ],
    [
      "ுக்க",
      "ு"
    ],
    [
      "வ",
      "ே</w>"
    ],
    [
      "5",
      "</w>"
    ],
    [
      "அவர",
      "்கள்</w>"
    ],
    [
      "மூல",
      "ம்</w>"
    ],
    [
      "ப",
      "ூ"
    ],
    [
      "ை",
      "ந்த"
    ],
    [
      "1",
      "</w>"
    ],
    [
      "உரு",
      "வா"
    ],
    [
      "2",
      "</w>"
    ],
    [
      "அ",
      "ட"
    ],
    [
      "ர",
      "ம்ப"
    ],
    [
      "ல",
      "்ப"
    ],
    [
      "வர",
      "்கள"
    ],
    [
      "அதி",
      "க"
    ],
    [
      "ங்க",
      "</w>"
    ],
    [
      "த",
      "ாக"
    ],
    [
      "பெரும்ப",
      "ால"
    ],
    [
      "த்த",
      "ுவ"
    ],
    [
      "இ",
      "ண"
    ],
    [
      "ி",
      "க்</w>"
    ],
    [
      "த்திற்க",
      "ு</w>"
    ],
    [
      "பெ",
      "ய"
    ],
    [
      "ோ",
      "து</w>"
    ],
    [
      "ம",
      "ோ"
    ],
    [
      "இந்த",
      "ியா"
    ],
    [
      "ச",
      "ிய"
    ],
    [
      "ர",
      "ி</w>"
    ],
    [
      "ர",
      "்க"
    ],
    [
      "மு",
      "டி"
    ],
    [
      "தி",
      "ரு"
    ],
    [
      "தா",
      "ன்</w>"
    ],
    [
      "ல்லை",
      ".</w>"
    ],
    [
      "ம",
      "ட்ட"
    ],
    [
      "ங்கள",
      "ை</w>"
    ],
    [
      "ொ",
      "ரு</w>"
    ],
    [
      "ந்த",
      "ு"
    ],
    [
      "போன்ற",
      "</w>"
    ],
    [
      "ங்க",
      "ு</w>"
    ],
    [
      "ப",
      "த"
    ],
    [
      "மா",
      "</w>"
    ],
    [
      "ர",
      "</w>"
    ],
    [
      "க",
      "ண்ட"
    ],
    [
      "பி",
      "ன்ன"
    ],
    [
      "இரண்ட",
      "ு</w>"
    ],
    [
      "மா",
      "ற்ற"
    ],
    [
      "உ",
      "ல"
    ],
    [
      "ிய",
      "து.</w>"
    ],
    [
      "ைய",
      "ின்</w>"
    ],
    [
      "வீ",
      "ர"
    ],
    [
      "ஜ",
      "ெ"
    ],
    [
      "கா",
      "ரண"
    ],
    [
      "நி",
      "க"
    ],
    [
      "ச",
      "ந்த"
    ],
    [
      "த்த",
      "ார்.</w>"
    ],
    [
      "ன",
      "</w>"
    ],
    [
      "மு",
      "க"
    ],
    [
      "ல",
      "ில்</w>"
    ],
    [
      "ட",
      "ா"
    ],
    [
      "ம",
      "ை</w>"
    ],
    [
      "ள",
      "ி"
    ],
    [
      "ந",
      "டை"
    ],
    [
      "பகு",
      "தி"
    ],
    [
      "4",
      "</w>"
    ],
    [
      "ுள்ள",
      "</w>"
    ],
    [
      "தொட",
      "ங்க"
    ],
    [
      "ி",
      "ன்ற"
    ],
    [
      "மே",
      "ற்க"
    ],
    [
      "ஒ",
      "ன்ற"
    ],
    [
      "ி",
      ",</w>"
    ],
    [
      "ை",
      "வ"
    ],
    [
      "வ",
      "டி"
    ],
    [
      "மக்க",
      "ள்</w>"
    ],
    [
      "ர",
      "ின்</w>"
    ],
    [
      "ம",
      "ை"
    ],
    [
      "ல",
      "ீ"
    ],
    [
      "இ",
      "ச"
    ],
    [
      "அ",
      "து</w>"
    ],
    [
      "\"",
      "</w>"
    ],
    [
      "6",
      "</w>"
    ],
    [
      "ா",
      "ண்ட"
    ],
    [
      "ஸ",
      "்ப"
    ],
    [
      "ப்ப",
      "ின"
    ],
    [
      "உ",
      "ண"
    ],
    [
      "திர",
      "ைப்பட"
    ],
    [
      "ர",
      "ாக</w>"
    ],
    [
      "அத",
      "ன்</w>"
    ],
    [
      "பொ",
      "துவ"
    ],
    [
      "உ",
      "று"
    ],
    [
      "ப்ப",
      "டுத்த"
    ],
    [
      "வழ",
      "ங்க"
    ],
    [
      "அவர",
      "்கள"
    ],
    [
      "வ",
      "ய"
    ],
    [
      "வ",
      "ட்ட"
    ],
    [
      "ச",
      "ம"
    ],
    [
      "ரா",
      "ஜ"
    ],
    [
      "உ",
      "ங்கள்</w>"
    ],
    [
      "8",
      "</w>"
    ],
    [
      "பா",
      "ட"
    ],
    [
      "ஆன",
      "ால்</w>"
    ],
    [
      "எ",
      "ழு"
    ],
    [
      "பகு",
      "திய"
    ],
    [
      "ஒ",
      "ரு"
    ],
    [
      "ப",
      "ட்ட"
    ],
    [
      "ஆண்ட",
      "ு</w>"
    ],
    [
      "ரு",
      "க்கு</w>"
    ],
    [
      "3",
      "</w>"
    ],
    [
      "இந்த",
      "ிய</w>"
    ],
    [
      "இ",
      "ல்ல"
    ],
    [
      "உ",
      "த"
    ],
    [
      "ர",
      "ில்</w>"
    ],
    [
      "வி",
      "</w>"
    ],
    [
      "ற்ற",
      "ி</w>"
    ],
    [
      "ே",
      "ய"
    ],
    [
      "ா",
      "வது</w>"
    ],
    [
      "ால",
      "்,</w>"
    ],
    [
      "ந",
      "ூ"
    ],
    [
      "ன",
      "ி"
    ],
    [
      "ச",
      "ி</w>"
    ],
    [
      "ா",
      "ர்கள்.</w>"
    ],
    [
      "ன",
      "்ட"
    ],
    [
      "க",
      "ை</w>"
    ],
    [
      "கி",
      "ள"
    ],
    [
      "ா",
      "ம்</w>"
    ],
    [
      "எ",
      "தி"
    ],
    [
      "சேர்",
      "ந்த</w>"
    ],
    [
      "ன",
      "ா"
    ],
    [
      "கொண்ட",
      "</w>"
    ],
    [
      "ிய",
      "ை</w>"
    ],
    [
      "ையா",
      "ள"
    ],
    [
      "ன",
      "ை</w>"
    ],
    [
      "மு",
      "ன்ன"
    ],
    [
      "ந",
      "டி"
    ],
    [
      "0",
      "0"
    ],
    [
      "ெ",
      "டு"
    ],
    [
      "நிக",
      "ழ்"
    ],
    [
      "மிக",
      "வும்</w>"
    ],
    [
      "பி",
      "டி"
    ],
    [
      "ிய",
      "ா</w>"
    ],
    [
      "ைய",
      "ான</w>"
    ],
    [
      "போ",
      "து</w>"
    ],
    [
      "ப",
      "தி"
    ],
    [
      "ல",
      "்கள"
    ],
    [
      "அன",
      "ை"
    ],
    [
      "ப்படு",
      "கின்றன.</w>"
    ],
    [
      "ா",
      "ள"
    ],
    [
      "7",
      "</w>"
    ],
    [
      "த",
      "ில்</w>"
    ],
    [
      "ந",
      "க"
    ],
    [
      "ம",
      "ரு"
    ],
    [
      "ங்கள",
      "்.</w>"
    ],
    [
      "க",
      "ீ"
    ],
    [
      "மு",
      "ழ"
    ],
    [
      "த",
      "ும்</w>"
    ],
    [
      "க",
      "ு</w>"
    ],
    [
      "பெ",
      "ற"
    ],
    [
      "ட",
      "்கள"
    ],
    [
      "முற",
      "ை</w>"
    ],
    [
      "ந",
      "ிய"
    ],
    [
      "19",
      "9"
    ],
    [
      "கொ",
      "ள்ள"
    ],
    [
      ":",
      "</w>"
    ],
    [
      "அமெ",
      "ரிக்க"
    ],
    [
      "கா",
      "ண"
    ],
    [
      "ைக்க",
      "ு</w>"
    ],
    [
      "ப்ப",
      "ி"
    ],
    [
      "ுக்க",
      "ும்</w>"
    ],
    [
      "அழ",
      "ைக்க"
    ],
    [
      "ந்த",
      "ார்.</w>"
    ],
    [
      "ும",
      "ே</w>"
    ],
    [
      "க",
      "ல"
    ],
    [
      "ங்கள",
      "ுக்கு</w>"
    ],
    [
      "ாக",
      "வும்</w>"
    ],
    [
      "ப்படு",
      "கிற"
    ],
    [
      "ர்",
      "த்த"
    ],
    [
      "உள்ள",
      "ன.</w>"
    ],
    [
      "ர்",
      "ச்ச"
    ],
    [
      "வா",
      "ழ்"
    ],
    [
      "ன",
      "்,</w>"
    ],
    [
      "ந்த",
      "ிர"
    ],
    [
      "ா",
      "வின்</w>"
    ],
    [
      "இந்த",
      "ப்</w>"
    ],
    [
      "ிரு",
      "க்க"
    ],
    [
      "மொ",
      "ழ"
    ],
    [
      "வ",
      "ற்ற"
    ],
    [
      "கள",
      "ின்</w>"
    ],
    [
      "ஷ",
      "்</w>"
    ],
    [
      "இத",
      "ன்</w>"
    ],
    [
      "தா",
      "ல்</w>"
    ],
    [
      "த",
      "ங்கள்</w>"
    ],
    [
      "ன",
      ",</w>"
    ],
    [
      "க",
      "ன"
    ],
    [
      "ட",
      "ும்</w>"
    ],
    [
      "இருந்த",
      "து.</w>"
    ],
    [
      "ர",
      "ை</w>"
    ],
    [
      "மக்க",
      "ள"
    ],
    [
      "ட்ட",
      "ில்</w>"
    ],
    [
      "தெ",
      "ரி"
    ],
    [
      "ட்ட",
      "ை</w>"
    ],
    [
      "ர",
      "ெ"
    ],
    [
      "த",
      "யா"
    ],
    [
      "ற",
      "்ச"
    ],
    [
      "எ",
      "திர"
    ],
    [
      "தொ",
      "ழ"
    ],
    [
      "த",
      "ூ"
    ],
    [
      "க்க",
      "ூ"
    ],
    [
      "ர",
      "ும்</w>"
    ],
    [
      "முக்க",
      "ிய"
    ],
    [
      "நோ",
      "ய"
    ],
    [
      "ைய",
      "ாக</w>"
    ],
    [
      "ஹ",
      "ா"
    ],
    [
      "ு",
      "த்த"
    ],
    [
      "ந",
      "ெ"
    ],
    [
      "எதி",
      "ர்"
    ],
    [
      "மா",
      "ர்</w>"
    ],
    [
      "!",
      "</w>"
    ],
    [
      "ஒ",
      "வ்வ"
    ],
    [
      "அ",
      "ரு"
    ],
    [
      "த",
      "ம்</w>"
    ],
    [
      "அம",
      "ைந்த"
    ],
    [
      "ல",
      "்ட"
    ],
    [
      "பா",
      "தி"
    ],
    [
      "ப",
      "ரி"
    ],
    [
      "வ",
      "ட"
    ],
    [
      "ை",
      ",</w>"
    ],
    [
      "ைய",
      "ே</w>"
    ],
    [
      "க",
      "வ"
    ],
    [
      "ல",
      "ோ"
    ],
    [
      "ிக்க",
      "ு</w>"
    ],
    [
      "ஷ",
      "்"
    ],
    [
      "வர",
      "்கள்</w>"
    ],
    [
      "பின்ன",
      "ர்</w>"
    ],
    [
      "ட",
      "ன்</w>"
    ],
    [
      "எ",
      "ன்ன"
    ],
    [
      "வே",
      "று</w>"
    ],
    [
      "அதி",
      "க</w>"
    ],
    [
      "ட்ச",
      "ி</w>"
    ],
    [
      "வி",
      "ரு"
    ],
    [
      "வ",
      "ாக"
    ],
    [
      "பிர",
      "ி"
    ],
    [
      "ற்ற",
      "ு</w>"
    ],
    [
      "மா",
      "வட்ட"
    ],
    [
      "்",
      "ஸ்</w>"
    ],
    [
      "ங்க",
      "ில"
    ],
    [
      "இரு",
      "ப்ப"
    ],
    [
      "ப",
      "ழ"
    ],
    [
      "ம",
      "ும்</w>"
    ],
    [
      "ட",
      "ிய</w>"
    ],
    [
      "குற",
      "ி"
    ],
    [
      "த",
      "ல்</w>"
    ],
    [
      "ள",
      "ா"
    ],
    [
      "கூ",
      "ற"
    ],
    [
      "இருந்த",
      "ார்.</w>"
    ],
    [
      "ப",
      "ீ"
    ],
    [
      "ச",
      "ன"
    ],
    [
      "ய",
      "ு"
    ],
    [
      "க்கப்பட்ட",
      "</w>"
    ],
    [
      "வ",
      "ந்த"
    ],
    [
      "மா",
      "ற"
    ],
    [
      "க்க",
      "ம்</w>"
    ],
    [
      "ி",
      "க"
    ],
    [
      "ிகள",
      "ில்</w>"
    ],
    [
      "க்க",
      "ில்</w>"
    ],
    [
      "ா",
      "ர்</w>"
    ],
    [
      "வி",
      "டு"
    ],
    [
      "ு",
      "ப்</w>"
    ],
    [
      "இ",
      "ற"
    ],
    [
      "வி",
      "ல்லை.</w>"
    ],
    [
      "முக்க",
      "ிய</w>"
    ],
    [
      "ிக்க",
      "</w>"
    ],
    [
      "ல்ல",
      "ிய"
    ],
    [
      "அதி",
      "கா"
    ],
    [
      "ு",
      "கள"
    ],
    [
      "ம",
      "ர"
    ],
    [
      "அவ",
      "ை</w>"
    ],
    [
      "ஹ",
      "ெ"
    ],
    [
      "மட்ட",
      "ுமே</w>"
    ],
    [
      "ரா",
      "ண"
    ],
    [
      "ம",
      "ைப்ப"
    ],
    [
      "த",
      "ல"
    ],
    [
      "ுள்ள",
      "ன.</w>"
    ],
    [
      "தி",
      "ட்ட"
    ],
    [
      "த",
      "ிய</w>"
    ],
    [
      "கி",
      "ழ"
    ],
    [
      "ம்ப",
      "ர்</w>"
    ],
    [
      "அ",
      "க"
    ],
    [
      "மு",
      "டிய"
    ],
    [
      "டி",
      ",</w>"
    ],
    [
      "ஜ",
      "ூ"
    ],
    [
      "ிய",
      "ாக</w>"
    ],
    [
      "பிற",
      "கு</w>"
    ],
    [
      "த்த",
      "து.</w>"
    ],
    [
      "அ",
      "ல"
    ],
    [
      "க்க",
      "ி</w>"
    ],
    [
      "ய",
      "ூ"
    ],
    [
      "வர",
      "ி</w>"
    ],
    [
      "ண்ட",
      "ும்</w>"
    ],
    [
      "ான",
      "்க"
    ],
    [
      "பிற",
      "</w>"
    ],
    [
      "நூ",
      "ற்ற"
    ],
    [
      "ப",
      "ின"
    ],
    [
      "த்த",
      "ிய</w>"
    ],
    [
      "ம",
      "ல"
    ],
    [
      "ு",
      "ற"
    ],
    [
      "வ",
      "ண"
    ],
    [
      "வி",
      "ர"
    ],
    [
      "ட்ட",
      "ின்</w>"
    ],
    [
      "ுக்க",
      "ொ"
    ],
    [
      "வி",
      "ழ"
    ],
    [
      "மூ",
      "ன்று</w>"
    ],
    [
      "செ",
      "ல்ல"
    ],
    [
      "அடி",
      "ப்பட"
    ],
    [
      "அம",
      "ைப்ப"
    ],
    [
      "ுக்க",
      "ான</w>"
    ],
    [
      "்க",
      "ிற"
    ],
    [
      "கொண்ட",
      "ு</w>"
    ],
    [
      "வழ",
      "ி"
    ],
    [
      "நில",
      "ைய"
    ],
    [
      "என",
      "ின"
    ],
    [
      "ற்ற",
      "</w>"
    ],
    [
      "ர்",
      "ந்த"
    ],
    [
      "ப",
      "ாக"
    ],
    [
      "வி",
      "ட்ட"
    ],
    [
      "கி",
      "ச்ச"
    ],
    [
      "1",
      "8"
    ],
    [
      "கிற",
      "ார்.</w>"
    ],
    [
      "த",
      "ான"
    ],
    [
      "பெ",
      "ண"
    ],
    [
      "ைகள",
      "ை</w>"
    ],
    [
      "தேச",
      "ிய</w>"
    ],
    [
      "ிட",
      "ம்</w>"
    ],
    [
      "க",
      "ம்</w>"
    ],
    [
      "ா",
      "ண"
    ],
    [
      "ம",
      "ார்"
    ],
    [
      "ர",
      "ே</w>"
    ],
    [
      "பொதுவ",
      "ாக</w>"
    ],
    [
      "ாக",
      "க்</w>"
    ],
    [
      "மு",
      "ன்ப"
    ],
    [
      "சு",
      "மார்</w>"
    ],
    [
      "ந",
      "ின"
    ],
    [
      "குழ",
      "ந்த"
    ],
    [
      "மீ",
      "ண்டும்</w>"
    ],
    [
      "தற்க",
      "ான</w>"
    ],
    [
      "ஸ்ட",
      "்</w>"
    ],
    [
      "ூ",
      "ர்</w>"
    ],
    [
      "ாக",
      "ப்</w>"
    ],
    [
      "ா",
      "ந்த"
    ],
    [
      "நூற்ற",
      "ாண்ட"
    ],
    [
      "கு",
      "திய"
    ],
    [
      "ி",
      "ப்</w>"
    ],
    [
      "வடி",
      "வ"
    ],
    [
      "ஒவ்வ",
      "ொரு</w>"
    ],
    [
      "அன",
      "ு"
    ],
    [
      "மா",
      "த"
    ],
    [
      "ய",
      "ோ"
    ],
    [
      "ரி",
      "க்க</w>"
    ],
    [
      "ஃ",
      "ப்</w>"
    ],
    [
      "டு",
      "ம்ப"
    ],
    [
      "ா",
      "ன்</w>"
    ],
    [
      "வா",
      "ய்"
    ],
    [
      "ச",
      "ிக்க"
    ],
    [
      "பா",
      "து"
    ],
    [
      "சி",
      "கிச்ச"
    ],
    [
      "த",
      "ன்</w>"
    ],
    [
      "த்த",
      "ிய"
    ],
    [
      "பிர",
      "பல"
    ],
    [
      "பெ",
      "ரிய</w>"
    ],
    [
      "ழ",
      "்</w>"
    ],
    [
      "ாக",
      ",</w>"
    ],
    [
      "19",
      "8"
    ],
    [
      "செய",
      "ல்ப"
    ],
    [
      "பாது",
      "கா"
    ],
    [
      "ஹ",
      "ோ"
    ],
    [
      "ன",
      "ில்</w>"
    ],
    [
      "ம",
      "தி"
    ],
    [
      "பெரும்பால",
      "ும்</w>"
    ],
    [
      "அ",
      "ந்த"
    ],
    [
      "9",
      "</w>"
    ],
    [
      "க்கப்பட்ட",
      "து.</w>"
    ],
    [
      "இ",
      "ப்ப"
    ],
    [
      "அட",
      "ங்க"
    ],
    [
      "த",
      "ிற"
    ],
    [
      "தற்க",
      "ாக</w>"
    ],
    [
      "ை",
      "ச்ச"
    ],
    [
      "ற",
      "ி"
    ],
    [
      "க்க",
      "ிய</w>"
    ],
    [
      "கோ",
      "ய"
    ],
    [
      "ா",
      "வ"
    ],
    [
      "எ",
      "ண்ண"
    ],
    [
      "ல",
      "ைக்க"
    ],
    [
      "எ",
      "டுத்த"
    ],
    [
      "எ",
      "ல்ல"
    ],
    [
      "இந்தியா",
      "வின்</w>"
    ],
    [
      "ப",
      "ள்ள"
    ],
    [
      "ால",
      "</w>"
    ],
    [
      "நா",
      "டு"
    ],
    [
      "ச",
      "ட்ட"
    ],
    [
      "ர",
      "ே"
    ],
    [
      "ஆ",
      "ர்"
    ],
    [
      "இ",
      "று"
    ],
    [
      "கு",
      ",</w>"
    ],
    [
      "க",
      "ார்"
    ],
    [
      "ாம",
      "ல்</w>"
    ],
    [
      "அர",
      "ச"
    ],
    [
      "ந",
      "ம்ப"
    ],
    [
      "க",
      "ட்டு"
    ],
    [
      "ச",
      "ார்"
    ],
    [
      "போ",
      "ர்"
    ],
    [
      "நா",
      "ட"
    ],
    [
      "ில",
      "்"
    ],
    [
      "இ",
      "ல"
    ],
    [
      "19",
      "7"
    ],
    [
      "ா",
      "வில்</w>"
    ],
    [
      "நா",
      "ள"
    ],
    [
      "இரு",
      "க்கு"
    ],
    [
      "பா",
      "ரம்ப"
    ],
    [
      "ி",
      "ட்ட</w>"
    ],
    [
      "ிற",
      "்ச"
    ],
    [
      "வர",
      "ும்</w>"
    ],
    [
      "த",
      "ற்ப"
    ],
    [
      "இரு",
      "ந்து</w>"
    ],
    [
      "அவ",
      "ற்ற"
    ],
    [
      "ஆக",
      "ிய</w>"
    ],
    [
      "ன",
      "்க"
    ],
    [
      "ி",
      "ச"
    ],
    [
      "ோ",
      "ர்</w>"
    ],
    [
      "ர",
      "ா</w>"
    ],
    [
      "வெ",
      "ன்ற"
    ],
    [
      "உறு",
      "ப்பின"
    ],
    [
      "ைய",
      "ில"
    ],
    [
      "ர",
      "ீ"
    ],
    [
      "க்க",
      "ிய"
    ],
    [
      "வா",
      "ங்க"
    ],
    [
      "பல",
      "்"
    ],
    [
      "ியா",
      "ள"
    ],
    [
      "ா",
      "த</w>"
    ],
    [
      "குற",
      "ை"
    ],
    [
      "மு",
      "ய"
    ],
    [
      "து",
      "ற"
    ],
    [
      "ஷ",
      "ா"
    ],
    [
      "ந",
      "ான்க"
    ],
    [
      "ஆ",
      "ட்ச"
    ],
    [
      "பே",
      "ர"
    ],
    [
      "பா",
      "ல"
    ],
    [
      "நட",
      "த்த"
    ],
    [
      "இந்த",
      "க்</w>"
    ],
    [
      "த்த",
      "ில்,</w>"
    ],
    [
      "ர",
      "ொ"
    ],
    [
      "பு",
      "திய</w>"
    ],
    [
      "ம",
      "ே</w>"
    ],
    [
      "ந",
      "ு"
    ],
    [
      "ங்கள",
      "ின்</w>"
    ],
    [
      "வு",
      "கள"
    ],
    [
      "க",
      "ழ"
    ],
    [
      "ர",
      "்த"
    ],
    [
      "ப",
      "டை"
    ],
    [
      "ற",
      "</w>"
    ],
    [
      "த",
      "ள"
    ],
    [
      ",",
      "00"
    ],
    [
      "டி",
      "ன"
    ],
    [
      "தன",
      "ி"
    ],
    [
      "தன",
      "்"
    ],
    [
      "பெற்ற",
      "</w>"
    ],
    [
      "உல",
      "க"
    ],
    [
      "மைய",
      "ான</w>"
    ],
    [
      "என்ற",
      "ும்</w>"
    ],
    [
      "கிர",
      "ாம"
    ],
    [
      "அமெ",
      "ரிக்க</w>"
    ],
    [
      "ி",
      "ழ"
    ],
    [
      "ப",
      "ர்</w>"
    ],
    [
      "விளையா",
      "ட்டு</w>"
    ],
    [
      "பல்",
      "வேறு</w>"
    ],
    [
      "ர்கள",
      "ின்</w>"
    ],
    [
      "ப்ப",
      "ை</w>"
    ],
    [
      "வி",
      "ன"
    ],
    [
      "நா",
      "ன்</w>"
    ],
    [
      "வ",
      "்</w>"
    ],
    [
      "பிற",
      "கு,</w>"
    ],
    [
      "கு",
      "டும்ப"
    ],
    [
      "பே",
      "ர்</w>"
    ],
    [
      "க",
      "ை"
    ],
    [
      "ப",
      "ற்ற"
    ],
    [
      "து",
      "ண"
    ],
    [
      "த்த",
      "ைப்</w>"
    ],
    [
      "இத",
      "ில்</w>"
    ],
    [
      "ய",
      "ி"
    ],
    [
      "ண்ட",
      "்</w>"
    ],
    [
      "ச",
      "ிர"
    ],
    [
      "ப",
      "்"
    ],
    [
      "வ",
      "ர்"
    ],
    [
      "காரண",
      "மாக</w>"
    ],
    [
      "செய",
      "்"
    ],
    [
      "ச",
      "மூ"
    ],
    [
      "அ",
      "ப்ப"
    ],
    [
      "வி",
      "ட</w>"
    ],
    [
      "மற்ற",
      "</w>"
    ],
    [
      "ஆ",
      "ண"
    ],
    [
      "டு",
      "வ"
    ],
    [
      "கொண்ட",
      "ா"
    ],
    [
      "ஃப",
      "்"
    ],
    [
      "அரு",
      "க"
    ],
    [
      "லா",
      "ம்</w>"
    ],
    [
      "ின்ற",
      "ன.</w>"
    ],
    [
      "அனை",
      "த்து</w>"
    ],
    [
      "க",
      "டை"
    ],
    [
      "ு",
      "கள்</w>"
    ],
    [
      "ட",
      "ோ"
    ],
    [
      "ைகள",
      "ில்</w>"
    ],
    [
      "அ",
      "ங்க"
    ],
    [
      "ஜ",
      "ி"
    ],
    [
      "கால",
      "</w>"
    ],
    [
      "ப",
      "்ட"
    ],
    [
      "தயா",
      "ரி"
    ],
    [
      "ப",
      "ந்த"
    ],
    [
      "டை",
      "ந்த"
    ],
    [
      "ுக்க",
      "ள"
    ],
    [
      "ப்பட்ட",
      "ுள்ளது.</w>"
    ],
    [
      "நில",
      "ை</w>"
    ],
    [
      "கூ",
      "ட்ட"
    ],
    [
      "போ",
      "ல"
    ],
    [
      "ுக்கு",
      "ப்</w>"
    ],
    [
      "டி",
      "க்க"
    ],
    [
      "ஜ",
      "ன"
    ],
    [
      "வழ",
      "க்க"
    ],
    [
      "என்ப",
      "தை</w>"
    ],
    [
      "வ",
      "ங்க"
    ],
    [
      "ின",
      "ர்.</w>"
    ],
    [
      "தெரி",
      "வி"
    ],
    [
      "எனின",
      "ும்,</w>"
    ],
    [
      "நோ",
      "ய்</w>"
    ],
    [
      "த்த",
      "ி</w>"
    ],
    [
      "ர",
      "ச"
    ],
    [
      "ஆகிய",
      "வை</w>"
    ],
    [
      "தொடர்",
      "ந்து</w>"
    ],
    [
      "ர",
      "ம்</w>"
    ],
    [
      "ப",
      "ங்க"
    ],
    [
      "விளையா",
      "ட்டு"
    ],
    [
      "ு",
      ".</w>"
    ],
    [
      "ன",
      "ி</w>"
    ],
    [
      "ப்ப",
      "ூ"
    ],
    [
      "ல",
      "ே"
    ],
    [
      "வ",
      "ும்,</w>"
    ],
    [
      "ங்கள",
      "்,</w>"
    ],
    [
      "ப",
      "ண்ண"
    ],
    [
      "ம",
      "த"
    ],
    [
      "வு",
      "கள்</w>"
    ],
    [
      "வி",
      "ரும்ப"
    ],
    [
      "ஆண்ட",
      "ில்</w>"
    ],
    [
      "ட்ட",
      "ர்</w>"
    ],
    [
      "ட",
      "ியா"
    ],
    [
      "ஏற்ப",
      "டுத்த"
    ],
    [
      "ோ",
      "ட</w>"
    ],
    [
      "பெ",
      "ரு"
    ],
    [
      "வர",
      "லா"
    ],
    [
      "ிய",
      "ல்</w>"
    ],
    [
      "வ",
      "ுக்கு</w>"
    ],
    [
      "ப",
      "ண்ட"
    ],
    [
      "ான",
      "்"
    ],
    [
      "ால",
      "ும்</w>"
    ],
    [
      "பொரு",
      "ட்கள"
    ],
    [
      "கா",
      "ட்ட"
    ],
    [
      "ப",
      "ி</w>"
    ],
    [
      "ல",
      "ு"
    ],
    [
      "ொ",
      "ரு"
    ],
    [
      "பெரும்பால",
      "ான</w>"
    ],
    [
      "வேண்ட",
      "ும்.</w>"
    ],
    [
      "பி",
      "ள"
    ],
    [
      "ர",
      "ியா"
    ],
    [
      "ர்கள",
      "்,</w>"
    ],
    [
      "ன",
      "ின்</w>"
    ],
    [
      "ிகள",
      "ை</w>"
    ],
    [
      "சிற",
      "ந்த</w>"
    ],
    [
      "அ",
      "டுத்த"
    ],
    [
      "இருக்க",
      "ும்.</w>"
    ],
    [
      "சா",
      "ம்ப"
    ],
    [
      "ேய",
      "ே</w>"
    ],
    [
      "க",
      "ெ"
    ],
    [
      "வ",
      "ைக்க"
    ],
    [
      "நிய",
      "ூ"
    ],
    [
      "ல",
      "ி</w>"
    ],
    [
      "ி",
      "ஸ்த"
    ],
    [
      "ப்பட்ட",
      "ன.</w>"
    ],
    [
      "இ",
      "ல்,</w>"
    ],
    [
      "நோ",
      "ய்"
    ],
    [
      "ஆ",
      "ரம்ப"
    ],
    [
      "ஸ",
      "்,</w>"
    ],
    [
      "ா",
      "ய"
    ],
    [
      "ஸ",
      "ில்</w>"
    ],
    [
      "போ",
      "து,</w>"
    ],
    [
      "இ",
      "ன்ன"
    ],
    [
      "அத",
      "ை</w>"
    ],
    [
      "ப்பட்ட",
      "ார்.</w>"
    ],
    [
      "ாக",
      "்</w>"
    ],
    [
      "எ",
      "ஸ்"
    ],
    [
      "முழ",
      "ுவ"
    ],
    [
      "த",
      "டு"
    ],
    [
      "குறிப்ப",
      "ிட"
    ],
    [
      "ுள்ள",
      "ார்.</w>"
    ],
    [
      "மீ",
      "து</w>"
    ],
    [
      "வ",
      "ான"
    ],
    [
      "ைக்க",
      "ு"
    ],
    [
      "வெளிய",
      "ிட"
    ],
    [
      "0",
      "0</w>"
    ],
    [
      "ம",
      "ன்ன"
    ],
    [
      "20",
      "</w>"
    ],
    [
      "ே",
      "ற்ற"
    ],
    [
      "ன",
      "ர்,</w>"
    ],
    [
      "கண",
      "க்க"
    ],
    [
      "செய்ய",
      "</w>"
    ],
    [
      "குறி",
      "த்து</w>"
    ],
    [
      "கா",
      "ய"
    ],
    [
      "ச",
      "ை"
    ],
    [
      "அத",
      "ே</w>"
    ],
    [
      "19",
      "6"
    ],
    [
      "ஒ",
      "ப்ப"
    ],
    [
      "வி",
      "ற்க"
    ],
    [
      "போட்ட",
      "ியில்</w>"
    ],
    [
      "க",
      "த"
    ],
    [
      "ஒ",
      "ரே</w>"
    ],
    [
      "கரு",
      "த"
    ],
    [
      "இ",
      "தன"
    ],
    [
      "வேண்ட",
      "ும்</w>"
    ],
    [
      "க",
      "ர்"
    ],
    [
      "பிர",
      "ிட்ட"
    ],
    [
      "கு",
      "டிய"
    ],
    [
      "வெ",
      "ற்ற"
    ],
    [
      "ப",
      "க்க"
    ],
    [
      "வா",
      "</w>"
    ],
    [
      "ட",
      "ே"
    ],
    [
      "ரு",
      "வ"
    ],
    [
      "நி",
      "ர்வ"
    ],
    [
      "ல்ல",
      "</w>"
    ],
    [
      "ுக்க",
      "ாக</w>"
    ],
    [
      "ு",
      "ங்கள்.</w>"
    ],
    [
      "ரொ",
      "ம்ப"
    ],
    [
      "செ",
      "ன்ற"
    ],
    [
      "ட",
      "ிர"
    ],
    [
      "த்த",
      "ுடன்</w>"
    ],
    [
      "மான",
      "ார்.</w>"
    ],
    [
      "தேச",
      "</w>"
    ],
    [
      "தா",
      "ல்,</w>"
    ],
    [
      "சாம்ப",
      "ிய"
    ],
    [
      "ய",
      "</w>"
    ],
    [
      "ர",
      "ூ"
    ],
    [
      "ஒ",
      "லி"
    ],
    [
      "த்த",
      "ையும்</w>"
    ],
    [
      "மரு",
      "த்துவ"
    ],
    [
      "ப",
      "்த"
    ],
    [
      "க",
      "லை"
    ],
    [
      "முய",
      "ற்ச"
    ],
    [
      "ட",
      "்ப"
    ],
    [
      "உ",
      "ங்கள"
    ],
    [
      "ட",
      "ை</w>"
    ],
    [
      "ப",
      "டி"
    ],
    [
      "மி",
      "க</w>"
    ],
    [
      "ன",
      "்ச"
    ],
    [
      "இ",
      "ள"
    ],
    [
      "இரு",
      "க்கும்</w>"
    ],
    [
      "கு",
      "ள"
    ],
    [
      "இரண்ட",
      "ாவது</w>"
    ],
    [
      "க",
      "்ட"
    ],
    [
      "தெ",
      "ற்க"
    ],
    [
      "ந",
      "ிர"
    ],
    [
      "ச",
      "ம்ப"
    ],
    [
      "கா",
      "</w>"
    ],
    [
      "கி",
      "ட"
    ],
    [
      "த்த",
      "ா"
    ],
    [
      "ச",
      "ங்க"
    ],
    [
      "ஸ்த",
      "ிர"
    ],
    [
      "ப்ப",
      "ெ"
    ],
    [
      "ன்",
      "ஸ்</w>"
    ],
    [
      "குற",
      "ிக்க"
    ],
    [
      "த்த",
      "ொ"
    ],
    [
      "ம்ப",
      "ெ"
    ],
    [
      "தா",
      "ரண"
    ],
    [
      "பொ",
      "று"
    ],
    [
      "வெ",
      "ள்ள"
    ],
    [
      "செய்த",
      "ு</w>"
    ],
    [
      "ச",
      "ரிய"
    ],
    [
      "அடங்க",
      "ும்.</w>"
    ],
    [
      "க",
      "ல்"
    ],
    [
      "வி",
      "ல்ல"
    ],
    [
      ",00",
      "0</w>"
    ],
    [
      "ச",
      "ர்வ"
    ],
    [
      "த்த",
      "ால்</w>"
    ],
    [
      "ப்பட்ட",
      "ு</w>"
    ],
    [
      "இரு",
      "ந்த</w>"
    ],
    [
      "என்ப",
      "த"
    ],
    [
      "ண்ட",
      "</w>"
    ],
    [
      "ராண",
      "ுவ"
    ],
    [
      "ப்ப",
      "ோ"
    ],
    [
      "க",
      "ைய"
    ],
    [
      "அவ",
      "ருக்கு</w>"
    ],
    [
      "ம",
      "ற"
    ],
    [
      "என",
      "க்கு</w>"
    ],
    [
      "ரொம்ப",
      "</w>"
    ],
    [
      "வாழ்",
      "க்க"
    ],
    [
      "பய",
      "ிற்ச"
    ],
    [
      "ம",
      "ண்ட"
    ],
    [
      "கிற",
      "ார்கள்.</w>"
    ],
    [
      "போ",
      "த"
    ],
    [
      "ன",
      "ு</w>"
    ],
    [
      "சிற",
      "ிய</w>"
    ],
    [
      "ம",
      "்ச"
    ],
    [
      "எ",
      "ன்"
    ],
    [
      "த்து",
      "க்</w>"
    ],
    [
      "பிர",
      "ச்ச"
    ],
    [
      "கூ",
      "று"
    ],
    [
      "ஆ",
      "ட்ட"
    ],
    [
      "ல",
      "ா</w>"
    ],
    [
      "ச",
      "க"
    ],
    [
      "முத",
      "லில்</w>"
    ],
    [
      "்கள",
      "ை</w>"
    ],
    [
      "வி",
      "ட"
    ],
    [
      "த",
      "ன்ன"
    ],
    [
      "தொ",
      "லை"
    ],
    [
      "வய",
      "தில்</w>"
    ],
    [
      "மேற்க",
      "ு</w>"
    ],
    [
      "ண்ட",
      "ு</w>"
    ],
    [
      "ல",
      "ெ"
    ],
    [
      "ரு",
      "க்க"
    ],
    [
      "அர",
      "சிய"
    ],
    [
      "ன",
      "ா</w>"
    ],
    [
      "பய",
      "ண"
    ],
    [
      "ந",
      "்"
    ],
    [
      "ம",
      "ர்"
    ],
    [
      "தா",
      "ர"
    ],
    [
      "வெ",
      "ப்ப"
    ],
    [
      "த்த",
      "ைக்</w>"
    ],
    [
      ";",
      "</w>"
    ],
    [
      "தே",
      "வ"
    ],
    [
      "மு",
      "டியா"
    ],
    [
      "எ",
      "ந்த</w>"
    ],
    [
      "அறி",
      "வி"
    ],
    [
      "ள",
      "வு</w>"
    ],
    [
      "த்த",
      "ைச்</w>"
    ],
    [
      "அ",
      "ங்கு</w>"
    ],
    [
      "கோ",
      "ட்ட"
    ],
    [
      "ா",
      ",</w>"
    ],
    [
      "வ",
      "ற"
    ],
    [
      "க்கூ",
      "டிய</w>"
    ],
    [
      "தொ",
      "கு"
    ],
    [
      "ுள்ள",
      "னர்.</w>"
    ],
    [
      "பல",
      "்க"
    ],
    [
      "ன",
      "ர்</w>"
    ],
    [
      "ஜ",
      "்</w>"
    ],
    [
      "ஸ்ட",
      "்"
    ],
    [
      "ள",
      "ை</w>"
    ],
    [
      "ி",
      "ஷ்</w>"
    ],
    [
      "ஸ",
      "ின்</w>"
    ],
    [
      "வெ",
      "ற்றி</w>"
    ],
    [
      "உருவா",
      "க்க"
    ],
    [
      "தோ",
      "ன்ற"
    ],
    [
      "நான்க",
      "ு</w>"
    ],
    [
      "கூ",
      "ட</w>"
    ],
    [
      "ர்கள",
      "ை</w>"
    ],
    [
      "ப்ப",
      "ிர"
    ],
    [
      "ா",
      "ட்ட"
    ],
    [
      "ஆகிய",
      "வற்ற"
    ],
    [
      "ஆ",
      "ங்கில"
    ],
    [
      "ர்க",
      "்</w>"
    ],
    [
      "மி",
      "ல்லிய"
    ],
    [
      "வெள",
      "ி"
    ],
    [
      "வ",
      "ச"
    ],
    [
      "ஆ",
      "கு"
    ],
    [
      "மாக",
      "ாண"
    ],
    [
      "கள",
      "ும்</w>"
    ],
    [
      "பண",
      "ியா"
    ],
    [
      "ம",
      "ின"
    ],
    [
      "உ",
      "ரி"
    ],
    [
      "ல",
      "ின்</w>"
    ],
    [
      "மு",
      "தன்"
    ],
    [
      "ிற்க",
      "ு</w>"
    ],
    [
      "பார்",
      "க்க"
    ],
    [
      "ங்கள",
      "ும்</w>"
    ],
    [
      "மே",
      "ற்ப"
    ],
    [
      "ப",
      "ற்றி</w>"
    ],
    [
      "தொடர்",
      "ப"
    ],
    [
      "செய்",
      "வ"
    ],
    [
      "கண்ட",
      "ு"
    ],
    [
      "வி",
      "தி"
    ],
    [
      "ய்",
      "ச்ச"
    ],
    [
      "1",
      "7"
    ],
    [
      "உட",
      "்ப"
    ],
    [
      "ஒலி",
      "ம்ப"
    ],
    [
      "திய",
      "ாக</w>"
    ],
    [
      "பெற்ற",
      "து.</w>"
    ],
    [
      "ஷ",
      "்ட"
    ],
    [
      "மதி",
      "ப்ப"
    ],
    [
      "ரா",
      "ய"
    ],
    [
      "பகுதிய",
      "ில்</w>"
    ],
    [
      "இண",
      "ை"
    ],
    [
      "ி",
      "த்</w>"
    ],
    [
      "ப",
      "ஞ்ச"
    ],
    [
      "குற",
      "ைவ"
    ],
    [
      "உய",
      "ிர"
    ],
    [
      "கின்ற",
      "னர்.</w>"
    ],
    [
      "டு",
      "க்க"
    ],
    [
      "மி",
      "ட"
    ],
    [
      "ன்",
      "ஷ"
    ],
    [
      "சு",
      "ற்று"
    ],
    [
      "த்த",
      "ிலிருந்து</w>"
    ],
    [
      "இ",
      "ன"
    ],
    [
      "நக",
      "ரா"
    ],
    [
      "19",
      "5"
    ],
    [
      "மூ",
      "ன்ற"
    ],
    [
      "ிய",
      "ும்</w>"
    ],
    [
      "க்",
      "ஸ்</w>"
    ],
    [
      "ர",
      "ங்க"
    ],
    [
      "இந்த",
      "த்</w>"
    ],
    [
      "ா",
      "ங்க"
    ],
    [
      "ஜ",
      "ோ"
    ],
    [
      "ியா",
      "வின்</w>"
    ],
    [
      "கீ",
      "ழ்</w>"
    ],
    [
      "ச",
      "து"
    ],
    [
      "த்த",
      "னர்.</w>"
    ],
    [
      "சர்வ",
      "தேச</w>"
    ],
    [
      "ட்ட",
      "ி</w>"
    ],
    [
      "த",
      "மி"
    ],
    [
      "த்த",
      "ம்</w>"
    ],
    [
      "கால",
      "மானார்.</w>"
    ],
    [
      "கண்டு",
      "பிடி"
    ],
    [
      "ஜ",
      "ா"
    ],
    [
      "த்த",
      "ில"
    ],
    [
      "மன",
      "ி"
    ],
    [
      "ர",
      "ான</w>"
    ],
    [
      "த்த",
      "ின"
    ],
    [
      "ஆ",
      "ய்"
    ],
    [
      "ன",
      "ும்</w>"
    ],
    [
      "ஏற்ப",
      "ட்ட"
    ],
    [
      "வ",
      "கு"
    ],
    [
      "க",
      "ல்ல"
    ],
    [
      "ல",
      "்க"
    ],
    [
      "அத",
      "ில்</w>"
    ],
    [
      "ி",
      "ந்த"
    ],
    [
      "ர",
      "ாக"
    ],
    [
      "கால",
      "்ப"
    ],
    [
      "டு",
      "கள்</w>"
    ],
    [
      "வ",
      "்"
    ],
    [
      "திரு",
      "மண"
    ],
    [
      "ிரு",
      "ந்த</w>"
    ],
    [
      "அன",
      "ும"
    ],
    [
      "நகர",
      "ம்.</w>"
    ],
    [
      "நா",
      "ள்</w>"
    ],
    [
      "த",
      "ா</w>"
    ],
    [
      "ப்படு",
      "வ"
    ],
    [
      "ஆ",
      "ஸ்திர"
    ],
    [
      "கள",
      "்,</w>"
    ],
    [
      "ள்",
      ".</w>"
    ],
    [
      "வா",
      "ர"
    ],
    [
      "பல்க",
      "லைக்க"
    ],
    [
      "பல்கலைக்க",
      "ழ"
    ],
    [
      "பிர",
      "தி"
    ],
    [
      "தே",
      "ர்ந்த"
    ],
    [
      "கள",
      "ுக்கு</w>"
    ],
    [
      "இ",
      "ழ"
    ],
    [
      "ம",
      "ைக்க"
    ],
    [
      "க",
      "தா"
    ],
    [
      "த",
      "க"
    ],
    [
      "ல",
      "்கள்</w>"
    ],
    [
      "ன",
      "ிய"
    ],
    [
      "ம",
      "ழ"
    ],
    [
      "ம",
      "ன்ற"
    ],
    [
      "ு",
      "க்</w>"
    ],
    [
      "ச",
      "ால"
    ],
    [
      "பத",
      "ில"
    ],
    [
      "நிகழ்",
      "ச்ச"
    ],
    [
      "ஏ",
      "</w>"
    ],
    [
      "வை",
      "த்த"
    ],
    [
      "வ",
      "ோ</w>"
    ],
    [
      "'",
      "</w>"
    ],
    [
      "பா",
      "ய"
    ],
    [
      "ி",
      "ங்</w>"
    ],
    [
      "20",
      "2"
    ],
    [
      "ஆ",
      "ற்ற"
    ],
    [
      "சேர்",
      "ந்த"
    ],
    [
      "உ",
      "த்த"
    ],
    [
      "டு",
      "கிறது.</w>"
    ],
    [
      "ரி",
      "ட"
    ],
    [
      "க",
      "்ச"
    ],
    [
      "சம",
      "ய"
    ],
    [
      "ர்",
      "க்க"
    ],
    [
      "ள்ள",
      "</w>"
    ],
    [
      "க",
      "வு"
    ],
    [
      "?",
      "</w>"
    ],
    [
      "வி",
      "ரி"
    ],
    [
      "-",
      "</w>"
    ],
    [
      "நேர",
      "த்தில்</w>"
    ],
    [
      "ே",
      "ற"
    ],
    [
      "ிக்க",
      "ும்</w>"
    ],
    [
      "வர",
      "ாக</w>"
    ],
    [
      "ப்படுகிற",
      "து,</w>"
    ],
    [
      "உ",
      "ங்களுக்கு</w>"
    ],
    [
      "ரா",
      "ட்ட"
    ],
    [
      "இந்தியா",
      "வில்</w>"
    ],
    [
      "ாக",
      "ும்.</w>"
    ],
    [
      "த",
      "ந்த"
    ],
    [
      "ஆ",
      "ள"
    ],
    [
      "அண",
      "ி</w>"
    ],
    [
      "கிழ",
      "க்கு</w>"
    ],
    [
      "ையில",
      "ான</w>"
    ],
    [
      "ஜ",
      "ி</w>"
    ],
    [
      "நட",
      "ன"
    ],
    [
      "அ",
      "தன"
    ],
    [
      "ஜெ",
      "ர்"
    ],
    [
      "பேர",
      "ரச"
    ],
    [
      "ர்கள",
      "ுக்கு</w>"
    ],
    [
      "நா",
      "ய"
    ],
    [
      "மற்ற",
      "ொரு</w>"
    ],
    [
      "ர்",
      "ப்ப"
    ],
    [
      "கொ",
      "ள"
    ],
    [
      "போட்ட",
      "ிகளில்</w>"
    ],
    [
      "ு",
      "ச்</w>"
    ],
    [
      "உ",
      "ற்ப"
    ],
    [
      "வக",
      "ையில்</w>"
    ],
    [
      "ன",
      "ெ"
    ],
    [
      "1",
      "5"
    ],
    [
      "இ",
      "ராணுவ"
    ],
    [
      "ஏற்ப",
      "டும்</w>"
    ],
    [
      "தி",
      "ரும்ப"
    ],
    [
      "ங",
      "்"
    ],
    [
      "ஓ",
      "ர்</w>"
    ],
    [
      "வி",
      "வர"
    ],
    [
      "பிரிட்ட",
      "ிஷ்</w>"
    ],
    [
      "ே",
      "ல"
    ],
    [
      "கு",
      "ற்ற"
    ],
    [
      "ய",
      "ில்</w>"
    ],
    [
      "கிட",
      "ைக்க"
    ],
    [
      "ஜ",
      "ிய"
    ],
    [
      "வி",
      "த"
    ],
    [
      "ஆண்ட",
      "ுகள"
    ],
    [
      "ஏ",
      "ற்ற"
    ],
    [
      "மாக",
      ",</w>"
    ],
    [
      "அமைந்த",
      "ுள்ளது.</w>"
    ],
    [
      "நீ",
      "தி"
    ],
    [
      "க",
      "த்தில்</w>"
    ],
    [
      "பிர",
      "ாந்த"
    ],
    [
      "கூ",
      "டு"
    ],
    [
      "பு",
      "ள்ள"
    ],
    [
      "ிரு",
      "ப்ப"
    ],
    [
      "க",
      "ட்ச"
    ],
    [
      "ஷ்",
      "ண"
    ],
    [
      "அவர்கள",
      "ின்</w>"
    ],
    [
      "அ",
      "ன்ற"
    ],
    [
      "%",
      "</w>"
    ],
    [
      "பணியா",
      "ற்ற"
    ],
    [
      "ட",
      "ீ"
    ],
    [
      "ம",
      "று"
    ],
    [
      "த்து",
      ",</w>"
    ],
    [
      "வெள",
      "ிப்ப"
    ],
    [
      "ம",
      "லை"
    ],
    [
      "பா",
      "த்திர"
    ],
    [
      "முன்ப",
      "ு</w>"
    ],
    [
      "தி",
      "ன"
    ],
    [
      "தற்ப",
      "ோது</w>"
    ],
    [
      "1",
      "0"
    ],
    [
      "ர்",
      "ஸ்</w>"
    ],
    [
      "இந்த",
      "ிய"
    ],
    [
      "ட",
      "ைய"
    ],
    [
      "முழுவ",
      "தும்</w>"
    ],
    [
      "பின",
      "்ப"
    ],
    [
      "அர",
      "சா"
    ],
    [
      "கவ",
      "ன"
    ],
    [
      "நின",
      "ை"
    ],
    [
      "ும",
      "்"
    ],
    [
      "வி",
      "ஷ"
    ],
    [
      "ட",
      "ைய</w>"
    ],
    [
      "ம",
      "ின்</w>"
    ],
    [
      "1",
      "6"
    ],
    [
      "பு",
      "த்த"
    ],
    [
      "ல",
      "்த"
    ],
    [
      "19",
      "4"
    ],
    [
      "வி",
      "க்க"
    ],
    [
      "்ட",
      "ோ"
    ],
    [
      "ி",
      "த்த"
    ],
    [
      "அம",
      "ை"
    ],
    [
      "வ",
      "</w>"
    ],
    [
      "கொண்ட",
      "ுள்ளது.</w>"
    ],
    [
      "தா",
      "க்கு"
    ],
    [
      "ிற",
      "ார்.</w>"
    ],
    [
      "ம",
      "த்திய</w>"
    ],
    [
      "ே",
      "ன"
    ],
    [
      "்க",
      "ிறது.</w>"
    ],
    [
      "குறிப்ப",
      "ாக</w>"
    ],
    [
      "க",
      "லா"
    ],
    [
      "இருக்கு",
      ".</w>"
    ],
    [
      "ிரு",
      "க்கும்</w>"
    ],
    [
      "பெய",
      "ர்</w>"
    ],
    [
      "வர",
      "ிச"
    ],
    [
      "ிருந்த",
      "து.</w>"
    ],
    [
      "உல",
      "க</w>"
    ],
    [
      "பாரம்ப",
      "ரிய</w>"
    ],
    [
      "பற்ற",
      "ிய</w>"
    ],
    [
      "வீர",
      "ர்கள்</w>"
    ],
    [
      "என",
      "</w>"
    ],
    [
      "மீ",
      "ட்டர்</w>"
    ],
    [
      "தாக",
      "க்</w>"
    ],
    [
      "கு",
      "டி"
    ],
    [
      "தாக",
      "வும்</w>"
    ],
    [
      "ன்ன",
      "ு</w>"
    ],
    [
      "அதிகா",
      "ர"
    ],
    [
      "மாநில",
      "த்தின்</w>"
    ],
    [
      "ி",
      ".</w>"
    ],
    [
      "ஐ",
      "ரோ"
    ],
    [
      "திய",
      "ில்</w>"
    ],
    [
      "எண்ண",
      "ிக்க"
    ],
    [
      "மாநில",
      "த்தில்</w>"
    ],
    [
      "ந",
      "வ"
    ],
    [
      "ஆகு",
      "ம்.</w>"
    ],
    [
      "ப்பட",
      "ி</w>"
    ],
    [
      "லா",
      "ந்த"
    ],
    [
      "ச்ச",
      "ு</w>"
    ],
    [
      "இய",
      "க்க"
    ],
    [
      "ாக",
      "வே</w>"
    ],
    [
      "வி",
      "ற்ப"
    ],
    [
      "தொடர்",
      "பு"
    ],
    [
      "ப",
      "ை"
    ],
    [
      "த்த",
      "ிலும்</w>"
    ],
    [
      "சாம்பிய",
      "ன்ஷ"
    ],
    [
      "ம",
      "ி</w>"
    ],
    [
      "தேர்ந்த",
      "ெடு"
    ],
    [
      "ர்",
      "வு</w>"
    ],
    [
      "தொழ",
      "ில்"
    ],
    [
      "ஐ",
      "க்கிய</w>"
    ],
    [
      "பே",
      "ச"
    ],
    [
      "ம",
      "கா"
    ],
    [
      "ஃ",
      "பி"
    ],
    [
      "நிறுவன",
      "ம்</w>"
    ],
    [
      "மீ",
      "</w>"
    ],
    [
      "ப்பு",
      "கள்</w>"
    ],
    [
      "பிர",
      "த"
    ],
    [
      "க்கு",
      "ப்</w>"
    ],
    [
      "ஒ",
      "ன்று</w>"
    ],
    [
      "சோ",
      "தன"
    ],
    [
      "மேல",
      "ும்,</w>"
    ],
    [
      "குறிப்ப",
      "ிட்ட</w>"
    ],
    [
      "உ",
      "ற"
    ],
    [
      "வக",
      "ையான</w>"
    ],
    [
      "அறி",
      "முக"
    ],
    [
      "ா",
      "டு</w>"
    ],
    [
      "ள்",
      ",</w>"
    ],
    [
      "அவ",
      "ள்</w>"
    ],
    [
      "ஆஸ்திர",
      "ேல"
    ],
    [
      "ல",
      "ிய"
    ],
    [
      "ா",
      "த"
    ],
    [
      "சா",
      "தன"
    ],
    [
      "ப",
      "ருவ"
    ],
    [
      "ந்த",
      "து.</w>"
    ],
    [
      "கோய",
      "ில"
    ],
    [
      "ு",
      "ள்</w>"
    ],
    [
      "வக",
      "ை</w>"
    ],
    [
      "ஆ",
      "தர"
    ],
    [
      "க",
      "டு"
    ],
    [
      "பர",
      "ப்ப"
    ],
    [
      "நிற",
      "ுத்த"
    ],
    [
      "தி",
      "ல்ல"
    ],
    [
      "பட்ட",
      "ிய"
    ],
    [
      "உ",
      "ண்"
    ],
    [
      "நகரா",
      "ட்ச"
    ],
    [
      "ப",
      "க"
    ],
    [
      "அவ",
      "ரு"
    ],
    [
      "மோ",
      "ச"
    ],
    [
      "குதிய",
      "ில்</w>"
    ],
    [
      "மார்",
      "ச்</w>"
    ],
    [
      "ப",
      "டுத்த"
    ],
    [
      "ான",
      "து</w>"
    ],
    [
      "ஃ",
      "பெ"
    ],
    [
      "கால்ப",
      "ந்து</w>"
    ],
    [
      "ச",
      "ரி"
    ],
    [
      "அற",
      "ிய"
    ],
    [
      "த",
      "்"
    ],
    [
      "ப",
      "ர்"
    ],
    [
      "ச",
      "கோ"
    ],
    [
      "இ",
      "ங்கில"
    ],
    [
      "இரண்ட",
      "ாம்</w>"
    ],
    [
      "அமெரிக்க",
      "ாவின்</w>"
    ],
    [
      "செ",
      "ல்"
    ],
    [
      "வ",
      "ார்"
    ],
    [
      "தெ",
      "ரிய"
    ],
    [
      "எ",
      "ன்</w>"
    ],
    [
      "ங்கள",
      "ைப்</w>"
    ],
    [
      "ச்ச",
      "ார"
    ],
    [
      "ஐ",
      "ந்து</w>"
    ],
    [
      "இன்ன",
      "ும்</w>"
    ],
    [
      "ெ",
      "ட்</w>"
    ],
    [
      "ுவ",
      "ை</w>"
    ],
    [
      "பு",
      "ற"
    ],
    [
      "ால",
      "ும்,</w>"
    ],
    [
      "மாக",
      "க்</w>"
    ],
    [
      "வே",
      "று"
    ],
    [
      "நடை",
      "பெற்ற</w>"
    ],
    [
      "நா",
      "ட்ட"
    ],
    [
      "த்திர",
      "ைப்பட"
    ],
    [
      "ந்திர",
      "</w>"
    ],
    [
      "ண",
      "ி</w>"
    ],
    [
      "ரா",
      "ம"
    ],
    [
      "பெ",
      "று"
    ],
    [
      "கோ",
      "ல்</w>"
    ],
    [
      "தா",
      "க்க"
    ],
    [
      "ம்ப",
      "ோது</w>"
    ],
    [
      "வெ",
      "வ்வ"
    ],
    [
      "ில",
      "ும்,</w>"
    ],
    [
      "ப்ப",
      "ில்</w>"
    ],
    [
      "ுக்க",
      "ள்</w>"
    ],
    [
      "வி",
      "ட்டு</w>"
    ],
    [
      "கால",
      "த்தில்</w>"
    ],
    [
      "சொ",
      "ல்ல"
    ],
    [
      "ஷ",
      "ன்</w>"
    ],
    [
      "நீ",
      "ர்</w>"
    ],
    [
      "ஆ",
      "ப"
    ],
    [
      "ஏ",
      "ப்ர"
    ],
    [
      "ான",
      "்ச"
    ],
    [
      "இ",
      "த்திரைப்பட"
    ],
    [
      "்ட",
      "்</w>"
    ],
    [
      "ி",
      "டு"
    ],
    [
      "ிய",
      "ான</w>"
    ],
    [
      "ச",
      "ண்ட"
    ],
    [
      "1",
      "ஆம்</w>"
    ],
    [
      "எ",
      "வ்வ"
    ],
    [
      "ே",
      "று</w>"
    ],
    [
      "தி",
      "க்க"
    ],
    [
      "இ",
      "து"
    ],
    [
      "செல",
      "ுத்த"
    ],
    [
      "வி",
      "மர்"
    ],
    [
      "மே",
      "ம்ப"
    ],
    [
      "க",
      "ைப்ப"
    ],
    [
      "வழ",
      "ங்கு"
    ],
    [
      "ு",
      "த்</w>"
    ],
    [
      "பிர",
      "தேச"
    ],
    [
      "சமூ",
      "க"
    ],
    [
      "ண",
      "்</w>"
    ],
    [
      "வ",
      "ம்ச"
    ],
    [
      "செல",
      "ு"
    ],
    [
      "ுட",
      "ைய</w>"
    ],
    [
      "உ",
      "தாரண"
    ],
    [
      "1",
      "0</w>"
    ],
    [
      "ுவ",
      "து</w>"
    ],
    [
      "ண",
      "்ப"
    ],
    [
      "19",
      "</w>"
    ],
    [
      "ச",
      "்"
    ],
    [
      "ஃ",
      "ப்ர"
    ],
    [
      "பெற்ற",
      "ார்.</w>"
    ],
    [
      "அ",
      "தற்கு</w>"
    ],
    [
      "்ய",
      "ூ"
    ],
    [
      "இதன",
      "ால்</w>"
    ],
    [
      "க",
      "ன்</w>"
    ],
    [
      "முடிய",
      "ும்.</w>"
    ],
    [
      "போட்ட",
      "ிய"
    ],
    [
      "பிற",
      "ந்தார்.</w>"
    ],
    [
      "இ",
      "ந்து</w>"
    ],
    [
      "ா",
      "க்க"
    ],
    [
      "ஆ",
      "று</w>"
    ],
    [
      "வெவ்வ",
      "ேறு</w>"
    ],
    [
      "நட",
      "வடி"
    ],
    [
      "குற",
      "ைந்த"
    ],
    [
      "ிய",
      "ூ"
    ],
    [
      "இ",
      "வை</w>"
    ],
    [
      "மாவட்ட",
      "த்தில்</w>"
    ],
    [
      "பகு",
      "தி</w>"
    ],
    [
      "வ",
      "கி"
    ],
    [
      "நடவடி",
      "க்க"
    ],
    [
      "ரா",
      "ள"
    ],
    [
      "ஜன",
      "வரி</w>"
    ],
    [
      "எதிர",
      "ாக</w>"
    ],
    [
      "ஆ",
      "ஃப்</w>"
    ],
    [
      "எ",
      "ஃப்"
    ],
    [
      "தா",
      "வது</w>"
    ],
    [
      "பாரம்ப",
      "ரிய"
    ],
    [
      "க",
      "ான"
    ],
    [
      "விளையா",
      "ட"
    ],
    [
      "மேற்க",
      "ொ"
    ],
    [
      "ம",
      "ிருந்து</w>"
    ],
    [
      "2",
      "ஆம்</w>"
    ],
    [
      "கட்டு",
      "ப்பா"
    ],
    [
      "ப",
      "டு"
    ],
    [
      "ங்கள",
      "ைக்</w>"
    ],
    [
      "ஆ",
      "ன்"
    ],
    [
      "பு",
      "ர"
    ],
    [
      "கிற",
      "து,</w>"
    ],
    [
      "வி",
      "மான"
    ],
    [
      "விளையா",
      "ட்ட"
    ],
    [
      "வெளியிட",
      "ப்பட்டது.</w>"
    ],
    [
      "தோ",
      "ல்"
    ],
    [
      "டி",
      "ச"
    ],
    [
      "பகுதி",
      "களில்</w>"
    ],
    [
      "ின",
      "்"
    ],
    [
      "பண",
      "ம்</w>"
    ],
    [
      "எ",
      "ஸ்</w>"
    ],
    [
      "த",
      "வி"
    ],
    [
      "முற",
      "ைய"
    ],
    [
      "தொ",
      "கை</w>"
    ],
    [
      "நி",
      "தி"
    ],
    [
      "7",
      "இல்</w>"
    ],
    [
      "க",
      "ில"
    ],
    [
      "்த",
      "ொ"
    ],
    [
      "ண்ட",
      "ி</w>"
    ],
    [
      "தொழ",
      "ில"
    ],
    [
      "அரசா",
      "ங்க"
    ],
    [
      "வி",
      "மான</w>"
    ],
    [
      "ர்",
      "ந்த</w>"
    ],
    [
      "ம",
      "ன்</w>"
    ],
    [
      "நா",
      "ட்கள"
    ],
    [
      "அக",
      "்டோ"
    ],
    [
      "கிர",
      "ே"
    ],
    [
      "ட்",
      "ஸ்</w>"
    ],
    [
      "அனு",
      "ப்ப"
    ],
    [
      "ஆ",
      "வது</w>"
    ],
    [
      "வ",
      "ோ"
    ],
    [
      "வா",
      "ழ"
    ],
    [
      "முக",
      "லா"
    ],
    [
      "ட",
      "்க"
    ],
    [
      "அடிப்பட",
      "ைய"
    ],
    [
      "ம",
      "ிக்க"
    ],
    [
      "ஈ",
      "டு"
    ],
    [
      "டின",
      "ார்.</w>"
    ],
    [
      "ின்ற",
      "னர்.</w>"
    ],
    [
      "முத",
      "லீ"
    ],
    [
      "வில",
      "ான</w>"
    ],
    [
      "கே",
      "ர"
    ],
    [
      "வை",
      "ர"
    ],
    [
      "செ",
      "ப்ட"
    ],
    [
      "ப",
      "ற"
    ],
    [
      "கலை",
      "ஞ"
    ],
    [
      "வை",
      ".</w>"
    ],
    [
      "வா",
      "ல்</w>"
    ],
    [
      "ஆகிய",
      "ோர்</w>"
    ],
    [
      "த",
      "ங்க"
    ],
    [
      "அவர",
      "ை</w>"
    ],
    [
      "அடுத்த",
      "</w>"
    ],
    [
      "ாக",
      "த்</w>"
    ],
    [
      "டு",
      "கள"
    ],
    [
      "ஆ",
      "ச"
    ],
    [
      "கு",
      "தி</w>"
    ],
    [
      "அறி",
      "குற"
    ],
    [
      "இ",
      "தற்கு</w>"
    ],
    [
      "ற",
      "ை</w>"
    ],
    [
      "பொரு",
      "ளா"
    ],
    [
      "1",
      "2</w>"
    ],
    [
      "ஹ",
      "ி"
    ],
    [
      "ப்பட்ட",
      "து,</w>"
    ],
    [
      "பிராந்த",
      "ிய"
    ],
    [
      "ைகள",
      "ின்</w>"
    ],
    [
      "வி",
      "வ"
    ],
    [
      "அதிக",
      "மாக</w>"
    ],
    [
      "செய்த",
      "ார்.</w>"
    ],
    [
      "ந",
      "டு"
    ],
    [
      "1",
      "இல்</w>"
    ],
    [
      "வு",
      "களை</w>"
    ],
    [
      "முக்கிய",
      "மான</w>"
    ],
    [
      "அவ",
      "ள"
    ],
    [
      "மில்லிய",
      "ன்</w>"
    ],
    [
      "ஆக",
      "ஸ்ட்</w>"
    ],
    [
      "ை",
      ".</w>"
    ],
    [
      "ஏப்ர",
      "ல்</w>"
    ],
    [
      "சிர",
      "ிய"
    ],
    [
      "சா",
      "ய"
    ],
    [
      "ந",
      "ல்ல</w>"
    ],
    [
      "ஏற்ப",
      "ட"
    ],
    [
      "ரா",
      "ல்</w>"
    ],
    [
      "சிகிச்ச",
      "ை</w>"
    ],
    [
      "வள",
      "ர்ச்ச"
    ],
    [
      "ற",
      "ிய"
    ],
    [
      "கலா",
      "ச்சார"
    ],
    [
      "இந்த",
      "ியா</w>"
    ],
    [
      "ழ்",
      "ச்ச"
    ],
    [
      "ஒப்ப",
      "ந்த"
    ],
    [
      "கதா",
      "பாத்திர"
    ],
    [
      "ுட",
      "்ப"
    ],
    [
      "பட",
      "ம்</w>"
    ],
    [
      "பார்",
      "வ"
    ],
    [
      "நில",
      "ையில்</w>"
    ],
    [
      "6",
      "இல்</w>"
    ],
    [
      "உள்ள",
      "ூர்</w>"
    ],
    [
      "ர்கள",
      "ும்</w>"
    ],
    [
      "ஒலிம்ப",
      "ிக்</w>"
    ],
    [
      "ன",
      "ே"
    ],
    [
      "தே",
      "வை"
    ],
    [
      "ுவ",
      "தற்கு</w>"
    ],
    [
      "அன்ற",
      "ு,</w>"
    ],
    [
      "ஜூ",
      "ன்</w>"
    ],
    [
      "ஏற்ப",
      "ட்ட</w>"
    ],
    [
      "ழ",
      "ு</w>"
    ],
    [
      "வேண்ட",
      "ிய"
    ],
    [
      "கணக்க",
      "ெடு"
    ],
    [
      "பா",
      "ர"
    ],
    [
      "கொள்ள",
      "</w>"
    ],
    [
      "சு",
      "த"
    ],
    [
      "ல்கள",
      "ை</w>"
    ],
    [
      "இருக்க",
      "லாம்.</w>"
    ],
    [
      "ா",
      "ட்சி</w>"
    ],
    [
      "மா",
      "று"
    ],
    [
      "ப்ப",
      "டி,</w>"
    ],
    [
      "ஆ",
      "வ"
    ],
    [
      "பொரு",
      "ள"
    ],
    [
      "ஐ",
      "</w>"
    ],
    [
      "நகர",
      "ில்</w>"
    ],
    [
      "இ",
      "ரு</w>"
    ],
    [
      "வ",
      "ான</w>"
    ],
    [
      "வே",
      "லை</w>"
    ],
    [
      "அழைக்க",
      "ப்படுகிறது.</w>"
    ],
    [
      "வா",
      "ய"
    ],
    [
      "ச",
      "மண"
    ],
    [
      "இண",
      "ைக்க"
    ],
    [
      "ா",
      "ட்ச"
    ],
    [
      "பி",
      "ப்ர"
    ],
    [
      "இட",
      "ையே</w>"
    ],
    [
      "கூற",
      "ினார்.</w>"
    ],
    [
      "ந",
      "ாக"
    ],
    [
      "ைகள",
      "்,</w>"
    ],
    [
      "ள்",
      "வ"
    ],
    [
      "நீ",
      "ர்"
    ],
    [
      "பெ",
      "ரும்</w>"
    ],
    [
      "வண",
      "ிக"
    ],
    [
      "ப்பட்ட",
      "ுள்ளன.</w>"
    ],
    [
      "எ",
      "ம்"
    ],
    [
      "்கள",
      "ில்</w>"
    ],
    [
      "நீ",
      "ண்ட</w>"
    ],
    [
      "சு",
      "ற்ற"
    ],
    [
      "2",
      "இல்</w>"
    ],
    [
      "வட",
      "க்கு</w>"
    ],
    [
      "ச",
      "த"
    ],
    [
      "எ",
      "ளி"
    ],
    [
      "க",
      "ர்</w>"
    ],
    [
      "அதிக",
      "ரி"
    ],
    [
      "ியா",
      "வில்</w>"
    ],
    [
      "கின்ற",
      "ன,</w>"
    ],
    [
      "ோ",
      "த"
    ],
    [
      "தே",
      "ர்த"
    ],
    [
      "மிக",
      "ப்பெ"
    ],
    [
      "அம",
      "ைக்க"
    ],
    [
      "உரி",
      "ம"
    ],
    [
      "வி",
      "கி"
    ],
    [
      "அள",
      "வில்</w>"
    ],
    [
      "இ",
      "வர்</w>"
    ],
    [
      "ங்கள",
      "ையும்</w>"
    ],
    [
      "நி",
      "மிட"
    ],
    [
      "இட",
      "த்தில்</w>"
    ],
    [
      "ச",
      "ர"
    ],
    [
      "ப்பூ",
      "ர்வ"
    ],
    [
      "தோ",
      "ற்க"
    ],
    [
      "பு",
      "ரி"
    ],
    [
      "ந்த",
      "ைய</w>"
    ],
    [
      "தொட",
      "க்க"
    ],
    [
      "ைய",
      "ும்,</w>"
    ],
    [
      "வ",
      "ன"
    ],
    [
      "பிரபல",
      "மான</w>"
    ],
    [
      "வேண்ட",
      "ிய</w>"
    ],
    [
      "பயன்படுத்த",
      "ு"
    ],
    [
      "இ",
      "ங்கு</w>"
    ],
    [
      "டிய",
      "ாக</w>"
    ],
    [
      "உரு",
      "வாக"
    ],
    [
      "தக",
      "வல"
    ],
    [
      "ம",
      "</w>"
    ],
    [
      "ர",
      "ல்</w>"
    ],
    [
      "செய்ய",
      "ும்</w>"
    ],
    [
      "கொண்டா",
      "ட"
    ],
    [
      "ஞ்ச",
      "ு</w>"
    ],
    [
      "பட",
      "ி</w>"
    ],
    [
      "நா",
      "ட்டின்</w>"
    ],
    [
      "இ",
      "த்த"
    ],
    [
      "ி",
      "ண"
    ],
    [
      "ர்கள",
      "ால்</w>"
    ],
    [
      "பங்க",
      "ே"
    ],
    [
      "அட",
      "ையாள"
    ],
    [
      "ஃப",
      "ீ"
    ],
    [
      "வரு",
      "கிறது.</w>"
    ],
    [
      "ப்படு",
      "ம்.</w>"
    ],
    [
      "அ",
      "ரி"
    ],
    [
      "ல்லை",
      ",</w>"
    ],
    [
      "ந",
      "ப"
    ],
    [
      "ேன",
      "்.</w>"
    ],
    [
      "லா",
      "ம்,</w>"
    ],
    [
      "ர்கள",
      "ில்</w>"
    ],
    [
      "தீ",
      "ர்"
    ],
    [
      "பகுதி",
      "கள"
    ],
    [
      "விஷ",
      "ய"
    ],
    [
      "கீ",
      "ழ"
    ],
    [
      "”",
      "</w>"
    ],
    [
      "ப்ப",
      "ின்</w>"
    ],
    [
      "இ",
      "ன்</w>"
    ],
    [
      "த்த",
      "ைத்</w>"
    ],
    [
      "ர",
      "ை"
    ],
    [
      "ப",
      "ட்ச"
    ],
    [
      "வை",
      "ச்</w>"
    ],
    [
      "3",
      "0</w>"
    ],
    [
      "பா",
      "த"
    ],
    [
      "ப",
      "ின்</w>"
    ],
    [
      "நவ",
      "ம்பர்</w>"
    ],
    [
      "இணை",
      "ந்து</w>"
    ],
    [
      "மொ",
      "த்த</w>"
    ],
    [
      "பரி",
      "ந்து"
    ],
    [
      "நோ",
      "க்க"
    ],
    [
      "வு",
      "டன்</w>"
    ],
    [
      "ில",
      "ுள்ள</w>"
    ],
    [
      "ச்ச",
      "ு"
    ],
    [
      "கொ",
      "டு"
    ],
    [
      "கண",
      "ின"
    ],
    [
      "வங்க",
      "ாள"
    ],
    [
      "சகோ",
      "தர"
    ],
    [
      "ச",
      "ாக"
    ],
    [
      "கா",
      "ட்ச"
    ],
    [
      "நேர",
      "ம்</w>"
    ],
    [
      "வா",
      "க்க"
    ],
    [
      "ஜூ",
      "லை</w>"
    ],
    [
      "ழ",
      "ி"
    ],
    [
      "அக்டோ",
      "பர்</w>"
    ],
    [
      "தோற்க",
      "டி"
    ],
    [
      "மாநில",
      "</w>"
    ],
    [
      "வில்ல",
      "ை</w>"
    ],
    [
      "உத்த",
      "ர"
    ],
    [
      "ம",
      "ரண"
    ],
    [
      "ஜ",
      "ீ"
    ],
    [
      "8",
      "இல்</w>"
    ],
    [
      "்ப",
      "டி,</w>"
    ],
    [
      "இ",
      "டை"
    ],
    [
      "ிகள",
      "ின்</w>"
    ],
    [
      "என்ன",
      "</w>"
    ],
    [
      "மிகப்பெ",
      "ரிய</w>"
    ],
    [
      "ய",
      "ின்</w>"
    ],
    [
      "சி",
      "த்த"
    ],
    [
      "ப்ப",
      "ான"
    ],
    [
      "போட்ட",
      "ி</w>"
    ],
    [
      "நிற",
      "ை"
    ],
    [
      "ோ",
      "ர்"
    ],
    [
      "ஃ",
      "பிர"
    ],
    [
      "ப்பா",
      "ள"
    ],
    [
      "ச",
      "ட"
    ],
    [
      "ட",
      "்கள்</w>"
    ],
    [
      "ல",
      "ய"
    ],
    [
      "மிக",
      "ப்</w>"
    ],
    [
      "உய",
      "ர"
    ],
    [
      "ுள்ள",
      "து,</w>"
    ],
    [
      "ஷ",
      "ி"
    ],
    [
      "மேற்ப",
      "ட்ட</w>"
    ],
    [
      "சே",
      "வ"
    ],
    [
      "மா",
      "று</w>"
    ],
    [
      "மாக",
      "வும்</w>"
    ],
    [
      "நடி",
      "த்த"
    ],
    [
      "ம",
      "ய"
    ],
    [
      "மு",
      "ஸ்"
    ],
    [
      "மாத",
      "த்தில்</w>"
    ],
    [
      "அடிப்பட",
      "ையில்</w>"
    ],
    [
      "ஹ",
      "ை"
    ],
    [
      "பஞ்ச",
      "ா"
    ],
    [
      "ஆண்ட",
      "ு"
    ],
    [
      "இச",
      "ைய"
    ],
    [
      "நோய்",
      "த்தொ"
    ],
    [
      "4",
      "இல்</w>"
    ],
    [
      "சி",
      "வ"
    ],
    [
      "ா",
      "ள்.</w>"
    ],
    [
      "இச",
      "ை</w>"
    ],
    [
      "எதிர",
      "்க"
    ],
    [
      "இட",
      "ம்பெ"
    ],
    [
      "ா",
      "று</w>"
    ],
    [
      "மூன்ற",
      "ாவது</w>"
    ],
    [
      "சக",
      "்த"
    ],
    [
      "்கள",
      "ின்</w>"
    ],
    [
      "ச",
      "ன்</w>"
    ],
    [
      "இருந்த",
      "ன.</w>"
    ],
    [
      "பு",
      "னி"
    ],
    [
      "அ",
      "டை"
    ],
    [
      "நா",
      "ட்டு</w>"
    ],
    [
      "குறை",
      "ந்த</w>"
    ],
    [
      "ம",
      "கன"
    ],
    [
      "த",
      "ண்ட"
    ],
    [
      "நில",
      "ை"
    ],
    [
      "எ",
      "ரி"
    ],
    [
      "வ",
      "ாக</w>"
    ],
    [
      "ஆண்ட",
      "ின்</w>"
    ],
    [
      "4",
      "ஆம்</w>"
    ],
    [
      "எ",
      "ந்த"
    ],
    [
      "ச",
      "ரா"
    ],
    [
      "நகர",
      "ம்</w>"
    ],
    [
      "கு",
      "தி"
    ],
    [
      "்த",
      "ுற"
    ],
    [
      "ைவ",
      "ாக</w>"
    ],
    [
      "பூ",
      "ங்க"
    ],
    [
      "எ",
      "டு"
    ],
    [
      "முற",
      "ையாக</w>"
    ],
    [
      "வ",
      "ர்த்த"
    ],
    [
      "ஆண்ட",
      "ில்,</w>"
    ],
    [
      "வ",
      "ும்.</w>"
    ],
    [
      "தெற்க",
      "ு</w>"
    ],
    [
      "அ",
      "வ்வ"
    ],
    [
      "3",
      "இல்</w>"
    ],
    [
      "ஆ",
      "ரா"
    ],
    [
      "செப்ட",
      "ம்பர்</w>"
    ],
    [
      "முற",
      "ையில்</w>"
    ],
    [
      "தொ",
      "க"
    ],
    [
      "ள",
      "ிக்க"
    ],
    [
      "அதிகா",
      "ரி"
    ],
    [
      "வரலா",
      "ற்ற"
    ],
    [
      "ர",
      "ான"
    ],
    [
      "நு",
      "ழ"
    ],
    [
      "கொண்ட",
      "ிருந்த"
    ],
    [
      "கு",
      "ழு"
    ],
    [
      "மா",
      "ண"
    ],
    [
      "டிச",
      "ம்பர்</w>"
    ],
    [
      "வ",
      "சூ"
    ],
    [
      "இத",
      "ை</w>"
    ],
    [
      "வ",
      "ந்த</w>"
    ],
    [
      "வெளிப்ப",
      "டுத்த"
    ],
    [
      "கல்ல",
      "ூ"
    ],
    [
      "பொ",
      "து"
    ],
    [
      "பிரச்ச",
      "ன"
    ],
    [
      "த",
      "ை"
    ],
    [
      "தி",
      "ல்லை.</w>"
    ],
    [
      "நடை",
      "பெற"
    ],
    [
      "த",
      "ே</w>"
    ],
    [
      "செய்த",
      "</w>"
    ],
    [
      "துண",
      "ை</w>"
    ],
    [
      "இங்கில",
      "ாந்த"
    ],
    [
      "கி",
      "டை"
    ],
    [
      "ியா",
      "ல்</w>"
    ],
    [
      "அடிப்படைய",
      "ாகக்</w>"
    ],
    [
      "க",
      "ண்ண"
    ],
    [
      "ஃ",
      "பா"
    ],
    [
      "கொ",
      "ல்ல"
    ],
    [
      "பாட",
      "ல்</w>"
    ],
    [
      "சாம்பியன்ஷ",
      "ிப்</w>"
    ],
    [
      "திரு",
      "விழ"
    ],
    [
      "வர்கள",
      "ுக்கு</w>"
    ],
    [
      "க்கப்பட்ட",
      "ார்.</w>"
    ],
    [
      "ட",
      "ா</w>"
    ],
    [
      "கி",
      "ட்ட"
    ],
    [
      "கட்ட",
      "ிட"
    ],
    [
      "இய",
      "க்கு"
    ],
    [
      "ிகள",
      "ுக்கு</w>"
    ],
    [
      "ு",
      "க"
    ],
    [
      "பிப்ர",
      "வரி</w>"
    ],
    [
      "ந",
      "ரம்ப"
    ],
    [
      "வீ",
      "ட்ட"
    ],
    [
      ")",
      ",</w>"
    ],
    [
      "உண",
      "வு</w>"
    ],
    [
      "இப்ப",
      "ோது</w>"
    ],
    [
      "அந்த",
      "ப்</w>"
    ],
    [
      "பெ",
      "ர்"
    ],
    [
      "பொ",
      "து</w>"
    ],
    [
      "அரசிய",
      "ல்</w>"
    ],
    [
      "ர்",
      "ந்து</w>"
    ],
    [
      "நட",
      "ந்த</w>"
    ],
    [
      "ிட",
      "மிருந்து</w>"
    ],
    [
      "வ",
      "சி"
    ],
    [
      "ல",
      "ூ"
    ],
    [
      "7",
      "ஆம்</w>"
    ],
    [
      "ன",
      "ோ"
    ],
    [
      "குற",
      "ிய"
    ],
    [
      "லா",
      "ள"
    ],
    [
      "க்க",
      "ான</w>"
    ],
    [
      "செய",
      "்கிற"
    ],
    [
      "பட",
      "ைய"
    ],
    [
      "ற",
      "ும்</w>"
    ],
    [
      "டு",
      "ம்.</w>"
    ],
    [
      "வே",
      "க"
    ],
    [
      "முடி",
      "வு</w>"
    ],
    [
      "3",
      "ஆம்</w>"
    ],
    [
      "விய",
      "ல்</w>"
    ],
    [
      "த்த",
      "ுக்கு</w>"
    ],
    [
      "பார்",
      "த்த"
    ],
    [
      "ின",
      "ா"
    ],
    [
      "ைப்ப",
      "டுத்த"
    ],
    [
      "ே",
      ",</w>"
    ],
    [
      "0",
      "ஆம்</w>"
    ],
    [
      "ீ",
      "டு</w>"
    ],
    [
      "அமெரிக்க",
      "ாவில்</w>"
    ],
    [
      "இ",
      "ந்"
    ],
    [
      "5",
      "இல்</w>"
    ],
    [
      "19",
      "3"
    ],
    [
      "செய்ய",
      "ப்பட்ட"
    ],
    [
      "நீதி",
      "மன்ற"
    ],
    [
      "ா",
      "வள"
    ],
    [
      "கொ",
      "டுத்த"
    ],
    [
      "அடி",
      "க்க"
    ],
    [
      "அரச",
      "ு</w>"
    ],
    [
      "ஒன்ற",
      "ாக</w>"
    ],
    [
      "விளையா",
      "டினார்.</w>"
    ],
    [
      "த",
      "ட"
    ],
    [
      "ஃ",
      "போர்"
    ],
    [
      "பயன்படுத்த",
      "ப்படுகிறது.</w>"
    ],
    [
      "பயன்படுத்த",
      "ி</w>"
    ],
    [
      "9",
      "இல்</w>"
    ],
    [
      "ந",
      "வீ"
    ],
    [
      "மே",
      "ல்</w>"
    ],
    [
      "கால",
      "ம்</w>"
    ],
    [
      "பொருட்கள",
      "ை</w>"
    ],
    [
      "குள",
      "ிர"
    ],
    [
      "மா",
      "ட்ட"
    ],
    [
      "பகுதிய",
      "ாக</w>"
    ],
    [
      "ங்கள",
      "ில்,</w>"
    ],
    [
      "செய்ய",
      "ப்பட்ட</w>"
    ],
    [
      "எழு",
      "த்த"
    ],
    [
      "விள",
      "ை"
    ],
    [
      "வே",
      "ல"
    ],
    [
      "பாக",
      "ிஸ்த"
    ],
    [
      "நி",
      "தி</w>"
    ],
    [
      "தோல்",
      "விய"
    ],
    [
      "கால",
      "கட்ட"
    ],
    [
      "இ",
      "ஸ்"
    ],
    [
      "ஆகிய",
      "ோ"
    ],
    [
      "அழைக்க",
      "ப்படும்</w>"
    ],
    [
      "உறு",
      "தி"
    ],
    [
      "ந",
      "ுட்ப"
    ],
    [
      "பெண",
      "்கள்</w>"
    ],
    [
      "ிய",
      "ின"
    ],
    [
      "வா",
      "த"
    ],
    [
      "கோய",
      "ில்</w>"
    ],
    [
      "உத",
      "விய"
    ],
    [
      "ப்பு",
      "க்</w>"
    ],
    [
      "ீ",
      "ர்</w>"
    ],
    [
      "ோ",
      "து,</w>"
    ],
    [
      "ச",
      "ான"
    ],
    [
      "பெண",
      "்</w>"
    ],
    [
      "க்",
      "ஸ"
    ],
    [
      "0",
      "இல்</w>"
    ],
    [
      "ிக்க",
      "ாக</w>"
    ],
    [
      "ப்ப",
      "</w>"
    ],
    [
      "ஜ",
      "்"
    ],
    [
      "பா",
      "ண"
    ],
    [
      "என்ப",
      "வர்</w>"
    ],
    [
      "தி",
      "ரி"
    ],
    [
      "ஷ",
      "ா</w>"
    ],
    [
      "உள்ள",
      "ட"
    ],
    [
      "அண",
      "ி"
    ],
    [
      "பதி",
      "வு</w>"
    ],
    [
      "இண",
      "ைய"
    ],
    [
      "பாதி",
      "க்கப்பட்ட"
    ],
    [
      "மக்கள",
      "்தொ"
    ],
    [
      "ைகள",
      "ும்</w>"
    ],
    [
      "ச்ச",
      "ு.</w>"
    ],
    [
      "ஐரோ",
      "ப்ப"
    ],
    [
      "த்திற்க",
      "ுப்</w>"
    ],
    [
      "கடை",
      "சி</w>"
    ],
    [
      "ஆ",
      "யு"
    ],
    [
      "க்ர",
      "ோ"
    ],
    [
      "தா",
      "ர</w>"
    ],
    [
      "ுக்கொ",
      "ண்ட"
    ],
    [
      "தி",
      "ப"
    ],
    [
      "ைய",
      "ைப்</w>"
    ],
    [
      "ுக்கு",
      "ள்</w>"
    ],
    [
      "நூற்றாண்ட",
      "ின்</w>"
    ],
    [
      "உ",
      "ச்ச"
    ],
    [
      "கா",
      "ச"
    ],
    [
      "ிய",
      "ே</w>"
    ],
    [
      "ஒன்ற",
      "ு.</w>"
    ],
    [
      "கா",
      "வல"
    ],
    [
      "ின",
      ".</w>"
    ],
    [
      "வெளிய",
      "ான</w>"
    ],
    [
      "நீ",
      "ள"
    ],
    [
      "த",
      "ர்"
    ],
    [
      "த",
      "வற"
    ],
    [
      "இ",
      "வ்வ"
    ],
    [
      "முன்ன",
      "ா"
    ],
    [
      "கூ",
      "டிய</w>"
    ],
    [
      "ப்பு",
      "கள"
    ],
    [
      "ஏ",
      "னெ"
    ],
    [
      "8",
      "ஆம்</w>"
    ],
    [
      "ைய",
      "ைக்</w>"
    ],
    [
      "ப",
      "ில"
    ],
    [
      "பழ",
      "ங்க"
    ],
    [
      "மு",
      "ன"
    ],
    [
      "குறிக்க",
      "ிறது.</w>"
    ],
    [
      "ஸ்ட",
      "ே"
    ],
    [
      "மண்ட",
      "ல"
    ],
    [
      "லீ",
      "க்</w>"
    ],
    [
      "ில",
      "ேயே</w>"
    ],
    [
      "த",
      "ான</w>"
    ],
    [
      "பய",
      "ன"
    ],
    [
      "பாதி",
      "க்க"
    ],
    [
      "கி",
      "ரு"
    ],
    [
      "ப",
      "ன"
    ],
    [
      "ு",
      "ந"
    ],
    [
      "இட",
      "ங்களில்</w>"
    ],
    [
      "ர",
      "ாகவும்</w>"
    ],
    [
      "தொ",
      "லைக்க"
    ],
    [
      "ுக்கு",
      "த்</w>"
    ],
    [
      "ஒரு",
      "வர்</w>"
    ],
    [
      "மு",
      "ந்தைய</w>"
    ],
    [
      "ைகள",
      "ுக்கு</w>"
    ],
    [
      "1",
      "5</w>"
    ],
    [
      "ப",
      "ௌ"
    ],
    [
      "ி",
      "கர"
    ],
    [
      "குறிப்பிட",
      "த்த"
    ],
    [
      "ின",
      "ார்,</w>"
    ],
    [
      "சிற",
      "ப்ப"
    ],
    [
      "மண",
      "ி</w>"
    ],
    [
      "கா",
      "ட்டு"
    ],
    [
      "ப்பட",
      "</w>"
    ],
    [
      "ிருக்க",
      "ும்.</w>"
    ],
    [
      "ச",
      "ுவ"
    ],
    [
      "இரு",
      "ப்பின"
    ],
    [
      "அள",
      "வு</w>"
    ],
    [
      "ோ",
      "ல"
    ],
    [
      "ர",
      "ைக்க"
    ],
    [
      "வு",
      "களில்</w>"
    ],
    [
      "வர",
      "ைய"
    ],
    [
      "மைய",
      "ை</w>"
    ],
    [
      "அ",
      "ழு"
    ],
    [
      "மரு",
      "ந்து"
    ],
    [
      "பிர",
      "ே"
    ],
    [
      "ப",
      "ிய"
    ],
    [
      "அள",
      "விலான</w>"
    ],
    [
      "ாம",
      "</w>"
    ],
    [
      "ி",
      "ச்</w>"
    ],
    [
      "அதிகார",
      "ப்பூர்வ"
    ],
    [
      "அவர்கள",
      "ுக்கு</w>"
    ],
    [
      "துவ",
      "ே</w>"
    ],
    [
      "கி",
      "மீ</w>"
    ],
    [
      "இர",
      "த்த"
    ],
    [
      "ராஜ",
      "்"
    ],
    [
      "ச்ச",
      "ே"
    ],
    [
      "சமூ",
      "க</w>"
    ],
    [
      "ஜ",
      "ே"
    ],
    [
      "ான",
      "்.</w>"
    ],
    [
      "இ",
      "ல்லை.</w>"
    ],
    [
      "முழ",
      "ும"
    ],
    [
      "சார்",
      "ந்த</w>"
    ],
    [
      "தெ",
      "ளி"
    ],
    [
      "கண",
      "க்கில்</w>"
    ],
    [
      "கூடு",
      "தல்</w>"
    ],
    [
      "ள்",
      "யூ"
    ],
    [
      "வா",
      "ள"
    ],
    [
      "உட",
      "ன"
    ],
    [
      "க",
      "ரி"
    ],
    [
      "ம",
      "ிய"
    ],
    [
      "ப்பட",
      "லாம்.</w>"
    ],
    [
      "கா",
      "ந்த"
    ],
    [
      "ப்படுகிற",
      "ார்.</w>"
    ],
    [
      "ி",
      "க</w>"
    ],
    [
      "மட்ட",
      "ும்</w>"
    ],
    [
      "கா",
      "ங்க"
    ],
    [
      "அண",
      "ியின்</w>"
    ],
    [
      "ஓ",
      "ட்ட"
    ],
    [
      "ிப்ப",
      "ு</w>"
    ],
    [
      "போ",
      "ர்</w>"
    ],
    [
      "ைய",
      "ில்,</w>"
    ],
    [
      "போ",
      "க்கு"
    ],
    [
      "ி",
      "ட்டு</w>"
    ],
    [
      "அழ",
      "ை"
    ],
    [
      "ஏ",
      "ற்க"
    ],
    [
      "ச",
      "ின"
    ],
    [
      "பின",
      "்"
    ],
    [
      "ச",
      "ப"
    ],
    [
      "க",
      "லி"
    ],
    [
      "எ",
      "ல்"
    ],
    [
      "அமைந்த",
      "ுள்ள</w>"
    ],
    [
      "ா",
      "ஸ்</w>"
    ],
    [
      "சி",
      "ங்</w>"
    ],
    [
      "ிகள",
      "ும்</w>"
    ],
    [
      "உறுப்பின",
      "ராக</w>"
    ],
    [
      "உருவா",
      "க்கப்பட்டது.</w>"
    ],
    [
      "ஆ",
      "ட்சி</w>"
    ],
    [
      "ச",
      "ர்"
    ],
    [
      "கைப்ப",
      "ற்ற"
    ],
    [
      "பர",
      "வல"
    ],
    [
      "ஃ",
      "பே"
    ],
    [
      "கு",
      "க"
    ],
    [
      "து",
      "க்கு</w>"
    ],
    [
      "திய",
      "ான</w>"
    ],
    [
      "அனு",
      "ப"
    ],
    [
      "கோ",
      "ப்ப"
    ],
    [
      "ன்ட",
      "்</w>"
    ],
    [
      "து",
      "க்க"
    ],
    [
      "த்த",
      "ும்</w>"
    ],
    [
      "அம",
      "ைச்ச"
    ],
    [
      "ோத",
      "ைய</w>"
    ],
    [
      "அருக",
      "ே</w>"
    ],
    [
      "இரு",
      "க்க</w>"
    ],
    [
      "வழி",
      "வகு"
    ],
    [
      "உள்ள",
      "ன,</w>"
    ],
    [
      "ந்த",
      "னர்.</w>"
    ],
    [
      "அ",
      "ய"
    ],
    [
      "ஜ",
      "ப்பான"
    ],
    [
      "ரிய",
      "ா</w>"
    ],
    [
      "அ",
      "ர்"
    ],
    [
      "கில",
      "ோ"
    ],
    [
      "6",
      "ஆம்</w>"
    ],
    [
      "அம",
      "்ச"
    ],
    [
      "பதில",
      "ாக</w>"
    ],
    [
      "ர",
      "ோ</w>"
    ],
    [
      "ுக்கொ",
      "ள்ள"
    ],
    [
      "கிழ",
      "க்க"
    ],
    [
      "்ப",
      "ெ"
    ],
    [
      "வே",
      ",</w>"
    ],
    [
      "தொடர்",
      "ச்ச"
    ],
    [
      "ல்ட",
      "்</w>"
    ],
    [
      "தலை",
      "மை</w>"
    ],
    [
      "ிட",
      "ையே</w>"
    ],
    [
      "கட்டு",
      "ப்படுத்த"
    ],
    [
      "நா",
      "டு</w>"
    ],
    [
      "ல",
      "ண்ட"
    ],
    [
      "ம்ப",
      "ு</w>"
    ],
    [
      "ஸ்ப",
      "ெ"
    ],
    [
      "1",
      ","
    ],
    [
      "வ",
      "ட</w>"
    ],
    [
      "மை",
      "தான"
    ],
    [
      "ங்கள",
      "ிலும்</w>"
    ],
    [
      "தொடங்க",
      "ியது.</w>"
    ],
    [
      "மொழ",
      "ி</w>"
    ],
    [
      "பு",
      "க"
    ],
    [
      "ஜெர்",
      "மன"
    ],
    [
      "வ",
      "ண்ண"
    ],
    [
      "கண",
      "்க"
    ],
    [
      "கிற",
      "ிஸ்த"
    ],
    [
      "பிற",
      "்ப"
    ],
    [
      "பணியாற்ற",
      "ினார்.</w>"
    ],
    [
      "உற்ப",
      "த்தி</w>"
    ],
    [
      "நாடு",
      "களில்</w>"
    ],
    [
      "வர",
      "ை,</w>"
    ],
    [
      "ம்ம",
      "ா"
    ],
    [
      "து",
      "ப்பா"
    ],
    [
      "பண்ட",
      "ைய</w>"
    ],
    [
      "உள்ள",
      "து,</w>"
    ],
    [
      "ந",
      "தி</w>"
    ],
    [
      "செல்ல",
      "</w>"
    ],
    [
      "செ",
      "ன்று</w>"
    ],
    [
      "ண",
      "ம்</w>"
    ],
    [
      "த",
      "ண்ண"
    ],
    [
      "தொட",
      "ங்கு"
    ],
    [
      "ன",
      "ால"
    ],
    [
      "ஷ",
      "்ய"
    ],
    [
      "ப்பு",
      "ற"
    ],
    [
      "த",
      "ைக்</w>"
    ],
    [
      "குற",
      "ைக்க"
    ],
    [
      "மனி",
      "த"
    ],
    [
      "ம",
      "கன்</w>"
    ],
    [
      "நேர",
      "ங்களில்</w>"
    ],
    [
      "ஆ",
      "ர்வ"
    ],
    [
      "என",
      "வே</w>"
    ],
    [
      "ந",
      "பர்</w>"
    ],
    [
      "குளிர",
      "்க"
    ],
    [
      "வா",
      "ன்</w>"
    ],
    [
      "க",
      "ப்ப"
    ],
    [
      "ஜ",
      "னா"
    ],
    [
      "கட",
      "வு"
    ],
    [
      "ம்",
      "ஸ்</w>"
    ],
    [
      "ட",
      "ால"
    ],
    [
      "மைப்ப",
      "ு</w>"
    ],
    [
      "ண",
      "ய"
    ],
    [
      "ஆங்கில",
      "ேய"
    ],
    [
      "பிரதி",
      "நிதி"
    ],
    [
      "அறிமுக",
      "ப்படுத்த"
    ],
    [
      "தற்க",
      "ும்</w>"
    ],
    [
      "ோ",
      "டு</w>"
    ],
    [
      "பொதுவ",
      "ான</w>"
    ],
    [
      "ொரு",
      "ள்</w>"
    ],
    [
      "த்து",
      "ல</w>"
    ],
    [
      "க",
      "ம்ப"
    ],
    [
      "விற்க",
      "ு</w>"
    ],
    [
      "இ",
      "ன்ற"
    ],
    [
      "ந",
      "ண்ப"
    ],
    [
      "ஸ்த",
      "ான"
    ],
    [
      "ம",
      "ல்</w>"
    ],
    [
      "து",
      "வும்</w>"
    ],
    [
      "வா",
      "ர்கள்.</w>"
    ],
    [
      "ஸ்ட",
      "ர்</w>"
    ],
    [
      "த",
      "ங்கள"
    ],
    [
      "்",
      "ஸ"
    ],
    [
      "1",
      "2"
    ],
    [
      "ப்ப",
      "து</w>"
    ],
    [
      "அ",
      "ட்ட"
    ],
    [
      "கு",
      "ஜ"
    ],
    [
      "ா",
      "ய்</w>"
    ],
    [
      "பொரு",
      "ட்கள்</w>"
    ],
    [
      "ஸ்",
      "வீ"
    ],
    [
      "குழ",
      "ுவ"
    ],
    [
      "சொ",
      "ந்த</w>"
    ],
    [
      "அப்ப",
      "ோது</w>"
    ],
    [
      "ராஜ்",
      "ஜிய"
    ],
    [
      "நில",
      "வர"
    ],
    [
      "நக",
      "ர்"
    ],
    [
      "5",
      "0</w>"
    ],
    [
      "சுத",
      "ந்திர"
    ],
    [
      "சி",
      "ங்க"
    ],
    [
      "வெளிய",
      "ே</w>"
    ],
    [
      "உ",
      "ள்"
    ],
    [
      "ல",
      "ாக</w>"
    ],
    [
      "அதிக",
      "மான</w>"
    ],
    [
      "போ",
      "ய"
    ],
    [
      "ந்த",
      "ு,</w>"
    ],
    [
      "வீர",
      "ர்</w>"
    ],
    [
      "சிற",
      "ு"
    ],
    [
      "கள",
      "ைப்</w>"
    ],
    [
      "20",
      "20</w>"
    ],
    [
      "ப்ப",
      "ர்</w>"
    ],
    [
      "ரு",
      "டன்</w>"
    ],
    [
      "உட்ப",
      "ட</w>"
    ],
    [
      "பெண",
      "்கள"
    ],
    [
      "அருக",
      "ில்</w>"
    ],
    [
      "இய",
      "ற்க"
    ],
    [
      "ட",
      "ல்</w>"
    ],
    [
      "பகுதி",
      ".</w>"
    ],
    [
      "ம",
      "து</w>"
    ],
    [
      "ஷ்ட",
      "ிர"
    ],
    [
      "குறி",
      "த்த</w>"
    ],
    [
      "201",
      "0</w>"
    ],
    [
      "5",
      "ஆம்</w>"
    ],
    [
      "இறு",
      "தியில்</w>"
    ],
    [
      "ப",
      "த்து</w>"
    ],
    [
      "போட்ட",
      "ிகள்</w>"
    ],
    [
      "இட",
      "ம்</w>"
    ],
    [
      "இந்த",
      "ச்</w>"
    ],
    [
      "ட",
      "ாக"
    ],
    [
      "பு",
      "கழ"
    ],
    [
      "ச",
      "ு</w>"
    ],
    [
      "பயன்படுத்த",
      "ப்படும்</w>"
    ],
    [
      "உள்ள",
      "ிட்ட</w>"
    ],
    [
      "காங்க",
      "ிர"
    ],
    [
      "ல",
      "ும்</w>"
    ],
    [
      "நோ",
      "க்கி</w>"
    ],
    [
      "செயல்ப",
      "ா"
    ],
    [
      "ஓ",
      "ய்"
    ],
    [
      "வா",
      "டிக்க"
    ],
    [
      "ட்ட",
      "ா</w>"
    ],
    [
      "ின",
      "ால்</w>"
    ],
    [
      "அள",
      "ிக்க"
    ],
    [
      "த",
      "ையும்</w>"
    ],
    [
      "வ",
      "ர்.</w>"
    ],
    [
      "இ",
      "துவே</w>"
    ],
    [
      "தலை",
      "நகர"
    ],
    [
      "தீ",
      "விர"
    ],
    [
      "கா",
      "ர"
    ],
    [
      "த",
      "ைப்</w>"
    ],
    [
      "வர",
      "ின்</w>"
    ],
    [
      "இ",
      "ன்"
    ],
    [
      "1",
      "8</w>"
    ],
    [
      "று",
      "த்த"
    ],
    [
      "பயிற்ச",
      "ி</w>"
    ],
    [
      "மன",
      "ை"
    ],
    [
      "ப்பட",
      "வில்லை.</w>"
    ],
    [
      "க்க",
      "ின்</w>"
    ],
    [
      "0",
      "களில்</w>"
    ],
    [
      "குறிப்பிடத்த",
      "க்க</w>"
    ],
    [
      "முஸ்",
      "லி"
    ],
    [
      "த",
      "ைத்</w>"
    ],
    [
      "1",
      "4</w>"
    ],
    [
      "குழ",
      "ு</w>"
    ],
    [
      "க",
      "ௌ"
    ],
    [
      "க",
      "த்த"
    ],
    [
      "பு",
      "ய"
    ],
    [
      "பிரபல",
      "மாக</w>"
    ],
    [
      "இருக்க",
      "ிற"
    ],
    [
      "த்த",
      "ியா"
    ],
    [
      "கா",
      "ய்ச்ச"
    ],
    [
      "விள",
      "ங்க"
    ],
    [
      "ண்ட",
      "ு"
    ],
    [
      "வெளிய",
      "ேற"
    ],
    [
      "கா",
      "ர்</w>"
    ],
    [
      "ம",
      "ரா"
    ],
    [
      "ஆவ",
      "ார்.</w>"
    ],
    [
      "அவற்ற",
      "ை</w>"
    ],
    [
      "ஆ",
      "லோ"
    ],
    [
      "ஒ",
      "ட்ட"
    ],
    [
      "ரா",
      "ஷ்டிர"
    ],
    [
      "தமி",
      "ழ்"
    ],
    [
      "வி",
      "சா"
    ],
    [
      "இறு",
      "தி"
    ],
    [
      "வழ",
      "ியாக</w>"
    ],
    [
      "ஆரா",
      "ய்ச்ச"
    ],
    [
      "த்திற்க",
      "ான</w>"
    ],
    [
      "ூ",
      "ட்ட"
    ],
    [
      "மாநில",
      "மான</w>"
    ],
    [
      "ஹ",
      "ார்"
    ],
    [
      "உட",
      "ல்</w>"
    ],
    [
      "ள",
      "</w>"
    ],
    [
      "பு",
      "து"
    ],
    [
      "சிகிச்ச",
      "ைய"
    ],
    [
      "தி",
      "கள்</w>"
    ],
    [
      "த்துவ",
      "ம்</w>"
    ],
    [
      "ப்பட்ட",
      "னர்.</w>"
    ],
    [
      "ஏ",
      "ழு</w>"
    ],
    [
      "ோ",
      "வில்</w>"
    ],
    [
      "ஊ",
      "ழ"
    ],
    [
      "ம",
      "ஞ்ச"
    ],
    [
      "இர",
      "த்த</w>"
    ],
    [
      "பண்ட",
      "ிக"
    ],
    [
      "1",
      "6</w>"
    ],
    [
      "வென்ற",
      "ார்.</w>"
    ],
    [
      "போ",
      "ல</w>"
    ],
    [
      "ஹ",
      "ே"
    ],
    [
      "இச",
      "ைக்கு"
    ],
    [
      "பிர",
      "ிக்க"
    ],
    [
      "க்க",
      "ிறது.</w>"
    ],
    [
      "ட",
      "்,</w>"
    ],
    [
      "கருத",
      "ப்படுகிறது.</w>"
    ],
    [
      "அழ",
      "ற்ச"
    ],
    [
      "ன",
      "ான</w>"
    ],
    [
      "க",
      "ற்ப"
    ],
    [
      "1",
      "3"
    ],
    [
      "தொடங்க",
      "ினார்.</w>"
    ],
    [
      "ஸ்",
      "ஸ"
    ],
    [
      "கொள",
      "்க"
    ],
    [
      "விவ",
      "சாய"
    ],
    [
      "ைப்ப",
      "ு</w>"
    ],
    [
      "போ",
      "ன"
    ],
    [
      "பல்கலைக்கழ",
      "க"
    ],
    [
      "ெ",
      "டுத்த"
    ],
    [
      "கே",
      "ட்ட"
    ],
    [
      "வில",
      "ங்கு"
    ],
    [
      "கட",
      "ந்த</w>"
    ],
    [
      "பந்த",
      "ய"
    ],
    [
      "ப்பி",
      "ங்</w>"
    ],
    [
      "லா",
      "ல்</w>"
    ],
    [
      "அ",
      "தாவது</w>"
    ],
    [
      "கழ",
      "ி"
    ],
    [
      "தலை",
      "மைய"
    ],
    [
      "வாடிக்க",
      "ையாள"
    ],
    [
      "ைகள",
      "ைப்</w>"
    ],
    [
      "ல",
      "ர்</w>"
    ],
    [
      "பு",
      "ற்று"
    ],
    [
      "குறை",
      "பா"
    ],
    [
      "நூற்றாண்ட",
      "ில்</w>"
    ],
    [
      "திர",
      "ைய"
    ],
    [
      "ுக்கு",
      "ச்</w>"
    ],
    [
      "உள்ள",
      "ார்.</w>"
    ],
    [
      "பா",
      "ண்ட"
    ],
    [
      "க",
      "டின"
    ],
    [
      "ஆ",
      "தார"
    ],
    [
      "ஆ",
      "ய"
    ],
    [
      "தோ",
      "டு</w>"
    ],
    [
      "ச",
      "மீ"
    ],
    [
      "சே",
      "மி"
    ],
    [
      "இருந்த",
      "ால்,</w>"
    ],
    [
      "ம",
      "டைந்த"
    ],
    [
      "ீ",
      "ர்கள்</w>"
    ],
    [
      "விற்ப",
      "ன"
    ],
    [
      "நிய",
      "மிக்க"
    ],
    [
      "குஜ",
      "ரா"
    ],
    [
      "சொ",
      "ந்த"
    ],
    [
      "ச",
      "ரி</w>"
    ],
    [
      "ப",
      "ு</w>"
    ],
    [
      "கட",
      "ற்க"
    ],
    [
      "பு",
      "ராண"
    ],
    [
      "மீ",
      "ட்ட"
    ],
    [
      "பெற",
      "</w>"
    ],
    [
      "செல்",
      "வ"
    ],
    [
      "ஹெ",
      "ச்"
    ],
    [
      "லா",
      "ந்து</w>"
    ],
    [
      "2",
      "5</w>"
    ],
    [
      "ா",
      "ர்கள்,</w>"
    ],
    [
      "ட",
      "ர்"
    ],
    [
      "ஜனா",
      "திப"
    ],
    [
      "சேர்",
      "ந்து</w>"
    ],
    [
      "த்து",
      "ப்</w>"
    ],
    [
      "சு",
      "வா"
    ],
    [
      "வர",
      "ால்</w>"
    ],
    [
      "ப",
      "ராம"
    ],
    [
      "பாட",
      "ல்கள"
    ],
    [
      "க்க",
      "ண"
    ],
    [
      "1",
      "4"
    ],
    [
      "ஒ",
      "ளி"
    ],
    [
      "ல்ல",
      "ாம்</w>"
    ],
    [
      "கிர",
      "ிக்க"
    ],
    [
      "சூ",
      "ழ"
    ],
    [
      "ரிய",
      "ில்</w>"
    ],
    [
      "த",
      "ள்ள"
    ],
    [
      "மு",
      "ம்ப"
    ],
    [
      "ல்ல",
      "ா</w>"
    ],
    [
      "ான",
      "ா</w>"
    ],
    [
      "எனின",
      "ும்</w>"
    ],
    [
      "தற்ப",
      "ோதைய</w>"
    ],
    [
      "க்",
      "ள"
    ],
    [
      "நம்ப",
      "ிக்க"
    ],
    [
      "கிள",
      "ர்ச்ச"
    ],
    [
      "அங்க",
      "ீ"
    ],
    [
      "ப",
      "ங்கு</w>"
    ],
    [
      "விரு",
      "து"
    ],
    [
      "தே",
      "ர்வு</w>"
    ],
    [
      "முழ",
      "ு</w>"
    ],
    [
      "ஆ",
      "று"
    ],
    [
      "கொ",
      "ஞ்ச"
    ],
    [
      "என்ன",
      "ோட</w>"
    ],
    [
      "கா",
      "ன்</w>"
    ],
    [
      "போத",
      "ிலும்,</w>"
    ],
    [
      "வ",
      "ில்,</w>"
    ],
    [
      "த்து",
      "ச்</w>"
    ],
    [
      "ிக்க",
      "ொ"
    ],
    [
      "201",
      "4</w>"
    ],
    [
      "ச",
      "ா</w>"
    ],
    [
      "மா",
      "ன்</w>"
    ],
    [
      "அண",
      "ிக்காக</w>"
    ],
    [
      "ஏ",
      "ராள"
    ],
    [
      "சீ",
      "சன"
    ],
    [
      "பாதுகா",
      "ப்பு</w>"
    ],
    [
      "முதன்",
      "முதலில்</w>"
    ],
    [
      "போக்கு",
      "வர"
    ],
    [
      "1",
      "1</w>"
    ],
    [
      "ஆ",
      "க</w>"
    ],
    [
      "பின்ன",
      "ர்,</w>"
    ],
    [
      "பா",
      "ல்</w>"
    ],
    [
      "நாடு",
      "கள"
    ],
    [
      "ிய",
      "ைப்</w>"
    ],
    [
      "இருந்த",
      "னர்.</w>"
    ],
    [
      "ில",
      "</w>"
    ],
    [
      "உலக",
      "ின்</w>"
    ],
    [
      "தெ",
      "ன்ன"
    ],
    [
      "ில",
      "ை</w>"
    ],
    [
      "இத்திரைப்பட",
      "ம்</w>"
    ],
    [
      "கண்ட",
      "றிய"
    ],
    [
      "ம்",
      ")</w>"
    ],
    [
      "எவ்வ",
      "ளவு</w>"
    ],
    [
      "முகலா",
      "ய"
    ],
    [
      "நிற",
      "ு"
    ],
    [
      "முன்னா",
      "ள்</w>"
    ],
    [
      "2",
      "4</w>"
    ],
    [
      "ஆள",
      "ுந"
    ],
    [
      "ர",
      "சு"
    ],
    [
      "ைகள",
      "ைக்</w>"
    ],
    [
      "ர",
      "ைய"
    ],
    [
      "ிற",
      "ார்கள்.</w>"
    ],
    [
      "பிர",
      "ெ"
    ],
    [
      "சு",
      "ல்த"
    ],
    [
      "திருமண",
      "ம்</w>"
    ],
    [
      "இ",
      "ன்ட"
    ],
    [
      "பி",
      "ள்யூ"
    ],
    [
      "கொள்ள",
      "ுங்கள்.</w>"
    ],
    [
      "அவரு",
      "டைய</w>"
    ],
    [
      "செல்ல",
      "ும்</w>"
    ],
    [
      "ிட்ட",
      "ார்.</w>"
    ],
    [
      "ட",
      "ூ"
    ],
    [
      "வி",
      "ட்டு"
    ],
    [
      "க",
      "டி"
    ],
    [
      "செய்ய",
      "ப்பட்டது.</w>"
    ],
    [
      "தா",
      "வர"
    ],
    [
      "உள்ள",
      "னர்.</w>"
    ],
    [
      "ஹ",
      "்"
    ],
    [
      "ஒரு",
      "ங்க"
    ],
    [
      "த",
      "ர்</w>"
    ],
    [
      "தொடர்ப",
      "ு</w>"
    ],
    [
      "ச",
      "ர்</w>"
    ],
    [
      "ீ",
      "ட்ட"
    ],
    [
      "்ட",
      "ன்</w>"
    ],
    [
      "ன",
      "ுக்கு</w>"
    ],
    [
      "ம",
      "ர்</w>"
    ],
    [
      "கடு",
      "மையான</w>"
    ],
    [
      "எ",
      "துவும்</w>"
    ],
    [
      "அடிக்க",
      "டி</w>"
    ],
    [
      "புகழ",
      "்பெ"
    ],
    [
      "தனி",
      "ப்பட்ட</w>"
    ],
    [
      "ிகள",
      "்,</w>"
    ],
    [
      "கிரு",
      "ஷ்ண"
    ],
    [
      "கணக்கெடு",
      "ப்பின"
    ],
    [
      "ப்பி",
      "டி"
    ],
    [
      "திட்ட",
      "மி"
    ],
    [
      "எ",
      "ல்</w>"
    ],
    [
      "குழந்த",
      "ைகள்</w>"
    ],
    [
      "சிற",
      "ப்பு</w>"
    ],
    [
      "உயிர",
      "ிழ"
    ],
    [
      "ஆண்ட",
      "ுகள்</w>"
    ],
    [
      "ந",
      "ெடு"
    ],
    [
      "ம",
      "டை"
    ],
    [
      "ப்பு",
      "ற</w>"
    ],
    [
      "எ",
      "க்"
    ],
    [
      "தொலை",
      "வில்</w>"
    ],
    [
      "உருவா",
      "க்கப்பட்ட"
    ],
    [
      "தடு",
      "ப்பூ"
    ],
    [
      "ப",
      "ான"
    ],
    [
      "போ",
      "ல்</w>"
    ],
    [
      "வ",
      "ம்</w>"
    ],
    [
      "நிறுவன",
      "த்தின்</w>"
    ],
    [
      "கா",
      "ப்ப"
    ],
    [
      "அ",
      "ட்"
    ],
    [
      "திர",
      "ி</w>"
    ],
    [
      "ர",
      "ஷ்ய"
    ],
    [
      "ன",
      "்கள்</w>"
    ],
    [
      "கோ",
      "</w>"
    ],
    [
      "ஸ்ட",
      "ீ"
    ],
    [
      "்ச",
      "ி"
    ],
    [
      "மு",
      "ள்ள</w>"
    ],
    [
      "ப",
      "ங்கு"
    ],
    [
      "புத்த",
      "க"
    ],
    [
      "க்க",
      "ள்</w>"
    ],
    [
      "திரைப்பட",
      "</w>"
    ],
    [
      "ச்ச",
      "ி"
    ],
    [
      "என",
      "ப்படும்</w>"
    ],
    [
      "ஒருங்க",
      "ிண"
    ],
    [
      "நீ",
      "டி"
    ],
    [
      "சூ",
      "ற"
    ],
    [
      "க",
      "ங்க"
    ],
    [
      "சமண",
      "</w>"
    ],
    [
      "ிய",
      "ைச்</w>"
    ],
    [
      "இல்ல",
      "ாத</w>"
    ],
    [
      "கு",
      "ண"
    ],
    [
      "ல",
      "ுக்கு</w>"
    ],
    [
      "கிலோ",
      "மீட்டர்</w>"
    ],
    [
      "நின",
      "ைச்ச"
    ],
    [
      "ல",
      "ம்</w>"
    ],
    [
      "ம",
      "ு</w>"
    ],
    [
      "மருத்துவ",
      "</w>"
    ],
    [
      "இருப்பின",
      "ும்,</w>"
    ],
    [
      "சந்த",
      "ிர"
    ],
    [
      "எதிர",
      "ான</w>"
    ],
    [
      "தலை",
      "வராக</w>"
    ],
    [
      "ஏனெ",
      "னில்</w>"
    ],
    [
      "1",
      "7</w>"
    ],
    [
      "ாக",
      "வும்,</w>"
    ],
    [
      "ஸ்",
      "வர"
    ],
    [
      "வழக்க",
      "மாக</w>"
    ],
    [
      "குறைவ",
      "ான</w>"
    ],
    [
      "மாற",
      "ியது.</w>"
    ],
    [
      "ப",
      "ங்கள"
    ],
    [
      "ம்ப",
      "ர"
    ],
    [
      "பொரு",
      "ள்</w>"
    ],
    [
      "ஜ",
      "ார்"
    ],
    [
      "அ",
      "ச"
    ],
    [
      "ுவ",
      "தற்காக</w>"
    ],
    [
      "புனி",
      "த</w>"
    ],
    [
      "கிட்ட",
      "த்த"
    ],
    [
      "கிட்டத்த",
      "ட்ட</w>"
    ],
    [
      "ி",
      "ர்</w>"
    ],
    [
      "விளையா",
      "டு"
    ],
    [
      "நா",
      "ட்டில்</w>"
    ],
    [
      "ந",
      "தி"
    ],
    [
      "க",
      "ாக"
    ],
    [
      "நிர்வ",
      "கி"
    ],
    [
      "எழு",
      "த"
    ],
    [
      "ைகள",
      "ையும்</w>"
    ],
    [
      "மேம்ப",
      "டுத்த"
    ],
    [
      "அவற்ற",
      "ில்</w>"
    ],
    [
      "ன",
      "ை"
    ],
    [
      "சரிய",
      "ான</w>"
    ],
    [
      "தெ",
      "ய்"
    ],
    [
      "ிய",
      "து,</w>"
    ],
    [
      "இ",
      "தற்க"
    ],
    [
      "தீர்",
      "மான"
    ],
    [
      "கோ",
      "ட்டை</w>"
    ],
    [
      "கொ",
      "ல"
    ],
    [
      "ஹா",
      "க்கி</w>"
    ],
    [
      "20",
      "19</w>"
    ],
    [
      "19",
      "2"
    ],
    [
      "1",
      "3</w>"
    ],
    [
      "ல",
      "ிட"
    ],
    [
      "ிய",
      "ுடன்</w>"
    ],
    [
      "பரிந்து",
      "ரைக்க"
    ],
    [
      "ு",
      "கிறது.</w>"
    ],
    [
      "நோய",
      "ால்</w>"
    ],
    [
      "பண",
      "த்தை</w>"
    ],
    [
      "பயன்படுத்த",
      "ப்படுகின்றன.</w>"
    ],
    [
      "கர்",
      "நாட"
    ],
    [
      "இருந்த",
      "து,</w>"
    ],
    [
      "மு",
      "ன்</w>"
    ],
    [
      "ூ",
      "ரில்</w>"
    ],
    [
      "பழங்க",
      "ுட"
    ],
    [
      "மாக",
      "ும்.</w>"
    ],
    [
      "சமீ",
      "ப"
    ],
    [
      "க்க",
      "ள"
    ],
    [
      "ஆ",
      "ல்ப"
    ],
    [
      "ர",
      "யில்</w>"
    ],
    [
      "்கிற",
      "ார்.</w>"
    ],
    [
      "வள",
      "ர்"
    ],
    [
      "பெற்ற",
      "ு</w>"
    ],
    [
      "ி",
      "ஸ்</w>"
    ],
    [
      "தாக",
      "த்</w>"
    ],
    [
      "ம",
      "ில்</w>"
    ],
    [
      "ண்ட",
      "்"
    ],
    [
      "கால",
      "்"
    ],
    [
      "தி",
      "ரிய"
    ],
    [
      "பு",
      "ண"
    ],
    [
      "ிற",
      "து,</w>"
    ],
    [
      "்கள",
      "ும்</w>"
    ],
    [
      "சா",
      "தாரண"
    ],
    [
      "வா",
      "தம்</w>"
    ],
    [
      "சி",
      "ன்ன"
    ],
    [
      "மருத்துவ",
      "மன"
    ],
    [
      "பழ",
      "ைய</w>"
    ],
    [
      "சோ",
      "ழ"
    ],
    [
      "ம",
      "ையில்</w>"
    ],
    [
      "வெற்ற",
      "ிகர"
    ],
    [
      "ிய",
      "ோ"
    ],
    [
      "பா",
      "</w>"
    ],
    [
      "சே",
      "வை</w>"
    ],
    [
      "மாவட்ட",
      "த்தின்</w>"
    ],
    [
      "வு",
      ",</w>"
    ],
    [
      "ஆ",
      "த"
    ],
    [
      "ைய",
      "ைத்</w>"
    ],
    [
      "ள",
      "வில்</w>"
    ],
    [
      "கே",
      "ள்"
    ],
    [
      "வ",
      "ைக்</w>"
    ],
    [
      "த்திற்க",
      "ும்</w>"
    ],
    [
      "ான",
      "து.</w>"
    ],
    [
      "மு",
      "ன்"
    ],
    [
      "கல்",
      "வெ"
    ],
    [
      "அமைப்ப",
      "ு</w>"
    ],
    [
      "மாக",
      "ப்</w>"
    ],
    [
      "ப",
      "ந்து</w>"
    ],
    [
      "இ",
      "வற்ற"
    ],
    [
      "ா",
      "வை</w>"
    ],
    [
      "ிருக்க",
      "லாம்.</w>"
    ],
    [
      "ட",
      "ர்</w>"
    ],
    [
      "ிழ",
      "மை</w>"
    ],
    [
      "மா",
      "திரி</w>"
    ],
    [
      "நா",
      "ணய"
    ],
    [
      "அண",
      "ியில்</w>"
    ],
    [
      "வ",
      "ைப்</w>"
    ],
    [
      "அ",
      "தற்க"
    ],
    [
      "ஏராள",
      "மான</w>"
    ],
    [
      "செய்த",
      "து.</w>"
    ],
    [
      "கட",
      "ன்</w>"
    ],
    [
      "ியா",
      ",</w>"
    ],
    [
      "அந்த",
      "க்</w>"
    ],
    [
      "ம",
      "த்திய"
    ],
    [
      "த்திற்க",
      "ாக</w>"
    ],
    [
      "நிக",
      "ழ"
    ],
    [
      "சான",
      "்ற"
    ],
    [
      "ம",
      "ட"
    ],
    [
      "வ",
      "லை"
    ],
    [
      "201",
      "8</w>"
    ],
    [
      "வ",
      "சிக்க"
    ],
    [
      "ோ",
      "ஷ"
    ],
    [
      "ர",
      "ப்ப"
    ],
    [
      "பார்வ",
      "ையாள"
    ],
    [
      "ம",
      "கி"
    ],
    [
      "ய",
      "ா</w>"
    ],
    [
      "தற்க",
      "ா"
    ],
    [
      "க",
      "ம்பெ"
    ],
    [
      "பெய",
      "ரில்</w>"
    ],
    [
      "டிய",
      "ோ</w>"
    ],
    [
      "பள்ள",
      "த்தா"
    ],
    [
      "நோ",
      "யா"
    ],
    [
      "நிய",
      "ோ"
    ],
    [
      "தேச",
      "ிய"
    ],
    [
      "வழ",
      "ி</w>"
    ],
    [
      "ுவ",
      "தற்கான</w>"
    ],
    [
      "க",
      "மாக</w>"
    ],
    [
      "ட்டு",
      "ப்</w>"
    ],
    [
      "வண",
      "ிக</w>"
    ],
    [
      "ப",
      "ுவ"
    ],
    [
      "வழ",
      "ிய"
    ],
    [
      "வர்கள",
      "ின்</w>"
    ],
    [
      "ப்படு",
      "கின்றன,</w>"
    ],
    [
      "போ",
      "து"
    ],
    [
      "ங",
      "்,</w>"
    ],
    [
      "ஏ",
      "ற"
    ],
    [
      "சா",
      "ர்</w>"
    ],
    [
      "ஜ",
      "ான்</w>"
    ],
    [
      "ட்டு",
      "க்</w>"
    ],
    [
      "வ",
      "ந்து</w>"
    ],
    [
      "5",
      "0"
    ],
    [
      "மொ",
      "த்தம்</w>"
    ],
    [
      "்கள",
      "்,</w>"
    ],
    [
      "வா",
      "ங்க</w>"
    ],
    [
      "ே",
      "ன்,</w>"
    ],
    [
      "ஷா",
      "ப்பிங்</w>"
    ],
    [
      "அற",
      "ிக்க"
    ],
    [
      "9",
      "ஆம்</w>"
    ],
    [
      "எதிர்க",
      "ொ"
    ],
    [
      "சிற",
      "ி"
    ],
    [
      "ம",
      "கள"
    ],
    [
      "நவீ",
      "ன</w>"
    ],
    [
      "த்த",
      "ன"
    ],
    [
      "வி",
      "ழு"
    ],
    [
      "ட",
      "ொ"
    ],
    [
      "ஃப்",
      "ள"
    ],
    [
      "செய",
      "ல்"
    ],
    [
      "வைர",
      "ஸ்</w>"
    ],
    [
      "ட",
      "பிள்யூ"
    ],
    [
      "எல்ல",
      "ாம்</w>"
    ],
    [
      "ஐரோப்ப",
      "ிய</w>"
    ],
    [
      "ஒ",
      "ற்ற"
    ],
    [
      "வந்த",
      "து.</w>"
    ],
    [
      "கொண்ட",
      "ார்.</w>"
    ],
    [
      "வ",
      "ல்</w>"
    ],
    [
      "பாதுகா",
      "ப்ப"
    ],
    [
      "தொடர்ப",
      "ான</w>"
    ],
    [
      "சது",
      "ர</w>"
    ],
    [
      "ப்பு",
      "களை</w>"
    ],
    [
      "ந",
      "ன்க"
    ],
    [
      "ஹ",
      "ு"
    ],
    [
      "பங்க",
      "ேற்ற"
    ],
    [
      "ன",
      "ல்</w>"
    ],
    [
      "ஆன்",
      "லை"
    ],
    [
      "தோ",
      "ற்ற"
    ],
    [
      "ன",
      "ியா</w>"
    ],
    [
      "ஒ",
      "ழு"
    ],
    [
      "மன்ன",
      "ர்</w>"
    ],
    [
      "பட",
      "த்தில்</w>"
    ],
    [
      "இத்த",
      "ால"
    ],
    [
      "சேர்",
      "க்க"
    ],
    [
      "கொ",
      "ள்வ"
    ],
    [
      "நோயா",
      "ள"
    ],
    [
      "அ",
      "யோ"
    ],
    [
      "தந்த",
      "ை</w>"
    ],
    [
      "டு",
      "களை</w>"
    ],
    [
      "ன",
      "வே</w>"
    ],
    [
      "நாட",
      "க"
    ],
    [
      "பண",
      "ி"
    ],
    [
      "ாள",
      "ர்</w>"
    ],
    [
      "வர",
      "ை"
    ],
    [
      "வந்த",
      "னர்.</w>"
    ],
    [
      "மாநில",
      "ம்</w>"
    ],
    [
      "பொ",
      "ஆ"
    ],
    [
      "க",
      "ி</w>"
    ],
    [
      "சிற",
      "ு</w>"
    ],
    [
      "மோச",
      "மான</w>"
    ],
    [
      "டு",
      ",</w>"
    ],
    [
      "ச",
      "ை</w>"
    ],
    [
      "நினை",
      "வு"
    ],
    [
      "உத",
      "வு"
    ],
    [
      "ஆற்ற",
      "ின்</w>"
    ],
    [
      "்ட",
      "ி"
    ],
    [
      "சத",
      "வீ"
    ],
    [
      "எ",
      "ஸ்ட"
    ],
    [
      "தே",
      "வா"
    ],
    [
      "இ",
      "ங்க"
    ],
    [
      "ஏற்ப",
      "டுகிறது.</w>"
    ],
    [
      "ோ",
      "ட்ட"
    ],
    [
      "வி",
      "நியோ"
    ],
    [
      "மான",
      "து.</w>"
    ],
    [
      "உறுதி",
      "ப்படுத்த"
    ],
    [
      "ஆ",
      "டை"
    ],
    [
      "ய",
      "ின"
    ],
    [
      "பந்த",
      "ை</w>"
    ],
    [
      "ல்",
      "ஸ்</w>"
    ],
    [
      "ா",
      "து.</w>"
    ],
    [
      "அவற்ற",
      "ின்</w>"
    ],
    [
      "து",
      "ரு"
    ],
    [
      "எ",
      "ட்டு</w>"
    ],
    [
      "ச",
      "ும"
    ],
    [
      "பார்",
      "க்க</w>"
    ],
    [
      "எதிர்",
      "பார்க்க"
    ],
    [
      "செ",
      "ன்ன"
    ],
    [
      "கள",
      "வில்</w>"
    ],
    [
      "விர",
      "ை"
    ],
    [
      "பின்ப",
      "ற்ற"
    ],
    [
      "மான",
      "து</w>"
    ],
    [
      "வ",
      "ைய"
    ],
    [
      "தொழில்",
      "நுட்ப"
    ],
    [
      "கோ",
      "ப"
    ],
    [
      "எ",
      "ஃப"
    ],
    [
      "201",
      "6</w>"
    ],
    [
      "வா",
      "ய்</w>"
    ],
    [
      "வி",
      "ஜ"
    ],
    [
      "ப்",
      "ள"
    ],
    [
      "தயா",
      "ரிக்க"
    ],
    [
      "த்த",
      "ள"
    ],
    [
      "அ",
      "சோ"
    ],
    [
      "ப்பட",
      "ாத</w>"
    ],
    [
      "ிருந்த",
      "ார்.</w>"
    ],
    [
      "1",
      "00</w>"
    ],
    [
      "த",
      "மான</w>"
    ],
    [
      "மக்கள்தொ",
      "கை</w>"
    ],
    [
      "த",
      "லை</w>"
    ],
    [
      "இல்ல",
      "ாமல்</w>"
    ],
    [
      "வழங்க",
      "ப்பட்டது.</w>"
    ],
    [
      "ஏற்க",
      "னவே</w>"
    ],
    [
      "வீ",
      "ழ்ச்ச"
    ],
    [
      "கூ",
      "ட"
    ],
    [
      "ண்ட",
      "ை</w>"
    ],
    [
      "க",
      "ைய</w>"
    ],
    [
      "பாகிஸ்த",
      "ான"
    ],
    [
      "ங்க",
      "ி</w>"
    ],
    [
      "ஜ",
      "ு"
    ],
    [
      "வரலா",
      "ற்று</w>"
    ],
    [
      "உற்ப",
      "த்த"
    ],
    [
      "த",
      "கவ"
    ],
    [
      "சுற்று",
      "லா"
    ],
    [
      "நிறுவ",
      "ப்பட்டது.</w>"
    ],
    [
      "ம்மா",
      "நில"
    ],
    [
      "கள",
      "ையும்</w>"
    ],
    [
      "பொருளா",
      "தார</w>"
    ],
    [
      "சி",
      "ந்த"
    ],
    [
      "ராஜ",
      "்ய"
    ],
    [
      "கூ",
      "ற்று"
    ],
    [
      "கிற",
      "து</w>"
    ],
    [
      "ப",
      "ில்</w>"
    ],
    [
      "வார்",
      "த்த"
    ],
    [
      "கீழ",
      "ே</w>"
    ],
    [
      "்க",
      "ின்றன.</w>"
    ],
    [
      "தொழில்",
      "முறை</w>"
    ],
    [
      "பத",
      "வி</w>"
    ],
    [
      "சா",
      "த்திய"
    ],
    [
      "ிய",
      "ு"
    ],
    [
      "நிர்வ",
      "ாக"
    ],
    [
      "ஆ",
      "ப்பிர"
    ],
    [
      "ர்",
      "ட்</w>"
    ],
    [
      "வ",
      "ொ"
    ],
    [
      "காண",
      "ப்படுகின்றன.</w>"
    ],
    [
      "விற்ப",
      "னை</w>"
    ],
    [
      "ஏற்ப",
      "டு"
    ],
    [
      "ிய",
      "ுள்ளது.</w>"
    ],
    [
      "ட்டு",
      "கள்</w>"
    ],
    [
      "வய",
      "து</w>"
    ],
    [
      "தா",
      "ய"
    ],
    [
      "த்த",
      "ா</w>"
    ],
    [
      "கடவு",
      "ள"
    ],
    [
      "இட",
      "ைய"
    ],
    [
      "ங்கள",
      "ாக</w>"
    ],
    [
      "வாய்",
      "ந்த</w>"
    ],
    [
      "முத",
      "லாம்</w>"
    ],
    [
      "த",
      "ப்ப"
    ],
    [
      "செய்த",
      "னர்.</w>"
    ],
    [
      "த",
      "ைய"
    ],
    [
      "வட",
      "க்க"
    ],
    [
      "கிரிக்க",
      "ெட்</w>"
    ],
    [
      "உ",
      "ர"
    ],
    [
      "பு",
      "ல"
    ],
    [
      "ர்கள",
      "ுடன்</w>"
    ],
    [
      "சூற",
      "ாவள"
    ],
    [
      "லாந்த",
      "ின்</w>"
    ],
    [
      "போ",
      "லீ"
    ],
    [
      "ஸ",
      "ை</w>"
    ],
    [
      "சீ",
      "னா"
    ],
    [
      "ஸ்க",
      "ே"
    ],
    [
      "ல்கள",
      "ில்</w>"
    ],
    [
      "அருக",
      "ிலுள்ள</w>"
    ],
    [
      "புகழ்பெ",
      "ற்ற</w>"
    ],
    [
      "வர்கள",
      "ில்</w>"
    ],
    [
      "கொண்டா",
      "ட்ட"
    ],
    [
      "காவல",
      "்துற"
    ],
    [
      "ரு",
      "க்கும்</w>"
    ],
    [
      "வாக",
      "ன"
    ],
    [
      "ச்ச",
      "ி</w>"
    ],
    [
      "உய",
      "ர்"
    ],
    [
      "ட்",
      "ரி"
    ],
    [
      "போ",
      "ரில்</w>"
    ],
    [
      "தலை",
      "வர்</w>"
    ],
    [
      "ும",
      "ன்ற"
    ],
    [
      "ய",
      "ான"
    ],
    [
      "வை",
      "த்</w>"
    ],
    [
      "எண்ணிக்க",
      "ை</w>"
    ],
    [
      "மு",
      "ற்ற"
    ],
    [
      "க்க",
      "ர்</w>"
    ],
    [
      "வெ",
      "டி"
    ],
    [
      "சில",
      "ர்</w>"
    ],
    [
      "ள",
      "ிப்ப"
    ],
    [
      "உருவா",
      "க்கு"
    ],
    [
      "இருந்த",
      "ு"
    ],
    [
      "இருக்க",
      "ிறது.</w>"
    ],
    [
      "எ",
      "ப்ப"
    ],
    [
      "செல",
      "வு</w>"
    ],
    [
      "வில",
      "ை</w>"
    ],
    [
      "உ",
      "ள"
    ],
    [
      "க்கு",
      "த்</w>"
    ],
    [
      "தாக",
      "வும்,</w>"
    ],
    [
      "ய",
      "ார்"
    ],
    [
      "பட்ட",
      "ம்</w>"
    ],
    [
      "சே",
      "த"
    ],
    [
      "த்த",
      "ீ"
    ],
    [
      "நடைபெற",
      "ும்</w>"
    ],
    [
      "201",
      "1</w>"
    ],
    [
      "நிலைய",
      "ம்</w>"
    ],
    [
      "ங்கள",
      "ுடன்</w>"
    ],
    [
      "ைய",
      "ிலிருந்து</w>"
    ],
    [
      "மட்ட",
      "ும"
    ],
    [
      "ப",
      "ல்ல"
    ],
    [
      "அவ",
      "சிய"
    ],
    [
      "எ",
      "ட்ட"
    ],
    [
      "நட",
      "ந்த"
    ],
    [
      "அதன",
      "ால்</w>"
    ],
    [
      "ெ",
      "ழு"
    ],
    [
      "வரு",
      "மான"
    ],
    [
      "பயன்ப",
      "ா"
    ],
    [
      "்ச",
      "ி</w>"
    ],
    [
      "நகராட்ச",
      "ி.</w>"
    ],
    [
      "ஏற்ப",
      "ாடு</w>"
    ],
    [
      "வ",
      "ிலும்</w>"
    ],
    [
      "ால",
      "த்தில்</w>"
    ],
    [
      "ந",
      "ை"
    ],
    [
      "திரைப்பட",
      "ம்</w>"
    ],
    [
      "்ட",
      "ு</w>"
    ],
    [
      "ரீ",
      "தியாக</w>"
    ],
    [
      "கள",
      "ைக்</w>"
    ],
    [
      "கு",
      "ண்ட"
    ],
    [
      "கொ",
      "டுக்க"
    ],
    [
      "கன",
      "டா"
    ],
    [
      "201",
      "3</w>"
    ],
    [
      "சு",
      "கா"
    ],
    [
      "க்கு",
      "ற"
    ],
    [
      "மஞ்ச",
      "ள்</w>"
    ],
    [
      "ில",
      "ிருந்த"
    ],
    [
      "தே",
      "தி</w>"
    ],
    [
      "விரு",
      "ப்ப"
    ],
    [
      "ந்த",
      "்</w>"
    ],
    [
      "க்க",
      "ிர"
    ],
    [
      "டைந்த",
      "து.</w>"
    ],
    [
      "உதாரண",
      "மாக,</w>"
    ],
    [
      "சமய",
      "த்தில்</w>"
    ],
    [
      "க்கு",
      "கள்</w>"
    ],
    [
      "அல",
      "ுவ"
    ],
    [
      "ஸ்வீ",
      "ட"
    ],
    [
      "க",
      "ன்ன"
    ],
    [
      "போல",
      "வே</w>"
    ],
    [
      "து",
      ";</w>"
    ],
    [
      "ின",
      "ர்</w>"
    ],
    [
      "்கள",
      "ுக்கு</w>"
    ],
    [
      "சரிய",
      "ாக</w>"
    ],
    [
      "நில",
      "ப்ப"
    ],
    [
      "ப",
      "த்திர"
    ],
    [
      "ஷ",
      "ே"
    ],
    [
      "வழக்க",
      "மான</w>"
    ],
    [
      "பெ",
      "ரிய"
    ],
    [
      "வே",
      "லை"
    ],
    [
      "ல",
      "ட்ச"
    ],
    [
      "கட",
      "ல்</w>"
    ],
    [
      "எ",
      "ப்போ"
    ],
    [
      "து",
      "ள"
    ],
    [
      "எ",
      "ப்படி</w>"
    ],
    [
      "கோ",
      "ட"
    ],
    [
      "ி",
      "ல்ல"
    ],
    [
      "வி",
      "ல்லை,</w>"
    ],
    [
      "டுத்த",
      "ு</w>"
    ],
    [
      "மா",
      "தம்</w>"
    ],
    [
      "ஆண்டு",
      "களில்</w>"
    ],
    [
      "ுக்கு",
      "க்</w>"
    ],
    [
      "ெ",
      "ய"
    ],
    [
      "விமர்",
      "சன"
    ],
    [
      "அ",
      "ந்"
    ],
    [
      "மைய",
      "ாக</w>"
    ],
    [
      "சொ",
      "ன்ன"
    ],
    [
      "தமி",
      "ழ்</w>"
    ],
    [
      "ந",
      "ட்ச"
    ],
    [
      "க்கூ",
      "டும்.</w>"
    ],
    [
      "ஃ",
      "போ"
    ],
    [
      "அனும",
      "தி"
    ],
    [
      "கள",
      "ால்</w>"
    ],
    [
      "வு",
      "த்</w>"
    ],
    [
      "ிகள",
      "ைக்</w>"
    ],
    [
      "துப்பா",
      "க்க"
    ],
    [
      "நிறுவன",
      "ங்கள்</w>"
    ],
    [
      "கவன",
      "ம்</w>"
    ],
    [
      "ஊழ",
      "ிய"
    ],
    [
      "்ச",
      "ார"
    ],
    [
      "தெ",
      "ன்க"
    ],
    [
      "மா",
      "திரிய"
    ],
    [
      "சந்த",
      "ோஷ"
    ],
    [
      "பா",
      "ரா"
    ],
    [
      "மக்கள",
      "ின்</w>"
    ],
    [
      "ஷ",
      "ெ"
    ],
    [
      "கு",
      "ரு"
    ],
    [
      "கொண்டாட",
      "ப்படுகிறது.</w>"
    ],
    [
      "உத",
      "வி</w>"
    ],
    [
      "ஞ்ச",
      "ால"
    ],
    [
      "நட்ச",
      "த்திர"
    ],
    [
      "ள",
      "ோ</w>"
    ],
    [
      "ல",
      ".</w>"
    ],
    [
      "ஆ",
      "தி"
    ],
    [
      "காங்கிர",
      "ஸ்</w>"
    ],
    [
      "வ",
      "ையும்</w>"
    ],
    [
      "உய",
      "ர்</w>"
    ],
    [
      "செலு",
      "த்த</w>"
    ],
    [
      "ரி",
      ",</w>"
    ],
    [
      "கா",
      "ஷ்"
    ],
    [
      "ைக்க",
      "ும்</w>"
    ],
    [
      "202",
      "1</w>"
    ],
    [
      "அடையாள",
      "ம்</w>"
    ],
    [
      "இ",
      "ப்பட"
    ],
    [
      "ங்க",
      "ும்</w>"
    ],
    [
      "-",
      "இன்</w>"
    ],
    [
      "விவர",
      "ிக்க"
    ],
    [
      "இஸ்",
      "லா"
    ],
    [
      "அனும",
      "திக்க"
    ],
    [
      "ிரு",
      "க்க</w>"
    ],
    [
      "ம",
      "து"
    ],
    [
      "பக",
      "்த"
    ],
    [
      "ஆய்",
      "வு</w>"
    ],
    [
      "விள",
      "க்க"
    ],
    [
      "நடை",
      "பெற்றது.</w>"
    ],
    [
      "அ",
      "ச்ச"
    ],
    [
      "நியூ",
      "</w>"
    ],
    [
      "ட",
      "க"
    ],
    [
      "கவு",
      "ண்ட"
    ],
    [
      "அற",
      "ுவை</w>"
    ],
    [
      "ங்க",
      "ில்</w>"
    ],
    [
      "ப",
      "டி,</w>"
    ],
    [
      "முதலீ",
      "டு</w>"
    ],
    [
      "தொடர்பு",
      "டைய"
    ],
    [
      "முக்கிய",
      "மாக</w>"
    ],
    [
      "அல",
      "ங்க"
    ],
    [
      "19",
      "ஆம்</w>"
    ],
    [
      "ான",
      "்,</w>"
    ],
    [
      "வர",
      "ையிலான</w>"
    ],
    [
      "ன",
      "ியாவின்</w>"
    ],
    [
      "நிலவர",
      "ப்படி,</w>"
    ],
    [
      "சூ",
      "ழ்"
    ],
    [
      "ஆட்ச",
      "ியாள"
    ],
    [
      "காஷ்",
      "மீ"
    ],
    [
      "ன",
      "ே</w>"
    ],
    [
      "விளையா",
      "ட்டை</w>"
    ],
    [
      "ஸ்ட",
      "ோ"
    ],
    [
      "தேவா",
      "லய"
    ],
    [
      "பண",
      "்ற"
    ],
    [
      "விள",
      "ைவாக</w>"
    ],
    [
      "்ப",
      "டி</w>"
    ],
    [
      "வாய்",
      "ப்ப"
    ],
    [
      "ஹ",
      "ால"
    ],
    [
      "ல",
      "ே</w>"
    ],
    [
      "கட்ச",
      "ியின்</w>"
    ],
    [
      "ரிய",
      "ின்</w>"
    ],
    [
      "பூ",
      "ர்"
    ],
    [
      "அலுவ",
      "ல"
    ],
    [
      "உண",
      "ர்"
    ],
    [
      "ப",
      "ட்ட</w>"
    ],
    [
      "கு",
      "ப்த"
    ],
    [
      "தெரிவி",
      "க்க"
    ],
    [
      "ப",
      "ச்ச"
    ],
    [
      "சென்ற",
      "ார்.</w>"
    ],
    [
      "மழ",
      "ை</w>"
    ],
    [
      "தெ",
      "லு"
    ],
    [
      "பி",
      "ளா"
    ],
    [
      "201",
      "7</w>"
    ],
    [
      "அழ",
      "ி"
    ],
    [
      "த",
      "வ"
    ],
    [
      "மூ",
      "ட"
    ],
    [
      "குறைவ",
      "ாக</w>"
    ],
    [
      "ிர",
      "ி"
    ],
    [
      "சோதன",
      "ை</w>"
    ],
    [
      "ஆன",
      "ா</w>"
    ],
    [
      "ாங்க",
      ".</w>"
    ],
    [
      "க்க",
      "ெ"
    ],
    [
      "விசா",
      "ரண"
    ],
    [
      "சந்த",
      "ே"
    ],
    [
      "வென்ற",
      "து.</w>"
    ],
    [
      "துற",
      "ை</w>"
    ],
    [
      "ஸ",
      "ுக்கு</w>"
    ],
    [
      "வேண்ட",
      "ும"
    ],
    [
      "ாக",
      "ச்</w>"
    ],
    [
      "இறு",
      "தி</w>"
    ],
    [
      "இந்த",
      "ோ"
    ],
    [
      "-",
      "இல்</w>"
    ],
    [
      "த்த",
      "ார்,</w>"
    ],
    [
      "பா",
      "ராட்ட"
    ],
    [
      "பராம",
      "ரி"
    ],
    [
      "ைய",
      "ால்</w>"
    ],
    [
      "இறுதி",
      "ப்</w>"
    ],
    [
      "ிட",
      "்</w>"
    ],
    [
      "நடை",
      "பெற்ற"
    ],
    [
      "ஏற்ப",
      "டுவ"
    ],
    [
      "ிகள",
      "ைப்</w>"
    ],
    [
      "இல்ல",
      "ினா"
    ],
    [
      "முடி",
      "வ"
    ],
    [
      "கூற்று",
      "ப்படி,</w>"
    ],
    [
      "குற",
      "ுக"
    ],
    [
      "கிள",
      "ப்</w>"
    ],
    [
      "2",
      "1</w>"
    ],
    [
      "சீ",
      "ன</w>"
    ],
    [
      "நில",
      "ையை</w>"
    ],
    [
      "2",
      "2</w>"
    ],
    [
      "பகுதி",
      "கள்</w>"
    ],
    [
      "ல்",
      ")</w>"
    ],
    [
      "அதிக",
      "ம்</w>"
    ],
    [
      "திய",
      "ின்</w>"
    ],
    [
      "ள",
      "ி</w>"
    ],
    [
      "பங்கே",
      "ற்க"
    ],
    [
      "வு",
      "ட்</w>"
    ],
    [
      "சு",
      "ற்றி</w>"
    ],
    [
      "்ய",
      "ா</w>"
    ],
    [
      "ஏ",
      "தே"
    ],
    [
      "்ட",
      "்"
    ],
    [
      "க",
      "ையில்</w>"
    ],
    [
      "இச",
      "ைக்க"
    ],
    [
      "நெடு",
      "ஞ்சால"
    ],
    [
      "எடுத்த",
      "ுக்க"
    ],
    [
      "பொ",
      "ழு"
    ],
    [
      "மாற்ற",
      "ம்</w>"
    ],
    [
      "ஃப",
      "ில"
    ],
    [
      "இல்ல",
      "ை</w>"
    ],
    [
      "ுட",
      "னும்</w>"
    ],
    [
      "ஆ",
      "சிரிய"
    ],
    [
      "போன்ற",
      "வற்ற"
    ],
    [
      "கு",
      "ம்ப"
    ],
    [
      "அல",
      "ெ"
    ],
    [
      "ம",
      "லை</w>"
    ],
    [
      "பா",
      "ரு"
    ],
    [
      "பிர",
      "ான்ச"
    ],
    [
      "போ",
      "ற"
    ],
    [
      "கூறு",
      "கிறார்.</w>"
    ],
    [
      "அடி",
      "த்தார்.</w>"
    ],
    [
      "நாள",
      "ில்</w>"
    ],
    [
      "ஏதே",
      "னும்</w>"
    ],
    [
      "என்ற",
      "ால்,</w>"
    ],
    [
      "ஏற்பட",
      "லாம்.</w>"
    ],
    [
      "வல",
      "ுவ"
    ],
    [
      "கை",
      "து</w>"
    ],
    [
      "பா",
      "லி"
    ],
    [
      "அ",
      "ம்ப"
    ],
    [
      "தொலைக்க",
      "ாட்சி</w>"
    ],
    [
      "திய",
      "ை</w>"
    ],
    [
      "கு",
      "ட"
    ],
    [
      "தெய்",
      "வ"
    ],
    [
      "ப்ப",
      "ா</w>"
    ],
    [
      "பட",
      "த்தின்</w>"
    ],
    [
      "என்ப",
      "வரால்</w>"
    ],
    [
      "நடை",
      "பெறு"
    ],
    [
      "க்க",
      "ார"
    ],
    [
      "திரைப்பட",
      "ங்களில்</w>"
    ],
    [
      "க",
      "ட்சி</w>"
    ],
    [
      "இராணுவ",
      "</w>"
    ],
    [
      "வீர",
      "ர்கள"
    ],
    [
      "ைய",
      "ுடன்</w>"
    ],
    [
      "வி",
      "ஞ"
    ],
    [
      "உலக",
      "ப்</w>"
    ],
    [
      "ரிட",
      "ம்</w>"
    ],
    [
      "வா",
      "சி"
    ],
    [
      "ஆச",
      "ிய</w>"
    ],
    [
      "1",
      "00"
    ],
    [
      "வை",
      "ட்ட"
    ],
    [
      "ே",
      "ல்</w>"
    ],
    [
      "வா",
      "தி"
    ],
    [
      "ியா",
      "ர்</w>"
    ],
    [
      "கல",
      "ந்து</w>"
    ],
    [
      "இல்ல",
      "ாத"
    ],
    [
      "மின",
      "்சார"
    ],
    [
      "இண",
      "ைப்ப"
    ],
    [
      "மூ",
      "ள"
    ],
    [
      "ாள",
      "ர்கள்</w>"
    ],
    [
      "காண",
      "ப்படுகிறது.</w>"
    ],
    [
      "க",
      "ல்</w>"
    ],
    [
      "கண்ட",
      "றி"
    ],
    [
      "சிய",
      "ா</w>"
    ],
    [
      "க்கப்பட்ட",
      "ு</w>"
    ],
    [
      "கூற",
      "ப்படுகிறது.</w>"
    ],
    [
      "முன்ப",
      "ு,</w>"
    ],
    [
      "ப்பா",
      "ன்</w>"
    ],
    [
      "ிய",
      "ைக்</w>"
    ],
    [
      "தொட",
      "ர்</w>"
    ],
    [
      "போ",
      "ராட்ட"
    ],
    [
      "அ",
      "டி</w>"
    ],
    [
      "கோ",
      "ப்பை</w>"
    ],
    [
      "ட்ட",
      "ி"
    ],
    [
      "உறு",
      "தி</w>"
    ],
    [
      "போட்ட",
      "ிகள"
    ],
    [
      "ங்க",
      "ர"
    ],
    [
      "ா",
      "ரு"
    ],
    [
      "4",
      "0</w>"
    ],
    [
      "முடியா",
      "து.</w>"
    ],
    [
      "த்த",
      "ுள்ளது.</w>"
    ],
    [
      "வ",
      "ியா"
    ],
    [
      "ழ",
      "ற்ச"
    ],
    [
      "மண",
      "ிப்ப"
    ],
    [
      "கிற",
      "ார்,</w>"
    ],
    [
      "ங்கள",
      "ால்</w>"
    ],
    [
      "பத",
      "விய"
    ],
    [
      "சந்த",
      "ி"
    ],
    [
      "ஒ",
      "டி"
    ],
    [
      "தாக்கு",
      "தல்</w>"
    ],
    [
      "தா",
      "ய்"
    ],
    [
      "ஜெ",
      "ய"
    ],
    [
      "ர",
      "க"
    ],
    [
      "உருவா",
      "க்க</w>"
    ],
    [
      "ஃ",
      "பு"
    ],
    [
      "ந",
      "ன்ற"
    ],
    [
      "யா",
      "ர்க்</w>"
    ],
    [
      "விளையா",
      "ட்டின்</w>"
    ],
    [
      "கிர",
      "ா"
    ],
    [
      "பார்",
      "த்து</w>"
    ],
    [
      "ோ",
      ",</w>"
    ],
    [
      "இல்லினா",
      "ய்"
    ],
    [
      "ஆ",
      "ச்ச"
    ],
    [
      "கு",
      "திர"
    ],
    [
      "ம்ப",
      "ோது,</w>"
    ],
    [
      "கோ",
      "லை</w>"
    ],
    [
      "குறிய",
      "ீ"
    ],
    [
      "நகர",
      "</w>"
    ],
    [
      "ப்ப",
      "தற்கு</w>"
    ],
    [
      "மனி",
      "த</w>"
    ],
    [
      "பெ",
      "ல்"
    ],
    [
      "கேர",
      "ள"
    ],
    [
      "்",
      ")</w>"
    ],
    [
      "ும்",
      "னு</w>"
    ],
    [
      "கல்",
      "வி</w>"
    ],
    [
      "இட",
      "ையிலான</w>"
    ],
    [
      "ச",
      "ரண"
    ],
    [
      "கட்ட",
      "ாய"
    ],
    [
      "க்கப்பட்ட",
      "ன.</w>"
    ],
    [
      "உட",
      "ன்</w>"
    ],
    [
      "வாழ்க்க",
      "ை</w>"
    ],
    [
      "ந",
      "பர"
    ],
    [
      "வி",
      "ஷ்ண"
    ],
    [
      "ாக",
      "வோ</w>"
    ],
    [
      "தி",
      "ச"
    ],
    [
      "200",
      "8</w>"
    ],
    [
      "201",
      "2</w>"
    ],
    [
      "வ்",
      "ளோ</w>"
    ],
    [
      "பாதி",
      "க்கப்பட்ட</w>"
    ],
    [
      "மகி",
      "ழ்ச்ச"
    ],
    [
      "மி",
      "ல்ல"
    ],
    [
      "ஆ",
      "வண"
    ],
    [
      "ஸ்க",
      "ா"
    ],
    [
      "20",
      "ஆம்</w>"
    ],
    [
      "ப்பு",
      "ப்</w>"
    ],
    [
      "பிள",
      "ே"
    ],
    [
      "முகலா",
      "ய</w>"
    ],
    [
      "நடி",
      "க"
    ],
    [
      "வர்கள",
      "ை</w>"
    ],
    [
      "தலை",
      "வர"
    ],
    [
      "ஆண",
      "்கள்</w>"
    ],
    [
      "க்கப்பட்ட",
      "ுள்ளது.</w>"
    ],
    [
      "குழ",
      "ுக்கள"
    ],
    [
      "பயிற்ச",
      "ியாள"
    ],
    [
      "உள்ள",
      "து</w>"
    ],
    [
      "தனி",
      "த்துவ"
    ],
    [
      "நி",
      "புண"
    ],
    [
      "ை",
      "ஞ"
    ],
    [
      "கு",
      "ரோ"
    ],
    [
      "தென்க",
      "ிழ"
    ],
    [
      "ந",
      "ம்ம"
    ],
    [
      "ிட",
      "்"
    ],
    [
      "பெ",
      "ண்ண"
    ],
    [
      "நான்க",
      "ாவது</w>"
    ],
    [
      "ப",
      "த்த"
    ],
    [
      "மா",
      "வ"
    ],
    [
      "எ",
      "டுக்க"
    ],
    [
      "நிர்வ",
      "ாக</w>"
    ],
    [
      "வெளிய",
      "ேற்ற"
    ],
    [
      "மு",
      "து"
    ],
    [
      "ொ",
      "ழி"
    ],
    [
      "கொண்ட",
      "ுள்ளன.</w>"
    ],
    [
      "வை",
      "கள்</w>"
    ],
    [
      "கலி",
      "போர்"
    ],
    [
      "ுள்ள",
      "தாக</w>"
    ],
    [
      "நா",
      "டா"
    ],
    [
      "உண்",
      "மையான</w>"
    ],
    [
      "ார்",
      "ட்</w>"
    ],
    [
      "த்த",
      "ன்"
    ],
    [
      "முக்கிய",
      "த்துவம்</w>"
    ],
    [
      "நக",
      "ைச்ச"
    ],
    [
      "பழங்குட",
      "ியின"
    ],
    [
      "க",
      "லை</w>"
    ],
    [
      "தொழ",
      "ில்</w>"
    ],
    [
      "தென்ன",
      "ிந்த"
    ],
    [
      "அதிகாரப்பூர்வ",
      "</w>"
    ],
    [
      "மொ",
      "த்த"
    ],
    [
      "அறிகுற",
      "ிகள்</w>"
    ],
    [
      "னிய",
      "ன்</w>"
    ],
    [
      "கா",
      "ற்ற"
    ],
    [
      "யி",
      "டு"
    ],
    [
      "ஏ",
      "ர்"
    ],
    [
      "ட",
      "ம்</w>"
    ],
    [
      "மற",
      "ை"
    ],
    [
      "ில",
      "ான</w>"
    ],
    [
      "சிறி",
      "து</w>"
    ],
    [
      "நாட",
      "்கள்</w>"
    ],
    [
      "ஏற்பட்ட",
      "து.</w>"
    ],
    [
      "கே",
      "ட்க"
    ],
    [
      "பல்கலைக்கழ",
      "கத்தில்</w>"
    ],
    [
      "ஒ",
      "த்த"
    ],
    [
      "இடம்பெ",
      "ற்ற"
    ],
    [
      "விள",
      "ங்கு"
    ],
    [
      "க",
      "த்தின்</w>"
    ],
    [
      "பொதுவ",
      "ாக,</w>"
    ],
    [
      "எதிர்",
      "ப்பு</w>"
    ],
    [
      "பு",
      "தி"
    ],
    [
      "க",
      "ே</w>"
    ],
    [
      "ாம",
      "ல்,</w>"
    ],
    [
      "மகா",
      "ராஷ்டிர"
    ],
    [
      "குறுக",
      "ிய</w>"
    ],
    [
      "ர",
      "ய"
    ],
    [
      "நுழ",
      "ை"
    ],
    [
      "ல",
      "ின"
    ],
    [
      "மர",
      "பண"
    ],
    [
      "ம்ப",
      "ி"
    ],
    [
      "கட",
      "ன"
    ],
    [
      "உருவா",
      "க்கப்பட்ட</w>"
    ],
    [
      "வரு",
      "வ"
    ],
    [
      "ுவ",
      "தற்க"
    ],
    [
      "அண",
      "ிய"
    ],
    [
      "போ",
      "ரா"
    ],
    [
      "ப",
      "ன்ற"
    ],
    [
      "ஊ",
      "க்கு"
    ],
    [
      "எ",
      "ஃப்</w>"
    ],
    [
      "நெ",
      "ரு"
    ],
    [
      "வ",
      "ன்"
    ],
    [
      "விகி",
      "தம்</w>"
    ],
    [
      "வசி",
      "த்து</w>"
    ],
    [
      "இ",
      "ம்மாநில"
    ],
    [
      "கு",
      "ளி"
    ],
    [
      "ச",
      "ைக்க"
    ],
    [
      "கணின",
      "ி</w>"
    ],
    [
      "மாகாண",
      "த்தில்</w>"
    ],
    [
      "ப்ப",
      "ய"
    ],
    [
      "ர",
      "ைப்</w>"
    ],
    [
      "போத",
      "ிலும்</w>"
    ],
    [
      "மி",
      "ன்ன"
    ],
    [
      "ச",
      "ம்</w>"
    ],
    [
      "ஆயு",
      "த"
    ],
    [
      "ூ",
      "</w>"
    ],
    [
      "க",
      "ம"
    ],
    [
      "ஃபீ",
      "ல்ட"
    ],
    [
      "விகி",
      "த"
    ],
    [
      "த்திற்க",
      "ுள்</w>"
    ],
    [
      "தி",
      "டீ"
    ],
    [
      "ஆண்டுகள",
      "ுக்கு</w>"
    ],
    [
      "ஃப்ர",
      "ீ"
    ],
    [
      "ண",
      "ிக்க"
    ],
    [
      "பழ",
      "மையான</w>"
    ],
    [
      "சொ",
      "ல"
    ],
    [
      "உட",
      "்க"
    ],
    [
      "மா",
      "பெரும்</w>"
    ],
    [
      "ம",
      "ிய</w>"
    ],
    [
      "உ",
      "டை"
    ],
    [
      "எழு",
      "திய"
    ],
    [
      "கோ",
      "ட்ப"
    ],
    [
      "நடி",
      "த்தார்.</w>"
    ],
    [
      "நாடு",
      "கள்</w>"
    ],
    [
      "ஞ",
      "ான"
    ],
    [
      "ச",
      "ர்ச்ச"
    ],
    [
      "சேர்",
      "த்து</w>"
    ],
    [
      "வெப்ப",
      "நிலை</w>"
    ],
    [
      "அ",
      "லா"
    ],
    [
      "பெரும்பால",
      "ான"
    ],
    [
      "உத",
      "வ"
    ],
    [
      "விரும்ப",
      "ு"
    ],
    [
      "இதன",
      "ை</w>"
    ],
    [
      "ஜெ",
      "ன"
    ],
    [
      "ண்ட",
      "ா</w>"
    ],
    [
      "கட்ட",
      "ண"
    ],
    [
      "ி",
      "த"
    ],
    [
      "ச",
      "மா"
    ],
    [
      "மா",
      "ட"
    ],
    [
      "மண்ட",
      "ல</w>"
    ],
    [
      "இர",
      "வு</w>"
    ],
    [
      "போ",
      "தும்</w>"
    ],
    [
      "தெரிவி",
      "த்தார்.</w>"
    ],
    [
      "குடிய",
      "ரசு"
    ],
    [
      "ஜனாதிப",
      "தி</w>"
    ],
    [
      "இல",
      "க்கிய"
    ],
    [
      "ப்பு",
      ",</w>"
    ],
    [
      "க்க",
      "ை</w>"
    ],
    [
      "ம",
      "ிக்க</w>"
    ],
    [
      "ல்ல",
      "ி</w>"
    ],
    [
      "ம்ப",
      "ு"
    ],
    [
      "டி",
      "க்</w>"
    ],
    [
      "2",
      "6</w>"
    ],
    [
      "நியூ",
      "யார்க்</w>"
    ],
    [
      "மல",
      "்ய"
    ],
    [
      "இணைய",
      "தள"
    ],
    [
      "ஆட்ச",
      "ியின்</w>"
    ],
    [
      "இங்கிலாந்த",
      "ின்</w>"
    ],
    [
      "தூ",
      "ண்ட"
    ],
    [
      "ஆரம்ப",
      "கால</w>"
    ],
    [
      "ச",
      "ிய</w>"
    ],
    [
      "பிர",
      "ம்ம"
    ],
    [
      "பரவல",
      "ாக</w>"
    ],
    [
      "நிற",
      "ைய</w>"
    ],
    [
      "உ",
      "ப"
    ],
    [
      "அதிக",
      "ரிக்க"
    ],
    [
      "முயற்ச",
      "ி</w>"
    ],
    [
      "நே",
      "ர்"
    ],
    [
      "்க",
      "்</w>"
    ],
    [
      "விளையா",
      "ட்டில்</w>"
    ],
    [
      "ர",
      "ங்க</w>"
    ],
    [
      "ட்",
      "ரோ"
    ],
    [
      "வா",
      "ர்</w>"
    ],
    [
      "கரு",
      "த்த"
    ],
    [
      "ஈடு",
      "பட்ட"
    ],
    [
      "அவர்கள",
      "ை</w>"
    ],
    [
      "க",
      "ற்ற"
    ],
    [
      "எ",
      "ஸ"
    ],
    [
      "குடும்ப",
      "த்தின"
    ],
    [
      "அதிகாரி",
      "கள்</w>"
    ],
    [
      "கு",
      "ந்த</w>"
    ],
    [
      "அ",
      "க்க"
    ],
    [
      "ர",
      "த்து</w>"
    ],
    [
      "பத",
      "க்க"
    ],
    [
      "எ",
      "ங்க</w>"
    ],
    [
      "சா",
      "ன்</w>"
    ],
    [
      "இந்த",
      "ி</w>"
    ],
    [
      "பள்ள",
      "ி</w>"
    ],
    [
      "கணக்கெடுப்பின",
      "்படி,</w>"
    ],
    [
      "ஐரோ",
      "ப்பா"
    ],
    [
      "த",
      "ல்,</w>"
    ],
    [
      "ய",
      "ர்</w>"
    ],
    [
      "ி",
      "கை</w>"
    ],
    [
      "வைட்ட",
      "மின்</w>"
    ],
    [
      "செய்ய",
      "ப்பட்டார்.</w>"
    ],
    [
      "ழ",
      "ல்</w>"
    ],
    [
      "எ",
      "ச்ச"
    ],
    [
      "ங்கள",
      "ுக்குப்</w>"
    ],
    [
      "்கள",
      "ைக்</w>"
    ],
    [
      "மா",
      "த</w>"
    ],
    [
      "த்த",
      "ான"
    ],
    [
      "நகர",
      "ின்</w>"
    ],
    [
      "கோ",
      "ளா"
    ],
    [
      "நில",
      "ைப்</w>"
    ],
    [
      "விள",
      "ம்பர"
    ],
    [
      "2",
      "3</w>"
    ],
    [
      "ப",
      "கி"
    ],
    [
      "விளையாட்டு",
      "ப்</w>"
    ],
    [
      "கண",
      "்</w>"
    ],
    [
      "எ",
      "ல"
    ],
    [
      "நன்க",
      "ு</w>"
    ],
    [
      "ஆஸ்திரேல",
      "ிய</w>"
    ],
    [
      "ீ",
      "ரல்</w>"
    ],
    [
      "ஜன",
      "நாய"
    ],
    [
      "வெளிய",
      "ிட்ட"
    ],
    [
      "ட",
      "ன்,</w>"
    ],
    [
      "கிர",
      "ீ"
    ],
    [
      "சு",
      "வி"
    ],
    [
      "கொஞ்ச",
      "ம்</w>"
    ],
    [
      "பா",
      "ட்ட"
    ],
    [
      "தேர்த",
      "லில்</w>"
    ],
    [
      "பஞ்சா",
      "ப்</w>"
    ],
    [
      "ன",
      "ோ</w>"
    ],
    [
      ",00",
      "0"
    ],
    [
      "இற",
      "ந்த"
    ],
    [
      "மொழ",
      "ியில்</w>"
    ],
    [
      "கொண்ட",
      "து.</w>"
    ],
    [
      "கேள்",
      "வி"
    ],
    [
      "ிய",
      "ுள்ள</w>"
    ],
    [
      "அ",
      "பாய"
    ],
    [
      "த",
      "க்க"
    ],
    [
      "குற்ற",
      "ம்</w>"
    ],
    [
      "0",
      "களின்</w>"
    ],
    [
      "பொரு",
      "த்த"
    ],
    [
      "வாய்",
      "ப்பு</w>"
    ],
    [
      "அள",
      "ி"
    ],
    [
      "ஓய்",
      "வு</w>"
    ],
    [
      "குறைந்த",
      "பட்ச"
    ],
    [
      "கண்க",
      "ாண"
    ],
    [
      "பே",
      "சு"
    ],
    [
      "மேற்க",
      "த்திய</w>"
    ],
    [
      "பட",
      "ப்பிடி"
    ],
    [
      "ஒளி",
      "பரப்ப"
    ],
    [
      "வட்ட",
      "ார"
    ],
    [
      "ப",
      "ன்ன"
    ],
    [
      "விட்ட",
      "ார்.</w>"
    ],
    [
      "கு",
      "மார்</w>"
    ],
    [
      "வை",
      "த்து</w>"
    ],
    [
      "திட்ட",
      "மிட"
    ],
    [
      "மேற்கொ",
      "ள்ள"
    ],
    [
      "ர",
      "ைக்</w>"
    ],
    [
      "வ",
      "லி"
    ],
    [
      "வ",
      "ர்,</w>"
    ],
    [
      "வ",
      "ிலிருந்து</w>"
    ],
    [
      "வெள",
      "ி</w>"
    ],
    [
      "ஆரம்ப",
      "</w>"
    ],
    [
      "செ",
      "ன்ட"
    ],
    [
      "ஃப",
      "ார்"
    ],
    [
      "அண",
      "ிகள்</w>"
    ],
    [
      "வரைய",
      "ற"
    ],
    [
      "உரு",
      "வான"
    ],
    [
      "ஈ",
      "ட்ட"
    ],
    [
      "தெ",
      "ன்</w>"
    ],
    [
      "ஒ",
      "ப்பி"
    ],
    [
      "செய்ய",
      "ப்படும்</w>"
    ],
    [
      "ா",
      "ட்டு"
    ],
    [
      "சட",
      "ங்கு"
    ],
    [
      "ஒரு",
      "வர"
    ],
    [
      "ுவ",
      "தாக</w>"
    ],
    [
      "வீ",
      "ட்டில்</w>"
    ],
    [
      "கா",
      "ம"
    ],
    [
      "2",
      ","
    ],
    [
      "வக",
      "ைகள்</w>"
    ],
    [
      "நகர",
      "த்தில்</w>"
    ],
    [
      "கரு",
      "வி"
    ],
    [
      "வு",
      "படுத்த"
    ],
    [
      "பட்டிய",
      "லில்</w>"
    ],
    [
      "பல",
      "ர்</w>"
    ],
    [
      "இள",
      "ம்</w>"
    ],
    [
      "தெ",
      "ரியா"
    ],
    [
      "201",
      "5</w>"
    ],
    [
      "உரிம",
      "ையாள"
    ],
    [
      "க்கு",
      ",</w>"
    ],
    [
      "202",
      "2</w>"
    ],
    [
      "இண",
      "ைந்த"
    ],
    [
      "குறிப்ப",
      "ிடு"
    ],
    [
      "ப்ப",
      "ே"
    ],
    [
      "போ",
      "ரின்</w>"
    ],
    [
      "ஸ்ட",
      "ன்</w>"
    ],
    [
      "தொக",
      "ையை</w>"
    ],
    [
      "தொடங்க",
      "ி</w>"
    ],
    [
      "காலகட்ட",
      "த்தில்</w>"
    ],
    [
      "காரண",
      "ம்</w>"
    ],
    [
      "அரசாங்க",
      "ம்</w>"
    ],
    [
      "நு",
      "ரைய"
    ],
    [
      "3",
      "0"
    ],
    [
      "ச",
      "ற்று</w>"
    ],
    [
      "அங்கீ",
      "கரி"
    ],
    [
      "ப",
      "த்தி</w>"
    ],
    [
      "பய",
      "ிர"
    ],
    [
      "டிய",
      "ா</w>"
    ],
    [
      "த",
      "ோ</w>"
    ],
    [
      "்கிற",
      "ார்கள்.</w>"
    ],
    [
      "ர",
      "ாக்</w>"
    ],
    [
      "ா",
      "ந்து</w>"
    ],
    [
      "தில்ல",
      "ி</w>"
    ],
    [
      "ும",
      "ொ"
    ],
    [
      "ர",
      "த்த"
    ],
    [
      "அ",
      "டு"
    ],
    [
      "முடிய",
      "ும்</w>"
    ],
    [
      "ல",
      "ைப்</w>"
    ],
    [
      "என",
      "வே,</w>"
    ],
    [
      "தகவ",
      "ல்</w>"
    ],
    [
      "நட",
      "ன</w>"
    ],
    [
      "ழ",
      "ுவ"
    ],
    [
      "1",
      "."
    ],
    [
      "ா",
      "ர்கள்</w>"
    ],
    [
      "ஸ்ப",
      "ோர்"
    ],
    [
      "பெ",
      "ரி"
    ],
    [
      "அக",
      "்ப"
    ],
    [
      "மு",
      "ற்ப"
    ],
    [
      "அண",
      "ு"
    ],
    [
      "குடிய",
      "ரச"
    ],
    [
      "ஆ",
      "ழ"
    ],
    [
      "பிற",
      "ந்த</w>"
    ],
    [
      "ுள்ள",
      "து</w>"
    ],
    [
      "ார்",
      "த்த"
    ],
    [
      "நம்ப",
      "ு"
    ],
    [
      "க",
      "க்</w>"
    ],
    [
      "காண",
      "ப்படும்</w>"
    ],
    [
      "வழங்கு",
      "கிறது.</w>"
    ],
    [
      "தற்க",
      "ால"
    ],
    [
      "ஜ",
      "ப்பான்</w>"
    ],
    [
      "என",
      "ும்</w>"
    ],
    [
      "ஒ",
      "ன்ப"
    ],
    [
      "மூ",
      "த்த</w>"
    ],
    [
      "க்கு",
      "க்</w>"
    ],
    [
      "தேவ",
      "ைய"
    ],
    [
      "யா",
      "ர்</w>"
    ],
    [
      "இய",
      "ல்ப"
    ],
    [
      "தேவ",
      "ையான</w>"
    ],
    [
      "இ",
      "ராஜ்ஜிய"
    ],
    [
      "ப்ப",
      "ி</w>"
    ],
    [
      "பிரதிநிதி",
      "த்துவ"
    ],
    [
      "எப்போ",
      "தும்</w>"
    ],
    [
      "வா",
      "வில்</w>"
    ],
    [
      "அவ",
      "ன்</w>"
    ],
    [
      "ர்கள",
      "ாக</w>"
    ],
    [
      ")",
      ".</w>"
    ],
    [
      "காட்ட",
      "ிலும்</w>"
    ],
    [
      "எ",
      "லு"
    ],
    [
      "டெ",
      "க்ச"
    ],
    [
      "ஐ",
      "யோ"
    ],
    [
      "பய",
      "மா</w>"
    ],
    [
      "டு",
      "களில்</w>"
    ],
    [
      "ல",
      "ான</w>"
    ],
    [
      "பண",
      "ிய"
    ],
    [
      "ம்",
      "\"</w>"
    ],
    [
      "பொருளா",
      "தார"
    ],
    [
      "நெ",
      "ருக்க"
    ],
    [
      "முற",
      "ையை</w>"
    ],
    [
      "ப்பட்ட",
      "ு,</w>"
    ],
    [
      "கா",
      "ல்</w>"
    ],
    [
      "பத",
      "்"
    ],
    [
      "இரு",
      "வரும்</w>"
    ],
    [
      "நில",
      "ையான</w>"
    ],
    [
      "அ",
      "ப்பட"
    ],
    [
      "ம",
      "ோ</w>"
    ],
    [
      "ஐ",
      "ந்த"
    ],
    [
      "மிக",
      "க்</w>"
    ],
    [
      "அடிப்பட",
      "ை</w>"
    ],
    [
      "பட",
      "மா"
    ],
    [
      "இன்ட",
      "ர்"
    ],
    [
      "க்கூ",
      "டிய"
    ],
    [
      "குளிர்க",
      "ால</w>"
    ],
    [
      "க்",
      "ல"
    ],
    [
      "நு",
      "ண்ண"
    ],
    [
      "ம்ப",
      "டி</w>"
    ],
    [
      "ற",
      "ி</w>"
    ],
    [
      "மக்கள",
      "ுக்கு</w>"
    ],
    [
      "பிற",
      "ந்த"
    ],
    [
      "தொடக்க",
      "த்தில்</w>"
    ],
    [
      "ச",
      "ௌ"
    ],
    [
      "சம்ப",
      "ா"
    ],
    [
      "தேர்ந்தெடு",
      "க்கப்பட்டார்.</w>"
    ],
    [
      "விட்ட",
      "து.</w>"
    ],
    [
      "சரா",
      "சரி</w>"
    ],
    [
      "வரிச",
      "ையில்</w>"
    ],
    [
      "ிகள",
      "ுடன்</w>"
    ],
    [
      "இட",
      "த்தைப்</w>"
    ],
    [
      "த",
      "ரு"
    ],
    [
      "த",
      "விர"
    ],
    [
      "வா",
      "ங்கு"
    ],
    [
      "ின",
      "ால்,</w>"
    ],
    [
      "செய்ய",
      "ப்படுகிறது.</w>"
    ],
    [
      "வ",
      "ன்</w>"
    ],
    [
      "ம",
      "ௌ"
    ],
    [
      "தி",
      "க"
    ],
    [
      "க",
      "ும்</w>"
    ],
    [
      "தண்ண",
      "ீர்</w>"
    ],
    [
      "செ",
      "ன"
    ],
    [
      "உலக",
      "க்</w>"
    ],
    [
      "ந",
      "ல்ல"
    ],
    [
      "இட",
      "ையில்</w>"
    ],
    [
      "ின",
      "்படி,</w>"
    ],
    [
      "ால",
      "ே</w>"
    ],
    [
      "நிறுவன",
      "ம்.</w>"
    ],
    [
      "தி",
      "ர்"
    ],
    [
      "பா",
      "த்</w>"
    ],
    [
      "ுட",
      "னான</w>"
    ],
    [
      "ஆண",
      "்</w>"
    ],
    [
      "அத",
      "ன்ப"
    ],
    [
      "அனை",
      "த்தும்</w>"
    ],
    [
      "ேய",
      "ான</w>"
    ],
    [
      "அழு",
      "த்த"
    ],
    [
      "பயன்படுத்த",
      "</w>"
    ],
    [
      "ய",
      "ம்</w>"
    ],
    [
      "ர்ச்ச",
      "ி</w>"
    ],
    [
      "ப",
      "வர்</w>"
    ],
    [
      "வெள்ள",
      "ை</w>"
    ],
    [
      "இருக்க",
      "ும்,</w>"
    ],
    [
      "அமெரிக்க",
      "ா</w>"
    ],
    [
      "பயன்படுத்த",
      "லாம்.</w>"
    ],
    [
      "காய்ச்ச",
      "ல்</w>"
    ],
    [
      "டெ",
      "லி"
    ],
    [
      "ஒலிம்ப",
      "ிக்க"
    ],
    [
      "வரு",
      "க்கு</w>"
    ],
    [
      "அ",
      "டைந்த"
    ],
    [
      "பயன்படுத்த",
      "ும்</w>"
    ],
    [
      "பா",
      "க்க"
    ],
    [
      "மெ",
      "ன்ப"
    ],
    [
      "பிர",
      "ா"
    ],
    [
      "விள",
      "ைவ"
    ],
    [
      "ஹ",
      "ூ"
    ],
    [
      "எடுத்த",
      "ுச்</w>"
    ],
    [
      "உ",
      "ண்ட"
    ],
    [
      "மீ",
      "த"
    ],
    [
      "சு",
      "த்த"
    ],
    [
      "சைக்க",
      "ி"
    ],
    [
      "ாங்க",
      ",</w>"
    ],
    [
      "சுல்த",
      "ான"
    ],
    [
      "பௌ",
      "த்த</w>"
    ],
    [
      "2",
      "7</w>"
    ],
    [
      "வே",
      "ற்ற"
    ],
    [
      "என்ற",
      "ும்,</w>"
    ],
    [
      "ஈ",
      "ர்"
    ],
    [
      "ஸ்ரீ",
      "</w>"
    ],
    [
      "அ",
      "த்த"
    ],
    [
      "போட்ட",
      "ியை</w>"
    ],
    [
      "ைய",
      "ைச்</w>"
    ],
    [
      "வா",
      "த</w>"
    ],
    [
      "ிகள",
      "ையும்</w>"
    ],
    [
      "லாந்த",
      "ில்</w>"
    ],
    [
      "கட்டிட",
      "க்க"
    ],
    [
      "நா",
      "ட்டு"
    ],
    [
      "மதிப்ப",
      "ீ"
    ],
    [
      "தெ",
      "ன்"
    ],
    [
      "என்பத",
      "ைப்</w>"
    ],
    [
      "ட",
      "வு"
    ],
    [
      "தொடர்பு",
      "டைய</w>"
    ],
    [
      "த்த",
      "ன.</w>"
    ],
    [
      "5",
      "00</w>"
    ],
    [
      "பே",
      "ச்ச"
    ],
    [
      "6",
      "0</w>"
    ],
    [
      "புக",
      "ைப்பட"
    ],
    [
      "வ",
      "ந்தார்.</w>"
    ],
    [
      "பா",
      "ற"
    ],
    [
      "பிரச்ச",
      "ின"
    ],
    [
      "கு",
      "வா"
    ],
    [
      "ட்ட",
      "ர்"
    ],
    [
      "பி",
      "க்</w>"
    ],
    [
      "கோ",
      "ர்"
    ],
    [
      "கைய",
      "ெழு"
    ],
    [
      "கொ",
      "லை</w>"
    ],
    [
      "த",
      "ிலும்</w>"
    ],
    [
      "ிட",
      "</w>"
    ],
    [
      "ப",
      "ரு"
    ],
    [
      "வை",
      ",</w>"
    ],
    [
      "ட",
      "ோ</w>"
    ],
    [
      "ங்க",
      "்</w>"
    ],
    [
      "பா",
      "ய்"
    ],
    [
      "ப",
      "தி</w>"
    ],
    [
      "ஒட்ட",
      "ுமொ"
    ],
    [
      "ுவ",
      "தில்</w>"
    ],
    [
      "பா",
      "ய்</w>"
    ],
    [
      "த",
      "டை</w>"
    ],
    [
      "மத்திய",
      "ப்</w>"
    ],
    [
      "அ",
      "கா"
    ],
    [
      "கட",
      "ந்து</w>"
    ],
    [
      "இ",
      "ன்று</w>"
    ],
    [
      "்க",
      "ான"
    ],
    [
      "கள",
      "ுடன்</w>"
    ],
    [
      "வர",
      "</w>"
    ],
    [
      "ஒப்பந்த",
      "ம்</w>"
    ],
    [
      "நி",
      "ர்"
    ],
    [
      "ராஜ",
      "ா</w>"
    ],
    [
      "ல",
      "்ச"
    ],
    [
      "ரிய",
      "ன்</w>"
    ],
    [
      "நக",
      "ர்</w>"
    ],
    [
      "வடிவ",
      "மைக்க"
    ],
    [
      "அதிக",
      "பட்ச"
    ],
    [
      "அன",
      "ி"
    ],
    [
      "இள",
      "ைஞ"
    ],
    [
      "நின",
      "ைக்க"
    ],
    [
      "கூடு",
      "தல"
    ],
    [
      "ுற",
      "</w>"
    ],
    [
      "அழற்ச",
      "ி</w>"
    ],
    [
      "ப்ப",
      "ொரு"
    ],
    [
      "ம",
      "த</w>"
    ],
    [
      "ெ",
      "ன்ற"
    ],
    [
      "முதன்",
      "மை</w>"
    ],
    [
      "ம",
      "ஹா"
    ],
    [
      "கிரே",
      "க்க</w>"
    ],
    [
      "அக",
      "ற்ற"
    ],
    [
      "ின்ற",
      "ன,</w>"
    ],
    [
      "அரசிய",
      "ல"
    ],
    [
      "வி",
      "த்தியா"
    ],
    [
      "துற",
      "ை"
    ],
    [
      "ர",
      "சி"
    ],
    [
      "இருப்ப",
      "தாக</w>"
    ],
    [
      "தவிர",
      ",</w>"
    ],
    [
      "பு",
      "து</w>"
    ],
    [
      "வக",
      "ைப்படுத்த"
    ],
    [
      "இய",
      "ந்திர"
    ],
    [
      "எவ்வ",
      "ாறு</w>"
    ],
    [
      "வர",
      "ம்ப"
    ],
    [
      "ப்படுகிற",
      "ார்கள்.</w>"
    ],
    [
      "ஆச்ச",
      "ரிய"
    ],
    [
      "படைய",
      "ெடு"
    ],
    [
      "ங்க",
      "ிய</w>"
    ],
    [
      "சம",
      "ஸ்க"
    ],
    [
      "ைக்க",
      "ுப்</w>"
    ],
    [
      "வ",
      "ொரு</w>"
    ],
    [
      "அண",
      "ிக்கு</w>"
    ],
    [
      "ைகள",
      "ால்</w>"
    ],
    [
      "ூ",
      "ப"
    ],
    [
      "2",
      "9</w>"
    ],
    [
      "மொழ",
      "ிய"
    ],
    [
      "ன்ன",
      "ா</w>"
    ],
    [
      "ஸ்ட",
      "ெ"
    ],
    [
      "சூ",
      "ரிய</w>"
    ],
    [
      "செய்",
      "வது</w>"
    ],
    [
      "ெ",
      "டி"
    ],
    [
      "்ட",
      "ி</w>"
    ],
    [
      "தா",
      "ள"
    ],
    [
      "யு",
      "எஸ்"
    ],
    [
      "ைக்க",
      "ால</w>"
    ],
    [
      "ாவ",
      "ுக்கு</w>"
    ],
    [
      "உய",
      "ர்ந்த</w>"
    ],
    [
      "20",
      "0</w>"
    ],
    [
      "ஒன்ற",
      "ை</w>"
    ],
    [
      "பர",
      "விய"
    ],
    [
      "ர்த்த",
      "ி</w>"
    ],
    [
      "கலாச்சார",
      "</w>"
    ],
    [
      "வழங்க",
      "ும்</w>"
    ],
    [
      "ஆய",
      "ிர"
    ],
    [
      "ப்பட்ட",
      "து</w>"
    ],
    [
      "த்த",
      "ல்</w>"
    ],
    [
      "ர்கள",
      "ைக்</w>"
    ],
    [
      "தொழ",
      "ிற்ச"
    ],
    [
      "ஆ",
      "ட"
    ],
    [
      "ுள்ள",
      "ன,</w>"
    ],
    [
      "க",
      "பூ"
    ],
    [
      "ப்பு",
      "களில்</w>"
    ],
    [
      "கா",
      "ற்று</w>"
    ],
    [
      "பொறு",
      "த்து</w>"
    ],
    [
      "ப்ர",
      "ோ"
    ],
    [
      "அர",
      "ண்"
    ],
    [
      "ப்படு",
      "கின்ற"
    ],
    [
      "பெய",
      "ர்"
    ],
    [
      "முஸ்லி",
      "ம"
    ],
    [
      "அறி",
      "வியல்</w>"
    ],
    [
      "நகர",
      "த்தின்</w>"
    ],
    [
      "ங்க",
      "ே"
    ],
    [
      "மனை",
      "வி</w>"
    ],
    [
      "200",
      "6</w>"
    ],
    [
      "ற்று",
      "க்</w>"
    ],
    [
      "ந",
      "ல"
    ],
    [
      "பிரத",
      "ான</w>"
    ],
    [
      "ொ",
      "ன்ற"
    ],
    [
      "கொ",
      "ன்ற"
    ],
    [
      "அரண்",
      "மன"
    ],
    [
      "ுவ",
      "தன்</w>"
    ],
    [
      "நாடா",
      "ள"
    ],
    [
      "நாடாள",
      "ுமன்ற"
    ],
    [
      "ஒழு",
      "ங்க"
    ],
    [
      "வல",
      "ியு"
    ],
    [
      "க்க",
      "ட்ட"
    ],
    [
      "கிர",
      "ி"
    ],
    [
      "பா",
      "டு</w>"
    ],
    [
      "ச",
      "னை</w>"
    ],
    [
      "வை",
      "த்துக்</w>"
    ],
    [
      "ன",
      "ாக</w>"
    ],
    [
      "19",
      "0"
    ],
    [
      "பயண",
      "ம்</w>"
    ],
    [
      "ஸ்க",
      "ோ"
    ],
    [
      "குடிய",
      "ிரு"
    ],
    [
      "2",
      "8</w>"
    ],
    [
      "நீ",
      "ங்க</w>"
    ],
    [
      "ஆ",
      "ர்க"
    ],
    [
      "து",
      "\"</w>"
    ],
    [
      "பொ",
      "ற"
    ],
    [
      "நிகழ்",
      "த்த"
    ],
    [
      "வங்காள",
      "</w>"
    ],
    [
      "வா",
      "ரிய"
    ],
    [
      "இயக்கு",
      "ந"
    ],
    [
      "ம",
      "ில"
    ],
    [
      "முய",
      "ன்ற"
    ],
    [
      "விரை",
      "வில்</w>"
    ],
    [
      "ுக்கள",
      "ை</w>"
    ],
    [
      "மே",
      "ன்</w>"
    ],
    [
      "மாற்ற",
      "</w>"
    ],
    [
      "ைய",
      "ு"
    ],
    [
      "இயற்க",
      "ை</w>"
    ],
    [
      "கடற்க",
      "ர"
    ],
    [
      "தோ",
      "ல்</w>"
    ],
    [
      "போது",
      "மான</w>"
    ],
    [
      "ான",
      "ி</w>"
    ],
    [
      "சமஸ்க",
      "ிரு"
    ],
    [
      "ார",
      "ா</w>"
    ],
    [
      "சா",
      "ம்"
    ],
    [
      "வ",
      "ந்து"
    ],
    [
      "உய",
      "ி"
    ],
    [
      "ன்",
      "ஸ"
    ],
    [
      "கூட்ட",
      "மைப்ப"
    ],
    [
      "ப்படுகிற",
      "து</w>"
    ],
    [
      "செய",
      "ற்க"
    ],
    [
      "ப",
      "ட்"
    ],
    [
      "பேரரச",
      "ின்</w>"
    ],
    [
      "த்த",
      "து,</w>"
    ],
    [
      "து",
      "ண்ட"
    ],
    [
      "நீ",
      "ண்ட"
    ],
    [
      "எந்த",
      "வொரு</w>"
    ],
    [
      "ச்ச",
      "ூ"
    ],
    [
      "தன",
      "க்கு</w>"
    ],
    [
      "மாக",
      "த்</w>"
    ],
    [
      "க",
      "தை</w>"
    ],
    [
      "ச",
      "ியா"
    ],
    [
      "ிய",
      "ம்</w>"
    ],
    [
      "ப்ப",
      "தற்காக</w>"
    ],
    [
      "போட்ட",
      "ியின்</w>"
    ],
    [
      "க",
      "்,</w>"
    ],
    [
      "நட",
      "ந்து</w>"
    ],
    [
      "நடன",
      "க்</w>"
    ],
    [
      "உறுப்பின",
      "ர்கள்</w>"
    ],
    [
      "மோ",
      "ட்ட"
    ],
    [
      "போத",
      "ைப்ப"
    ],
    [
      "ஜெர்மன",
      "ியின்</w>"
    ],
    [
      "ங்கள",
      "ைச்</w>"
    ],
    [
      "முடிய",
      "வில்லை.</w>"
    ],
    [
      "எடுத்த",
      "ுக்</w>"
    ],
    [
      "ல்",
      "-"
    ],
    [
      "இருப்ப",
      "து</w>"
    ],
    [
      "முற",
      "ைகள்</w>"
    ],
    [
      "மி",
      "குந்த</w>"
    ],
    [
      "ிய",
      "ோ</w>"
    ],
    [
      "அ",
      "ஞ்ச"
    ],
    [
      "காய",
      "ம்</w>"
    ],
    [
      "அறி",
      "வு"
    ],
    [
      "ந்த",
      "ி</w>"
    ],
    [
      "இசைய",
      "மை"
    ],
    [
      "ங்கள",
      "</w>"
    ],
    [
      "என்பத",
      "ே</w>"
    ],
    [
      "ியாள",
      "ர்கள்</w>"
    ],
    [
      "ம",
      "ந்திர"
    ],
    [
      "சிக்க",
      "ி"
    ],
    [
      "பொழு",
      "து"
    ],
    [
      "போக்குவர",
      "த்து</w>"
    ],
    [
      "த",
      "ட்ட"
    ],
    [
      "ோ",
      "ஸ்</w>"
    ],
    [
      "இப்ப",
      "</w>"
    ],
    [
      "திரைப்பட",
      "த்தில்</w>"
    ],
    [
      "மொழ",
      "ி"
    ],
    [
      "இள",
      "வர"
    ],
    [
      "ஓ",
      "ர"
    ],
    [
      "வெளிய",
      "ே"
    ],
    [
      "ான",
      "்ஸ்</w>"
    ],
    [
      "பரி",
      "சு"
    ],
    [
      "உள்",
      "நாட்டு</w>"
    ],
    [
      "ிய",
      "ர்கள்</w>"
    ],
    [
      "4",
      "0"
    ],
    [
      "தி",
      ",</w>"
    ],
    [
      "ஏ",
      "ழ"
    ],
    [
      "3",
      "1</w>"
    ],
    [
      "அள",
      "வுக்கு</w>"
    ],
    [
      "பிடி",
      "க்க"
    ],
    [
      "ஸ்ட",
      "ர்"
    ],
    [
      "நம்ப",
      "ப்படுகிறது.</w>"
    ],
    [
      "பிரெ",
      "ஞ்சு</w>"
    ],
    [
      "டே",
      "வி"
    ],
    [
      "பயன்படுத்த",
      "ப்பட்டது.</w>"
    ],
    [
      "வீ",
      "டியோ</w>"
    ],
    [
      "ிக்க",
      "ிற"
    ],
    [
      "மா",
      "ர்க"
    ],
    [
      "மர",
      "ியா"
    ],
    [
      "தள்ள",
      "ு"
    ],
    [
      "ால",
      "ம்</w>"
    ],
    [
      "என்பத",
      "ைக்</w>"
    ],
    [
      "வ",
      "ைப்ப"
    ],
    [
      "தீ",
      "வி"
    ],
    [
      "வரு",
      "ட"
    ],
    [
      "ஒ",
      "து"
    ],
    [
      "ங்க",
      "ை</w>"
    ],
    [
      "உண்",
      "மைய"
    ],
    [
      "செலு",
      "த்து"
    ],
    [
      "ஆண்ட",
      "ும்</w>"
    ],
    [
      "ைக்க",
      "ான</w>"
    ],
    [
      "தனித்துவ",
      "மான</w>"
    ],
    [
      "ப",
      "ன்</w>"
    ],
    [
      "க",
      "ழு"
    ],
    [
      "பாரு",
      "ங்கள்.</w>"
    ],
    [
      "அவ",
      "ங்க</w>"
    ],
    [
      "பால",
      "ியல்</w>"
    ],
    [
      "டெ",
      "ஸ்ட்</w>"
    ],
    [
      "முன்ன",
      "ணி</w>"
    ],
    [
      "கால",
      "த்திற்கு</w>"
    ],
    [
      "அனை",
      "வரும்</w>"
    ],
    [
      "வ",
      "ல்ல"
    ],
    [
      "ஆங்கில",
      "</w>"
    ],
    [
      "்கள",
      "ைப்</w>"
    ],
    [
      "அடுத்த",
      "ு</w>"
    ],
    [
      "சார்",
      "ந்த"
    ],
    [
      "காரண",
      "மாக,</w>"
    ],
    [
      "வரு",
      "டா"
    ],
    [
      "ப்பு",
      "த்</w>"
    ],
    [
      "ைய",
      "ையும்</w>"
    ],
    [
      "இல",
      "வச"
    ],
    [
      "ம்",
      ":</w>"
    ],
    [
      "ெ",
      "ல்லாம்</w>"
    ],
    [
      "தொ",
      "ற்று</w>"
    ],
    [
      "ஓ",
      "ட்டு"
    ],
    [
      "ைய",
      "ோ</w>"
    ],
    [
      "உங்கள",
      "ால்</w>"
    ],
    [
      "°",
      "</w>"
    ],
    [
      "கா",
      "த்தா"
    ],
    [
      "ஸ்",
      ":</w>"
    ],
    [
      "உ",
      "ங்க</w>"
    ],
    [
      "அத",
      "ைத்</w>"
    ],
    [
      "ம",
      "ராட்ட"
    ],
    [
      "பெய",
      "ரிட"
    ],
    [
      "டாக",
      "்ட"
    ],
    [
      "பொரு",
      "ந்த"
    ],
    [
      "எழு",
      "திய</w>"
    ],
    [
      "குழந்த",
      "ை</w>"
    ],
    [
      "ு",
      "களில்</w>"
    ],
    [
      "கல்லூ",
      "ரி</w>"
    ],
    [
      "முற",
      "ை"
    ],
    [
      "தவி",
      "ர</w>"
    ],
    [
      "ைய",
      "ா</w>"
    ],
    [
      "ங்கள",
      "ைத்</w>"
    ],
    [
      "கி",
      "பி</w>"
    ],
    [
      "திரைப்பட",
      "ம்.</w>"
    ],
    [
      "ஆ",
      "ரோ"
    ],
    [
      "யூ",
      "னியன்</w>"
    ],
    [
      "நியமிக்க",
      "ப்பட்டார்.</w>"
    ],
    [
      "வ",
      "ண்ட"
    ],
    [
      "ிய",
      "ன்</w>"
    ],
    [
      "த",
      "ம்ப"
    ],
    [
      "ம",
      "்க"
    ],
    [
      "ன",
      "ுக்கும்</w>"
    ],
    [
      "குறிப்ப",
      "ிட்ட"
    ],
    [
      "கோ",
      "வில"
    ],
    [
      "ள",
      "ிக்க</w>"
    ],
    [
      "மான",
      "தாக</w>"
    ],
    [
      "அழை",
      "த்துச்</w>"
    ],
    [
      "நிறுவன",
      "த்தால்</w>"
    ],
    [
      "முன்ன",
      "ேற"
    ],
    [
      "தொலைக்க",
      "ாட்ச"
    ],
    [
      "ண",
      "ி"
    ],
    [
      "வடிவ",
      "மைப்ப"
    ],
    [
      "பே",
      "ண்டி</w>"
    ],
    [
      "்க",
      "ின்றனர்.</w>"
    ],
    [
      "கேர",
      "ளா"
    ],
    [
      "இருந்து",
      "ச்சு.</w>"
    ],
    [
      "ச்சே",
      "!</w>"
    ],
    [
      "அவ",
      "ுட"
    ],
    [
      "ர",
      "ாகப்</w>"
    ],
    [
      "உரு",
      "வ"
    ],
    [
      "ச",
      "வு"
    ],
    [
      "ாக்க",
      "ள"
    ],
    [
      "உல",
      "கம்</w>"
    ],
    [
      "2",
      "5"
    ],
    [
      "ை",
      "ன்</w>"
    ],
    [
      "வ",
      "தற்கு</w>"
    ],
    [
      "வு",
      "ப்</w>"
    ],
    [
      "ல",
      "ைக்</w>"
    ],
    [
      "பா",
      "ள"
    ],
    [
      "திரி",
      "பு"
    ],
    [
      "இ",
      "வ்ளோ</w>"
    ],
    [
      "கௌ",
      "ர"
    ],
    [
      "த்ர",
      "ா</w>"
    ],
    [
      "வர்கள",
      "்,</w>"
    ],
    [
      "தவி",
      "ர்"
    ],
    [
      "ட்ட",
      "ிக்க"
    ],
    [
      "ஓ",
      "விய"
    ],
    [
      "ா",
      "ட்டு</w>"
    ],
    [
      "தொடங்க",
      "ிய"
    ],
    [
      "ற",
      "ிய</w>"
    ],
    [
      "ந",
      "ிக்க"
    ],
    [
      "பிரி",
      "வில்</w>"
    ],
    [
      "சிற",
      "்ப"
    ],
    [
      "பா",
      "ரி"
    ],
    [
      "வளர்ச்ச",
      "ி</w>"
    ],
    [
      "மூன்ற",
      "ாம்</w>"
    ],
    [
      "றி",
      "ஞ"
    ],
    [
      "அல",
      "ி</w>"
    ],
    [
      "விரு",
      "து</w>"
    ],
    [
      "பு",
      "த்திர"
    ],
    [
      "மே",
      "லாள"
    ],
    [
      "நீ",
      "டிக்க"
    ],
    [
      "சி",
      "ட்ட"
    ],
    [
      "லா",
      "ஸ்</w>"
    ],
    [
      "ெ",
      "ய்"
    ],
    [
      "ாண்ட",
      "்</w>"
    ],
    [
      "ப",
      "ல்</w>"
    ],
    [
      "ிற்க",
      "ாக</w>"
    ],
    [
      "ட",
      "ார்"
    ],
    [
      "த்தில",
      "ேயே</w>"
    ],
    [
      "ஹ",
      "ிந்த"
    ],
    [
      "ப",
      "்,</w>"
    ],
    [
      "பகுதிய",
      "ை</w>"
    ],
    [
      "தீவி",
      "ர</w>"
    ],
    [
      "ந",
      "ியா"
    ],
    [
      "தன",
      "ி</w>"
    ],
    [
      "மரு",
      "த்து"
    ],
    [
      "முழும",
      "ையாக</w>"
    ],
    [
      "கட்ட",
      "ப்பட்டது.</w>"
    ],
    [
      "வம்ச",
      "ாவள"
    ],
    [
      "்",
      "ள"
    ],
    [
      "என்ற",
      "ால்</w>"
    ],
    [
      "ொரு",
      "வர்</w>"
    ],
    [
      "போன்ற",
      "வை</w>"
    ],
    [
      "சு",
      "ய"
    ],
    [
      "டிய",
      "ோ"
    ],
    [
      "கிள",
      "ா"
    ],
    [
      "டி",
      "கள்</w>"
    ],
    [
      "தடுப்பூ",
      "சி</w>"
    ],
    [
      "ங",
      "்டன்</w>"
    ],
    [
      "ர",
      "ங்கு"
    ],
    [
      "போல",
      "ோ</w>"
    ],
    [
      "மை",
      "ல்)</w>"
    ],
    [
      "சி",
      "க்</w>"
    ],
    [
      "து",
      "ம்,</w>"
    ],
    [
      "ு",
      "களை</w>"
    ],
    [
      "பிர",
      "ாம"
    ],
    [
      "ும",
      "ிக்க</w>"
    ],
    [
      "நூற்றாண்ட",
      "ு</w>"
    ],
    [
      "தன",
      "ியார்</w>"
    ],
    [
      "சொ",
      "ல்</w>"
    ],
    [
      "ு",
      "மாறு</w>"
    ],
    [
      "ஹ",
      "ீ"
    ],
    [
      "ரி",
      "கள்</w>"
    ],
    [
      "ழ",
      "க்க"
    ],
    [
      "இருந்த",
      "ால்</w>"
    ],
    [
      "நகர",
      "ங்களில்</w>"
    ],
    [
      "கு",
      "ச்ச"
    ],
    [
      "அச",
      "ல்</w>"
    ],
    [
      "ஆண",
      "ைய"
    ],
    [
      "மதிப்ப",
      "ிட"
    ],
    [
      "வட",
      "கிழக்கு</w>"
    ],
    [
      "ண",
      "ு</w>"
    ],
    [
      "ஆ",
      "ல"
    ],
    [
      "ஆன",
      "ார்.</w>"
    ],
    [
      "விளையா",
      "டிய"
    ],
    [
      "வர",
      "ா"
    ],
    [
      "படை",
      "கள்</w>"
    ],
    [
      "பிரதிநிதித்துவ",
      "ப்படுத்த"
    ],
    [
      "திற",
      "ன்</w>"
    ],
    [
      "சட்ட",
      "மன்ற"
    ],
    [
      "வருடா",
      "ந்திர</w>"
    ],
    [
      "மாற்ற",
      "ு</w>"
    ],
    [
      "ஆ",
      "ற"
    ],
    [
      "எளி",
      "தில்</w>"
    ],
    [
      "பு",
      "ரிய"
    ],
    [
      "திரைப்பட",
      "த்தின்</w>"
    ],
    [
      "ண",
      "்க"
    ],
    [
      "தற்கா",
      "ப்புக்</w>"
    ],
    [
      "ஏ",
      "ன்</w>"
    ],
    [
      "ையில",
      "</w>"
    ],
    [
      "ரா",
      ",</w>"
    ],
    [
      "முஸ்லி",
      "ம்</w>"
    ],
    [
      "கொண்ட",
      "ிருந்தது.</w>"
    ],
    [
      "ரீ",
      "திய"
    ],
    [
      "பெற",
      "ும்</w>"
    ],
    [
      "வழங்க",
      "ினார்.</w>"
    ],
    [
      "விமர்",
      "சக"
    ],
    [
      "ஆரம்ப",
      "த்தில்</w>"
    ],
    [
      "டெ",
      "ர்"
    ],
    [
      "விளையா",
      "டி</w>"
    ],
    [
      "ர்கள",
      "ைப்</w>"
    ],
    [
      "ஹ",
      "ால்</w>"
    ],
    [
      "கட",
      "ற்ப"
    ],
    [
      "த்திர",
      "ை</w>"
    ],
    [
      "தாக்கு",
      "தல"
    ],
    [
      "விளையா",
      "ட</w>"
    ],
    [
      "ராஜ",
      "ஸ்தான"
    ],
    [
      "சிவ",
      "ப்பு</w>"
    ],
    [
      "ஆ",
      "ர்</w>"
    ],
    [
      "நடித்த",
      "ுள்ளனர்.</w>"
    ],
    [
      "ஸ்வீட",
      "னின்</w>"
    ],
    [
      "ன",
      "ால</w>"
    ],
    [
      "அறி",
      "ஞ"
    ],
    [
      "மா",
      "க்க"
    ],
    [
      "ரெ",
      "ட்ட"
    ],
    [
      "கண",
      "ிச"
    ],
    [
      "முடியா",
      "த</w>"
    ],
    [
      "அதி",
      "களவில்</w>"
    ],
    [
      "ஷ",
      "ோ"
    ],
    [
      "ஜ",
      "ர்</w>"
    ],
    [
      "வின",
      "ார்.</w>"
    ],
    [
      "சாதாரண",
      "</w>"
    ],
    [
      "விரு",
      "ந்த"
    ],
    [
      "டெ",
      "ன்ன"
    ],
    [
      "ிற்க",
      "ான</w>"
    ],
    [
      "ுக்கள",
      "ின்</w>"
    ],
    [
      "கிடைக்க",
      "ும்</w>"
    ],
    [
      "ஃப",
      "ை"
    ],
    [
      "ஸ்ட",
      "ாக"
    ],
    [
      "உங்கள",
      "ிடம்</w>"
    ],
    [
      "பி",
      "ல்லிய"
    ],
    [
      "ஆண்ட",
      "்"
    ],
    [
      "த",
      "்க"
    ],
    [
      "ச",
      "ட்ட</w>"
    ],
    [
      "ார்",
      ";</w>"
    ],
    [
      "ஸ்க",
      "ர்</w>"
    ],
    [
      "டை",
      "ப்ப"
    ],
    [
      "அரச",
      "</w>"
    ],
    [
      "த்தொ",
      "ட"
    ],
    [
      "மட்டும",
      "ல்ல"
    ],
    [
      "அ",
      "ச்சு"
    ],
    [
      "அ",
      "து"
    ],
    [
      "ரா",
      "ம்</w>"
    ],
    [
      "கட்டு",
      "ர"
    ],
    [
      "மீ",
      "தான</w>"
    ],
    [
      "பே",
      "ரா"
    ],
    [
      "விளையாட்டு",
      "களில்</w>"
    ],
    [
      "துறை",
      "முக"
    ],
    [
      "கா",
      "த்த"
    ],
    [
      "கா",
      "தல்</w>"
    ],
    [
      "துற",
      "ையில்</w>"
    ],
    [
      "ஸ்ட",
      "ா"
    ],
    [
      "ெ",
      "ய்</w>"
    ],
    [
      "ப்பி",
      "ள்</w>"
    ],
    [
      "கிற",
      "ார்கள்,</w>"
    ],
    [
      "பட",
      "கு"
    ],
    [
      "பண்ண",
      "</w>"
    ],
    [
      "ப",
      "டிய"
    ],
    [
      "ஆகியவற்ற",
      "ை</w>"
    ],
    [
      "ச",
      "</w>"
    ],
    [
      "அவர்கள",
      "து</w>"
    ],
    [
      "பா",
      "லா"
    ],
    [
      "செலு",
      "த்துவ"
    ],
    [
      "சா",
      "ள"
    ],
    [
      "ராஜ",
      "்</w>"
    ],
    [
      "ஆப்பிர",
      "ிக்க"
    ],
    [
      "ிருந்த",
      "னர்.</w>"
    ],
    [
      "என்ப",
      "தால்</w>"
    ],
    [
      "ுவ",
      "தை</w>"
    ],
    [
      "வித்தியா",
      "ச"
    ],
    [
      "தூ",
      "ர"
    ],
    [
      "குழு",
      "வின்</w>"
    ],
    [
      "மூல",
      "ம்,</w>"
    ],
    [
      "பி",
      "பி"
    ],
    [
      "பங்கே",
      "ற்ப"
    ],
    [
      "ட",
      "ே</w>"
    ],
    [
      "பட",
      "த்தை</w>"
    ],
    [
      "பே",
      "ரு"
    ],
    [
      "கோ",
      "ல்ட"
    ],
    [
      "ஸ",
      "ி</w>"
    ],
    [
      "தாக",
      "வே</w>"
    ],
    [
      "ஊ",
      "டக"
    ],
    [
      "ரெ",
      "ட்</w>"
    ],
    [
      "அ",
      "ர்த்த"
    ],
    [
      "ஜெ",
      "ன்ட"
    ],
    [
      "உடன",
      "டியாக</w>"
    ],
    [
      "பெரும்ப",
      "ான்"
    ],
    [
      "200",
      "7</w>"
    ],
    [
      "வள",
      "ாக"
    ],
    [
      "வரலாற்ற",
      "ில்</w>"
    ],
    [
      "ிய",
      "ுள்ளார்.</w>"
    ],
    [
      "முடி",
      "ந்த"
    ],
    [
      "கட்ட",
      "மைப்ப"
    ],
    [
      "வலுவ",
      "ான</w>"
    ],
    [
      "ல",
      "ாக"
    ],
    [
      "அ",
      "ர்ப்ப"
    ],
    [
      "திட்ட",
      "ம்</w>"
    ],
    [
      "்",
      "\"</w>"
    ],
    [
      "ரி",
      "க்</w>"
    ],
    [
      "ல",
      "ோ</w>"
    ],
    [
      "சாம்பியன்ஷ",
      "ிப்ப"
    ],
    [
      "க",
      "ட்ட</w>"
    ],
    [
      "விளையாட்டு",
      "கள்</w>"
    ],
    [
      "ஹோ",
      "ட்ட"
    ],
    [
      "பெரு",
      "ங்க"
    ],
    [
      "கொள்ள",
      "லாம்.</w>"
    ],
    [
      "பி",
      "ள்</w>"
    ],
    [
      "ிற",
      "ன்</w>"
    ],
    [
      "வெளி",
      "ப்பட"
    ],
    [
      "பி",
      "ண"
    ],
    [
      "ஸ்த",
      "ான்</w>"
    ],
    [
      "ம",
      "தம்</w>"
    ],
    [
      "தூ",
      "க்க"
    ],
    [
      "செய",
      "ல்த"
    ],
    [
      "ப்ப",
      "குதியில்</w>"
    ],
    [
      "ஆர்",
      "ட"
    ],
    [
      "எ",
      "ஞ்ச"
    ],
    [
      "விட",
      "ம்</w>"
    ],
    [
      "அதன",
      "ை</w>"
    ],
    [
      "ஜ",
      "ா</w>"
    ],
    [
      "பிற்ப",
      "குதியில்</w>"
    ],
    [
      "ந",
      "ார்"
    ],
    [
      "ஆராய்ச்ச",
      "ி</w>"
    ],
    [
      "எல்ல",
      "ா</w>"
    ],
    [
      "ம",
      "த்த"
    ],
    [
      "ம",
      "ிர"
    ],
    [
      "செ",
      "ஞ்ச"
    ],
    [
      "ட",
      "ில்</w>"
    ],
    [
      "செல",
      "வுகள"
    ],
    [
      "செய்ய",
      "ுங்கள்.</w>"
    ],
    [
      "ஏ",
      "ரி</w>"
    ],
    [
      "மி",
      "த"
    ],
    [
      "இந்த",
      "ிர"
    ],
    [
      "கு",
      "மா"
    ],
    [
      "நட",
      "த்து"
    ],
    [
      "இடைய",
      "ேயான</w>"
    ],
    [
      "மு",
      "ன்க"
    ],
    [
      "ங்கள",
      "ுக்கும்</w>"
    ],
    [
      "ஊக்கு",
      "வி"
    ],
    [
      "தன்ன",
      "ை</w>"
    ],
    [
      "தொழிற்ச",
      "ால"
    ],
    [
      "கூ",
      "டா"
    ],
    [
      "ஜப்பான",
      "ிய</w>"
    ],
    [
      "3",
      ","
    ],
    [
      "வடக்க",
      "ே</w>"
    ],
    [
      "இ",
      "மய"
    ],
    [
      "பீ",
      "ட"
    ],
    [
      "க",
      "ஸ்ட"
    ],
    [
      "சமய",
      "ங்களில்</w>"
    ],
    [
      "மரு",
      "ந்து</w>"
    ],
    [
      "ள்",
      "வது</w>"
    ],
    [
      "வசிக்க",
      "ும்</w>"
    ],
    [
      "திருவிழ",
      "ா</w>"
    ],
    [
      "காண",
      "லாம்.</w>"
    ],
    [
      "அ",
      "லை"
    ],
    [
      "நோய",
      "ின்</w>"
    ],
    [
      "செய்ய",
      "லாம்.</w>"
    ],
    [
      "ே",
      "!</w>"
    ],
    [
      "சந்த",
      "ர்ப்ப"
    ],
    [
      "க",
      "த்தை</w>"
    ],
    [
      "தீ",
      "ன்</w>"
    ],
    [
      "வ",
      "ூ"
    ],
    [
      "ந",
      "ான"
    ],
    [
      "வரு",
      "கின்றன.</w>"
    ],
    [
      "நி",
      "திய"
    ],
    [
      "பண",
      "்ப"
    ],
    [
      "மருந்து",
      "கள்</w>"
    ],
    [
      "ர்கள",
      "ையும்</w>"
    ],
    [
      "கள",
      "ாக</w>"
    ],
    [
      "முத",
      "ல"
    ],
    [
      "கொண்ட",
      "னர்.</w>"
    ],
    [
      "ிக்க",
      "ான</w>"
    ],
    [
      "விளையா",
      "டும்</w>"
    ],
    [
      "கி",
      "மு</w>"
    ],
    [
      "1",
      "-"
    ],
    [
      "ை",
      "த்த"
    ],
    [
      "நிறை",
      "ந்த</w>"
    ],
    [
      "அவ",
      "ளை</w>"
    ],
    [
      "நகரா",
      "ட்சி</w>"
    ],
    [
      "த",
      "குதி</w>"
    ],
    [
      "மாற்ற",
      "ங்கள்</w>"
    ],
    [
      "ின",
      "்ட்</w>"
    ],
    [
      "ின",
      "</w>"
    ],
    [
      "தெரிய",
      "வில்லை.</w>"
    ],
    [
      "2",
      "."
    ],
    [
      "ுக்க",
      "</w>"
    ],
    [
      "சது",
      "ரங்க</w>"
    ],
    [
      "வி",
      "ல்லிய"
    ],
    [
      "கொ",
      "ழு"
    ],
    [
      "நிற",
      "</w>"
    ],
    [
      "ுக்கொ",
      "ள"
    ],
    [
      "எ",
      "ம்</w>"
    ],
    [
      "போ",
      "ன</w>"
    ],
    [
      "ும",
      "ான</w>"
    ],
    [
      "ஹ",
      "ர்"
    ],
    [
      "சிர",
      "ம"
    ],
    [
      "காந்த",
      "ி</w>"
    ],
    [
      "சகோதர",
      "ர்</w>"
    ],
    [
      "அறிவி",
      "த்தது.</w>"
    ],
    [
      "சா",
      "ட்ட"
    ],
    [
      "சம்ப",
      "வ"
    ],
    [
      "சுற்று",
      "ப்பய"
    ],
    [
      "சின",
      "ி"
    ],
    [
      "பள்ள",
      "ியில்</w>"
    ],
    [
      "கூறு",
      "கிறது.</w>"
    ],
    [
      "முன்ன",
      "ேற்ற"
    ],
    [
      "செ",
      "ன்</w>"
    ],
    [
      "மண",
      "ி"
    ],
    [
      "பு",
      "லி"
    ],
    [
      "ப்ப",
      "ுக்கு</w>"
    ],
    [
      "உத்தர",
      "ப்பிர"
    ],
    [
      "ாக்க",
      "ள்</w>"
    ],
    [
      "ஸ",
      "ி"
    ],
    [
      "பகுதிய",
      "ின்</w>"
    ],
    [
      "க",
      "ான</w>"
    ],
    [
      "பன",
      "ிப்ப"
    ],
    [
      "ப",
      "ரா"
    ],
    [
      "அகா",
      "ட"
    ],
    [
      "பிராந்திய",
      "த்தில்</w>"
    ],
    [
      "ர",
      "ில"
    ],
    [
      "ன்ட",
      "்"
    ],
    [
      "வி",
      "ப"
    ],
    [
      "ண்ட",
      "ோ</w>"
    ],
    [
      "பத",
      "வி"
    ],
    [
      "த",
      "ரா"
    ],
    [
      "உறு",
      "திய"
    ],
    [
      "வா",
      "ரி"
    ],
    [
      "ஆத",
      "ரி"
    ],
    [
      "ஃபில",
      "ி"
    ],
    [
      "ல்ட",
      "ி"
    ],
    [
      "ட்டு",
      ",</w>"
    ],
    [
      "சேர்",
      "ந்தார்.</w>"
    ],
    [
      "மே",
      "லா"
    ],
    [
      "ிய",
      "தாக</w>"
    ],
    [
      "ஜ",
      "ின"
    ],
    [
      "ே",
      "ன்</w>"
    ],
    [
      "தயாரி",
      "ப்பாள"
    ],
    [
      "200",
      "9</w>"
    ],
    [
      "சூ",
      "ப்பர்</w>"
    ],
    [
      "பொஆ",
      "</w>"
    ],
    [
      "அத",
      "</w>"
    ],
    [
      "வழக்க",
      "றிஞ"
    ],
    [
      "ுக்கொண்ட",
      "ார்.</w>"
    ],
    [
      "ண",
      "</w>"
    ],
    [
      "மை",
      ",</w>"
    ],
    [
      "பாகிஸ்த",
      "ான்</w>"
    ],
    [
      "செயல்ப",
      "டுத்த"
    ],
    [
      "தாக்க",
      "த்தை</w>"
    ],
    [
      "ின",
      "ர்,</w>"
    ],
    [
      "ற்ப",
      "ு"
    ],
    [
      "இ",
      "ப்படி</w>"
    ],
    [
      "க்கண",
      "க்கான</w>"
    ],
    [
      "டை",
      "ந்த</w>"
    ],
    [
      "குறைந்த",
      "து</w>"
    ],
    [
      "வ",
      "ையாக</w>"
    ],
    [
      "தா",
      "ரம்</w>"
    ],
    [
      "நடைபெற்ற",
      "ன.</w>"
    ],
    [
      "ஸ்ப",
      "ிர"
    ],
    [
      "மரு",
      "ந்த"
    ],
    [
      "ய",
      "ின்"
    ],
    [
      "சா",
      "த"
    ],
    [
      "ட்",
      "ரெ"
    ],
    [
      "மண",
      "்</w>"
    ],
    [
      "மீ",
      "ன்</w>"
    ],
    [
      "பெ",
      "னால"
    ],
    [
      "இருக்கு",
      ",</w>"
    ],
    [
      "முகலாய",
      "ப்</w>"
    ],
    [
      "பொறு",
      "த்த"
    ],
    [
      "தே",
      "ர்"
    ],
    [
      "பட்ட",
      "த்தை</w>"
    ],
    [
      "டி",
      "ஃபெ"
    ],
    [
      "ர்கள",
      "ுக்கும்</w>"
    ],
    [
      "பாட",
      "ல்கள்</w>"
    ],
    [
      "குழந்த",
      "ைகள"
    ],
    [
      "ங்க",
      "ா"
    ],
    [
      "தின",
      "ார்.</w>"
    ],
    [
      "வெற்றிகர",
      "மாக</w>"
    ],
    [
      "மூ",
      "ழ"
    ],
    [
      "லண்ட",
      "னில்</w>"
    ],
    [
      "கையெழு",
      "த்த"
    ],
    [
      "ங்கள",
      "ுக்காக</w>"
    ],
    [
      "ை",
      "ந்த</w>"
    ],
    [
      "கா",
      "ப்பா"
    ],
    [
      "ுக்க",
      "ு,</w>"
    ],
    [
      "201",
      "0ஆம்</w>"
    ],
    [
      "த்த",
      "ுள்ளார்.</w>"
    ],
    [
      "உத",
      "வும்</w>"
    ],
    [
      "ப்ப",
      "ான</w>"
    ],
    [
      "பர",
      "வ"
    ],
    [
      "விஜ",
      "ய"
    ],
    [
      "விளங்கு",
      "கிறது.</w>"
    ],
    [
      "த",
      "ச"
    ],
    [
      "வைர",
      "ஸ"
    ],
    [
      "கட",
      "த்த"
    ],
    [
      "திட்டமி",
      "ட்ட"
    ],
    [
      "பேரரச",
      "ு</w>"
    ],
    [
      "இந்திய",
      "த்</w>"
    ],
    [
      "அ",
      "நே"
    ],
    [
      "இருந்த",
      "து</w>"
    ],
    [
      "தெளி",
      "வாக"
    ],
    [
      "ங்கள",
      "ிலிருந்து</w>"
    ],
    [
      "தண்ட",
      "ன"
    ],
    [
      "உத",
      "வி"
    ],
    [
      "கலைஞ",
      "ர்கள்</w>"
    ],
    [
      "முன்ப",
      "ே</w>"
    ],
    [
      "ச",
      "ரு"
    ],
    [
      "ப்ப",
      "குதி"
    ],
    [
      "மி",
      "சோ"
    ],
    [
      "்ட",
      "ீ"
    ],
    [
      "நெ",
      "ட்"
    ],
    [
      "இஸ்லா",
      "மிய</w>"
    ],
    [
      "பிரி",
      "வின"
    ],
    [
      "இறு",
      "திய"
    ],
    [
      "மா",
      "வில்</w>"
    ],
    [
      "வய",
      "த"
    ],
    [
      "வெ",
      "றும்</w>"
    ],
    [
      "மூழ",
      "்க"
    ],
    [
      "கட",
      "லோ"
    ],
    [
      "கவ",
      "னி"
    ],
    [
      "க",
      "ையாள"
    ],
    [
      "ெ",
      "ன</w>"
    ],
    [
      "அய",
      "ர்"
    ],
    [
      "மெ",
      "ட்"
    ],
    [
      "2",
      "-"
    ],
    [
      "இருந்த",
      "ாலும்</w>"
    ],
    [
      "சுவி",
      "ட்ச"
    ],
    [
      "தென்கிழ",
      "க்கு</w>"
    ],
    [
      "விற்பன",
      "ையாள"
    ],
    [
      "டெ",
      "ட்</w>"
    ],
    [
      "18",
      "5"
    ],
    [
      "வரையற",
      "ுக்க"
    ],
    [
      "ஏ",
      "தாவது</w>"
    ],
    [
      "ஒ",
      "ல"
    ],
    [
      "ர்",
      ")</w>"
    ],
    [
      "ம்",
      "னு</w>"
    ],
    [
      "ீ",
      "ங்க"
    ],
    [
      "நம்ம",
      "</w>"
    ],
    [
      "ஆர்வ",
      "ம்</w>"
    ],
    [
      "ீ",
      "ர"
    ],
    [
      "அற",
      "ுவ"
    ],
    [
      "பத",
      "க்கம்</w>"
    ],
    [
      "க்க",
      "ோ"
    ],
    [
      "அவ",
      "ர்,</w>"
    ],
    [
      "தெற்க",
      "ே</w>"
    ],
    [
      "ரீ",
      "தியான</w>"
    ],
    [
      "கரு",
      "த்து</w>"
    ],
    [
      "சித்த",
      "ரி"
    ],
    [
      "திரும்ப",
      "ி</w>"
    ],
    [
      "விளைவ",
      "ாக,</w>"
    ],
    [
      "வா",
      "க்கு"
    ],
    [
      "ஆன்லை",
      "ன்</w>"
    ],
    [
      "ிய",
      "ர்</w>"
    ],
    [
      "ங",
      "்ட"
    ],
    [
      "என்பத",
      "ையும்</w>"
    ],
    [
      "ஏ",
      "ஞ்ச"
    ],
    [
      "பிரே",
      "சில"
    ],
    [
      "ரங்க",
      "சீ"
    ],
    [
      "வய",
      "தான</w>"
    ],
    [
      "அவ",
      "சர"
    ],
    [
      "பா",
      "ர்</w>"
    ],
    [
      "சி",
      "வா"
    ],
    [
      "அ",
      "த்தியா"
    ],
    [
      "சண்ட",
      "ைய"
    ],
    [
      "ப",
      "வு"
    ],
    [
      "ட்",
      "ஸ்"
    ],
    [
      "செய்த",
      "ி</w>"
    ],
    [
      "நேர",
      "டியாக</w>"
    ],
    [
      "சி",
      "ந்து</w>"
    ],
    [
      "பா",
      "தி</w>"
    ],
    [
      "க்க",
      "ி"
    ],
    [
      "ரிய",
      "ல்</w>"
    ],
    [
      "சீ",
      "ர"
    ],
    [
      "வே",
      "ட்ட"
    ],
    [
      "மாற்ற",
      "ப்பட்டது.</w>"
    ],
    [
      "6",
      "0"
    ],
    [
      "மா",
      "ற்று"
    ],
    [
      "ப்ர",
      "ா"
    ],
    [
      "மை",
      "ல்</w>"
    ],
    [
      "18",
      "9"
    ],
    [
      "கோ",
      "ல்களை</w>"
    ],
    [
      "செய",
      "்ப"
    ],
    [
      "ப்படுவ",
      "தில்லை.</w>"
    ],
    [
      "நீர்",
      "வீழ்ச்ச"
    ],
    [
      "நீ",
      "</w>"
    ],
    [
      "பிராந்த",
      "ிய</w>"
    ],
    [
      "்",
      "-"
    ],
    [
      "நா",
      "ராய"
    ],
    [
      "சுற்று",
      "ச்சூ"
    ],
    [
      "ிய",
      "ைத்</w>"
    ],
    [
      "நியூ",
      "சில"
    ],
    [
      "த",
      "டை"
    ],
    [
      "கால",
      "த்தில்,</w>"
    ],
    [
      "அ",
      "சா"
    ],
    [
      "செய",
      "ல"
    ],
    [
      "மாற்ற",
      "ிய"
    ],
    [
      "வெ",
      "ர்"
    ],
    [
      "அப்பட",
      "ியே</w>"
    ],
    [
      "வசூ",
      "ல்</w>"
    ],
    [
      "்கள",
      "ையும்</w>"
    ],
    [
      "ான",
      "து,</w>"
    ],
    [
      "தமி",
      "ழ"
    ],
    [
      "நிலப்ப",
      "ர"
    ],
    [
      "சங்க",
      "ம்</w>"
    ],
    [
      "இவற்ற",
      "ில்</w>"
    ],
    [
      "ப",
      "வர்கள்</w>"
    ],
    [
      "இது",
      "வரை</w>"
    ],
    [
      "விளையாட்ட",
      "ாக</w>"
    ],
    [
      "கொல",
      "ம்ப"
    ],
    [
      "க்கப்பட்ட",
      "ுள்ளன.</w>"
    ],
    [
      "ன்",
      ")</w>"
    ],
    [
      "செய",
      "்கிறது.</w>"
    ],
    [
      "க",
      "வா"
    ],
    [
      "என்ன",
      "ை</w>"
    ],
    [
      "ம",
      "க"
    ],
    [
      "கொள்ள",
      "ும்</w>"
    ],
    [
      "வைக்க",
      "</w>"
    ],
    [
      "வி",
      "னா"
    ],
    [
      "க்க",
      "ா"
    ],
    [
      "தெரி",
      "கிறது.</w>"
    ],
    [
      "மு",
      "ம்,</w>"
    ],
    [
      "ால",
      "ி</w>"
    ],
    [
      "வீ",
      "டு</w>"
    ],
    [
      "ஆண்டு",
      "தோ"
    ],
    [
      "க்கு",
      "ள்</w>"
    ],
    [
      "சு",
      "ரு"
    ],
    [
      "க்",
      "ன"
    ],
    [
      "வய",
      "ி"
    ],
    [
      "டெ",
      "ல்ல"
    ],
    [
      "சுற்ற",
      "ியுள்ள</w>"
    ],
    [
      "லா",
      "ண்ட"
    ],
    [
      "பாக",
      "்டீ"
    ],
    [
      "உதவு",
      "கிறது.</w>"
    ],
    [
      "உ",
      "ண்ண"
    ],
    [
      "ாக",
      "்ஸ்</w>"
    ],
    [
      "வட்ட",
      "ி</w>"
    ],
    [
      "பே",
      "சி</w>"
    ],
    [
      "பிரத",
      "ம"
    ],
    [
      "தொடர்",
      "ந்து,</w>"
    ],
    [
      "ப",
      "ன்"
    ],
    [
      "மேற்கொ",
      "ண்ட"
    ],
    [
      "நடி",
      "த்த</w>"
    ],
    [
      "தொடங்க",
      "ினர்.</w>"
    ],
    [
      "திருமண",
      "</w>"
    ],
    [
      "தா",
      "ய்</w>"
    ],
    [
      "தேர்ந்தெடு",
      "க்க"
    ],
    [
      "ஆண்டுகள",
      "ாக</w>"
    ],
    [
      "200",
      "5</w>"
    ],
    [
      "சூழ்",
      "நில"
    ],
    [
      "மா",
      "ல"
    ],
    [
      "அவ",
      "ன"
    ],
    [
      "நாட்கள",
      "ில்</w>"
    ],
    [
      "தான",
      "்.</w>"
    ],
    [
      "ப்பா",
      "ய்"
    ],
    [
      "ஜெர்",
      "மன்</w>"
    ],
    [
      "அமைப்ப",
      "ுகள"
    ],
    [
      "சி",
      "வு</w>"
    ],
    [
      "தட",
      "கள"
    ],
    [
      "கொண்டா",
      "டு"
    ],
    [
      "குள",
      "ோ"
    ],
    [
      "குழு",
      "வின"
    ],
    [
      "ஒன்ப",
      "து</w>"
    ],
    [
      "தில்ல",
      "ியில்</w>"
    ],
    [
      "மா",
      "வின்</w>"
    ],
    [
      "்ப",
      "ூர்</w>"
    ],
    [
      "தன்ன",
      "ாட்சி</w>"
    ],
    [
      "தொ",
      "கைய"
    ],
    [
      "்கான",
      "ிஸ்த"
    ],
    [
      "நா",
      "ம்</w>"
    ],
    [
      "ி",
      "ச்ச"
    ],
    [
      "ம",
      "ங்க"
    ],
    [
      "நவீ",
      "ன"
    ],
    [
      "ாட்ச",
      "ிய"
    ],
    [
      "த்துவ",
      "</w>"
    ],
    [
      "ீ",
      "</w>"
    ],
    [
      "ஆண்டுதோ",
      "றும்</w>"
    ],
    [
      "ப்ப",
      "ும்</w>"
    ],
    [
      "ைய",
      "ிலும்</w>"
    ],
    [
      "வல",
      "ி</w>"
    ],
    [
      "ந்த",
      "ர"
    ],
    [
      "விடு",
      "ம்.</w>"
    ],
    [
      "்ச",
      "ன்</w>"
    ],
    [
      "இ",
      "டு"
    ],
    [
      "ரோ",
      "மான"
    ],
    [
      "நரம்ப",
      "ு</w>"
    ],
    [
      "பண்ட",
      "ிகை</w>"
    ],
    [
      "க",
      "ியூ"
    ],
    [
      "ீ",
      "ட்டு</w>"
    ],
    [
      "ல",
      "ப்</w>"
    ],
    [
      "ம",
      "கள்</w>"
    ],
    [
      "நிய",
      "மி"
    ],
    [
      "க",
      "ஷ்ட"
    ],
    [
      "முழும",
      "ையான</w>"
    ],
    [
      "அலா",
      "வு"
    ],
    [
      "வென்ற",
      "</w>"
    ],
    [
      "குறிக்க",
      "ும்</w>"
    ],
    [
      "இ",
      "வர"
    ],
    [
      "உருவா",
      "க்கிய"
    ],
    [
      "விரி",
      "வுபடுத்த"
    ],
    [
      "தா",
      "மத"
    ],
    [
      "எச்ச",
      "ரிக்க"
    ],
    [
      "திர",
      "ைக்க"
    ],
    [
      "ிருக்க",
      "ிற"
    ],
    [
      "வே",
      "த</w>"
    ],
    [
      "விர",
      "ைவாக</w>"
    ],
    [
      "ங",
      "்ஸ்</w>"
    ],
    [
      "மன",
      "</w>"
    ],
    [
      "கால",
      "ை</w>"
    ],
    [
      "முன்ன",
      "ோ"
    ],
    [
      "பெற்ற",
      "ோ"
    ],
    [
      "பூர்",
      "வீ"
    ],
    [
      "சீசன",
      "ில்</w>"
    ],
    [
      "பொழுது",
      "போ"
    ],
    [
      "சு",
      "ழற்ச"
    ],
    [
      "பக்க",
      "வாதம்</w>"
    ],
    [
      "ச்ச",
      "ு,</w>"
    ],
    [
      "பேரரச",
      "ர்</w>"
    ],
    [
      "ுட",
      "ன்,</w>"
    ],
    [
      "ரி",
      "ச்ச"
    ],
    [
      "ரா",
      "வின்</w>"
    ],
    [
      "ந",
      "ொ"
    ],
    [
      "ிய",
      "து</w>"
    ],
    [
      "ம்",
      "-"
    ],
    [
      "ிருந்த",
      "ன.</w>"
    ],
    [
      "விரும்ப",
      "ும்</w>"
    ],
    [
      "நியா",
      "ய"
    ],
    [
      "நே",
      "ஷ"
    ],
    [
      "ஓ",
      "</w>"
    ],
    [
      "தா",
      "ங்க"
    ],
    [
      "வரு",
      "க்கும்</w>"
    ],
    [
      "வர",
      "வே"
    ],
    [
      "கோ",
      "ல்க"
    ],
    [
      "குதிய",
      "ை</w>"
    ],
    [
      "சட்ட",
      "ம்</w>"
    ],
    [
      "பய",
      "ங்கர"
    ],
    [
      "பொரு",
      "ள்.</w>"
    ],
    [
      "நேர",
      "</w>"
    ],
    [
      "பு",
      "ரோ"
    ],
    [
      "சி",
      "த"
    ],
    [
      "தொழில",
      "்துற"
    ],
    [
      "வரு",
      "கிறார்.</w>"
    ],
    [
      "ய",
      "்ட"
    ],
    [
      "என்ப",
      "து,</w>"
    ],
    [
      "உ",
      "ங்களை</w>"
    ],
    [
      "உட",
      "ற்ப"
    ],
    [
      "கு",
      "த்து"
    ],
    [
      "அர்",
      "ஜென்ட"
    ],
    [
      "கி",
      "ட்ட</w>"
    ],
    [
      "வேக",
      "மாக</w>"
    ],
    [
      "செயல்ப",
      "டு"
    ],
    [
      "மாநில",
      "ங்களில்</w>"
    ],
    [
      "ச",
      "ஞ்ச"
    ],
    [
      "ரு",
      "க்குப்</w>"
    ],
    [
      "கே",
      "ப்ட"
    ],
    [
      "ண",
      "ை</w>"
    ],
    [
      "சாள",
      "ுக்க"
    ],
    [
      "விரு",
      "தை</w>"
    ],
    [
      "சாம்",
      "ராஜ்ய"
    ],
    [
      "பார",
      "சீ"
    ],
    [
      "தகவல",
      "்களை</w>"
    ],
    [
      "ர",
      "ையும்</w>"
    ],
    [
      "தொடர்ச்ச",
      "ியான</w>"
    ],
    [
      "வல",
      "ு"
    ],
    [
      "பட",
      "ை</w>"
    ],
    [
      "வழிவகு",
      "த்தது.</w>"
    ],
    [
      "வேண்ட",
      "ும்,</w>"
    ],
    [
      "கா",
      "வின்</w>"
    ],
    [
      "அண",
      "ியை</w>"
    ],
    [
      "புய",
      "ல்</w>"
    ],
    [
      "8",
      "0</w>"
    ],
    [
      "உட",
      "ல"
    ],
    [
      "று",
      "கள்</w>"
    ],
    [
      "ஆ",
      "ல்"
    ],
    [
      "அங்க",
      "ே</w>"
    ],
    [
      "பின்ப",
      "ற்று"
    ],
    [
      "நாட",
      "்க"
    ],
    [
      "நட",
      "க்க"
    ],
    [
      "ங்கள",
      "ே</w>"
    ],
    [
      "குறைவ",
      "ாகவே</w>"
    ],
    [
      "கேரள",
      "ாவின்</w>"
    ],
    [
      "உண",
      "வக"
    ],
    [
      "மு",
      "ட்ட"
    ],
    [
      "நோய",
      "ை</w>"
    ],
    [
      "செ",
      "ர்"
    ],
    [
      "குறிய",
      "ீடு</w>"
    ],
    [
      "ப",
      "வே"
    ],
    [
      "சந்தோஷ",
      "மா</w>"
    ],
    [
      "என்ன",
      "ால</w>"
    ],
    [
      "த",
      "ய"
    ],
    [
      "கோ",
      "ரிக்க"
    ],
    [
      "முத",
      "ல்,</w>"
    ],
    [
      "சுத",
      "ந்திர</w>"
    ],
    [
      "ர",
      "ைத்</w>"
    ],
    [
      "முடி",
      "வுக்கு</w>"
    ],
    [
      "இசைய",
      "மைப்ப"
    ],
    [
      "பகுதி",
      "களை</w>"
    ],
    [
      "ள",
      "ிக்கும்</w>"
    ],
    [
      "உருவாக்க",
      "ினார்.</w>"
    ],
    [
      "வழ",
      "ங்க</w>"
    ],
    [
      "இட",
      "த்தை</w>"
    ],
    [
      "ோ",
      "வின்</w>"
    ],
    [
      "ட்ட",
      "ிங்</w>"
    ],
    [
      "7",
      "0</w>"
    ],
    [
      "18",
      "6"
    ],
    [
      "ும",
      "ான"
    ],
    [
      "சூ",
      "ப்ப"
    ],
    [
      "லி",
      "ங்க"
    ],
    [
      "அமெரிக்க",
      "ா"
    ],
    [
      "பெ",
      "ட்ட"
    ],
    [
      "எ",
      "ங்க"
    ],
    [
      "நுரைய",
      "ீரல்</w>"
    ],
    [
      "வி",
      "க்</w>"
    ],
    [
      "உயர",
      "மான</w>"
    ],
    [
      "ரியா",
      "வின்</w>"
    ],
    [
      "ந",
      "ல்லா</w>"
    ],
    [
      "வ்",
      "!</w>"
    ],
    [
      "ஸ்",
      "ன"
    ],
    [
      "ப்பிர",
      "ி"
    ],
    [
      "வே",
      "ட"
    ],
    [
      "முற்ற",
      "ிலும்</w>"
    ],
    [
      "ஏற்படுத்த",
      "ியது.</w>"
    ],
    [
      "ய",
      "ிற்ச"
    ],
    [
      "எ",
      "ட்"
    ],
    [
      "ைகள",
      "ுடன்</w>"
    ],
    [
      "லா",
      "ப"
    ],
    [
      "மாகாண",
      "த்தின்</w>"
    ],
    [
      "வேண்டிய",
      "ிருந்தது.</w>"
    ],
    [
      "ண்ட",
      "ர்</w>"
    ],
    [
      "நிர",
      "ூப"
    ],
    [
      "ஆகியவற்ற",
      "ின்</w>"
    ],
    [
      "கொண்ட",
      "ிருப்ப"
    ],
    [
      "செய",
      "ின்ட்</w>"
    ],
    [
      "ோ",
      "ன"
    ],
    [
      "ஆ",
      "ந்திர"
    ],
    [
      "ச",
      "ம்ம"
    ],
    [
      "து",
      "ல்லிய"
    ],
    [
      "ஆண்ட",
      "ுக்கு</w>"
    ],
    [
      "சு",
      "ருக்க"
    ],
    [
      "ு",
      "ம்போது</w>"
    ],
    [
      "வாழ",
      "ும்</w>"
    ],
    [
      "ஆ",
      "ப்பிள்</w>"
    ],
    [
      "ா",
      "?</w>"
    ],
    [
      "வான",
      "ிலை</w>"
    ],
    [
      "201",
      "1ஆம்</w>"
    ],
    [
      "கன",
      "்ச"
    ],
    [
      "உட்க",
      "ொ"
    ],
    [
      "வா",
      "வ்!</w>"
    ],
    [
      "கட்ட",
      "ப்பட்ட</w>"
    ],
    [
      "வீ",
      "ன"
    ],
    [
      "இருந்த",
      "ாலும்,</w>"
    ],
    [
      "ம",
      "ைக்</w>"
    ],
    [
      "க",
      "ப்</w>"
    ],
    [
      "கிழ",
      "க்கில்</w>"
    ],
    [
      "இவ்வ",
      "ளவு</w>"
    ],
    [
      "அனுப",
      "வ"
    ],
    [
      "முற",
      "ையே</w>"
    ],
    [
      "ிட",
      "ும்</w>"
    ],
    [
      "பெ",
      "ன்ச"
    ],
    [
      "அனும",
      "தி</w>"
    ],
    [
      "தாக்கு",
      "த"
    ],
    [
      "வாழ்",
      "ந்தனர்.</w>"
    ],
    [
      "த்திற்க",
      "ுச்</w>"
    ],
    [
      "நகைச்ச",
      "ுவ"
    ],
    [
      "போ",
      "ட"
    ],
    [
      "சுவிட்ச",
      "ர்"
    ],
    [
      "ாக",
      "ும்,</w>"
    ],
    [
      "பூ",
      "ம"
    ],
    [
      "லை",
      "ஞ"
    ],
    [
      "இது",
      "வும்</w>"
    ],
    [
      "கிர",
      "ி</w>"
    ],
    [
      "தேசிய",
      "ப்</w>"
    ],
    [
      "வெப்ப",
      "மண்டல</w>"
    ],
    [
      "பூங்க",
      "ா</w>"
    ],
    [
      "அட்ட",
      "வண"
    ],
    [
      "பொ",
      "ம்ம"
    ],
    [
      "கிராம",
      "ம்.</w>"
    ],
    [
      "க்ல",
      "ஹோ"
    ],
    [
      "போய",
      "ிட்ட"
    ],
    [
      "கு",
      "ர"
    ],
    [
      "மல",
      "ே"
    ],
    [
      "ி",
      "ங்"
    ],
    [
      "நிமிட",
      "ங்கள்</w>"
    ],
    [
      "தே",
      "வ்</w>"
    ],
    [
      "வீ",
      "ச"
    ],
    [
      "ச",
      "ல்</w>"
    ],
    [
      "வெ",
      "ட்ட"
    ],
    [
      "மைப்ப",
      "டுத்த"
    ],
    [
      "ஏற்ப",
      "</w>"
    ],
    [
      "ச",
      "வா"
    ],
    [
      "செலுத்த",
      "ும்</w>"
    ],
    [
      "ி",
      "த்தார்.</w>"
    ],
    [
      "செய்ய",
      "த்</w>"
    ],
    [
      "தாக",
      "ும்.</w>"
    ],
    [
      "ப்பட்ட",
      "ுள்ளது,</w>"
    ],
    [
      "ஜ",
      "ம்ம"
    ],
    [
      "கால",
      "ப்போ"
    ],
    [
      "இச",
      "ைக்</w>"
    ],
    [
      "​",
      "​"
    ],
    [
      "ஆ",
      "ர"
    ],
    [
      "தண்ண",
      "ீ"
    ],
    [
      "ஜ",
      "ன்</w>"
    ],
    [
      "நகராட்ச",
      "ியில்</w>"
    ],
    [
      "லா",
      "க்ரோ"
    ],
    [
      "என்ற",
      "ாலும்,</w>"
    ],
    [
      "தோ",
      "ட்ட"
    ],
    [
      "ஆதி",
      "க்கம்</w>"
    ],
    [
      "மை",
      "சூ"
    ],
    [
      "பீ",
      "ரங்க"
    ],
    [
      "எடுத்த",
      "ு</w>"
    ],
    [
      "ிக்க",
      "ுப்</w>"
    ],
    [
      "புதி",
      "தாக</w>"
    ],
    [
      "8",
      "0"
    ],
    [
      "முடி",
      "ந்தது.</w>"
    ],
    [
      "க",
      "ந்த"
    ],
    [
      "அட",
      "ைக்க"
    ],
    [
      "விடு",
      "வி"
    ],
    [
      "கொண்ட",
      "ிருந்த</w>"
    ],
    [
      "தடு",
      "க்க</w>"
    ],
    [
      "அ",
      "ன்ன"
    ],
    [
      "போல",
      "வே,</w>"
    ],
    [
      "4",
      "5</w>"
    ],
    [
      "ான",
      "ின்</w>"
    ],
    [
      "ஆ",
      "க்கிர"
    ],
    [
      "அப்ப",
      "ோ"
    ],
    [
      "இய",
      "ற்ற"
    ],
    [
      "எ",
      "கி"
    ],
    [
      "எகி",
      "ப்த"
    ],
    [
      "சிறப்ப",
      "ாக</w>"
    ],
    [
      "நா",
      "த்</w>"
    ],
    [
      "ிய",
      "ையும்</w>"
    ],
    [
      "மக்கள",
      "ை</w>"
    ],
    [
      "மதி",
      "ப்பு</w>"
    ],
    [
      "ிற்க",
      "ும்</w>"
    ],
    [
      "பிரி",
      "வு</w>"
    ],
    [
      "ஏற்படுத்த",
      "ும்</w>"
    ],
    [
      "இல்ல",
      "ைய"
    ],
    [
      "டுவ",
      "தற்கு</w>"
    ],
    [
      "பிரதேச",
      "த்தின்</w>"
    ],
    [
      "குழ",
      "ுக்கள்</w>"
    ],
    [
      "மே",
      "கால"
    ],
    [
      "கிற",
      "ீர்கள்</w>"
    ],
    [
      "வர்கள",
      "்.</w>"
    ],
    [
      "பட்டிய",
      "லிட"
    ],
    [
      "சைக்கி",
      "ள்</w>"
    ],
    [
      "ஃபா",
      "</w>"
    ],
    [
      "கு",
      "ரூ"
    ],
    [
      "ஆண",
      "்கள"
    ],
    [
      "வீ",
      "ட்டு</w>"
    ],
    [
      "எஃப",
      "்சி</w>"
    ],
    [
      "வே",
      "ற</w>"
    ],
    [
      "குறைக்க",
      "</w>"
    ],
    [
      "சிற",
      "ையில்</w>"
    ],
    [
      "லி",
      ",</w>"
    ],
    [
      "ரா",
      "வ்</w>"
    ],
    [
      "ப்பா",
      "ய"
    ],
    [
      "கர்நாட",
      "க</w>"
    ],
    [
      "உள்ளட",
      "க்கிய</w>"
    ],
    [
      "கள",
      "ைத்</w>"
    ],
    [
      "ஆன",
      "ந்த்</w>"
    ],
    [
      "ப்பட்ட",
      "ுள்ள</w>"
    ],
    [
      "ங்க",
      "ின்</w>"
    ],
    [
      "ர்",
      "-"
    ],
    [
      "சோ",
      "விய"
    ],
    [
      "ா",
      "விட்ட"
    ],
    [
      "ப",
      "ிற்க"
    ],
    [
      "அடங்க",
      "ிய</w>"
    ],
    [
      "ன",
      "்களை</w>"
    ],
    [
      "வெ",
      "று"
    ],
    [
      "இருப்ப",
      "தை</w>"
    ],
    [
      "வில",
      "்"
    ],
    [
      "ம",
      "ைகள்</w>"
    ],
    [
      "நி",
      "வா"
    ],
    [
      "மைய",
      "மாக</w>"
    ],
    [
      "சூ",
      "ட்ட"
    ],
    [
      "இத",
      "ைப்</w>"
    ],
    [
      "ஆரோ",
      "க்கிய"
    ],
    [
      "சி",
      ",</w>"
    ],
    [
      "பிடி",
      "த்த"
    ],
    [
      "ல்ல",
      "ா"
    ],
    [
      "சுகா",
      "தார</w>"
    ],
    [
      "டிய",
      "ில்</w>"
    ],
    [
      "மா",
      ",</w>"
    ],
    [
      "சி",
      "ல்ல"
    ],
    [
      "சரண",
      "ால"
    ],
    [
      "வா",
      "ஷி"
    ],
    [
      "ஆட்ட",
      "த்தின்</w>"
    ],
    [
      "ரஷ்ய",
      "</w>"
    ],
    [
      "ஆண்டுகள",
      "ுக்குப்</w>"
    ],
    [
      "படி",
      "ப்பட"
    ],
    [
      "பெய",
      "ரை</w>"
    ],
    [
      "அவ",
      "ு"
    ],
    [
      "தா",
      "ங்கள்</w>"
    ],
    [
      "வீ",
      "ழ்"
    ],
    [
      "்ப",
      "ு"
    ],
    [
      "கட்டுப்பா",
      "ட்டில்</w>"
    ],
    [
      "வி",
      "ரோ"
    ],
    [
      "இள",
      "ைய</w>"
    ],
    [
      "லீ",
      "ம்</w>"
    ],
    [
      "பெரு",
      "ம"
    ],
    [
      "ிற",
      "ு"
    ],
    [
      "குற",
      "ைப்ப"
    ],
    [
      "உள்ள",
      "ே</w>"
    ],
    [
      "ஒ",
      "ள"
    ],
    [
      "18",
      "7"
    ],
    [
      "அழ",
      "ைப்ப"
    ],
    [
      "பா",
      "தை</w>"
    ],
    [
      "ப",
      "ியூ"
    ],
    [
      "விஞ",
      "்"
    ],
    [
      "தான",
      "ிய"
    ],
    [
      "மாண",
      "வர்கள்</w>"
    ],
    [
      "ட",
      "ய"
    ],
    [
      "உயிர",
      "ின"
    ],
    [
      "ப்பு",
      "ழ"
    ],
    [
      "குழுவ",
      "ில்</w>"
    ],
    [
      "கர",
      "ாக</w>"
    ],
    [
      "சுதந்திர",
      "ம்</w>"
    ],
    [
      "பல",
      "வீன"
    ],
    [
      "கொண்ட",
      "ு,</w>"
    ],
    [
      "அநே",
      "கமாக</w>"
    ],
    [
      "தொட",
      "க்க</w>"
    ],
    [
      "ந",
      "ன்"
    ],
    [
      "செய்த",
      "ு"
    ],
    [
      "வர்கள",
      "ும்</w>"
    ]
  ],
  "vocab_size": 5000,
  "num_merges": 5000,
  "actual_merges": 5000,
  "special_tokens": [
    "<unk>",
    "<pad>",
    "<sos>",
    "<eos>"
  ]
}