{
  "merges": [
    [
      "ు",
      "</w>"
    ],
    [
      "ి",
      "</w>"
    ],
    [
      "్",
      "</w>"
    ],
    [
      ".",
      "</w>"
    ],
    [
      "ా",
      "ర"
    ],
    [
      "ల",
      "ో"
    ],
    [
      "ా",
      "</w>"
    ],
    [
      "ి",
      "ం"
    ],
    [
      "స",
      "్"
    ],
    [
      ",",
      "</w>"
    ],
    [
      "న",
      "్"
    ],
    [
      "ా",
      "ల"
    ],
    [
      "ర",
      "్"
    ],
    [
      "లో",
      "</w>"
    ],
    [
      "న",
      "</w>"
    ],
    [
      "ం",
      "</w>"
    ],
    [
      "న",
      "ి"
    ],
    [
      "న",
      "ి</w>"
    ],
    [
      "్",
      "య"
    ],
    [
      "ి",
      ".</w>"
    ],
    [
      "ం",
      "ద"
    ],
    [
      "ిం",
      "చ"
    ],
    [
      "ర",
      "ి"
    ],
    [
      "ు",
      ".</w>"
    ],
    [
      "ం",
      "డ"
    ],
    [
      "న",
      "ు</w>"
    ],
    [
      "గ",
      "ా</w>"
    ],
    [
      "ు",
      "ల"
    ],
    [
      "వ",
      "ి"
    ],
    [
      "్",
      "ల"
    ],
    [
      "ే",
      "</w>"
    ],
    [
      "ా",
      "య"
    ],
    [
      "క",
      "ు</w>"
    ],
    [
      "క",
      "</w>"
    ],
    [
      "ం",
      "ట"
    ],
    [
      "క",
      "ి</w>"
    ],
    [
      "స్",
      "త"
    ],
    [
      "ీ",
      "</w>"
    ],
    [
      "చ",
      "ే"
    ],
    [
      "ర",
      "ా"
    ],
    [
      "ార",
      "ు.</w>"
    ],
    [
      "వ",
      "ా"
    ],
    [
      "ం",
      "త"
    ],
    [
      "్",
      "‌"
    ],
    [
      "క",
      "ు"
    ],
    [
      "న",
      "్</w>"
    ],
    [
      "ో",
      "</w>"
    ],
    [
      "న్",
      "న"
    ],
    [
      "రి",
      "య"
    ],
    [
      "ిం",
      "ద"
    ],
    [
      "ద",
      "్"
    ],
    [
      "ి",
      "న</w>"
    ],
    [
      "ా",
      "ని"
    ],
    [
      "న",
      "ు"
    ],
    [
      "ద",
      "ి</w>"
    ],
    [
      "ంద",
      "ి.</w>"
    ],
    [
      "మ",
      "రియ"
    ],
    [
      "మరియ",
      "ు</w>"
    ],
    [
      "ర",
      "ు"
    ],
    [
      "ం",
      "గా</w>"
    ],
    [
      "ి",
      "క"
    ],
    [
      "క",
      "ో"
    ],
    [
      "ా",
      "డ"
    ],
    [
      "మ",
      "ా"
    ],
    [
      "స",
      "ం"
    ],
    [
      "స",
      "్</w>"
    ],
    [
      "్",
      "ట"
    ],
    [
      "ం",
      "లో</w>"
    ],
    [
      "ల",
      "ు</w>"
    ],
    [
      "ఈ",
      "</w>"
    ],
    [
      "త",
      "</w>"
    ],
    [
      "ు",
      ",</w>"
    ],
    [
      "ర",
      "్</w>"
    ],
    [
      "ి",
      ",</w>"
    ],
    [
      "వ",
      "ార"
    ],
    [
      "ల",
      "ి"
    ],
    [
      "న్",
      "ని</w>"
    ],
    [
      "క",
      "ా"
    ],
    [
      "న",
      "ే"
    ],
    [
      "ాని",
      "కి</w>"
    ],
    [
      "త",
      "్"
    ],
    [
      "్",
      "ర"
    ],
    [
      "ింద",
      "ి.</w>"
    ],
    [
      "క",
      "ొ"
    ],
    [
      "స",
      "ా"
    ],
    [
      "మ",
      "ై"
    ],
    [
      "గ",
      "ు"
    ],
    [
      "చ",
      "ి"
    ],
    [
      "ల",
      "ే"
    ],
    [
      "ల",
      "</w>"
    ],
    [
      "త",
      "ి"
    ],
    [
      "బ",
      "డ"
    ],
    [
      "స",
      "ి"
    ],
    [
      "మ",
      "ు"
    ],
    [
      "ాయ",
      "ి.</w>"
    ],
    [
      "ార",
      "్"
    ],
    [
      "లో",
      "ని</w>"
    ],
    [
      "ప",
      "ో"
    ],
    [
      "ల",
      "్"
    ],
    [
      "ప",
      "ా"
    ],
    [
      "స్",
      "ట"
    ],
    [
      "ఒ",
      "క</w>"
    ],
    [
      "న",
      "ా"
    ],
    [
      "ుల",
      "ు</w>"
    ],
    [
      "వ",
      "ే"
    ],
    [
      "క",
      "్"
    ],
    [
      "స్త",
      "ు"
    ],
    [
      "త",
      "ో</w>"
    ],
    [
      "మ",
      "ీ"
    ],
    [
      "డ",
      "ి"
    ],
    [
      "్య",
      "ా"
    ],
    [
      "స",
      "ు"
    ],
    [
      "అ",
      "త"
    ],
    [
      "ం",
      "గ"
    ],
    [
      "ాల",
      "ు</w>"
    ],
    [
      "మ",
      "ి"
    ],
    [
      "ద",
      "ే"
    ],
    [
      "2",
      "0"
    ],
    [
      "మ",
      "ె"
    ],
    [
      "ప",
      "ె"
    ],
    [
      "ల",
      "్ల"
    ],
    [
      "ల",
      "్</w>"
    ],
    [
      "వ",
      "</w>"
    ],
    [
      "ూ",
      "డ"
    ],
    [
      "వ",
      "ర"
    ],
    [
      "స్",
      "థ"
    ],
    [
      "త",
      "ు"
    ],
    [
      "ప",
      "ు"
    ],
    [
      "న్",
      "న</w>"
    ],
    [
      "య",
      "ా"
    ],
    [
      "చ",
      "ె"
    ],
    [
      "త",
      "ీ"
    ],
    [
      "ాడ",
      "ు.</w>"
    ],
    [
      "ప",
      "ి"
    ],
    [
      "ర",
      "ు</w>"
    ],
    [
      "భ",
      "ా"
    ],
    [
      "ాల",
      "</w>"
    ],
    [
      "ు",
      "డ"
    ],
    [
      "1",
      "9"
    ],
    [
      "వ",
      "చ్చ"
    ],
    [
      "మై",
      "న</w>"
    ],
    [
      "క",
      "ార"
    ],
    [
      "ఇ",
      "ది</w>"
    ],
    [
      "ండ",
      "ి</w>"
    ],
    [
      "లే",
      "ద"
    ],
    [
      "ట",
      "ి"
    ],
    [
      "ల",
      "ు"
    ],
    [
      "ష",
      "్ట"
    ],
    [
      "వ",
      "ె"
    ],
    [
      "అ",
      "నే"
    ],
    [
      "ను",
      "ండి</w>"
    ],
    [
      "దే",
      "శ"
    ],
    [
      "ర",
      "ో"
    ],
    [
      "మ",
      "ొ"
    ],
    [
      "ద",
      "ా"
    ],
    [
      "య",
      "ో"
    ],
    [
      "చే",
      "య"
    ],
    [
      "ఉ",
      "న్న"
    ],
    [
      "డ",
      "ానికి</w>"
    ],
    [
      "ం",
      "చ"
    ],
    [
      "ప్ర",
      "ా"
    ],
    [
      "క",
      "ూడ"
    ],
    [
      "బ",
      "్"
    ],
    [
      "ద్",
      "ద"
    ],
    [
      "త",
      "ి</w>"
    ],
    [
      "వ",
      "్య"
    ],
    [
      "జ",
      "ా"
    ],
    [
      "ర",
      "ె"
    ],
    [
      "ణ",
      "</w>"
    ],
    [
      "ఉ",
      "ండ"
    ],
    [
      "న్",
      "‌"
    ],
    [
      "ట",
      "ి</w>"
    ],
    [
      "భ",
      "ార"
    ],
    [
      "ర",
      "ించ"
    ],
    [
      "ని",
      "ర్"
    ],
    [
      "త",
      "ా"
    ],
    [
      "ిం",
      "గ"
    ],
    [
      "య",
      "</w>"
    ],
    [
      "ద్",
      "ధ"
    ],
    [
      "ుల",
      "</w>"
    ],
    [
      "ట",
      "్ల"
    ],
    [
      "స్",
      "‌"
    ],
    [
      "ప",
      "ై"
    ],
    [
      "ఉ",
      "ంట"
    ],
    [
      "ర",
      "</w>"
    ],
    [
      "ద",
      "ి"
    ],
    [
      "డ",
      "ు"
    ],
    [
      "లో",
      ",</w>"
    ],
    [
      "ల",
      "ా"
    ],
    [
      "లేద",
      "ా</w>"
    ],
    [
      "న",
      "ే</w>"
    ],
    [
      "ట",
      "్</w>"
    ],
    [
      "స",
      "ర"
    ],
    [
      "గ",
      "ా"
    ],
    [
      "ప",
      "ు</w>"
    ],
    [
      "య",
      "ి"
    ],
    [
      "రా",
      "జ"
    ],
    [
      "కూడ",
      "ా</w>"
    ],
    [
      "ప",
      "రి"
    ],
    [
      "బ",
      "ా"
    ],
    [
      "0",
      "</w>"
    ],
    [
      "క",
      "ాల"
    ],
    [
      "ూ",
      "</w>"
    ],
    [
      "చే",
      "స"
    ],
    [
      "స",
      "మ"
    ],
    [
      "ప",
      "ొ"
    ],
    [
      "ంద",
      "ు"
    ],
    [
      "డ",
      "ం</w>"
    ],
    [
      "స",
      "ె"
    ],
    [
      "ధ",
      "ార"
    ],
    [
      "వ",
      "ర్"
    ],
    [
      "ాల",
      "ను</w>"
    ],
    [
      "ధ",
      "్య"
    ],
    [
      "క్క",
      "</w>"
    ],
    [
      "య",
      "ు"
    ],
    [
      "ం",
      ".</w>"
    ],
    [
      "వ",
      "ీ"
    ],
    [
      "డ",
      "్</w>"
    ],
    [
      "ం",
      ",</w>"
    ],
    [
      "హ",
      "ి"
    ],
    [
      "ప్ప",
      "ుడ"
    ],
    [
      "చ",
      "ు"
    ],
    [
      "త",
      "న</w>"
    ],
    [
      "గ",
      "్"
    ],
    [
      "జ",
      "ి"
    ],
    [
      "ించ",
      "ారు.</w>"
    ],
    [
      "ద",
      "ీ"
    ],
    [
      "మ",
      "ర"
    ],
    [
      "ల",
      "ను</w>"
    ],
    [
      "యో",
      "గ"
    ],
    [
      "ట",
      "్"
    ],
    [
      "ొ",
      "క్క</w>"
    ],
    [
      "న",
      "ీ"
    ],
    [
      "య",
      "ొక్క</w>"
    ],
    [
      "ఉ",
      "ప"
    ],
    [
      "క",
      "్</w>"
    ],
    [
      "చ",
      "ాల"
    ],
    [
      "ద",
      "ు"
    ],
    [
      "ాల",
      "్"
    ],
    [
      "స",
      "ం</w>"
    ],
    [
      "అ",
      "వ"
    ],
    [
      "ం",
      "బ"
    ],
    [
      "ప",
      "ూ"
    ],
    [
      "ించ",
      "బడ"
    ],
    [
      "శ",
      "ా"
    ],
    [
      "ఆ",
      "</w>"
    ],
    [
      "ఉ",
      "న్న</w>"
    ],
    [
      "క",
      "ే"
    ],
    [
      "ంద",
      "ి</w>"
    ],
    [
      "ధ",
      "ా"
    ],
    [
      "న",
      "ా</w>"
    ],
    [
      "క",
      "లి"
    ],
    [
      "స్తు",
      "ంది.</w>"
    ],
    [
      "అనే",
      "ది</w>"
    ],
    [
      "పై",
      "</w>"
    ],
    [
      "రి",
      "గ"
    ],
    [
      "అత",
      "ను</w>"
    ],
    [
      "వ",
      "ై"
    ],
    [
      "క్క",
      "ు"
    ],
    [
      "చి",
      "త్ర"
    ],
    [
      "ి",
      "న"
    ],
    [
      "ర్",
      "‌"
    ],
    [
      "మ",
      "</w>"
    ],
    [
      "డ",
      "్"
    ],
    [
      "మ",
      "ార్"
    ],
    [
      "చాల",
      "ా</w>"
    ],
    [
      "రె",
      "ండ"
    ],
    [
      "న",
      "ీ</w>"
    ],
    [
      "ప",
      "ే"
    ],
    [
      "ఆ",
      "య"
    ],
    [
      "గ",
      "ో"
    ],
    [
      "త",
      "ె"
    ],
    [
      "మ",
      "ార"
    ],
    [
      "మొ",
      "ద"
    ],
    [
      "ప్రా",
      "ంత"
    ],
    [
      "20",
      "1"
    ],
    [
      "ం",
      "భ"
    ],
    [
      "య",
      "ం</w>"
    ],
    [
      "ుల",
      "ను</w>"
    ],
    [
      "ఆ",
      "మె"
    ],
    [
      "శ",
      "్"
    ],
    [
      "ాల",
      "లో</w>"
    ],
    [
      "ర",
      "ే"
    ],
    [
      "వచ్చ",
      "ు.</w>"
    ],
    [
      "ంత",
      "</w>"
    ],
    [
      "మ",
      "ీ</w>"
    ],
    [
      "న",
      "ం</w>"
    ],
    [
      "ఉ",
      "ంది.</w>"
    ],
    [
      "క",
      "ి"
    ],
    [
      "న",
      "ె"
    ],
    [
      "మీ",
      "రు</w>"
    ],
    [
      "ా",
      "న్ని</w>"
    ],
    [
      "ళ",
      "్ల"
    ],
    [
      "ప్ర",
      "ార"
    ],
    [
      "ింగ",
      "్</w>"
    ],
    [
      "బ",
      "ి"
    ],
    [
      "కో",
      "సం</w>"
    ],
    [
      "ప్రార",
      "ంభ"
    ],
    [
      "ి",
      "క</w>"
    ],
    [
      "వర",
      "కు</w>"
    ],
    [
      "వా",
      "త</w>"
    ],
    [
      "త",
      "రు"
    ],
    [
      "ఉప",
      "యోగ"
    ],
    [
      "ించ",
      "ిన</w>"
    ],
    [
      "ళ",
      "్"
    ],
    [
      "త",
      "్య"
    ],
    [
      "ంట",
      "ే</w>"
    ],
    [
      "ష్ట",
      "్ర"
    ],
    [
      "భా",
      "గ"
    ],
    [
      "ప",
      "డ"
    ],
    [
      "త",
      "ం</w>"
    ],
    [
      "అ",
      "ని</w>"
    ],
    [
      "ఆయ",
      "న</w>"
    ],
    [
      "ప",
      "ాల"
    ],
    [
      "మ",
      "ో"
    ],
    [
      "ే",
      ",</w>"
    ],
    [
      "స",
      "హ"
    ],
    [
      "ద",
      "్య"
    ],
    [
      "ల",
      "లో</w>"
    ],
    [
      "ట",
      "ె"
    ],
    [
      "ం",
      "లోని</w>"
    ],
    [
      "ం",
      "ధ"
    ],
    [
      "హ",
      "ా"
    ],
    [
      "వ",
      "్యా"
    ],
    [
      "ట",
      "ు"
    ],
    [
      "స్త",
      "ారు.</w>"
    ],
    [
      "ళ్",
      "ళ"
    ],
    [
      "్‌",
      "లో</w>"
    ],
    [
      "చె",
      "ంద"
    ],
    [
      "ర",
      "ీ"
    ],
    [
      "మ",
      "ంది</w>"
    ],
    [
      "ంట",
      "ి</w>"
    ],
    [
      "ట",
      "ిక"
    ],
    [
      "తు",
      "ంది.</w>"
    ],
    [
      "ట",
      "ు</w>"
    ],
    [
      "ంత",
      "ో</w>"
    ],
    [
      "జ",
      "ీ"
    ],
    [
      "రా",
      "ష్ట్ర"
    ],
    [
      "అ",
      "ను"
    ],
    [
      "ట",
      "ీ"
    ],
    [
      "ప్పుడ",
      "ు</w>"
    ],
    [
      "ఒ",
      "క"
    ],
    [
      "ఆమె",
      "</w>"
    ],
    [
      ")",
      "</w>"
    ],
    [
      "భార",
      "త"
    ],
    [
      "వ",
      "త్"
    ],
    [
      "సా",
      "ధార"
    ],
    [
      "ఉంట",
      "ు"
    ],
    [
      "కలి",
      "గ"
    ],
    [
      "సం",
      "వత్"
    ],
    [
      "ర్",
      "శ"
    ],
    [
      "ల",
      "ై"
    ],
    [
      "య",
      "్య"
    ],
    [
      "య",
      "ా</w>"
    ],
    [
      "బ",
      "ె"
    ],
    [
      "స్థ",
      "ా"
    ],
    [
      "క",
      "ె"
    ],
    [
      "ఖ",
      "్య"
    ],
    [
      "మ",
      "్</w>"
    ],
    [
      "డ",
      "ు</w>"
    ],
    [
      "ణ",
      "ంగా</w>"
    ],
    [
      "మ",
      "ే"
    ],
    [
      "20",
      "0"
    ],
    [
      "్య",
      "ూ"
    ],
    [
      "స",
      "ూ"
    ],
    [
      "ష",
      "్"
    ],
    [
      "సంవత్",
      "సర"
    ],
    [
      "కు",
      "న్న"
    ],
    [
      "ించ",
      "ింది.</w>"
    ],
    [
      "ించ",
      "ే</w>"
    ],
    [
      "స",
      "ి</w>"
    ],
    [
      "ఆ",
      "ట"
    ],
    [
      "ప",
      "ార"
    ],
    [
      "భారత",
      "దేశ"
    ],
    [
      "ప్ర",
      "ధా"
    ],
    [
      "ల",
      "ీ"
    ],
    [
      "పొ",
      "ంద"
    ],
    [
      "తీ",
      "య</w>"
    ],
    [
      "వార",
      "ు</w>"
    ],
    [
      "య",
      "ూ"
    ],
    [
      "స",
      "ై"
    ],
    [
      "ద్",
      "వార"
    ],
    [
      "ర్",
      "థ"
    ],
    [
      "అనే",
      "క</w>"
    ],
    [
      "స",
      "ార"
    ],
    [
      "మ",
      "ధ్య"
    ],
    [
      "వ",
      "ు"
    ],
    [
      "ఉన్న",
      "ాయి.</w>"
    ],
    [
      "ర",
      "ూ"
    ],
    [
      "మ",
      "్"
    ],
    [
      "గ",
      "ి"
    ],
    [
      "చే",
      "శ"
    ],
    [
      "ద",
      "ార"
    ],
    [
      "ా",
      ",</w>"
    ],
    [
      "శ",
      "ి"
    ],
    [
      "స",
      "ీ"
    ],
    [
      "ద్ద",
      "</w>"
    ],
    [
      "రో",
      "జ"
    ],
    [
      "కో",
      "వ"
    ],
    [
      "అ",
      "ధ"
    ],
    [
      "చ",
      "ూ"
    ],
    [
      "ం",
      "ప"
    ],
    [
      "ప్ర",
      "ద"
    ],
    [
      "ఇ",
      "త"
    ],
    [
      "ట్ట",
      "ు"
    ],
    [
      "ల",
      "కు</w>"
    ],
    [
      "రి",
      "క"
    ],
    [
      "మొద",
      "టి</w>"
    ],
    [
      "ఎ",
      "క్కు"
    ],
    [
      "న",
      "గ"
    ],
    [
      "అ",
      "యి"
    ],
    [
      "క",
      "ర"
    ],
    [
      "వ",
      "ంటి</w>"
    ],
    [
      "క",
      "్ట"
    ],
    [
      "వ్య",
      "క్"
    ],
    [
      "ై",
      "న</w>"
    ],
    [
      "ార",
      "ు,</w>"
    ],
    [
      "వ",
      "ి</w>"
    ],
    [
      "ాయ",
      "ి"
    ],
    [
      "బ",
      "ంధ"
    ],
    [
      "ప",
      "్"
    ],
    [
      "ద్వార",
      "ా</w>"
    ],
    [
      "కు",
      "ంట"
    ],
    [
      "పో",
      "య"
    ],
    [
      "ట",
      "్‌"
    ],
    [
      "5",
      "</w>"
    ],
    [
      "క్ర",
      "ీ"
    ],
    [
      "బ్",
      "బ"
    ],
    [
      "2",
      "</w>"
    ],
    [
      "గ",
      "ొ"
    ],
    [
      "అత",
      "్య"
    ],
    [
      "ష",
      "ి"
    ],
    [
      "వ",
      "్"
    ],
    [
      "క",
      "్ల"
    ],
    [
      "ంద",
      "ి,</w>"
    ],
    [
      "ఫ",
      "ి"
    ],
    [
      "ని",
      "య"
    ],
    [
      "ఫ",
      "్</w>"
    ],
    [
      "ఉంటు",
      "ంది.</w>"
    ],
    [
      "మ",
      "ూ"
    ],
    [
      "ల",
      "ా</w>"
    ],
    [
      "డ",
      "ి</w>"
    ],
    [
      "అ",
      "నే</w>"
    ],
    [
      "ించ",
      "ాడు.</w>"
    ],
    [
      "ప",
      "ంచ"
    ],
    [
      "ఇత",
      "ర</w>"
    ],
    [
      "చ",
      "ార"
    ],
    [
      "త",
      "ర"
    ],
    [
      "భ",
      "ి"
    ],
    [
      "1",
      "</w>"
    ],
    [
      "వ",
      "హ"
    ],
    [
      "క",
      "రించ"
    ],
    [
      "అ",
      "ంత"
    ],
    [
      "స",
      "ో"
    ],
    [
      "పూ",
      "ర్"
    ],
    [
      "కొ",
      "న్ని</w>"
    ],
    [
      "జ",
      "రిగ"
    ],
    [
      "ప",
      "ద"
    ],
    [
      "వ",
      "ల"
    ],
    [
      "ట్ల",
      "ు</w>"
    ],
    [
      "స",
      "ే"
    ],
    [
      "ుల",
      "కు</w>"
    ],
    [
      "్",
      "డ"
    ],
    [
      "మర",
      "ణ"
    ],
    [
      "వ",
      "ం</w>"
    ],
    [
      "ని",
      "కి</w>"
    ],
    [
      "కా",
      "నీ</w>"
    ],
    [
      "ి",
      "కి</w>"
    ],
    [
      "ండ",
      "ి.</w>"
    ],
    [
      "ఫ",
      "్"
    ],
    [
      "ఉ",
      "త్త"
    ],
    [
      "ం",
      "త్ర"
    ],
    [
      "ించ",
      "డానికి</w>"
    ],
    [
      "క",
      "ంటే</w>"
    ],
    [
      "ు",
      "గా</w>"
    ],
    [
      "వి",
      "జ"
    ],
    [
      "క",
      "ీ"
    ],
    [
      "న్",
      "ని"
    ],
    [
      "అ",
      "య"
    ],
    [
      "ష",
      "్</w>"
    ],
    [
      "కు",
      "ండ"
    ],
    [
      "\"",
      "</w>"
    ],
    [
      "ప్రధా",
      "న</w>"
    ],
    [
      "స్తు",
      "న్న"
    ],
    [
      "క",
      "ర్"
    ],
    [
      "వార",
      "ి</w>"
    ],
    [
      "ాల",
      "్</w>"
    ],
    [
      "వ",
      "ృ"
    ],
    [
      "ి",
      "ని</w>"
    ],
    [
      "రెండ",
      "ు</w>"
    ],
    [
      "తరు",
      "వాత</w>"
    ],
    [
      "న",
      "ై"
    ],
    [
      "రు",
      "గు"
    ],
    [
      "జ",
      "ె"
    ],
    [
      "య",
      "ంలో</w>"
    ],
    [
      "ర్",
      "చ"
    ],
    [
      "ాల",
      "కు</w>"
    ],
    [
      "ండ",
      "్</w>"
    ],
    [
      "వి",
      "ధ"
    ],
    [
      "డ",
      "ె"
    ],
    [
      "బ",
      "ో"
    ],
    [
      "0",
      "0</w>"
    ],
    [
      "త",
      "ర్"
    ],
    [
      "న",
      "ో"
    ],
    [
      "త",
      "్</w>"
    ],
    [
      "గు",
      "రించ"
    ],
    [
      "ప",
      "ట్ట"
    ],
    [
      "ల",
      "ు,</w>"
    ],
    [
      "4",
      "</w>"
    ],
    [
      "మ",
      "ే</w>"
    ],
    [
      "వా",
      "త"
    ],
    [
      "ము",
      "ఖ్య"
    ],
    [
      "ప",
      "ర్"
    ],
    [
      "ిక",
      "్</w>"
    ],
    [
      "చే",
      "సు"
    ],
    [
      "గ",
      "ీ"
    ],
    [
      "ప",
      "ర"
    ],
    [
      "బ",
      "్ర"
    ],
    [
      "ద",
      "</w>"
    ],
    [
      "స",
      "మా"
    ],
    [
      "చెంద",
      "ిన</w>"
    ],
    [
      "8",
      "</w>"
    ],
    [
      "డ",
      "ా"
    ],
    [
      "అ",
      "ంద"
    ],
    [
      "తీ",
      "సు"
    ],
    [
      "గ్ర",
      "ా"
    ],
    [
      "ప్ర",
      "పంచ"
    ],
    [
      "చేయ",
      "బడ"
    ],
    [
      "త",
      "ే,</w>"
    ],
    [
      "ించ",
      "ు"
    ],
    [
      "ం",
      "క"
    ],
    [
      "ల",
      "్‌"
    ],
    [
      "3",
      "</w>"
    ],
    [
      "ల",
      "క్ష"
    ],
    [
      "ార",
      "ు</w>"
    ],
    [
      "6",
      "</w>"
    ],
    [
      "ల",
      "ె"
    ],
    [
      "ప",
      "ని"
    ],
    [
      "గా",
      ",</w>"
    ],
    [
      "ప్ప",
      "టిక"
    ],
    [
      "క",
      "ృ"
    ],
    [
      "ట",
      "</w>"
    ],
    [
      "భ",
      "ు"
    ],
    [
      "పా",
      "టు</w>"
    ],
    [
      "ప",
      "్</w>"
    ],
    [
      "హ",
      "ె"
    ],
    [
      "డ",
      "</w>"
    ],
    [
      "లి",
      "య"
    ],
    [
      "ష",
      "న్</w>"
    ],
    [
      "కలిగ",
      "ి</w>"
    ],
    [
      "మ",
      "ూడ"
    ],
    [
      "పె",
      "ద్ద</w>"
    ],
    [
      "ం",
      "ద్ర"
    ],
    [
      "ుల",
      "ు,</w>"
    ],
    [
      "క్ష",
      "ి"
    ],
    [
      "7",
      "</w>"
    ],
    [
      "వా",
      "హ"
    ],
    [
      "ు",
      "గ"
    ],
    [
      "ము",
      "ంద"
    ],
    [
      "ణ",
      "ం</w>"
    ],
    [
      "గ్",
      "గ"
    ],
    [
      "ట",
      "ర్"
    ],
    [
      "వ్య",
      "వ"
    ],
    [
      "న",
      "ాల"
    ],
    [
      "్య",
      "</w>"
    ],
    [
      "ర",
      "ంగ"
    ],
    [
      "క్ర",
      "మ"
    ],
    [
      "మధ్య",
      "</w>"
    ],
    [
      "ిక",
      "ార"
    ],
    [
      "అత",
      "ని</w>"
    ],
    [
      "పె",
      "ట్ట"
    ],
    [
      "మై",
      "న"
    ],
    [
      "త",
      "ంగా</w>"
    ],
    [
      "వ",
      "ు</w>"
    ],
    [
      "ప్ర",
      "జ"
    ],
    [
      "స్ట",
      "ే"
    ],
    [
      "వ",
      "ంత"
    ],
    [
      "్య",
      "ం</w>"
    ],
    [
      "ాయ",
      "ి,</w>"
    ],
    [
      "గురించ",
      "ి</w>"
    ],
    [
      "ప్ర",
      "తి"
    ],
    [
      "సాధార",
      "ణంగా</w>"
    ],
    [
      "హ",
      "ార"
    ],
    [
      "జా",
      "తీయ</w>"
    ],
    [
      "ని",
      ",</w>"
    ],
    [
      "ణ",
      "ా"
    ],
    [
      "గ",
      "ె"
    ],
    [
      "ుడ",
      "ు</w>"
    ],
    [
      "హ",
      "ో"
    ],
    [
      "్ల",
      "ా"
    ],
    [
      "ద",
      "ి.</w>"
    ],
    [
      "మ",
      "ా</w>"
    ],
    [
      "వ",
      "ల్ల"
    ],
    [
      "నగ",
      "ర"
    ],
    [
      "త",
      "ో"
    ],
    [
      "వ",
      "ాల"
    ],
    [
      "త్",
      "స"
    ],
    [
      "న్",
      "స్</w>"
    ],
    [
      "ఆ",
      "ర్"
    ],
    [
      "క",
      "ూ"
    ],
    [
      "జ",
      "న"
    ],
    [
      "న్",
      "య"
    ],
    [
      "దా",
      "ని</w>"
    ],
    [
      "బ",
      "ీ"
    ],
    [
      "గు",
      "ర్"
    ],
    [
      "వర",
      "ి</w>"
    ],
    [
      "లో",
      "కి</w>"
    ],
    [
      "చేశ",
      "ారు.</w>"
    ],
    [
      "స",
      "భ"
    ],
    [
      "ప్ర",
      "దేశ"
    ],
    [
      "వ",
      "య"
    ],
    [
      "సం",
      "బంధ"
    ],
    [
      "వి",
      "ద్య"
    ],
    [
      "స్త",
      "ాయి.</w>"
    ],
    [
      "వాత",
      ",</w>"
    ],
    [
      "కార",
      "్య"
    ],
    [
      "అయ",
      "ిన</w>"
    ],
    [
      "సి",
      "ద్ధ"
    ],
    [
      "దీ",
      "ని"
    ],
    [
      "ుల",
      "లో</w>"
    ],
    [
      "మొ",
      "త్త"
    ],
    [
      "్‌",
      "ను</w>"
    ],
    [
      "19",
      "9"
    ],
    [
      "భ",
      "ూ"
    ],
    [
      "సా",
      "ధ"
    ],
    [
      "ందు",
      "కు</w>"
    ],
    [
      "ఆ",
      "డ"
    ],
    [
      "బ్",
      "ద"
    ],
    [
      "ింద",
      "ి,</w>"
    ],
    [
      "బ",
      "ు"
    ],
    [
      "ం",
      "లో,</w>"
    ],
    [
      "చేస",
      "ిన</w>"
    ],
    [
      "ఎక్కు",
      "వ</w>"
    ],
    [
      "హ",
      "ింద"
    ],
    [
      "స్ట",
      "్ర"
    ],
    [
      "స్",
      "త్ర"
    ],
    [
      "సహ",
      "ాయ"
    ],
    [
      "జ",
      "్</w>"
    ],
    [
      "ఫ",
      "ె"
    ],
    [
      "అధ",
      "ికార"
    ],
    [
      "బ",
      "్యా"
    ],
    [
      "ఉండ",
      "ే"
    ],
    [
      "ప్ర",
      "త్య"
    ],
    [
      "క",
      "ని"
    ],
    [
      "ర",
      "ి</w>"
    ],
    [
      "కుండ",
      "ా</w>"
    ],
    [
      "మా",
      "త్ర"
    ],
    [
      "ఫ",
      "ో"
    ],
    [
      "స్థ",
      "ి"
    ],
    [
      "ి",
      "య"
    ],
    [
      "ఆ",
      "ఫ్</w>"
    ],
    [
      "చ",
      "ర్"
    ],
    [
      "అ",
      "భి"
    ],
    [
      "ీ",
      ",</w>"
    ],
    [
      "జి",
      "ల్ల"
    ],
    [
      "్",
      ",</w>"
    ],
    [
      "ల",
      "ిం"
    ],
    [
      "త",
      "ారు.</w>"
    ],
    [
      "త",
      "ొ"
    ],
    [
      "న్",
      ",</w>"
    ],
    [
      "ఏ",
      "ర్"
    ],
    [
      "తర్",
      "వాత</w>"
    ],
    [
      "ప",
      "ీ"
    ],
    [
      "అ",
      "ందు"
    ],
    [
      "ర",
      "ై"
    ],
    [
      "ణ",
      "ి"
    ],
    [
      "భ",
      "వ"
    ],
    [
      "ంచ",
      "ి</w>"
    ],
    [
      "పి",
      "లు"
    ],
    [
      "తి",
      "రిగ"
    ],
    [
      "ఉంట",
      "ాయి.</w>"
    ],
    [
      "వి",
      "స్త"
    ],
    [
      "ఖ",
      "ా"
    ],
    [
      "ట",
      "ో"
    ],
    [
      "మా",
      "న"
    ],
    [
      "త్త",
      "</w>"
    ],
    [
      "ద",
      "ు.</w>"
    ],
    [
      "ప్ర",
      "తి</w>"
    ],
    [
      "ల",
      "ి</w>"
    ],
    [
      "ర",
      "ణ"
    ],
    [
      "అత్య",
      "ంత</w>"
    ],
    [
      "వార",
      "్"
    ],
    [
      "స",
      "ు</w>"
    ],
    [
      "క",
      "ార్"
    ],
    [
      "ించ",
      "ి</w>"
    ],
    [
      "వల్ల",
      "</w>"
    ],
    [
      "ాల",
      "ు,</w>"
    ],
    [
      "స",
      "ర్"
    ],
    [
      "ష",
      "ా"
    ],
    [
      "మీ",
      "కు</w>"
    ],
    [
      "ంగ",
      "ా,</w>"
    ],
    [
      "-",
      "</w>"
    ],
    [
      "ప్ర",
      "భు"
    ],
    [
      "నా",
      "కు</w>"
    ],
    [
      "వే",
      "శ"
    ],
    [
      "కు",
      ",</w>"
    ],
    [
      "ం",
      "పి"
    ],
    [
      "యు",
      "ద్ధ"
    ],
    [
      "ట",
      "ీ</w>"
    ],
    [
      "క",
      "పో"
    ],
    [
      "చె",
      "ప్ప"
    ],
    [
      "జ",
      "ో"
    ],
    [
      "స్‌",
      "లో</w>"
    ],
    [
      "మె",
      "ంట"
    ],
    [
      "క",
      "ళ"
    ],
    [
      "ప",
      "త్త"
    ],
    [
      "స",
      "రి"
    ],
    [
      "ద",
      "ు</w>"
    ],
    [
      "త",
      "మ</w>"
    ],
    [
      "త",
      "ాయి.</w>"
    ],
    [
      "త",
      "ులు</w>"
    ],
    [
      "ప్రద",
      "ర్శ"
    ],
    [
      "ఇ",
      "ంట"
    ],
    [
      "ాయ",
      "ి</w>"
    ],
    [
      "గ",
      "ల</w>"
    ],
    [
      "ట",
      "ా"
    ],
    [
      "ప్రభు",
      "త్"
    ],
    [
      "త",
      "క్కు"
    ],
    [
      "దీని",
      "ని</w>"
    ],
    [
      "తిరిగ",
      "ి</w>"
    ],
    [
      "త",
      "ే</w>"
    ],
    [
      "వ",
      "్</w>"
    ],
    [
      "ట",
      "్ర"
    ],
    [
      "సంవత్సర",
      "ాల</w>"
    ],
    [
      "న",
      "ట"
    ],
    [
      "బ్",
      "రి"
    ],
    [
      "1",
      "8"
    ],
    [
      "ప్ర",
      "భా"
    ],
    [
      "ు",
      "తుంది.</w>"
    ],
    [
      "చ",
      "ిక"
    ],
    [
      "సం",
      "స్థ"
    ],
    [
      "ి",
      "గా</w>"
    ],
    [
      "జ",
      "ూ"
    ],
    [
      "లేద",
      "ు.</w>"
    ],
    [
      "చేయ",
      "డానికి</w>"
    ],
    [
      "సం",
      "గీ"
    ],
    [
      "్ల",
      "ు</w>"
    ],
    [
      "స",
      "ిన</w>"
    ],
    [
      "వి",
      "డు"
    ],
    [
      "ించ",
      "డం</w>"
    ],
    [
      "విడు",
      "ద"
    ],
    [
      "ాడ",
      "ు,</w>"
    ],
    [
      "తు",
      "న్న"
    ],
    [
      "ట",
      "ం</w>"
    ],
    [
      "జ",
      "ీ</w>"
    ],
    [
      "ఆ",
      "ధార"
    ],
    [
      "హ",
      "ు"
    ],
    [
      "జ",
      "న్"
    ],
    [
      "త",
      "య"
    ],
    [
      "పా",
      "త్ర"
    ],
    [
      "ఉ",
      "త్"
    ],
    [
      "ర",
      "క"
    ],
    [
      "ద",
      "క్షి"
    ],
    [
      "ట",
      "ై"
    ],
    [
      "అ",
      "మె"
    ],
    [
      "ాల్",
      "లో</w>"
    ],
    [
      "య",
      "త్"
    ],
    [
      "వ్",
      "వ"
    ],
    [
      "ట్ట",
      "ు</w>"
    ],
    [
      "స్త",
      "ా"
    ],
    [
      "త",
      "ే"
    ],
    [
      "హ",
      "్"
    ],
    [
      "గ",
      "్</w>"
    ],
    [
      "శ",
      "తా"
    ],
    [
      "ఉన్న",
      "ారు.</w>"
    ],
    [
      "ం",
      "శ"
    ],
    [
      "ృ",
      "ష్ట"
    ],
    [
      "ప",
      "ండ"
    ],
    [
      "ించ",
      "ిన"
    ],
    [
      "డ్",
      "డ"
    ],
    [
      "ల",
      "తో</w>"
    ],
    [
      "మాత్ర",
      "మే</w>"
    ],
    [
      "ఆ",
      "ల"
    ],
    [
      "వి",
      "ష"
    ],
    [
      "శతా",
      "బ్ద"
    ],
    [
      "ర్",
      "కొ"
    ],
    [
      "అవ",
      "సర"
    ],
    [
      "వ",
      "గా</w>"
    ],
    [
      "ళ",
      "</w>"
    ],
    [
      "ించబడ",
      "ింది.</w>"
    ],
    [
      "ాల",
      "ని</w>"
    ],
    [
      "బ",
      "్</w>"
    ],
    [
      "ించ",
      "ి,</w>"
    ],
    [
      "ర",
      "ీ</w>"
    ],
    [
      "9",
      "</w>"
    ],
    [
      "క",
      "ం"
    ],
    [
      "ఇ",
      "ండ"
    ],
    [
      "ద",
      "ూ"
    ],
    [
      "వా",
      "టి"
    ],
    [
      "కొ",
      "త్త</w>"
    ],
    [
      "ఇ",
      "చ్చ"
    ],
    [
      "ప్ర",
      "యత్"
    ],
    [
      "అ",
      "ద"
    ],
    [
      "ప",
      "్ట"
    ],
    [
      "చి",
      "న్న</w>"
    ],
    [
      "ధ",
      "ి"
    ],
    [
      "భా",
      "ష"
    ],
    [
      "వ",
      "్ర"
    ],
    [
      "తరు",
      "వాత,</w>"
    ],
    [
      "అ",
      "ది</w>"
    ],
    [
      "సమ",
      "యంలో</w>"
    ],
    [
      "టె",
      "డ్</w>"
    ],
    [
      "వృ",
      "ద్ధ"
    ],
    [
      "స",
      "ంద"
    ],
    [
      "జ",
      "నా"
    ],
    [
      "త",
      "ూ"
    ],
    [
      ":",
      "</w>"
    ],
    [
      "న",
      ",</w>"
    ],
    [
      "స్ట",
      "్</w>"
    ],
    [
      "స్",
      "ప"
    ],
    [
      "స",
      "మీ"
    ],
    [
      "19",
      "8"
    ],
    [
      "న",
      "ాయ"
    ],
    [
      ",",
      "0"
    ],
    [
      "క",
      "ంగా</w>"
    ],
    [
      "క",
      "్‌"
    ],
    [
      "న్‌",
      "లో</w>"
    ],
    [
      "ముంద",
      "ు</w>"
    ],
    [
      "స్",
      "వా"
    ],
    [
      "ష్",
      "ణ"
    ],
    [
      "ు",
      "వ"
    ],
    [
      "ుల",
      "తో</w>"
    ],
    [
      "క్రీ",
      "డ"
    ],
    [
      "నిర్",
      "వహ"
    ],
    [
      "ప్ర",
      "కార"
    ],
    [
      "గ",
      "ణ"
    ],
    [
      "స్",
      ",</w>"
    ],
    [
      "స్",
      "వ"
    ],
    [
      "మీ",
      "ద</w>"
    ],
    [
      "వ",
      "స్తు"
    ],
    [
      "ద",
      "ాని"
    ],
    [
      "రెండ",
      "వ</w>"
    ],
    [
      "గుర్",
      "త"
    ],
    [
      "నిర్",
      "మ"
    ],
    [
      "మొత్త",
      "ం</w>"
    ],
    [
      "భార",
      "త</w>"
    ],
    [
      "న",
      "వ"
    ],
    [
      "ర",
      "క్ష"
    ],
    [
      "అయి",
      "తే,</w>"
    ],
    [
      "క",
      "ౌ"
    ],
    [
      "స్థా",
      "న"
    ],
    [
      "ుల",
      "్"
    ],
    [
      "మ",
      "త"
    ],
    [
      "చిత్ర",
      "ం</w>"
    ],
    [
      "తె",
      "లు"
    ],
    [
      "ంద",
      "ని</w>"
    ],
    [
      "ప్ర",
      "ే"
    ],
    [
      "న",
      "ల్</w>"
    ],
    [
      "పా",
      "ట"
    ],
    [
      "ఏ",
      "</w>"
    ],
    [
      "ంబ",
      "ర్</w>"
    ],
    [
      "సభ",
      "్య"
    ],
    [
      "ను",
      ",</w>"
    ],
    [
      "బ",
      "్ల"
    ],
    [
      "అ",
      "ర్"
    ],
    [
      "మూడ",
      "ు</w>"
    ],
    [
      "చిక",
      "ి"
    ],
    [
      "రూ",
      "ప"
    ],
    [
      "మ",
      "ంద"
    ],
    [
      "చికి",
      "త్స"
    ],
    [
      "చేస",
      "ే</w>"
    ],
    [
      "19",
      "7"
    ],
    [
      "గ",
      "ాయ"
    ],
    [
      "త",
      "న"
    ],
    [
      "మ",
      "హి"
    ],
    [
      "ప్రద",
      "ాయ"
    ],
    [
      "ప్ర",
      "సిద్ధ"
    ],
    [
      "మార్",
      "చ"
    ],
    [
      "ప్రత్య",
      "ే"
    ],
    [
      "ర",
      "ం</w>"
    ],
    [
      "స్",
      "య"
    ],
    [
      "క్క",
      "డ</w>"
    ],
    [
      "క",
      "ులు</w>"
    ],
    [
      "్‌",
      "కు</w>"
    ],
    [
      "క",
      "ల"
    ],
    [
      "త్",
      "మ"
    ],
    [
      "రో",
      "గ"
    ],
    [
      "క్ర",
      "ి"
    ],
    [
      "సు",
      "లో</w>"
    ],
    [
      "జ",
      "ర్"
    ],
    [
      "జ",
      "్"
    ],
    [
      "కొ",
      "న"
    ],
    [
      "క",
      "థ"
    ],
    [
      "బ",
      "ాల్</w>"
    ],
    [
      "మ",
      "ని</w>"
    ],
    [
      "హ",
      "ై"
    ],
    [
      "శ్",
      "వ"
    ],
    [
      "వ్యా",
      "ధ"
    ],
    [
      "ప్పుడ",
      "ు,</w>"
    ],
    [
      "విధ",
      "</w>"
    ],
    [
      "స",
      "ీ</w>"
    ],
    [
      "యు",
      "నై"
    ],
    [
      "ప్ర",
      "మా"
    ],
    [
      "పు",
      "రా"
    ],
    [
      "డ",
      "్ర"
    ],
    [
      "త",
      "ా</w>"
    ],
    [
      "భార",
      "తీయ</w>"
    ],
    [
      "వ్యవ",
      "స్థ"
    ],
    [
      "ఛ",
      "ా"
    ],
    [
      "వి",
      "విధ</w>"
    ],
    [
      "క",
      "ం</w>"
    ],
    [
      "ార",
      "్</w>"
    ],
    [
      "ార్",
      "థ"
    ],
    [
      "ఫ",
      "ా"
    ],
    [
      "కు",
      "టు"
    ],
    [
      "్‌",
      "లోని</w>"
    ],
    [
      "ంచ",
      "ు"
    ],
    [
      "మ",
      "్యా"
    ],
    [
      "యునై",
      "టెడ్</w>"
    ],
    [
      "గ",
      "ల"
    ],
    [
      "ాల",
      "తో</w>"
    ],
    [
      "ఫ",
      "ు"
    ],
    [
      "క",
      "ల్"
    ],
    [
      "సా",
      "గ"
    ],
    [
      "అంత",
      "ర్"
    ],
    [
      "గె",
      "లు"
    ],
    [
      "కు",
      "ంది.</w>"
    ],
    [
      "ించ",
      "డ"
    ],
    [
      "డి",
      "గా</w>"
    ],
    [
      "ట్ల",
      "</w>"
    ],
    [
      "కు",
      "మార"
    ],
    [
      "ము",
      "ఖ"
    ],
    [
      "ిం",
      "త</w>"
    ],
    [
      "ప్రపంచ",
      "</w>"
    ],
    [
      "క",
      "ను"
    ],
    [
      "తర",
      "చు"
    ],
    [
      "శ్",
      "చి"
    ],
    [
      "జరిగ",
      "ిన</w>"
    ],
    [
      "వె",
      "ళ్ల"
    ],
    [
      "అ",
      "ల"
    ],
    [
      "కే",
      "ంద్ర"
    ],
    [
      "క",
      "ట"
    ],
    [
      "బ",
      "ల"
    ],
    [
      "సా",
      "ం"
    ],
    [
      "అ",
      "ధ్య"
    ],
    [
      "క",
      "ి,</w>"
    ],
    [
      "కుటు",
      "ంబ"
    ],
    [
      "ద",
      "ర్శ"
    ],
    [
      "న",
      "ది</w>"
    ],
    [
      "ఫ",
      "్ర"
    ],
    [
      "్‌",
      "‌"
    ],
    [
      "కార",
      "ణంగా</w>"
    ],
    [
      "వ",
      "రి"
    ],
    [
      "జ",
      "ే"
    ],
    [
      "బ",
      "ర్"
    ],
    [
      "ట్ట",
      "ి</w>"
    ],
    [
      "త",
      "ప్ప"
    ],
    [
      "చేస",
      "ింది.</w>"
    ],
    [
      "గ",
      "ే"
    ],
    [
      "భారతదేశ",
      "ంలోని</w>"
    ],
    [
      "మహి",
      "ళ"
    ],
    [
      "డ",
      "బ్బ"
    ],
    [
      "మర",
      "ింత</w>"
    ],
    [
      "కున్న",
      "ారు.</w>"
    ],
    [
      "కార",
      "ణ"
    ],
    [
      "ప్రజ",
      "లు</w>"
    ],
    [
      "తక్కు",
      "వ</w>"
    ],
    [
      "ాడ",
      "ు</w>"
    ],
    [
      "నే",
      "ను</w>"
    ],
    [
      "కొ",
      "ను"
    ],
    [
      "ఫ",
      "ీ"
    ],
    [
      "ఆ",
      "ర్థ"
    ],
    [
      "నిర్",
      "ణ"
    ],
    [
      "ప్పటిక",
      "ీ,</w>"
    ],
    [
      "ించ",
      "ే"
    ],
    [
      "ఉత్",
      "పత్త"
    ],
    [
      "కం",
      "పె"
    ],
    [
      "శా",
      "స్త్ర"
    ],
    [
      "నిర్",
      "మా"
    ],
    [
      "ప",
      "్ల"
    ],
    [
      "పే",
      "ర్కొ"
    ],
    [
      "న్",
      "యూ"
    ],
    [
      "గ్రా",
      "మ"
    ],
    [
      "అ",
      "తి"
    ],
    [
      "మ",
      "ి</w>"
    ],
    [
      "బడ",
      "ే</w>"
    ],
    [
      "ట",
      "ానికి</w>"
    ],
    [
      "ించ",
      "వచ్చు.</w>"
    ],
    [
      "ని",
      "మి"
    ],
    [
      "ిక",
      "్"
    ],
    [
      "అ",
      "న్ని</w>"
    ],
    [
      "వె",
      "ళ్ళ"
    ],
    [
      "చ",
      "్</w>"
    ],
    [
      "ఇ",
      "ంక"
    ],
    [
      "బ",
      "ాల"
    ],
    [
      "స్థా",
      "ప"
    ],
    [
      "ప్ర",
      "స్తు"
    ],
    [
      "ై",
      "నా</w>"
    ],
    [
      "కు",
      "న్న</w>"
    ],
    [
      "ఉత్త",
      "ర</w>"
    ],
    [
      "తరచు",
      "గా</w>"
    ],
    [
      "ద",
      "్</w>"
    ],
    [
      "చ",
      "్"
    ],
    [
      "ర",
      "ా</w>"
    ],
    [
      "తి",
      "ని</w>"
    ],
    [
      ",0",
      "00</w>"
    ],
    [
      "శ",
      "ీ"
    ],
    [
      "పి",
      "ల్ల"
    ],
    [
      "ప",
      "శ్చి"
    ],
    [
      "గెలు",
      "చు"
    ],
    [
      "కొను",
      "గో"
    ],
    [
      "ఆ",
      "ధ"
    ],
    [
      "ఎక్కు",
      "వగా</w>"
    ],
    [
      "వే",
      "య"
    ],
    [
      "స",
      "ంత"
    ],
    [
      "న",
      "ంగా</w>"
    ],
    [
      "ప్ర",
      "ో"
    ],
    [
      "చె",
      "ల్ల"
    ],
    [
      "గ",
      "ాల"
    ],
    [
      "20",
      "</w>"
    ],
    [
      "అభి",
      "వృద్ధ"
    ],
    [
      "అవ",
      "ి</w>"
    ],
    [
      "రూ",
      "పొంద"
    ],
    [
      "గ",
      "ం</w>"
    ],
    [
      "చ",
      "ా"
    ],
    [
      "ఎ",
      "స్"
    ],
    [
      "విజ",
      "య"
    ],
    [
      "ల",
      "ిక"
    ],
    [
      "నాల",
      "ుగ"
    ],
    [
      "జీ",
      "వి"
    ],
    [
      "చే",
      "స్త"
    ],
    [
      "ి",
      "లో</w>"
    ],
    [
      "స్థ",
      "ాని"
    ],
    [
      "లి",
      "చ"
    ],
    [
      "వ",
      "ారు.</w>"
    ],
    [
      "చ",
      "ో"
    ],
    [
      "శ",
      "ో"
    ],
    [
      "ప్ర",
      "కట"
    ],
    [
      "ట్",
      "స్</w>"
    ],
    [
      "క",
      "్యా"
    ],
    [
      "ఇంక",
      "ా</w>"
    ],
    [
      "ల్",
      "స్</w>"
    ],
    [
      "త",
      "గ్గ"
    ],
    [
      "19",
      "6"
    ],
    [
      "దా",
      "దా"
    ],
    [
      "సాధార",
      "ణ</w>"
    ],
    [
      "తీ",
      "వ్ర"
    ],
    [
      "జ",
      "ై"
    ],
    [
      "ు",
      "ను</w>"
    ],
    [
      "బ",
      "హు"
    ],
    [
      "స",
      "ిం"
    ],
    [
      "దీ",
      "ని</w>"
    ],
    [
      "వ",
      "ద్ద</w>"
    ],
    [
      "కలి",
      "సి</w>"
    ],
    [
      "య",
      "న్</w>"
    ],
    [
      "ూ",
      "హ"
    ],
    [
      "ండ",
      "్"
    ],
    [
      "మీ",
      "టర్"
    ],
    [
      "సు",
      "మార"
    ],
    [
      "ట",
      "ర్</w>"
    ],
    [
      "ఫ",
      "ై"
    ],
    [
      "బ్రి",
      "టి"
    ],
    [
      "ర్",
      "భ"
    ],
    [
      "క్",
      "స్</w>"
    ],
    [
      "ల్",
      "లో</w>"
    ],
    [
      "జన్",
      "మ"
    ],
    [
      "ద",
      "ర"
    ],
    [
      "ండ",
      "్ర"
    ],
    [
      "్డ",
      "ాయి.</w>"
    ],
    [
      "అ",
      "లా"
    ],
    [
      "వె",
      "ంట"
    ],
    [
      "ప",
      "ాల్"
    ],
    [
      "సమ",
      "య"
    ],
    [
      "ము",
      "ద్ర"
    ],
    [
      "క",
      "్య"
    ],
    [
      "జిల్ల",
      "ా"
    ],
    [
      "1",
      "0"
    ],
    [
      "ప",
      "ం"
    ],
    [
      "ర",
      "చ"
    ],
    [
      "కోవ",
      "డానికి</w>"
    ],
    [
      "డ",
      "ీ"
    ],
    [
      "1",
      "7"
    ],
    [
      "అమె",
      "రిక"
    ],
    [
      "భా",
      "వ"
    ],
    [
      "వార",
      "ికి</w>"
    ],
    [
      "పే",
      "రు</w>"
    ],
    [
      "దక్షి",
      "ణ</w>"
    ],
    [
      "ద",
      "ాడ"
    ],
    [
      "రాజ",
      "్య"
    ],
    [
      "త",
      "మైన</w>"
    ],
    [
      "డ",
      "ో"
    ],
    [
      "కని",
      "ప"
    ],
    [
      "చ",
      "ూడ"
    ],
    [
      "కా",
      "శ"
    ],
    [
      "ర",
      "ాయ"
    ],
    [
      "ట",
      "ా</w>"
    ],
    [
      "పార",
      "్ట"
    ],
    [
      "భారతదేశ",
      "ంలో</w>"
    ],
    [
      "ప్ర",
      "ి"
    ],
    [
      "వ",
      "హి"
    ],
    [
      "స",
      "</w>"
    ],
    [
      "సమీ",
      "ప"
    ],
    [
      "తయ",
      "ారు</w>"
    ],
    [
      "బ",
      "ే"
    ],
    [
      "స",
      "ౌ"
    ],
    [
      "ర్",
      "చు"
    ],
    [
      "సార",
      "్లు</w>"
    ],
    [
      "పు",
      "న"
    ],
    [
      "నె",
      "ల"
    ],
    [
      "తి",
      "గా</w>"
    ],
    [
      "ప",
      "రీ"
    ],
    [
      "జ",
      "రు"
    ],
    [
      "వి",
      "ని"
    ],
    [
      "ప",
      "డు"
    ],
    [
      "కున్న",
      "ాడు.</w>"
    ],
    [
      "ఉపయోగ",
      "ి"
    ],
    [
      "కాల",
      "ం</w>"
    ],
    [
      "ార",
      "ని</w>"
    ],
    [
      "ఇ",
      "వ్వ"
    ],
    [
      "ప",
      "త్ర"
    ],
    [
      "త్",
      "వం</w>"
    ],
    [
      "పండ",
      "ుగ"
    ],
    [
      "యా",
      "న్ని</w>"
    ],
    [
      "ి",
      "ల్ల"
    ],
    [
      "స్తున్న",
      "ారు.</w>"
    ],
    [
      "ట్ల",
      "ాడ"
    ],
    [
      "సుమార",
      "ు</w>"
    ],
    [
      "సి",
      "న"
    ],
    [
      "అ",
      "య్య"
    ],
    [
      "బ్రిటి",
      "ష్</w>"
    ],
    [
      "కు",
      "డు</w>"
    ],
    [
      "నా",
      "న్ని</w>"
    ],
    [
      "స్ట",
      "ా"
    ],
    [
      "శ",
      "ు"
    ],
    [
      "ఫ",
      "్ట"
    ],
    [
      "పా",
      "ద"
    ],
    [
      "దాదా",
      "పు</w>"
    ],
    [
      "ు",
      "లో</w>"
    ],
    [
      "తూ",
      "ర్"
    ],
    [
      "ప్రయత్",
      "న"
    ],
    [
      "అ",
      "భ"
    ],
    [
      "మా",
      "ట్లాడ"
    ],
    [
      "త",
      "మి"
    ],
    [
      "వ్యా",
      "పార"
    ],
    [
      "న్",
      "స"
    ],
    [
      "డ",
      "్‌"
    ],
    [
      "ఛా",
      "ంపి"
    ],
    [
      "ిక",
      "ంగా</w>"
    ],
    [
      "పా",
      "ఠ"
    ],
    [
      "క",
      "ీ</w>"
    ],
    [
      "1",
      "5"
    ],
    [
      "న",
      "ు.</w>"
    ],
    [
      "ళ్ళ",
      "ు</w>"
    ],
    [
      "ష",
      "నల్</w>"
    ],
    [
      "డ",
      "ే"
    ],
    [
      "సం",
      "ఖ్య"
    ],
    [
      "వ",
      "ా</w>"
    ],
    [
      "అయి",
      "తే</w>"
    ],
    [
      "ఢ",
      "ిల్ల"
    ],
    [
      "సా",
      "మ్"
    ],
    [
      "లో",
      "ప"
    ],
    [
      "అభివృద్ధ",
      "ి</w>"
    ],
    [
      "వ్యా",
      "ప్"
    ],
    [
      "మ",
      "్‌"
    ],
    [
      "లక్ష",
      "ణ"
    ],
    [
      "చేయ",
      "డం</w>"
    ],
    [
      "జరు",
      "పు"
    ],
    [
      "త్ర",
      "</w>"
    ],
    [
      "అ",
      "మ్మ"
    ],
    [
      "వి",
      "వాహ"
    ],
    [
      "పో",
      "టీ"
    ],
    [
      "న్న",
      "ారు.</w>"
    ],
    [
      "చ",
      "రి"
    ],
    [
      "సి",
      "ని"
    ],
    [
      "మ",
      "ు</w>"
    ],
    [
      "కుంట",
      "ు"
    ],
    [
      "న",
      "ృ"
    ],
    [
      "ఉ",
      "దా"
    ],
    [
      "గ",
      "ే</w>"
    ],
    [
      "నియ",
      "మ"
    ],
    [
      "వ",
      "ి.</w>"
    ],
    [
      "ల",
      "ీ</w>"
    ],
    [
      "వ",
      "బడే</w>"
    ],
    [
      "న",
      "ను</w>"
    ],
    [
      "బడ",
      "ి</w>"
    ],
    [
      "క్ష",
      "</w>"
    ],
    [
      "బ",
      "య"
    ],
    [
      "చ",
      "ట్ట"
    ],
    [
      "ఉండ",
      "ే</w>"
    ],
    [
      "ుల",
      "ుగా</w>"
    ],
    [
      "స్",
      "వీ"
    ],
    [
      "భాగ",
      "ం</w>"
    ],
    [
      "కు",
      "నే</w>"
    ],
    [
      "ఎ",
      "త్త"
    ],
    [
      "కుంట",
      "ారు.</w>"
    ],
    [
      "స",
      "ింది.</w>"
    ],
    [
      "గ",
      "త</w>"
    ],
    [
      "శ",
      "క్"
    ],
    [
      "ప్ర",
      "వేశ"
    ],
    [
      "స",
      "ాయ"
    ],
    [
      "వా",
      "ద"
    ],
    [
      "ిం",
      "ప"
    ],
    [
      "ఉదా",
      "హ"
    ],
    [
      "19",
      "5"
    ],
    [
      "రాష్ట్ర",
      "</w>"
    ],
    [
      "భ",
      "ా</w>"
    ],
    [
      "ళ్ల",
      "</w>"
    ],
    [
      "డి",
      "య"
    ],
    [
      "రోజ",
      "ు"
    ],
    [
      "ంట",
      "్</w>"
    ],
    [
      "ం",
      "పై</w>"
    ],
    [
      "వి",
      "శ్వ"
    ],
    [
      "ఖ",
      "ర్చ"
    ],
    [
      "ాని",
      "కి,</w>"
    ],
    [
      "ని",
      "వ"
    ],
    [
      "ని",
      "క</w>"
    ],
    [
      "అ",
      "ని"
    ],
    [
      "ాల",
      "ి.</w>"
    ],
    [
      "ింద",
      "ి</w>"
    ],
    [
      "తు",
      "న్న</w>"
    ],
    [
      "ను",
      "ంచి</w>"
    ],
    [
      "!",
      "</w>"
    ],
    [
      "లో",
      "నే</w>"
    ],
    [
      "పు",
      "రు"
    ],
    [
      "ఒక",
      "ట"
    ],
    [
      "సమ",
      "ూహ"
    ],
    [
      "ంట",
      "ీ"
    ],
    [
      "సం",
      "ఘ"
    ],
    [
      "సమ",
      "స్య"
    ],
    [
      "బడ",
      "ింది.</w>"
    ],
    [
      "ఆర్థ",
      "ిక</w>"
    ],
    [
      "అ",
      "డ"
    ],
    [
      "పరి",
      "స్థి"
    ],
    [
      "మ",
      "ంత్ర"
    ],
    [
      "న",
      "ద"
    ],
    [
      "వే",
      "ద"
    ],
    [
      "మి",
      "క</w>"
    ],
    [
      "జనా",
      "భా</w>"
    ],
    [
      "దే",
      "వ"
    ],
    [
      "బె",
      "ంగ"
    ],
    [
      "త",
      "ను</w>"
    ],
    [
      "హింద",
      "ూ</w>"
    ],
    [
      "మ",
      "న్</w>"
    ],
    [
      "స్ట్ర",
      "ే"
    ],
    [
      "మ",
      "్యూ"
    ],
    [
      "ఆ",
      "న"
    ],
    [
      "న్‌",
      "ను</w>"
    ],
    [
      "పశ్చి",
      "మ</w>"
    ],
    [
      "అ",
      "ంట"
    ],
    [
      "1",
      "6"
    ],
    [
      "ఛాంపి",
      "య"
    ],
    [
      "మార్",
      "గ"
    ],
    [
      "మూ",
      "ల"
    ],
    [
      "అ",
      "న"
    ],
    [
      "నృ",
      "త్య"
    ],
    [
      "ఉ",
      "ద్య"
    ],
    [
      "జ",
      "ు"
    ],
    [
      "అ",
      "మ"
    ],
    [
      "సూ",
      "చి"
    ],
    [
      "ఉ",
      "ద్"
    ],
    [
      "ఉదాహ",
      "రణ"
    ],
    [
      "దూ",
      "ర"
    ],
    [
      "పె",
      "ట్టు"
    ],
    [
      "స్",
      "కో"
    ],
    [
      "తె",
      "లియ"
    ],
    [
      "డ",
      "ంతో</w>"
    ],
    [
      "స్‌",
      "లోని</w>"
    ],
    [
      "ీ",
      "కరించ"
    ],
    [
      "ప్ట",
      "ె"
    ],
    [
      "ముఖ్య",
      "మైన</w>"
    ],
    [
      "చికిత్స",
      "</w>"
    ],
    [
      "న",
      "ాలు</w>"
    ],
    [
      "కొ",
      "ండ"
    ],
    [
      "ఎ",
      "న్ని"
    ],
    [
      "న్",
      "లు</w>"
    ],
    [
      "స్",
      "కృ"
    ],
    [
      "న",
      "మ్మ"
    ],
    [
      "చే",
      "రు"
    ],
    [
      "ో",
      "గ"
    ],
    [
      "'",
      "</w>"
    ],
    [
      "ో",
      ",</w>"
    ],
    [
      "డి",
      "ని</w>"
    ],
    [
      "స్థాని",
      "క</w>"
    ],
    [
      "పూ",
      "ర్</w>"
    ],
    [
      "న",
      "లు</w>"
    ],
    [
      "న",
      "కు</w>"
    ],
    [
      "నిర్ణ",
      "య"
    ],
    [
      "కర",
      "ణ"
    ],
    [
      "పట్ట",
      "ణ"
    ],
    [
      "జా",
      "బి"
    ],
    [
      "గ్ర",
      "హ"
    ],
    [
      "ద",
      "ొ"
    ],
    [
      "సహ",
      "ా</w>"
    ],
    [
      "ప్రాంత",
      "ంలో</w>"
    ],
    [
      "ై",
      "</w>"
    ],
    [
      "నాలుగ",
      "ు</w>"
    ],
    [
      "కను",
      "గొ"
    ],
    [
      "ంగ",
      "్</w>"
    ],
    [
      "కొనుగో",
      "లు</w>"
    ],
    [
      "క",
      "ర్</w>"
    ],
    [
      "ర",
      "క్"
    ],
    [
      "స",
      "ులు</w>"
    ],
    [
      "మ",
      "ండ"
    ],
    [
      "విని",
      "యోగ"
    ],
    [
      "ని",
      "జ"
    ],
    [
      "ఇ",
      "ద్ద"
    ],
    [
      "ప్రకార",
      "ం,</w>"
    ],
    [
      "కళ",
      "ా"
    ],
    [
      "కాల",
      "ంలో</w>"
    ],
    [
      "క్ట",
      "ో"
    ],
    [
      "తె",
      "లి"
    ],
    [
      "ద",
      "ళ"
    ],
    [
      "అవ",
      "కాశ"
    ],
    [
      "ఎ",
      "దు"
    ],
    [
      "ఒ",
      "లిం"
    ],
    [
      "వా",
      "డ"
    ],
    [
      "వ్యక్",
      "తి"
    ],
    [
      "జ",
      "ట్టు</w>"
    ],
    [
      "ట్",
      "రా"
    ],
    [
      "వార",
      "ం</w>"
    ],
    [
      "ఎ",
      "స్</w>"
    ],
    [
      "ంద",
      "ి"
    ],
    [
      "కో",
      "ర్"
    ],
    [
      "గ",
      "ు</w>"
    ],
    [
      "శ",
      "ై"
    ],
    [
      "ిం",
      "పు</w>"
    ],
    [
      "ీ",
      "య</w>"
    ],
    [
      "ఆ",
      "హార"
    ],
    [
      "వ",
      "డం</w>"
    ],
    [
      "వే",
      "గ"
    ],
    [
      "దు",
      "కా"
    ],
    [
      "ించ",
      "ాయి.</w>"
    ],
    [
      "చి",
      "వరి</w>"
    ],
    [
      "ఎ",
      "న్"
    ],
    [
      "కొన",
      "సాగ"
    ],
    [
      "పిలు",
      "వబడే</w>"
    ],
    [
      "పాల",
      "ి"
    ],
    [
      "ణ",
      "ి</w>"
    ],
    [
      "స",
      "ముద్ర"
    ],
    [
      "జీ",
      "వ"
    ],
    [
      "బ",
      "ౌ"
    ],
    [
      "సార",
      "ి</w>"
    ],
    [
      "ద",
      "గ్గ"
    ],
    [
      "చ",
      "ీ"
    ],
    [
      "నియ",
      "ంత్ర"
    ],
    [
      "ప",
      "ాడ"
    ],
    [
      "పాల్",
      "గొ"
    ],
    [
      ";",
      "</w>"
    ],
    [
      "19",
      "4"
    ],
    [
      "వస్తు",
      "వ"
    ],
    [
      "స",
      "ింగ్</w>"
    ],
    [
      "విడుద",
      "ల</w>"
    ],
    [
      "పూర్",
      "తి</w>"
    ],
    [
      "ముఖ్య",
      "ంగా</w>"
    ],
    [
      "వి",
      "వర"
    ],
    [
      "దీ",
      "నికి</w>"
    ],
    [
      "య",
      "ే"
    ],
    [
      "చర్",
      "య"
    ],
    [
      "క్ర",
      "ో"
    ],
    [
      "పై",
      "గా</w>"
    ],
    [
      "త",
      "ూ</w>"
    ],
    [
      "త",
      "ుల</w>"
    ],
    [
      "ఆ",
      "లో"
    ],
    [
      "క",
      "ాలు</w>"
    ],
    [
      "ర్",
      "లు</w>"
    ],
    [
      "సూ",
      "చ"
    ],
    [
      "వచ్చ",
      "ింది.</w>"
    ],
    [
      "ప్రమా",
      "ద"
    ],
    [
      "పాఠ",
      "శ"
    ],
    [
      "ఇ",
      "ప్పుడు</w>"
    ],
    [
      "ష్ట",
      "</w>"
    ],
    [
      "రియ",
      "ా</w>"
    ],
    [
      "జ",
      "రుగు"
    ],
    [
      "త",
      "లు</w>"
    ],
    [
      "పో",
      "లీ"
    ],
    [
      "ర్",
      ",</w>"
    ],
    [
      "ప్రసిద్ధ",
      "ి</w>"
    ],
    [
      "్యా",
      "న్ని</w>"
    ],
    [
      "రిక",
      "ార్"
    ],
    [
      "లే",
      "కపో"
    ],
    [
      "ఫ",
      "లి"
    ],
    [
      "ప్పటిక",
      "ీ</w>"
    ],
    [
      "7",
      "లో</w>"
    ],
    [
      "గు",
      "ండ"
    ],
    [
      "బడ",
      "ిన</w>"
    ],
    [
      "అంతర్",
      "జాతీయ</w>"
    ],
    [
      "పె",
      "ద్ద"
    ],
    [
      "క",
      "లు"
    ],
    [
      "1",
      "లో</w>"
    ],
    [
      "ఒలిం",
      "ప"
    ],
    [
      "ండ",
      "ి,</w>"
    ],
    [
      "చే",
      "స్తుంది.</w>"
    ],
    [
      "ఫ్",
      "రా"
    ],
    [
      "20",
      "2"
    ],
    [
      "గ",
      "ౌ"
    ],
    [
      "ట",
      "ే"
    ],
    [
      "దా",
      "న్ని</w>"
    ],
    [
      "మీటర్",
      "ల</w>"
    ],
    [
      "వీ",
      "టి"
    ],
    [
      "ఓ",
      "డ"
    ],
    [
      "వాటి",
      "ని</w>"
    ],
    [
      "దాని",
      "ని</w>"
    ],
    [
      "నే",
      "షనల్</w>"
    ],
    [
      "త",
      "ుల"
    ],
    [
      "రోజ",
      "ు</w>"
    ],
    [
      "ల",
      "్ట"
    ],
    [
      "ప్ర",
      "యా"
    ],
    [
      "వయ",
      "సులో</w>"
    ],
    [
      "దార",
      "ి"
    ],
    [
      "వృ",
      "త్త"
    ],
    [
      "ద",
      "ృష్ట"
    ],
    [
      "ర్",
      "యా"
    ],
    [
      "గ",
      "మ"
    ],
    [
      "కార్య",
      "క్రమ"
    ],
    [
      "అ",
      "ప్ప"
    ],
    [
      "ప",
      "్‌"
    ],
    [
      "సమా",
      "చార"
    ],
    [
      "ా",
      "ంత"
    ],
    [
      "వంత",
      "మైన</w>"
    ],
    [
      "కని",
      "పి"
    ],
    [
      "క",
      "ంప"
    ],
    [
      "వ్య",
      "తి"
    ],
    [
      "స్",
      "సు</w>"
    ],
    [
      "పురు",
      "ష"
    ],
    [
      "తా",
      "ను</w>"
    ],
    [
      "వ్యతి",
      "రే"
    ],
    [
      "శి",
      "క్ష"
    ],
    [
      "న్",
      "సి"
    ],
    [
      "కా",
      "ం"
    ],
    [
      "2",
      "లో</w>"
    ],
    [
      "స",
      "ృష్ట"
    ],
    [
      "జ",
      "ట్టు"
    ],
    [
      "కొ",
      "ంత"
    ],
    [
      "ఆ",
      "స్ట్రే"
    ],
    [
      "ించబడ",
      "ిన</w>"
    ],
    [
      "ల్",
      "డ్</w>"
    ],
    [
      "స్‌",
      "కు</w>"
    ],
    [
      "వై",
      "ద్య"
    ],
    [
      "ఇ",
      "ందు"
    ],
    [
      "బ",
      "ర్</w>"
    ],
    [
      "గ",
      "ంట"
    ],
    [
      "చూ",
      "ప"
    ],
    [
      "మ",
      "య్య"
    ],
    [
      "ఫో",
      "ర్"
    ],
    [
      "ంగ",
      "్ల"
    ],
    [
      "మ",
      "ంచి</w>"
    ],
    [
      "మ",
      "ౌ"
    ],
    [
      "అ",
      "క్కడ</w>"
    ],
    [
      "రా",
      "నికి</w>"
    ],
    [
      "వచ్చ",
      "ిన</w>"
    ],
    [
      "ఇ",
      "వి</w>"
    ],
    [
      "చ",
      "ై"
    ],
    [
      "పో",
      "రా"
    ],
    [
      "ప",
      "త"
    ],
    [
      "స్థాన",
      "ంలో</w>"
    ],
    [
      "ూ",
      ",</w>"
    ],
    [
      "క",
      "ై"
    ],
    [
      "వ",
      "ీ</w>"
    ],
    [
      "న్‌",
      "లోని</w>"
    ],
    [
      "పే",
      "రు"
    ],
    [
      "రా",
      "త్ర"
    ],
    [
      "ాల",
      "ుగా</w>"
    ],
    [
      "ఒ",
      "ప్ప"
    ],
    [
      "వా",
      "న్ని</w>"
    ],
    [
      "ఏర్",
      "పాటు</w>"
    ],
    [
      "ఇండ",
      "ి"
    ],
    [
      "వ",
      "ర్</w>"
    ],
    [
      "స్థ",
      "ాయి"
    ],
    [
      "వ",
      "ంట"
    ],
    [
      "పడ",
      "ి</w>"
    ],
    [
      "అ",
      "ంటే</w>"
    ],
    [
      "స్త",
      "ాడు.</w>"
    ],
    [
      "టి",
      "కి</w>"
    ],
    [
      "చ",
      "్‌"
    ],
    [
      "య",
      "ంగా</w>"
    ],
    [
      "బ్",
      "రా"
    ],
    [
      "క",
      "ుల</w>"
    ],
    [
      "రాజ",
      "కీ"
    ],
    [
      "ుల",
      "్</w>"
    ],
    [
      "ఆట",
      "గా"
    ],
    [
      "ఎ",
      "ం"
    ],
    [
      "వ్యాధ",
      "ి</w>"
    ],
    [
      "ఇందు",
      "లో</w>"
    ],
    [
      "వ",
      "ంశ"
    ],
    [
      "ఆలో",
      "చ"
    ],
    [
      "ణ",
      "ా</w>"
    ],
    [
      "ప",
      "ని</w>"
    ],
    [
      "ప",
      "ార్"
    ],
    [
      "ప్రభుత్",
      "వం</w>"
    ],
    [
      "సే",
      "వ"
    ],
    [
      "సంవత్సర",
      "ం</w>"
    ],
    [
      "ప",
      "డ్డ"
    ],
    [
      "నా",
      "ట"
    ],
    [
      "మర",
      "ొ"
    ],
    [
      "వ్యక్",
      "తి</w>"
    ],
    [
      "ఇ",
      "ం"
    ],
    [
      "ో",
      "ంది.</w>"
    ],
    [
      "అ",
      "ర్థ"
    ],
    [
      "ని",
      "లిచ"
    ],
    [
      "ప్రభా",
      "వి"
    ],
    [
      "బ",
      "ంత"
    ],
    [
      "వ",
      "ే</w>"
    ],
    [
      "కో",
      "ండి.</w>"
    ],
    [
      "నిమి",
      "ష"
    ],
    [
      "త",
      "ల్ల"
    ],
    [
      "క",
      "ట్ట"
    ],
    [
      "ట",
      "ింగ్</w>"
    ],
    [
      "ష",
      "ే"
    ],
    [
      "సం",
      "ప్రదాయ"
    ],
    [
      "తూర్",
      "పు</w>"
    ],
    [
      "నిర్",
      "ధార"
    ],
    [
      "బా",
      "టు"
    ],
    [
      "బ",
      "ొ"
    ],
    [
      "చేశ",
      "ాడు.</w>"
    ],
    [
      "ఫు",
      "ట్‌"
    ],
    [
      "ె",
      "స్</w>"
    ],
    [
      "బ",
      "ై"
    ],
    [
      "ఆ",
      "ల్"
    ],
    [
      "గు",
      "రు</w>"
    ],
    [
      "అతి",
      "పెద్ద</w>"
    ],
    [
      "ఆ",
      "గ"
    ],
    [
      "అలా",
      "గే</w>"
    ],
    [
      "న్య",
      "ాయ"
    ],
    [
      "పో",
      "ర్"
    ],
    [
      "క",
      "ా</w>"
    ],
    [
      "ఒకట",
      "ి.</w>"
    ],
    [
      "ప్రత్యే",
      "క</w>"
    ],
    [
      "బ",
      "ంగ"
    ],
    [
      "అ",
      "ంచ"
    ],
    [
      "గ్ర",
      "ీ"
    ],
    [
      "ప్రాంత",
      "ం</w>"
    ],
    [
      "గొ",
      "ప్ప"
    ],
    [
      "తి",
      "లో</w>"
    ],
    [
      "ాయ",
      "ని</w>"
    ],
    [
      "అవ",
      "ు"
    ],
    [
      "తొ",
      "ల"
    ],
    [
      "త",
      "ంలో</w>"
    ],
    [
      "ప",
      "రు"
    ],
    [
      "రియ",
      "ా"
    ],
    [
      "భాగ",
      "ంలో</w>"
    ],
    [
      "వ",
      "ు.</w>"
    ],
    [
      "త",
      "ల"
    ],
    [
      "రి",
      "కా"
    ],
    [
      "?",
      "</w>"
    ],
    [
      "ఉండే",
      "ది.</w>"
    ],
    [
      "కా",
      "బ"
    ],
    [
      "ఉండ",
      "వచ్చు.</w>"
    ],
    [
      "ించ",
      "ండి.</w>"
    ],
    [
      "హ",
      "ీ"
    ],
    [
      "ి",
      "పోయ"
    ],
    [
      "మ",
      "వు"
    ],
    [
      "పు",
      "ర"
    ],
    [
      "స్",
      "వర"
    ],
    [
      "డి",
      "సె"
    ],
    [
      "%",
      "</w>"
    ],
    [
      "వి",
      "మా"
    ],
    [
      "ర",
      "ు.</w>"
    ],
    [
      "ార",
      "ు"
    ],
    [
      "ఉ",
      "ంచ"
    ],
    [
      "వచ్చ",
      "ే</w>"
    ],
    [
      "ఇ",
      "న్"
    ],
    [
      "పో",
      "ష"
    ],
    [
      "మెంట",
      "్</w>"
    ],
    [
      "6",
      "లో</w>"
    ],
    [
      "ాల",
      "య"
    ],
    [
      "ఎ",
      "ంత</w>"
    ],
    [
      "ుల",
      "ు"
    ],
    [
      "ద",
      "ాయ"
    ],
    [
      "ద",
      "ో"
    ],
    [
      "అ",
      "ంగ"
    ],
    [
      "బో",
      "ర్"
    ],
    [
      "సంద",
      "ర్భ"
    ],
    [
      "గా",
      "న్ని</w>"
    ],
    [
      "టు",
      "వంటి</w>"
    ],
    [
      "స్ట",
      "ు</w>"
    ],
    [
      "దారి",
      "తీ"
    ],
    [
      "ల్",
      "ప"
    ],
    [
      "శ్ర",
      "ే"
    ],
    [
      "ని",
      "యా"
    ],
    [
      "స్తు",
      "ంది,</w>"
    ],
    [
      "న్‌",
      "కు</w>"
    ],
    [
      "వ",
      "రు"
    ],
    [
      "వే",
      "స"
    ],
    [
      "ద్",
      "వీ"
    ],
    [
      "ని",
      "ధ"
    ],
    [
      "చేస",
      "ి</w>"
    ],
    [
      "సె",
      "ప్టె"
    ],
    [
      "ప",
      "ౌ"
    ],
    [
      "మ",
      "హా"
    ],
    [
      "అత్య",
      "ధ"
    ],
    [
      "ఉ",
      "ంది,</w>"
    ],
    [
      "మర",
      "ో</w>"
    ],
    [
      "ఉ",
      "ద"
    ],
    [
      "ఎన్ని",
      "క"
    ],
    [
      "1",
      "0</w>"
    ],
    [
      "అంద",
      "ి"
    ],
    [
      "యు",
      "క్"
    ],
    [
      "తెలు",
      "సు"
    ],
    [
      "చే",
      "స్తారు.</w>"
    ],
    [
      "విడుద",
      "లై"
    ],
    [
      "19",
      "</w>"
    ],
    [
      "త",
      "ాడు.</w>"
    ],
    [
      "ఏ",
      "ప్రి"
    ],
    [
      "కోవ",
      "డం</w>"
    ],
    [
      "మ",
      "ద్ద"
    ],
    [
      "ప",
      "ాయ"
    ],
    [
      "వి",
      "భ"
    ],
    [
      "ఇంట",
      "ర్"
    ],
    [
      "ర్‌",
      "లో</w>"
    ],
    [
      "అ",
      "క్టో"
    ],
    [
      "ఎ",
      "స్‌"
    ],
    [
      "దుకా",
      "ణ"
    ],
    [
      "సా",
      "మా"
    ],
    [
      "తీసు",
      "కు"
    ],
    [
      "న",
      "ొ"
    ],
    [
      "ఐ",
      "దు</w>"
    ],
    [
      "ర్",
      "ఘ"
    ],
    [
      "స్త",
      "ూ</w>"
    ],
    [
      "స్తు",
      "న్న</w>"
    ],
    [
      "న",
      "ర్</w>"
    ],
    [
      "8",
      "లో</w>"
    ],
    [
      "న్",
      "ను</w>"
    ],
    [
      "న",
      "ది"
    ],
    [
      "5",
      "లో</w>"
    ],
    [
      "4",
      "లో</w>"
    ],
    [
      "రాష్ట్ర",
      "ంలో</w>"
    ],
    [
      "మార్చ",
      "ి</w>"
    ],
    [
      "సాం",
      "ప్రదాయ"
    ],
    [
      "బ",
      "ార"
    ],
    [
      "బా",
      "గా</w>"
    ],
    [
      "లే",
      "ని</w>"
    ],
    [
      "కర",
      "ణ</w>"
    ],
    [
      "ద",
      "శ"
    ],
    [
      "ఆట",
      "</w>"
    ],
    [
      "విస్త",
      "ృ"
    ],
    [
      "ము",
      "స్"
    ],
    [
      "కూడ",
      "ిన</w>"
    ],
    [
      "శా",
      "స"
    ],
    [
      "వి",
      "లు"
    ],
    [
      "ఉ",
      "ష్ణ"
    ],
    [
      "త్",
      "వ"
    ],
    [
      "ం",
      "లోకి</w>"
    ],
    [
      "1",
      "3"
    ],
    [
      "చ",
      "ే</w>"
    ],
    [
      "ళ",
      "న"
    ],
    [
      "త్మ",
      "క</w>"
    ],
    [
      "చేయబడ",
      "ింది.</w>"
    ],
    [
      "సాధార",
      "ణ"
    ],
    [
      "రక",
      "ాల</w>"
    ],
    [
      "క",
      "త్వం</w>"
    ],
    [
      "విశ్వ",
      "విద్య"
    ],
    [
      "చె",
      "బు"
    ],
    [
      "పర్",
      "యా"
    ],
    [
      "మొ",
      "ఘ"
    ],
    [
      "ర",
      "హ"
    ],
    [
      "వా",
      "టి</w>"
    ],
    [
      "బ",
      "ృ"
    ],
    [
      "లు",
      "గా</w>"
    ],
    [
      "ధ",
      "ీ"
    ],
    [
      "మ",
      "ం</w>"
    ],
    [
      "ఉండ",
      "ింది.</w>"
    ],
    [
      "వే",
      "డు"
    ],
    [
      "జ",
      "ంత"
    ],
    [
      "ర",
      "ాల"
    ],
    [
      "త్య",
      "</w>"
    ],
    [
      "సై",
      "న్"
    ],
    [
      "బ",
      "ద"
    ],
    [
      "పర్",
      "వ"
    ],
    [
      "పొ",
      "డ"
    ],
    [
      "అ",
      "డు"
    ],
    [
      "రాజ",
      "ు</w>"
    ],
    [
      "చేస",
      "ి,</w>"
    ],
    [
      "జన",
      "వరి</w>"
    ],
    [
      "స్‌",
      "ను</w>"
    ],
    [
      "పరి",
      "గణ"
    ],
    [
      "స",
      "న్</w>"
    ],
    [
      "ద",
      "ా</w>"
    ],
    [
      "పర",
      "మైన</w>"
    ],
    [
      "త్ర",
      "ి"
    ],
    [
      "వివాహ",
      "ం</w>"
    ],
    [
      "ప",
      "ద్ధ"
    ],
    [
      "జరిగ",
      "ింది.</w>"
    ],
    [
      "డబ్బ",
      "ు</w>"
    ],
    [
      "మరణ",
      "ించాడు.</w>"
    ],
    [
      "దాడ",
      "ి</w>"
    ],
    [
      "సా",
      "హి"
    ],
    [
      "అద",
      "ే</w>"
    ],
    [
      "ాల్",
      "సి</w>"
    ],
    [
      "కే",
      "ర"
    ],
    [
      "అ",
      "ం"
    ],
    [
      "జ",
      "ా</w>"
    ],
    [
      "మో",
      "ద"
    ],
    [
      "ఎ",
      "ందు"
    ],
    [
      "వి",
      "ధా"
    ],
    [
      "కో",
      "ట"
    ],
    [
      "తొల",
      "గ"
    ],
    [
      "ప్రస్తు",
      "త</w>"
    ],
    [
      "మై",
      "ంది.</w>"
    ],
    [
      "ల్",
      ",</w>"
    ],
    [
      "కొ",
      "న్ని"
    ],
    [
      "అవకాశ",
      "ం</w>"
    ],
    [
      "0",
      "లో</w>"
    ],
    [
      "వా",
      "ణి"
    ],
    [
      "ఆ",
      "సి"
    ],
    [
      "తా",
      "న్ని</w>"
    ],
    [
      "జ",
      "ార"
    ],
    [
      "ించ",
      "ారు,</w>"
    ],
    [
      "ప్ర",
      "ముఖ"
    ],
    [
      "ఏ",
      "ద"
    ],
    [
      "డ",
      "ై"
    ],
    [
      "వచ్చ",
      "ు,</w>"
    ],
    [
      "వాణి",
      "జ"
    ],
    [
      "స్ట",
      "్"
    ],
    [
      "కంప",
      "్యూ"
    ],
    [
      "బ",
      "ీ</w>"
    ],
    [
      "వి",
      "డి"
    ],
    [
      "సంబంధ",
      "ించిన</w>"
    ],
    [
      "ని",
      "వా"
    ],
    [
      "ముస్",
      "లిం"
    ],
    [
      "చ్",
      "ఛ"
    ],
    [
      "చ",
      "ి</w>"
    ],
    [
      "జ",
      "ల"
    ],
    [
      "క్క",
      "ల</w>"
    ],
    [
      "ర్‌",
      "గా</w>"
    ],
    [
      "కంపె",
      "నీ"
    ],
    [
      "1",
      "2"
    ],
    [
      "ప్ర",
      "ొ"
    ],
    [
      "మి",
      "లియ"
    ],
    [
      "చ",
      "క్ర"
    ],
    [
      "ి",
      "త</w>"
    ],
    [
      "శో",
      "ధ"
    ],
    [
      "గ",
      "లి"
    ],
    [
      "వ",
      "డానికి</w>"
    ],
    [
      "అధ",
      "ిక</w>"
    ],
    [
      ")",
      ",</w>"
    ],
    [
      "పం",
      "జా"
    ],
    [
      "ంత",
      "ో,</w>"
    ],
    [
      "ింగ",
      "్"
    ],
    [
      "త",
      "ు</w>"
    ],
    [
      "ఉత్పత్త",
      "ి</w>"
    ],
    [
      "ణ",
      "్య"
    ],
    [
      "స్టే",
      "ట్"
    ],
    [
      "స్",
      "నే"
    ],
    [
      "వి",
      "క్ర"
    ],
    [
      "న",
      "ని</w>"
    ],
    [
      "ింద",
      "ని</w>"
    ],
    [
      "రా",
      "న్ని</w>"
    ],
    [
      "కో",
      "ల్"
    ],
    [
      "సం",
      "స్కృ"
    ],
    [
      "ది",
      "గు"
    ],
    [
      "3",
      "లో</w>"
    ],
    [
      "ఆన",
      "ంద"
    ],
    [
      "ం",
      "థ"
    ],
    [
      "పె",
      "రుగు"
    ],
    [
      "దీ",
      "ర్ఘ"
    ],
    [
      "ఫ",
      "ల"
    ],
    [
      "ప",
      "ంప"
    ],
    [
      "ళ్ల",
      "ు</w>"
    ],
    [
      "జూ",
      "న్</w>"
    ],
    [
      "కే",
      "వల"
    ],
    [
      "అధ్య",
      "క్ష"
    ],
    [
      "ప",
      "క్ష"
    ],
    [
      "వ",
      "ాయ"
    ],
    [
      "బడ",
      "్డ"
    ],
    [
      "మరణ",
      "ించారు.</w>"
    ],
    [
      "మ్",
      "స్</w>"
    ],
    [
      "మి",
      "గి"
    ],
    [
      "ఖ",
      "ండ"
    ],
    [
      "స",
      "ుల"
    ],
    [
      "న",
      "ూ"
    ],
    [
      "పొంద",
      "ిన</w>"
    ],
    [
      "అ",
      "ంశ"
    ],
    [
      "ఆ",
      "ఫ్"
    ],
    [
      "కేవల",
      "ం</w>"
    ],
    [
      "న",
      "ార్"
    ],
    [
      "1",
      "4"
    ],
    [
      "శతాబ్ద",
      "ం</w>"
    ],
    [
      "హార",
      "ా"
    ],
    [
      "స్ట",
      "ి"
    ],
    [
      "నీ",
      "టి</w>"
    ],
    [
      "ఎ",
      "ఫ్"
    ],
    [
      "స",
      "ొ"
    ],
    [
      "తు",
      "ఫా"
    ],
    [
      "వై",
      "ర"
    ],
    [
      "9",
      "లో</w>"
    ],
    [
      "బృ",
      "ంద"
    ],
    [
      "సంస్థ",
      "</w>"
    ],
    [
      "డ",
      "ంలో</w>"
    ],
    [
      "మ",
      "రా"
    ],
    [
      "దే",
      "వాల"
    ],
    [
      "ించబడ",
      "ుతుంది.</w>"
    ],
    [
      "కు",
      "ని</w>"
    ],
    [
      "పె",
      "రిగ"
    ],
    [
      "ఫి",
      "బ్ర"
    ],
    [
      "ంగ",
      "్"
    ],
    [
      "గొప్ప",
      "</w>"
    ],
    [
      "స",
      "గ"
    ],
    [
      "శా",
      "తం</w>"
    ],
    [
      "తు",
      "ంది,</w>"
    ],
    [
      "కంపె",
      "నీ</w>"
    ],
    [
      "ర",
      "ే</w>"
    ],
    [
      "ప్రధా",
      "నంగా</w>"
    ],
    [
      "మ",
      "హ"
    ],
    [
      "మ",
      "హారా"
    ],
    [
      "ప్రకార",
      "ం</w>"
    ],
    [
      "ఫ",
      "్‌"
    ],
    [
      "నగర",
      "ం.</w>"
    ],
    [
      "ె",
      "ట్</w>"
    ],
    [
      "తి",
      "రుగు"
    ],
    [
      "ే",
      "ష"
    ],
    [
      "ము",
      "ని"
    ],
    [
      "ఎందు",
      "కంటే</w>"
    ],
    [
      "చు",
      "ట్ట"
    ],
    [
      "నిర్",
      "ది"
    ],
    [
      "సంగీ",
      "త</w>"
    ],
    [
      "జ",
      "ర"
    ],
    [
      "ప్రారంభ",
      "</w>"
    ],
    [
      "అద",
      "న"
    ],
    [
      "నా",
      ",</w>"
    ],
    [
      "ప",
      "ుల"
    ],
    [
      "అవసర",
      "ం</w>"
    ],
    [
      "కలిగ",
      "ిన</w>"
    ],
    [
      "పరి",
      "పాల"
    ],
    [
      "చే",
      "సిన"
    ],
    [
      "ు",
      "డిగా</w>"
    ],
    [
      "వర్",
      "ష"
    ],
    [
      "పరి",
      "మి"
    ],
    [
      "సీ",
      "జ"
    ],
    [
      "జూ",
      "లై"
    ],
    [
      "మూడ",
      "వ</w>"
    ],
    [
      "ప్రభుత్",
      "వ</w>"
    ],
    [
      "గు",
      "హ"
    ],
    [
      "వార",
      "ిని</w>"
    ],
    [
      "ర",
      "ూ</w>"
    ],
    [
      "సమీప",
      "ంలో</w>"
    ],
    [
      "కి",
      "లో"
    ],
    [
      "ర్",
      "స్</w>"
    ],
    [
      "వై",
      "పు</w>"
    ],
    [
      "స్త",
      "ారు,</w>"
    ],
    [
      "క",
      "ాల</w>"
    ],
    [
      "రా",
      "శ"
    ],
    [
      "వ",
      "ులు</w>"
    ],
    [
      "స్ట",
      "ర్</w>"
    ],
    [
      "మరొ",
      "క</w>"
    ],
    [
      "గా",
      "నే</w>"
    ],
    [
      "హ్",
      "మ"
    ],
    [
      "స్వా",
      "ధీ"
    ],
    [
      "చి",
      "వరి"
    ],
    [
      "తీ",
      "య"
    ],
    [
      "సా",
      "మ"
    ],
    [
      "కొ",
      "ంత</w>"
    ],
    [
      "శ్ర",
      "ీ"
    ],
    [
      "సహాయ",
      "ం</w>"
    ],
    [
      "పురా",
      "తన</w>"
    ],
    [
      "ి",
      "పో"
    ],
    [
      "క్ర",
      "ా"
    ],
    [
      "ఏర్",
      "పడ"
    ],
    [
      "వ",
      "న"
    ],
    [
      "మరా",
      "ఠ"
    ],
    [
      "ఒప్ప",
      "ంద"
    ],
    [
      "సమ",
      "యం</w>"
    ],
    [
      "చరి",
      "త్ర"
    ],
    [
      "న",
      "లో</w>"
    ],
    [
      "ఆట",
      "గ"
    ],
    [
      "పిలు",
      "స్తారు.</w>"
    ],
    [
      "కె",
      "న"
    ],
    [
      "సం",
      "భవ"
    ],
    [
      "కాల",
      "్"
    ],
    [
      "ఫ్ర",
      "ె"
    ],
    [
      "ష",
      "ా</w>"
    ],
    [
      "కల్",
      "ప"
    ],
    [
      "స",
      "ింగ"
    ],
    [
      "హ",
      "ద్ద"
    ],
    [
      "ఆస్ట్రే",
      "లి"
    ],
    [
      "వర్",
      "ణ"
    ],
    [
      "త",
      "ిక"
    ],
    [
      "ద",
      "ె"
    ],
    [
      "అయి",
      "న"
    ],
    [
      "డ",
      "ా</w>"
    ],
    [
      "త",
      "్యా"
    ],
    [
      "శా",
      "ఖ"
    ],
    [
      "పూర్",
      "తిగా</w>"
    ],
    [
      "గో",
      "ల్</w>"
    ],
    [
      "ద్వీ",
      "ప"
    ],
    [
      "ద",
      "ని</w>"
    ],
    [
      "ద",
      "ి,</w>"
    ],
    [
      "త",
      "ార"
    ],
    [
      "ఉత్త",
      "మ</w>"
    ],
    [
      "రు",
      "ద్ధ"
    ],
    [
      "తి",
      "కి</w>"
    ],
    [
      "లే",
      "కుండా</w>"
    ],
    [
      "స్త",
      "ోంది.</w>"
    ],
    [
      "ప",
      "ర్</w>"
    ],
    [
      "అమెరిక",
      "న్</w>"
    ],
    [
      "మొద",
      "టి"
    ],
    [
      "ది",
      "గా</w>"
    ],
    [
      "చ్చ",
      "ి"
    ],
    [
      "త",
      "ులను</w>"
    ],
    [
      "స",
      "లు</w>"
    ],
    [
      "ఏప్రి",
      "ల్</w>"
    ],
    [
      "సామ్",
      "రాజ"
    ],
    [
      "తర్",
      "వాత,</w>"
    ],
    [
      "చ",
      "ర్చ"
    ],
    [
      "పో",
      "టీ</w>"
    ],
    [
      "విష",
      "య"
    ],
    [
      "ఎ",
      "లా</w>"
    ],
    [
      "అత",
      "నికి</w>"
    ],
    [
      "ప్ర",
      "ణా"
    ],
    [
      "దూర",
      "ంలో</w>"
    ],
    [
      "క",
      "ుల"
    ],
    [
      "20",
      "20</w>"
    ],
    [
      "ప్ర",
      "జా"
    ],
    [
      "ఫ",
      "్ల"
    ],
    [
      "పా",
      "కి"
    ],
    [
      "ఇద్ద",
      "రు</w>"
    ],
    [
      "భ",
      "ద్ర"
    ],
    [
      "క",
      "ే</w>"
    ],
    [
      "ర్‌",
      "ను</w>"
    ],
    [
      "ళ్ళ",
      "</w>"
    ],
    [
      "క",
      "ణ"
    ],
    [
      "ప్రణా",
      "ళ"
    ],
    [
      "వా",
      "తా"
    ],
    [
      "స్త",
      "ే</w>"
    ],
    [
      "సె",
      "ంట"
    ],
    [
      "ప్పుడ",
      "ూ</w>"
    ],
    [
      "ప్రాంత",
      "ాలలో</w>"
    ],
    [
      "ఒక",
      "టి</w>"
    ],
    [
      "ాడ",
      "ని</w>"
    ],
    [
      "అ",
      "న్న"
    ],
    [
      "ర",
      "ం"
    ],
    [
      "ఉదాహరణ",
      "కు,</w>"
    ],
    [
      "వ",
      "ో"
    ],
    [
      "ని",
      "వేద"
    ],
    [
      "బ",
      "్లా"
    ],
    [
      "ఫ",
      "ే"
    ],
    [
      "నిర్ది",
      "ష్ట</w>"
    ],
    [
      "స్",
      "కా"
    ],
    [
      "యా",
      "లో</w>"
    ],
    [
      "ప",
      "ి</w>"
    ],
    [
      "వ్యాప్",
      "తంగా</w>"
    ],
    [
      "వర్",
      "గ"
    ],
    [
      "1",
      "2</w>"
    ],
    [
      "నీ",
      "టి"
    ],
    [
      "ఉన్న",
      "ాయి,</w>"
    ],
    [
      "మ",
      "ల"
    ],
    [
      "వాతా",
      "వర"
    ],
    [
      "సంద",
      "ర్శ"
    ],
    [
      "వ",
      "ిం"
    ],
    [
      "రాజకీ",
      "య</w>"
    ],
    [
      "అ",
      "వార్"
    ],
    [
      "జ",
      "</w>"
    ],
    [
      "తో",
      ",</w>"
    ],
    [
      "డి",
      "కి</w>"
    ],
    [
      "ల",
      "ూ"
    ],
    [
      "బా",
      "ధ"
    ],
    [
      "పోయ",
      "ింది.</w>"
    ],
    [
      "ద",
      "ృ"
    ],
    [
      "అత్యధ",
      "ిక</w>"
    ],
    [
      "ింద",
      "</w>"
    ],
    [
      "విస్త",
      "రించ"
    ],
    [
      "స్ప",
      "ష్ట"
    ],
    [
      "య",
      "ిం"
    ],
    [
      "ప్ర",
      "యో"
    ],
    [
      "ఆధ",
      "ు"
    ],
    [
      "టో",
      "ర్"
    ],
    [
      "సరి",
      "హద్ద"
    ],
    [
      "ంగ",
      "ా"
    ],
    [
      "న",
      "ౌ"
    ],
    [
      "క్ల",
      "ి"
    ],
    [
      "అధ",
      "ి"
    ],
    [
      "క",
      "ష్ట"
    ],
    [
      "స",
      "ే</w>"
    ],
    [
      "చెంద",
      "ిన"
    ],
    [
      "స్ట",
      "ో"
    ],
    [
      "అభ",
      "్య"
    ],
    [
      "స్వాధీ",
      "నం</w>"
    ],
    [
      "భార",
      "ీ</w>"
    ],
    [
      "మ",
      "ాల"
    ],
    [
      "శ",
      "రీ"
    ],
    [
      "ఫ",
      "ార్"
    ],
    [
      "డ",
      "ే</w>"
    ],
    [
      "తి",
      "క</w>"
    ],
    [
      "ది",
      "రి"
    ],
    [
      "5",
      "0</w>"
    ],
    [
      "న్",
      "ల</w>"
    ],
    [
      "సా",
      "ఫ్ట"
    ],
    [
      "19",
      "3"
    ],
    [
      "తీవ్ర",
      "మైన</w>"
    ],
    [
      "డియ",
      "ో</w>"
    ],
    [
      "భా",
      "వి"
    ],
    [
      "రో",
      "ధ"
    ],
    [
      "కాల",
      "ే"
    ],
    [
      "రు",
      "గా</w>"
    ],
    [
      "భ",
      "య"
    ],
    [
      "బె",
      "ర్"
    ],
    [
      "ఆ",
      "రోగ"
    ],
    [
      "పరీ",
      "క్ష"
    ],
    [
      "కా",
      "న్ని</w>"
    ],
    [
      "ము",
      "గి"
    ],
    [
      "పు",
      "స్త"
    ],
    [
      "ుల్",
      "లో</w>"
    ],
    [
      "చుట్ట",
      "ూ</w>"
    ],
    [
      "సా",
      "హ"
    ],
    [
      "డ",
      "ం,</w>"
    ],
    [
      "చ",
      "ల"
    ],
    [
      "అ",
      "ప్పుడు</w>"
    ],
    [
      "భారతదేశ",
      "ం</w>"
    ],
    [
      "ఉంటు",
      "ంది,</w>"
    ],
    [
      "కు",
      "డ"
    ],
    [
      "నిర్మా",
      "ణ"
    ],
    [
      "రోజ",
      "ుల</w>"
    ],
    [
      "అధ్య",
      "య"
    ],
    [
      "రి",
      "ప"
    ],
    [
      "ల",
      "పై</w>"
    ],
    [
      "నీ",
      "య"
    ],
    [
      "ని",
      "ర"
    ],
    [
      "క",
      "రి"
    ],
    [
      "ర",
      "ల్</w>"
    ],
    [
      "అ",
      "ల్"
    ],
    [
      "పాత్ర",
      "</w>"
    ],
    [
      "త",
      "ాల"
    ],
    [
      "ప",
      "ట్టు"
    ],
    [
      "జ",
      "పా"
    ],
    [
      "వే",
      "రు</w>"
    ],
    [
      "న్",
      "స్‌"
    ],
    [
      "కొన్ని",
      "సార్లు</w>"
    ],
    [
      "ధ",
      "ర"
    ],
    [
      "శ",
      "ా</w>"
    ],
    [
      "కొంత",
      "మంది</w>"
    ],
    [
      "యుద్ధ",
      "ం</w>"
    ],
    [
      "ె",
      "</w>"
    ],
    [
      "స్థ",
      "ల"
    ],
    [
      "ఫుట్‌",
      "బాల్</w>"
    ],
    [
      "సం",
      "యుక్"
    ],
    [
      "స్థి",
      "ర"
    ],
    [
      "ప్రయా",
      "ణ"
    ],
    [
      "జ",
      "ర్</w>"
    ],
    [
      "నివ",
      "స"
    ],
    [
      "స్",
      "లా"
    ],
    [
      "రాష్ట్ర",
      "ంలోని</w>"
    ],
    [
      "స",
      "ల"
    ],
    [
      "నా",
      "థ"
    ],
    [
      "విజ",
      "యం</w>"
    ],
    [
      "ధ",
      "ు"
    ],
    [
      "ఒక",
      "ే</w>"
    ],
    [
      "ఒ",
      "క్క"
    ],
    [
      "ియ",
      "న్</w>"
    ],
    [
      "జ్ఞ",
      "ా"
    ],
    [
      "హ",
      "ార్"
    ],
    [
      "ఎ",
      "ంప"
    ],
    [
      "ప",
      "థ"
    ],
    [
      "ర్‌",
      "కు</w>"
    ],
    [
      "జ",
      "య"
    ],
    [
      "మై",
      "దా"
    ],
    [
      "ట",
      "న్</w>"
    ],
    [
      "యు",
      "వ"
    ],
    [
      "ప్రభా",
      "వ"
    ],
    [
      "చే",
      "ర"
    ],
    [
      "ఇ",
      "ష్ట"
    ],
    [
      "వై",
      "న</w>"
    ],
    [
      "ఎ",
      "క్"
    ],
    [
      "గౌ",
      "ర"
    ],
    [
      "ఎ",
      "న్‌"
    ],
    [
      "దార",
      "ులు</w>"
    ],
    [
      "లీ",
      "గ్</w>"
    ],
    [
      "నిర్",
      "వహి"
    ],
    [
      "ప్రసిద్ధ",
      "</w>"
    ],
    [
      "జ",
      "ార్"
    ],
    [
      "ల",
      "ు.</w>"
    ],
    [
      "201",
      "4</w>"
    ],
    [
      "ర్",
      "ష"
    ],
    [
      "ల",
      "భ"
    ],
    [
      "మొఘ",
      "ల్</w>"
    ],
    [
      "క",
      "లా"
    ],
    [
      "నా",
      "టికి</w>"
    ],
    [
      "అందు",
      "బాటు"
    ],
    [
      "తొ",
      "లి</w>"
    ],
    [
      "స",
      "ిక"
    ],
    [
      "జూలై",
      "</w>"
    ],
    [
      "ఆధార",
      "ంగా</w>"
    ],
    [
      "జ",
      "ైన</w>"
    ],
    [
      "ఆధు",
      "నిక</w>"
    ],
    [
      "విభ",
      "జ"
    ],
    [
      "వయ",
      "స్"
    ],
    [
      ".",
      "మీ"
    ],
    [
      "స్",
      "య</w>"
    ],
    [
      "కా",
      "దు.</w>"
    ],
    [
      "పని",
      "చేశారు.</w>"
    ],
    [
      "పరి",
      "చ"
    ],
    [
      "బ",
      "్‌"
    ],
    [
      "మొద",
      "ట</w>"
    ],
    [
      "వి",
      "భాగ"
    ],
    [
      "విమా",
      "నా"
    ],
    [
      "విమానా",
      "శ్ర"
    ],
    [
      "గ్ర",
      "ంథ"
    ],
    [
      "మా",
      "ణ"
    ],
    [
      "స్ట్ర",
      "ో"
    ],
    [
      "వి",
      "మ"
    ],
    [
      "కాం",
      "గ్ర"
    ],
    [
      "ించబడ",
      "్డ"
    ],
    [
      "కొ",
      "ట్ట"
    ],
    [
      "అ",
      "ర"
    ],
    [
      "పరి",
      "శోధ"
    ],
    [
      "అత",
      "ి</w>"
    ],
    [
      "1",
      "న</w>"
    ],
    [
      "బౌ",
      "ద్ధ"
    ],
    [
      "ని",
      "ల"
    ],
    [
      "ప",
      "ట్ల</w>"
    ],
    [
      "టె",
      "లి"
    ],
    [
      "తమి",
      "ళన"
    ],
    [
      "సహాయ",
      "పడ"
    ],
    [
      "ఉండ",
      "ి,</w>"
    ],
    [
      "్ట",
      "్</w>"
    ],
    [
      "బ్యా",
      "ం"
    ],
    [
      "న",
      "ార"
    ],
    [
      "ప",
      "న్న"
    ],
    [
      "ించ",
      "ాలని</w>"
    ],
    [
      "దు",
      "స్త"
    ],
    [
      "స్నే",
      "హి"
    ],
    [
      "కా",
      "ని</w>"
    ],
    [
      "కనుగొ",
      "న"
    ],
    [
      "న",
      "ర్"
    ],
    [
      "టిక",
      "్</w>"
    ],
    [
      "ించబడ",
      "్డాయి.</w>"
    ],
    [
      "మార",
      "ింది.</w>"
    ],
    [
      "క",
      "మైన</w>"
    ],
    [
      "గ",
      "వర్"
    ],
    [
      "చేయబడ",
      "ిన</w>"
    ],
    [
      "సి",
      "క్క"
    ],
    [
      "మార",
      "ు"
    ],
    [
      "న్‌",
      "‌"
    ],
    [
      "వచ్చ",
      "ు</w>"
    ],
    [
      "ఇ",
      "క్కడ</w>"
    ],
    [
      "కో",
      "ప"
    ],
    [
      "క",
      "నీ"
    ],
    [
      "యూ",
      "ని"
    ],
    [
      "ఫిబ్ర",
      "వరి</w>"
    ],
    [
      "విమ",
      "ర్శ"
    ],
    [
      "పు",
      "న</w>"
    ],
    [
      "య",
      "ార్"
    ],
    [
      "క",
      "ప్ప"
    ],
    [
      "ఉత్త",
      "రా"
    ],
    [
      "చిత్ర",
      "ంలో</w>"
    ],
    [
      "విద్య",
      "ు"
    ],
    [
      "య్య",
      "ారు.</w>"
    ],
    [
      "ఎ",
      "యి"
    ],
    [
      "క్రీ",
      "."
    ],
    [
      "ఢిల్ల",
      "ీ"
    ],
    [
      "ప్రముఖ",
      "</w>"
    ],
    [
      "రాజ",
      "వంశ"
    ],
    [
      "వ్యవ",
      "సాయ"
    ],
    [
      "టోర్",
      "న"
    ],
    [
      "న్న",
      "ా"
    ],
    [
      "ఉపయోగి",
      "స్తారు.</w>"
    ],
    [
      "గ్ర",
      "ే"
    ],
    [
      "పార",
      "ి"
    ],
    [
      "ి",
      "తో</w>"
    ],
    [
      "ప్రభావి",
      "తం</w>"
    ],
    [
      "ఆ",
      "ప"
    ],
    [
      "రాష్ట్ర",
      "ం</w>"
    ],
    [
      "గ",
      "ఢ"
    ],
    [
      "జర్",
      "మ"
    ],
    [
      "బ",
      "హి"
    ],
    [
      "సంయుక్",
      "త</w>"
    ],
    [
      "వ్యతిరే",
      "కంగా</w>"
    ],
    [
      "ాల",
      "లో,</w>"
    ],
    [
      "జిల్ల",
      "ా</w>"
    ],
    [
      "మా",
      "దిరి"
    ],
    [
      "పి",
      "స్తుంది.</w>"
    ],
    [
      "పార్ట",
      "ీ</w>"
    ],
    [
      "చేస",
      "ే"
    ],
    [
      "ంగ",
      "్లా"
    ],
    [
      "రాత్ర",
      "ి</w>"
    ],
    [
      "ష",
      "ె"
    ],
    [
      "క",
      "ండ"
    ],
    [
      "త",
      "ల</w>"
    ],
    [
      "స్టే",
      "ట్స్</w>"
    ],
    [
      "రోజు",
      "న</w>"
    ],
    [
      "అత",
      "న్ని</w>"
    ],
    [
      "హ",
      "ా</w>"
    ],
    [
      "మ",
      "ం"
    ],
    [
      "ప",
      "డి"
    ],
    [
      "సమయ",
      "ంలో,</w>"
    ],
    [
      "గు",
      "రు"
    ],
    [
      "జ",
      "రా"
    ],
    [
      "త",
      "ండ్ర"
    ],
    [
      "3",
      "0</w>"
    ],
    [
      "వంత",
      "ంగా</w>"
    ],
    [
      "నవ",
      "ంబర్</w>"
    ],
    [
      "దె",
      "బ్బ"
    ],
    [
      "భాగ",
      "ంగా</w>"
    ],
    [
      "ఉపయోగ",
      "ించే</w>"
    ],
    [
      "ఓ",
      "</w>"
    ],
    [
      "శ",
      "ం"
    ],
    [
      "డ",
      "ీ</w>"
    ],
    [
      "చ",
      "ంప"
    ],
    [
      "య",
      "ర్</w>"
    ],
    [
      "ఎ",
      "</w>"
    ],
    [
      "ిం",
      "పు"
    ],
    [
      "ఢిల్ల",
      "ీ</w>"
    ],
    [
      "ర",
      "వా"
    ],
    [
      "అమె",
      "రికా"
    ],
    [
      "కు",
      "మార్"
    ],
    [
      "ఆ",
      "కర్"
    ],
    [
      "టె",
      "క్"
    ],
    [
      "క",
      "ద"
    ],
    [
      "దర",
      "ణ</w>"
    ],
    [
      "త్",
      "వ</w>"
    ],
    [
      "చే",
      "ర్చ"
    ],
    [
      "ప్రస్తు",
      "తం</w>"
    ],
    [
      "పర్",
      "య"
    ],
    [
      "ఆ",
      "రు</w>"
    ],
    [
      "గు",
      "ర"
    ],
    [
      "గ",
      "ిన"
    ],
    [
      "న",
      "డు"
    ],
    [
      "కాబ",
      "ట్టి</w>"
    ],
    [
      "ఆ",
      "చార"
    ],
    [
      "పరి",
      "శ్ర"
    ],
    [
      "పాకి",
      "స్తా"
    ],
    [
      "పె",
      "ంచ"
    ],
    [
      "ని",
      "రోధ"
    ],
    [
      "అ",
      "క్ష"
    ],
    [
      "న",
      "ో</w>"
    ],
    [
      "డ్",
      "డు"
    ],
    [
      "ఎ",
      "వర"
    ],
    [
      "వ్యవస్థ",
      "</w>"
    ],
    [
      "ాల",
      "ను"
    ],
    [
      "ఎ",
      "ంచు"
    ],
    [
      "క",
      "న"
    ],
    [
      "న",
      "డి"
    ],
    [
      "ించ",
      "ింది,</w>"
    ],
    [
      "కుండ",
      "ా,</w>"
    ],
    [
      "ఇ",
      "ంగ్లా"
    ],
    [
      "స్",
      "పె"
    ],
    [
      "చార",
      "ి"
    ],
    [
      "్",
      "లో</w>"
    ],
    [
      "పడు",
      "తుంది.</w>"
    ],
    [
      "ముని",
      "సి"
    ],
    [
      "ఇండి",
      "యా</w>"
    ],
    [
      "లా",
      "ండ"
    ],
    [
      "దేవాల",
      "య"
    ],
    [
      "20",
      "19</w>"
    ],
    [
      "స్ట",
      "ె"
    ],
    [
      "మ",
      "న"
    ],
    [
      "త",
      ",</w>"
    ],
    [
      "భ",
      "ో"
    ],
    [
      "కర",
      "మైన</w>"
    ],
    [
      "ద",
      "ానికి</w>"
    ],
    [
      "ని",
      "క"
    ],
    [
      "బ్ర",
      "ె"
    ],
    [
      "గ",
      "</w>"
    ],
    [
      "వేడు",
      "క"
    ],
    [
      "ట్ల",
      "ను</w>"
    ],
    [
      "కో",
      "వచ్చు.</w>"
    ],
    [
      "బ",
      "ద్ధ"
    ],
    [
      "శా",
      "ంత"
    ],
    [
      "ర",
      "ద్ద"
    ],
    [
      "జె",
      "క్ట"
    ],
    [
      "చి",
      "న్న"
    ],
    [
      "న",
      "ంలో</w>"
    ],
    [
      "డ",
      "ర్</w>"
    ],
    [
      "మార్",
      "కె"
    ],
    [
      "స్వీ",
      "డ"
    ],
    [
      "ని",
      "వార"
    ],
    [
      "లక్ష",
      "్య"
    ],
    [
      "చెంద",
      "ింది.</w>"
    ],
    [
      "తో",
      "ంది.</w>"
    ],
    [
      "సుల",
      "భ"
    ],
    [
      "కా",
      "వచ్చు.</w>"
    ],
    [
      "నగర",
      "ం</w>"
    ],
    [
      "ాయ",
      "్</w>"
    ],
    [
      "ఆ",
      "దాయ"
    ],
    [
      "ప్రా",
      "థ"
    ],
    [
      "ట",
      "క</w>"
    ],
    [
      "జిల్లా",
      "లో</w>"
    ],
    [
      "కా",
      "న్"
    ],
    [
      "దు",
      "ర్"
    ],
    [
      "కో",
      "ట</w>"
    ],
    [
      "అందుబాటు",
      "లో</w>"
    ],
    [
      "బా",
      "క్"
    ],
    [
      "జా",
      "న్</w>"
    ],
    [
      "చే",
      "స్తున్న"
    ],
    [
      "పా",
      "ండ"
    ],
    [
      "వీటి",
      "లో</w>"
    ],
    [
      "వ్యక్",
      "త"
    ],
    [
      "రక్ష",
      "ణ</w>"
    ],
    [
      "దక్షి",
      "ణా"
    ],
    [
      "ల",
      "్యా"
    ],
    [
      "నా",
      "టిక"
    ],
    [
      "కార",
      "ులు</w>"
    ],
    [
      "వే",
      "ర్"
    ],
    [
      "ఖర్చ",
      "ు</w>"
    ],
    [
      "సిని",
      "మా</w>"
    ],
    [
      "201",
      "0</w>"
    ],
    [
      "జరుపు",
      "కుంటారు.</w>"
    ],
    [
      "క్ష",
      "ే"
    ],
    [
      "ట్ల",
      "యి"
    ],
    [
      "201",
      "8</w>"
    ],
    [
      "డి",
      "యో"
    ],
    [
      "కౌ",
      "ంటీ"
    ],
    [
      "గు",
      "జరా"
    ],
    [
      "్య",
      "ు"
    ],
    [
      "బయ",
      "ట"
    ],
    [
      "ఆగ",
      "స్టు</w>"
    ],
    [
      "అంచ",
      "నా</w>"
    ],
    [
      "న",
      "లను</w>"
    ],
    [
      "డ్ర",
      "ై"
    ],
    [
      "మా",
      "న్</w>"
    ],
    [
      "ణ",
      "ను</w>"
    ],
    [
      "డు",
      "ను</w>"
    ],
    [
      "చారి",
      "త్ర"
    ],
    [
      "రక్",
      "త"
    ],
    [
      "వ",
      "సూ"
    ],
    [
      "అ",
      "రు"
    ],
    [
      "ుడ",
      "ి</w>"
    ],
    [
      "న",
      "ష్ట"
    ],
    [
      "ప్ల",
      "ే"
    ],
    [
      "మ",
      "తి</w>"
    ],
    [
      "ఏద",
      "ైనా</w>"
    ],
    [
      "ంద",
      "ో"
    ],
    [
      "న్",
      "షి"
    ],
    [
      "క",
      "్యూ"
    ],
    [
      "ని",
      "యా</w>"
    ],
    [
      "భి",
      "న్న"
    ],
    [
      "క",
      "ంట"
    ],
    [
      "తండ్ర",
      "ి</w>"
    ],
    [
      "సం",
      "పాద"
    ],
    [
      "వె",
      "ను"
    ],
    [
      "అర్థ",
      "ం</w>"
    ],
    [
      "ఒలింప",
      "ిక్</w>"
    ],
    [
      "డి",
      "యా</w>"
    ],
    [
      "సంగీ",
      "త"
    ],
    [
      "ఎ",
      "నిమి"
    ],
    [
      "సూచి",
      "స్తుంది.</w>"
    ],
    [
      "పాయ",
      "ిం"
    ],
    [
      "భ",
      "వి"
    ],
    [
      "కి",
      ".మీ"
    ],
    [
      "ఉ",
      "ందని</w>"
    ],
    [
      "నిర్ణయ",
      "ించు"
    ],
    [
      "ఖ",
      "చ్చి"
    ],
    [
      "త్త",
      "ి"
    ],
    [
      "స్థ",
      "ాయి</w>"
    ],
    [
      "0",
      "ల</w>"
    ],
    [
      "దృష్ట",
      "ి</w>"
    ],
    [
      "ం",
      "లోనే</w>"
    ],
    [
      "క",
      "మి"
    ],
    [
      "త",
      "ృ"
    ],
    [
      "జిల్లా",
      "లోని</w>"
    ],
    [
      "సంగీ",
      "తం</w>"
    ],
    [
      "చేయ",
      "వచ్చు.</w>"
    ],
    [
      "ల",
      "ిన</w>"
    ],
    [
      "త్",
      "వర"
    ],
    [
      "విశ్వవిద్య",
      "ాల"
    ],
    [
      "డిసె",
      "ంబర్</w>"
    ],
    [
      "లా",
      "ండ్</w>"
    ],
    [
      "ప్రా",
      "వి"
    ],
    [
      "సె",
      "ల"
    ],
    [
      "అధికార",
      "ిక</w>"
    ],
    [
      "జ",
      "ిక"
    ],
    [
      "ఉద్య",
      "ోగ"
    ],
    [
      "నివ",
      "సి"
    ],
    [
      "ప",
      "్లా"
    ],
    [
      "అ",
      "యో"
    ],
    [
      "ము",
      "గ"
    ],
    [
      "చెప్ప",
      "ారు.</w>"
    ],
    [
      "గుండ",
      "ా</w>"
    ],
    [
      "సంఘ",
      "ట"
    ],
    [
      "అదన",
      "పు</w>"
    ],
    [
      "శతాబ్ద",
      "ంలో</w>"
    ],
    [
      "రై",
      "ల్"
    ],
    [
      "బా",
      "ధ్య"
    ],
    [
      "క్ర",
      "ియ"
    ],
    [
      "చిత్ర",
      "</w>"
    ],
    [
      "ఖా",
      "న్</w>"
    ],
    [
      "యా",
      ",</w>"
    ],
    [
      "ర",
      "ో</w>"
    ],
    [
      "కో",
      "రు"
    ],
    [
      "విద్య",
      "ార్థ"
    ],
    [
      "వార్",
      "ష"
    ],
    [
      "ప్ర",
      "చు"
    ],
    [
      "ల",
      "ండ"
    ],
    [
      "క",
      "ో</w>"
    ],
    [
      "ింగ",
      "్‌"
    ],
    [
      "పాలి",
      "టీ"
    ],
    [
      "ండ",
      "ర్</w>"
    ],
    [
      "ఆమె",
      "ను</w>"
    ],
    [
      "కొ",
      "ద్ద"
    ],
    [
      "ఆ",
      "ంగ్ల"
    ],
    [
      "కార్య",
      "కలా"
    ],
    [
      "క్ల",
      "బ్</w>"
    ],
    [
      "మ",
      "ిక"
    ],
    [
      "ఈ",
      "వెంట"
    ],
    [
      "వి",
      ",</w>"
    ],
    [
      "0",
      ",000</w>"
    ],
    [
      "కాల",
      "ను</w>"
    ],
    [
      "జ",
      "ాల"
    ],
    [
      "201",
      "3</w>"
    ],
    [
      "వ్య",
      "వహ"
    ],
    [
      "మంద",
      "ికి</w>"
    ],
    [
      "అ",
      "సో"
    ],
    [
      "క",
      "న్న"
    ],
    [
      "రా",
      "వ"
    ],
    [
      "తయ",
      "ార"
    ],
    [
      "అంట",
      "ారు.</w>"
    ],
    [
      "సి",
      "స్</w>"
    ],
    [
      "వా",
      "స"
    ],
    [
      "అర్",
      "ధ"
    ],
    [
      "ముంద",
      "ు,</w>"
    ],
    [
      "పద",
      "ార్థ"
    ],
    [
      "సం",
      "క్రమ"
    ],
    [
      "పర",
      "చ"
    ],
    [
      "పోయ",
      "ిన</w>"
    ],
    [
      "ిం",
      "టి"
    ],
    [
      "ద",
      "ు,</w>"
    ],
    [
      "ఉద్",
      "భవ"
    ],
    [
      "ఇండ",
      "ో"
    ],
    [
      "ాల్",
      "సిన</w>"
    ],
    [
      "ఎంప",
      "ిక"
    ],
    [
      "సంబంధ",
      "ం</w>"
    ],
    [
      "కాల",
      "ిక</w>"
    ],
    [
      "ఒక",
      "రి"
    ],
    [
      "మ",
      "ళ్ల"
    ],
    [
      "ది",
      "శ"
    ],
    [
      "కు",
      "ని,</w>"
    ],
    [
      "రచ",
      "యి"
    ],
    [
      "వి",
      "దేశ"
    ],
    [
      "ధ",
      "రించ"
    ],
    [
      "లా",
      "ంటి</w>"
    ],
    [
      "మహారా",
      "ష్ట్ర"
    ],
    [
      "క్ర",
      "ిక"
    ],
    [
      "వా",
      "స్త"
    ],
    [
      "మ",
      "ణి"
    ],
    [
      "కొ",
      "ని</w>"
    ],
    [
      "ప",
      "్య"
    ],
    [
      "లై",
      "న్</w>"
    ],
    [
      "గ",
      "్ల"
    ],
    [
      "స",
      "ా</w>"
    ],
    [
      "చ",
      "ద"
    ],
    [
      "నాటిక",
      "ి,</w>"
    ],
    [
      "న",
      "ిం"
    ],
    [
      "ఆల",
      "యం</w>"
    ],
    [
      "జనా",
      "భా"
    ],
    [
      "గా",
      "ంధ"
    ],
    [
      "స",
      "ి,</w>"
    ],
    [
      "రక",
      "మైన</w>"
    ],
    [
      "గ",
      "ర్"
    ],
    [
      "విడుదలై",
      "ంది.</w>"
    ],
    [
      "గెలుచు",
      "కుంది.</w>"
    ],
    [
      "న",
      "మూ"
    ],
    [
      "సో",
      "ద"
    ],
    [
      "ీ",
      "ని</w>"
    ],
    [
      "ధ",
      "ృ"
    ],
    [
      "ద",
      "ల</w>"
    ],
    [
      "జాబి",
      "తా"
    ],
    [
      "201",
      "1</w>"
    ],
    [
      "ించబడ",
      "ు"
    ],
    [
      "అ",
      "ద్"
    ],
    [
      "స్",
      "కార"
    ],
    [
      "బా",
      "టు</w>"
    ],
    [
      "సమా",
      "వేశ"
    ],
    [
      "సి",
      "రీ"
    ],
    [
      "వె",
      "లు"
    ],
    [
      "ఫి",
      "ల్"
    ],
    [
      "వార",
      "ిలో</w>"
    ],
    [
      "జి",
      "క</w>"
    ],
    [
      "1",
      "5</w>"
    ],
    [
      "ర",
      "మ"
    ],
    [
      "ట",
      "్‌లో</w>"
    ],
    [
      "ప్రతి",
      "నిధ"
    ],
    [
      "ాడ",
      "ు"
    ],
    [
      "ఎ",
      "ల్"
    ],
    [
      "ల్ల",
      "ా"
    ],
    [
      "వ్య",
      "</w>"
    ],
    [
      "బహు",
      "శా</w>"
    ],
    [
      "దర్శ",
      "కత్వం</w>"
    ],
    [
      "ప్రపంచ",
      "వ్యాప్తంగా</w>"
    ],
    [
      "అమెరిక",
      "ా</w>"
    ],
    [
      "పండుగ",
      "</w>"
    ],
    [
      "ఓ",
      "డి"
    ],
    [
      "అంగ",
      "ీకరించ"
    ],
    [
      "ఏ",
      "కై"
    ],
    [
      "న",
      "మో"
    ],
    [
      "యూ",
      "రో"
    ],
    [
      "ధ్య",
      "ం</w>"
    ],
    [
      "క్ట",
      "ర్</w>"
    ],
    [
      "వ",
      "ుడ"
    ],
    [
      "వ",
      "ది"
    ],
    [
      "రాజ",
      "ధా"
    ],
    [
      "వ",
      "ాయి"
    ],
    [
      "ట",
      "మి"
    ],
    [
      "న",
      "ప్పుడు</w>"
    ],
    [
      "అని",
      "ప"
    ],
    [
      "వె",
      "ళ"
    ],
    [
      "ఎ",
      "ఫ్‌"
    ],
    [
      "మునిసి",
      "పాలిటీ"
    ],
    [
      "ప్రా",
      "జెక్ట"
    ],
    [
      "ఎ",
      "డ"
    ],
    [
      "క",
      "మ్యూ"
    ],
    [
      "కనీ",
      "సం</w>"
    ],
    [
      "చూ",
      "సు"
    ],
    [
      "త",
      "ీ</w>"
    ],
    [
      "ఏకై",
      "క</w>"
    ],
    [
      "ంట",
      "ే,</w>"
    ],
    [
      "విజ",
      "న్</w>"
    ],
    [
      "ట్ర",
      "ో"
    ],
    [
      "ల",
      "్‌లో</w>"
    ],
    [
      "క్ర",
      "ై"
    ],
    [
      "ః",
      "</w>"
    ],
    [
      "తక్కు",
      "వగా</w>"
    ],
    [
      "ిన",
      "ప్పుడు</w>"
    ],
    [
      "హింద",
      "ీ</w>"
    ],
    [
      "అంత",
      "టా</w>"
    ],
    [
      "ఇ",
      "టీ"
    ],
    [
      "ో",
      "గ్ర"
    ],
    [
      "ు",
      "వు</w>"
    ],
    [
      "లేద",
      "ని</w>"
    ],
    [
      "ందు",
      "న</w>"
    ],
    [
      "ర",
      "క్షి"
    ],
    [
      "ల",
      "ే</w>"
    ],
    [
      "ని",
      "లి"
    ],
    [
      "ఆల",
      "య"
    ],
    [
      "ఉంట",
      "ాయి,</w>"
    ],
    [
      "యా",
      "త్ర"
    ],
    [
      "సై",
      "నిక</w>"
    ],
    [
      "సామా",
      "జిక</w>"
    ],
    [
      "స్ప",
      "ంద"
    ],
    [
      "వా",
      "నికి</w>"
    ],
    [
      "ప్రదేశ",
      "్</w>"
    ],
    [
      "నమో",
      "దు</w>"
    ],
    [
      "చాల",
      "ా"
    ],
    [
      "జ",
      "ం</w>"
    ],
    [
      "ఉంట",
      "ే,</w>"
    ],
    [
      "క",
      "ింగ్</w>"
    ],
    [
      "స్",
      "వి"
    ],
    [
      "ండ",
      "ి"
    ],
    [
      "ఎదు",
      "ర్కొ"
    ],
    [
      "వరు",
      "స"
    ],
    [
      "ఉండే",
      "వి.</w>"
    ],
    [
      "ంబ",
      "రు</w>"
    ],
    [
      "ంచ",
      "్</w>"
    ],
    [
      "అనే",
      "వి</w>"
    ],
    [
      "పెట్ట",
      "ారు.</w>"
    ],
    [
      "ఫలి",
      "త"
    ],
    [
      "ష",
      "ో"
    ],
    [
      "అ",
      "ండ్</w>"
    ],
    [
      "19",
      "2"
    ],
    [
      "ాల",
      "పై</w>"
    ],
    [
      "కుమార",
      "ుడు</w>"
    ],
    [
      "రే",
      "షన్</w>"
    ],
    [
      "మొ",
      "ట్ట"
    ],
    [
      "ాల",
      "ు"
    ],
    [
      "నీ",
      "స్</w>"
    ],
    [
      "1",
      "00</w>"
    ],
    [
      "ఉన్న",
      "ాడు.</w>"
    ],
    [
      "ష",
      "్య"
    ],
    [
      "టి",
      "గా</w>"
    ],
    [
      "అ",
      "లె"
    ],
    [
      "ప్ర",
      "ె"
    ],
    [
      "ార",
      "ె"
    ],
    [
      "ర",
      "ాలు</w>"
    ],
    [
      "ణ",
      "లో</w>"
    ],
    [
      "చ",
      "ంద్ర"
    ],
    [
      "ఎ",
      "న్న"
    ],
    [
      "సార",
      "ిగా</w>"
    ],
    [
      "కర్",
      "ణా"
    ],
    [
      "ఐ",
      "</w>"
    ],
    [
      "న",
      "ల</w>"
    ],
    [
      "సాంప్రదాయ",
      "</w>"
    ],
    [
      "ట",
      "్యూ"
    ],
    [
      "201",
      "7</w>"
    ],
    [
      "1",
      ","
    ],
    [
      "సామ్",
      "రాజ్య"
    ],
    [
      "ప్రారంభ",
      "ంలో</w>"
    ],
    [
      "సెప్టె",
      "ంబర్</w>"
    ],
    [
      "ఒ",
      "డి"
    ],
    [
      "తుఫా",
      "ను</w>"
    ],
    [
      "త",
      "గ్"
    ],
    [
      "కుమార్",
      "తె"
    ],
    [
      "సి",
      "యే"
    ],
    [
      "చక్ర",
      "వర్"
    ],
    [
      "ఎ",
      "ల్</w>"
    ],
    [
      "స్",
      "వాత"
    ],
    [
      "పద",
      "</w>"
    ],
    [
      "గ",
      "ులు</w>"
    ],
    [
      "క్",
      "తి</w>"
    ],
    [
      "మ",
      "ళ్ళ"
    ],
    [
      "మ",
      "రి"
    ],
    [
      "వే",
      "త్త"
    ],
    [
      "పరి",
      "కర"
    ],
    [
      "ం",
      "చె"
    ],
    [
      "డ",
      "ానికి,</w>"
    ],
    [
      "క",
      ",</w>"
    ],
    [
      "ము",
      "ందు"
    ],
    [
      "న",
      "ాలను</w>"
    ],
    [
      "సా",
      "గు"
    ],
    [
      "సంత",
      "ో"
    ],
    [
      "హ",
      "ే"
    ],
    [
      "వ",
      "స"
    ],
    [
      "ట",
      "ల్</w>"
    ],
    [
      "ప్రజా",
      "దరణ</w>"
    ],
    [
      "భ",
      "ర్"
    ],
    [
      "పాఠశ",
      "ాల"
    ],
    [
      "తెలి",
      "ప"
    ],
    [
      "పర",
      "ంగా</w>"
    ],
    [
      "్ల",
      "</w>"
    ],
    [
      "కిలో",
      "మీటర్ల</w>"
    ],
    [
      "్‌",
      "తో</w>"
    ],
    [
      "అసో",
      "సియే"
    ],
    [
      "ించ",
      "ాడు,</w>"
    ],
    [
      "కళా",
      "శ"
    ],
    [
      "చూ",
      "సి</w>"
    ],
    [
      "జంత",
      "ువ"
    ],
    [
      "గ",
      "ిన</w>"
    ],
    [
      "తు",
      "ందని</w>"
    ],
    [
      "పా",
      "తం</w>"
    ],
    [
      "ఉష్ణ",
      "ోగ్ర"
    ],
    [
      "పూర్",
      "వ"
    ],
    [
      "201",
      "2</w>"
    ],
    [
      "ల్‌",
      "ను</w>"
    ],
    [
      "బ",
      "రు"
    ],
    [
      "లీ",
      "గ"
    ],
    [
      "విధ",
      "ంగా</w>"
    ],
    [
      "పు",
      "ణ"
    ],
    [
      "భూ",
      "మి"
    ],
    [
      "ఏ",
      "ళ్ల</w>"
    ],
    [
      "ము",
      "ంబ"
    ],
    [
      "భ",
      "ౌ"
    ],
    [
      "బ",
      "ుల్</w>"
    ],
    [
      "వ్యక్",
      "తులు</w>"
    ],
    [
      "ంట",
      "ు"
    ],
    [
      "వ",
      "ం"
    ],
    [
      "ప్ర",
      "ాయ"
    ],
    [
      "ుల్",
      "తా"
    ],
    [
      "వ్యక్తి",
      "గత</w>"
    ],
    [
      "ప్రారంభ",
      "ించారు.</w>"
    ],
    [
      "మార్",
      "ప"
    ],
    [
      "్‌",
      "లు</w>"
    ],
    [
      "కాల",
      "ి"
    ],
    [
      "తున్న",
      "ాయి.</w>"
    ],
    [
      "డ",
      "బ్ల"
    ],
    [
      "లియ",
      "న్</w>"
    ],
    [
      "ా",
      ".</w>"
    ],
    [
      "వా",
      "తి</w>"
    ],
    [
      "ప",
      "తి</w>"
    ],
    [
      "ింద",
      "ి"
    ],
    [
      "వార",
      "్డ"
    ],
    [
      "హా",
      "కీ</w>"
    ],
    [
      "ఉంట",
      "ారు.</w>"
    ],
    [
      "ించడ",
      "ంలో</w>"
    ],
    [
      "బ్యా",
      "ండ"
    ],
    [
      "చిత్ర",
      "ానికి</w>"
    ],
    [
      "వ",
      "స్తుంది.</w>"
    ],
    [
      "ఒలింప",
      "ిక్"
    ],
    [
      "ఉపయోగ",
      "ించ"
    ],
    [
      "లె",
      "క్కల</w>"
    ],
    [
      "ృ",
      "హ"
    ],
    [
      "డ",
      "ు.</w>"
    ],
    [
      "ధ",
      "ి</w>"
    ],
    [
      "ట్",
      ",</w>"
    ],
    [
      "జ",
      "నం</w>"
    ],
    [
      "ప్రాథ",
      "మిక</w>"
    ],
    [
      "ి",
      "స్తుంది.</w>"
    ],
    [
      "ంట",
      "ి"
    ],
    [
      "అత్య",
      "ు"
    ],
    [
      "ర",
      "ొ"
    ],
    [
      "రాజధా",
      "ని</w>"
    ],
    [
      "బడ",
      "్డాయి.</w>"
    ],
    [
      "భా",
      "గాన్ని</w>"
    ],
    [
      "కొ",
      "ంద"
    ],
    [
      "ఇ",
      "ట"
    ],
    [
      "ర్",
      "య"
    ],
    [
      "ఆ",
      "శ్"
    ],
    [
      "ఇ",
      "రా"
    ],
    [
      "తాల",
      "ూ"
    ],
    [
      "మె",
      "రుగు"
    ],
    [
      "వి",
      "శ"
    ],
    [
      "చ",
      "ని"
    ],
    [
      "ము",
      "గ్"
    ],
    [
      "సామ",
      "ర్థ"
    ],
    [
      "ధ",
      "్"
    ],
    [
      "ర్",
      "ప"
    ],
    [
      "పత్త",
      "ి</w>"
    ],
    [
      "మాన",
      "వ</w>"
    ],
    [
      "ప్రాంత",
      "ం.</w>"
    ],
    [
      "మ",
      "ంగ"
    ],
    [
      "న్",
      "-"
    ],
    [
      "అక్టో",
      "బర్</w>"
    ],
    [
      "నిలిచ",
      "ింది.</w>"
    ],
    [
      "రంగ",
      "ు</w>"
    ],
    [
      "ఇ",
      "స్లా"
    ],
    [
      "త",
      "ంత్ర"
    ],
    [
      "కుమార",
      "్</w>"
    ],
    [
      "ఇత",
      "ర"
    ],
    [
      "ఇ",
      "ప్పటికీ</w>"
    ],
    [
      "ఆ",
      "స"
    ],
    [
      "ష",
      "ి</w>"
    ],
    [
      "ఖ",
      "్యా"
    ],
    [
      "మ్యా",
      "చ"
    ],
    [
      "నా",
      "టి</w>"
    ],
    [
      "బంత",
      "ిని</w>"
    ],
    [
      "విక్ర",
      "య"
    ],
    [
      "గ",
      "ర్భ"
    ],
    [
      "నె",
      "ట్‌"
    ],
    [
      "చి",
      "హ్"
    ],
    [
      "పర",
      "ి</w>"
    ],
    [
      "వ",
      "ద్ద"
    ],
    [
      "థ",
      "ా"
    ],
    [
      "క్ష",
      "న్</w>"
    ],
    [
      "ను",
      "ండి,</w>"
    ],
    [
      "శ",
      ".</w>"
    ],
    [
      "ప్ర",
      "ై"
    ],
    [
      "ప",
      "ీ</w>"
    ],
    [
      "హ",
      "ౌ"
    ],
    [
      "మద్ద",
      "తు</w>"
    ],
    [
      "పాట",
      "ు,</w>"
    ],
    [
      "న్‌",
      "తో</w>"
    ],
    [
      "మై",
      "</w>"
    ],
    [
      "చిత్ర",
      "ాలలో</w>"
    ],
    [
      "రా",
      "గ"
    ],
    [
      "ర",
      "ణ</w>"
    ],
    [
      "200",
      "8</w>"
    ],
    [
      "ర",
      "ౌ"
    ],
    [
      "202",
      "1</w>"
    ],
    [
      "రవా",
      "ణా</w>"
    ],
    [
      "ప్ర",
      "చార"
    ],
    [
      "కాంగ్ర",
      "ెస్</w>"
    ],
    [
      "ట్",
      "లో</w>"
    ],
    [
      "రహ",
      "దార"
    ],
    [
      "ఆడ",
      "ాడు.</w>"
    ],
    [
      "క్యా",
      "న్స"
    ],
    [
      "ఫ్",
      "లో"
    ],
    [
      "నే",
      ",</w>"
    ],
    [
      "శా",
      "న్ని</w>"
    ],
    [
      "హ",
      "క్క"
    ],
    [
      "ఆ",
      "ది"
    ],
    [
      "హె",
      "చ్"
    ],
    [
      "ప్ర",
      "ీ"
    ],
    [
      "ప",
      "ంపి"
    ],
    [
      "వార",
      "స"
    ],
    [
      "క్రీ",
      "డా"
    ],
    [
      "త",
      "దు"
    ],
    [
      "అభ్య",
      "ర్థ"
    ],
    [
      "పు",
      "ట్ట"
    ],
    [
      "శీ",
      "ల"
    ],
    [
      "ి",
      "ద"
    ],
    [
      "గు",
      "ప్"
    ],
    [
      "్",
      "రా"
    ],
    [
      "ఆసి",
      "యా</w>"
    ],
    [
      "రియ",
      "న్</w>"
    ],
    [
      "జన్మ",
      "ించారు.</w>"
    ],
    [
      "పా",
      "త</w>"
    ],
    [
      "ా",
      "ను.</w>"
    ],
    [
      "న్",
      "య</w>"
    ],
    [
      "ద్ద",
      "ీ"
    ],
    [
      "వాణిజ",
      "్య</w>"
    ],
    [
      "ముస్లిం",
      "</w>"
    ],
    [
      "ఉద్",
      "దేశ"
    ],
    [
      "ప",
      "ట"
    ],
    [
      "ప్రదర్శ",
      "న</w>"
    ],
    [
      "రైల్",
      "వే</w>"
    ],
    [
      "ించే",
      "వారు.</w>"
    ],
    [
      "ర్",
      "యం</w>"
    ],
    [
      "యుద్ధ",
      "ంలో</w>"
    ],
    [
      "కు",
      "డి</w>"
    ],
    [
      "కొ",
      "ల"
    ],
    [
      "ఆల్",
      "బ"
    ],
    [
      "హ",
      "్ర"
    ],
    [
      "ఆ",
      "మోద"
    ],
    [
      "రో",
      "ప"
    ],
    [
      "స",
      "ర్</w>"
    ],
    [
      "త",
      "మ"
    ],
    [
      "ప్రయత్",
      "ని"
    ],
    [
      "ద్ర",
      "వ్య"
    ],
    [
      "న్",
      "లో</w>"
    ],
    [
      "శీ",
      "తా"
    ],
    [
      "సాధ",
      "ించిన</w>"
    ],
    [
      "ఎ",
      "ంపి"
    ],
    [
      "అ",
      "క"
    ],
    [
      "ఆ",
      "సు"
    ],
    [
      "ఆసు",
      "పత్ర"
    ],
    [
      "విస్తృ",
      "తంగా</w>"
    ],
    [
      "మ",
      "ర్"
    ],
    [
      "201",
      "6</w>"
    ],
    [
      "ఆకర్",
      "ష"
    ],
    [
      "న",
      "ాల</w>"
    ],
    [
      "స",
      "ార్"
    ],
    [
      "ాల",
      "ె"
    ],
    [
      "లక్షణ",
      "ాలు</w>"
    ],
    [
      "ఛాంపియ",
      "న్‌"
    ],
    [
      "న్ని",
      ",</w>"
    ],
    [
      "తదు",
      "పరి</w>"
    ],
    [
      "టోర్న",
      "మెంట"
    ],
    [
      "మ",
      "్‌లో</w>"
    ],
    [
      "న్యూ",
      "యార్"
    ],
    [
      "మళ్ల",
      "ీ</w>"
    ],
    [
      "స్",
      "మ"
    ],
    [
      "కంప్యూ",
      "టర్</w>"
    ],
    [
      "స్‌",
      "‌"
    ],
    [
      "తమి",
      "ళ</w>"
    ],
    [
      "ార",
      "ో</w>"
    ],
    [
      "యా",
      "లోని</w>"
    ],
    [
      "డ్ర",
      "ో"
    ],
    [
      "ప",
      "వి"
    ],
    [
      "ాల",
      "ు.</w>"
    ],
    [
      "రు",
      "ణ"
    ],
    [
      "అ",
      "స్"
    ],
    [
      "రిప",
      "బ్ల"
    ],
    [
      "హై",
      "ద"
    ],
    [
      "సాహి",
      "త్య"
    ],
    [
      "స",
      "ుల్తా"
    ],
    [
      "సామ్రాజ",
      "్యం</w>"
    ],
    [
      "వ్",
      "రా"
    ],
    [
      "చ",
      "దు"
    ],
    [
      "ప్ర",
      "స్తా"
    ],
    [
      "ఫి",
      "లి"
    ],
    [
      "ప్రమాద",
      "ం</w>"
    ],
    [
      "సం",
      "భవి"
    ],
    [
      "ఆ",
      "దేశ"
    ],
    [
      "వై",
      "వి"
    ],
    [
      "వర",
      "కు,</w>"
    ],
    [
      "చ",
      "ౌ"
    ],
    [
      "ట్ట",
      "ి,</w>"
    ],
    [
      "జ",
      "్‌"
    ],
    [
      "కృ",
      "ష్ణ"
    ],
    [
      "్",
      "స్</w>"
    ],
    [
      "ంద",
      "ో</w>"
    ],
    [
      "్ల",
      "ె"
    ],
    [
      "జరుగు",
      "తుంది.</w>"
    ],
    [
      "ఫలి",
      "తంగా</w>"
    ],
    [
      "ప్రో",
      "త్"
    ],
    [
      "ించు",
      "కో"
    ],
    [
      "త",
      "గా</w>"
    ],
    [
      "హ",
      "ిం"
    ],
    [
      "ఆ",
      "ందో"
    ],
    [
      "పొంద",
      "ింది.</w>"
    ],
    [
      "ఎ",
      "టువంటి</w>"
    ],
    [
      "ఏ",
      "డు</w>"
    ],
    [
      "ప",
      "క్క"
    ],
    [
      "ప",
      "న"
    ],
    [
      "బెంగ",
      "ాల"
    ],
    [
      "ఎంపి",
      "క</w>"
    ],
    [
      "ఉండ",
      "టం</w>"
    ],
    [
      "ద",
      "ండ"
    ],
    [
      "సంఖ్య",
      "</w>"
    ],
    [
      "ట్‌",
      "ను</w>"
    ],
    [
      "చల",
      "న"
    ],
    [
      "2",
      "5"
    ],
    [
      "ప్రా",
      "చు"
    ],
    [
      "ప",
      "్యా"
    ],
    [
      "చే",
      "ప"
    ],
    [
      "ప్ర",
      "శం"
    ],
    [
      "బ",
      "ి</w>"
    ],
    [
      "అద్",
      "భు"
    ],
    [
      "చిత్ర",
      "ాన్ని</w>"
    ],
    [
      "ప్రత్య",
      "ర్థ"
    ],
    [
      "లేద",
      "ు,</w>"
    ],
    [
      "ప",
      "ది</w>"
    ],
    [
      "ప్రా",
      "తి"
    ],
    [
      "ఫ",
      "ీ</w>"
    ],
    [
      "పై",
      "న</w>"
    ],
    [
      "డబ్బ",
      "ును</w>"
    ],
    [
      "యిం",
      "ట్</w>"
    ],
    [
      "చే",
      "స్తాయి.</w>"
    ],
    [
      "మవు",
      "తుంది.</w>"
    ],
    [
      "మై",
      "క్రో"
    ],
    [
      "స్త",
      "ూ,</w>"
    ],
    [
      "దేశ",
      "ాలలో</w>"
    ],
    [
      "క్",
      ",</w>"
    ],
    [
      "శ్",
      "మీ"
    ],
    [
      "3",
      "0"
    ],
    [
      "మి",
      "న"
    ],
    [
      "వైర",
      "స్</w>"
    ],
    [
      "సర",
      "స్సు</w>"
    ],
    [
      "ఆమె",
      "కు</w>"
    ],
    [
      "ని",
      "రా"
    ],
    [
      "ఆధార",
      "పడి</w>"
    ],
    [
      "కా",
      "కుండా</w>"
    ],
    [
      "న్",
      "యా"
    ],
    [
      "న",
      "ూ</w>"
    ],
    [
      "శిక్ష",
      "ణ</w>"
    ],
    [
      "సి",
      "బ్బ"
    ],
    [
      "స",
      "రించ"
    ],
    [
      "వాటి",
      "లో</w>"
    ],
    [
      "నగర",
      "ంలో</w>"
    ],
    [
      "సి",
      "స్ట"
    ],
    [
      "స్‌",
      "తో</w>"
    ],
    [
      "కేర",
      "ళ"
    ],
    [
      "ప్పటిక",
      "ే</w>"
    ],
    [
      "మహిళ",
      "ల</w>"
    ],
    [
      "ే",
      "లా</w>"
    ],
    [
      "మైన",
      ",</w>"
    ],
    [
      "స్",
      "వయ"
    ],
    [
      "అ",
      "ంత</w>"
    ],
    [
      "డ్",
      "స్</w>"
    ],
    [
      "ట్లయి",
      "తే,</w>"
    ],
    [
      "సగ",
      "టు</w>"
    ],
    [
      "ం",
      ")</w>"
    ],
    [
      "జీవి",
      "త"
    ],
    [
      "అ",
      "క్క"
    ],
    [
      "మే",
      "నే"
    ],
    [
      "వ",
      "డ"
    ],
    [
      "వార",
      "ీ</w>"
    ],
    [
      "భాగ",
      "స్వా"
    ],
    [
      "ని",
      "క్</w>"
    ],
    [
      "వాహ",
      "క</w>"
    ],
    [
      "వర్",
      "త"
    ],
    [
      "గ్",
      "గా</w>"
    ],
    [
      "జాబి",
      "తా</w>"
    ],
    [
      "ష్",
      "కరించ"
    ],
    [
      "ఆయ",
      "నకు</w>"
    ],
    [
      "క్ష",
      "ీ"
    ],
    [
      "ఎ",
      "ర్"
    ],
    [
      "వెంట",
      "నే</w>"
    ],
    [
      "మా",
      "జీ</w>"
    ],
    [
      "ఫై",
      "న"
    ],
    [
      "ప్రొ",
      "ఫె"
    ],
    [
      "ప",
      "ంట"
    ],
    [
      "వ",
      "ంద"
    ],
    [
      "స్తున్న",
      "ాయి.</w>"
    ],
    [
      "పేర్కొ",
      "న్నారు.</w>"
    ],
    [
      "అను",
      "సం"
    ],
    [
      "ార",
      "ోగ"
    ],
    [
      "కార్యకలా",
      "ప"
    ],
    [
      "వేర్",
      "వేరు</w>"
    ],
    [
      "ద",
      "ై"
    ],
    [
      "న్",
      "స్"
    ],
    [
      "వినియోగ",
      "దార"
    ],
    [
      "ధి",
      "లో</w>"
    ],
    [
      "అ",
      "క్"
    ],
    [
      "కా",
      "శ్మీ"
    ],
    [
      "బడ",
      "ుతుంది.</w>"
    ],
    [
      "ఛాంపియ",
      "న్షి"
    ],
    [
      "అధికార",
      "ులు</w>"
    ],
    [
      "శాస్త్ర",
      "ీయ</w>"
    ],
    [
      "4",
      "0</w>"
    ],
    [
      "య",
      "ె"
    ],
    [
      "ప్రా",
      "ణ"
    ],
    [
      "మ",
      "ాని"
    ],
    [
      "ప్రణాళ",
      "ిక"
    ],
    [
      "అ",
      "వార్డ"
    ],
    [
      "హింద",
      "ువ"
    ],
    [
      "దగ్గ",
      "ర</w>"
    ],
    [
      "పరిశ్ర",
      "మ"
    ],
    [
      "నొ",
      "ప్ప"
    ],
    [
      "సంతో",
      "ష"
    ],
    [
      "ి",
      "స్తారు.</w>"
    ],
    [
      "త",
      "ారు,</w>"
    ],
    [
      "ము",
      "ందుకు</w>"
    ],
    [
      "పెట్టు",
      "బడి</w>"
    ],
    [
      "కొ",
      "ని,</w>"
    ],
    [
      "వర్",
      "గీ"
    ],
    [
      "జరిగ",
      "ాయి.</w>"
    ],
    [
      "గో",
      "ళ"
    ],
    [
      "కార",
      "ణం</w>"
    ],
    [
      "గ",
      "తంలో</w>"
    ],
    [
      "ఫ్రె",
      "ంచ్</w>"
    ],
    [
      "పిల్ల",
      "లు</w>"
    ],
    [
      "కౌ",
      "ంట"
    ],
    [
      "జ",
      "మా"
    ],
    [
      "ధ",
      "ర్"
    ],
    [
      "మా",
      "న్ని</w>"
    ],
    [
      "ఎనిమి",
      "ది</w>"
    ],
    [
      "న్న",
      "ీ</w>"
    ],
    [
      "తన",
      "కు</w>"
    ],
    [
      "ఉ",
      "ంచు"
    ],
    [
      "అత",
      "ని"
    ],
    [
      "అను",
      "సరించ"
    ],
    [
      "ప్ర",
      "సార"
    ],
    [
      "మ",
      "ంచ"
    ],
    [
      "ఫె",
      "డ"
    ],
    [
      "సర్",
      "వీ"
    ],
    [
      "టై",
      "టి"
    ],
    [
      "రాజ",
      "స్థా"
    ],
    [
      "పో",
      "లి"
    ],
    [
      "న్",
      ".</w>"
    ],
    [
      "న్య",
      "ూ</w>"
    ],
    [
      "గ",
      "ుల</w>"
    ],
    [
      "స్",
      "కూ"
    ],
    [
      "అను",
      "మత"
    ],
    [
      "ల్",
      "ని</w>"
    ],
    [
      "యుద్ధ",
      "</w>"
    ],
    [
      "కొంద",
      "రు</w>"
    ],
    [
      "గ",
      "ూ"
    ],
    [
      "ఎ",
      "గు"
    ],
    [
      "డ",
      "ాల"
    ],
    [
      "వ",
      "డ్డ"
    ],
    [
      "గ్ర",
      "ూ"
    ],
    [
      "కుటుంబ",
      "</w>"
    ],
    [
      "నా",
      "లో</w>"
    ],
    [
      "విద్యు",
      "త్</w>"
    ],
    [
      "0",
      "లలో</w>"
    ],
    [
      "క",
      "ులను</w>"
    ],
    [
      "గ",
      "ృహ"
    ],
    [
      "స్త",
      "ు</w>"
    ],
    [
      "గో",
      "ల్"
    ],
    [
      "అ",
      "సలు</w>"
    ],
    [
      "ర",
      "ాల</w>"
    ],
    [
      "2",
      "5</w>"
    ],
    [
      "వేస",
      "వి</w>"
    ],
    [
      "ప",
      "చ్చ"
    ],
    [
      "తీసు",
      "కె"
    ],
    [
      "నియ",
      "న్</w>"
    ],
    [
      "కనిపి",
      "స్తుంది.</w>"
    ],
    [
      "తూ",
      ",</w>"
    ],
    [
      "న",
      "ాల్"
    ],
    [
      "ఉన్న",
      "ట్లు</w>"
    ],
    [
      "క్ల",
      "ా"
    ],
    [
      "సర",
      "స్"
    ],
    [
      "ని",
      "ల్"
    ],
    [
      "వర్",
      "‌"
    ],
    [
      "థ",
      "ె"
    ],
    [
      "ల",
      "ర్</w>"
    ],
    [
      "ణ",
      "కు</w>"
    ],
    [
      "సంఖ్య",
      "లో</w>"
    ],
    [
      "మిగి",
      "లిన</w>"
    ],
    [
      "లోప",
      "ల</w>"
    ],
    [
      "ర్‌",
      "తో</w>"
    ],
    [
      "ించిన",
      "ప్పుడు</w>"
    ],
    [
      "ల",
      "ింగ"
    ],
    [
      "సమాచార",
      "ం</w>"
    ],
    [
      "పొ",
      "దు"
    ],
    [
      "కుంటు",
      "ంది.</w>"
    ],
    [
      "ప్ప",
      "ు</w>"
    ],
    [
      "యూరో",
      "పి"
    ],
    [
      "అర్",
      "హ"
    ],
    [
      "ఆశ్",
      "చర్య"
    ],
    [
      "వె",
      "ర్"
    ],
    [
      "ుల",
      "ు.</w>"
    ],
    [
      "బ",
      "ు</w>"
    ],
    [
      "విడి",
      "చి"
    ],
    [
      "కేర",
      "ళ</w>"
    ],
    [
      "వు",
      "ను</w>"
    ],
    [
      "జపా",
      "న్</w>"
    ],
    [
      "క్ర",
      "ె"
    ],
    [
      "జర్మ",
      "నీ"
    ],
    [
      "ార",
      "ి"
    ],
    [
      "ఫో",
      "న్</w>"
    ],
    [
      "బడ",
      "్"
    ],
    [
      "కి.మీ",
      ".</w>"
    ],
    [
      "ట్",
      "రి"
    ],
    [
      "ు",
      "తారు.</w>"
    ],
    [
      "1",
      "4</w>"
    ],
    [
      "ఆ",
      "యు"
    ],
    [
      "యా",
      "కు</w>"
    ],
    [
      "క్రై",
      "స్త"
    ],
    [
      "ట",
      "ో</w>"
    ],
    [
      "201",
      "5</w>"
    ],
    [
      "చివరి",
      "కి</w>"
    ],
    [
      "ది",
      "గ"
    ],
    [
      "బద",
      "ులుగా</w>"
    ],
    [
      "పోలీ",
      "సులు</w>"
    ],
    [
      "మొద",
      "లై"
    ],
    [
      "గమ",
      "న"
    ],
    [
      "ర్‌",
      "‌"
    ],
    [
      "మా",
      "ండ"
    ],
    [
      "సం",
      ",</w>"
    ],
    [
      "ంధ",
      "్ర"
    ],
    [
      "ప్రాచు",
      "ర్యం</w>"
    ],
    [
      "ప్ర",
      "వాహ"
    ],
    [
      "వల",
      "సి</w>"
    ],
    [
      "తల్ల",
      "ి</w>"
    ],
    [
      "చె",
      "య్య"
    ],
    [
      "పత్ర",
      "ిక"
    ],
    [
      "వస్తువ",
      "ులను</w>"
    ],
    [
      "ఇ",
      "ల్ల"
    ],
    [
      "వార్ష",
      "ిక</w>"
    ],
    [
      "మళ్ళ",
      "ీ</w>"
    ],
    [
      "త",
      "కు</w>"
    ],
    [
      "మొట్ట",
      "మొదటి</w>"
    ],
    [
      "వి",
      "చార"
    ],
    [
      "ప్రస్తా",
      "వ"
    ],
    [
      "న",
      "ల్ల"
    ],
    [
      "ుడ",
      "ు.</w>"
    ],
    [
      "ఉపయోగ",
      "ించి</w>"
    ],
    [
      "1",
      "1</w>"
    ],
    [
      "వి",
      "మాన"
    ],
    [
      "తన",
      "ను</w>"
    ],
    [
      "వి",
      "ష్ణ"
    ],
    [
      "ల",
      "వ"
    ],
    [
      "ప",
      "ల్ల"
    ],
    [
      "మ్యా",
      "చ్‌"
    ],
    [
      "సమీప",
      "ంలోని</w>"
    ],
    [
      "ప",
      "ద్"
    ],
    [
      "ఫ",
      "ర్</w>"
    ],
    [
      "సమ",
      "ర్థ"
    ],
    [
      "ాయి",
      "డ్</w>"
    ],
    [
      "ముగ్",
      "గురు</w>"
    ],
    [
      "పొ",
      "ర"
    ],
    [
      "జట్టు",
      "కు</w>"
    ],
    [
      "వి",
      "గ్రహ"
    ],
    [
      "శ్ర",
      "ా"
    ],
    [
      "ప్రారంభ",
      "ించింది.</w>"
    ],
    [
      "ఆరోగ",
      "్య</w>"
    ],
    [
      "ధ",
      "ాని"
    ],
    [
      "ుడ",
      "ు,</w>"
    ],
    [
      "ఎ",
      "ప్పుడూ</w>"
    ],
    [
      "అనుసం",
      "ధా"
    ],
    [
      "బ",
      "ార్"
    ],
    [
      "సౌ",
      "కర్"
    ],
    [
      "వేగ",
      "ంగా</w>"
    ],
    [
      "ష",
      "ూ"
    ],
    [
      "ధృ",
      "వీ"
    ],
    [
      "దీ",
      "న్ని</w>"
    ],
    [
      "గో",
      "ల్స్</w>"
    ],
    [
      "న్న",
      "ె"
    ],
    [
      "ఆయ",
      "నను</w>"
    ],
    [
      "శక్",
      "తి"
    ],
    [
      "జర",
      "గ"
    ],
    [
      "ని",
      "షే"
    ],
    [
      "1",
      "6</w>"
    ],
    [
      "క",
      "ప్</w>"
    ],
    [
      "దగ్గ",
      "ర"
    ],
    [
      "బడ్",
      "జె"
    ],
    [
      "మ",
      "ిక్</w>"
    ],
    [
      "అప్ప",
      "టి</w>"
    ],
    [
      "ు",
      "కు</w>"
    ],
    [
      "ళ్ల",
      "ను</w>"
    ],
    [
      "వా",
      "న్</w>"
    ],
    [
      "వి",
      "ల్ల"
    ],
    [
      "స్",
      "పోర్"
    ],
    [
      "సంవత్",
      "స"
    ],
    [
      "కూడ",
      "ా.</w>"
    ],
    [
      "చిత్ర",
      "ీకరించ"
    ],
    [
      "కూ",
      "ల"
    ],
    [
      "మె",
      "క్"
    ],
    [
      "శా",
      "త"
    ],
    [
      "మ",
      "ాయ"
    ],
    [
      "ీ",
      "గా</w>"
    ],
    [
      "మంత్ర",
      "ి</w>"
    ],
    [
      "ఇ",
      "బ్బ"
    ],
    [
      "తరు",
      "వాతి</w>"
    ],
    [
      "వ",
      "చ"
    ],
    [
      "ఈ",
      "శా"
    ],
    [
      "వి",
      "టమి"
    ],
    [
      "భూ",
      "భాగ"
    ],
    [
      "ణ",
      "ంలో</w>"
    ],
    [
      "వీ",
      "లు</w>"
    ],
    [
      "వా",
      "ళ్ళు</w>"
    ],
    [
      "వి",
      "రా"
    ],
    [
      "ప్ర",
      "వహి"
    ],
    [
      "ఎ",
      "ల్‌"
    ],
    [
      "నిమిష",
      "ాల</w>"
    ],
    [
      "చేసు",
      "కో"
    ],
    [
      "పొ",
      "ందు"
    ],
    [
      "గ్",
      "నే"
    ],
    [
      "ఉన్న",
      "త</w>"
    ],
    [
      "ద",
      "ీ</w>"
    ],
    [
      "ం",
      "జ"
    ],
    [
      "ఆ",
      "త్మ"
    ],
    [
      "్‌",
      "</w>"
    ],
    [
      "శ",
      "్య"
    ],
    [
      "షి",
      "యా</w>"
    ],
    [
      "ల",
      "లో,</w>"
    ],
    [
      "న",
      "ం.</w>"
    ],
    [
      "స్",
      "మార"
    ],
    [
      "కు",
      "నే"
    ],
    [
      "పున",
      "రుద్ధ"
    ],
    [
      "త",
      "ులకు</w>"
    ],
    [
      "ణ",
      "్</w>"
    ],
    [
      "న",
      "డ"
    ],
    [
      "నే",
      "ట్</w>"
    ],
    [
      "ఉ",
      "పా"
    ],
    [
      "కుటుంబ",
      "ం</w>"
    ],
    [
      "లే",
      "క"
    ],
    [
      "క్",
      "సి"
    ],
    [
      "మ",
      "త</w>"
    ],
    [
      "ట",
      "ప్పుడు</w>"
    ],
    [
      "ము",
      "డి"
    ],
    [
      "నగ",
      "ర</w>"
    ],
    [
      "న్న",
      "ాడు.</w>"
    ],
    [
      "య",
      "ే</w>"
    ],
    [
      "టెలి",
      "విజన్</w>"
    ],
    [
      "ఇంట",
      "ికి</w>"
    ],
    [
      "వి",
      "రమ"
    ],
    [
      "ఆటగ",
      "ాడు</w>"
    ],
    [
      "మో",
      "డ"
    ],
    [
      "కాలి",
      "ఫోర్"
    ],
    [
      "రం",
      "గు"
    ],
    [
      "నీయ",
      "మైన</w>"
    ],
    [
      "మద్ద",
      "తు"
    ],
    [
      "డ",
      "ు,</w>"
    ],
    [
      "రాజ",
      "్</w>"
    ],
    [
      "దిగు",
      "వ</w>"
    ],
    [
      "రియ",
      "ల్</w>"
    ],
    [
      "స్టేట్",
      "స్‌లోని</w>"
    ],
    [
      "శై",
      "లి"
    ],
    [
      "సముద్ర",
      "</w>"
    ],
    [
      "గాల",
      "ి"
    ],
    [
      "తె",
      "ర"
    ],
    [
      "ఇచ్చ",
      "ారు.</w>"
    ],
    [
      "ను",
      "ప"
    ],
    [
      "సు",
      "ను</w>"
    ],
    [
      "సొ",
      "ంత</w>"
    ],
    [
      "వి",
      "వా"
    ],
    [
      "పోయ",
      "ారు.</w>"
    ],
    [
      "ీ",
      "లో</w>"
    ],
    [
      "తర",
      "ఫు"
    ],
    [
      "వెలు",
      "ప"
    ],
    [
      "మధ్య",
      "లో</w>"
    ],
    [
      "ఒక",
      "టిగా</w>"
    ],
    [
      "శాఖ",
      "</w>"
    ],
    [
      "ర్",
      "ల</w>"
    ],
    [
      "ఛాంపియన్‌",
      "షి"
    ],
    [
      "అ",
      "గ్"
    ],
    [
      "ప",
      "ిం"
    ],
    [
      "రద్ద",
      "ు</w>"
    ],
    [
      "లా",
      "ది</w>"
    ],
    [
      "హీ",
      "న"
    ],
    [
      "స్త",
      "ే,</w>"
    ],
    [
      "ాల్",
      "లో,</w>"
    ],
    [
      "భార",
      "్య</w>"
    ],
    [
      "న",
      "ాడ"
    ],
    [
      "వి",
      "గా</w>"
    ],
    [
      "పో",
      "యి"
    ],
    [
      "కోర్",
      "టు</w>"
    ],
    [
      "ప్రయో",
      "జన"
    ],
    [
      "ద",
      "ైన</w>"
    ],
    [
      "డ",
      "్యూ"
    ],
    [
      "చె",
      "క్క"
    ],
    [
      "పద",
      "ం</w>"
    ],
    [
      "డ్",
      "రా"
    ],
    [
      "త్త",
      "గా</w>"
    ],
    [
      "రు",
      ",</w>"
    ],
    [
      "క్ట",
      "ీ"
    ],
    [
      "అయ",
      "ింది.</w>"
    ],
    [
      "ద",
      "ే</w>"
    ],
    [
      "19",
      "0"
    ],
    [
      "6",
      "0</w>"
    ],
    [
      "ని",
      "ష్"
    ],
    [
      "1",
      "8</w>"
    ],
    [
      "జ",
      "ట్లు</w>"
    ],
    [
      "మె",
      "ద"
    ],
    [
      "స్ట",
      "ీ"
    ],
    [
      "అ",
      "ణ"
    ],
    [
      "ీ",
      "కి</w>"
    ],
    [
      "ుల",
      "పై</w>"
    ],
    [
      "ప్రా",
      "ముఖ్య"
    ],
    [
      "ప్ర",
      "శ్"
    ],
    [
      "తరఫు",
      "న</w>"
    ],
    [
      "రి",
      "కి</w>"
    ],
    [
      "స్తు",
      "ంది</w>"
    ],
    [
      "ట్ల",
      "ా"
    ],
    [
      "డ్",
      ",</w>"
    ],
    [
      "స్టే",
      "ష"
    ],
    [
      "ప్రారంభ",
      "ించాడు.</w>"
    ],
    [
      "శ",
      "స్త్ర"
    ],
    [
      "బెంగ",
      "ాల్</w>"
    ],
    [
      "చి",
      "వర"
    ],
    [
      "ంత",
      "రం</w>"
    ],
    [
      "ప్రే",
      "క్ష"
    ],
    [
      "వైద్య",
      "</w>"
    ],
    [
      "భూ",
      "మి</w>"
    ],
    [
      "ఊ",
      "హ"
    ],
    [
      "ఉద",
      "్యా"
    ],
    [
      "ు",
      "కో"
    ],
    [
      "మహిళ",
      "లు</w>"
    ],
    [
      "మూ",
      "ర్"
    ],
    [
      "2",
      "4"
    ],
    [
      "వ",
      "ద"
    ],
    [
      "మ",
      "ృ"
    ],
    [
      "నే",
      "పథ"
    ],
    [
      "పాల",
      "్</w>"
    ],
    [
      "డ",
      "్ల"
    ],
    [
      "ధ",
      "్యా"
    ],
    [
      "ఆట",
      "ను</w>"
    ],
    [
      "పెట్టు",
      "బడ"
    ],
    [
      "మ్మ",
      "ల్ని</w>"
    ],
    [
      "స్వ",
      "తంత్ర"
    ],
    [
      "నట",
      "ించారు.</w>"
    ],
    [
      "తి",
      "ర"
    ],
    [
      "హా",
      "స"
    ],
    [
      "అ",
      "శో"
    ],
    [
      "మరాఠ",
      "ా</w>"
    ],
    [
      "దేశ",
      "ం</w>"
    ],
    [
      "డ",
      "ాన్ని</w>"
    ],
    [
      "తెలియ",
      "జే"
    ],
    [
      "కమ్యూ",
      "ని"
    ],
    [
      "చ",
      "ర"
    ],
    [
      "ఇ",
      "లా</w>"
    ],
    [
      "జరిగ",
      "ే</w>"
    ],
    [
      "అ",
      "థ"
    ],
    [
      "పట్ట",
      "ణ</w>"
    ],
    [
      "నీ",
      "రు</w>"
    ],
    [
      ")",
      ".</w>"
    ],
    [
      "క",
      "న్"
    ],
    [
      "మండ",
      "ల</w>"
    ],
    [
      "క్రిక",
      "ెట్</w>"
    ],
    [
      "సభ్య",
      "ులు</w>"
    ],
    [
      "కు",
      "డిగా</w>"
    ],
    [
      "నిర్మ",
      "ించిన</w>"
    ],
    [
      "బో",
      "ధ"
    ],
    [
      "వి",
      "ఫల"
    ],
    [
      "ఆ",
      "గ్నే"
    ],
    [
      "త",
      "ి,</w>"
    ],
    [
      "నిర్మ",
      "ించారు.</w>"
    ],
    [
      "ీ",
      "లు</w>"
    ],
    [
      "అన",
      "ారోగ"
    ],
    [
      "త",
      "గిన"
    ],
    [
      "సీజ",
      "న్</w>"
    ],
    [
      "మి",
      "శ్ర"
    ],
    [
      "షా",
      "ప"
    ],
    [
      "నియా",
      "లోని</w>"
    ],
    [
      "మ",
      "ను"
    ],
    [
      "పార",
      "్ల"
    ],
    [
      "సాం",
      "స్కృ"
    ],
    [
      "భ",
      "ీ"
    ],
    [
      "జ",
      "న</w>"
    ],
    [
      "ప్రభా",
      "వం</w>"
    ],
    [
      "ప్రాతి",
      "ని"
    ],
    [
      "సమాచార",
      "ాన్ని</w>"
    ],
    [
      "క",
      "స్ట"
    ],
    [
      "ఆట",
      "లు</w>"
    ],
    [
      "పడ",
      "ిన</w>"
    ],
    [
      "ప్ర",
      "త్యా"
    ],
    [
      "ఆ",
      "న్‌"
    ],
    [
      "గాంధ",
      "ీ</w>"
    ],
    [
      "కా",
      "కుండా,</w>"
    ],
    [
      "క్",
      "వా"
    ],
    [
      "ఆట",
      "లో</w>"
    ],
    [
      "నిలి",
      "పి"
    ],
    [
      "ణ",
      "ే"
    ],
    [
      "20",
      "0</w>"
    ],
    [
      "ణ",
      "లు</w>"
    ],
    [
      "పడ్డ",
      "ారు.</w>"
    ],
    [
      "్‌",
      "గా</w>"
    ],
    [
      "కొన",
      "సాగు"
    ],
    [
      "పట్టణ",
      "ం.</w>"
    ],
    [
      "ఇండ",
      "ియన్</w>"
    ],
    [
      "నెల",
      "ల</w>"
    ],
    [
      "తీ",
      "ర"
    ],
    [
      "నా",
      "గ"
    ],
    [
      "మ",
      "ని"
    ],
    [
      "మూ",
      "సి"
    ],
    [
      "స్",
      "రా"
    ],
    [
      "ప్ర",
      "ార్థ"
    ],
    [
      "చ",
      "ల్ల"
    ],
    [
      "లై",
      "ంగ"
    ],
    [
      "సే",
      "న్</w>"
    ],
    [
      "7",
      "న</w>"
    ],
    [
      "శక్",
      "తి</w>"
    ],
    [
      "ించ",
      "లేదు.</w>"
    ],
    [
      "2",
      "8"
    ],
    [
      "రా",
      "ధ"
    ],
    [
      "భ",
      "విష"
    ],
    [
      "ఉండ",
      "గా,</w>"
    ],
    [
      "వాయ",
      "ు"
    ],
    [
      "న",
      "లు"
    ],
    [
      "కార్య",
      "ాల"
    ],
    [
      "అవ",
      "ుతుంది.</w>"
    ],
    [
      "ప్రత్యా",
      "మ్"
    ],
    [
      "ప్రత్యామ్",
      "నాయ"
    ],
    [
      "శ్ర",
      "ీ</w>"
    ],
    [
      "అంది",
      "స్తుంది.</w>"
    ],
    [
      "న్‌",
      "లు</w>"
    ],
    [
      "వయస్",
      "సులో</w>"
    ],
    [
      "బ్రె",
      "జి"
    ],
    [
      "ఒప్పంద",
      "ం</w>"
    ],
    [
      "వార",
      "ు,</w>"
    ],
    [
      "ుడ",
      "ైన</w>"
    ],
    [
      "అ",
      "డి"
    ],
    [
      "ే",
      "ందుకు</w>"
    ],
    [
      "ట్ల",
      "ు,</w>"
    ],
    [
      "మ",
      "ర్</w>"
    ],
    [
      "స్పష్ట",
      "ంగా</w>"
    ],
    [
      "ప్రచు",
      "రించ"
    ],
    [
      "నిర్మా",
      "ణ</w>"
    ],
    [
      "బ",
      "ా</w>"
    ],
    [
      "సమీ",
      "క్ష"
    ],
    [
      "వ్యాప్",
      "తి</w>"
    ],
    [
      "వృత్త",
      "ి"
    ],
    [
      "2",
      "3"
    ],
    [
      "తె",
      "ల్ల"
    ],
    [
      "వాడ",
      "ు.</w>"
    ],
    [
      "ప్రజ",
      "ల</w>"
    ],
    [
      "అ",
      "ట"
    ],
    [
      "పాఠశ",
      "ాల</w>"
    ],
    [
      "ర్‌",
      "లోని</w>"
    ],
    [
      "బయట",
      "కు</w>"
    ],
    [
      "2",
      "న</w>"
    ],
    [
      "ంగ",
      "ి"
    ],
    [
      "చ",
      "ైనా</w>"
    ],
    [
      "వీటి",
      "ని</w>"
    ],
    [
      "విటమి",
      "న్</w>"
    ],
    [
      "ప్రారంభ",
      "మైంది.</w>"
    ],
    [
      "ిక్",
      "స్</w>"
    ],
    [
      "వా",
      "లో</w>"
    ],
    [
      "వరుస",
      "గా</w>"
    ],
    [
      "మ్",
      ",</w>"
    ],
    [
      "మా",
      "న</w>"
    ],
    [
      "భిన్న",
      "ంగా</w>"
    ],
    [
      "కా",
      "వ"
    ],
    [
      "పరి",
      "శీల"
    ],
    [
      "గఢ",
      "్</w>"
    ],
    [
      "పంపి",
      "ణ"
    ],
    [
      "డి",
      "స్"
    ],
    [
      "ఊ",
      "పి"
    ],
    [
      "లో",
      "య"
    ],
    [
      "తి",
      "రు"
    ],
    [
      "వ",
      "ుల</w>"
    ],
    [
      "మయ్య",
      "ే</w>"
    ],
    [
      "నా",
      "శ"
    ],
    [
      "యూరోపి",
      "యన్</w>"
    ],
    [
      "క్ర",
      "ింద</w>"
    ],
    [
      "వహ",
      "ించిన</w>"
    ],
    [
      "రికార్",
      "డ"
    ],
    [
      "వసూ",
      "లు</w>"
    ],
    [
      "తా",
      "క"
    ],
    [
      "ించబడ",
      "తాయి.</w>"
    ],
    [
      "ప్రా",
      "చీ"
    ],
    [
      "ాడ",
      "్"
    ],
    [
      "సంస్థ",
      "లు</w>"
    ],
    [
      "ఎ",
      "క్క"
    ],
    [
      "పా",
      "ట</w>"
    ],
    [
      "మొ",
      "క్క"
    ],
    [
      "గుర్",
      "తు"
    ],
    [
      "సైన్",
      "యం</w>"
    ],
    [
      "అసోసియే",
      "షన్</w>"
    ],
    [
      "వైవి",
      "ధ్య"
    ],
    [
      "వర",
      "ల్డ్</w>"
    ],
    [
      "సమా",
      "జ"
    ],
    [
      "మం",
      "చి"
    ],
    [
      "హి",
      "త</w>"
    ],
    [
      "ప్ర",
      "క్రియ"
    ],
    [
      "ప్రాంత",
      "ాన్ని</w>"
    ],
    [
      "భాష",
      "</w>"
    ],
    [
      "గాయ",
      "ం</w>"
    ],
    [
      "ఇ",
      "ంగ్ల"
    ],
    [
      "స్",
      "క్రీ"
    ],
    [
      "మ్యా",
      "చ్</w>"
    ],
    [
      "ఒ",
      "త్తి"
    ],
    [
      "ప్రతి",
      "స్పంద"
    ],
    [
      "లే",
      "ఖ"
    ],
    [
      "అడ",
      "గ"
    ],
    [
      "తీవ్ర",
      "ంగా</w>"
    ],
    [
      "స",
      "న్ని"
    ],
    [
      "పా",
      "త"
    ],
    [
      "200",
      "7</w>"
    ],
    [
      "వి",
      "రుద్ధ"
    ],
    [
      "గ",
      "ార"
    ],
    [
      "ట",
      "ూ"
    ],
    [
      "ం",
      "లో"
    ],
    [
      "చరి",
      "త్ర</w>"
    ],
    [
      "పురా",
      "ణ"
    ],
    [
      "ాల",
      "ి"
    ],
    [
      "మో",
      "ట"
    ],
    [
      "డ",
      "ిక"
    ],
    [
      "సర",
      "ఫ"
    ],
    [
      "వల్ల",
      ",</w>"
    ],
    [
      "ఎ",
      "ఫ్</w>"
    ],
    [
      "వయ",
      "స్సు</w>"
    ],
    [
      "2",
      "6"
    ],
    [
      "శి",
      "ల్ప"
    ],
    [
      "సిం",
      "ధ"
    ],
    [
      "వై",
      "</w>"
    ],
    [
      "భవిష",
      "్య"
    ],
    [
      "ని",
      "బంధ"
    ],
    [
      "ఇ",
      "ంత"
    ],
    [
      "ఘ",
      "ో"
    ],
    [
      "వచ్చ",
      "ని</w>"
    ],
    [
      "వె",
      "ళ్"
    ],
    [
      "ఉత్త",
      "ర"
    ],
    [
      "శు",
      "భ్ర"
    ],
    [
      "సి",
      "క</w>"
    ],
    [
      "యూని",
      "వర్"
    ],
    [
      "శాస",
      "న"
    ],
    [
      "సాధ",
      "ించింది.</w>"
    ],
    [
      "ప్రోత్",
      "సహ"
    ],
    [
      "న్యూయార్",
      "క్</w>"
    ],
    [
      "స్వాత",
      "ంత్ర"
    ],
    [
      "ఉన్న",
      "ప్పటికీ,</w>"
    ],
    [
      "కో",
      "ర"
    ],
    [
      "కార",
      "ం</w>"
    ],
    [
      "పూ",
      ".</w>"
    ],
    [
      "వ",
      "ల</w>"
    ],
    [
      "స్థా",
      "నం</w>"
    ],
    [
      "ఉత్తరా",
      "న</w>"
    ],
    [
      "ఉన్న",
      "ప్పుడు</w>"
    ],
    [
      "ింగ",
      "్,</w>"
    ],
    [
      "లక్ష",
      "ల</w>"
    ],
    [
      "ప్రకట",
      "ించారు.</w>"
    ],
    [
      "వే",
      "ర్</w>"
    ],
    [
      "స్టే",
      "షన్</w>"
    ],
    [
      "ప్ప",
      "ు"
    ],
    [
      "అల",
      "ీ</w>"
    ],
    [
      "గణ",
      "నీయమైన</w>"
    ],
    [
      "అ",
      "రె"
    ],
    [
      "ధా",
      "న్య"
    ],
    [
      "తే",
      "దీ"
    ],
    [
      "సం",
      "భా"
    ],
    [
      "సభ",
      "</w>"
    ],
    [
      "శ",
      "ారు.</w>"
    ],
    [
      "ప్రపంచ",
      "ంలోని</w>"
    ],
    [
      "సి",
      "యా</w>"
    ],
    [
      "గ",
      "ుల"
    ],
    [
      "కార",
      "</w>"
    ],
    [
      "రూ",
      "పా"
    ],
    [
      "సంబంధ",
      "ిత</w>"
    ],
    [
      "స్తు",
      "ందని</w>"
    ],
    [
      "చేయబడ",
      "్డాయి.</w>"
    ],
    [
      "ఉపయోగ",
      "ించవచ్చు.</w>"
    ],
    [
      "నె",
      "ట్</w>"
    ],
    [
      "ర",
      "ష్య"
    ],
    [
      "విడిచి",
      "పెట్ట"
    ],
    [
      "ఖ",
      "ి"
    ],
    [
      "రు",
      "లో</w>"
    ],
    [
      "చారిత్ర",
      "క</w>"
    ],
    [
      "ఉద్యా",
      "నవ"
    ],
    [
      "గ",
      "ణి"
    ],
    [
      "వీ",
      "డియో</w>"
    ],
    [
      "వి",
      "కీ"
    ],
    [
      "క్రీడ",
      "ా</w>"
    ],
    [
      "వుడ",
      "్</w>"
    ],
    [
      "పురుష",
      "ుల</w>"
    ],
    [
      "మ",
      "ట్ట"
    ],
    [
      "ఉష్ణ",
      "మండల</w>"
    ],
    [
      "గా",
      "ను</w>"
    ],
    [
      "రాయ",
      "్</w>"
    ],
    [
      "1",
      "7</w>"
    ],
    [
      "నే",
      "ర్చు"
    ],
    [
      "సై",
      "న్య"
    ],
    [
      "ర్",
      "య</w>"
    ],
    [
      "పి",
      "లి"
    ],
    [
      "ించ",
      "గా,</w>"
    ],
    [
      "మైన",
      "ది.</w>"
    ],
    [
      "బ",
      "ూ"
    ],
    [
      "సర",
      "ైన</w>"
    ],
    [
      "సరి",
      "గ్గా</w>"
    ],
    [
      "ఏ",
      "మి"
    ],
    [
      "మి",
      "మ్మల్ని</w>"
    ],
    [
      "కొ",
      "ంచె"
    ],
    [
      "ఎ",
      "ల"
    ],
    [
      "అను",
      "బంధ"
    ],
    [
      "వి",
      "శ్"
    ],
    [
      "తా",
      "త్"
    ],
    [
      "బహి",
      "రంగ"
    ],
    [
      "నీ",
      ",</w>"
    ],
    [
      "రా",
      "తి</w>"
    ],
    [
      "ఆ",
      "వి"
    ],
    [
      "బల",
      "మైన</w>"
    ],
    [
      "తున్న",
      "ారు.</w>"
    ],
    [
      "ఇంగ్లా",
      "ండ"
    ],
    [
      "వల",
      "స"
    ],
    [
      "కనిప",
      "ించే</w>"
    ],
    [
      "గో",
      "ల్‌"
    ],
    [
      "ే",
      "య"
    ],
    [
      "నా",
      "మి"
    ],
    [
      "సిని",
      "మ"
    ],
    [
      "డి",
      "ఫె"
    ],
    [
      "పాత్ర",
      "ను</w>"
    ],
    [
      "ప",
      "్‌లో</w>"
    ],
    [
      "క",
      "ింద</w>"
    ],
    [
      "మ",
      "ద్య"
    ],
    [
      "నిర",
      "స"
    ],
    [
      "ిన",
      "ప్పుడు,</w>"
    ],
    [
      "అనుసంధా",
      "న"
    ],
    [
      "ే",
      "షన్</w>"
    ],
    [
      "వంట",
      "ి"
    ],
    [
      "బృంద",
      "ం</w>"
    ],
    [
      "మాన",
      "సిక</w>"
    ],
    [
      "చేయ",
      "ండి.</w>"
    ],
    [
      "కొంచె",
      "ం</w>"
    ],
    [
      "తి",
      "తో</w>"
    ],
    [
      "రు",
      "డు</w>"
    ],
    [
      "యు",
      "గ"
    ],
    [
      "సు",
      "దీర్ఘ"
    ],
    [
      "భాష",
      "ా</w>"
    ],
    [
      "ప్రభుత్",
      "వ"
    ],
    [
      "న్",
      "సీ</w>"
    ],
    [
      "సహ",
      "జ</w>"
    ],
    [
      "శ్రే",
      "ణి</w>"
    ],
    [
      "విష",
      "యంలో</w>"
    ],
    [
      "వల",
      "న</w>"
    ],
    [
      "మ్మ",
      "ి"
    ],
    [
      "కారణ",
      "ంగా,</w>"
    ],
    [
      "ది",
      "క</w>"
    ],
    [
      "ఉ",
      "త్స"
    ],
    [
      "డ",
      "ౌ"
    ],
    [
      "విం",
      "డో"
    ],
    [
      "అ",
      "గ్ర"
    ],
    [
      "భారతదేశ",
      "</w>"
    ],
    [
      "చేసు",
      "కోవ"
    ],
    [
      "వ్ర",
      "ాయ"
    ],
    [
      "ఇంట",
      "్లో</w>"
    ],
    [
      "సంవత్సర",
      "ంలో</w>"
    ],
    [
      "ఫీ",
      "ల్డ్</w>"
    ],
    [
      "మ",
      "రు"
    ],
    [
      "ంత",
      "ా</w>"
    ],
    [
      "కుంటు",
      "న్న"
    ],
    [
      "జో",
      "డ"
    ],
    [
      "య",
      "ార"
    ],
    [
      "జనాభా",
      "లో</w>"
    ],
    [
      "పొదు",
      "పు</w>"
    ],
    [
      "దే",
      "వ్</w>"
    ],
    [
      "నాయ",
      "కత్వం</w>"
    ],
    [
      "200",
      "0</w>"
    ],
    [
      "అ",
      "న్"
    ],
    [
      "పె",
      "ర్"
    ],
    [
      "స్త",
      "ాయి,</w>"
    ],
    [
      "క",
      "ులకు</w>"
    ],
    [
      "జన్మ",
      "ించాడు.</w>"
    ],
    [
      "బ",
      "ట్టి</w>"
    ],
    [
      "ీ",
      "ర్"
    ],
    [
      "1",
      "వ</w>"
    ],
    [
      "కూ",
      "ర్చ"
    ],
    [
      "ఎ",
      "ండ"
    ],
    [
      "ప్రతి",
      "పాద"
    ],
    [
      "రి",
      ",</w>"
    ],
    [
      "కే",
      "ట"
    ],
    [
      "సై",
      "ని"
    ],
    [
      "1",
      "3</w>"
    ],
    [
      "ద",
      "వ</w>"
    ],
    [
      "లా",
      "ండ్"
    ],
    [
      "5",
      "0"
    ],
    [
      "200",
      "9</w>"
    ],
    [
      "కో",
      "ట్ల</w>"
    ],
    [
      "వ్",
      "వు</w>"
    ],
    [
      "202",
      "2</w>"
    ],
    [
      "పార్ల",
      "మెంట"
    ],
    [
      "త",
      "ాయి,</w>"
    ],
    [
      "ఖ",
      "ై"
    ],
    [
      "ము",
      "నుప"
    ],
    [
      "కా",
      "వాల"
    ],
    [
      "మంత్ర",
      "ిగా</w>"
    ],
    [
      "ప్రాతిని",
      "ధ్యం</w>"
    ],
    [
      "ంగ",
      "</w>"
    ],
    [
      "ప్ర",
      "యోగ"
    ],
    [
      "న",
      "చ్చ"
    ],
    [
      "పేరు",
      "తో</w>"
    ],
    [
      "పర్వ",
      "త"
    ],
    [
      "చె",
      "ందు"
    ],
    [
      "తు",
      "ంది</w>"
    ],
    [
      "తల్ల",
      "ిద"
    ],
    [
      "తల్లిద",
      "ండ్ర"
    ],
    [
      "5",
      "00</w>"
    ],
    [
      "మ",
      "తం</w>"
    ],
    [
      "పున",
      "ర్"
    ],
    [
      "ఎ",
      "ల్ల"
    ],
    [
      "సిం",
      "డ్రో"
    ],
    [
      "కీ",
      "ల"
    ],
    [
      "ఆహార",
      "</w>"
    ],
    [
      "కా",
      "మ"
    ],
    [
      "గ",
      "డి"
    ],
    [
      "ఆటగ",
      "ాడ"
    ],
    [
      "నా",
      "ణ్య"
    ],
    [
      "పా",
      "టి</w>"
    ],
    [
      "హె",
      "చ్చ"
    ],
    [
      "స్వ",
      "ంత</w>"
    ],
    [
      "కుంట",
      "ాడు.</w>"
    ],
    [
      "తా",
      "ము</w>"
    ],
    [
      "రు",
      "గ్"
    ],
    [
      "తే",
      "లిక"
    ],
    [
      "పర్యా",
      "వర"
    ],
    [
      "ఫ",
      "ా</w>"
    ],
    [
      "లి",
      "న్</w>"
    ],
    [
      "క",
      "్‌లో</w>"
    ],
    [
      "చక్రవర్",
      "తి</w>"
    ],
    [
      "లే",
      "న"
    ],
    [
      "అ",
      "ంబ"
    ],
    [
      "స్టే",
      "ట్</w>"
    ],
    [
      "ా",
      "లో</w>"
    ],
    [
      "స్థాయి",
      "లో</w>"
    ],
    [
      "రిక",
      "ీ</w>"
    ],
    [
      "వార",
      "ి"
    ],
    [
      "జ",
      "ు</w>"
    ],
    [
      "రా",
      "ష్ట"
    ],
    [
      "సిని",
      "మా"
    ],
    [
      "హ",
      "రి"
    ],
    [
      "గే",
      "మ్</w>"
    ],
    [
      "చె",
      "న్న"
    ],
    [
      "తర",
      "ం</w>"
    ],
    [
      "ఆన",
      "కట్ట"
    ],
    [
      "చ",
      "ంద"
    ],
    [
      "రాజ",
      "ధాని"
    ],
    [
      "సంవత్సర",
      "ాలు</w>"
    ],
    [
      "ఫ",
      "ౌ"
    ],
    [
      "ాల్",
      ",</w>"
    ],
    [
      "న్",
      "లను</w>"
    ],
    [
      "తీ",
      "ర్థ"
    ],
    [
      "ఫ",
      "ార"
    ],
    [
      "శ్రే",
      "ణ"
    ],
    [
      "ప్రదర్శ",
      "న"
    ],
    [
      "అయిన",
      "ప్పటికీ,</w>"
    ],
    [
      "గల",
      "దు.</w>"
    ],
    [
      "వి",
      "నో"
    ],
    [
      "అల",
      "ం"
    ],
    [
      "త",
      "ద్వారా</w>"
    ],
    [
      "శై",
      "ల"
    ],
    [
      "నృత్య",
      "</w>"
    ],
    [
      "మా",
      "ద"
    ],
    [
      "బా",
      "ద్</w>"
    ],
    [
      "చే",
      "తిలో</w>"
    ],
    [
      "వే",
      "ల"
    ],
    [
      "దా",
      "ఖ"
    ],
    [
      "వే",
      "ష"
    ],
    [
      "శ",
      "ృ"
    ],
    [
      "ఆ",
      "ధి"
    ],
    [
      "ప్రాంత",
      "ీయ</w>"
    ],
    [
      "వి",
      "లీ"
    ],
    [
      "ప్రాంత",
      "ంలోని</w>"
    ],
    [
      "ర",
      "మైన</w>"
    ],
    [
      "ఆస్ట్రేలి",
      "యా</w>"
    ],
    [
      "బంగ",
      "్లా"
    ],
    [
      "పరి",
      "మాణ"
    ],
    [
      "ఒక",
      "రు</w>"
    ],
    [
      "బౌద్ధ",
      "</w>"
    ],
    [
      "బంగ",
      "ారు</w>"
    ],
    [
      "చేసు",
      "కున్న"
    ],
    [
      "ల",
      "య"
    ],
    [
      "విశ్వవిద్య",
      "ాలయ"
    ],
    [
      "ఆటగా",
      "ళ్ళు</w>"
    ],
    [
      "ఆ",
      "డు"
    ],
    [
      "కార",
      "ు</w>"
    ],
    [
      "స",
      "మ్మ"
    ],
    [
      "మునుప",
      "టి</w>"
    ],
    [
      "ఆ",
      "ర్</w>"
    ],
    [
      "సం",
      "ప్రద"
    ],
    [
      "ుల",
      "ైన</w>"
    ],
    [
      "క",
      "ట్టు"
    ],
    [
      "దా",
      "నం</w>"
    ],
    [
      "లె",
      "క్క"
    ],
    [
      "అ",
      "బ్బ"
    ],
    [
      "థ",
      "ియ"
    ],
    [
      "కొ",
      "ర"
    ],
    [
      "న",
      "న్ను</w>"
    ],
    [
      "సులభ",
      "ంగా</w>"
    ],
    [
      "్ల",
      "ు,</w>"
    ],
    [
      "పె",
      "ర"
    ],
    [
      "వే",
      "రే</w>"
    ],
    [
      "ల్",
      "డ"
    ],
    [
      "బడ",
      "ు"
    ],
    [
      "స్వీ",
      "కరించ"
    ],
    [
      "ో",
      "హ"
    ],
    [
      "ప్రే",
      "రే"
    ],
    [
      "ప్రే",
      "మ"
    ],
    [
      "సం",
      "కే"
    ],
    [
      "జ",
      "ంట"
    ],
    [
      "వె",
      "ం"
    ],
    [
      "వచ్చ",
      "ి</w>"
    ],
    [
      "నిర్ధార",
      "ణ</w>"
    ],
    [
      "య",
      "ంత్ర"
    ],
    [
      "మా",
      "ం"
    ],
    [
      "అ",
      "ండ"
    ],
    [
      "ప్ప",
      "టి</w>"
    ],
    [
      "తా",
      "ళ"
    ],
    [
      "అవసర",
      "మైన</w>"
    ],
    [
      "మె",
      "యి"
    ],
    [
      "వె",
      "బ్‌"
    ],
    [
      "స్ట్రో",
      "క్</w>"
    ],
    [
      "గెలుచు",
      "కున్నాడు.</w>"
    ],
    [
      "రు",
      "కు"
    ],
    [
      "అందు",
      "లో</w>"
    ],
    [
      "శ్",
      "చా"
    ],
    [
      "నియ",
      "ర్</w>"
    ],
    [
      "వె",
      "ల్ల"
    ],
    [
      "గలి",
      "గ"
    ],
    [
      "మార్",
      "గం</w>"
    ],
    [
      "ా",
      "?</w>"
    ],
    [
      "ట",
      "ౌ"
    ],
    [
      "ర",
      "ింగ్</w>"
    ],
    [
      "ఉ",
      "ంది</w>"
    ],
    [
      "ఇంటర్",
      "నేషనల్</w>"
    ],
    [
      "తిరుగు",
      "బాటు</w>"
    ],
    [
      "అక్టో",
      "బ"
    ],
    [
      "నో",
      "త్స"
    ],
    [
      "అ",
      "రే"
    ],
    [
      "పాల",
      "నలో</w>"
    ],
    [
      "తీసుకె",
      "ళ్ల"
    ],
    [
      "ల్",
      "చ"
    ],
    [
      "కర్ణా",
      "టక</w>"
    ],
    [
      "గురించ",
      "ిన</w>"
    ],
    [
      "ఇ",
      "ంటి</w>"
    ],
    [
      "అర్హ",
      "త</w>"
    ],
    [
      "అమ",
      "లు</w>"
    ],
    [
      "వ్యాపార",
      "</w>"
    ],
    [
      "చిత్ర",
      "ం.</w>"
    ],
    [
      "ప్రాంత",
      "ాల్లో</w>"
    ],
    [
      "మే",
      "ఘ"
    ],
    [
      "ప్రై",
      "వే"
    ],
    [
      "ప",
      "ంద"
    ],
    [
      "కౌ",
      "న్సి"
    ],
    [
      "సూ",
      "పర్</w>"
    ],
    [
      "భాగ",
      "ం.</w>"
    ],
    [
      "య",
      "్</w>"
    ],
    [
      "ప్రణాళ",
      "ిక</w>"
    ],
    [
      "నిషే",
      "ధ"
    ],
    [
      "ఆ",
      "స్త"
    ],
    [
      "నే",
      "రుగా</w>"
    ],
    [
      "వెను",
      "క</w>"
    ],
    [
      "కా",
      "ంత"
    ],
    [
      "వ్యవసాయ",
      "</w>"
    ],
    [
      "పంజా",
      "బ్</w>"
    ],
    [
      "బంగ్లా",
      "దేశ"
    ],
    [
      "దక్షిణా",
      "న</w>"
    ],
    [
      "చు",
      "ట్టు"
    ],
    [
      "మంచ",
      "ు</w>"
    ],
    [
      "ప్రవేశ",
      "పెట్ట"
    ],
    [
      "న",
      "మోద"
    ],
    [
      "భావి",
      "స్తున్నారు.</w>"
    ],
    [
      "ఉ",
      "చి"
    ],
    [
      "్ట",
      "న్</w>"
    ],
    [
      "బె",
      "ల్"
    ],
    [
      "ఫీ",
      "స్</w>"
    ],
    [
      "న",
      "ానికి</w>"
    ],
    [
      "గె",
      "లిచ"
    ],
    [
      "ద",
      "ర్"
    ],
    [
      "వా",
      "ద</w>"
    ],
    [
      "చట్ట",
      "ం</w>"
    ],
    [
      "జా",
      "తి</w>"
    ],
    [
      "గ్రా",
      "మీ"
    ],
    [
      "రాజవంశ",
      "ం</w>"
    ],
    [
      "శై",
      "లి</w>"
    ],
    [
      "ం",
      "పు"
    ],
    [
      "్య",
      "ుల"
    ],
    [
      "చేయ",
      "ాలని</w>"
    ],
    [
      "మాట్లాడ",
      "ు"
    ],
    [
      "య్య",
      "ాడు.</w>"
    ],
    [
      "వు",
      "గా</w>"
    ],
    [
      "ప",
      "సు"
    ],
    [
      "బర్",
      "గ్</w>"
    ],
    [
      "వచ్చ",
      "ాయి.</w>"
    ],
    [
      "సం",
      "రక్ష"
    ],
    [
      "సాంస్కృ",
      "తిక</w>"
    ],
    [
      "యో",
      "ధ"
    ],
    [
      "పేరు",
      "ను</w>"
    ],
    [
      "ండ",
      "్‌"
    ],
    [
      "త్త",
      "ు</w>"
    ],
    [
      "ఖ",
      "ే"
    ],
    [
      "ఇష్ట",
      "పడ"
    ],
    [
      "గ",
      "ార్"
    ],
    [
      "అ",
      "న్నారు.</w>"
    ],
    [
      "బొ",
      "మ్మ"
    ],
    [
      "ఖ",
      "ు"
    ],
    [
      "ఎత్త",
      "ైన</w>"
    ],
    [
      "అ",
      "సహ"
    ],
    [
      "2",
      "4</w>"
    ],
    [
      "ాడ",
      "్</w>"
    ],
    [
      "మాదిరి",
      "గానే</w>"
    ],
    [
      "త్వర",
      "గా</w>"
    ],
    [
      "పరిస్థి",
      "తి</w>"
    ],
    [
      "మే",
      "ళ"
    ],
    [
      "ఎల",
      "క్ట"
    ],
    [
      "వెబ్‌",
      "సై"
    ],
    [
      "పంచ",
      "ు"
    ],
    [
      "న్‌",
      "గా</w>"
    ],
    [
      "వచ్చ",
      "ారు.</w>"
    ],
    [
      "1",
      "."
    ],
    [
      "సా",
      "ను"
    ],
    [
      "మి",
      "గ"
    ],
    [
      "ఐ",
      "రో"
    ],
    [
      "ఆ",
      "రోప"
    ],
    [
      "నమ్మ",
      "ుతారు.</w>"
    ],
    [
      "నా",
      "ణే"
    ],
    [
      "ణ",
      ",</w>"
    ],
    [
      "ప్రాచీ",
      "న</w>"
    ],
    [
      "ధృవీ",
      "కరించ"
    ],
    [
      "ప",
      "్‌ను</w>"
    ],
    [
      "ఎక్కు",
      "వ"
    ],
    [
      "పార",
      "ు"
    ],
    [
      "కార",
      "ుడు</w>"
    ],
    [
      "రెండ",
      "ో</w>"
    ],
    [
      "అ",
      "లా</w>"
    ],
    [
      "ధ",
      "ికార"
    ],
    [
      "చెల్ల",
      "ించ"
    ],
    [
      "ర",
      "ాయి"
    ],
    [
      "ల్ల",
      "ా</w>"
    ],
    [
      "మీ",
      "డియా</w>"
    ],
    [
      "వ",
      "ో</w>"
    ],
    [
      "టి",
      "వ్</w>"
    ],
    [
      "సిద్ధ",
      "ాంత"
    ],
    [
      "విదేశ",
      "ీ</w>"
    ],
    [
      "జ",
      "్ర"
    ],
    [
      "వి",
      "ని</w>"
    ],
    [
      "ది",
      "నోత్స"
    ],
    [
      "రు",
      "తు"
    ],
    [
      "న",
      "ట్లు</w>"
    ],
    [
      "శ",
      "ార"
    ],
    [
      "2",
      "9"
    ],
    [
      "ఆహార",
      "ం</w>"
    ],
    [
      "ఇటీ",
      "వల"
    ],
    [
      "పు",
      "ణ్య"
    ],
    [
      "వన",
      "ర"
    ],
    [
      "న్‌",
      "</w>"
    ],
    [
      "గంట",
      "ల</w>"
    ],
    [
      "అవసర",
      "ం.</w>"
    ],
    [
      "చ",
      "దర"
    ],
    [
      "ఇ",
      "రు"
    ],
    [
      "ప్రత్యే",
      "క"
    ],
    [
      "వా",
      "ళ్ళ"
    ],
    [
      "సా",
      "స్</w>"
    ],
    [
      "అభి",
      "ప్రాయ"
    ],
    [
      "బహు",
      "మ"
    ],
    [
      "గ",
      "ో</w>"
    ],
    [
      "ద్ర",
      "ా"
    ],
    [
      "ఆ",
      "క్రమ"
    ],
    [
      "ద",
      "క్క"
    ],
    [
      "అడు",
      "గుల</w>"
    ],
    [
      "ధా",
      "న్ని</w>"
    ],
    [
      "ఘ",
      "ా"
    ],
    [
      "రాష్ట",
      "్"
    ],
    [
      "తి",
      "న"
    ],
    [
      "్‌‌",
      "లో</w>"
    ],
    [
      "ల",
      "ింగ్</w>"
    ],
    [
      "ఔ",
      "ష"
    ],
    [
      "శాస్త్ర",
      "వేత్త"
    ],
    [
      "డ్",
      "డు</w>"
    ],
    [
      "రే",
      "ఖ"
    ],
    [
      "నృత్య",
      "ం</w>"
    ],
    [
      "అడు",
      "గు"
    ],
    [
      "చూ",
      "పు"
    ],
    [
      "తె",
      "గ"
    ],
    [
      "శి",
      "వ"
    ],
    [
      "థ",
      "్"
    ],
    [
      "మ",
      "న</w>"
    ],
    [
      "పడ",
      "ింది.</w>"
    ],
    [
      "త",
      "ై"
    ],
    [
      "ప్రత్యే",
      "కమైన</w>"
    ],
    [
      "మార్",
      "చు"
    ],
    [
      "మ",
      "ో</w>"
    ],
    [
      "పీ",
      "ఠ"
    ],
    [
      "వ",
      "ు,</w>"
    ],
    [
      "ద్",
      "ది</w>"
    ],
    [
      "ప్రదేశ",
      "ాలలో</w>"
    ],
    [
      "అక",
      "ాడ"
    ],
    [
      "స",
      "ాల"
    ],
    [
      "అవార్",
      "డును</w>"
    ],
    [
      "అ",
      "ద్ద"
    ],
    [
      "థ",
      "ి"
    ],
    [
      "వ",
      "ింద"
    ],
    [
      "జా",
      "న"
    ],
    [
      "రి",
      "క్</w>"
    ],
    [
      "వా",
      "ళ్ళ</w>"
    ],
    [
      "కౌంటీ",
      "లోని</w>"
    ],
    [
      "్",
      "వర్"
    ],
    [
      "ాయ",
      "ా"
    ],
    [
      "దారితీ",
      "సింది.</w>"
    ],
    [
      "ించిన",
      "ట్లు</w>"
    ],
    [
      "క్క",
      "ి</w>"
    ],
    [
      "పాకిస్తా",
      "న్</w>"
    ],
    [
      "ఉపా",
      "ధ్య"
    ],
    [
      "ఒ",
      "ంట"
    ],
    [
      "కథ",
      "</w>"
    ],
    [
      "ప్రాంత",
      "ాల</w>"
    ],
    [
      "2",
      ","
    ],
    [
      "విలు",
      "వ</w>"
    ],
    [
      "చదర",
      "పు</w>"
    ],
    [
      "తి",
      "త్త"
    ],
    [
      "వాటి",
      "కి</w>"
    ],
    [
      "వస్తు",
      "వు</w>"
    ],
    [
      "ంద్ర",
      "</w>"
    ],
    [
      "చి",
      "త్త"
    ],
    [
      "దు",
      "గా</w>"
    ],
    [
      "బ",
      "ుల"
    ],
    [
      "న",
      "ం,</w>"
    ],
    [
      "ఐరో",
      "పా"
    ],
    [
      "ప",
      "న్ను</w>"
    ],
    [
      "ఫ",
      "ర్"
    ],
    [
      "ఆ",
      "పై</w>"
    ],
    [
      "పర్యా",
      "ట"
    ],
    [
      "ించు",
      "కోవ"
    ],
    [
      "సె",
      "స్</w>"
    ],
    [
      "అధ్యయ",
      "నం</w>"
    ],
    [
      "మ",
      "ంట"
    ],
    [
      "గ",
      "రి"
    ],
    [
      "విజ",
      "ే"
    ],
    [
      "కనిపి",
      "స్తాయి.</w>"
    ],
    [
      "ఈశా",
      "న్య</w>"
    ],
    [
      "సాఫ్ట",
      "్</w>"
    ],
    [
      "ం",
      "\"</w>"
    ],
    [
      "చేసు",
      "కున్నారు.</w>"
    ],
    [
      "ల్‌",
      "కు</w>"
    ],
    [
      "అను",
      "భవ"
    ],
    [
      "ఆయు",
      "ధ"
    ],
    [
      "మె",
      "రు"
    ],
    [
      "పుర",
      "స్కార"
    ],
    [
      "ఆ",
      "ర"
    ],
    [
      "ంత",
      "ర</w>"
    ],
    [
      "కే",
      "స"
    ],
    [
      "ప్రత్యే",
      "కంగా</w>"
    ],
    [
      "సభ్య",
      "ుడిగా</w>"
    ],
    [
      "నిజ",
      "ంగా</w>"
    ],
    [
      "మెక్",
      "సిక"
    ],
    [
      "విస్త",
      "ీర్"
    ],
    [
      "ఆధ",
      "్వర్"
    ],
    [
      "అధ్యక్ష",
      "ుడు</w>"
    ],
    [
      "సీ",
      "జన్"
    ],
    [
      "రెండ",
      "ింటి"
    ],
    [
      "స",
      "ము"
    ],
    [
      "ండ",
      "ె"
    ],
    [
      "అను",
      "కో"
    ],
    [
      "ఆంగ్ల",
      "</w>"
    ],
    [
      "హ",
      "త్య</w>"
    ],
    [
      "జా",
      "త"
    ],
    [
      "స్",
      "పి"
    ],
    [
      "ఆధార",
      "ాలు</w>"
    ],
    [
      "ట",
      "ంతో</w>"
    ],
    [
      "వల",
      "సిన</w>"
    ],
    [
      "ఉండ",
      "ిన"
    ],
    [
      "లా",
      "స్</w>"
    ],
    [
      "ట్ల",
      "లో</w>"
    ],
    [
      "చ",
      "ొ"
    ],
    [
      "200",
      "6</w>"
    ],
    [
      "్ల",
      "లో</w>"
    ],
    [
      "క్రీడ",
      "లలో</w>"
    ],
    [
      "ఫ",
      "్లా"
    ],
    [
      "తి",
      "థ"
    ],
    [
      "సె",
      "యింట్</w>"
    ],
    [
      "తమిళన",
      "ాడు</w>"
    ],
    [
      "ముడి",
      "పడి</w>"
    ],
    [
      "హ",
      "్యా"
    ],
    [
      "పో",
      "లో</w>"
    ],
    [
      "ట్ర",
      "ె"
    ],
    [
      "ప్రో",
      "గ్రామ"
    ],
    [
      "విండో",
      "స్</w>"
    ],
    [
      "త",
      "లను</w>"
    ],
    [
      "పర్య",
      "ట"
    ],
    [
      "ఉత్",
      "సాహ"
    ],
    [
      "పోరా",
      "డ"
    ],
    [
      "నే",
      "ర"
    ],
    [
      "తర",
      "గ"
    ],
    [
      "తీసు",
      "కో"
    ],
    [
      "అధికార",
      "ికంగా</w>"
    ],
    [
      "డె",
      "న్</w>"
    ],
    [
      "బ్ర",
      "ూ"
    ],
    [
      "ు",
      "ని</w>"
    ],
    [
      "సౌకర్",
      "య"
    ],
    [
      "శి",
      "ఖ"
    ],
    [
      "పిల్ల",
      "ల</w>"
    ],
    [
      "19",
      "వ</w>"
    ],
    [
      "ూ",
      "ల</w>"
    ],
    [
      "సాధ",
      "ించాడు.</w>"
    ],
    [
      "రాశ",
      "ారు.</w>"
    ],
    [
      "మి",
      "యా</w>"
    ],
    [
      "సర్",
      "వ"
    ],
    [
      "తె",
      "చ్చ"
    ],
    [
      "0",
      "0"
    ],
    [
      "అం",
      "కి"
    ],
    [
      "ఒక",
      "సారి</w>"
    ],
    [
      "అ",
      "ప"
    ],
    [
      "వస",
      "ర</w>"
    ],
    [
      "ా",
      "ను</w>"
    ],
    [
      "గ్రామీ",
      "ణ</w>"
    ],
    [
      "సార్",
      "వ"
    ],
    [
      "న్",
      "లోని</w>"
    ],
    [
      "వెలుప",
      "ల</w>"
    ],
    [
      "చలన",
      "చిత్ర</w>"
    ],
    [
      "ఎ",
      "ంతో</w>"
    ],
    [
      "జై",
      "న్</w>"
    ],
    [
      "య",
      "ల్</w>"
    ],
    [
      "జన",
      "రల్</w>"
    ],
    [
      "మహిళ",
      "ా</w>"
    ],
    [
      "త",
      "్‌"
    ],
    [
      "కొండ",
      "</w>"
    ],
    [
      "బ",
      "ాని"
    ],
    [
      "అధ్యక్ష",
      "ుడిగా</w>"
    ],
    [
      "సంవత్స",
      "రానికి</w>"
    ],
    [
      "చద",
      "రంగ"
    ],
    [
      "చేసు",
      "కున్నాడు.</w>"
    ],
    [
      "ముంబ",
      "ై"
    ],
    [
      "పేర్కొ",
      "ంది.</w>"
    ],
    [
      "అందు",
      "వల్ల</w>"
    ],
    [
      "మొత్త",
      "ాన్ని</w>"
    ],
    [
      "ఎత్త",
      "ులో</w>"
    ],
    [
      "ముంద",
      "ే</w>"
    ],
    [
      "ఫ్రా",
      "న్"
    ],
    [
      "కార్",
      "పొ"
    ],
    [
      "డై",
      "రె"
    ],
    [
      "రే",
      "టింగ్</w>"
    ],
    [
      "తాలూ",
      "కు</w>"
    ],
    [
      "మత",
      "పరమైన</w>"
    ],
    [
      "తీ",
      "ర్"
    ],
    [
      "ని",
      "చ్చ"
    ],
    [
      "ఇ",
      "దే</w>"
    ],
    [
      "వా",
      "సం</w>"
    ],
    [
      "అను",
      "కూల"
    ],
    [
      "ద",
      "శా"
    ],
    [
      "సే",
      "కరించ"
    ],
    [
      "టర్",
      "లు</w>"
    ],
    [
      "సాం",
      "కే"
    ],
    [
      "గ్రీ",
      "కు</w>"
    ],
    [
      "ప",
      "ాల</w>"
    ],
    [
      "స",
      "టి</w>"
    ],
    [
      "లైంగ",
      "ిక</w>"
    ],
    [
      "యి",
      "న్</w>"
    ],
    [
      "స్",
      "కె"
    ],
    [
      "విమానాశ్ర",
      "య"
    ],
    [
      "స్పోర్",
      "ట్స్</w>"
    ],
    [
      "ఆఫ్",
      "రిక"
    ],
    [
      "దీర్ఘ",
      "కాలిక</w>"
    ],
    [
      "ఔ",
      "రంగ"
    ],
    [
      "నె",
      "ల</w>"
    ],
    [
      "ాల",
      "నే</w>"
    ],
    [
      "రా",
      "సిన</w>"
    ],
    [
      "గవర్",
      "నర్</w>"
    ],
    [
      "వ",
      "ని</w>"
    ],
    [
      "సల",
      "హా"
    ],
    [
      "ఎ",
      "డి"
    ],
    [
      "శ",
      "బ్ద"
    ],
    [
      "మరు",
      "సటి</w>"
    ],
    [
      "పై",
      "కి</w>"
    ],
    [
      "తొ",
      "లి"
    ],
    [
      "ట్ల",
      "కు</w>"
    ],
    [
      "ఆడ",
      "ే</w>"
    ],
    [
      "షాప",
      "ింగ్</w>"
    ],
    [
      "పాట",
      "లు</w>"
    ],
    [
      "అయ్య",
      "ాడు.</w>"
    ],
    [
      "జ",
      "ి</w>"
    ],
    [
      "హె",
      "చ్‌"
    ],
    [
      "ఏ",
      "ను"
    ],
    [
      "ప్రజ",
      "లకు</w>"
    ],
    [
      "కోర్",
      "టు"
    ],
    [
      "ని",
      "పుణ"
    ],
    [
      "గవర్",
      "న"
    ],
    [
      "ఉండ",
      "టానికి</w>"
    ],
    [
      "ప",
      "</w>"
    ],
    [
      "మార్",
      "పి"
    ],
    [
      "వా",
      "స్"
    ],
    [
      "కో",
      "సం,</w>"
    ],
    [
      "క",
      "లు</w>"
    ],
    [
      "మాన",
      "వ"
    ],
    [
      "కుంట",
      "ే,</w>"
    ],
    [
      "ప్రకట",
      "ించింది.</w>"
    ],
    [
      "ఆ",
      "శ్ర"
    ],
    [
      "గ",
      "ంగా</w>"
    ],
    [
      "బల",
      "హీన"
    ],
    [
      "దేశ",
      "ంలో</w>"
    ],
    [
      "మైన",
      "ది</w>"
    ],
    [
      "న్న",
      "త</w>"
    ],
    [
      "గో",
      "డ"
    ],
    [
      "నాల",
      "ు,</w>"
    ],
    [
      "రో",
      "హ"
    ],
    [
      "నా",
      "లోని</w>"
    ],
    [
      "బంత",
      "ి</w>"
    ],
    [
      "వి",
      "వరి"
    ],
    [
      "ద్ద",
      "ు"
    ],
    [
      "పోలీ",
      "సు</w>"
    ],
    [
      "స",
      "వర"
    ],
    [
      "న",
      "ాడు</w>"
    ],
    [
      "ష",
      "ల్</w>"
    ],
    [
      "బ",
      "్య"
    ],
    [
      "నివేద",
      "ిక"
    ],
    [
      "సాధారణ",
      "ంగా,</w>"
    ],
    [
      "బ్ర",
      "ో"
    ],
    [
      "ధ",
      "ర</w>"
    ],
    [
      "పరీ",
      "వాహక</w>"
    ],
    [
      "పోయ",
      "ాడు.</w>"
    ],
    [
      "సంద",
      "ే"
    ],
    [
      "ద్దీ",
      "న్</w>"
    ],
    [
      "శ",
      "ువ"
    ],
    [
      "క్షీ",
      "ణ"
    ],
    [
      "రూప",
      "ంలో</w>"
    ],
    [
      "పొంద",
      "ారు.</w>"
    ],
    [
      "ఒ",
      "డ్డు"
    ],
    [
      "వల",
      "స</w>"
    ],
    [
      "రాజ",
      "్యా"
    ],
    [
      "చరిత్ర",
      "లో</w>"
    ],
    [
      "చో",
      "ళ"
    ],
    [
      "క్యాన్స",
      "ర్</w>"
    ],
    [
      "ఉపయోగ",
      "ించడం</w>"
    ],
    [
      "వ్యవ",
      "ధిలో</w>"
    ],
    [
      "చూడ",
      "ండి.</w>"
    ],
    [
      "ఉండ",
      "ాలి.</w>"
    ],
    [
      "తగ్",
      "గి"
    ],
    [
      "సి",
      "టీ</w>"
    ],
    [
      "రా",
      "క్</w>"
    ],
    [
      "కెన",
      "డా"
    ],
    [
      "పండుగ",
      "ను</w>"
    ],
    [
      "రక్",
      "త</w>"
    ],
    [
      "న్న",
      "ా</w>"
    ],
    [
      "రాజ",
      "ీ"
    ],
    [
      "ఎ",
      "ంట"
    ],
    [
      "’",
      "</w>"
    ],
    [
      "అత్య",
      "వసర</w>"
    ],
    [
      "పండ",
      "ి"
    ],
    [
      "చదు",
      "వు"
    ],
    [
      "స్నేహి",
      "తు"
    ],
    [
      "అత",
      "డిని</w>"
    ],
    [
      "య",
      "ి</w>"
    ],
    [
      "పొడ",
      "వైన</w>"
    ],
    [
      "కర",
      "ంగా</w>"
    ],
    [
      "200",
      "5</w>"
    ],
    [
      "సమా",
      "ఖ్య"
    ],
    [
      "విరమ",
      "ణ</w>"
    ],
    [
      "బా",
      "ంబ"
    ],
    [
      "్ల",
      "ీ</w>"
    ],
    [
      "కోల్",
      "పో"
    ],
    [
      "ీ",
      "కరణ</w>"
    ],
    [
      "క్రి",
      "యా"
    ],
    [
      "ఉద్య",
      "ో"
    ],
    [
      "కాల",
      "్</w>"
    ],
    [
      "న",
      "స్</w>"
    ],
    [
      "ప్రాంత",
      "ాలు</w>"
    ],
    [
      "అంత",
      "కంటే</w>"
    ],
    [
      "జ్",
      "వర"
    ],
    [
      "స్",
      "కరించ"
    ],
    [
      "నియ",
      "మి"
    ],
    [
      "త్",
      "వాన్ని</w>"
    ],
    [
      "ఇచ్చ",
      "ిన</w>"
    ],
    [
      "పౌ",
      "ర</w>"
    ],
    [
      "ఆందో",
      "ళ"
    ],
    [
      "పూర్",
      ",</w>"
    ],
    [
      "ప్ర",
      "వర్"
    ],
    [
      "త",
      "ని"
    ],
    [
      "నద",
      "ులు</w>"
    ],
    [
      "ఈ",
      "స్ట్</w>"
    ],
    [
      "సాఫ్ట",
      "్‌"
    ],
    [
      "వి",
      "భాగంలో</w>"
    ],
    [
      "సర్వీ",
      "స్</w>"
    ],
    [
      "డే",
      "టా"
    ],
    [
      "భి",
      "న్న</w>"
    ],
    [
      "ల",
      "ం</w>"
    ],
    [
      "వడ్డ",
      "ీ</w>"
    ],
    [
      "స్",
      "నా"
    ],
    [
      "మాద",
      "క"
    ],
    [
      "కుమార్తె",
      "</w>"
    ],
    [
      "సు",
      "రక్షి"
    ],
    [
      "దళ",
      "ాలు</w>"
    ],
    [
      "శార",
      "ీ"
    ],
    [
      "మరణ",
      "ం</w>"
    ],
    [
      "ాల",
      "లోని</w>"
    ],
    [
      "ట",
      "రీ</w>"
    ],
    [
      "వె",
      "స్ట్</w>"
    ],
    [
      "ించ",
      "ాలి.</w>"
    ],
    [
      "ఎల్ల",
      "ప్పుడూ</w>"
    ],
    [
      "ప్ర",
      "వహ"
    ],
    [
      "సై",
      "కి"
    ],
    [
      "ఆ",
      "ర్‌"
    ],
    [
      "ఆ",
      "ండ్ర"
    ],
    [
      "8",
      "0</w>"
    ],
    [
      "మ",
      "లే"
    ],
    [
      "ఆఫ్",
      "ఘ"
    ],
    [
      "శృ",
      "ంగ"
    ],
    [
      "భారతదేశ",
      "ానికి</w>"
    ],
    [
      "ఆ",
      "శ"
    ],
    [
      "ని",
      "కి"
    ],
    [
      "సిబ్బ",
      "ంది</w>"
    ],
    [
      "సమస్య",
      "లను</w>"
    ],
    [
      "పో",
      "ర్చు"
    ],
    [
      "మొదటి",
      "సారిగా</w>"
    ],
    [
      "క",
      "ులు,</w>"
    ],
    [
      "భ",
      "క్"
    ],
    [
      "ఉ",
      "ండి</w>"
    ],
    [
      "గ్ర",
      "ె"
    ],
    [
      "నై",
      "నా</w>"
    ],
    [
      "వా",
      "డు"
    ],
    [
      "అ",
      "డ్"
    ],
    [
      "పురుష",
      "ులు</w>"
    ],
    [
      "ధ",
      "</w>"
    ],
    [
      "పట్ట",
      "ణం</w>"
    ],
    [
      "పంపిణ",
      "ీ</w>"
    ],
    [
      "దార",
      "ు</w>"
    ],
    [
      "నిరోధ",
      "క</w>"
    ],
    [
      "సిక్క",
      "ిం"
    ],
    [
      "ఇ",
      "న్‌"
    ],
    [
      "కపో",
      "తే,</w>"
    ],
    [
      "త్",
      "పత్తి</w>"
    ],
    [
      "ర్",
      "లో</w>"
    ],
    [
      "ించబడ",
      "ే</w>"
    ],
    [
      "గి",
      "రి"
    ],
    [
      "షి",
      "యన్</w>"
    ],
    [
      "గుర్త",
      "ింపు</w>"
    ],
    [
      "వ",
      "న్</w>"
    ],
    [
      "పా",
      "టు"
    ],
    [
      "క",
      "ఠ"
    ],
    [
      "ఫిల్",
      "మ్</w>"
    ],
    [
      "్ల",
      "ను</w>"
    ],
    [
      "కు",
      "ంభ"
    ],
    [
      "గాల",
      "ి</w>"
    ],
    [
      "జాబితా",
      "లో</w>"
    ],
    [
      "7",
      "0</w>"
    ],
    [
      "బ్లా",
      "క్</w>"
    ],
    [
      "బి",
      "ల్ల"
    ],
    [
      "రిపబ్ల",
      "ిక"
    ],
    [
      "క్రీ.",
      "శ.</w>"
    ],
    [
      "స్మార",
      "క</w>"
    ],
    [
      "పర్యా",
      "టక</w>"
    ],
    [
      "స్",
      "పీ"
    ],
    [
      "అత",
      "డు</w>"
    ],
    [
      "రూపొంద",
      "ించబడింది.</w>"
    ],
    [
      "అయ్య",
      "ారు.</w>"
    ],
    [
      "ప",
      "ించింది.</w>"
    ],
    [
      "వ్యవహ",
      "రించ"
    ],
    [
      "సెంట",
      "్ర"
    ],
    [
      "ఒ",
      "క్క</w>"
    ],
    [
      "్య",
      "ంలో</w>"
    ],
    [
      "దుస్త",
      "ులు</w>"
    ],
    [
      "వేద",
      "ిక"
    ],
    [
      "వై",
      "పు"
    ],
    [
      "ర",
      "ంగా</w>"
    ],
    [
      "రెండ",
      "ూ</w>"
    ],
    [
      "న",
      "వా"
    ],
    [
      "ర్",
      "లను</w>"
    ],
    [
      "స్థాప",
      "ించారు.</w>"
    ],
    [
      "పి",
      "ల్</w>"
    ],
    [
      "వె",
      "తు"
    ],
    [
      "స్‌",
      "</w>"
    ],
    [
      "శా",
      "శ్వ"
    ],
    [
      "వ",
      "ాలు</w>"
    ],
    [
      "చ",
      "ర్</w>"
    ],
    [
      "ఎ",
      "ందుకు</w>"
    ],
    [
      "నిల్",
      "వ</w>"
    ],
    [
      "క్రీ",
      "డ</w>"
    ],
    [
      "డ",
      "ో</w>"
    ],
    [
      "గ్రూ",
      "ప్</w>"
    ],
    [
      "కళాశ",
      "ాల</w>"
    ],
    [
      "స్వ",
      "చ్ఛ"
    ],
    [
      "పాల",
      "న</w>"
    ],
    [
      "పాల",
      "క</w>"
    ],
    [
      "సంత",
      "ృ"
    ],
    [
      "సంతృ",
      "ప్"
    ],
    [
      "ధ",
      "ో"
    ],
    [
      "అక్టోబ",
      "రు</w>"
    ],
    [
      "మైన",
      "దిగా</w>"
    ],
    [
      "ఇ",
      "ర"
    ],
    [
      "ించబడ",
      "ింది,</w>"
    ],
    [
      "పరి",
      "ష్కరించ"
    ],
    [
      "క",
      "త్త"
    ],
    [
      "పా",
      "శ్చా"
    ],
    [
      "వరి",
      "లో</w>"
    ],
    [
      "ిన",
      "ట్లు</w>"
    ],
    [
      "తీసు",
      "కోవ"
    ],
    [
      "ఉపయోగ",
      "ించారు.</w>"
    ],
    [
      "ళ",
      "ు"
    ],
    [
      "సా",
      "ధ్య"
    ],
    [
      "క్య",
      "ాలె"
    ],
    [
      "శ",
      "ాల"
    ],
    [
      "ె",
      "న్</w>"
    ],
    [
      "డ",
      "ం.</w>"
    ],
    [
      "క్రి",
      "య</w>"
    ],
    [
      "వి",
      "య"
    ],
    [
      "ఇ",
      "ప్పటికే</w>"
    ],
    [
      "కో",
      "డ్</w>"
    ],
    [
      "త్త",
      "ు"
    ],
    [
      "వర్ష",
      "పాతం</w>"
    ],
    [
      "యా",
      "ంటీ"
    ],
    [
      "ించడ",
      "ానికి,</w>"
    ],
    [
      "గ్రే",
      "ట్</w>"
    ],
    [
      "లో",
      "నూ</w>"
    ],
    [
      "పున",
      "రా"
    ],
    [
      "రా",
      "ణి</w>"
    ],
    [
      "నష్ట",
      "ం</w>"
    ],
    [
      "కాల",
      "ంలో,</w>"
    ],
    [
      "ప్రా",
      "మాణ"
    ],
    [
      "ఉ",
      "ంద"
    ],
    [
      "బ",
      "ం"
    ],
    [
      "బ",
      "ార్</w>"
    ],
    [
      "దూర",
      "ంగా</w>"
    ],
    [
      "నగ",
      "రానికి</w>"
    ],
    [
      "సమయ",
      "ానికి</w>"
    ],
    [
      "అస్",
      "సా"
    ],
    [
      "స",
      "ల్"
    ],
    [
      "రై",
      "లు</w>"
    ],
    [
      "గాలి",
      "పట"
    ],
    [
      "గ",
      "్యా"
    ],
    [
      "మాదక",
      "ద్రవ్య"
    ],
    [
      "అద్భు",
      "తమైన</w>"
    ],
    [
      "రా",
      "వు</w>"
    ],
    [
      "బ్రా",
      "హ్మ"
    ],
    [
      "విశ్వవిద్యాల",
      "యంలో</w>"
    ],
    [
      "2",
      "2</w>"
    ],
    [
      "రాజకీ",
      "య"
    ],
    [
      "దా",
      "ట"
    ],
    [
      "కేంద్ర",
      "</w>"
    ],
    [
      "న్న",
      "ాయి.</w>"
    ],
    [
      "త",
      "క"
    ],
    [
      "పిలి",
      "చే"
    ],
    [
      "నియంత్ర",
      "ణ</w>"
    ],
    [
      "థియ",
      "ే"
    ],
    [
      "మల",
      "యా"
    ],
    [
      "ఆ",
      "తిథ"
    ],
    [
      "సమస్య",
      "లు</w>"
    ],
    [
      "ంట",
      "్"
    ],
    [
      "ర్‌",
      "</w>"
    ],
    [
      "జ",
      "ో</w>"
    ],
    [
      "య",
      "ింగ్</w>"
    ],
    [
      "ఉంటు",
      "ంది</w>"
    ],
    [
      "సంక్రమ",
      "ణ</w>"
    ],
    [
      "మైక్రో",
      "సాఫ్ట్</w>"
    ],
    [
      "దేశ",
      "ాలు</w>"
    ],
    [
      "మి",
      "ల్ల"
    ],
    [
      "పసు",
      "పు</w>"
    ],
    [
      "గుజరా",
      "త్</w>"
    ],
    [
      "లి",
      "క</w>"
    ],
    [
      "ార",
      "ా</w>"
    ],
    [
      "హా",
      "న్</w>"
    ],
    [
      "క్లి",
      "ష్ట"
    ],
    [
      "వార",
      "ాల</w>"
    ],
    [
      "జీవి",
      "తాన్ని</w>"
    ],
    [
      "క్ట",
      "్</w>"
    ],
    [
      "లండ",
      "న్</w>"
    ],
    [
      "ఎవర",
      "ైనా</w>"
    ],
    [
      "సమ",
      "ర్ప"
    ],
    [
      "బా",
      "ధి"
    ],
    [
      "క్రమ",
      "ం</w>"
    ],
    [
      "విస్తరించ",
      "ి</w>"
    ],
    [
      "ప్రదేశ",
      "ం</w>"
    ],
    [
      "ఖచ్చి",
      "తంగా</w>"
    ],
    [
      "ఆ",
      "ంధ్ర"
    ],
    [
      "ర్‌",
      "లు</w>"
    ],
    [
      "చర్",
      "చి"
    ],
    [
      "యూ",
      "ఎస్</w>"
    ],
    [
      "డ",
      "ంతో,</w>"
    ],
    [
      "జర్",
      "మన్</w>"
    ],
    [
      "శ",
      "త్ర"
    ],
    [
      "తిరుగు",
      "బాటు"
    ],
    [
      "ఇచ్చ",
      "ింది.</w>"
    ],
    [
      "పునరుద్ధ",
      "రించ"
    ],
    [
      "మ్మ",
      "ద్</w>"
    ],
    [
      "చే",
      "త</w>"
    ],
    [
      "వ్యతిరే",
      "క"
    ],
    [
      "విలీ",
      "నం</w>"
    ],
    [
      "భారత",
      "్</w>"
    ],
    [
      "జట్టు",
      "లో</w>"
    ],
    [
      "అంద",
      "ించే</w>"
    ],
    [
      "వ",
      "డంతో</w>"
    ],
    [
      "వెళ్ల",
      "ి</w>"
    ],
    [
      "సరి",
      "పో"
    ],
    [
      "సో",
      "క"
    ],
    [
      "మ",
      "నం</w>"
    ],
    [
      "శరీ",
      "ర"
    ],
    [
      "పరీ",
      "క్ష</w>"
    ],
    [
      "రె",
      "స్ట"
    ],
    [
      "కద",
      "లిక"
    ],
    [
      "స్థాప",
      "ించబడింది.</w>"
    ],
    [
      "పవి",
      "త్ర</w>"
    ],
    [
      "చేశ",
      "ారు,</w>"
    ],
    [
      "తర",
      "పున</w>"
    ],
    [
      "నిరా",
      "కరించ"
    ],
    [
      "నె",
      "హ్ర"
    ],
    [
      "సి",
      "యా"
    ],
    [
      "వా",
      "ం"
    ],
    [
      "కలు",
      "సు"
    ],
    [
      "పౌ",
      "ర"
    ],
    [
      "త్మ",
      "కంగా</w>"
    ],
    [
      "వ్యవస్థ",
      "ను</w>"
    ],
    [
      "విజయ",
      "వంతమైన</w>"
    ],
    [
      "కాబ",
      "ట్టి,</w>"
    ],
    [
      "1",
      "-"
    ],
    [
      "న",
      "మైన</w>"
    ],
    [
      "వార్",
      "తా"
    ],
    [
      "న",
      "ంద"
    ],
    [
      "చి",
      "రా"
    ],
    [
      "దే",
      "వు"
    ],
    [
      "య",
      "ాని"
    ],
    [
      "18",
      "5"
    ],
    [
      "ఏమి",
      "ట"
    ],
    [
      "జ",
      "ిక్</w>"
    ],
    [
      "పోటీ",
      "లో</w>"
    ],
    [
      "గొ",
      "ట్ట"
    ],
    [
      "చేశ",
      "ాయి.</w>"
    ],
    [
      "ం",
      "ఘ"
    ],
    [
      "మరణ",
      "ించిన</w>"
    ],
    [
      "త్",
      ",</w>"
    ],
    [
      "పర్వ",
      "త</w>"
    ],
    [
      "సెంట్ర",
      "ల్</w>"
    ],
    [
      "పె",
      "ంచు"
    ],
    [
      "తు",
      "పా"
    ],
    [
      "సుల్తా",
      "న్</w>"
    ],
    [
      "ళ",
      "ూ"
    ],
    [
      "క",
      "ానికి</w>"
    ],
    [
      "ము",
      "క్క"
    ],
    [
      "ఫ",
      "్యా"
    ],
    [
      "భావి",
      "స్తారు.</w>"
    ],
    [
      "రు",
      "సు"
    ],
    [
      "స్టే",
      "డి"
    ],
    [
      "ీ",
      "కృ"
    ],
    [
      "నిర్మా",
      "ణం</w>"
    ],
    [
      "కా",
      "మె"
    ],
    [
      "గుర్త",
      "ించ"
    ],
    [
      "న",
      "ింగ్</w>"
    ],
    [
      "లా",
      "న్ని</w>"
    ],
    [
      "జాన",
      "పద</w>"
    ],
    [
      "రాష్ట్ర",
      "ాల</w>"
    ],
    [
      "ఉంట",
      "ే</w>"
    ],
    [
      "ని",
      "లు"
    ],
    [
      "్ల",
      "ేష"
    ],
    [
      "టి",
      "స్</w>"
    ],
    [
      "ష్",
      "ణ</w>"
    ],
    [
      "ట్ర",
      "ై"
    ],
    [
      "కార్య",
      "ాలయ"
    ],
    [
      "మిలియ",
      "న్</w>"
    ],
    [
      "ఇద్ద",
      "రూ</w>"
    ],
    [
      "జా",
      "తీయ"
    ],
    [
      "ఔరంగ",
      "జే"
    ],
    [
      "జార",
      "ీ</w>"
    ],
    [
      "పొంద",
      "డానికి</w>"
    ],
    [
      "నార",
      "ాయ"
    ],
    [
      "నాశ",
      "నం</w>"
    ],
    [
      "విడుదలై",
      "న</w>"
    ],
    [
      "కళా",
      "కార"
    ],
    [
      "దే",
      "వి</w>"
    ],
    [
      "పు",
      "రి</w>"
    ],
    [
      "ఖచ్చి",
      "తమైన</w>"
    ],
    [
      "వినియోగ",
      "ం</w>"
    ],
    [
      "కూ",
      "ర్చు"
    ],
    [
      "ట్ల",
      "ుగా</w>"
    ],
    [
      "ప్ర",
      "తిక"
    ],
    [
      "కే",
      "సులు</w>"
    ],
    [
      "తెలియ",
      "దు.</w>"
    ],
    [
      "్ర",
      "ో"
    ],
    [
      "హ",
      "ాల్</w>"
    ],
    [
      "వ్యాపార",
      "ం</w>"
    ],
    [
      "క్క",
      "ో"
    ],
    [
      "అభ",
      "యార"
    ],
    [
      "వాతావర",
      "ణ</w>"
    ],
    [
      "ఉండ",
      "దు.</w>"
    ],
    [
      "రాజ",
      "</w>"
    ],
    [
      "ప్రారంభ",
      "మై"
    ],
    [
      "వ్యక్",
      "తుల</w>"
    ],
    [
      "ఏర్పడ",
      "ింది.</w>"
    ],
    [
      "రూపొంద",
      "ించారు.</w>"
    ],
    [
      "4",
      "0"
    ],
    [
      "స్వతంత్ర",
      "</w>"
    ],
    [
      "ఘ",
      "ట"
    ],
    [
      "స్థా",
      "నాన్ని</w>"
    ],
    [
      "ని",
      "శ్"
    ],
    [
      "ించిన",
      "ప్పుడు,</w>"
    ],
    [
      "త",
      "ర</w>"
    ],
    [
      "వారస",
      "త్వ</w>"
    ],
    [
      "అను",
      "భ"
    ],
    [
      "క్షే",
      "త్ర"
    ],
    [
      "గ",
      "ర్</w>"
    ],
    [
      "ఖా",
      "ళ"
    ],
    [
      "స్",
      "కీ"
    ],
    [
      "ీ",
      "వుడ్</w>"
    ],
    [
      "మహారాష్ట్ర",
      "</w>"
    ],
    [
      "పోలీ",
      "స"
    ],
    [
      "ఊపి",
      "రి"
    ],
    [
      "అగ్",
      "ని"
    ],
    [
      "రాష్ట్ర",
      "ాలలో</w>"
    ],
    [
      "బ్యా",
      "ండ్</w>"
    ],
    [
      "ు",
      ")</w>"
    ],
    [
      "ఇ",
      "తి"
    ],
    [
      "ాల",
      "ి</w>"
    ],
    [
      "పోష",
      "ించారు.</w>"
    ],
    [
      "ించు",
      "కోవడానికి</w>"
    ],
    [
      "ే",
      "వారు.</w>"
    ],
    [
      "పూ",
      "జ"
    ],
    [
      "మొత్త",
      "ంలో</w>"
    ],
    [
      "శతాబ్ద",
      "పు</w>"
    ],
    [
      "్య",
      "ంతో</w>"
    ],
    [
      "జ",
      "ప"
    ],
    [
      "ష్",
      "ఠ"
    ],
    [
      "తొ",
      "మ్మి"
    ],
    [
      "థ",
      "</w>"
    ],
    [
      "ఖ",
      "ీ</w>"
    ],
    [
      "మ",
      "తి"
    ],
    [
      "దొ",
      "రిక"
    ],
    [
      "కేంద్ర",
      "ంగా</w>"
    ],
    [
      "ఖ",
      "రీ"
    ],
    [
      "వర్గీ",
      "కరించ"
    ],
    [
      "విమానాశ్ర",
      "యం</w>"
    ],
    [
      "20",
      "వ</w>"
    ],
    [
      "పర్యావర",
      "ణ</w>"
    ],
    [
      "వస్తువ",
      "ులు</w>"
    ],
    [
      "త",
      "ండ్"
    ],
    [
      "స్ట",
      "్‌"
    ],
    [
      "కోట",
      "ను</w>"
    ],
    [
      "మొద",
      "లు"
    ],
    [
      "నే",
      "తృ"
    ],
    [
      "ట",
      "్యా"
    ],
    [
      "త",
      "ాలు</w>"
    ],
    [
      "అ",
      "ల్ల"
    ],
    [
      "డు",
      "కు</w>"
    ],
    [
      "బాధ్య",
      "త</w>"
    ],
    [
      "జీవి",
      "తం</w>"
    ],
    [
      "కఠ",
      "ిన"
    ],
    [
      "ఈ",
      "జి"
    ],
    [
      "క్రె",
      "డి"
    ],
    [
      "పె",
      "డ"
    ],
    [
      "హి",
      "క</w>"
    ],
    [
      "ఏ",
      "క"
    ],
    [
      "2",
      "."
    ],
    [
      "టీ",
      "వీ</w>"
    ],
    [
      "పే",
      "జీ"
    ],
    [
      "క",
      "టి</w>"
    ],
    [
      "మ",
      "ుల"
    ],
    [
      "ఫ్ర",
      "ీ"
    ],
    [
      "వాయి",
      "ద్య"
    ],
    [
      "ఒలింపిక్",
      "స్‌లో</w>"
    ],
    [
      "క్రైస్త",
      "వ</w>"
    ],
    [
      "చై",
      "నీస్</w>"
    ],
    [
      "యా",
      "ను.</w>"
    ],
    [
      "అరె",
      "స్టు</w>"
    ],
    [
      "కె",
      "ప్టె"
    ],
    [
      "మా",
      "నే"
    ],
    [
      "హ",
      "రించ"
    ],
    [
      "ప్రచార",
      "ం</w>"
    ],
    [
      "అక్",
      "బర్</w>"
    ],
    [
      "గ",
      "ై"
    ],
    [
      "ఆ",
      "హ్"
    ],
    [
      "ఆధి",
      "ప"
    ],
    [
      "ప",
      "ు,</w>"
    ],
    [
      "2",
      "-"
    ],
    [
      "వె",
      "న"
    ],
    [
      "భార",
      "్య"
    ],
    [
      "గౌర",
      "వ"
    ],
    [
      "అత్యు",
      "న్నత</w>"
    ],
    [
      "వ",
      "న</w>"
    ],
    [
      "చేస",
      "ారు.</w>"
    ],
    [
      "కోప",
      "ం</w>"
    ],
    [
      "పారు",
      "దల</w>"
    ],
    [
      "ఇచ్చ",
      "ే</w>"
    ],
    [
      "వి",
      "లో</w>"
    ],
    [
      "యి",
      "స్</w>"
    ],
    [
      "జి",
      "య"
    ],
    [
      "ఓ",
      "పె"
    ],
    [
      "ద",
      "య"
    ],
    [
      "క",
      "్‌ను</w>"
    ],
    [
      "పరి",
      "గణి"
    ],
    [
      "సి",
      "ఫార్"
    ],
    [
      "పత",
      "కాన్ని</w>"
    ],
    [
      "రె",
      "టి"
    ],
    [
      "ఇ",
      "క్క"
    ],
    [
      "సంస్థ",
      ".</w>"
    ],
    [
      "చేయ",
      "గల"
    ],
    [
      "మీటర్",
      "లు</w>"
    ],
    [
      "ఎక్",
      "స్‌"
    ],
    [
      "ప్రసార",
      "ం</w>"
    ],
    [
      "స్వీడ",
      "న్‌లోని</w>"
    ],
    [
      "మునిసిపాలిటీ",
      ".</w>"
    ],
    [
      "చేసు",
      "కోవడానికి</w>"
    ],
    [
      "ఉప",
      "ఖండ"
    ],
    [
      "మ",
      "ాల్"
    ],
    [
      "ప్రశం",
      "స"
    ],
    [
      "సేవ",
      "లు</w>"
    ],
    [
      "ా",
      "ను"
    ],
    [
      "ఎయి",
      "ర్‌"
    ],
    [
      "వే",
      "సిన</w>"
    ],
    [
      "వాయు",
      "వ్య</w>"
    ],
    [
      "తూర్",
      "పున</w>"
    ],
    [
      "వా",
      "న"
    ],
    [
      "తగిన",
      "ంత</w>"
    ],
    [
      "ప్రాంత",
      "ానికి</w>"
    ],
    [
      "పరిమి",
      "తం</w>"
    ],
    [
      "నడి",
      "ప"
    ],
    [
      "చూ",
      "స్తే</w>"
    ],
    [
      "పున",
      "రు"
    ],
    [
      "ని",
      "రాశ"
    ],
    [
      "జ",
      "నీ"
    ],
    [
      "ఆధార",
      "ిత</w>"
    ],
    [
      "కల్",
      "పి"
    ],
    [
      "ఊపిరి",
      "తిత్త"
    ],
    [
      "యూ",
      "నియన్</w>"
    ],
    [
      "బ్యాం",
      "క్</w>"
    ],
    [
      "వి",
      "భిన్న</w>"
    ],
    [
      "స్",
      "కే"
    ],
    [
      "నై",
      "రు"
    ],
    [
      "రెస్ట",
      "ారె"
    ],
    [
      "ఆధ్వర్",
      "యంలో</w>"
    ],
    [
      "రే",
      "గ"
    ],
    [
      "ళ",
      "ి</w>"
    ],
    [
      "క్య",
      "ు"
    ],
    [
      "ప్రత్య",
      "క్ష</w>"
    ],
    [
      "మా",
      "కు</w>"
    ],
    [
      "దశా",
      "బ్ద"
    ],
    [
      "ప్ర",
      "తీ"
    ],
    [
      "ఇ",
      "స్తుంది.</w>"
    ],
    [
      "నె",
      "మ్మ"
    ],
    [
      "నిజ",
      "మైన</w>"
    ],
    [
      "మంద",
      "ి"
    ],
    [
      "స్త",
      "ాడు,</w>"
    ],
    [
      "క్రీ.",
      "పూ.</w>"
    ],
    [
      "సంబంధ",
      "ించిన"
    ],
    [
      "సహాయ",
      "పడుతుంది.</w>"
    ],
    [
      "మాట్లాడ",
      "ే</w>"
    ],
    [
      "రే",
      "టు</w>"
    ],
    [
      "చ",
      "తు"
    ],
    [
      "ంట",
      "ారు.</w>"
    ],
    [
      "్య",
      "ానికి</w>"
    ],
    [
      "ొ",
      "చ్చ"
    ],
    [
      "శి",
      "వా"
    ],
    [
      "బో",
      "యే</w>"
    ],
    [
      "ట",
      "ం,</w>"
    ],
    [
      "ఆస",
      "క్తి</w>"
    ],
    [
      "త్య",
      "ం</w>"
    ],
    [
      "సుదీర్ఘ",
      "</w>"
    ],
    [
      "ందు",
      "న,</w>"
    ],
    [
      "రా",
      "న్</w>"
    ],
    [
      "ప్రాముఖ్య",
      "త</w>"
    ],
    [
      "న్",
      "లకు</w>"
    ],
    [
      "ించడ",
      "ంతో</w>"
    ],
    [
      "మయ్య",
      "ాయి.</w>"
    ],
    [
      "రా",
      "మ"
    ],
    [
      "జీవి",
      "తంలో</w>"
    ],
    [
      "శ్",
      "వర"
    ],
    [
      "బ",
      "ది"
    ],
    [
      "గు",
      "ణంగా</w>"
    ],
    [
      "స్ట",
      "ార"
    ],
    [
      "ఆస్ట్రే",
      "లియన్</w>"
    ],
    [
      "స్టి",
      "ట్యూ"
    ],
    [
      "ఏ",
      "జె"
    ],
    [
      "ఫో",
      "టో"
    ],
    [
      "ప",
      "ులు</w>"
    ],
    [
      "జ",
      "ింగ్</w>"
    ],
    [
      "ఫ",
      "ిక్</w>"
    ],
    [
      "తగ్",
      "గు"
    ],
    [
      "నాథ",
      "్</w>"
    ],
    [
      "దేశ",
      "ీయ</w>"
    ],
    [
      "యా",
      "జమా"
    ],
    [
      "యా",
      "త్ర</w>"
    ],
    [
      "పు",
      "త్ర</w>"
    ],
    [
      "ఆధ",
      "్యా"
    ],
    [
      "సా",
      "క్ష"
    ],
    [
      "రాజ",
      "్యం</w>"
    ],
    [
      "సో",
      "మ"
    ],
    [
      "ు",
      "రాల"
    ],
    [
      "రా",
      "డు.</w>"
    ],
    [
      "నౌ",
      "కా"
    ],
    [
      "ంద",
      "ర"
    ],
    [
      "ప్రమా",
      "ణ"
    ],
    [
      "దేశ",
      "ంలోని</w>"
    ],
    [
      "సెప్టె",
      "ంబరు</w>"
    ],
    [
      "9",
      "0</w>"
    ],
    [
      "లో",
      "త"
    ],
    [
      "భ",
      "ర"
    ],
    [
      "మార్",
      "చి"
    ],
    [
      "బ్యాం",
      "కు</w>"
    ],
    [
      "ఉ",
      "పరి"
    ],
    [
      "వర",
      "ద"
    ],
    [
      "వ",
      "ల్</w>"
    ],
    [
      "బ",
      "్యూ"
    ],
    [
      "బ్రి",
      "టీ"
    ],
    [
      "చేస్త",
      "ూ</w>"
    ],
    [
      "ాంత",
      "ి</w>"
    ],
    [
      "వ్యక్తి",
      "కి</w>"
    ],
    [
      "న్",
      "స్‌లో</w>"
    ],
    [
      "పోయ",
      "ే</w>"
    ],
    [
      "రూప",
      "ం</w>"
    ],
    [
      "స్ట",
      "ూ"
    ],
    [
      "చ",
      "క్క"
    ],
    [
      "మ",
      "ల</w>"
    ],
    [
      "ష",
      "ై"
    ],
    [
      "ఇటీవల",
      "ి</w>"
    ],
    [
      "పార్",
      "క్</w>"
    ],
    [
      "ఇల్ల",
      "ిన"
    ],
    [
      "డె",
      "ల్ట"
    ],
    [
      "మైన",
      "వి</w>"
    ],
    [
      "టె",
      "స్ట"
    ],
    [
      "విజయ",
      "వంత"
    ],
    [
      "వేశ",
      "ారు.</w>"
    ],
    [
      "సంత",
      "కం</w>"
    ],
    [
      "త",
      "ులు,</w>"
    ],
    [
      "ంబ",
      "రులో</w>"
    ],
    [
      "పరిచ",
      "యం</w>"
    ],
    [
      "ింగ్",
      "స్</w>"
    ],
    [
      "విస్తృ",
      "తమైన</w>"
    ],
    [
      "నిర్వహ",
      "ణ</w>"
    ],
    [
      "రు",
      "ను</w>"
    ],
    [
      "రి",
      "లో</w>"
    ],
    [
      "దర్శ",
      "కుడు</w>"
    ],
    [
      "లే",
      "వు.</w>"
    ],
    [
      "ని",
      "ద్ర"
    ],
    [
      "విష",
      "యం</w>"
    ],
    [
      "స్",
      "క్రి"
    ],
    [
      "వి",
      "భాగం</w>"
    ],
    [
      "కా",
      "ంట"
    ],
    [
      "పరి",
      "మా"
    ],
    [
      "ే",
      "రి</w>"
    ],
    [
      "ళ్ళ",
      "ను</w>"
    ],
    [
      "కాల",
      "లో</w>"
    ],
    [
      "ండ",
      "ీ"
    ],
    [
      "మ",
      "్ల"
    ],
    [
      "ం",
      "ను</w>"
    ],
    [
      "ఆనంద",
      "్</w>"
    ],
    [
      "ల",
      "ొ"
    ],
    [
      "అత్యు",
      "త్త"
    ],
    [
      "ప్రా",
      "ధాన్య"
    ],
    [
      "ప్రత్యర్థ",
      "ి</w>"
    ],
    [
      "స్",
      "వే"
    ],
    [
      "కా",
      "పాడ"
    ],
    [
      "ఉ",
      "నికి"
    ],
    [
      "క్రమ",
      "ంగా</w>"
    ],
    [
      "సంవత్సర",
      "ాలలో</w>"
    ],
    [
      "వ",
      "ులను</w>"
    ],
    [
      "అ",
      "టువంటి</w>"
    ],
    [
      "కలిగ",
      "ి"
    ],
    [
      "ఫ",
      "ిక"
    ],
    [
      "రచయి",
      "త</w>"
    ],
    [
      "్ట",
      "ి"
    ],
    [
      "నీటి",
      "ని</w>"
    ],
    [
      "దాని",
      "పై</w>"
    ],
    [
      "్",
      "మ"
    ],
    [
      "తెలిప",
      "ారు.</w>"
    ],
    [
      "స్ట",
      "న్</w>"
    ],
    [
      "విధా",
      "నం</w>"
    ],
    [
      "వాతావర",
      "ణం</w>"
    ],
    [
      "జ",
      "మ్మ"
    ],
    [
      "పోలి",
      "స్తే</w>"
    ],
    [
      "అర్",
      "జె"
    ],
    [
      "కొనుగో",
      "లు"
    ],
    [
      "నాల",
      "్ట"
    ],
    [
      "కృ",
      "తి</w>"
    ],
    [
      "ఫే",
      "ర్</w>"
    ],
    [
      "ే",
      "ద"
    ],
    [
      "వి",
      "వాద"
    ],
    [
      "ఒడ్డు",
      "న</w>"
    ],
    [
      "చర్",
      "య</w>"
    ],
    [
      "గ్రామ",
      "ం</w>"
    ],
    [
      "ే",
      "దు.</w>"
    ],
    [
      "హ",
      "ం</w>"
    ],
    [
      "స్",
      "-"
    ],
    [
      "రోజ",
      "ులు</w>"
    ],
    [
      "పాశ్చా",
      "త్య</w>"
    ],
    [
      "సె",
      "ంబ"
    ],
    [
      "ఆధ",
      "ిక"
    ],
    [
      "ం",
      "జి"
    ],
    [
      "రెండ",
      "ు"
    ],
    [
      "నట",
      "ించిన</w>"
    ],
    [
      "చిత్ర",
      "ాలు</w>"
    ],
    [
      "ఎగు",
      "వ</w>"
    ],
    [
      "స్ట",
      "ర్"
    ],
    [
      "ఇంగ్ల",
      "ీ"
    ],
    [
      "త",
      ".</w>"
    ],
    [
      "కార్యాల",
      "యం</w>"
    ],
    [
      "మొ",
      "బై"
    ],
    [
      "బీ",
      "మా</w>"
    ],
    [
      "ఓ",
      "క్ల"
    ],
    [
      "కుంట",
      "ారు,</w>"
    ],
    [
      "హ",
      "ాల"
    ],
    [
      "ె",
      "ంట్</w>"
    ],
    [
      "ఖ",
      "ో"
    ],
    [
      "ఏ",
      "డా"
    ],
    [
      "జా",
      "గ్ర"
    ],
    [
      "కేట",
      "ాయ"
    ],
    [
      "కూ",
      "ల</w>"
    ],
    [
      "ప్రజ",
      "లను</w>"
    ],
    [
      "స్త",
      "ారు</w>"
    ],
    [
      "చి",
      "వరకు</w>"
    ],
    [
      "విశ్వవిద్యాల",
      "యం</w>"
    ],
    [
      "మ",
      "ులు</w>"
    ],
    [
      "చర్",
      "మం</w>"
    ],
    [
      "ే",
      "ది.</w>"
    ],
    [
      "స",
      "మి"
    ],
    [
      "నీ",
      "యంగా</w>"
    ],
    [
      "పెర",
      "గ"
    ],
    [
      "క",
      "రో"
    ],
    [
      "గా",
      "హ"
    ],
    [
      "అథ",
      "్లె"
    ],
    [
      "పె",
      "నాల్ట"
    ],
    [
      "డే",
      "వి"
    ],
    [
      "మి",
      "జో"
    ],
    [
      "వా",
      "ష"
    ],
    [
      "గ్",
      "లో"
    ],
    [
      "పడ",
      "ే</w>"
    ],
    [
      "వ్య",
      "ూహ"
    ],
    [
      "6",
      "లో,</w>"
    ],
    [
      "వంత",
      "ె"
    ],
    [
      "కేంద్ర",
      "ం</w>"
    ],
    [
      "వ్యక్",
      "తం</w>"
    ],
    [
      "హి",
      "మ"
    ],
    [
      "న్యూ",
      "జి"
    ],
    [
      "ల్యా",
      "ండ్</w>"
    ],
    [
      "గ",
      "ది"
    ],
    [
      "విలు",
      "వ"
    ],
    [
      "ప్రాంత",
      "ాలకు</w>"
    ],
    [
      "నా",
      "మ"
    ],
    [
      "హ",
      "త్య"
    ],
    [
      "వే",
      "సింది.</w>"
    ],
    [
      "క్రెడి",
      "ట్</w>"
    ],
    [
      "ఎత్త",
      "ు</w>"
    ],
    [
      "లా",
      "గా</w>"
    ],
    [
      "నెల",
      "కొ"
    ],
    [
      "న",
      "ాలలో</w>"
    ],
    [
      "పా",
      "క్ష"
    ],
    [
      "మ",
      "నో"
    ],
    [
      "క్రీడా",
      "కార"
    ],
    [
      "సూ",
      "త్ర"
    ],
    [
      "తె",
      "ల"
    ],
    [
      "కలు",
      "పు"
    ],
    [
      "వ",
      "ింగ్</w>"
    ],
    [
      "లక్షణ",
      "ాలను</w>"
    ],
    [
      "బ్ర",
      "హ్మ"
    ],
    [
      "గ్రామ",
      "ం.</w>"
    ],
    [
      "ట్రా",
      "క్</w>"
    ],
    [
      "లోప",
      "ం</w>"
    ],
    [
      "ట్",
      "స్‌"
    ],
    [
      "నా",
      "మా</w>"
    ],
    [
      "పోరా",
      "ట"
    ],
    [
      "చేసు",
      "కున్న</w>"
    ],
    [
      "7",
      "లో,</w>"
    ],
    [
      "ించ",
      "ారు</w>"
    ],
    [
      "రూపొంద",
      "ించిన</w>"
    ],
    [
      "ల",
      "ాల్</w>"
    ],
    [
      "చేయ",
      "డంలో</w>"
    ],
    [
      "మొదటి",
      "సారి</w>"
    ],
    [
      "దా",
      "ంతో</w>"
    ],
    [
      "కార్యక్రమ",
      "ం</w>"
    ],
    [
      "ఉద",
      "యం</w>"
    ],
    [
      "క",
      "రు</w>"
    ],
    [
      "గ",
      "్య"
    ],
    [
      "ఉపాధ్య",
      "ాయ"
    ],
    [
      "చేరు",
      "కుంది.</w>"
    ],
    [
      "పాత్ర",
      "లు</w>"
    ],
    [
      "్‌",
      "కి</w>"
    ],
    [
      "స్థల",
      "ం</w>"
    ],
    [
      "చా",
      "ళు"
    ],
    [
      "య్య",
      "ే</w>"
    ],
    [
      "రుతు",
      "ప"
    ],
    [
      "క్",
      "వీ"
    ],
    [
      "తప్ప",
      "ని"
    ],
    [
      "స్ప",
      "ాని"
    ],
    [
      "ప",
      "ాలు</w>"
    ],
    [
      "ఆర్",
      "డర్</w>"
    ],
    [
      "ని",
      "కో"
    ],
    [
      "2",
      "వ</w>"
    ],
    [
      "ధ",
      "రి"
    ],
    [
      "మై",
      "సూ"
    ],
    [
      "విజ",
      "యాన్ని</w>"
    ],
    [
      "సో",
      "దర"
    ],
    [
      "చేయబడ",
      "్డ"
    ],
    [
      "సమ",
      "యాన్ని</w>"
    ],
    [
      "ఉ",
      "ల్ల"
    ],
    [
      "సిం",
      "హాస"
    ],
    [
      "విధ",
      "ంగా,</w>"
    ],
    [
      "బ",
      "ట్ట"
    ],
    [
      "బి",
      "యా</w>"
    ],
    [
      "కల్",
      "లో</w>"
    ],
    [
      "ఎన్నిక",
      "య్యారు.</w>"
    ],
    [
      "చెబు",
      "తారు.</w>"
    ],
    [
      "ఆల",
      "య</w>"
    ],
    [
      "మరి",
      "న్ని</w>"
    ],
    [
      "బరు",
      "వు</w>"
    ],
    [
      "వృ",
      "క్ష"
    ],
    [
      "బె",
      "ట్ట"
    ],
    [
      "వంటి",
      "వి</w>"
    ],
    [
      "లై",
      "న"
    ],
    [
      "డ",
      "చ్</w>"
    ],
    [
      "దూ",
      "రం</w>"
    ],
    [
      "అకాడ",
      "మీ</w>"
    ],
    [
      "శ",
      "</w>"
    ],
    [
      "ా",
      "ను,</w>"
    ],
    [
      "అనిప",
      "ించింది.</w>"
    ],
    [
      "అభ",
      "్యా"
    ],
    [
      "న",
      "ప్పటికీ,</w>"
    ],
    [
      "త",
      "ులలో</w>"
    ],
    [
      "ట్",
      "జర్"
    ],
    [
      "్‌‌",
      "ను</w>"
    ],
    [
      "200",
      "1</w>"
    ],
    [
      "గా",
      "నే,</w>"
    ],
    [
      "పని",
      "చే"
    ],
    [
      "ఉన్న",
      "ాయని</w>"
    ],
    [
      "మార్కె",
      "ట్</w>"
    ],
    [
      "చూడ",
      "వచ్చు.</w>"
    ],
    [
      "ించు",
      "కోండి.</w>"
    ],
    [
      "అవ",
      "గాహ"
    ],
    [
      "మిలియ",
      "న్ల</w>"
    ],
    [
      "బర్",
      "గ"
    ],
    [
      "హైద",
      "రా"
    ],
    [
      "జా",
      "తులు</w>"
    ],
    [
      "నట",
      "ుడు</w>"
    ],
    [
      "కీల",
      "క</w>"
    ],
    [
      "త్వ",
      "ంలో</w>"
    ],
    [
      "హ",
      "ంగ"
    ],
    [
      "రి",
      "ఫ"
    ],
    [
      "ప్రపంచ",
      "ంలోనే</w>"
    ],
    [
      "రాజ",
      "ా</w>"
    ],
    [
      "షె",
      "డ్యూ"
    ],
    [
      "సరిహద్ద",
      "ు</w>"
    ],
    [
      "క",
      "ైన</w>"
    ],
    [
      "బయ",
      "ట</w>"
    ],
    [
      "పారి",
      "శ్రా"
    ],
    [
      "సర",
      "ి</w>"
    ],
    [
      "అర్జె",
      "ంటీ"
    ],
    [
      "ఆడ",
      "తారు.</w>"
    ],
    [
      "లై",
      "న్‌లో</w>"
    ],
    [
      "క్రీడ",
      "గా</w>"
    ],
    [
      "ఇల్లిన",
      "ాయి"
    ],
    [
      "టె",
      "ండ"
    ],
    [
      "స",
      "న్యా"
    ],
    [
      "అ",
      "హ్మ"
    ],
    [
      "సై",
      "నిక"
    ],
    [
      "సాహిత్య",
      "ం</w>"
    ],
    [
      "సిక్క",
      "ు</w>"
    ],
    [
      "ిక",
      "ో"
    ],
    [
      "పని",
      "చేసే</w>"
    ],
    [
      "జ",
      "న్</w>"
    ],
    [
      "కాల",
      "ు"
    ],
    [
      "నది",
      "కి</w>"
    ],
    [
      "ఢిల్లీ",
      "లో</w>"
    ],
    [
      "3",
      "5</w>"
    ],
    [
      "స్రా",
      "వం</w>"
    ],
    [
      "వే",
      "దిక</w>"
    ],
    [
      "వస్తువ",
      "ుల</w>"
    ],
    [
      "ె",
      "ండ"
    ],
    [
      "ళ్ల",
      "లో</w>"
    ],
    [
      "తెలు",
      "గు</w>"
    ],
    [
      "మూల",
      "ం</w>"
    ],
    [
      "కర్",
      "ర"
    ],
    [
      "కపో",
      "వచ్చు.</w>"
    ],
    [
      "నె",
      "ట్"
    ],
    [
      "నైరు",
      "తి</w>"
    ],
    [
      "రాజస్థా",
      "న్</w>"
    ],
    [
      "అంట",
      "ు"
    ],
    [
      "సిండ్రో",
      "మ్</w>"
    ],
    [
      "కె",
      "రీ"
    ],
    [
      "అవార్",
      "డు</w>"
    ],
    [
      "వ",
      "తి</w>"
    ],
    [
      "భార",
      "తీయ"
    ],
    [
      "ించే",
      "లా</w>"
    ],
    [
      "శ్రీ",
      "ల"
    ],
    [
      "ఇండో",
      "-"
    ],
    [
      "హా",
      "జర"
    ],
    [
      "ఉండే",
      "వారు.</w>"
    ],
    [
      "పోర్",
      "ట్</w>"
    ],
    [
      "ఇవ్వ",
      "డానికి</w>"
    ],
    [
      "క్రి",
      "తం</w>"
    ],
    [
      "ఆందోళ",
      "న</w>"
    ],
    [
      "త",
      "ులతో</w>"
    ],
    [
      "ఉ",
      "ంది"
    ],
    [
      "సంబంధ",
      "ించి</w>"
    ]
  ],
  "vocab_size": 5000,
  "num_merges": 5000,
  "actual_merges": 5000,
  "special_tokens": [
    "<unk>",
    "<pad>",
    "<sos>",
    "<eos>"
  ]
}