{
  "merges": [
    [
      "ے",
      "</w>"
    ],
    [
      "ی",
      "</w>"
    ],
    [
      "ر",
      "</w>"
    ],
    [
      "ا",
      "</w>"
    ],
    [
      "ں",
      "</w>"
    ],
    [
      "ہ",
      "</w>"
    ],
    [
      "۔",
      "</w>"
    ],
    [
      "م",
      "ی"
    ],
    [
      "ک",
      "ے</w>"
    ],
    [
      "ا",
      "ن"
    ],
    [
      "و",
      "</w>"
    ],
    [
      "می",
      "ں</w>"
    ],
    [
      "و",
      "ر</w>"
    ],
    [
      "ک",
      "ی</w>"
    ],
    [
      "ت",
      "</w>"
    ],
    [
      "،",
      "</w>"
    ],
    [
      "ا",
      "س"
    ],
    [
      "ن",
      "ے</w>"
    ],
    [
      "ن",
      "</w>"
    ],
    [
      "ا",
      "ی"
    ],
    [
      "م",
      "</w>"
    ],
    [
      "ر",
      "ی"
    ],
    [
      "ل",
      "</w>"
    ],
    [
      "س",
      "ے</w>"
    ],
    [
      "ک",
      "</w>"
    ],
    [
      "ہ",
      "ے"
    ],
    [
      "و",
      "ں</w>"
    ],
    [
      "ا",
      "ور</w>"
    ],
    [
      "ہ",
      "ی"
    ],
    [
      "ا",
      "ئ"
    ],
    [
      "ت",
      "ھ"
    ],
    [
      "ل",
      "ی"
    ],
    [
      "ا",
      "ر"
    ],
    [
      "ہے",
      "۔</w>"
    ],
    [
      "ک",
      "و</w>"
    ],
    [
      "ک",
      "ا</w>"
    ],
    [
      "ک",
      "ی"
    ],
    [
      "ہ",
      "و"
    ],
    [
      "د",
      "</w>"
    ],
    [
      "ک",
      "ر"
    ],
    [
      "ان",
      "</w>"
    ],
    [
      "س",
      "</w>"
    ],
    [
      "اس",
      "</w>"
    ],
    [
      "پ",
      "ر</w>"
    ],
    [
      "و",
      "ر"
    ],
    [
      "ت",
      "ا</w>"
    ],
    [
      "د",
      "ی"
    ],
    [
      "ب",
      "</w>"
    ],
    [
      "ای",
      "ک</w>"
    ],
    [
      "ہی",
      "ں"
    ],
    [
      "ی",
      "ا"
    ],
    [
      "ت",
      "ی</w>"
    ],
    [
      "ا",
      "م"
    ],
    [
      "ٹ",
      "</w>"
    ],
    [
      "ر",
      "و"
    ],
    [
      "ک",
      "ھ"
    ],
    [
      "ہ",
      "ے</w>"
    ],
    [
      "ر",
      "ا"
    ],
    [
      "ت",
      "ے</w>"
    ],
    [
      "ا",
      "۔</w>"
    ],
    [
      "ی",
      "ا</w>"
    ],
    [
      "ب",
      "ھ"
    ],
    [
      "ز",
      "</w>"
    ],
    [
      "ل",
      "ا"
    ],
    [
      "ال",
      "</w>"
    ],
    [
      "ک",
      "ہ</w>"
    ],
    [
      "ی",
      "ہ</w>"
    ],
    [
      "ا",
      "ر</w>"
    ],
    [
      "ہیں",
      "۔</w>"
    ],
    [
      "ہی",
      "ں</w>"
    ],
    [
      "ن",
      "گ"
    ],
    [
      "ج",
      "ا"
    ],
    [
      "و",
      "س"
    ],
    [
      "ن",
      "د"
    ],
    [
      "ف",
      "</w>"
    ],
    [
      "ا",
      "م</w>"
    ],
    [
      "ا",
      "پ"
    ],
    [
      "ک",
      "و"
    ],
    [
      "ب",
      "ا"
    ],
    [
      "لی",
      "ے</w>"
    ],
    [
      "پ",
      "ی"
    ],
    [
      "د",
      "ہ</w>"
    ],
    [
      "ک",
      "ر</w>"
    ],
    [
      "س",
      "ا"
    ],
    [
      "ن",
      "ی</w>"
    ],
    [
      "ڈ",
      "</w>"
    ],
    [
      "ب",
      "ی"
    ],
    [
      "و",
      "ی"
    ],
    [
      "ٹ",
      "ی"
    ],
    [
      "پ",
      "</w>"
    ],
    [
      "ن",
      "ی"
    ],
    [
      "ئ",
      "ی</w>"
    ],
    [
      "و",
      "ا"
    ],
    [
      "و",
      "ہ</w>"
    ],
    [
      "س",
      "ی"
    ],
    [
      "ل",
      "و"
    ],
    [
      "2",
      "0"
    ],
    [
      "ل",
      "ے</w>"
    ],
    [
      "ع",
      "</w>"
    ],
    [
      "ائ",
      "ی</w>"
    ],
    [
      "کی",
      "ا</w>"
    ],
    [
      "ے",
      "۔</w>"
    ],
    [
      "چ",
      "ھ"
    ],
    [
      "ت",
      "ع"
    ],
    [
      "ط",
      "ور</w>"
    ],
    [
      "م",
      "ن"
    ],
    [
      "ج",
      "و</w>"
    ],
    [
      "ل",
      "ی</w>"
    ],
    [
      "بھ",
      "ی</w>"
    ],
    [
      "و",
      "ال"
    ],
    [
      "ر",
      "ی</w>"
    ],
    [
      "ن",
      "ا</w>"
    ],
    [
      "ش",
      "</w>"
    ],
    [
      "م",
      "و"
    ],
    [
      "ا",
      "ہ"
    ],
    [
      "س",
      "ی</w>"
    ],
    [
      "ج",
      "ی"
    ],
    [
      "ت",
      "ی"
    ],
    [
      "تھ",
      "</w>"
    ],
    [
      "پ",
      "ہ"
    ],
    [
      "ا",
      "ت</w>"
    ],
    [
      "س",
      "ک"
    ],
    [
      "کر",
      "نے</w>"
    ],
    [
      "1",
      "9"
    ],
    [
      "د",
      "ی</w>"
    ],
    [
      "و",
      "ن"
    ],
    [
      "ا",
      "ب"
    ],
    [
      "0",
      "</w>"
    ],
    [
      "ب",
      "ن"
    ],
    [
      "آ",
      "پ</w>"
    ],
    [
      "ج",
      "</w>"
    ],
    [
      "ڈ",
      "ی"
    ],
    [
      "ب",
      "ہ"
    ],
    [
      "جا",
      "تا</w>"
    ],
    [
      "ان",
      "ی</w>"
    ],
    [
      "ا",
      "و"
    ],
    [
      "ہے",
      "،</w>"
    ],
    [
      "ان",
      "ے</w>"
    ],
    [
      "ائ",
      "ی"
    ],
    [
      "ئ",
      "ے</w>"
    ],
    [
      "سا",
      "تھ</w>"
    ],
    [
      "ار",
      "ی</w>"
    ],
    [
      "ن",
      "ہیں</w>"
    ],
    [
      "ک",
      "م"
    ],
    [
      "ب",
      "ر"
    ],
    [
      "تھ",
      "ا۔</w>"
    ],
    [
      "نگ",
      "</w>"
    ],
    [
      "ب",
      "ع"
    ],
    [
      "ٹ",
      "ی</w>"
    ],
    [
      "ا",
      "ف"
    ],
    [
      "ز",
      "یا"
    ],
    [
      "تھ",
      "ی"
    ],
    [
      "زیا",
      "دہ</w>"
    ],
    [
      "ف",
      "ی"
    ],
    [
      "م",
      "ق"
    ],
    [
      "‏",
      "</w>"
    ],
    [
      "ت",
      "ک</w>"
    ],
    [
      "د",
      "ر"
    ],
    [
      "ں",
      "،</w>"
    ],
    [
      "پ",
      "ر"
    ],
    [
      "ج",
      "و"
    ],
    [
      "ن",
      "و"
    ],
    [
      "۔",
      "‏</w>"
    ],
    [
      "ہ",
      "ند"
    ],
    [
      "ا",
      "ص"
    ],
    [
      "ہ",
      "و</w>"
    ],
    [
      "گ",
      "یا</w>"
    ],
    [
      "ت",
      "ا"
    ],
    [
      "ب",
      "ی</w>"
    ],
    [
      "ا",
      "ک"
    ],
    [
      "ح",
      "</w>"
    ],
    [
      "س",
      "و"
    ],
    [
      "ہ",
      "وں</w>"
    ],
    [
      "ت",
      "ق"
    ],
    [
      "گ",
      "</w>"
    ],
    [
      "ق",
      "</w>"
    ],
    [
      "اپ",
      "نے</w>"
    ],
    [
      "ہ",
      "ا"
    ],
    [
      "س",
      "ر"
    ],
    [
      "ط",
      "ر"
    ],
    [
      "ج",
      "س</w>"
    ],
    [
      "ر",
      "ہ"
    ],
    [
      "ز",
      "ی"
    ],
    [
      "ٹ",
      "ر</w>"
    ],
    [
      "ا",
      "د"
    ],
    [
      "چ",
      "</w>"
    ],
    [
      "ہ",
      "ر</w>"
    ],
    [
      "م",
      "ر"
    ],
    [
      "ا",
      "گ"
    ],
    [
      "ب",
      "ڑ"
    ],
    [
      "ائ",
      "ے</w>"
    ],
    [
      "بع",
      "د</w>"
    ],
    [
      "م",
      "ع"
    ],
    [
      "چ",
      "ی"
    ],
    [
      "م",
      "ش"
    ],
    [
      "ئ",
      "ی"
    ],
    [
      "گ",
      "ی"
    ],
    [
      "م",
      "ال</w>"
    ],
    [
      "ف",
      "ل"
    ],
    [
      "کھ",
      "ی"
    ],
    [
      "م",
      "ا"
    ],
    [
      "ع",
      "لا"
    ],
    [
      "م",
      "ب"
    ],
    [
      "ک",
      "ن</w>"
    ],
    [
      "م",
      "ل"
    ],
    [
      "ں",
      "۔</w>"
    ],
    [
      "خ",
      "ت"
    ],
    [
      "وس",
      "ت"
    ],
    [
      "بہ",
      "ت</w>"
    ],
    [
      "پ",
      "و"
    ],
    [
      "ش",
      "ن</w>"
    ],
    [
      "اس",
      "ے</w>"
    ],
    [
      "ان",
      "د"
    ],
    [
      "ج",
      "ھ"
    ],
    [
      "ک",
      "ار"
    ],
    [
      "ن",
      "ا"
    ],
    [
      "ہند",
      "وست"
    ],
    [
      "ے",
      "،</w>"
    ],
    [
      "م",
      "ی</w>"
    ],
    [
      "س",
      "ت"
    ],
    [
      "اس",
      "تع"
    ],
    [
      "کر",
      "تے</w>"
    ],
    [
      "و",
      "ل</w>"
    ],
    [
      "ج",
      "ہ</w>"
    ],
    [
      "ک",
      "ہ"
    ],
    [
      "ٹ",
      "ر"
    ],
    [
      "20",
      "1"
    ],
    [
      "ام",
      "ل</w>"
    ],
    [
      "استع",
      "مال</w>"
    ],
    [
      "گ",
      "ھ"
    ],
    [
      "ری",
      "اس"
    ],
    [
      "ت",
      "و</w>"
    ],
    [
      "ت",
      "ح"
    ],
    [
      "ا",
      "،</w>"
    ],
    [
      "تھ",
      "ے۔</w>"
    ],
    [
      "و",
      "ق"
    ],
    [
      "وال",
      "ے</w>"
    ],
    [
      "د",
      "ھ"
    ],
    [
      "ای",
      "ا</w>"
    ],
    [
      "س",
      "ل"
    ],
    [
      "ت",
      "ر"
    ],
    [
      "چھ",
      "</w>"
    ],
    [
      "و",
      "ب"
    ],
    [
      "می",
      "ں،</w>"
    ],
    [
      "ج",
      "ب</w>"
    ],
    [
      "ان",
      "ہوں</w>"
    ],
    [
      "5",
      "</w>"
    ],
    [
      "ر",
      "ے</w>"
    ],
    [
      "2",
      "</w>"
    ],
    [
      "ہو",
      "تا</w>"
    ],
    [
      "گ",
      "یا"
    ],
    [
      "ح",
      "ص"
    ],
    [
      "س",
      "ب</w>"
    ],
    [
      "1",
      "</w>"
    ],
    [
      "ل",
      "ا</w>"
    ],
    [
      "اپ",
      "نی</w>"
    ],
    [
      "م",
      "ت</w>"
    ],
    [
      "ہیں",
      "،</w>"
    ],
    [
      "ہ",
      "ی</w>"
    ],
    [
      "ن",
      "ڈ"
    ],
    [
      "ن",
      "ڈ</w>"
    ],
    [
      "ش",
      "ی"
    ],
    [
      "ہو",
      "نے</w>"
    ],
    [
      "ک",
      "م</w>"
    ],
    [
      ")",
      "</w>"
    ],
    [
      "ور",
      "ی</w>"
    ],
    [
      "ک",
      "ا"
    ],
    [
      "د",
      "وس"
    ],
    [
      "ت",
      "م"
    ],
    [
      "خ",
      "و"
    ],
    [
      "ش",
      "امل</w>"
    ],
    [
      "ک",
      "ری"
    ],
    [
      "ام",
      "ی</w>"
    ],
    [
      "ق",
      "ی"
    ],
    [
      "ک",
      "چھ</w>"
    ],
    [
      "م",
      "ح"
    ],
    [
      "ق",
      "ی</w>"
    ],
    [
      "ر",
      "کھ"
    ],
    [
      "تھی",
      "۔</w>"
    ],
    [
      "ا",
      "ع"
    ],
    [
      "دی",
      "ا</w>"
    ],
    [
      "ی",
      "ر</w>"
    ],
    [
      "گ",
      "ر"
    ],
    [
      "پ",
      "ھ"
    ],
    [
      "4",
      "</w>"
    ],
    [
      "فل",
      "م</w>"
    ],
    [
      "کی",
      "ا۔</w>"
    ],
    [
      "ٹ",
      "ھ"
    ],
    [
      "م",
      "ال"
    ],
    [
      "وا",
      "ق"
    ],
    [
      "ع",
      "م"
    ],
    [
      "اص",
      "ل</w>"
    ],
    [
      "علا",
      "ق"
    ],
    [
      "ک",
      "ل</w>"
    ],
    [
      "پہ",
      "لے</w>"
    ],
    [
      "ت",
      "ر</w>"
    ],
    [
      "س",
      "ال</w>"
    ],
    [
      "8",
      "</w>"
    ],
    [
      "ع",
      "ام</w>"
    ],
    [
      "7",
      "</w>"
    ],
    [
      "ہو",
      "تی</w>"
    ],
    [
      "گ",
      "ی</w>"
    ],
    [
      "6",
      "</w>"
    ],
    [
      "3",
      "</w>"
    ],
    [
      "س",
      "ٹ"
    ],
    [
      "لی",
      "کن</w>"
    ],
    [
      "و",
      "ی</w>"
    ],
    [
      "گ",
      "و"
    ],
    [
      "20",
      "0"
    ],
    [
      "ف",
      "ر"
    ],
    [
      "گیا",
      "۔</w>"
    ],
    [
      "ک",
      "ن"
    ],
    [
      "و",
      "جہ</w>"
    ],
    [
      "س",
      "م"
    ],
    [
      "ش",
      "ا"
    ],
    [
      "ک",
      "ل"
    ],
    [
      "ک",
      "س</w>"
    ],
    [
      "ار",
      "ے</w>"
    ],
    [
      "کر",
      "تا</w>"
    ],
    [
      "د",
      "ا"
    ],
    [
      "ب",
      "و"
    ],
    [
      "م",
      "ط"
    ],
    [
      "ج",
      "ان"
    ],
    [
      "ج",
      "ا</w>"
    ],
    [
      "د",
      "ور"
    ],
    [
      "سک",
      "تا</w>"
    ],
    [
      "ہو",
      "ئے</w>"
    ],
    [
      "ہندوست",
      "ان</w>"
    ],
    [
      "د",
      "ار</w>"
    ],
    [
      "ا",
      "ب</w>"
    ],
    [
      "ج",
      "ن"
    ],
    [
      "ج",
      "ی</w>"
    ],
    [
      "ف",
      "و"
    ],
    [
      "وق",
      "ت</w>"
    ],
    [
      "ہا",
      "ں</w>"
    ],
    [
      "س",
      "ن"
    ],
    [
      "ث",
      "ر</w>"
    ],
    [
      "ک",
      "ام</w>"
    ],
    [
      "تھ",
      "ا</w>"
    ],
    [
      "\"",
      "</w>"
    ],
    [
      "د",
      "و"
    ],
    [
      "ری",
      "ن</w>"
    ],
    [
      "ن",
      "ام</w>"
    ],
    [
      "م",
      "د"
    ],
    [
      "وال",
      "ی</w>"
    ],
    [
      "ل",
      "گ"
    ],
    [
      "تق",
      "ری"
    ],
    [
      "ح",
      "اصل</w>"
    ],
    [
      "ڑ",
      "ی</w>"
    ],
    [
      "د",
      "و</w>"
    ],
    [
      "ص",
      "</w>"
    ],
    [
      "ز",
      "ی</w>"
    ],
    [
      "غ",
      "یر</w>"
    ],
    [
      "ل",
      "ہ</w>"
    ],
    [
      "ن",
      "ظ"
    ],
    [
      "ئ",
      "ے۔</w>"
    ],
    [
      "پ",
      "ور"
    ],
    [
      "ان",
      "ہ</w>"
    ],
    [
      "سک",
      "تے</w>"
    ],
    [
      "م",
      "خت"
    ],
    [
      "ت",
      "وں</w>"
    ],
    [
      "ری",
      "ع"
    ],
    [
      "ق",
      "و"
    ],
    [
      "ذ",
      "ریع"
    ],
    [
      "با",
      "ت</w>"
    ],
    [
      "ٹ",
      "س</w>"
    ],
    [
      "ی",
      "و"
    ],
    [
      "پ",
      "رو"
    ],
    [
      "ڈ",
      "ی</w>"
    ],
    [
      "ان",
      "ہیں</w>"
    ],
    [
      "ک",
      "سی</w>"
    ],
    [
      "ان",
      "ت"
    ],
    [
      "گ",
      "ر</w>"
    ],
    [
      "ش",
      "رو"
    ],
    [
      "ڑ",
      "</w>"
    ],
    [
      "واق",
      "ع</w>"
    ],
    [
      "م",
      "ار"
    ],
    [
      "ا",
      "ؤ"
    ],
    [
      "س",
      "ت</w>"
    ],
    [
      "ط",
      "</w>"
    ],
    [
      "ج",
      "ن</w>"
    ],
    [
      "چھ",
      "و"
    ],
    [
      "کہ",
      "ا</w>"
    ],
    [
      "0",
      "0</w>"
    ],
    [
      "جا",
      "تی</w>"
    ],
    [
      "ہو",
      "تے</w>"
    ],
    [
      "ش",
      "ن"
    ],
    [
      ":",
      "</w>"
    ],
    [
      "مب",
      "ر</w>"
    ],
    [
      "ن",
      "ہ</w>"
    ],
    [
      "ب",
      "چ"
    ],
    [
      "اس",
      "ٹ"
    ],
    [
      "پی",
      "د"
    ],
    [
      "ً",
      "</w>"
    ],
    [
      "ش",
      "ہر</w>"
    ],
    [
      "تی",
      "ن</w>"
    ],
    [
      "ریاس",
      "ت</w>"
    ],
    [
      "ئ",
      "ر</w>"
    ],
    [
      "کی",
      "۔</w>"
    ],
    [
      "ا",
      "ت"
    ],
    [
      "ہے",
      "۔‏</w>"
    ],
    [
      "گ",
      "ئی</w>"
    ],
    [
      "ل",
      "ف</w>"
    ],
    [
      "ہ",
      "ر"
    ],
    [
      "شرو",
      "ع</w>"
    ],
    [
      "ک",
      "ار</w>"
    ],
    [
      "اگ",
      "ر</w>"
    ],
    [
      "یا",
      "ر</w>"
    ],
    [
      "ا",
      "ش"
    ],
    [
      "ام",
      "ری"
    ],
    [
      "9",
      "</w>"
    ],
    [
      "اہ",
      "م</w>"
    ],
    [
      "ان",
      "گ"
    ],
    [
      "ا",
      "ز</w>"
    ],
    [
      "م",
      "ا</w>"
    ],
    [
      "ہو",
      "ا</w>"
    ],
    [
      "کر",
      "نا</w>"
    ],
    [
      "م",
      "غ"
    ],
    [
      "جی",
      "سے</w>"
    ],
    [
      "ح",
      "کو"
    ],
    [
      "پ",
      "ی</w>"
    ],
    [
      "ن",
      "د</w>"
    ],
    [
      "و",
      "ن</w>"
    ],
    [
      "دی",
      "کھ"
    ],
    [
      "مو",
      "جو"
    ],
    [
      "گ",
      "وں</w>"
    ],
    [
      "د",
      "ری"
    ],
    [
      "خ",
      "ی"
    ],
    [
      "ر",
      "ہ</w>"
    ],
    [
      "م",
      "وس"
    ],
    [
      "ہ",
      "م</w>"
    ],
    [
      "مخت",
      "لف</w>"
    ],
    [
      "ل",
      "وں</w>"
    ],
    [
      "کو",
      "ئی</w>"
    ],
    [
      "طر",
      "ف</w>"
    ],
    [
      "ئی",
      "۔</w>"
    ],
    [
      "پ",
      "ڑ"
    ],
    [
      "ج",
      "ر"
    ],
    [
      "د",
      "ہ"
    ],
    [
      "طر",
      "ح</w>"
    ],
    [
      "ال",
      "ی"
    ],
    [
      "آ",
      "ر"
    ],
    [
      "ا",
      "ے</w>"
    ],
    [
      "ان",
      "وں</w>"
    ],
    [
      "ن",
      "س"
    ],
    [
      "ب",
      "ل"
    ],
    [
      "ب",
      "ار</w>"
    ],
    [
      "م",
      "جھ"
    ],
    [
      "س",
      "ائ"
    ],
    [
      "حکو",
      "مت</w>"
    ],
    [
      "ل",
      "ائ"
    ],
    [
      "ار",
      "ہ</w>"
    ],
    [
      "ج",
      "انے</w>"
    ],
    [
      "ح",
      "ی"
    ],
    [
      "ار",
      "ت</w>"
    ],
    [
      "لو",
      "گوں</w>"
    ],
    [
      "کھی",
      "ل</w>"
    ],
    [
      "ای",
      "س"
    ],
    [
      "م",
      "پ"
    ],
    [
      "ار",
      "وں</w>"
    ],
    [
      "ٹ",
      "ا</w>"
    ],
    [
      "خ",
      "</w>"
    ],
    [
      "ب",
      "ے</w>"
    ],
    [
      "ر",
      "ا</w>"
    ],
    [
      "ای",
      "س</w>"
    ],
    [
      "ت",
      "ہ</w>"
    ],
    [
      "دی",
      "گر</w>"
    ],
    [
      "کر",
      "تی</w>"
    ],
    [
      "ان",
      "ا</w>"
    ],
    [
      "ن",
      "یا</w>"
    ],
    [
      "پ",
      "ار"
    ],
    [
      "دور",
      "ان</w>"
    ],
    [
      "وی",
      "ں</w>"
    ],
    [
      "ھ",
      "</w>"
    ],
    [
      "م",
      "،</w>"
    ],
    [
      "د",
      "ے</w>"
    ],
    [
      "ٹ",
      "و"
    ],
    [
      "مجھ",
      "ے</w>"
    ],
    [
      "چ",
      "و"
    ],
    [
      "ن",
      "ٹ</w>"
    ],
    [
      "د",
      "ن</w>"
    ],
    [
      "ند",
      "ر</w>"
    ],
    [
      "ص",
      "ر"
    ],
    [
      "پ",
      "ری"
    ],
    [
      "ذریع",
      "ے</w>"
    ],
    [
      "ہو",
      "ئی</w>"
    ],
    [
      "ض",
      "</w>"
    ],
    [
      "ور",
      "ت</w>"
    ],
    [
      "بن",
      "یا"
    ],
    [
      "ج",
      "نو"
    ],
    [
      "ر",
      "ہے</w>"
    ],
    [
      "ق",
      "ب"
    ],
    [
      "ٹ",
      "ے</w>"
    ],
    [
      "تھ",
      "ی</w>"
    ],
    [
      "پ",
      "اس</w>"
    ],
    [
      "ب",
      "را"
    ],
    [
      "ب",
      "ن</w>"
    ],
    [
      "ت",
      "ب"
    ],
    [
      "صر",
      "ف</w>"
    ],
    [
      "ک",
      "ش"
    ],
    [
      "ض",
      "ر"
    ],
    [
      "ج",
      "ے</w>"
    ],
    [
      "ج",
      "سے</w>"
    ],
    [
      "پہ",
      "ن"
    ],
    [
      "گ",
      "ئے</w>"
    ],
    [
      "حص",
      "ہ</w>"
    ],
    [
      "دوس",
      "رے</w>"
    ],
    [
      "با",
      "ً</w>"
    ],
    [
      "در",
      "می"
    ],
    [
      "ا",
      "ق"
    ],
    [
      "ان",
      "ڈ"
    ],
    [
      "رہ",
      "ا</w>"
    ],
    [
      "ک",
      "ئی</w>"
    ],
    [
      "ب",
      "ارے</w>"
    ],
    [
      "19",
      "9"
    ],
    [
      "ا",
      "ح"
    ],
    [
      "آ",
      "ئی</w>"
    ],
    [
      "م",
      "ای"
    ],
    [
      "د",
      "ور</w>"
    ],
    [
      "تم",
      "ام</w>"
    ],
    [
      "فی",
      "ص"
    ],
    [
      "ان",
      "ی"
    ],
    [
      "کم",
      "پ"
    ],
    [
      "ک",
      "س"
    ],
    [
      "سک",
      "تی</w>"
    ],
    [
      "جا",
      "تے</w>"
    ],
    [
      "تع",
      "ل"
    ],
    [
      "مق",
      "اب"
    ],
    [
      "گ",
      "ئے۔</w>"
    ],
    [
      "ب",
      "ال"
    ],
    [
      "می",
      "ن</w>"
    ],
    [
      "اس",
      "ی</w>"
    ],
    [
      "آ",
      "خ"
    ],
    [
      "ن",
      "ق"
    ],
    [
      "لو",
      "گ</w>"
    ],
    [
      "تقری",
      "باً</w>"
    ],
    [
      "ون",
      "کہ</w>"
    ],
    [
      "می",
      "ٹر</w>"
    ],
    [
      "ٹی",
      "م</w>"
    ],
    [
      "دی",
      "ا۔</w>"
    ],
    [
      "ک",
      "اری</w>"
    ],
    [
      "پی",
      "ش</w>"
    ],
    [
      "خ",
      "ت</w>"
    ],
    [
      "ا",
      "ض"
    ],
    [
      "ر",
      "ق"
    ],
    [
      "اس",
      "ٹی"
    ],
    [
      "با",
      "د"
    ],
    [
      "ہندوست",
      "انی</w>"
    ],
    [
      "آ",
      "ف</w>"
    ],
    [
      "س",
      "ال"
    ],
    [
      "م",
      "ت"
    ],
    [
      "س",
      "م</w>"
    ],
    [
      "مط",
      "اب"
    ],
    [
      "ت",
      "رین</w>"
    ],
    [
      "پید",
      "ا</w>"
    ],
    [
      "ظ",
      "</w>"
    ],
    [
      "درمی",
      "ان</w>"
    ],
    [
      "ا",
      "ں</w>"
    ],
    [
      "بڑ",
      "ے</w>"
    ],
    [
      "کی",
      "ے</w>"
    ],
    [
      "م",
      "وں</w>"
    ],
    [
      "آ",
      "با"
    ],
    [
      "خ",
      "ص"
    ],
    [
      "لی",
      "نڈ</w>"
    ],
    [
      "ون",
      "وں</w>"
    ],
    [
      "س",
      "ٹ</w>"
    ],
    [
      "ز",
      "ب"
    ],
    [
      "ج",
      "گ"
    ],
    [
      "مغ",
      "ر"
    ],
    [
      "گ",
      "ا"
    ],
    [
      "د",
      "،</w>"
    ],
    [
      "من",
      "ٹ</w>"
    ],
    [
      "ک",
      "ٹ</w>"
    ],
    [
      "ف",
      "ٹ</w>"
    ],
    [
      "ڈ",
      "و"
    ],
    [
      "ر",
      "وں</w>"
    ],
    [
      "م",
      "ات</w>"
    ],
    [
      "م",
      "ہ"
    ],
    [
      "ک",
      "ال"
    ],
    [
      "ج",
      "ل"
    ],
    [
      "د",
      "ونوں</w>"
    ],
    [
      "مر",
      "ک"
    ],
    [
      "ف",
      "را"
    ],
    [
      "ح",
      "ال"
    ],
    [
      "ان",
      "س"
    ],
    [
      "را",
      "ت</w>"
    ],
    [
      "ت",
      "ہ"
    ],
    [
      "س",
      "ام"
    ],
    [
      "ائ",
      "م</w>"
    ],
    [
      "ب",
      "ال</w>"
    ],
    [
      "پہ",
      "لی</w>"
    ],
    [
      "ت",
      "و"
    ],
    [
      "عم",
      "ر</w>"
    ],
    [
      "ج",
      "ہاں</w>"
    ],
    [
      "خ",
      "لا"
    ],
    [
      "ت",
      "ش"
    ],
    [
      "ٹ",
      "ری"
    ],
    [
      "ن",
      "ام"
    ],
    [
      "کی",
      "ونکہ</w>"
    ],
    [
      "مش",
      "ر"
    ],
    [
      "ری",
      "ق"
    ],
    [
      "کھ",
      "لا"
    ],
    [
      "ش",
      "ک"
    ],
    [
      "خ",
      "وا"
    ],
    [
      "ف",
      "ار"
    ],
    [
      "مد",
      "د</w>"
    ],
    [
      "بڑ",
      "ی</w>"
    ],
    [
      "را",
      "د</w>"
    ],
    [
      "تھ",
      "ا،</w>"
    ],
    [
      "چ",
      "ا"
    ],
    [
      "ز",
      "ا"
    ],
    [
      "م",
      "تح"
    ],
    [
      "ف",
      "ا"
    ],
    [
      "ن",
      "س</w>"
    ],
    [
      "ش",
      "و"
    ],
    [
      "20",
      "</w>"
    ],
    [
      "ق",
      "ری"
    ],
    [
      "ت",
      "ص"
    ],
    [
      "گ",
      "رو"
    ],
    [
      "ف",
      "ی</w>"
    ],
    [
      "خ",
      "اند"
    ],
    [
      "ش",
      "ی</w>"
    ],
    [
      "می",
      "ر</w>"
    ],
    [
      "ری",
      "لی"
    ],
    [
      "ند",
      "ی</w>"
    ],
    [
      "ب",
      "ہ</w>"
    ],
    [
      "ف",
      "ائ"
    ],
    [
      "یا",
      "ت</w>"
    ],
    [
      "د",
      "ر</w>"
    ],
    [
      "ڈ",
      "ر"
    ],
    [
      "ش",
      "ر"
    ],
    [
      "ن",
      "ٹ"
    ],
    [
      "اف",
      "ی</w>"
    ],
    [
      "خ",
      "اص"
    ],
    [
      "ج",
      "ائے</w>"
    ],
    [
      "سل",
      "ط"
    ],
    [
      "علاق",
      "ے</w>"
    ],
    [
      "کو",
      "ش"
    ],
    [
      "خ",
      "ری"
    ],
    [
      "موجو",
      "د</w>"
    ],
    [
      "ہ",
      "،</w>"
    ],
    [
      "ن",
      "وں</w>"
    ],
    [
      "ع",
      "ل"
    ],
    [
      "م",
      "اری</w>"
    ],
    [
      "م",
      "ائ"
    ],
    [
      "ض",
      "ل"
    ],
    [
      "زی",
      "ر</w>"
    ],
    [
      "س",
      "نگ"
    ],
    [
      "م",
      "تا"
    ],
    [
      "ی",
      "ل</w>"
    ],
    [
      "ع",
      "ہ</w>"
    ],
    [
      "ل",
      "ڈ</w>"
    ],
    [
      "پر",
      "،</w>"
    ],
    [
      "تا",
      "ری"
    ],
    [
      "م",
      "ل</w>"
    ],
    [
      "ص",
      "وب"
    ],
    [
      "ل",
      "ئے</w>"
    ],
    [
      "س",
      "پ"
    ],
    [
      "تھ",
      "ے</w>"
    ],
    [
      "ق",
      "اب"
    ],
    [
      "بھ",
      "ی"
    ],
    [
      "خص",
      "و"
    ],
    [
      "و",
      "ار"
    ],
    [
      "ن",
      "ت</w>"
    ],
    [
      "خاص",
      "</w>"
    ],
    [
      "شا",
      "ہ</w>"
    ],
    [
      "را",
      "م</w>"
    ],
    [
      "گ",
      "ا۔</w>"
    ],
    [
      "1",
      "8"
    ],
    [
      "خلا",
      "ف</w>"
    ],
    [
      "م",
      "ج"
    ],
    [
      "ہو",
      "ا۔</w>"
    ],
    [
      "ائی",
      "ں</w>"
    ],
    [
      "ح",
      "د</w>"
    ],
    [
      "م",
      "س"
    ],
    [
      "ص",
      "دی</w>"
    ],
    [
      "ز",
      "ر"
    ],
    [
      "ام",
      "ات</w>"
    ],
    [
      "ڈ",
      "ال"
    ],
    [
      "19",
      "8"
    ],
    [
      "خ",
      "د"
    ],
    [
      "ا",
      "تی</w>"
    ],
    [
      "0",
      "00</w>"
    ],
    [
      "لا",
      "ت</w>"
    ],
    [
      "پ",
      "انی</w>"
    ],
    [
      "ن",
      "ش"
    ],
    [
      "اف",
      "راد</w>"
    ],
    [
      "کمپ",
      "نی</w>"
    ],
    [
      "تعل",
      "ق</w>"
    ],
    [
      "چ",
      "ل"
    ],
    [
      "مال",
      "ی</w>"
    ],
    [
      "ت",
      "د"
    ],
    [
      "متح",
      "دہ</w>"
    ],
    [
      "ی",
      "وں</w>"
    ],
    [
      "تب",
      "دی"
    ],
    [
      "ن",
      "،</w>"
    ],
    [
      "ج",
      "اری</w>"
    ],
    [
      "اک",
      "ثر</w>"
    ],
    [
      "گھ",
      "ر</w>"
    ],
    [
      "کری",
      "ں</w>"
    ],
    [
      "پ",
      "ن"
    ],
    [
      "ند",
      "گی</w>"
    ],
    [
      "و",
      "ل"
    ],
    [
      "ط",
      "ریق"
    ],
    [
      "ب",
      "ار"
    ],
    [
      "ج",
      "م"
    ],
    [
      "ع",
      "ات</w>"
    ],
    [
      "جان",
      "ا</w>"
    ],
    [
      "ج",
      "نگ</w>"
    ],
    [
      "19",
      "7"
    ],
    [
      "اد",
      "ا</w>"
    ],
    [
      "ہیں",
      "۔‏</w>"
    ],
    [
      "س",
      "ط"
    ],
    [
      "مغر",
      "بی</w>"
    ],
    [
      "م",
      "ث"
    ],
    [
      "ج",
      "نگ"
    ],
    [
      "ضر",
      "ورت</w>"
    ],
    [
      "کر",
      "دار</w>"
    ],
    [
      "ای",
      "ن</w>"
    ],
    [
      "گ",
      "ئی۔</w>"
    ],
    [
      "یو",
      "نی"
    ],
    [
      "اپ",
      "نا</w>"
    ],
    [
      "دی",
      "د</w>"
    ],
    [
      "کم",
      "ل</w>"
    ],
    [
      "م",
      "ص"
    ],
    [
      "کر",
      "و"
    ],
    [
      "تم",
      "ل</w>"
    ],
    [
      "بڑ",
      "ھ"
    ],
    [
      "موس",
      "ی"
    ],
    [
      "ت",
      "اہ"
    ],
    [
      "لی",
      "ن</w>"
    ],
    [
      "ب",
      "نگ"
    ],
    [
      "انت",
      "ظ"
    ],
    [
      "ش",
      "ہ</w>"
    ],
    [
      "ع",
      "ی</w>"
    ],
    [
      "پ",
      "ور</w>"
    ],
    [
      "ٹ",
      "ن</w>"
    ],
    [
      "ظ",
      "اہ"
    ],
    [
      "وال",
      "ا</w>"
    ],
    [
      "ا",
      "خت"
    ],
    [
      "بر",
      "ط"
    ],
    [
      "تاہ",
      "م،</w>"
    ],
    [
      "ل",
      "ڑ"
    ],
    [
      "ضل",
      "ع</w>"
    ],
    [
      "دا",
      "د</w>"
    ],
    [
      "ای",
      "ت</w>"
    ],
    [
      "ت",
      "ج"
    ],
    [
      "ء",
      "</w>"
    ],
    [
      "بع",
      "د،</w>"
    ],
    [
      "گ",
      "ول</w>"
    ],
    [
      "ک",
      "لو"
    ],
    [
      "قری",
      "ب</w>"
    ],
    [
      "جگ",
      "ہ</w>"
    ],
    [
      "اس",
      "کو"
    ],
    [
      "اد",
      "اک"
    ],
    [
      "برط",
      "ان"
    ],
    [
      "م",
      "ندر</w>"
    ],
    [
      "ا",
      "می"
    ],
    [
      "کا",
      "می"
    ],
    [
      "ف",
      "ت"
    ],
    [
      "ا",
      "چھ"
    ],
    [
      "شن",
      "ل</w>"
    ],
    [
      "خو",
      "د</w>"
    ],
    [
      "اؤ",
      "ں</w>"
    ],
    [
      "ت",
      "خ"
    ],
    [
      "ت",
      "یار</w>"
    ],
    [
      "ری",
      "ا</w>"
    ],
    [
      "عم",
      "ل</w>"
    ],
    [
      "گ",
      "ا</w>"
    ],
    [
      "ق",
      "ات</w>"
    ],
    [
      "گ",
      "ری"
    ],
    [
      "ا",
      "۔‏</w>"
    ],
    [
      "ا",
      "ط"
    ],
    [
      "یا",
      "ں</w>"
    ],
    [
      "پھ",
      "ر</w>"
    ],
    [
      "خ",
      "را"
    ],
    [
      "و",
      "ائ"
    ],
    [
      "ئ",
      "ن</w>"
    ],
    [
      "بنیا",
      "دی</w>"
    ],
    [
      "ک",
      "شن</w>"
    ],
    [
      "د",
      "س"
    ],
    [
      "ل",
      "و</w>"
    ],
    [
      "م",
      "تع"
    ],
    [
      "ع",
      "ی"
    ],
    [
      "لی",
      "م</w>"
    ],
    [
      "ہ",
      "ور</w>"
    ],
    [
      "ب",
      "ل</w>"
    ],
    [
      "م",
      "کمل</w>"
    ],
    [
      "ف",
      "رو"
    ],
    [
      "د",
      "وب"
    ],
    [
      "و",
      "و"
    ],
    [
      "سم",
      "جھ"
    ],
    [
      "اب",
      "تد"
    ],
    [
      "رہ",
      "ی</w>"
    ],
    [
      "را",
      "ر</w>"
    ],
    [
      "ل",
      "کھ"
    ],
    [
      "خاند",
      "ان</w>"
    ],
    [
      "ائ",
      "ل</w>"
    ],
    [
      "ت",
      "ک"
    ],
    [
      "جنو",
      "بی</w>"
    ],
    [
      "ق",
      "دی"
    ],
    [
      "انگ",
      "ری"
    ],
    [
      "د",
      "نیا</w>"
    ],
    [
      "ن",
      "ز</w>"
    ],
    [
      "دوب",
      "ارہ</w>"
    ],
    [
      "نظ",
      "ر</w>"
    ],
    [
      "مق",
      "امی</w>"
    ],
    [
      "کوش",
      "ش</w>"
    ],
    [
      "پ",
      "ان"
    ],
    [
      "ق",
      "ائم</w>"
    ],
    [
      "آ",
      "ئی"
    ],
    [
      "س",
      "ب"
    ],
    [
      "ف",
      "ور"
    ],
    [
      "بی",
      "ن</w>"
    ],
    [
      "ب",
      "د"
    ],
    [
      "م",
      "زی"
    ],
    [
      "ای",
      "ف</w>"
    ],
    [
      "فرا",
      "ہم</w>"
    ],
    [
      "مل",
      "ک</w>"
    ],
    [
      "ک",
      "ور"
    ],
    [
      "ان",
      "تق"
    ],
    [
      "ن",
      "ٹی</w>"
    ],
    [
      "بن",
      "ایا</w>"
    ],
    [
      "تہ",
      "ائے</w>"
    ],
    [
      "ن",
      "ک</w>"
    ],
    [
      "ریاس",
      "تہائے</w>"
    ],
    [
      "ق",
      "ل"
    ],
    [
      "دوس",
      "ری</w>"
    ],
    [
      "م",
      "ز</w>"
    ],
    [
      "م",
      "ہ</w>"
    ],
    [
      "بڑ",
      "ا</w>"
    ],
    [
      "ش",
      "خ"
    ],
    [
      "قو",
      "می</w>"
    ],
    [
      "م",
      "ن</w>"
    ],
    [
      "چ",
      "اہ"
    ],
    [
      "شخ",
      "ص</w>"
    ],
    [
      "ن",
      "ر</w>"
    ],
    [
      "سلط",
      "نت</w>"
    ],
    [
      "د",
      "م</w>"
    ],
    [
      "نی",
      "شنل</w>"
    ],
    [
      "پہن",
      "چ"
    ],
    [
      "م",
      "ان"
    ],
    [
      "ش",
      "ہ"
    ],
    [
      "پھ",
      "ی"
    ],
    [
      "قاب",
      "ل</w>"
    ],
    [
      "ای",
      "م</w>"
    ],
    [
      "کار",
      "ڈ</w>"
    ],
    [
      "مع",
      "لو"
    ],
    [
      "ٹ",
      "ائ"
    ],
    [
      "ر",
      "اس"
    ],
    [
      "انتق",
      "ال</w>"
    ],
    [
      "م",
      "سل"
    ],
    [
      "و",
      "اپ"
    ],
    [
      "خوا",
      "تین</w>"
    ],
    [
      ",",
      "000</w>"
    ],
    [
      "مطاب",
      "ق</w>"
    ],
    [
      "حص",
      "ے</w>"
    ],
    [
      "انت",
      "خ"
    ],
    [
      "د",
      "گی</w>"
    ],
    [
      "مزی",
      "د</w>"
    ],
    [
      "ک",
      "ان</w>"
    ],
    [
      "مش",
      "ہور</w>"
    ],
    [
      "د",
      "وں</w>"
    ],
    [
      "امری",
      "کی</w>"
    ],
    [
      "علاق",
      "وں</w>"
    ],
    [
      "ت",
      "،</w>"
    ],
    [
      "س",
      "ر</w>"
    ],
    [
      "ب",
      "ر</w>"
    ],
    [
      "ق",
      "رار</w>"
    ],
    [
      "بن",
      "انے</w>"
    ],
    [
      "ہند",
      "و</w>"
    ],
    [
      "19",
      "6"
    ],
    [
      "ال",
      "ی</w>"
    ],
    [
      "ن",
      "تی"
    ],
    [
      "ز",
      "ن</w>"
    ],
    [
      "دی",
      "نے</w>"
    ],
    [
      "ق",
      "سم</w>"
    ],
    [
      "ف",
      "ری"
    ],
    [
      "خ",
      "ط"
    ],
    [
      "ری",
      "ل</w>"
    ],
    [
      "کھی",
      "ل"
    ],
    [
      "ؤ",
      "</w>"
    ],
    [
      "ب",
      "لی"
    ],
    [
      "ز",
      "ائ"
    ],
    [
      "ج",
      "ائ"
    ],
    [
      "چا",
      "ہی"
    ],
    [
      "ش",
      "اہ"
    ],
    [
      "ش",
      "دہ</w>"
    ],
    [
      "گی",
      "۔</w>"
    ],
    [
      "چ",
      "ار</w>"
    ],
    [
      "مال",
      "ک</w>"
    ],
    [
      "مقاب",
      "لے</w>"
    ],
    [
      "م",
      "نی</w>"
    ],
    [
      "دی",
      "و"
    ],
    [
      "کلو",
      "میٹر</w>"
    ],
    [
      "پہ",
      "لا</w>"
    ],
    [
      "ز",
      "وں</w>"
    ],
    [
      "ڑ",
      "یوں</w>"
    ],
    [
      "خت",
      "م</w>"
    ],
    [
      "خری",
      "د"
    ],
    [
      "ٹ",
      "نگ</w>"
    ],
    [
      "ک",
      "ان"
    ],
    [
      "س",
      "ن</w>"
    ],
    [
      "مشر",
      "قی</w>"
    ],
    [
      "شا",
      "دی</w>"
    ],
    [
      "متا",
      "ثر</w>"
    ],
    [
      "وس",
      "ی"
    ],
    [
      "او",
      "ل"
    ],
    [
      "امری",
      "کہ</w>"
    ],
    [
      "م",
      "ذ"
    ],
    [
      "ایس",
      "ا</w>"
    ],
    [
      "موسی",
      "قی</w>"
    ],
    [
      "سط",
      "ح</w>"
    ],
    [
      "ئ",
      "ر"
    ],
    [
      "آ",
      "غ"
    ],
    [
      "ح",
      "ر"
    ],
    [
      "ش",
      "مالی</w>"
    ],
    [
      "لائ",
      "ن</w>"
    ],
    [
      "کھلا",
      "ڑی</w>"
    ],
    [
      "ت",
      "لا"
    ],
    [
      "ژ",
      "ن</w>"
    ],
    [
      "ع",
      "و"
    ],
    [
      "نی",
      "ٹ</w>"
    ],
    [
      "تھی",
      "ں۔</w>"
    ],
    [
      "د",
      "د</w>"
    ],
    [
      "ڈ",
      "ن</w>"
    ],
    [
      "19",
      "</w>"
    ],
    [
      "ن",
      "ک"
    ],
    [
      "علا",
      "ج</w>"
    ],
    [
      "ع",
      "ر"
    ],
    [
      "س",
      "ٹی</w>"
    ],
    [
      "غ",
      "</w>"
    ],
    [
      "ا",
      "تے</w>"
    ],
    [
      "زب",
      "ان</w>"
    ],
    [
      "ڈ",
      "ھ"
    ],
    [
      "آغ",
      "از</w>"
    ],
    [
      "ت",
      "ہو"
    ],
    [
      "ہو",
      "ئی۔</w>"
    ],
    [
      "پہ",
      "ا"
    ],
    [
      "لی",
      "ا</w>"
    ],
    [
      "ی",
      "ت</w>"
    ],
    [
      "آخ",
      "ر</w>"
    ],
    [
      "ٹ",
      "ک</w>"
    ],
    [
      "ان",
      "،</w>"
    ],
    [
      "د",
      "کھ"
    ],
    [
      "س",
      "ا</w>"
    ],
    [
      "خی",
      "ال</w>"
    ],
    [
      "گ",
      "ئی"
    ],
    [
      "ڑ",
      "ے</w>"
    ],
    [
      "دھ",
      "</w>"
    ],
    [
      "بن",
      "د</w>"
    ],
    [
      "ای",
      "ل</w>"
    ],
    [
      "گ",
      "ے</w>"
    ],
    [
      "ابتد",
      "ائی</w>"
    ],
    [
      "فیص",
      "د</w>"
    ],
    [
      "م",
      "را"
    ],
    [
      "آبا",
      "دی</w>"
    ],
    [
      "ک",
      "می"
    ],
    [
      "اپ",
      "</w>"
    ],
    [
      "دہ",
      "ائی</w>"
    ],
    [
      "پ",
      "ل"
    ],
    [
      "د",
      "ست"
    ],
    [
      "علاق",
      "ہ</w>"
    ],
    [
      "ز",
      "ہ</w>"
    ],
    [
      "س",
      "ٹی"
    ],
    [
      "پو",
      "لی"
    ],
    [
      "کری",
      "ں۔</w>"
    ],
    [
      "ش",
      "مال</w>"
    ],
    [
      "ق",
      "ان"
    ],
    [
      "و",
      "ف"
    ],
    [
      "کا",
      "ؤ"
    ],
    [
      "ن",
      "ار"
    ],
    [
      "ٹ",
      "رو"
    ],
    [
      "ی",
      "ور"
    ],
    [
      "اند",
      "ر</w>"
    ],
    [
      "ش",
      "پ</w>"
    ],
    [
      "پ",
      "ا"
    ],
    [
      "ع",
      "ال"
    ],
    [
      "آ",
      "سٹ"
    ],
    [
      "ع",
      "ق"
    ],
    [
      "ا",
      "ٓ"
    ],
    [
      "تی",
      "ں</w>"
    ],
    [
      "بہ",
      "ترین</w>"
    ],
    [
      "ث",
      "</w>"
    ],
    [
      "ڈ",
      "و</w>"
    ],
    [
      "بھ",
      "ارت</w>"
    ],
    [
      "ہ",
      "ف"
    ],
    [
      "ٹ",
      "و</w>"
    ],
    [
      "ان",
      "ٹر"
    ],
    [
      "آ",
      "ر</w>"
    ],
    [
      "ی",
      "قی"
    ],
    [
      "رو",
      "ای"
    ],
    [
      "ر",
      "،</w>"
    ],
    [
      "رکھ",
      "نے</w>"
    ],
    [
      "ی",
      "و</w>"
    ],
    [
      "غ",
      "ل"
    ],
    [
      "دا",
      "خ"
    ],
    [
      "ہ",
      "د"
    ],
    [
      "ق",
      "ص"
    ],
    [
      "ش",
      "کل</w>"
    ],
    [
      "م",
      "م"
    ],
    [
      "1",
      "0</w>"
    ],
    [
      "ن",
      "مائ"
    ],
    [
      "ز",
      "ندگی</w>"
    ],
    [
      "ل",
      "ائی</w>"
    ],
    [
      "ن",
      "ل</w>"
    ],
    [
      "قدی",
      "م</w>"
    ],
    [
      "ر",
      "ہے۔</w>"
    ],
    [
      "ٰ",
      "</w>"
    ],
    [
      "تع",
      "میر</w>"
    ],
    [
      "ق",
      "ر"
    ],
    [
      "تلا",
      "ش</w>"
    ],
    [
      "رق",
      "م</w>"
    ],
    [
      "مو",
      "ت</w>"
    ],
    [
      "ک",
      "بھی</w>"
    ],
    [
      "م",
      "لا"
    ],
    [
      "ی",
      "ن</w>"
    ],
    [
      "مرک",
      "زی</w>"
    ],
    [
      "دی",
      "ش</w>"
    ],
    [
      "در",
      "جہ</w>"
    ],
    [
      "ڈ",
      "ا</w>"
    ],
    [
      "19",
      "5"
    ],
    [
      "ت",
      "ن"
    ],
    [
      "ی",
      "م</w>"
    ],
    [
      "ب",
      "نا</w>"
    ],
    [
      "نظ",
      "ام</w>"
    ],
    [
      "تق",
      "ل</w>"
    ],
    [
      "ٹ",
      "ل</w>"
    ],
    [
      "اس",
      "ک"
    ],
    [
      "د",
      "ت</w>"
    ],
    [
      "ز",
      "ا</w>"
    ],
    [
      "را",
      "ج"
    ],
    [
      "ب",
      "ول</w>"
    ],
    [
      "م",
      "ض"
    ],
    [
      "ل",
      "ب</w>"
    ],
    [
      "ڈ",
      "ر</w>"
    ],
    [
      "واپ",
      "س</w>"
    ],
    [
      "ظاہ",
      "ر</w>"
    ],
    [
      "د",
      "ار"
    ],
    [
      "وی",
      "ل</w>"
    ],
    [
      "ص",
      "در</w>"
    ],
    [
      "ل",
      "،</w>"
    ],
    [
      "ر",
      "س</w>"
    ],
    [
      "یونی",
      "ور"
    ],
    [
      "تاری",
      "خ</w>"
    ],
    [
      "گ",
      "ے۔</w>"
    ],
    [
      "ڈ",
      "ز</w>"
    ],
    [
      "ف",
      "ر</w>"
    ],
    [
      "گ",
      "ڑ"
    ],
    [
      "م",
      "ار</w>"
    ],
    [
      "چ",
      "ے</w>"
    ],
    [
      "دہ",
      "لی</w>"
    ],
    [
      "ن",
      "ئی</w>"
    ],
    [
      "ال",
      "ا"
    ],
    [
      "ری",
      "ہ</w>"
    ],
    [
      "ان",
      "س</w>"
    ],
    [
      "ن",
      "ئے</w>"
    ],
    [
      "-",
      "</w>"
    ],
    [
      "جی",
      "ن</w>"
    ],
    [
      "و",
      "س</w>"
    ],
    [
      "با",
      "ہر</w>"
    ],
    [
      "ریلی",
      "ز</w>"
    ],
    [
      "س",
      "وی"
    ],
    [
      "تھی",
      "،</w>"
    ],
    [
      "اول",
      "مپ"
    ],
    [
      "ہ",
      "ائی</w>"
    ],
    [
      "گ",
      "ور"
    ],
    [
      "ز",
      "مین</w>"
    ],
    [
      "ش",
      "ت</w>"
    ],
    [
      "م",
      "مالک</w>"
    ],
    [
      "م",
      "انے</w>"
    ],
    [
      "جنو",
      "ب</w>"
    ],
    [
      "خ",
      "طر"
    ],
    [
      "مش",
      "تمل</w>"
    ],
    [
      "ہو",
      "ئے۔</w>"
    ],
    [
      "شک",
      "ست</w>"
    ],
    [
      "خد",
      "مات</w>"
    ],
    [
      "د",
      "ل"
    ],
    [
      "ذریع",
      "ہ</w>"
    ],
    [
      "آ",
      "س"
    ],
    [
      "بی",
      "ماری</w>"
    ],
    [
      "چی",
      "مپ"
    ],
    [
      "ا",
      "ی</w>"
    ],
    [
      "ای",
      "وار"
    ],
    [
      "ل",
      "ز</w>"
    ],
    [
      "تہو",
      "ار</w>"
    ],
    [
      "خصو",
      "ص"
    ],
    [
      "برطان",
      "وی</w>"
    ],
    [
      "آخ",
      "ری</w>"
    ],
    [
      "لی",
      "ا۔</w>"
    ],
    [
      "س",
      "یا"
    ],
    [
      "من",
      "صوب"
    ],
    [
      "م",
      "اہ"
    ],
    [
      "آ",
      "ن"
    ],
    [
      "گ",
      "ز"
    ],
    [
      "من",
      "ظ"
    ],
    [
      "مق",
      "ام</w>"
    ],
    [
      "بنیا",
      "د</w>"
    ],
    [
      "ح",
      "کم"
    ],
    [
      "ب",
      "ت"
    ],
    [
      "ڑ",
      "ا</w>"
    ],
    [
      "ر",
      "چ"
    ],
    [
      "ب",
      "ور"
    ],
    [
      "گ",
      "اؤں</w>"
    ],
    [
      "1",
      "7"
    ],
    [
      "ی",
      "ون"
    ],
    [
      "بھ",
      "ر</w>"
    ],
    [
      "ی",
      "ہاں</w>"
    ],
    [
      "لی",
      "گ</w>"
    ],
    [
      "ز",
      "،</w>"
    ],
    [
      "ک",
      "ت</w>"
    ],
    [
      "می",
      "چ</w>"
    ],
    [
      "ہ",
      "ار"
    ],
    [
      "سی",
      "م</w>"
    ],
    [
      "ک",
      "افی</w>"
    ],
    [
      "دی",
      "تا</w>"
    ],
    [
      "ند",
      "ھ"
    ],
    [
      "کم",
      "ی</w>"
    ],
    [
      "چھو",
      "ٹے</w>"
    ],
    [
      "پان",
      "چ</w>"
    ],
    [
      "19",
      "4"
    ],
    [
      "تا",
      "کہ</w>"
    ],
    [
      "ع",
      "ت</w>"
    ],
    [
      "ب",
      "ا</w>"
    ],
    [
      "آ",
      "زا"
    ],
    [
      "مار",
      "چ</w>"
    ],
    [
      "کی",
      "ا،</w>"
    ],
    [
      "ر",
      "ان</w>"
    ],
    [
      "چ",
      "ی</w>"
    ],
    [
      "س",
      "رو"
    ],
    [
      "ہو",
      "ں۔</w>"
    ],
    [
      "تھ",
      "ے،</w>"
    ],
    [
      "ر",
      "ائ"
    ],
    [
      "2",
      "1</w>"
    ],
    [
      "ص",
      "ح"
    ],
    [
      "ست",
      "ان</w>"
    ],
    [
      "کھ",
      "</w>"
    ],
    [
      "ر",
      "س"
    ],
    [
      "ح",
      "مل"
    ],
    [
      "دی",
      "تے</w>"
    ],
    [
      "اسکو",
      "ل</w>"
    ],
    [
      "جی",
      "ت"
    ],
    [
      "تع",
      "داد</w>"
    ],
    [
      "مث",
      "ال</w>"
    ],
    [
      "و",
      "جو"
    ],
    [
      "ک",
      "ت"
    ],
    [
      "آ",
      "ئ"
    ],
    [
      "ن",
      "و</w>"
    ],
    [
      "ف",
      "ہر"
    ],
    [
      "ب",
      "ت</w>"
    ],
    [
      "تق",
      "سیم</w>"
    ],
    [
      "ڑ",
      "وں</w>"
    ],
    [
      "دری",
      "ا</w>"
    ],
    [
      "الا",
      "قو"
    ],
    [
      "الاقو",
      "امی</w>"
    ],
    [
      "ط",
      "ہ</w>"
    ],
    [
      "تبدی",
      "ل</w>"
    ],
    [
      "ب",
      "ح"
    ],
    [
      "ؤ",
      "ں</w>"
    ],
    [
      "ب",
      "غیر</w>"
    ],
    [
      "ا",
      "ور"
    ],
    [
      "کو",
      "ل"
    ],
    [
      "ق",
      "یا"
    ],
    [
      "چیمپ",
      "ئن</w>"
    ],
    [
      "جن",
      "وری</w>"
    ],
    [
      "رکھ",
      "ا</w>"
    ],
    [
      "م",
      "ان</w>"
    ],
    [
      "ا",
      "و</w>"
    ],
    [
      "دیکھ",
      "</w>"
    ],
    [
      "م",
      "د</w>"
    ],
    [
      "ا",
      "ون"
    ],
    [
      "!",
      "</w>"
    ],
    [
      "نق",
      "ص"
    ],
    [
      "3",
      "0</w>"
    ],
    [
      "کی",
      "ل</w>"
    ],
    [
      "مط",
      "لب</w>"
    ],
    [
      "کی",
      "ر"
    ],
    [
      "ار",
      "تی</w>"
    ],
    [
      "بچ",
      "وں</w>"
    ],
    [
      "دی",
      "ن</w>"
    ],
    [
      "دری",
      "ائے</w>"
    ],
    [
      "نی",
      "و"
    ],
    [
      "کار",
      "وب"
    ],
    [
      "مب",
      "نی</w>"
    ],
    [
      "باد",
      "شاہ</w>"
    ],
    [
      "آ",
      "نے</w>"
    ],
    [
      "پولی",
      "س</w>"
    ],
    [
      "مطاب",
      "ق"
    ],
    [
      "عال",
      "می</w>"
    ],
    [
      "موجو",
      "دہ</w>"
    ],
    [
      "ک",
      "سی"
    ],
    [
      "موس",
      "م</w>"
    ],
    [
      "وس",
      "ی</w>"
    ],
    [
      "س",
      "ری</w>"
    ],
    [
      "مج",
      "مو"
    ],
    [
      "پور",
      "ٹ</w>"
    ],
    [
      "فو",
      "ج</w>"
    ],
    [
      "تر",
      "تی"
    ],
    [
      "سو",
      "س</w>"
    ],
    [
      "ب",
      "ج"
    ],
    [
      "ر",
      "نگ</w>"
    ],
    [
      "1",
      "5"
    ],
    [
      "می",
      "رے</w>"
    ],
    [
      "دی",
      "۔</w>"
    ],
    [
      "ند",
      "ہ</w>"
    ],
    [
      "ای",
      "سے</w>"
    ],
    [
      "ری",
      "کارڈ</w>"
    ],
    [
      "حص",
      "وں</w>"
    ],
    [
      "ح",
      "ل</w>"
    ],
    [
      "فرو",
      "خت</w>"
    ],
    [
      "ڈال",
      "ر</w>"
    ],
    [
      "1",
      "2</w>"
    ],
    [
      "رہ",
      "تے</w>"
    ],
    [
      "پ",
      "وری</w>"
    ],
    [
      "ال",
      "ہ</w>"
    ],
    [
      "فیص",
      "لہ</w>"
    ],
    [
      "چ",
      "ند</w>"
    ],
    [
      "ل",
      "ان</w>"
    ],
    [
      "پی",
      "و"
    ],
    [
      "ہو",
      "ئی"
    ],
    [
      "ڈی",
      "و</w>"
    ],
    [
      "ث",
      "ق"
    ],
    [
      "ق",
      "ہ</w>"
    ],
    [
      "اض",
      "اف"
    ],
    [
      "ای",
      "چ</w>"
    ],
    [
      "ن",
      "ج</w>"
    ],
    [
      "نتی",
      "جے</w>"
    ],
    [
      "مذ",
      "ہ"
    ],
    [
      "ای",
      "ڈ"
    ],
    [
      "تھ",
      "و"
    ],
    [
      "گرو",
      "پ</w>"
    ],
    [
      "ٹ",
      "ور"
    ],
    [
      "ذ",
      "</w>"
    ],
    [
      "س",
      "ے،</w>"
    ],
    [
      "تر",
      "قی</w>"
    ],
    [
      "جل",
      "د</w>"
    ],
    [
      "اب",
      "ی</w>"
    ],
    [
      "یونیور",
      "سٹی</w>"
    ],
    [
      "ے",
      "۔‏</w>"
    ],
    [
      "ش",
      "یا</w>"
    ],
    [
      "جا",
      "م</w>"
    ],
    [
      "ای",
      "ا۔</w>"
    ],
    [
      "ال",
      "گ</w>"
    ],
    [
      "ا",
      "ٹھ"
    ],
    [
      "ا",
      "ک</w>"
    ],
    [
      "م",
      "وا"
    ],
    [
      "ا",
      "ث"
    ],
    [
      "وسی",
      "ع</w>"
    ],
    [
      "می",
      "ت</w>"
    ],
    [
      "ثق",
      "اف"
    ],
    [
      "ط",
      "ی</w>"
    ],
    [
      "مق",
      "بول</w>"
    ],
    [
      "ا",
      "جا"
    ],
    [
      "و",
      "زیر</w>"
    ],
    [
      "پ",
      "ت"
    ],
    [
      "پ",
      "ک"
    ],
    [
      "ترتی",
      "ب</w>"
    ],
    [
      "دی",
      "وں</w>"
    ],
    [
      "ن",
      "اک"
    ],
    [
      "انڈ",
      "یا</w>"
    ],
    [
      "نقص",
      "ان</w>"
    ],
    [
      "'",
      "</w>"
    ],
    [
      "ط",
      "وف"
    ],
    [
      "ای",
      "سی</w>"
    ],
    [
      "م",
      "خ"
    ],
    [
      "1",
      "0"
    ],
    [
      "کی",
      "،</w>"
    ],
    [
      "ز",
      "ت</w>"
    ],
    [
      "کھی",
      "لوں</w>"
    ],
    [
      "روای",
      "تی</w>"
    ],
    [
      "ج",
      "ب"
    ],
    [
      "جو",
      "ن</w>"
    ],
    [
      "جا",
      "ت</w>"
    ],
    [
      "ع",
      "ے</w>"
    ],
    [
      "کر",
      "دہ</w>"
    ],
    [
      "ور",
      "لڈ</w>"
    ],
    [
      "بی",
      "ان</w>"
    ],
    [
      "ئ",
      "ے،</w>"
    ],
    [
      "تح",
      "ری"
    ],
    [
      "من",
      "تقل</w>"
    ],
    [
      "س",
      "ائی"
    ],
    [
      "ست",
      "ہ</w>"
    ],
    [
      "جی",
      "ت</w>"
    ],
    [
      "و",
      "ہاں</w>"
    ],
    [
      "وی",
      "ر</w>"
    ],
    [
      "س",
      "ما"
    ],
    [
      "م",
      "ور"
    ],
    [
      "پ",
      "سن"
    ],
    [
      "ر",
      "انی</w>"
    ],
    [
      "من",
      "تخ"
    ],
    [
      "فہر",
      "ست</w>"
    ],
    [
      "م",
      "ہی"
    ],
    [
      "ت",
      "ف"
    ],
    [
      "متع",
      "دد</w>"
    ],
    [
      "تح",
      "ت</w>"
    ],
    [
      "سنگ",
      "ھ</w>"
    ],
    [
      "2",
      "2</w>"
    ],
    [
      "منتخ",
      "ب</w>"
    ],
    [
      "مط",
      "ال"
    ],
    [
      "؟",
      "</w>"
    ],
    [
      "ان",
      "گ</w>"
    ],
    [
      "ل",
      "ر</w>"
    ],
    [
      "م",
      "ئی</w>"
    ],
    [
      "پر",
      "دیش</w>"
    ],
    [
      "کامی",
      "اب</w>"
    ],
    [
      "م",
      "لے</w>"
    ],
    [
      "فل",
      "موں</w>"
    ],
    [
      "ٹ",
      "وں</w>"
    ],
    [
      "و",
      "ا</w>"
    ],
    [
      "م",
      "ند"
    ],
    [
      "ذ",
      "کر</w>"
    ],
    [
      "سی",
      "زن</w>"
    ],
    [
      "پ",
      "تہ</w>"
    ],
    [
      "ک",
      "وں</w>"
    ],
    [
      "د",
      "س</w>"
    ],
    [
      "کل",
      "ب</w>"
    ],
    [
      "مطابق",
      "،</w>"
    ],
    [
      "ج",
      "ر</w>"
    ],
    [
      "وس",
      "ط</w>"
    ],
    [
      "تھ",
      "ا۔‏</w>"
    ],
    [
      "بھ",
      "و"
    ],
    [
      "اک",
      "ت"
    ],
    [
      "من",
      "عق"
    ],
    [
      "ب",
      "ری"
    ],
    [
      "دس",
      "مبر</w>"
    ],
    [
      "کم",
      "پیو"
    ],
    [
      "ض",
      "ہ</w>"
    ],
    [
      "201",
      "4</w>"
    ],
    [
      "وب",
      "ر</w>"
    ],
    [
      "ڑ",
      "ھ"
    ],
    [
      "آ",
      "ج</w>"
    ],
    [
      "ر",
      "چ</w>"
    ],
    [
      "ن",
      "مبر</w>"
    ],
    [
      "1",
      "6"
    ],
    [
      "ف",
      "ن</w>"
    ],
    [
      "ب",
      "ندی</w>"
    ],
    [
      "مع",
      "مو"
    ],
    [
      "تع",
      "لیم</w>"
    ],
    [
      "رچ",
      "ہ</w>"
    ],
    [
      "اپ",
      "ریل</w>"
    ],
    [
      "لا",
      "ک</w>"
    ],
    [
      "می",
      "د"
    ],
    [
      "ن",
      "ٹی"
    ],
    [
      "ش",
      "دید</w>"
    ],
    [
      "می",
      "ری</w>"
    ],
    [
      "ائ",
      "ن</w>"
    ],
    [
      "نو",
      "مبر</w>"
    ],
    [
      "ط",
      "ویل</w>"
    ],
    [
      "ان",
      "جام</w>"
    ],
    [
      "ہو",
      "نا</w>"
    ],
    [
      "ست",
      "مبر</w>"
    ],
    [
      "جب",
      "کہ</w>"
    ],
    [
      "قب",
      "ل</w>"
    ],
    [
      "اگ",
      "رچہ</w>"
    ],
    [
      "م",
      "لین</w>"
    ],
    [
      "اجا",
      "زت</w>"
    ],
    [
      "ہو",
      "ائی</w>"
    ],
    [
      "کی",
      "نی"
    ],
    [
      "20",
      "20</w>"
    ],
    [
      "پور",
      "ے</w>"
    ],
    [
      "رو",
      "ک</w>"
    ],
    [
      "ہد",
      "ایت</w>"
    ],
    [
      "بہ",
      "تر</w>"
    ],
    [
      "ام",
      "ن</w>"
    ],
    [
      "ی",
      "ں</w>"
    ],
    [
      "بع",
      "ض</w>"
    ],
    [
      "ری",
      "وں</w>"
    ],
    [
      "ک",
      "لی"
    ],
    [
      "اکت",
      "وبر</w>"
    ],
    [
      "‏",
      "اس</w>"
    ],
    [
      "ا",
      "ڈ"
    ],
    [
      "گی",
      "م</w>"
    ],
    [
      "اس",
      "ت</w>"
    ],
    [
      "سا",
      "ب"
    ],
    [
      "گ",
      "را"
    ],
    [
      "او",
      "ن</w>"
    ],
    [
      "برا",
      "ہ</w>"
    ],
    [
      "ص",
      "ے</w>"
    ],
    [
      "خصو",
      "ص</w>"
    ],
    [
      "لی",
      "نے</w>"
    ],
    [
      "س",
      "ور"
    ],
    [
      "اند",
      "از</w>"
    ],
    [
      "ری",
      "ز</w>"
    ],
    [
      "اع",
      "لان</w>"
    ],
    [
      "م",
      "ر</w>"
    ],
    [
      "انتخ",
      "اب</w>"
    ],
    [
      "ص",
      "ن"
    ],
    [
      "او",
      "ل</w>"
    ],
    [
      "ائ",
      "ش</w>"
    ],
    [
      "اخت",
      "یار</w>"
    ],
    [
      "کی",
      "وں</w>"
    ],
    [
      "ت",
      "ل</w>"
    ],
    [
      "مح",
      "سوس</w>"
    ],
    [
      "ب",
      "ش"
    ],
    [
      "حمل",
      "ہ</w>"
    ],
    [
      "ت",
      "اہم</w>"
    ],
    [
      "بچ",
      "ے</w>"
    ],
    [
      "چی",
      "ز</w>"
    ],
    [
      "مشر",
      "ق</w>"
    ],
    [
      "201",
      "0</w>"
    ],
    [
      "خو",
      "ن</w>"
    ],
    [
      "رو",
      "م</w>"
    ],
    [
      "لی",
      "ں</w>"
    ],
    [
      "گ",
      "رام</w>"
    ],
    [
      "ط",
      "اق"
    ],
    [
      "فت",
      "ار</w>"
    ],
    [
      "سمجھ",
      "ا</w>"
    ],
    [
      "ڈی",
      "ن</w>"
    ],
    [
      "وی",
      "ژن</w>"
    ],
    [
      "پ",
      "ن</w>"
    ],
    [
      "اگ",
      "ست</w>"
    ],
    [
      "م",
      "خصوص</w>"
    ],
    [
      "ر",
      "و</w>"
    ],
    [
      "1",
      "5</w>"
    ],
    [
      "ا",
      "د</w>"
    ],
    [
      "ار",
      "ا"
    ],
    [
      "ڈ",
      "یا</w>"
    ],
    [
      "آسٹ",
      "ریلی"
    ],
    [
      "ک",
      "ٹر</w>"
    ],
    [
      "نس",
      "ل</w>"
    ],
    [
      "ش",
      "تہ</w>"
    ],
    [
      "می",
      "ل</w>"
    ],
    [
      "و",
      "نی</w>"
    ],
    [
      "منعق",
      "د</w>"
    ],
    [
      "ن",
      "اگ"
    ],
    [
      "سی",
      "ن"
    ],
    [
      "کھلا",
      "ڑیوں</w>"
    ],
    [
      "پن",
      "جا"
    ],
    [
      "بنگ",
      "ال</w>"
    ],
    [
      "مرک",
      "ز</w>"
    ],
    [
      "چاہی",
      "ے۔</w>"
    ],
    [
      "ج",
      "ان</w>"
    ],
    [
      "م",
      "ائی"
    ],
    [
      "سر",
      "کاری</w>"
    ],
    [
      "ف",
      "ت</w>"
    ],
    [
      "سوی",
      "ڈن</w>"
    ],
    [
      "ز",
      "و"
    ],
    [
      "ور",
      "وں</w>"
    ],
    [
      "5",
      "0</w>"
    ],
    [
      "ڈ",
      "ل</w>"
    ],
    [
      "را",
      "ج</w>"
    ],
    [
      "ن",
      "ر"
    ],
    [
      "ٹھ",
      "</w>"
    ],
    [
      "مای",
      "ہ</w>"
    ],
    [
      "اد",
      "ائی"
    ],
    [
      "جم",
      "ع</w>"
    ],
    [
      "ع",
      "ظ"
    ],
    [
      "نی",
      "و</w>"
    ],
    [
      "ل",
      "ف"
    ],
    [
      "پی",
      "چھ"
    ],
    [
      "ل",
      "ہ"
    ],
    [
      "س",
      "ل</w>"
    ],
    [
      "201",
      "3</w>"
    ],
    [
      "ح",
      "ال</w>"
    ],
    [
      "در",
      "ج</w>"
    ],
    [
      "جو",
      "لائی</w>"
    ],
    [
      "پ",
      "اک"
    ],
    [
      "ن",
      "ائ"
    ],
    [
      "معلو",
      "م</w>"
    ],
    [
      "لا",
      "ع</w>"
    ],
    [
      "کھ",
      "انے</w>"
    ],
    [
      "پ",
      "لی"
    ],
    [
      "ش",
      "ائ"
    ],
    [
      "قل",
      "عہ</w>"
    ],
    [
      "20",
      "19</w>"
    ],
    [
      "سب",
      "ب</w>"
    ],
    [
      "ہ",
      "ار</w>"
    ],
    [
      "ب",
      "دھ</w>"
    ],
    [
      "مقاب",
      "لہ</w>"
    ],
    [
      "ری",
      "لو"
    ],
    [
      "صح",
      "ت</w>"
    ],
    [
      "کاؤ",
      "نٹی</w>"
    ],
    [
      "طوف",
      "ان</w>"
    ],
    [
      "ڈی",
      "م</w>"
    ],
    [
      "آبا",
      "د</w>"
    ],
    [
      "ر",
      "کن</w>"
    ],
    [
      "یقی",
      "نی</w>"
    ],
    [
      "ط",
      "ی"
    ],
    [
      "آ",
      "یا</w>"
    ],
    [
      "اند",
      "ھ"
    ],
    [
      "نگ",
      "ا</w>"
    ],
    [
      "مو",
      "ق"
    ],
    [
      "201",
      "1</w>"
    ],
    [
      "رہ",
      "نے</w>"
    ],
    [
      "ٹ",
      "ری</w>"
    ],
    [
      "ض",
      "ی</w>"
    ],
    [
      "ج",
      "دید</w>"
    ],
    [
      "ڈ",
      "ائ"
    ],
    [
      "قی",
      "مت</w>"
    ],
    [
      "سر",
      "مایہ</w>"
    ],
    [
      "طریق",
      "ے</w>"
    ],
    [
      "چ",
      "ر</w>"
    ],
    [
      "گ",
      "اہ"
    ],
    [
      "پار",
      "ٹی</w>"
    ],
    [
      "فر",
      "وری</w>"
    ],
    [
      "سال",
      "وں</w>"
    ],
    [
      "ا",
      "ثر</w>"
    ],
    [
      "غ",
      "ی"
    ],
    [
      "201",
      "7</w>"
    ],
    [
      "گی",
      "ند</w>"
    ],
    [
      "لی",
      "وں</w>"
    ],
    [
      "ال",
      "و"
    ],
    [
      "ام",
      "وں</w>"
    ],
    [
      "یا",
      "تی</w>"
    ],
    [
      "دو",
      "د</w>"
    ],
    [
      "مع",
      "ام"
    ],
    [
      "وال",
      "وں</w>"
    ],
    [
      "سام",
      "نے</w>"
    ],
    [
      "دیکھ",
      "ا</w>"
    ],
    [
      "ع",
      "ہ"
    ],
    [
      "س",
      "کی"
    ],
    [
      "بی",
      "نک</w>"
    ],
    [
      "‏",
      "یہ</w>"
    ],
    [
      "س",
      "اس</w>"
    ],
    [
      "پی",
      "مانے</w>"
    ],
    [
      "201",
      "2</w>"
    ],
    [
      "اچھ",
      "ی</w>"
    ],
    [
      "آ",
      "تا</w>"
    ],
    [
      "آ",
      "گے</w>"
    ],
    [
      "ح",
      "قی"
    ],
    [
      "ن",
      "م"
    ],
    [
      "داخ",
      "ل</w>"
    ],
    [
      "کی",
      "ری"
    ],
    [
      "ح",
      "ا"
    ],
    [
      "م",
      "تعلق</w>"
    ],
    [
      "رو",
      "ف</w>"
    ],
    [
      "را",
      "ب"
    ],
    [
      "2",
      "5</w>"
    ],
    [
      "ضر",
      "وری</w>"
    ],
    [
      "ری",
      "،</w>"
    ],
    [
      "گ",
      "ری</w>"
    ],
    [
      "ار",
      "ک</w>"
    ],
    [
      "م",
      "لی"
    ],
    [
      "م",
      "سائ"
    ],
    [
      "انتظ",
      "ام</w>"
    ],
    [
      "اضاف",
      "ہ</w>"
    ],
    [
      "می",
      "و"
    ],
    [
      "عل",
      "امات</w>"
    ],
    [
      "گڑ",
      "ھ</w>"
    ],
    [
      "ک",
      "،</w>"
    ],
    [
      "جھ",
      "یل</w>"
    ],
    [
      "ص",
      "ورت</w>"
    ],
    [
      "ڈ",
      "ری"
    ],
    [
      "رق",
      "ص</w>"
    ],
    [
      "جی",
      "سی</w>"
    ],
    [
      "چھو",
      "ڑ</w>"
    ],
    [
      "مرا",
      "ٹھ"
    ],
    [
      "وی",
      "ز</w>"
    ],
    [
      "ائی",
      "وں</w>"
    ],
    [
      "تش",
      "کیل</w>"
    ],
    [
      "آ",
      "ن</w>"
    ],
    [
      "نڈ",
      "ی</w>"
    ],
    [
      "کمپیو",
      "ٹر</w>"
    ],
    [
      "ا",
      "خرا"
    ],
    [
      "تک",
      "،</w>"
    ],
    [
      "فی",
      "ن</w>"
    ],
    [
      "ج",
      "زی"
    ],
    [
      "ایوار",
      "ڈ</w>"
    ],
    [
      "یا",
      "ب</w>"
    ],
    [
      "رکھ",
      "تے</w>"
    ],
    [
      "ن",
      "امی</w>"
    ],
    [
      "طریق",
      "ہ</w>"
    ],
    [
      "و",
      "ار</w>"
    ],
    [
      "ہو",
      "۔</w>"
    ],
    [
      "201",
      "8</w>"
    ],
    [
      "س",
      "،</w>"
    ],
    [
      "گیا",
      "،</w>"
    ],
    [
      "ک",
      "پ</w>"
    ],
    [
      "پ",
      "ال</w>"
    ],
    [
      "ت",
      "نا"
    ],
    [
      "خ",
      "ان</w>"
    ],
    [
      "چاہ",
      "تے</w>"
    ],
    [
      "ذ",
      "ی"
    ],
    [
      "ب",
      "ند"
    ],
    [
      "معلو",
      "مات</w>"
    ],
    [
      "تح",
      "قی"
    ],
    [
      "بھ",
      "ر"
    ],
    [
      "م",
      "ست"
    ],
    [
      "ن",
      "وا"
    ],
    [
      "چھو",
      "ٹی</w>"
    ],
    [
      "ا",
      "خ"
    ],
    [
      "مع",
      "اہ"
    ],
    [
      "ت",
      "جر"
    ],
    [
      "ص",
      "لا"
    ],
    [
      "اض",
      "افی</w>"
    ],
    [
      "ج",
      "نہیں</w>"
    ],
    [
      "مح",
      "فو"
    ],
    [
      "رو",
      "ن</w>"
    ],
    [
      "ما",
      "ہ</w>"
    ],
    [
      "ج",
      "ار"
    ],
    [
      "ال",
      "حکومت</w>"
    ],
    [
      "پار",
      "ک</w>"
    ],
    [
      "ریاس",
      "تی</w>"
    ],
    [
      "ب",
      "وں</w>"
    ],
    [
      "مسائ",
      "ل</w>"
    ],
    [
      "قان",
      "ون</w>"
    ],
    [
      "بی",
      "ٹے</w>"
    ],
    [
      "شاہ",
      "ی</w>"
    ],
    [
      "خ",
      "ی</w>"
    ],
    [
      "رو",
      "ک"
    ],
    [
      "محفو",
      "ظ</w>"
    ],
    [
      "کیر",
      "الہ</w>"
    ],
    [
      "اس",
      "ی"
    ],
    [
      "نی",
      "چے</w>"
    ],
    [
      "چ",
      "ان"
    ],
    [
      "200",
      "8</w>"
    ],
    [
      "ص",
      "ر</w>"
    ],
    [
      "ل",
      "ت</w>"
    ],
    [
      "پ",
      "س</w>"
    ],
    [
      "ر",
      "ل</w>"
    ],
    [
      "با",
      "ع"
    ],
    [
      "پسن",
      "د</w>"
    ],
    [
      "وق",
      "ع</w>"
    ],
    [
      "نڈ",
      "ر</w>"
    ],
    [
      "1",
      "4</w>"
    ],
    [
      "د",
      "ف"
    ],
    [
      "علا",
      "وہ</w>"
    ],
    [
      "ہ",
      "ن</w>"
    ],
    [
      "ت",
      "وجہ</w>"
    ],
    [
      "وی",
      "ب</w>"
    ],
    [
      "ز",
      "م</w>"
    ],
    [
      "حال",
      "ان"
    ],
    [
      "کی",
      "ن</w>"
    ],
    [
      "ٹ",
      "،</w>"
    ],
    [
      "گی",
      "مز</w>"
    ],
    [
      "او",
      "قات</w>"
    ],
    [
      "ٹی",
      "سٹ</w>"
    ],
    [
      "پ",
      "ل</w>"
    ],
    [
      "ا",
      "ج"
    ],
    [
      "ہف",
      "تے</w>"
    ],
    [
      "موق",
      "ع</w>"
    ],
    [
      "ار",
      "ف</w>"
    ],
    [
      "مم",
      "کن"
    ],
    [
      "ممکن",
      "ہ</w>"
    ],
    [
      "بلی",
      "و</w>"
    ],
    [
      "لی",
      "ت</w>"
    ],
    [
      "گ",
      "زر"
    ],
    [
      "ص",
      "ف"
    ],
    [
      "ز",
      "ے</w>"
    ],
    [
      "عر",
      "صے</w>"
    ],
    [
      "ریاس",
      "توں</w>"
    ],
    [
      "او",
      "پر</w>"
    ],
    [
      "ش",
      "ل</w>"
    ],
    [
      "ا",
      "تا</w>"
    ],
    [
      "د",
      "ع"
    ],
    [
      "باع",
      "ث</w>"
    ],
    [
      "ت",
      "را"
    ],
    [
      "س",
      "ڑ"
    ],
    [
      "ان",
      "فی"
    ],
    [
      "ع",
      "د"
    ],
    [
      "گ",
      "لو"
    ],
    [
      "ص",
      "د</w>"
    ],
    [
      "ٹی",
      "لی</w>"
    ],
    [
      "چی",
      "ن</w>"
    ],
    [
      "بر",
      "گ</w>"
    ],
    [
      "مہ",
      "ار"
    ],
    [
      "رو",
      "نی</w>"
    ],
    [
      "ش",
      "را"
    ],
    [
      "مق",
      "امات</w>"
    ],
    [
      "گ",
      "و</w>"
    ],
    [
      "ت",
      "ا۔</w>"
    ],
    [
      "1",
      "6</w>"
    ],
    [
      "ت",
      "ل"
    ],
    [
      "جن",
      "سی</w>"
    ],
    [
      "کار",
      "وں</w>"
    ],
    [
      "ادائی",
      "گی</w>"
    ],
    [
      "ط",
      "ے</w>"
    ],
    [
      "وا",
      "حد</w>"
    ],
    [
      "پیچھ",
      "ے</w>"
    ],
    [
      "ق",
      "تل</w>"
    ],
    [
      "ش",
      "ہر"
    ],
    [
      "م",
      "سا"
    ],
    [
      "ج",
      "وا"
    ],
    [
      "تی",
      "سر"
    ],
    [
      "م",
      "ری"
    ],
    [
      "ڑ",
      "نے</w>"
    ],
    [
      "لگ",
      "تا</w>"
    ],
    [
      "رو",
      "پ"
    ],
    [
      "شر",
      "ح</w>"
    ],
    [
      "و",
      "ں،</w>"
    ],
    [
      "سام",
      "نا</w>"
    ],
    [
      "منصوب",
      "ہ</w>"
    ],
    [
      "تقری",
      "با</w>"
    ],
    [
      "201",
      "6</w>"
    ],
    [
      "لی",
      "ے،</w>"
    ],
    [
      "1",
      "1</w>"
    ],
    [
      "سی",
      "ریز</w>"
    ],
    [
      "ش",
      "کار</w>"
    ],
    [
      "1",
      "8</w>"
    ],
    [
      "وال",
      "د</w>"
    ],
    [
      "خ",
      "ط</w>"
    ],
    [
      "د",
      "ل</w>"
    ],
    [
      "ہ",
      "ل"
    ],
    [
      "وائ",
      "رس</w>"
    ],
    [
      "ار",
      "،</w>"
    ],
    [
      "گئی",
      "ں۔</w>"
    ],
    [
      "ٹور",
      "نام"
    ],
    [
      "ہ",
      "ا</w>"
    ],
    [
      "ای",
      "ن"
    ],
    [
      "حالان",
      "کہ</w>"
    ],
    [
      "ائی",
      "ڈ</w>"
    ],
    [
      "م",
      "لی</w>"
    ],
    [
      "دی",
      "و</w>"
    ],
    [
      "آسٹریلی",
      "ا</w>"
    ],
    [
      "ت",
      "ب</w>"
    ],
    [
      "؛",
      "</w>"
    ],
    [
      "مخ",
      "ال"
    ],
    [
      "دست",
      "یاب</w>"
    ],
    [
      "س",
      "فر</w>"
    ],
    [
      "سی",
      "اسی</w>"
    ],
    [
      "گ",
      "انے</w>"
    ],
    [
      "شہ",
      "ری</w>"
    ],
    [
      "ب",
      "خ"
    ],
    [
      "ت",
      "ری</w>"
    ],
    [
      "د",
      "اروں</w>"
    ],
    [
      "ز",
      "ور</w>"
    ],
    [
      "ہند",
      "ی</w>"
    ],
    [
      "ت",
      "ال</w>"
    ],
    [
      "دوس",
      "را</w>"
    ],
    [
      "دار",
      "الحکومت</w>"
    ],
    [
      "م",
      "ز"
    ],
    [
      "بن",
      "ائے</w>"
    ],
    [
      "چ",
      "ار"
    ],
    [
      "خرید",
      "اری</w>"
    ],
    [
      "مغ",
      "ل</w>"
    ],
    [
      "تھ",
      "،</w>"
    ],
    [
      "کھ",
      "و</w>"
    ],
    [
      "دور",
      "ان،</w>"
    ],
    [
      "کہ",
      "انی</w>"
    ],
    [
      "کھ",
      "و"
    ],
    [
      "سا",
      "ت</w>"
    ],
    [
      "فو",
      "ن</w>"
    ],
    [
      "بر",
      "قرار</w>"
    ],
    [
      "سی",
      "ن</w>"
    ],
    [
      "ح",
      "مای"
    ],
    [
      "ا",
      "ٹ"
    ],
    [
      "پہن",
      "چ</w>"
    ],
    [
      "مص",
      "نو"
    ],
    [
      "کر",
      "ے</w>"
    ],
    [
      "م",
      "نگ"
    ],
    [
      "مش",
      "کل</w>"
    ],
    [
      "آ",
      "مد"
    ],
    [
      "دی",
      "تی</w>"
    ],
    [
      "اند",
      "ا"
    ],
    [
      "ڈ",
      "اک"
    ],
    [
      "فا",
      "ظ"
    ],
    [
      "مر",
      "دوں</w>"
    ],
    [
      "تقری",
      "ب</w>"
    ],
    [
      "ب",
      "جائے</w>"
    ],
    [
      "گا",
      "ہ</w>"
    ],
    [
      "ح",
      "ی</w>"
    ],
    [
      "ر",
      "ز</w>"
    ],
    [
      "کر",
      "نا"
    ],
    [
      "ہ",
      "ند</w>"
    ],
    [
      "تی",
      "ز</w>"
    ],
    [
      "اخت",
      "ت"
    ],
    [
      "پہا",
      "ڑی</w>"
    ],
    [
      "چی",
      "نی</w>"
    ],
    [
      "ش",
      "و</w>"
    ],
    [
      "201",
      "5</w>"
    ],
    [
      "ح",
      "کم</w>"
    ],
    [
      "حمای",
      "ت</w>"
    ],
    [
      "عل",
      "ام"
    ],
    [
      "نا",
      "ڈو</w>"
    ],
    [
      "ٹر",
      "ز</w>"
    ],
    [
      "مق",
      "ر"
    ],
    [
      "دی",
      "ں۔</w>"
    ],
    [
      "گ",
      "ن</w>"
    ],
    [
      "فو",
      "جی</w>"
    ],
    [
      "ش",
      "ماری</w>"
    ],
    [
      "س",
      "ہ</w>"
    ],
    [
      "با",
      "قی</w>"
    ],
    [
      "مجمو",
      "عی</w>"
    ],
    [
      "ظ",
      "م</w>"
    ],
    [
      "و",
      "ز</w>"
    ],
    [
      "پری",
      "ش"
    ],
    [
      "گ",
      "ج"
    ],
    [
      "ن",
      "چ"
    ],
    [
      "اگ",
      "لے</w>"
    ],
    [
      "جن",
      "ہوں</w>"
    ],
    [
      "کال",
      "ج</w>"
    ],
    [
      "1",
      "7</w>"
    ],
    [
      "آ",
      "س</w>"
    ],
    [
      "ؤ",
      "نڈ</w>"
    ],
    [
      "1",
      "3</w>"
    ],
    [
      "اس",
      "پی"
    ],
    [
      "ش",
      "ع"
    ],
    [
      "اسٹ",
      "ور</w>"
    ],
    [
      "پ",
      "ان</w>"
    ],
    [
      "خ",
      "ور"
    ],
    [
      "مر",
      "دم</w>"
    ],
    [
      "کم",
      "ار</w>"
    ],
    [
      "بی",
      "ک</w>"
    ],
    [
      "مع",
      "ی"
    ],
    [
      "ن",
      "ٹس</w>"
    ],
    [
      "معمو",
      "لی</w>"
    ],
    [
      "ٹ",
      "ڈ</w>"
    ],
    [
      "قب",
      "ضہ</w>"
    ],
    [
      "دی",
      "ں</w>"
    ],
    [
      "کن",
      "ٹرو"
    ],
    [
      "ح",
      "فاظ"
    ],
    [
      "پی",
      "شہ</w>"
    ],
    [
      "بت",
      "ایا</w>"
    ],
    [
      "ح",
      "و"
    ],
    [
      "ط",
      "لا"
    ],
    [
      "ز",
      "مر"
    ],
    [
      "وس",
      "طی</w>"
    ],
    [
      "انگ",
      "لینڈ</w>"
    ],
    [
      "تح",
      "ف"
    ],
    [
      "وا",
      "ب"
    ],
    [
      "مذہ",
      "بی</w>"
    ],
    [
      "پرو",
      "گرام</w>"
    ],
    [
      "ز",
      "خ"
    ],
    [
      "ج",
      "سم</w>"
    ],
    [
      "من",
      "ایا</w>"
    ],
    [
      "اسک",
      "ور</w>"
    ],
    [
      "ا",
      "بات</w>"
    ],
    [
      "مب",
      "ئی</w>"
    ],
    [
      "قیا",
      "دت</w>"
    ],
    [
      "م",
      "ارے</w>"
    ],
    [
      "ت",
      "با"
    ],
    [
      "ٹی",
      "کس</w>"
    ],
    [
      "عظ",
      "یم</w>"
    ],
    [
      "مق",
      "صد</w>"
    ],
    [
      "پ",
      "ا</w>"
    ],
    [
      "ش",
      "وں</w>"
    ],
    [
      "صلا",
      "حی"
    ],
    [
      "اولمپ",
      "ک</w>"
    ],
    [
      "ق",
      "در"
    ],
    [
      "اداک",
      "اری</w>"
    ],
    [
      "کو",
      "ن</w>"
    ],
    [
      "سر",
      "گر"
    ],
    [
      "ای",
      "نڈ</w>"
    ],
    [
      "می",
      "ل"
    ],
    [
      "م",
      "سی"
    ],
    [
      "فت",
      "ح</w>"
    ],
    [
      "ک",
      "نگ</w>"
    ],
    [
      "شی",
      "ن</w>"
    ],
    [
      "ب",
      "رو"
    ],
    [
      "سما",
      "جی</w>"
    ],
    [
      "جان",
      "ب</w>"
    ],
    [
      "ڈی",
      "زائ"
    ],
    [
      "لو",
      "ک</w>"
    ],
    [
      "ل",
      "حا"
    ],
    [
      "می",
      "ون"
    ],
    [
      "انفی",
      "کشن</w>"
    ],
    [
      "وا",
      "ض"
    ],
    [
      "2",
      "4</w>"
    ],
    [
      "اسٹی",
      "شن</w>"
    ],
    [
      "20",
      "21</w>"
    ],
    [
      "کو",
      "،</w>"
    ],
    [
      "س",
      "ام</w>"
    ],
    [
      "لحا",
      "ظ</w>"
    ],
    [
      "واض",
      "ح</w>"
    ],
    [
      "ہ",
      "سپ"
    ],
    [
      "پ",
      "ال"
    ],
    [
      "آزا",
      "دی</w>"
    ],
    [
      "ٹ",
      "ا"
    ],
    [
      "کاروب",
      "ار</w>"
    ],
    [
      "ک",
      "انگری"
    ],
    [
      "ہا",
      "کی</w>"
    ],
    [
      "و",
      "ہ،</w>"
    ],
    [
      "می",
      "ن"
    ],
    [
      "تاری",
      "خی</w>"
    ],
    [
      "قر",
      "ض</w>"
    ],
    [
      "ڈ",
      "گری</w>"
    ],
    [
      "و",
      "ے</w>"
    ],
    [
      "پ",
      "را"
    ],
    [
      "جا",
      "پان</w>"
    ],
    [
      "چ",
      "کے</w>"
    ],
    [
      "بو",
      "ط</w>"
    ],
    [
      "ف",
      "ن"
    ],
    [
      "مغر",
      "ب</w>"
    ],
    [
      "ر",
      "کھی"
    ],
    [
      "ت",
      "س"
    ],
    [
      "برطان",
      "یہ</w>"
    ],
    [
      "بھ",
      "ائی</w>"
    ],
    [
      "مید",
      "ان</w>"
    ],
    [
      "می",
      "نی"
    ],
    [
      "پ",
      "چھ"
    ],
    [
      "نمائ",
      "ندگی</w>"
    ],
    [
      "تی",
      "زی</w>"
    ],
    [
      "س",
      "ٹر"
    ],
    [
      "بل",
      "دی"
    ],
    [
      ")",
      "،</w>"
    ],
    [
      "4",
      "0</w>"
    ],
    [
      "حال",
      "ت</w>"
    ],
    [
      "لی",
      "نڈ"
    ],
    [
      "بی",
      "ل"
    ],
    [
      "سائ",
      "ٹ</w>"
    ],
    [
      "پ",
      "ایا</w>"
    ],
    [
      "200",
      "7</w>"
    ],
    [
      "ک",
      "ٹی"
    ],
    [
      "ل",
      "مب"
    ],
    [
      "ر",
      "ک"
    ],
    [
      "ڈ",
      "بلیو</w>"
    ],
    [
      "ہو",
      "ئے،</w>"
    ],
    [
      "19",
      "3"
    ],
    [
      "گھ",
      "و"
    ],
    [
      "س",
      "نی"
    ],
    [
      "ان",
      "سی"
    ],
    [
      "0",
      ",000</w>"
    ],
    [
      "ب",
      "تا"
    ],
    [
      "س",
      "سٹ"
    ],
    [
      "تج",
      "ارتی</w>"
    ],
    [
      "چ",
      "ل</w>"
    ],
    [
      "ن",
      "کل"
    ],
    [
      "پڑ",
      "ھ"
    ],
    [
      "چ",
      "ا</w>"
    ],
    [
      "اداک",
      "ار</w>"
    ],
    [
      "اچھ",
      "ا</w>"
    ],
    [
      "با",
      "وجو"
    ],
    [
      "ٹ",
      "نے</w>"
    ],
    [
      "در",
      "خو"
    ],
    [
      "ہ",
      "می"
    ],
    [
      "بار",
      "ش</w>"
    ],
    [
      "د",
      "اری</w>"
    ],
    [
      "بڑ",
      "ھ</w>"
    ],
    [
      "ن",
      "مای"
    ],
    [
      "نمای",
      "اں</w>"
    ],
    [
      "اس",
      "ب</w>"
    ],
    [
      "ج",
      "ہا"
    ],
    [
      "ال",
      "ز"
    ],
    [
      "انتخ",
      "ابات</w>"
    ],
    [
      "گور",
      "نر</w>"
    ],
    [
      "ب",
      "ور</w>"
    ],
    [
      "پنجا",
      "ب</w>"
    ],
    [
      "ت",
      "امل</w>"
    ],
    [
      ".",
      "</w>"
    ],
    [
      "کامی",
      "ابی</w>"
    ],
    [
      "کھی",
      "لا</w>"
    ],
    [
      "ری",
      "ف</w>"
    ],
    [
      "نگ",
      "ر</w>"
    ],
    [
      "چ",
      "لا</w>"
    ],
    [
      "چ",
      "ٹ"
    ],
    [
      "ا",
      "ظ"
    ],
    [
      "علا",
      "وہ،</w>"
    ],
    [
      "س",
      "وں</w>"
    ],
    [
      "آمد",
      "نی</w>"
    ],
    [
      "کہ",
      "تے</w>"
    ],
    [
      "اؤ",
      "</w>"
    ],
    [
      "د",
      "نوں</w>"
    ],
    [
      "یا",
      "،</w>"
    ],
    [
      "ب",
      "ع</w>"
    ],
    [
      "آ",
      "</w>"
    ],
    [
      "ریلو",
      "ے</w>"
    ],
    [
      "کی",
      "ٹ</w>"
    ],
    [
      "اخرا",
      "جات</w>"
    ],
    [
      "نا",
      "ک</w>"
    ],
    [
      "ند",
      "ن</w>"
    ],
    [
      "نق",
      "ل</w>"
    ],
    [
      "گر",
      "د</w>"
    ],
    [
      "سرو",
      "س</w>"
    ],
    [
      "سال",
      "انہ</w>"
    ],
    [
      "با",
      "ز"
    ],
    [
      "1",
      ","
    ],
    [
      "ع",
      "لی</w>"
    ],
    [
      "ار",
      "ا</w>"
    ],
    [
      "قان",
      "ونی</w>"
    ],
    [
      "پاک",
      "ستان</w>"
    ],
    [
      "ق",
      "ط"
    ],
    [
      "س",
      "تی</w>"
    ],
    [
      "خ",
      "رچ</w>"
    ],
    [
      "200",
      "0</w>"
    ],
    [
      "قب",
      "ول</w>"
    ],
    [
      "جی",
      "سا</w>"
    ],
    [
      "لگ",
      "ا</w>"
    ],
    [
      "تم",
      "غ"
    ],
    [
      "عد",
      "ال"
    ],
    [
      "س",
      "فی"
    ],
    [
      "پ",
      "تھ"
    ],
    [
      "1",
      "00</w>"
    ],
    [
      "ہ",
      "ری"
    ],
    [
      "فائ",
      "نل</w>"
    ],
    [
      "مع",
      "اون</w>"
    ],
    [
      "بن",
      "نے</w>"
    ],
    [
      "اختت",
      "ام</w>"
    ],
    [
      "ہو",
      "گا۔</w>"
    ],
    [
      "رکھ",
      "ی</w>"
    ],
    [
      "اع",
      "لی"
    ],
    [
      "ٹی",
      "و"
    ],
    [
      "ک",
      "وس"
    ],
    [
      "ل",
      "ٹی</w>"
    ],
    [
      "ا",
      "ف</w>"
    ],
    [
      "م",
      "دھ"
    ],
    [
      "حی",
      "ث"
    ],
    [
      "ائ",
      "ر</w>"
    ],
    [
      "لا",
      "ب</w>"
    ],
    [
      "قص",
      "بہ</w>"
    ],
    [
      "ر",
      "ک</w>"
    ],
    [
      "ک",
      "تا"
    ],
    [
      "کنٹرو",
      "ل</w>"
    ],
    [
      "پ",
      "ائے</w>"
    ],
    [
      "سو",
      "ی</w>"
    ],
    [
      "پو",
      "ائ"
    ],
    [
      "ت",
      "نظ"
    ],
    [
      "ای",
      "ون"
    ],
    [
      "ال",
      "ب"
    ],
    [
      "ن",
      "ما</w>"
    ],
    [
      "ج",
      "ذ"
    ],
    [
      "می",
      "ک</w>"
    ],
    [
      "عی",
      "سوی</w>"
    ],
    [
      "خو",
      "ش</w>"
    ],
    [
      "تش",
      "خی"
    ],
    [
      "ر",
      "نگ"
    ],
    [
      "کانگری",
      "س</w>"
    ],
    [
      "دی",
      "وی</w>"
    ],
    [
      "ز",
      "د</w>"
    ],
    [
      "200",
      "9</w>"
    ],
    [
      "ن",
      "ت"
    ],
    [
      "زی",
      "ں</w>"
    ],
    [
      "جر",
      "منی</w>"
    ],
    [
      "رہ",
      "ا۔</w>"
    ],
    [
      "مل",
      "تا</w>"
    ],
    [
      "چی",
      "ک</w>"
    ],
    [
      "ذ",
      "مہ</w>"
    ],
    [
      "ڈ",
      "،</w>"
    ],
    [
      "س",
      "تھ"
    ],
    [
      "حیث",
      "یت</w>"
    ],
    [
      "و",
      "ک</w>"
    ],
    [
      "رہ",
      "تا</w>"
    ],
    [
      "ہمی",
      "شہ</w>"
    ],
    [
      "ند",
      "وں</w>"
    ],
    [
      "ص",
      "ور"
    ],
    [
      "ر",
      "ن</w>"
    ],
    [
      "و",
      "ض"
    ],
    [
      "ری",
      "ڈ</w>"
    ],
    [
      "و",
      "ٹ"
    ],
    [
      "دی",
      "ے</w>"
    ],
    [
      "ہ",
      "لاک</w>"
    ],
    [
      "پی",
      "سے</w>"
    ],
    [
      "اعلی",
      "ٰ</w>"
    ],
    [
      "آ",
      "ؤ"
    ],
    [
      "ق",
      "ت</w>"
    ],
    [
      "سم",
      "ند"
    ],
    [
      "مہار",
      "اش"
    ],
    [
      "ایس",
      "وسی</w>"
    ],
    [
      "کار",
      "کر"
    ],
    [
      "ن",
      "ص"
    ],
    [
      "تص",
      "ا"
    ],
    [
      "او",
      "ٔ"
    ],
    [
      "اح",
      "ت"
    ],
    [
      "گ",
      "اندھ"
    ],
    [
      "آ",
      "ف"
    ],
    [
      "ڈر",
      "ام"
    ],
    [
      "بی",
      "ت</w>"
    ],
    [
      "ٹورنام",
      "نٹ</w>"
    ],
    [
      "کیری",
      "ئر</w>"
    ],
    [
      "چ",
      "ڑھ"
    ],
    [
      "ش",
      "ک</w>"
    ],
    [
      "ائ",
      "شی</w>"
    ],
    [
      "ناک",
      "ام</w>"
    ],
    [
      "راس",
      "ت</w>"
    ],
    [
      "ہ",
      "ری</w>"
    ],
    [
      "ائ",
      "د</w>"
    ],
    [
      "1",
      "3"
    ],
    [
      "کو",
      "ڈ</w>"
    ],
    [
      "ا",
      "بھی</w>"
    ],
    [
      "ای",
      "ئر</w>"
    ],
    [
      "خط",
      "ے</w>"
    ],
    [
      "شن",
      "و</w>"
    ],
    [
      "ک",
      "ے"
    ],
    [
      "اع",
      "ظم</w>"
    ],
    [
      "ام",
      "کان</w>"
    ],
    [
      "مل",
      "تی</w>"
    ],
    [
      "پو",
      "جا</w>"
    ],
    [
      "چ",
      "س"
    ],
    [
      "200",
      "6</w>"
    ],
    [
      "ب",
      "س</w>"
    ],
    [
      "انس",
      "انی</w>"
    ],
    [
      "تص",
      "دی"
    ],
    [
      "وی",
      "ئر</w>"
    ],
    [
      "اق",
      "سام</w>"
    ],
    [
      "کینی",
      "ڈا</w>"
    ],
    [
      "یا",
      "د</w>"
    ],
    [
      "آ",
      "ہ"
    ],
    [
      "م",
      "ہا"
    ],
    [
      "کو",
      "ئ"
    ],
    [
      "جان",
      "وروں</w>"
    ],
    [
      "چھو",
      "ٹا</w>"
    ],
    [
      "آ",
      "وا"
    ],
    [
      "کھ",
      "وں</w>"
    ],
    [
      "ب",
      "ائی"
    ],
    [
      "مح",
      "دود</w>"
    ],
    [
      "با",
      "ق"
    ],
    [
      "کر",
      "کے</w>"
    ],
    [
      "ر",
      "ج"
    ],
    [
      "تصدی",
      "ق</w>"
    ],
    [
      "عو",
      "امی</w>"
    ],
    [
      "ا",
      "کی"
    ],
    [
      "2",
      "3</w>"
    ],
    [
      "اولمپ",
      "کس</w>"
    ],
    [
      "ڈیزائ",
      "ن</w>"
    ],
    [
      "گاندھ",
      "ی</w>"
    ],
    [
      "ح",
      "ات</w>"
    ],
    [
      "ل",
      "ندن</w>"
    ],
    [
      "قی",
      "د</w>"
    ],
    [
      "ف",
      "ری</w>"
    ],
    [
      "ر",
      "فتار</w>"
    ],
    [
      "تر",
      "ا</w>"
    ],
    [
      "بر",
      "ہ"
    ],
    [
      "مق",
      "دار</w>"
    ],
    [
      "پید",
      "او"
    ],
    [
      "کارکر",
      "دگی</w>"
    ],
    [
      "ب",
      "غ"
    ],
    [
      "مش",
      "تر"
    ],
    [
      "مد",
      "ت</w>"
    ],
    [
      "بور",
      "ڈ</w>"
    ],
    [
      "میون",
      "سپ"
    ],
    [
      "انگری",
      "زی</w>"
    ],
    [
      "خرا",
      "ب</w>"
    ],
    [
      "خطر",
      "ہ</w>"
    ],
    [
      "سا",
      "تھ،</w>"
    ],
    [
      "پ",
      "ائی</w>"
    ],
    [
      "نو",
      "جو"
    ],
    [
      "ک",
      "لا"
    ],
    [
      "زی",
      "شن</w>"
    ],
    [
      "انی",
      "ن</w>"
    ],
    [
      "ت",
      "ما"
    ],
    [
      "آ",
      "ئے</w>"
    ],
    [
      "ری",
      "ت</w>"
    ],
    [
      "ڈ",
      "ے</w>"
    ],
    [
      "ای",
      "شیا</w>"
    ],
    [
      "اب",
      "ت</w>"
    ],
    [
      "می",
      "وں</w>"
    ],
    [
      "د",
      "ا</w>"
    ],
    [
      "بلدی",
      "ہ</w>"
    ],
    [
      "ف",
      "ال"
    ],
    [
      "ش",
      "نا"
    ],
    [
      "پید",
      "ائش</w>"
    ],
    [
      "س",
      "میت</w>"
    ],
    [
      "کی",
      "ل"
    ],
    [
      "ف",
      "ع"
    ],
    [
      "ص",
      "ول</w>"
    ],
    [
      "درخو",
      "است</w>"
    ],
    [
      "ک",
      "پڑ"
    ],
    [
      "ی",
      "ک</w>"
    ],
    [
      "تشخی",
      "ص</w>"
    ],
    [
      "ف",
      "لو"
    ],
    [
      "جی",
      "ن"
    ],
    [
      "سن",
      "بھ"
    ],
    [
      "آؤ",
      "ٹ</w>"
    ],
    [
      "م",
      "ظاہ"
    ],
    [
      "من",
      "د</w>"
    ],
    [
      "کھ",
      "انا</w>"
    ],
    [
      "ن",
      "سی</w>"
    ],
    [
      "ور",
      "ک</w>"
    ],
    [
      "فار",
      "م</w>"
    ],
    [
      "سا",
      "فٹ</w>"
    ],
    [
      "بو",
      "ل"
    ],
    [
      "ال",
      "دین</w>"
    ],
    [
      "ح",
      "مل</w>"
    ],
    [
      "آ",
      "تے</w>"
    ],
    [
      "گا",
      "ڑی</w>"
    ],
    [
      "سیا",
      "ح"
    ],
    [
      "کرو",
      "ڑ</w>"
    ],
    [
      "س",
      "ان"
    ],
    [
      "رو",
      "ا"
    ],
    [
      "رو",
      "ایت</w>"
    ],
    [
      "پی",
      "رو"
    ],
    [
      "ک",
      "ٹ"
    ],
    [
      "شی",
      "و</w>"
    ],
    [
      "ور",
      "ژن</w>"
    ],
    [
      "ا",
      "وسط</w>"
    ],
    [
      "ڈر",
      "ائی"
    ],
    [
      "1",
      "2"
    ],
    [
      "مخت",
      "صر</w>"
    ],
    [
      "ط",
      "بی</w>"
    ],
    [
      "وی",
      "ل"
    ],
    [
      "کی",
      "ے۔</w>"
    ],
    [
      "انت",
      "ہائی</w>"
    ],
    [
      "او",
      "ت</w>"
    ],
    [
      "ہا",
      "تھ</w>"
    ],
    [
      "متع",
      "ارف</w>"
    ],
    [
      "ای",
      "کس"
    ],
    [
      "کھی",
      "لے</w>"
    ],
    [
      "مر",
      "بع</w>"
    ],
    [
      "ل",
      "ک"
    ],
    [
      "ری",
      "ں</w>"
    ],
    [
      "سمند",
      "ری</w>"
    ],
    [
      "م",
      "چھ"
    ],
    [
      "طاق",
      "ت</w>"
    ],
    [
      "انی",
      "وں</w>"
    ],
    [
      "ٹی",
      "ن"
    ],
    [
      "سل",
      "ک</w>"
    ],
    [
      "شہر",
      "وں</w>"
    ],
    [
      "قو",
      "انین</w>"
    ],
    [
      "دکھ",
      "ایا</w>"
    ],
    [
      "ڈائ",
      "ری"
    ],
    [
      "کار",
      "پو"
    ],
    [
      "ت",
      "ری"
    ],
    [
      "کو",
      "ز</w>"
    ],
    [
      "خ",
      "ات"
    ],
    [
      "ر",
      "د</w>"
    ],
    [
      "س",
      "خت</w>"
    ],
    [
      "کہ",
      "نا</w>"
    ],
    [
      "ل",
      "م"
    ],
    [
      "د",
      "ما"
    ],
    [
      "دوس",
      "ت</w>"
    ],
    [
      "دیکھ",
      "نے</w>"
    ],
    [
      "و",
      "ان</w>"
    ],
    [
      "ث",
      "ابت</w>"
    ],
    [
      "ف",
      "اص"
    ],
    [
      "اس",
      "کری"
    ],
    [
      "خصوص",
      "ی</w>"
    ],
    [
      "مسل",
      "سل</w>"
    ],
    [
      "یور",
      "پی</w>"
    ],
    [
      "ن",
      "ور"
    ],
    [
      "پ",
      "وس"
    ],
    [
      "ب",
      "طور</w>"
    ],
    [
      "مو",
      "ل</w>"
    ],
    [
      "مع",
      "اش"
    ],
    [
      "دور",
      "ہ</w>"
    ],
    [
      "سال",
      "ہ</w>"
    ],
    [
      "او",
      "ائل</w>"
    ],
    [
      "خو",
      "شی</w>"
    ],
    [
      "اث",
      "رات</w>"
    ],
    [
      "د",
      "گ"
    ],
    [
      "می",
      "ڈیا</w>"
    ],
    [
      "ش",
      "ے</w>"
    ],
    [
      "من",
      "سلک</w>"
    ],
    [
      "فر",
      "انس</w>"
    ],
    [
      "خ",
      "لی"
    ],
    [
      "جیت",
      "نے</w>"
    ],
    [
      "ت",
      "م</w>"
    ],
    [
      "تج",
      "ویز</w>"
    ],
    [
      "سک",
      "ے۔</w>"
    ],
    [
      "ڈی",
      "ٹا</w>"
    ],
    [
      "ج",
      "ہ"
    ],
    [
      "ار",
      "ات</w>"
    ],
    [
      "مقر",
      "ر</w>"
    ],
    [
      "پ",
      "لے</w>"
    ],
    [
      "لی",
      "،</w>"
    ],
    [
      "ت",
      "ے۔</w>"
    ],
    [
      "بی",
      "س</w>"
    ],
    [
      "نس",
      "ر</w>"
    ],
    [
      "ک",
      "اس"
    ],
    [
      "ت",
      "وقع</w>"
    ],
    [
      "1",
      "4"
    ],
    [
      "ل",
      "ے،</w>"
    ],
    [
      "چاہی",
      "ے</w>"
    ],
    [
      "کمی",
      "ون"
    ],
    [
      "اف",
      "ت</w>"
    ],
    [
      "وا",
      "ں</w>"
    ],
    [
      "ای",
      "ل"
    ],
    [
      "جن",
      "رل</w>"
    ],
    [
      "معام",
      "لات</w>"
    ],
    [
      "ای",
      "شن</w>"
    ],
    [
      "6",
      "0</w>"
    ],
    [
      "آ",
      "پری"
    ],
    [
      "تبدی",
      "لی</w>"
    ],
    [
      "ری",
      "س</w>"
    ],
    [
      "حر",
      "ارت</w>"
    ],
    [
      "ز",
      "ر</w>"
    ],
    [
      "فر",
      "انسی"
    ],
    [
      "ان",
      "ات</w>"
    ],
    [
      "دھ",
      "و"
    ],
    [
      "ز",
      "ندہ</w>"
    ],
    [
      "فی",
      "س</w>"
    ],
    [
      "کل",
      "اسی"
    ],
    [
      "می",
      "را</w>"
    ],
    [
      "ن",
      "مو"
    ],
    [
      "ل",
      "ن"
    ],
    [
      "کر",
      "کٹ</w>"
    ],
    [
      "مع",
      "یار</w>"
    ],
    [
      "ٹی",
      "موں</w>"
    ],
    [
      "سم",
      "ندر</w>"
    ],
    [
      "آ",
      "تی</w>"
    ],
    [
      "سام",
      "ان</w>"
    ],
    [
      "آزا",
      "د</w>"
    ],
    [
      "ساب",
      "ق</w>"
    ],
    [
      "متا",
      "ث"
    ],
    [
      "ائی",
      "ں۔</w>"
    ],
    [
      "ہا",
      "ؤ"
    ],
    [
      "ان",
      "ڈین</w>"
    ],
    [
      "راس",
      "تے</w>"
    ],
    [
      "ن",
      "جی</w>"
    ],
    [
      "نا",
      "،</w>"
    ],
    [
      "وی",
      "ڈیو</w>"
    ],
    [
      "خات",
      "ون</w>"
    ],
    [
      "چل",
      "تا</w>"
    ],
    [
      "تبا",
      "ہ</w>"
    ],
    [
      "یقی",
      "ن</w>"
    ],
    [
      "ل",
      "گ</w>"
    ],
    [
      "ہ",
      "رے</w>"
    ],
    [
      "اس",
      "کی"
    ],
    [
      "اص",
      "طلا"
    ],
    [
      "ر",
      "م</w>"
    ],
    [
      "ج",
      "وں</w>"
    ],
    [
      "مس",
      "ئ"
    ],
    [
      "مسی",
      "ح</w>"
    ],
    [
      "می",
      "ز"
    ],
    [
      "مض",
      "بوط</w>"
    ],
    [
      "ج",
      "ائیں</w>"
    ],
    [
      "ب",
      "و</w>"
    ],
    [
      "اسٹی",
      "ٹ</w>"
    ],
    [
      "و",
      "نی"
    ],
    [
      "مق",
      "دس</w>"
    ],
    [
      "وض",
      "اح"
    ],
    [
      "روپ",
      "ے</w>"
    ],
    [
      "گھ",
      "ن"
    ],
    [
      "م",
      "ٹی</w>"
    ],
    [
      "ند",
      "ے</w>"
    ],
    [
      "مصنو",
      "عات</w>"
    ],
    [
      "م",
      "ے</w>"
    ],
    [
      "اؤ",
      "ن</w>"
    ],
    [
      "ای",
      "نٹی</w>"
    ],
    [
      "اط",
      "لاع</w>"
    ],
    [
      "جم",
      "ہو"
    ],
    [
      "مشتر",
      "کہ</w>"
    ],
    [
      "تیسر",
      "ے</w>"
    ],
    [
      "کرنا",
      "ٹک</w>"
    ],
    [
      "کن",
      "ارے</w>"
    ],
    [
      "کور",
      "ٹ</w>"
    ],
    [
      "کارپو",
      "ری"
    ],
    [
      "سا",
      "حل</w>"
    ],
    [
      "آس",
      "ان</w>"
    ],
    [
      "گ",
      "ن"
    ],
    [
      "200",
      "1</w>"
    ],
    [
      "گج",
      "رات</w>"
    ],
    [
      "خطر",
      "ے</w>"
    ],
    [
      "ص",
      "حی"
    ],
    [
      "فی",
      "لڈ</w>"
    ],
    [
      "د",
      "فا"
    ],
    [
      "ٹی",
      "کس"
    ],
    [
      "سسٹ",
      "م</w>"
    ],
    [
      "2",
      "6</w>"
    ],
    [
      "پ",
      "ٹ"
    ],
    [
      "ثقاف",
      "تی</w>"
    ],
    [
      "تخ",
      "لی"
    ],
    [
      "شائ",
      "ع</w>"
    ],
    [
      "لی",
      "۔</w>"
    ],
    [
      "صلاحی",
      "ت</w>"
    ],
    [
      "ہ",
      "ز"
    ],
    [
      "غل",
      "ط</w>"
    ],
    [
      "سی",
      "ک"
    ],
    [
      "ف",
      "ص"
    ],
    [
      "تحقی",
      "ق</w>"
    ],
    [
      "موا",
      "د</w>"
    ],
    [
      "پرو",
      "ڈ"
    ],
    [
      "می",
      "ا</w>"
    ],
    [
      "ض",
      "اب"
    ],
    [
      "اند",
      "ار</w>"
    ],
    [
      "ر",
      "سو"
    ],
    [
      "ح",
      "ملے</w>"
    ],
    [
      "انٹر",
      "نیشنل</w>"
    ],
    [
      "مر",
      "ح"
    ],
    [
      "200",
      "5</w>"
    ],
    [
      "آر",
      "ڈر</w>"
    ],
    [
      "بج",
      "لی</w>"
    ],
    [
      "ہ",
      "ائی"
    ],
    [
      "بی",
      "ٹی</w>"
    ],
    [
      "پ",
      "اب"
    ],
    [
      "ذ",
      "اتی</w>"
    ],
    [
      "ر",
      "ت</w>"
    ],
    [
      "تس",
      "لیم</w>"
    ],
    [
      "کلاسی",
      "کی</w>"
    ],
    [
      "ن",
      "نگ</w>"
    ],
    [
      "قدر",
      "تی</w>"
    ],
    [
      "دل",
      "چس"
    ],
    [
      "با",
      "کس</w>"
    ],
    [
      "بی",
      "وی</w>"
    ],
    [
      "س",
      "لی"
    ],
    [
      "لڑ",
      "ائی</w>"
    ],
    [
      "یور",
      "پ</w>"
    ],
    [
      "م",
      "اس"
    ],
    [
      "حی",
      "ران</w>"
    ],
    [
      "پیداو",
      "ار</w>"
    ],
    [
      "کی",
      "لی"
    ],
    [
      "غ",
      "ار</w>"
    ],
    [
      "2",
      "7</w>"
    ],
    [
      "ہو",
      "گی۔</w>"
    ],
    [
      "ڈاک",
      "ٹر</w>"
    ],
    [
      "واق",
      "عی</w>"
    ],
    [
      "غ",
      "ذ"
    ],
    [
      "ت",
      "ن</w>"
    ],
    [
      "ب",
      "اس</w>"
    ],
    [
      "اح",
      "ساس</w>"
    ],
    [
      "2",
      "8</w>"
    ],
    [
      "بال",
      "کل</w>"
    ],
    [
      "سو",
      "ئ"
    ],
    [
      "رو",
      "ش"
    ],
    [
      "ف",
      "ا</w>"
    ],
    [
      "طر",
      "ز</w>"
    ],
    [
      "ف",
      "ے</w>"
    ],
    [
      "آ",
      "مد</w>"
    ],
    [
      "می",
      "ٹر"
    ],
    [
      "ٹری",
      "ک</w>"
    ],
    [
      "وا",
      "ج</w>"
    ],
    [
      "گ",
      "پ"
    ],
    [
      "فر",
      "د</w>"
    ],
    [
      "ص",
      "ہ</w>"
    ],
    [
      "فع",
      "ال</w>"
    ],
    [
      "\"",
      "۔</w>"
    ],
    [
      "ش",
      "ای"
    ],
    [
      "لگ",
      "انے</w>"
    ],
    [
      "کی",
      "نسر</w>"
    ],
    [
      "بج",
      "ٹ</w>"
    ],
    [
      "بہ",
      "ار</w>"
    ],
    [
      "پور",
      "ا</w>"
    ],
    [
      "م",
      "مبئی</w>"
    ],
    [
      "لکھ",
      "ا</w>"
    ],
    [
      "سا",
      "ت"
    ],
    [
      "ش",
      "ری"
    ],
    [
      "ح",
      "،</w>"
    ],
    [
      "ش",
      "ور</w>"
    ],
    [
      "ڈھ",
      "ان"
    ],
    [
      "دی",
      "،</w>"
    ],
    [
      "س",
      "ند"
    ],
    [
      "ہ",
      "نگ"
    ],
    [
      "بد",
      "ل</w>"
    ],
    [
      "گھن",
      "ٹے</w>"
    ],
    [
      "وا",
      "ت</w>"
    ],
    [
      "ما",
      "ں</w>"
    ],
    [
      "وضاح",
      "ت</w>"
    ],
    [
      "گ",
      "زی"
    ],
    [
      "م",
      "نی"
    ],
    [
      "و",
      "شنو</w>"
    ],
    [
      "وو",
      "ا</w>"
    ],
    [
      "تھ",
      "ے۔‏</w>"
    ],
    [
      "راج",
      "ستھ"
    ],
    [
      "روک",
      "نے</w>"
    ],
    [
      "مہی",
      "نے</w>"
    ],
    [
      "ب",
      "ح</w>"
    ],
    [
      "شای",
      "د</w>"
    ],
    [
      "فی",
      "ڈری"
    ],
    [
      "پور",
      "ٹس</w>"
    ],
    [
      "سی",
      "ل"
    ],
    [
      "جہا",
      "ز</w>"
    ],
    [
      "مر",
      "د</w>"
    ],
    [
      "واب",
      "ستہ</w>"
    ],
    [
      "مل",
      "نے</w>"
    ],
    [
      "ش",
      "طر"
    ],
    [
      "وا",
      "دی</w>"
    ],
    [
      "مہاراش",
      "ٹر</w>"
    ],
    [
      "ڈ",
      "نگ</w>"
    ],
    [
      "ان",
      "کار</w>"
    ],
    [
      "آ",
      "د"
    ],
    [
      "آ",
      "ب"
    ],
    [
      "لی",
      "اں</w>"
    ],
    [
      "ا",
      "ٹ</w>"
    ],
    [
      "پار",
      "لی"
    ],
    [
      "و",
      "،</w>"
    ],
    [
      "ا",
      "تر</w>"
    ],
    [
      "جنگ",
      "لات</w>"
    ],
    [
      "ٹی",
      "ن</w>"
    ],
    [
      "مق",
      "د"
    ],
    [
      "شنا",
      "خت</w>"
    ],
    [
      "کر",
      "م</w>"
    ],
    [
      "آ",
      "ٹھ</w>"
    ],
    [
      "فرانسی",
      "سی</w>"
    ],
    [
      "من",
      "سو"
    ],
    [
      "گ",
      "ار"
    ],
    [
      "کی",
      "شن</w>"
    ],
    [
      "ر",
      "پورٹ</w>"
    ],
    [
      "پرو",
      "ڈی"
    ],
    [
      "نگ",
      "،</w>"
    ],
    [
      "تھی",
      "۔‏</w>"
    ],
    [
      "مر",
      "کوز</w>"
    ],
    [
      "ر",
      "ہی"
    ],
    [
      "ا",
      "ً</w>"
    ],
    [
      "بھ",
      "ارتی</w>"
    ],
    [
      "200",
      "4</w>"
    ],
    [
      "ی",
      "ع"
    ],
    [
      "س",
      "نگ</w>"
    ],
    [
      "س",
      "لے</w>"
    ],
    [
      "اد",
      "ھ"
    ],
    [
      "ع",
      "قی"
    ],
    [
      "اد",
      "ر</w>"
    ],
    [
      "دی",
      "ا،</w>"
    ],
    [
      "پ",
      "الی"
    ],
    [
      "تی",
      "،</w>"
    ],
    [
      "س",
      "کر"
    ],
    [
      "بن",
      "ائی</w>"
    ],
    [
      "مند",
      "روں</w>"
    ],
    [
      "واق",
      "عات</w>"
    ],
    [
      "تجر",
      "بہ</w>"
    ],
    [
      "سی",
      "ٹ</w>"
    ],
    [
      "ٹ",
      "ائم</w>"
    ],
    [
      "رو",
      "ز</w>"
    ],
    [
      "نا",
      "ہ</w>"
    ],
    [
      "سا",
      "ز</w>"
    ],
    [
      "نگ",
      "ز</w>"
    ],
    [
      "س",
      "کے</w>"
    ],
    [
      "لگ",
      "ایا</w>"
    ],
    [
      "شطر",
      "نج</w>"
    ],
    [
      "د",
      "ائ"
    ],
    [
      "ش",
      "ور"
    ],
    [
      "زب",
      "انی</w>"
    ],
    [
      "اس",
      "مب"
    ],
    [
      "فائ",
      "دہ</w>"
    ],
    [
      "ی",
      "،</w>"
    ],
    [
      "ب",
      "ق"
    ],
    [
      "نت",
      "ائ"
    ],
    [
      "ج",
      "اسک"
    ],
    [
      "من",
      "ش"
    ],
    [
      "ک",
      "ام"
    ],
    [
      "وو",
      "ڈ</w>"
    ],
    [
      "م",
      "ائی</w>"
    ],
    [
      "ں",
      "۔‏</w>"
    ],
    [
      "ش",
      "مار</w>"
    ],
    [
      "لف",
      "ظ</w>"
    ],
    [
      "کو",
      "نسل</w>"
    ],
    [
      "ب",
      "انی</w>"
    ],
    [
      "ذی",
      "لی</w>"
    ],
    [
      "ری",
      "ات</w>"
    ],
    [
      "دری",
      "افت</w>"
    ],
    [
      "س",
      "نڈ"
    ],
    [
      "جوا",
      "ب</w>"
    ],
    [
      "حال",
      "ات</w>"
    ],
    [
      "قی",
      "م"
    ],
    [
      "یا",
      "ء</w>"
    ],
    [
      "ٹھ",
      "یک</w>"
    ],
    [
      "بھ",
      "ال</w>"
    ],
    [
      "نتائ",
      "ج</w>"
    ],
    [
      "گ",
      "ل"
    ],
    [
      "باق",
      "اع"
    ],
    [
      "جائ",
      "ے۔</w>"
    ],
    [
      "بغ",
      "اوت</w>"
    ],
    [
      "20",
      "22</w>"
    ],
    [
      "مدھ",
      "یہ</w>"
    ],
    [
      "ری",
      "لو</w>"
    ],
    [
      "اع",
      "لی</w>"
    ],
    [
      "ت",
      "ال"
    ],
    [
      "گھ",
      "نٹ"
    ],
    [
      "کیلی",
      "فور"
    ],
    [
      "تر",
      "بیت</w>"
    ],
    [
      "ان",
      "سی</w>"
    ],
    [
      "ٹ",
      "ک"
    ],
    [
      "ص",
      "اف</w>"
    ],
    [
      "را",
      "ؤ</w>"
    ],
    [
      "ات",
      "نا</w>"
    ],
    [
      "رو",
      "ز"
    ],
    [
      "ای",
      "نڈ"
    ],
    [
      "ای",
      "ڈی"
    ],
    [
      "نی",
      "وں</w>"
    ],
    [
      "منش",
      "یات</w>"
    ],
    [
      "عدال",
      "ت</w>"
    ],
    [
      "تف",
      "ص"
    ],
    [
      "بل",
      "کہ</w>"
    ],
    [
      "تنا",
      "ز"
    ],
    [
      "198",
      "0</w>"
    ],
    [
      "ات",
      "،</w>"
    ],
    [
      "ج",
      "زائ"
    ],
    [
      "خ",
      "شک</w>"
    ],
    [
      "می",
      "ئر</w>"
    ],
    [
      "ان",
      "گی"
    ],
    [
      "2",
      "9</w>"
    ],
    [
      "پی",
      "چی"
    ],
    [
      "مص",
      "ن"
    ],
    [
      "رکھ",
      "</w>"
    ],
    [
      "تک",
      "نی"
    ],
    [
      "سو",
      "ن</w>"
    ],
    [
      "ہوئی",
      "ں۔</w>"
    ],
    [
      "ہ",
      "ٹ</w>"
    ],
    [
      "تحری",
      "ک</w>"
    ],
    [
      "بی",
      "ٹا</w>"
    ],
    [
      "علام",
      "ت</w>"
    ],
    [
      "مج",
      "بور</w>"
    ],
    [
      "20",
      "0</w>"
    ],
    [
      "فاص",
      "لے</w>"
    ],
    [
      "ج",
      "سم"
    ],
    [
      "س",
      "ز</w>"
    ],
    [
      "پ",
      "بل"
    ],
    [
      "ایون",
      "ٹ</w>"
    ],
    [
      "آف",
      "س</w>"
    ],
    [
      "پہنچ",
      "نے</w>"
    ],
    [
      "مراٹھ",
      "ا</w>"
    ],
    [
      "آوا",
      "ز</w>"
    ],
    [
      "اظ",
      "ہار</w>"
    ],
    [
      "گھ",
      "ریلو</w>"
    ],
    [
      "ع",
      "ار"
    ],
    [
      "ص",
      "بح</w>"
    ],
    [
      "سل",
      "سل"
    ],
    [
      "ک",
      "ٹو"
    ],
    [
      "رکھ",
      "تا</w>"
    ],
    [
      "بھ",
      "ا"
    ],
    [
      "پ",
      "ڑ</w>"
    ],
    [
      "س",
      "ری"
    ],
    [
      "ج",
      "ما"
    ],
    [
      "مج",
      "سم"
    ],
    [
      "عل",
      "م</w>"
    ],
    [
      "ثقاف",
      "ت</w>"
    ],
    [
      "ک",
      "ٹر"
    ],
    [
      "تعل",
      "قات</w>"
    ],
    [
      "ن",
      "کال"
    ],
    [
      "اف",
      "ریق"
    ],
    [
      "یع",
      "نی</w>"
    ],
    [
      "پہ",
      "لے،</w>"
    ],
    [
      "کی",
      "م"
    ],
    [
      "چ",
      "کا</w>"
    ],
    [
      "کتا",
      "ب</w>"
    ],
    [
      "تص",
      "ویر</w>"
    ],
    [
      "باد",
      "ل</w>"
    ],
    [
      "انگری",
      "زوں</w>"
    ],
    [
      "ِ",
      "</w>"
    ],
    [
      "ہ",
      "ات</w>"
    ],
    [
      "چی",
      "زوں</w>"
    ],
    [
      "بچ",
      "ت</w>"
    ],
    [
      "جزائ",
      "ر</w>"
    ],
    [
      "معاہ",
      "دے</w>"
    ],
    [
      "ش",
      "خص"
    ],
    [
      "الز",
      "ام</w>"
    ],
    [
      "نش",
      "اند"
    ],
    [
      "یونی",
      "ن</w>"
    ],
    [
      "ن",
      "ڈی"
    ],
    [
      "ہ",
      "ائ"
    ],
    [
      "اسمب",
      "لی</w>"
    ],
    [
      "199",
      "0</w>"
    ],
    [
      "دو",
      "م</w>"
    ],
    [
      "ٹ",
      "را"
    ],
    [
      "دیو",
      "تا</w>"
    ],
    [
      "تحف",
      "ظ</w>"
    ],
    [
      "جان",
      "چ</w>"
    ],
    [
      "نشاند",
      "ہی</w>"
    ],
    [
      "بو",
      "لی</w>"
    ],
    [
      "تج",
      "ارت</w>"
    ],
    [
      "رس",
      "ائی</w>"
    ],
    [
      "مز",
      "اح"
    ],
    [
      "ہو",
      "ا،</w>"
    ],
    [
      "منظ",
      "م</w>"
    ],
    [
      "ع",
      "ن"
    ],
    [
      "س",
      "و</w>"
    ],
    [
      "دی",
      "کھی"
    ],
    [
      "شر",
      "کت</w>"
    ],
    [
      "شرا",
      "ب</w>"
    ],
    [
      "انتظ",
      "امی</w>"
    ],
    [
      "چ",
      "وں</w>"
    ],
    [
      "س",
      "ٹر</w>"
    ],
    [
      "قص",
      "بے</w>"
    ],
    [
      "پچھ",
      "لے</w>"
    ],
    [
      "منظ",
      "ر</w>"
    ],
    [
      "غ",
      "ور</w>"
    ],
    [
      "با",
      "غ"
    ],
    [
      "کر",
      "نی</w>"
    ],
    [
      "خ",
      "ار"
    ],
    [
      "اد",
      "و"
    ],
    [
      "اش",
      "یاء</w>"
    ],
    [
      "بی",
      "نڈ</w>"
    ],
    [
      "باد",
      "شاہ"
    ],
    [
      "د",
      "ری</w>"
    ],
    [
      "فر",
      "ق</w>"
    ],
    [
      "و",
      "م</w>"
    ],
    [
      "شن",
      "ز</w>"
    ],
    [
      "اسٹ",
      "اک</w>"
    ],
    [
      "کھیل",
      "نے</w>"
    ],
    [
      "ر",
      "ائے</w>"
    ],
    [
      "ز",
      "ش</w>"
    ],
    [
      "تھ",
      "ا"
    ],
    [
      "8",
      "0</w>"
    ],
    [
      "و",
      "ع</w>"
    ],
    [
      "گ",
      "انا</w>"
    ],
    [
      "بر",
      "ف</w>"
    ],
    [
      "مح",
      "بت</w>"
    ],
    [
      "پ",
      "ائ"
    ],
    [
      "ہر",
      "ا</w>"
    ],
    [
      "میونسپ",
      "لٹی</w>"
    ],
    [
      "وٹ",
      "امن</w>"
    ],
    [
      "پر",
      "ت"
    ],
    [
      "د",
      "وست"
    ],
    [
      "ج",
      "،</w>"
    ],
    [
      "یا",
      "۔</w>"
    ],
    [
      "صحی",
      "ح</w>"
    ],
    [
      "لا",
      "م</w>"
    ],
    [
      "د",
      "را"
    ],
    [
      "گرو",
      "ہ</w>"
    ],
    [
      "ب",
      "اس"
    ],
    [
      "پرو",
      "گر"
    ],
    [
      "مائی",
      "کر"
    ],
    [
      "برا",
      "زی"
    ],
    [
      "کاروب",
      "اری</w>"
    ],
    [
      "ف",
      "تہ</w>"
    ],
    [
      "راب",
      "طہ</w>"
    ],
    [
      "ک",
      "ث"
    ],
    [
      "نو",
      "ع</w>"
    ],
    [
      "مال",
      "یاتی</w>"
    ],
    [
      "قل",
      "عے</w>"
    ],
    [
      "چ",
      "کی</w>"
    ],
    [
      "کو",
      "چ</w>"
    ],
    [
      "تی",
      "۔</w>"
    ],
    [
      "آ",
      "لات</w>"
    ],
    [
      "گر",
      "م</w>"
    ],
    [
      "آئی",
      "ووا</w>"
    ],
    [
      "پڑ",
      "ا</w>"
    ],
    [
      "مش",
      "ور"
    ],
    [
      "وال",
      "دین</w>"
    ],
    [
      "ان",
      "و"
    ],
    [
      "گ",
      "ل</w>"
    ],
    [
      "حر",
      "کت</w>"
    ],
    [
      "لی",
      "ٹ</w>"
    ],
    [
      "پ",
      "ناہ</w>"
    ],
    [
      "جی",
      "کٹ</w>"
    ],
    [
      "ص",
      "ار"
    ],
    [
      "اص",
      "ر</w>"
    ],
    [
      "ت",
      "فری"
    ],
    [
      "ج",
      "شن</w>"
    ],
    [
      "جگ",
      "ہوں</w>"
    ],
    [
      "سو",
      "د</w>"
    ],
    [
      "ر",
      "سم</w>"
    ],
    [
      "ون",
      "ڈو"
    ],
    [
      "ری",
      "و</w>"
    ],
    [
      "بش",
      "مول</w>"
    ],
    [
      "انی",
      "ں</w>"
    ],
    [
      "مسل",
      "م</w>"
    ],
    [
      "خو",
      "د"
    ],
    [
      "مل",
      "ا</w>"
    ],
    [
      "5",
      "00</w>"
    ],
    [
      "گ",
      "نگا</w>"
    ],
    [
      "ڈ",
      "ویژن</w>"
    ],
    [
      "۔",
      "\"</w>"
    ],
    [
      "مح",
      "کم"
    ],
    [
      "بھ",
      "گو"
    ],
    [
      "ش",
      "،</w>"
    ],
    [
      "تمغ",
      "ہ</w>"
    ],
    [
      "رو",
      "ی"
    ],
    [
      "ڈی",
      "ل"
    ],
    [
      "دع",
      "وی"
    ],
    [
      "نو",
      "ٹ</w>"
    ],
    [
      "یون",
      "انی</w>"
    ],
    [
      "م",
      "ک"
    ],
    [
      "جیت",
      "ا۔</w>"
    ],
    [
      "پ",
      "و</w>"
    ],
    [
      "قری",
      "بی</w>"
    ],
    [
      "ح",
      "ق</w>"
    ],
    [
      "200",
      "3</w>"
    ],
    [
      "ان",
      "ڈ</w>"
    ],
    [
      "ای",
      "ک"
    ],
    [
      "اہ",
      "ل</w>"
    ],
    [
      "گھ",
      "روں</w>"
    ],
    [
      "ما",
      "ڈل</w>"
    ],
    [
      "گر",
      "ہ</w>"
    ],
    [
      "شی",
      "ائی</w>"
    ],
    [
      "پھ",
      "و"
    ],
    [
      "حقی",
      "قت</w>"
    ],
    [
      "جزی",
      "رے</w>"
    ],
    [
      "ک",
      "اپ"
    ],
    [
      "سفی",
      "د</w>"
    ],
    [
      "آ",
      "بش"
    ],
    [
      "وی",
      "کسی"
    ],
    [
      "سا",
      "تھی</w>"
    ],
    [
      "ر",
      "ام"
    ],
    [
      "کس",
      "،</w>"
    ],
    [
      "صار",
      "فین</w>"
    ],
    [
      "خرید",
      "نے</w>"
    ],
    [
      "دف",
      "تر</w>"
    ],
    [
      "شو",
      "ٹنگ</w>"
    ],
    [
      "راجستھ",
      "ان</w>"
    ],
    [
      "تقری",
      "بات</w>"
    ],
    [
      "رہ",
      "ائشی</w>"
    ],
    [
      "مل",
      "کی</w>"
    ],
    [
      "خ",
      "انہ</w>"
    ],
    [
      "مت",
      "بادل</w>"
    ],
    [
      "در",
      "ا</w>"
    ],
    [
      "خ",
      "ا"
    ],
    [
      "ل",
      "نگ</w>"
    ],
    [
      "ج",
      "انی</w>"
    ],
    [
      "لہ",
      "ذ"
    ],
    [
      "پ",
      "ری</w>"
    ],
    [
      "جسم",
      "انی</w>"
    ],
    [
      "ہ",
      "مارے</w>"
    ],
    [
      "الی",
      "نو"
    ],
    [
      "امی",
      "د</w>"
    ],
    [
      "نوجو",
      "ان</w>"
    ],
    [
      "ض",
      "وں</w>"
    ],
    [
      "صن",
      "ع"
    ],
    [
      "لی",
      "تے</w>"
    ],
    [
      "ٹ",
      "م</w>"
    ],
    [
      "اصطلا",
      "ح</w>"
    ],
    [
      "م",
      "ہم</w>"
    ],
    [
      "خصوص",
      "یات</w>"
    ],
    [
      "کی",
      "ا۔‏</w>"
    ],
    [
      "مم",
      "کن</w>"
    ],
    [
      "آہ",
      "ستہ</w>"
    ],
    [
      "ب",
      "،</w>"
    ],
    [
      "ائی",
      "،</w>"
    ],
    [
      "بی",
      "چ</w>"
    ],
    [
      "سل",
      "سلے</w>"
    ],
    [
      "اض",
      "لاع</w>"
    ],
    [
      "ور",
      "ز</w>"
    ],
    [
      "کیلیفور",
      "نیا</w>"
    ],
    [
      "سی",
      "ل</w>"
    ],
    [
      "کر",
      "،</w>"
    ],
    [
      "کی",
      "سے</w>"
    ],
    [
      "تع",
      "ریف</w>"
    ],
    [
      "خ",
      "ر</w>"
    ],
    [
      "چ",
      "لے</w>"
    ],
    [
      "مذہ",
      "ب</w>"
    ],
    [
      "طریق",
      "وں</w>"
    ],
    [
      "ش",
      "ا</w>"
    ],
    [
      "متاث",
      "رہ</w>"
    ],
    [
      "اک",
      "اؤ"
    ],
    [
      "لا",
      "کھ</w>"
    ],
    [
      "کاؤ",
      "نٹی"
    ],
    [
      "پر",
      "فار"
    ],
    [
      "ا",
      "تح"
    ],
    [
      "خور",
      "اک</w>"
    ],
    [
      "ب",
      "نی</w>"
    ],
    [
      "9",
      "0</w>"
    ],
    [
      "مس",
      "تق"
    ],
    [
      "نگ",
      "ی</w>"
    ],
    [
      "او",
      "ڈی"
    ],
    [
      "اہ",
      "میت</w>"
    ],
    [
      "ث",
      "بو"
    ],
    [
      "اف",
      "سر"
    ],
    [
      "خ",
      "انے</w>"
    ],
    [
      "پی",
      "شک"
    ],
    [
      "ز",
      "می"
    ],
    [
      "چو",
      "ٹ</w>"
    ],
    [
      "ان",
      "ق"
    ],
    [
      "ل",
      "ان"
    ],
    [
      "طر",
      "ح،</w>"
    ],
    [
      "مار",
      "شل</w>"
    ],
    [
      "ٹ",
      "ائی"
    ],
    [
      "مخال",
      "ف</w>"
    ],
    [
      "ط",
      "ل"
    ],
    [
      "اسٹ",
      "و"
    ],
    [
      "ضاب",
      "طہ</w>"
    ],
    [
      "اش",
      "وک</w>"
    ],
    [
      "بی",
      "ن"
    ],
    [
      "آن",
      "ند</w>"
    ],
    [
      "چ",
      "ونکہ</w>"
    ],
    [
      "نام",
      "زد</w>"
    ],
    [
      "دی",
      "ر</w>"
    ],
    [
      "ڈی",
      "و"
    ],
    [
      "پتھ",
      "ر</w>"
    ],
    [
      "سی",
      "لاب</w>"
    ],
    [
      "دھ",
      "ا</w>"
    ],
    [
      "صوب",
      "ہ</w>"
    ],
    [
      "ن",
      "ے،</w>"
    ],
    [
      "سر",
      "خ</w>"
    ],
    [
      "مو",
      "ن</w>"
    ],
    [
      "1",
      "."
    ],
    [
      "انٹر",
      "نیٹ</w>"
    ],
    [
      "نی",
      "وی"
    ],
    [
      "ک",
      "ہیں</w>"
    ],
    [
      "ماہ",
      "ر</w>"
    ],
    [
      "200",
      "2</w>"
    ],
    [
      "اک",
      "ث"
    ],
    [
      "پی",
      "سہ</w>"
    ],
    [
      "روش",
      "نی</w>"
    ],
    [
      "چی",
      "زیں</w>"
    ],
    [
      "ش",
      "اندار</w>"
    ],
    [
      "ح",
      "کام</w>"
    ],
    [
      "‏",
      "وہ</w>"
    ],
    [
      "سر",
      "حد</w>"
    ],
    [
      "199",
      "9</w>"
    ],
    [
      "سی",
      "نٹ</w>"
    ],
    [
      "گ",
      "ا،</w>"
    ],
    [
      "بھی",
      "ج"
    ],
    [
      "کھ",
      "ا</w>"
    ],
    [
      "ز",
      "ک</w>"
    ],
    [
      "کش",
      "ی</w>"
    ],
    [
      "197",
      "0</w>"
    ],
    [
      "ما",
      "ؤ"
    ],
    [
      "حفاظ",
      "ت</w>"
    ],
    [
      "نا",
      "تھ</w>"
    ],
    [
      "فیڈری",
      "شن</w>"
    ],
    [
      "سڑ",
      "ک</w>"
    ],
    [
      ")",
      "۔</w>"
    ],
    [
      "بی",
      "نڈی</w>"
    ],
    [
      "دعوی",
      "ٰ</w>"
    ],
    [
      "حکم",
      "ران</w>"
    ],
    [
      "مح",
      "مد</w>"
    ],
    [
      "مع",
      "روف</w>"
    ],
    [
      "ذ",
      "خی"
    ],
    [
      "فرو",
      "غ</w>"
    ],
    [
      "آ",
      "گ</w>"
    ],
    [
      "تھ",
      "وں</w>"
    ],
    [
      "نڈ",
      "ا</w>"
    ],
    [
      "تر",
      "جی"
    ],
    [
      "آ",
      "ئر"
    ],
    [
      "ب",
      "اری</w>"
    ],
    [
      "مح",
      "ل</w>"
    ],
    [
      "ف",
      "وری</w>"
    ],
    [
      "و",
      "ز"
    ],
    [
      "باوجو",
      "د</w>"
    ],
    [
      "من",
      "اسب</w>"
    ],
    [
      "تا",
      "،</w>"
    ],
    [
      "تی",
      "وں</w>"
    ],
    [
      "افریق",
      "ہ</w>"
    ],
    [
      "اسٹی",
      "ڈیم</w>"
    ],
    [
      "علاق",
      "ائی</w>"
    ],
    [
      "کش",
      "تی</w>"
    ],
    [
      "کھ",
      "اتے</w>"
    ],
    [
      "پ",
      "ٹی"
    ],
    [
      "ج",
      "ت"
    ],
    [
      "س",
      "ور</w>"
    ],
    [
      "گی",
      "ری</w>"
    ],
    [
      "بھ",
      "</w>"
    ],
    [
      "ایوار",
      "ڈز</w>"
    ],
    [
      "ال",
      "ب</w>"
    ],
    [
      "پہا",
      "ڑیوں</w>"
    ],
    [
      "ئ",
      "س</w>"
    ],
    [
      "پوائ",
      "نٹس</w>"
    ],
    [
      "ب",
      "وس"
    ],
    [
      "ان",
      "وا"
    ],
    [
      "الب",
      "م</w>"
    ],
    [
      "نش",
      "ان</w>"
    ],
    [
      "وی",
      "سٹ</w>"
    ],
    [
      "ائی",
      "۔</w>"
    ],
    [
      "7",
      "0</w>"
    ],
    [
      "پیشک",
      "ش</w>"
    ],
    [
      "تش",
      "دد</w>"
    ],
    [
      "د",
      "ان"
    ],
    [
      "یا",
      "فتہ</w>"
    ],
    [
      "س",
      "ہو"
    ],
    [
      "وی",
      "ن"
    ],
    [
      "ای",
      "تھ"
    ],
    [
      "بخ",
      "ار</w>"
    ],
    [
      "اک",
      "بر</w>"
    ],
    [
      "خو",
      "ش"
    ],
    [
      "ثبو",
      "ت</w>"
    ],
    [
      "دھ",
      "ی"
    ],
    [
      "ان",
      "ڈی"
    ],
    [
      "ر",
      "ن"
    ],
    [
      "فو",
      "جی"
    ],
    [
      "ہسپ",
      "تال</w>"
    ],
    [
      "م",
      "انوں</w>"
    ],
    [
      "کش",
      "میر</w>"
    ],
    [
      "دفا",
      "ع</w>"
    ],
    [
      "پڑ",
      "تا</w>"
    ],
    [
      "جی",
      "تا</w>"
    ],
    [
      "من",
      "حص"
    ],
    [
      "قیا",
      "م</w>"
    ],
    [
      "حقی",
      "قی</w>"
    ],
    [
      "س",
      "پر</w>"
    ],
    [
      "مار",
      "کیٹ</w>"
    ],
    [
      "ح",
      "اد"
    ],
    [
      "حاد",
      "ث"
    ],
    [
      "سائ",
      "ز</w>"
    ],
    [
      "تھ",
      "ائی</w>"
    ],
    [
      "پو",
      "چھ"
    ],
    [
      "نص",
      "ف</w>"
    ],
    [
      "شی",
      "ں</w>"
    ],
    [
      "پو",
      "زیشن</w>"
    ],
    [
      "نتی",
      "جہ</w>"
    ],
    [
      "زب",
      "انوں</w>"
    ],
    [
      "ڈائری",
      "کٹر</w>"
    ],
    [
      "م",
      "پی"
    ],
    [
      "پ",
      "ٹ</w>"
    ],
    [
      "ان",
      "وی</w>"
    ],
    [
      "ع",
      "مو"
    ],
    [
      "اس",
      "پورٹس</w>"
    ],
    [
      "تی",
      "ر"
    ],
    [
      "ای",
      "کس</w>"
    ],
    [
      "ح",
      "والے</w>"
    ],
    [
      "ات",
      "نی</w>"
    ],
    [
      "ہو",
      "م</w>"
    ],
    [
      "19",
      "0"
    ],
    [
      "ہ",
      "ال</w>"
    ],
    [
      "پا",
      "ک</w>"
    ],
    [
      "رہی",
      "۔</w>"
    ],
    [
      "سکی",
      "ں۔</w>"
    ],
    [
      "ایس",
      "ٹ</w>"
    ],
    [
      "ا",
      "ڑ"
    ],
    [
      "کر",
      "ش"
    ],
    [
      "مث",
      "بت</w>"
    ],
    [
      "سین",
      "ٹر</w>"
    ],
    [
      "مای",
      "وس</w>"
    ],
    [
      "سلسل",
      "ہ</w>"
    ],
    [
      "ور",
      "ڈ</w>"
    ],
    [
      "مستق",
      "بل</w>"
    ],
    [
      "می",
      "م</w>"
    ],
    [
      "سی",
      "است</w>"
    ],
    [
      "ت",
      "دار</w>"
    ],
    [
      "تص",
      "ور</w>"
    ],
    [
      "جر",
      "من</w>"
    ],
    [
      "قو",
      "ق</w>"
    ],
    [
      "اق",
      "د"
    ],
    [
      "کی",
      "ت</w>"
    ],
    [
      "د",
      "ک"
    ],
    [
      "ح",
      "سا"
    ],
    [
      "بنگ",
      "لہ</w>"
    ],
    [
      "دما",
      "غ</w>"
    ],
    [
      "پریش",
      "ان</w>"
    ],
    [
      "سلط",
      "ان</w>"
    ],
    [
      "کو",
      "ن"
    ],
    [
      "بی",
      "ش"
    ],
    [
      "ح",
      "قوق</w>"
    ],
    [
      "وجو",
      "ہات</w>"
    ],
    [
      "ع",
      "لی"
    ],
    [
      "ال",
      "فا"
    ],
    [
      "منحص",
      "ر</w>"
    ],
    [
      "پھی",
      "ل"
    ],
    [
      "زمر",
      "ہ</w>"
    ],
    [
      "کمیون",
      "ٹی</w>"
    ],
    [
      "تع",
      "ین</w>"
    ],
    [
      "ام",
      "وات</w>"
    ],
    [
      "پو",
      "لو</w>"
    ],
    [
      "کر",
      "ی</w>"
    ],
    [
      "اس",
      "ت"
    ],
    [
      "اند",
      "رونی</w>"
    ],
    [
      "آس",
      "انی</w>"
    ],
    [
      "مو",
      "ض"
    ],
    [
      "ہاؤ",
      "س</w>"
    ],
    [
      "زخ",
      "می</w>"
    ],
    [
      "ذ",
      "یل</w>"
    ],
    [
      "اڈ",
      "ے</w>"
    ],
    [
      "ے",
      ")</w>"
    ],
    [
      "ونڈو",
      "ز</w>"
    ],
    [
      "چ",
      "ند"
    ],
    [
      "ذ",
      "رائ"
    ],
    [
      "کھیل",
      "ا۔</w>"
    ],
    [
      "ز",
      "مانے</w>"
    ],
    [
      "ان",
      "ا"
    ],
    [
      "اداک",
      "ارہ</w>"
    ],
    [
      "ز",
      "از</w>"
    ],
    [
      "سا",
      "ح"
    ],
    [
      "را",
      "تی</w>"
    ],
    [
      "با",
      "ش"
    ],
    [
      "کھ",
      "نڈ</w>"
    ],
    [
      "ری",
      "ٹائ"
    ],
    [
      "پرفار",
      "من"
    ],
    [
      "تھی",
      "ں</w>"
    ],
    [
      "ل",
      "ال</w>"
    ],
    [
      "فی",
      "ئر</w>"
    ],
    [
      "لی",
      "و"
    ],
    [
      "ملا",
      "قات</w>"
    ],
    [
      "بر",
      "ع"
    ],
    [
      "انتظ",
      "امی"
    ],
    [
      "اع",
      "زاز</w>"
    ],
    [
      "تی",
      "سری</w>"
    ],
    [
      "قاب",
      "و</w>"
    ],
    [
      "خ",
      "یر</w>"
    ],
    [
      "ور",
      "،</w>"
    ],
    [
      "گی",
      "،</w>"
    ],
    [
      "ہ",
      "نی</w>"
    ],
    [
      "آ",
      "ب</w>"
    ],
    [
      "تعل",
      "قہ</w>"
    ],
    [
      "چ",
      "رچ</w>"
    ],
    [
      "دلچس",
      "پی</w>"
    ],
    [
      "گر",
      "فتار</w>"
    ],
    [
      "س",
      "ون"
    ],
    [
      "اس",
      "ل"
    ],
    [
      "م",
      "ؤ"
    ],
    [
      "نی",
      "،</w>"
    ],
    [
      "مطال",
      "عہ</w>"
    ],
    [
      "رکھ",
      "تی</w>"
    ],
    [
      "ل",
      "س</w>"
    ],
    [
      "صن",
      "عت</w>"
    ],
    [
      "ہا",
      "تھوں</w>"
    ],
    [
      "چاہ",
      "تا</w>"
    ],
    [
      "ذرائ",
      "ع</w>"
    ],
    [
      "بی",
      "ڈ"
    ],
    [
      "ت",
      "وسیع</w>"
    ],
    [
      "وال",
      "ہ</w>"
    ],
    [
      "ض",
      "ے</w>"
    ],
    [
      "الی",
      "نڈ</w>"
    ],
    [
      "بیش",
      "تر</w>"
    ],
    [
      "منصوب",
      "ے</w>"
    ],
    [
      "دس",
      "تا"
    ],
    [
      "اس",
      "کر"
    ],
    [
      "کر",
      "داروں</w>"
    ],
    [
      "می",
      "زبانی</w>"
    ],
    [
      "لگ",
      "و</w>"
    ],
    [
      "ا",
      "وس"
    ],
    [
      "ئ",
      "ل</w>"
    ],
    [
      "ٹر",
      "انس"
    ],
    [
      "ب",
      "ک</w>"
    ],
    [
      "ل",
      "کش"
    ],
    [
      "عم",
      "لی</w>"
    ],
    [
      "3",
      "1</w>"
    ],
    [
      "با",
      "زی</w>"
    ],
    [
      "پارلی",
      "منٹ</w>"
    ],
    [
      "ٹی",
      "وں</w>"
    ],
    [
      "و",
      "غی"
    ],
    [
      "پی",
      "ن"
    ],
    [
      "بر",
      "ا</w>"
    ],
    [
      "مرح",
      "لے</w>"
    ],
    [
      "نگ",
      "ٹن</w>"
    ],
    [
      "چ",
      "ول</w>"
    ],
    [
      "ہوئی",
      "،</w>"
    ],
    [
      "تر",
      "جم"
    ],
    [
      "کی",
      "ں</w>"
    ],
    [
      "اق",
      "تدار</w>"
    ],
    [
      "واپ",
      "سی</w>"
    ],
    [
      "ہ",
      "ٹ"
    ],
    [
      "جنگ",
      "ی</w>"
    ],
    [
      "در",
      "جے</w>"
    ],
    [
      "ہ",
      "مال"
    ],
    [
      "د",
      "کان</w>"
    ],
    [
      "بن",
      "ائیں</w>"
    ],
    [
      "نی",
      "ں</w>"
    ],
    [
      "اچھ",
      "ے</w>"
    ],
    [
      "وب",
      "ا</w>"
    ],
    [
      "اسٹ",
      "روک</w>"
    ],
    [
      "گ",
      "نا</w>"
    ],
    [
      "در",
      "د</w>"
    ],
    [
      "تر",
      "ک</w>"
    ],
    [
      "ور",
      "م</w>"
    ],
    [
      "اف",
      "واج</w>"
    ],
    [
      "ڑ",
      "ھ</w>"
    ],
    [
      "ذ",
      "یر</w>"
    ],
    [
      "گز",
      "ار"
    ],
    [
      "ا",
      "ز"
    ],
    [
      "ی",
      "ک"
    ],
    [
      "مظاہ",
      "رہ</w>"
    ],
    [
      "199",
      "8</w>"
    ],
    [
      "موسی",
      "ق"
    ],
    [
      "سٹ",
      "ری</w>"
    ],
    [
      "ل",
      "ن</w>"
    ],
    [
      "صوب",
      "ے</w>"
    ],
    [
      "ڈ",
      "ٹ</w>"
    ],
    [
      "ماہ",
      "ی</w>"
    ],
    [
      "ش",
      "اع"
    ],
    [
      "د",
      "ش"
    ],
    [
      "ابتد",
      "ا</w>"
    ],
    [
      "جنگ",
      "ل</w>"
    ],
    [
      "آ",
      "یا۔</w>"
    ],
    [
      "ب",
      "ری</w>"
    ],
    [
      "پاب",
      "ندی</w>"
    ],
    [
      "تخلی",
      "ق</w>"
    ],
    [
      "ک",
      "ور</w>"
    ],
    [
      "پرو",
      "فی"
    ],
    [
      "ل",
      "باس</w>"
    ],
    [
      "تو",
      "ان"
    ],
    [
      "ب",
      "ائ"
    ],
    [
      "کمپ",
      "نیوں</w>"
    ],
    [
      "پی",
      "ری"
    ],
    [
      "برا",
      "بر</w>"
    ],
    [
      "گ",
      "ئے،</w>"
    ],
    [
      "پڑ",
      "ا۔</w>"
    ],
    [
      "انتظامی",
      "ہ</w>"
    ],
    [
      "ف",
      "ض"
    ],
    [
      "را",
      "ک</w>"
    ],
    [
      "2",
      ","
    ],
    [
      "ہو",
      "سکتا</w>"
    ],
    [
      "گھ",
      "ر"
    ],
    [
      "دوس",
      "روں</w>"
    ],
    [
      "اع",
      "ص"
    ],
    [
      "گ",
      "نی"
    ],
    [
      "رہ",
      "تی</w>"
    ],
    [
      "برازی",
      "ل</w>"
    ],
    [
      "بال",
      "آخر</w>"
    ],
    [
      "کر",
      "ایا</w>"
    ],
    [
      "چ",
      "ن</w>"
    ],
    [
      "وا",
      "ہ"
    ],
    [
      "الفا",
      "ظ</w>"
    ],
    [
      "ب",
      "لا"
    ],
    [
      "ک",
      "ش</w>"
    ],
    [
      "کپڑ",
      "ے</w>"
    ],
    [
      "م",
      "فت</w>"
    ],
    [
      "کی",
      "و</w>"
    ],
    [
      "با",
      "ضابطہ</w>"
    ],
    [
      "شہ",
      "ن"
    ],
    [
      "تی",
      "اری</w>"
    ],
    [
      "دی",
      "نا</w>"
    ],
    [
      "ہ",
      "می</w>"
    ],
    [
      "س",
      "زا</w>"
    ],
    [
      "فی",
      "ل"
    ],
    [
      "د",
      "با"
    ],
    [
      "ار",
      "د</w>"
    ],
    [
      "چ",
      "لا"
    ],
    [
      "حسا",
      "ب</w>"
    ],
    [
      "گ",
      "ان</w>"
    ],
    [
      "سنڈ",
      "روم</w>"
    ],
    [
      "موجو",
      "دگی</w>"
    ],
    [
      "بھ",
      "ا</w>"
    ],
    [
      "ہا",
      "،</w>"
    ],
    [
      "سنبھ",
      "ال"
    ],
    [
      "ع",
      "دم</w>"
    ],
    [
      "ری",
      "ٹ</w>"
    ],
    [
      "خ",
      "وب"
    ],
    [
      "ہف",
      "توں</w>"
    ],
    [
      "پن",
      "چ"
    ],
    [
      "مو",
      "ٹر</w>"
    ],
    [
      "تھ",
      "را"
    ],
    [
      "اف",
      "غ"
    ],
    [
      "%",
      "</w>"
    ],
    [
      "گئی",
      "،</w>"
    ],
    [
      "شرو",
      "عات</w>"
    ],
    [
      "آ",
      "ئے۔</w>"
    ],
    [
      "ری",
      "اں</w>"
    ],
    [
      "پری",
      "س</w>"
    ],
    [
      "اد",
      "ے</w>"
    ],
    [
      "لی",
      "نا</w>"
    ],
    [
      "مل",
      "کیت</w>"
    ],
    [
      "میو",
      "زک</w>"
    ],
    [
      "و",
      "جے</w>"
    ],
    [
      "لکھ",
      "ے</w>"
    ],
    [
      "آر",
      "ٹ</w>"
    ],
    [
      "اش",
      "یا</w>"
    ],
    [
      "ٹ",
      "منٹ</w>"
    ],
    [
      "د",
      "روا"
    ],
    [
      "رکھ",
      "ا۔</w>"
    ],
    [
      "ح",
      "وں</w>"
    ],
    [
      "عر",
      "ب</w>"
    ],
    [
      "د",
      "ان</w>"
    ],
    [
      "سر",
      "پر"
    ],
    [
      "س",
      "ائی</w>"
    ],
    [
      "مس",
      "تقل</w>"
    ],
    [
      "و",
      "ٔ"
    ],
    [
      "پر",
      "انے</w>"
    ],
    [
      "کمی",
      "ٹی</w>"
    ],
    [
      "انی",
      "،</w>"
    ],
    [
      "آر",
      "ٹس</w>"
    ],
    [
      "ف",
      "ٹ"
    ],
    [
      "می",
      "کسی"
    ],
    [
      "ما",
      "حو"
    ],
    [
      "پرفارمن",
      "س</w>"
    ],
    [
      "رو",
      "ڈ</w>"
    ],
    [
      "میل",
      ")</w>"
    ],
    [
      "وی",
      "ن</w>"
    ],
    [
      "ح",
      "والہ</w>"
    ],
    [
      "دو",
      "لت</w>"
    ],
    [
      "دو",
      "ڑ</w>"
    ],
    [
      "بل",
      "ند</w>"
    ],
    [
      "ت",
      "ور</w>"
    ],
    [
      "ل",
      "ار"
    ],
    [
      "در",
      "خت</w>"
    ],
    [
      "گز",
      "شتہ</w>"
    ],
    [
      "بی",
      "ما"
    ],
    [
      "کی",
      "رو"
    ],
    [
      "کم",
      "زور</w>"
    ],
    [
      "دی",
      "اں</w>"
    ],
    [
      "دا",
      "شت</w>"
    ],
    [
      "سر",
      "براہ</w>"
    ],
    [
      "دی",
      "ہی</w>"
    ],
    [
      "اف",
      "ٹ</w>"
    ],
    [
      "کر",
      "ا</w>"
    ],
    [
      "و",
      "صول</w>"
    ],
    [
      "انس",
      "انوں</w>"
    ],
    [
      "محکم",
      "ہ</w>"
    ],
    [
      "بھگو",
      "ان</w>"
    ],
    [
      "یو",
      "م</w>"
    ],
    [
      "ہ",
      "میں</w>"
    ],
    [
      "نگ",
      "ل</w>"
    ],
    [
      "ہو",
      "لی</w>"
    ],
    [
      "پہنچ",
      "ا</w>"
    ],
    [
      "یو",
      "گا</w>"
    ],
    [
      "دھ",
      "ی</w>"
    ],
    [
      "کار",
      "رو"
    ],
    [
      "ق",
      "در</w>"
    ],
    [
      "بن",
      "اتے</w>"
    ],
    [
      "کو",
      "ار"
    ],
    [
      "ت",
      "باد"
    ],
    [
      "آ",
      "ندھ"
    ],
    [
      "پ",
      "اس"
    ],
    [
      "ش",
      "مو"
    ],
    [
      "ہے",
      ".</w>"
    ],
    [
      "ف",
      "ہ</w>"
    ],
    [
      "بی",
      "ٹھ"
    ],
    [
      "جمہو",
      "ریہ</w>"
    ],
    [
      "ور",
      "انہ</w>"
    ],
    [
      "انتظ",
      "ار</w>"
    ],
    [
      "ماحو",
      "لی"
    ],
    [
      "حکم",
      "رانی</w>"
    ],
    [
      "پ",
      "ذیر</w>"
    ],
    [
      "و",
      "ط"
    ],
    [
      "بھ",
      "اری</w>"
    ],
    [
      "جن",
      "م</w>"
    ],
    [
      "ری",
      "ڈیو</w>"
    ],
    [
      "ادو",
      "یات</w>"
    ],
    [
      "ملا",
      "ز"
    ],
    [
      "ی",
      "کم</w>"
    ],
    [
      "تی",
      "لگو</w>"
    ],
    [
      "انوا",
      "ع</w>"
    ],
    [
      "امری",
      "کا</w>"
    ],
    [
      "اد",
      "ب</w>"
    ],
    [
      "بال",
      "ی</w>"
    ],
    [
      "سی",
      "وں</w>"
    ],
    [
      "ور",
      "ا</w>"
    ],
    [
      "اندا",
      "زہ</w>"
    ],
    [
      "فور",
      "ڈ</w>"
    ],
    [
      "ن",
      "ہیں۔</w>"
    ],
    [
      "ان",
      "فرا"
    ],
    [
      "ج",
      "مع"
    ],
    [
      "اسکری",
      "ن</w>"
    ],
    [
      "ہند",
      "و"
    ],
    [
      "پ",
      "اور</w>"
    ],
    [
      "پ",
      "نگ</w>"
    ],
    [
      "مقاب",
      "لوں</w>"
    ],
    [
      "ٹی",
      "میں</w>"
    ],
    [
      "ت",
      "یہ</w>"
    ],
    [
      "شہن",
      "شاہ</w>"
    ],
    [
      "گیا",
      "۔‏</w>"
    ],
    [
      "خد",
      "مت</w>"
    ],
    [
      "آ",
      "ز"
    ],
    [
      "عہ",
      "دے</w>"
    ],
    [
      "گر",
      "و</w>"
    ],
    [
      "ک",
      "نڈ"
    ],
    [
      "ڈ",
      "ال</w>"
    ],
    [
      "پلی",
      "ٹ</w>"
    ],
    [
      "ٹ",
      "اپ</w>"
    ],
    [
      "الینو",
      "ائے</w>"
    ],
    [
      "چ",
      "ن"
    ],
    [
      "کرش",
      "نا</w>"
    ],
    [
      "ق",
      "س"
    ],
    [
      "لو",
      "ن</w>"
    ],
    [
      "علی",
      "ح"
    ],
    [
      "م",
      "س</w>"
    ],
    [
      "سن",
      "سکر"
    ],
    [
      "وق",
      "ف</w>"
    ],
    [
      "تا",
      "زہ</w>"
    ],
    [
      "شمو",
      "لیت</w>"
    ],
    [
      "ج",
      "را"
    ],
    [
      "کا",
      "ٹ</w>"
    ],
    [
      "من",
      "فی</w>"
    ],
    [
      "سا",
      "زی</w>"
    ],
    [
      "چ",
      "اول</w>"
    ],
    [
      "آبش",
      "ار</w>"
    ],
    [
      "کاؤنٹی",
      "،</w>"
    ],
    [
      "س",
      "را"
    ],
    [
      "ای",
      "شیائی</w>"
    ],
    [
      "ح",
      "یات</w>"
    ],
    [
      "ق",
      "دم</w>"
    ],
    [
      "بن",
      "انا</w>"
    ],
    [
      "3",
      "5</w>"
    ],
    [
      "ام",
      "و"
    ],
    [
      "اح",
      "اط"
    ],
    [
      "ج",
      "ز"
    ],
    [
      "کل",
      "وں</w>"
    ],
    [
      "ش",
      "ری</w>"
    ],
    [
      "و",
      "اس"
    ],
    [
      "جان",
      "ور</w>"
    ],
    [
      "تب",
      "ہ</w>"
    ],
    [
      "تنظ",
      "ی"
    ],
    [
      "تی",
      "ل</w>"
    ],
    [
      "بن",
      "اتا</w>"
    ],
    [
      "می",
      "گھ"
    ],
    [
      "ال",
      "یہ</w>"
    ],
    [
      "ال",
      "حال</w>"
    ],
    [
      "ع",
      "ط"
    ],
    [
      "رس",
      "می</w>"
    ],
    [
      "196",
      "0</w>"
    ],
    [
      "ہ",
      "ن"
    ],
    [
      "و",
      "زن</w>"
    ],
    [
      "ف",
      "اؤ"
    ],
    [
      "روای",
      "ات</w>"
    ],
    [
      "بی",
      "ر</w>"
    ],
    [
      "توان",
      "ائی</w>"
    ],
    [
      "کری",
      "ڈٹ</w>"
    ],
    [
      "با",
      "کس"
    ],
    [
      "سائی",
      "کل</w>"
    ],
    [
      "زی",
      "ب</w>"
    ],
    [
      "ل",
      "اس</w>"
    ],
    [
      "یا",
      "دگ"
    ],
    [
      "حال",
      "یہ</w>"
    ],
    [
      "پ",
      "تی</w>"
    ],
    [
      "ار",
      "ٹ</w>"
    ],
    [
      "ن",
      "اف"
    ],
    [
      "سور",
      "ج</w>"
    ],
    [
      "تصا",
      "ویر</w>"
    ],
    [
      "بلی",
      "ک</w>"
    ],
    [
      "ری",
      "ٹی"
    ],
    [
      "تنظ",
      "یم</w>"
    ],
    [
      "ف",
      "لی"
    ],
    [
      "گ",
      "،</w>"
    ],
    [
      "غ",
      "صہ</w>"
    ],
    [
      "م",
      "ری</w>"
    ],
    [
      "پ",
      "ٹھ"
    ],
    [
      "قب",
      "ہ</w>"
    ],
    [
      "کم",
      "ائی</w>"
    ],
    [
      "گ",
      "م</w>"
    ],
    [
      "بند",
      "ر"
    ],
    [
      "مشور",
      "ہ</w>"
    ],
    [
      "ن",
      "ہر"
    ],
    [
      "ذخی",
      "رہ</w>"
    ],
    [
      "ارا",
      "کین</w>"
    ],
    [
      "خاند",
      "انی</w>"
    ],
    [
      "ٹی",
      "کن"
    ],
    [
      "جا",
      "پانی</w>"
    ],
    [
      "پوس",
      "ٹ</w>"
    ],
    [
      "حفاظ",
      "تی</w>"
    ],
    [
      "س",
      "ک</w>"
    ],
    [
      "تو",
      "ڑ</w>"
    ],
    [
      "لک",
      "ڑی</w>"
    ],
    [
      "در",
      "ست</w>"
    ],
    [
      "ل",
      "دا"
    ],
    [
      "199",
      "6</w>"
    ],
    [
      "پی",
      "ٹ</w>"
    ],
    [
      "194",
      "7</w>"
    ],
    [
      "پھ",
      "یل</w>"
    ],
    [
      "ش",
      "ام</w>"
    ],
    [
      "ب",
      "لو"
    ],
    [
      "ر",
      "ہیں۔</w>"
    ],
    [
      "کی",
      "و"
    ],
    [
      "ہو",
      "ں،</w>"
    ],
    [
      "بی",
      "کٹی"
    ],
    [
      "پرت",
      "گ"
    ],
    [
      "عقی",
      "دت</w>"
    ],
    [
      "کھیل",
      "تے</w>"
    ],
    [
      "س",
      "کو"
    ],
    [
      "خی",
      "ز</w>"
    ],
    [
      "چل",
      "نے</w>"
    ],
    [
      "سیا",
      "ہ</w>"
    ],
    [
      "اسٹ",
      "ار</w>"
    ],
    [
      "ن",
      "ف"
    ],
    [
      "ل",
      "م</w>"
    ],
    [
      "ک",
      "ال</w>"
    ],
    [
      "ف",
      "ک</w>"
    ],
    [
      "رو",
      "س</w>"
    ],
    [
      "آن",
      "کھ</w>"
    ],
    [
      "عی",
      "ن</w>"
    ],
    [
      "ہے",
      ":</w>"
    ],
    [
      "ض",
      "م</w>"
    ],
    [
      "جو",
      "ش</w>"
    ],
    [
      "سائ",
      "نس</w>"
    ],
    [
      "ہف",
      "تہ</w>"
    ],
    [
      "ر",
      "شتہ</w>"
    ],
    [
      "و",
      "تی</w>"
    ],
    [
      "اع",
      "ی</w>"
    ],
    [
      "کی",
      "ں۔</w>"
    ],
    [
      "199",
      "2</w>"
    ],
    [
      "سرگر",
      "میوں</w>"
    ],
    [
      "بح",
      "ث</w>"
    ],
    [
      "اڈ",
      "ہ</w>"
    ],
    [
      "ہیں",
      ":</w>"
    ],
    [
      "ج",
      "ون"
    ],
    [
      "جاسک",
      "تا</w>"
    ],
    [
      "پرا",
      "گ</w>"
    ],
    [
      "مار",
      "ک</w>"
    ],
    [
      "معاہ",
      "دہ</w>"
    ],
    [
      "بڑھ",
      "انے</w>"
    ],
    [
      "فیص",
      "لے</w>"
    ],
    [
      "انفرا",
      "دی</w>"
    ],
    [
      "گ",
      "لی"
    ],
    [
      "لی",
      "تا</w>"
    ],
    [
      "جزی",
      "رہ</w>"
    ],
    [
      "اد",
      "ارے</w>"
    ],
    [
      "تھ",
      "ک</w>"
    ],
    [
      "کو",
      "ریا</w>"
    ],
    [
      "آ",
      "بی</w>"
    ],
    [
      "پ",
      "ُ"
    ],
    [
      "ام",
      "ا</w>"
    ],
    [
      "پور",
      "ہ</w>"
    ],
    [
      "عو",
      "ام</w>"
    ],
    [
      "جی",
      "ل</w>"
    ],
    [
      "رکھ",
      "ے</w>"
    ],
    [
      "ک",
      "پور</w>"
    ],
    [
      "وی",
      "د"
    ],
    [
      "ڈی",
      "مو"
    ],
    [
      "کل",
      "ائ"
    ],
    [
      "گلو",
      "کار</w>"
    ],
    [
      "نوا",
      "زا</w>"
    ],
    [
      "لدا",
      "خ</w>"
    ],
    [
      "اکی",
      "ڈ"
    ],
    [
      "ا",
      "ری"
    ],
    [
      "شری",
      "ک</w>"
    ],
    [
      "پ",
      "ٹی</w>"
    ],
    [
      "گ",
      "رین</w>"
    ],
    [
      ".",
      "5</w>"
    ],
    [
      "فائ",
      "ل</w>"
    ],
    [
      "سی",
      "کھ"
    ],
    [
      "کت",
      "نی</w>"
    ],
    [
      "پو",
      "دوں</w>"
    ],
    [
      "س",
      "انس</w>"
    ],
    [
      "ویکسی",
      "ن</w>"
    ],
    [
      "نا",
      "قابل</w>"
    ],
    [
      "پ",
      "انے</w>"
    ],
    [
      "اش",
      "ارہ</w>"
    ],
    [
      "مسئ",
      "لہ</w>"
    ],
    [
      "عم",
      "ارت</w>"
    ],
    [
      "آد",
      "می</w>"
    ],
    [
      "گرو",
      "ہوں</w>"
    ],
    [
      "سک",
      "م</w>"
    ],
    [
      "جو",
      "ڑ"
    ],
    [
      "بن",
      "تا</w>"
    ],
    [
      "او",
      "کلا"
    ],
    [
      "آ",
      "رام</w>"
    ],
    [
      "خ",
      "بر</w>"
    ],
    [
      "فور",
      "اً</w>"
    ],
    [
      "گڑ",
      "ھ"
    ],
    [
      "مطال",
      "بہ</w>"
    ],
    [
      "پان",
      "چ"
    ],
    [
      "پرو",
      "جیکٹ</w>"
    ],
    [
      "دکھ",
      "ائی</w>"
    ],
    [
      "تب",
      "ص"
    ],
    [
      "ل",
      "ک</w>"
    ],
    [
      "ز",
      "را"
    ],
    [
      "ح",
      "ہ</w>"
    ],
    [
      "عم",
      "ار"
    ],
    [
      "ری",
      "کار"
    ],
    [
      "ع",
      "د</w>"
    ],
    [
      "ح",
      "امل</w>"
    ],
    [
      "ع",
      "رو"
    ],
    [
      "ل",
      "انے</w>"
    ],
    [
      "گو",
      "ا</w>"
    ],
    [
      "ی",
      "ہو"
    ],
    [
      "جر",
      "م</w>"
    ],
    [
      "لی",
      "ل</w>"
    ],
    [
      "تن",
      "قید</w>"
    ],
    [
      "ام",
      "ت"
    ],
    [
      "میو",
      "زی"
    ],
    [
      "فوجی",
      "وں</w>"
    ],
    [
      "نی",
      "م</w>"
    ],
    [
      "ن",
      "دیوں</w>"
    ],
    [
      "ال",
      "وں</w>"
    ],
    [
      "فی",
      "ک"
    ],
    [
      "کو",
      "ری"
    ],
    [
      "کارپوری",
      "شن</w>"
    ],
    [
      "من",
      "تق"
    ],
    [
      "چ",
      "لی</w>"
    ],
    [
      "الی",
      "کٹر"
    ],
    [
      "مار",
      "نے</w>"
    ],
    [
      "ر",
      "ائی"
    ],
    [
      "لی",
      "ہ</w>"
    ],
    [
      "ت",
      "خت</w>"
    ],
    [
      "ر",
      "ض"
    ],
    [
      "رہ",
      "نما</w>"
    ],
    [
      "امی",
      "دو"
    ],
    [
      "ن",
      "کل</w>"
    ],
    [
      "م",
      "بی"
    ],
    [
      "ہو",
      "گا</w>"
    ],
    [
      "حکم",
      "ر"
    ],
    [
      "بن",
      "تی</w>"
    ],
    [
      "م",
      "در"
    ],
    [
      "جنگ",
      "لی</w>"
    ],
    [
      "گر",
      "ما</w>"
    ],
    [
      "ع",
      "نو"
    ],
    [
      "رک",
      "او"
    ],
    [
      "تخ",
      "می"
    ],
    [
      "ب",
      "ائل</w>"
    ],
    [
      "من",
      "اتے</w>"
    ],
    [
      "سیک",
      "نڈ</w>"
    ],
    [
      "لا",
      "گ"
    ],
    [
      "ز",
      "بر"
    ],
    [
      "ٹائ",
      "ٹل</w>"
    ],
    [
      "سا",
      "دہ</w>"
    ],
    [
      "د",
      "ائیں</w>"
    ],
    [
      "وا",
      "جی</w>"
    ],
    [
      "ب",
      "نے</w>"
    ],
    [
      "تھی",
      "وں</w>"
    ],
    [
      "لی",
      "ف</w>"
    ],
    [
      "اص",
      "لا"
    ],
    [
      "لہذ",
      "ا</w>"
    ],
    [
      "وی",
      "ٹ</w>"
    ],
    [
      "م",
      "انا</w>"
    ],
    [
      "سنسکر",
      "ت</w>"
    ],
    [
      "تع",
      "لی"
    ],
    [
      "فی",
      "سٹی"
    ],
    [
      "چ",
      "ر"
    ],
    [
      "پ",
      "ک</w>"
    ],
    [
      "رہ",
      "ائش</w>"
    ],
    [
      "ما",
      "ضی</w>"
    ],
    [
      "سر",
      "چ</w>"
    ],
    [
      "را",
      "ؤنڈ</w>"
    ],
    [
      "ہے",
      "!</w>"
    ],
    [
      "پ",
      "کو"
    ],
    [
      "تھ",
      "ر"
    ],
    [
      "ہو",
      "سکتی</w>"
    ],
    [
      "دی",
      "دہ</w>"
    ],
    [
      "نیوی",
      "ارک</w>"
    ],
    [
      "کی",
      "پر</w>"
    ],
    [
      "دوست",
      "وں</w>"
    ],
    [
      "ہ",
      "تھ"
    ],
    [
      "مار",
      "ا</w>"
    ],
    [
      "اق",
      "تصا"
    ],
    [
      "خوا",
      "ہ</w>"
    ],
    [
      "جان",
      "تے</w>"
    ],
    [
      "تھی",
      "ٹر</w>"
    ],
    [
      "ای",
      "و"
    ],
    [
      "ا",
      "مین</w>"
    ],
    [
      "حص",
      "ار</w>"
    ],
    [
      "خا",
      "تم"
    ],
    [
      "م",
      "راد</w>"
    ],
    [
      "اش",
      "ی</w>"
    ],
    [
      "چھ",
      "ٹی</w>"
    ],
    [
      "عار",
      "ضی</w>"
    ],
    [
      "وی",
      "ت</w>"
    ],
    [
      "ل",
      "انگ</w>"
    ],
    [
      "شو",
      "ہر</w>"
    ],
    [
      "برا",
      "دری</w>"
    ],
    [
      "ٹھ",
      "ی</w>"
    ],
    [
      "ری",
      "ست"
    ],
    [
      "تفص",
      "ی"
    ],
    [
      "دور",
      "ے</w>"
    ],
    [
      "شن",
      "،</w>"
    ],
    [
      "ساح",
      "لی</w>"
    ],
    [
      "ن",
      "م</w>"
    ],
    [
      "س",
      "کھ</w>"
    ],
    [
      "مہ",
      "ارت</w>"
    ],
    [
      "نش",
      "انہ</w>"
    ],
    [
      "مہی",
      "نوں</w>"
    ],
    [
      "ک",
      "اموں</w>"
    ],
    [
      "صور",
      "تح"
    ],
    [
      "و",
      "نگ</w>"
    ],
    [
      "لم",
      "بی</w>"
    ],
    [
      "وغی",
      "رہ</w>"
    ],
    [
      "ہ",
      "ل</w>"
    ],
    [
      "ٹیکن",
      "الو"
    ],
    [
      "ال",
      "م</w>"
    ],
    [
      "ش",
      "اپ"
    ],
    [
      "4",
      "5</w>"
    ],
    [
      "رق",
      "اص"
    ],
    [
      "کیل",
      "نڈر</w>"
    ],
    [
      "ان",
      "ک</w>"
    ],
    [
      "پ",
      "انڈ"
    ],
    [
      "بیل",
      "جی"
    ],
    [
      "سو",
      "نے</w>"
    ],
    [
      "ریست",
      "ور"
    ],
    [
      "آئ",
      "س</w>"
    ],
    [
      "یون",
      "ائی"
    ],
    [
      "ک",
      "نی"
    ],
    [
      "ائ",
      "ے۔</w>"
    ],
    [
      "خری",
      "د</w>"
    ],
    [
      "مسل",
      "مان</w>"
    ],
    [
      "0",
      "-"
    ],
    [
      "کی",
      "تھ"
    ],
    [
      "اس",
      "ٹر"
    ],
    [
      "س",
      "ارے</w>"
    ],
    [
      "پھی",
      "پھ"
    ],
    [
      "بہ",
      "ن</w>"
    ],
    [
      "199",
      "5</w>"
    ],
    [
      "موا",
      "ز"
    ],
    [
      "چ",
      "ہرے</w>"
    ],
    [
      "بی",
      "رونی</w>"
    ],
    [
      "ڈیمو",
      "کری"
    ],
    [
      "آن",
      "کھوں</w>"
    ],
    [
      "را",
      "گ</w>"
    ],
    [
      "جن",
      "س</w>"
    ],
    [
      "او",
      "پری</w>"
    ],
    [
      "ان",
      "سٹ"
    ],
    [
      "مست",
      "حکم</w>"
    ],
    [
      "دست",
      "خط</w>"
    ],
    [
      "با",
      "ز</w>"
    ],
    [
      "راج",
      "پو"
    ],
    [
      "ل",
      "ق"
    ],
    [
      "سند",
      "ھ</w>"
    ],
    [
      "تع",
      "اون</w>"
    ],
    [
      "بح",
      "ال</w>"
    ],
    [
      "ر",
      "د"
    ],
    [
      "گ",
      "ے،</w>"
    ],
    [
      "ار",
      "کان</w>"
    ],
    [
      "ہیں",
      "؟</w>"
    ],
    [
      "آندھ",
      "را</w>"
    ],
    [
      "معی",
      "شت</w>"
    ],
    [
      "صورتح",
      "ال</w>"
    ],
    [
      "چ",
      "ائی</w>"
    ],
    [
      "چو",
      "ٹی</w>"
    ],
    [
      "طاق",
      "تور</w>"
    ],
    [
      "ز",
      "دہ</w>"
    ],
    [
      "بادشاہ",
      "وں</w>"
    ],
    [
      "ہی",
      "ڈ</w>"
    ],
    [
      "ث",
      "ار</w>"
    ],
    [
      "ف",
      "لا"
    ],
    [
      "ترجی",
      "ح</w>"
    ],
    [
      "مو",
      "بائل</w>"
    ],
    [
      "گی",
      "س</w>"
    ],
    [
      "باقاع",
      "دہ</w>"
    ],
    [
      "د",
      "عو"
    ],
    [
      "اع",
      "تما"
    ],
    [
      "را",
      "ہ</w>"
    ],
    [
      "ص",
      "غیر</w>"
    ],
    [
      "سو",
      "ار</w>"
    ],
    [
      "م",
      "تی</w>"
    ],
    [
      "اسکو",
      "لوں</w>"
    ],
    [
      "ٹر",
      "وں</w>"
    ],
    [
      "ٹھ",
      "ا</w>"
    ],
    [
      "جائ",
      "زہ</w>"
    ],
    [
      "مجمو",
      "عہ</w>"
    ],
    [
      "منتق",
      "لی</w>"
    ],
    [
      "ال",
      "ٹی</w>"
    ],
    [
      "س",
      "کو</w>"
    ],
    [
      "حی",
      "در</w>"
    ],
    [
      "یونائی",
      "ٹڈ</w>"
    ],
    [
      "اتح",
      "اد</w>"
    ],
    [
      "کوش",
      "شوں</w>"
    ],
    [
      "ن",
      "ے"
    ],
    [
      "تی",
      "س</w>"
    ],
    [
      "چی",
      "ت</w>"
    ],
    [
      "تھی",
      "ں،</w>"
    ],
    [
      "نی",
      "ل</w>"
    ],
    [
      "بو",
      "لیت</w>"
    ],
    [
      "رسو",
      "مات</w>"
    ],
    [
      "اع",
      "ترا"
    ],
    [
      "چی",
      "مپی"
    ],
    [
      "اگ",
      "لی</w>"
    ],
    [
      "گی",
      "وں</w>"
    ],
    [
      "راس",
      "تہ</w>"
    ],
    [
      "ج",
      "ری</w>"
    ],
    [
      "لو",
      "م</w>"
    ],
    [
      "ع",
      "ص"
    ],
    [
      "نیو",
      "ز</w>"
    ],
    [
      "وا",
      "ش"
    ],
    [
      "سی",
      "س</w>"
    ],
    [
      "وی",
      "کی"
    ],
    [
      "ف",
      "،</w>"
    ],
    [
      "س",
      "فار"
    ],
    [
      "شی",
      "ر</w>"
    ],
    [
      "7",
      "5</w>"
    ],
    [
      "دبا",
      "ؤ</w>"
    ],
    [
      "ج",
      "یا</w>"
    ],
    [
      "زر",
      "عی</w>"
    ],
    [
      "195",
      "0</w>"
    ],
    [
      "اد",
      "اروں</w>"
    ],
    [
      "ما",
      "ح"
    ],
    [
      "چ",
      "نئی</w>"
    ],
    [
      "راب",
      "طے</w>"
    ],
    [
      "ہو",
      "ٹل</w>"
    ],
    [
      "کی",
      "س</w>"
    ],
    [
      "مائیکر",
      "وس"
    ],
    [
      "فال",
      "ج</w>"
    ],
    [
      "18",
      "5"
    ],
    [
      "بھی",
      "ج</w>"
    ],
    [
      "مغ",
      "لوں</w>"
    ],
    [
      "بڑھ",
      "تی</w>"
    ],
    [
      "ان",
      "و</w>"
    ],
    [
      "باوجو",
      "د،</w>"
    ],
    [
      "بر",
      "صغیر</w>"
    ],
    [
      "گو",
      "ل"
    ],
    [
      "اس",
      "لام</w>"
    ],
    [
      "مصن",
      "ف</w>"
    ],
    [
      "مت",
      "وقع</w>"
    ],
    [
      "بی",
      "لے</w>"
    ],
    [
      "بنگ",
      "الی</w>"
    ],
    [
      "پ",
      "س"
    ],
    [
      "رو",
      "مان"
    ],
    [
      "خصوص",
      "یت</w>"
    ],
    [
      "مع",
      "نی</w>"
    ],
    [
      "رکھ",
      "نا</w>"
    ],
    [
      "کی",
      "ن"
    ],
    [
      "ند",
      "ا</w>"
    ],
    [
      "ج",
      "ایا</w>"
    ],
    [
      "ہ",
      "ڈی</w>"
    ],
    [
      "با",
      "تی</w>"
    ],
    [
      "پ",
      "ون"
    ],
    [
      "گو",
      "لی</w>"
    ],
    [
      "نار",
      "ائن</w>"
    ],
    [
      "کر",
      "ای"
    ],
    [
      "حکم",
      "ت</w>"
    ],
    [
      "ان",
      "حصار</w>"
    ],
    [
      "احت",
      "جا"
    ],
    [
      "بن",
      "ایا۔</w>"
    ],
    [
      "بر",
      "دار</w>"
    ],
    [
      "پہ",
      "لو"
    ],
    [
      "تر",
      "میم</w>"
    ],
    [
      "ای",
      "م"
    ],
    [
      "ول",
      "ک</w>"
    ],
    [
      "میکسی",
      "کو</w>"
    ],
    [
      "کی",
      "می"
    ],
    [
      "ٹیکس",
      "اس</w>"
    ],
    [
      "فل",
      "میں</w>"
    ],
    [
      "مت",
      "ن</w>"
    ],
    [
      "آس",
      "ام</w>"
    ],
    [
      "کی",
      "۔‏</w>"
    ],
    [
      "ع",
      "ائد</w>"
    ],
    [
      "دی",
      "ے۔</w>"
    ],
    [
      "ہو",
      "،</w>"
    ],
    [
      "سا",
      "ں</w>"
    ],
    [
      "اکیڈ",
      "می</w>"
    ],
    [
      "ناف",
      "ذ</w>"
    ],
    [
      "سو",
      "ل</w>"
    ],
    [
      "ڈرام",
      "ہ</w>"
    ],
    [
      "غل",
      "طی</w>"
    ],
    [
      "ڈ",
      "ول</w>"
    ],
    [
      "ماح",
      "ول</w>"
    ],
    [
      "تا",
      "خیر</w>"
    ],
    [
      "ماحولی",
      "اتی</w>"
    ],
    [
      "ی",
      "ارک</w>"
    ],
    [
      "تھرا",
      "پی</w>"
    ],
    [
      "گھنٹ",
      "ہ</w>"
    ],
    [
      "کی",
      "نٹ"
    ],
    [
      "اوکلا",
      "ہو"
    ],
    [
      "ال",
      "،</w>"
    ],
    [
      "سنی",
      "ما</w>"
    ],
    [
      "ما",
      "دہ</w>"
    ],
    [
      "بڑھ",
      "ا</w>"
    ],
    [
      "ات",
      "ار</w>"
    ],
    [
      "زا",
      "ج</w>"
    ],
    [
      "اہ",
      "ل"
    ],
    [
      "ق",
      "د"
    ],
    [
      "ا",
      "چان"
    ],
    [
      "ہنگ",
      "امی</w>"
    ],
    [
      "دی",
      "پ</w>"
    ],
    [
      "گری",
      "ٹ</w>"
    ],
    [
      "مان",
      "سون</w>"
    ],
    [
      "عم",
      "لے</w>"
    ],
    [
      "زرا",
      "عت</w>"
    ],
    [
      "باز",
      "ار</w>"
    ],
    [
      "مواز",
      "نہ</w>"
    ],
    [
      "ف",
      "ائیڈ</w>"
    ],
    [
      "بر",
      "ٹ</w>"
    ],
    [
      "ف",
      "یہ</w>"
    ],
    [
      "ب",
      "ص"
    ],
    [
      "می",
      "ڈی"
    ],
    [
      "ہی",
      "ل"
    ],
    [
      "ئ",
      "نز</w>"
    ],
    [
      "ج",
      "د</w>"
    ],
    [
      "ساب",
      "قہ</w>"
    ],
    [
      "اہ",
      "تمام</w>"
    ],
    [
      "دیو",
      "تا"
    ],
    [
      "نہر",
      "و</w>"
    ],
    [
      "نیو",
      "زی</w>"
    ],
    [
      "نگ",
      "و"
    ],
    [
      "بچ",
      "نے</w>"
    ],
    [
      "ن",
      "ہ"
    ],
    [
      "ان",
      "عق"
    ],
    [
      "انعق",
      "اد</w>"
    ],
    [
      "تھ",
      "ن</w>"
    ],
    [
      "لڑ",
      "کی</w>"
    ],
    [
      "ل",
      "ط"
    ],
    [
      "پور",
      "،</w>"
    ],
    [
      "انس",
      "ان</w>"
    ],
    [
      "مل",
      "تے</w>"
    ],
    [
      "ٹی",
      "ں</w>"
    ],
    [
      "معی",
      "اری</w>"
    ],
    [
      "من",
      "فرد</w>"
    ],
    [
      "لا",
      "ز"
    ],
    [
      "ائ",
      "ٹ</w>"
    ],
    [
      "فلو",
      "ری"
    ],
    [
      "ار",
      "جن"
    ],
    [
      "ک",
      "ب"
    ],
    [
      "ای",
      "ریا</w>"
    ],
    [
      "غ",
      "اروں</w>"
    ],
    [
      "ڈیل",
      "ٹا</w>"
    ],
    [
      "مقد",
      "مہ</w>"
    ],
    [
      "م",
      "انی</w>"
    ],
    [
      "ک",
      "سٹ"
    ],
    [
      "ج",
      "من"
    ],
    [
      "ای",
      "نی"
    ],
    [
      "ات",
      "را"
    ],
    [
      "نگ",
      "رانی</w>"
    ],
    [
      "تیسر",
      "ا</w>"
    ],
    [
      "نام",
      "وں</w>"
    ],
    [
      "چٹ",
      "ان</w>"
    ],
    [
      "ائی",
      "و</w>"
    ],
    [
      "س",
      "لو"
    ],
    [
      "کو",
      "الی"
    ],
    [
      "آ",
      "ثار</w>"
    ],
    [
      "ڈ",
      "اؤن</w>"
    ],
    [
      "مائیکروس",
      "افٹ</w>"
    ],
    [
      "لی",
      "تی</w>"
    ],
    [
      "پر",
      "انی</w>"
    ],
    [
      "2",
      "-"
    ],
    [
      "ر",
      "ح"
    ],
    [
      "1",
      "-"
    ],
    [
      "گاہ",
      "وں</w>"
    ],
    [
      "دستا",
      "وی"
    ],
    [
      "ت",
      "لا</w>"
    ],
    [
      "م",
      "انہ</w>"
    ],
    [
      "ج",
      "م</w>"
    ],
    [
      "او",
      "ا</w>"
    ],
    [
      "مسل",
      "مانوں</w>"
    ],
    [
      "ب",
      "ائیں</w>"
    ],
    [
      "ز",
      "ون</w>"
    ],
    [
      "فیسٹی",
      "ول</w>"
    ],
    [
      "کر",
      "ا"
    ],
    [
      "ع",
      "،</w>"
    ],
    [
      "پو",
      "ل</w>"
    ],
    [
      "و",
      "لی"
    ],
    [
      "فا",
      "قی</w>"
    ],
    [
      "پی",
      "را</w>"
    ],
    [
      "ح",
      "اری</w>"
    ],
    [
      "سائ",
      "ٹس</w>"
    ],
    [
      "می",
      "ٹ"
    ],
    [
      "گاہ",
      "ک</w>"
    ],
    [
      "ک",
      "ک</w>"
    ],
    [
      "اعتما",
      "د</w>"
    ],
    [
      "دو",
      "دھ</w>"
    ],
    [
      "م",
      "نگ</w>"
    ],
    [
      "سر",
      "ح"
    ],
    [
      "ہز",
      "اروں</w>"
    ],
    [
      "اد",
      "ارہ</w>"
    ],
    [
      "بچ",
      "ہ</w>"
    ],
    [
      "گو",
      "لڈ</w>"
    ],
    [
      "خ",
      "الی</w>"
    ],
    [
      "وید",
      "ک</w>"
    ],
    [
      "ماہ",
      "انہ</w>"
    ],
    [
      "ہ",
      "ماری</w>"
    ],
    [
      "پی",
      "ن</w>"
    ],
    [
      "الی",
      "ں</w>"
    ],
    [
      "پر",
      "ائ"
    ],
    [
      "ہے",
      "؟</w>"
    ],
    [
      "نش",
      "ر</w>"
    ],
    [
      "دری",
      "اؤں</w>"
    ],
    [
      "رو",
      "سی</w>"
    ],
    [
      "را",
      "جا</w>"
    ],
    [
      "وق",
      "فے</w>"
    ],
    [
      "ارا",
      "دہ</w>"
    ],
    [
      "ہو",
      "ل"
    ],
    [
      "عرو",
      "ج</w>"
    ],
    [
      "رد",
      "عمل</w>"
    ],
    [
      "ب",
      "حی"
    ],
    [
      "ا",
      "ض</w>"
    ],
    [
      "‏",
      "ان</w>"
    ],
    [
      "چ",
      "ہ</w>"
    ],
    [
      "تک",
      "لیف</w>"
    ],
    [
      "بچ",
      "انے</w>"
    ],
    [
      "فرا",
      "ر</w>"
    ],
    [
      "اف",
      "سر</w>"
    ],
    [
      "سر",
      "ے</w>"
    ],
    [
      "ام",
      "ر</w>"
    ],
    [
      "199",
      "7</w>"
    ],
    [
      "لط",
      "ف</w>"
    ],
    [
      "چیمپی",
      "ئن</w>"
    ],
    [
      "ڈی",
      "وں</w>"
    ],
    [
      "جھ",
      "</w>"
    ],
    [
      "ج",
      "موں</w>"
    ],
    [
      "کل",
      "اس</w>"
    ],
    [
      "لی",
      "ں۔</w>"
    ],
    [
      "ور",
      "و</w>"
    ],
    [
      "مری",
      "ضوں</w>"
    ],
    [
      "صف",
      "ائی</w>"
    ],
    [
      "س",
      "ان</w>"
    ],
    [
      "پر",
      "ندوں</w>"
    ],
    [
      "م",
      "تعلقہ</w>"
    ],
    [
      "مرک",
      "ب</w>"
    ],
    [
      "ڈ",
      "س</w>"
    ],
    [
      "اٹ",
      "لی</w>"
    ],
    [
      "لی",
      "ن"
    ],
    [
      "مل",
      "ا۔</w>"
    ],
    [
      "اس",
      "ن</w>"
    ],
    [
      "کمپ",
      "ن"
    ],
    [
      "دیکھ",
      "تے</w>"
    ],
    [
      "ڈی",
      "لی"
    ],
    [
      "مؤ",
      "ثر</w>"
    ],
    [
      "اچان",
      "ک</w>"
    ],
    [
      "سی",
      "نک"
    ],
    [
      "شن",
      "وں</w>"
    ],
    [
      "‏",
      "انہوں</w>"
    ],
    [
      "چو",
      "تھے</w>"
    ],
    [
      "بھی",
      "م</w>"
    ],
    [
      "پروڈی",
      "وس</w>"
    ],
    [
      "ش",
      "کلوں</w>"
    ],
    [
      "س",
      "نی</w>"
    ],
    [
      "معمو",
      "ل</w>"
    ],
    [
      "رو",
      "ح"
    ],
    [
      "اقد",
      "امات</w>"
    ],
    [
      "نگ",
      "ی"
    ],
    [
      "2",
      "5"
    ],
    [
      "سائ",
      "نس"
    ],
    [
      "ہی",
      "نڈ"
    ],
    [
      "ض",
      "رو"
    ],
    [
      "ملا",
      "زمین</w>"
    ],
    [
      "199",
      "3</w>"
    ],
    [
      "اخ",
      "تی"
    ],
    [
      "کی",
      "ہ</w>"
    ],
    [
      "و",
      "ہی</w>"
    ],
    [
      "جو",
      "م</w>"
    ],
    [
      "دف",
      "اعی</w>"
    ],
    [
      "ل",
      "ور</w>"
    ],
    [
      "ع",
      "ورت</w>"
    ],
    [
      "ر",
      "خ</w>"
    ],
    [
      "بر",
      "سوں</w>"
    ],
    [
      "م",
      "کھ"
    ],
    [
      "ذ",
      "ہنی</w>"
    ],
    [
      "و",
      "ٹ</w>"
    ],
    [
      "اع",
      "داد</w>"
    ],
    [
      "انس",
      "ٹی</w>"
    ],
    [
      "واق",
      "عے</w>"
    ],
    [
      "خلی",
      "ج</w>"
    ],
    [
      "ای",
      "کٹ</w>"
    ],
    [
      "لمب",
      "ائی</w>"
    ],
    [
      "ضرو",
      "ریات</w>"
    ],
    [
      "میگھ",
      "الیہ</w>"
    ],
    [
      "چی",
      "نل</w>"
    ],
    [
      "پھیپھ",
      "ڑوں</w>"
    ],
    [
      "ں",
      ")</w>"
    ],
    [
      "د",
      "کن</w>"
    ],
    [
      "تع",
      "می"
    ],
    [
      "جو",
      "ڑے</w>"
    ],
    [
      "قی",
      "ن</w>"
    ],
    [
      "ک",
      "پت"
    ],
    [
      "اص",
      "د</w>"
    ],
    [
      "ت",
      "می</w>"
    ],
    [
      "ج",
      "ائی"
    ],
    [
      "اضاف",
      "ے</w>"
    ],
    [
      "مش",
      "ق</w>"
    ],
    [
      "حکمر",
      "انوں</w>"
    ],
    [
      "چل",
      "انے</w>"
    ],
    [
      "چ",
      "م"
    ],
    [
      "ئی",
      "ن</w>"
    ],
    [
      "وس",
      "ائل</w>"
    ],
    [
      "ئ",
      "م</w>"
    ],
    [
      "کت",
      "نا</w>"
    ],
    [
      "3",
      ","
    ],
    [
      "بن",
      "ے۔</w>"
    ],
    [
      "حال",
      "ی</w>"
    ],
    [
      "ک",
      "تہ</w>"
    ],
    [
      "لا",
      "،</w>"
    ],
    [
      "جل",
      "س</w>"
    ],
    [
      "س",
      "کون</w>"
    ],
    [
      "مال",
      "ا</w>"
    ],
    [
      "چھو",
      "ڑنے</w>"
    ],
    [
      "مو",
      "صول</w>"
    ],
    [
      "اقتصا",
      "دی</w>"
    ],
    [
      "زائ",
      "د</w>"
    ],
    [
      "199",
      "4</w>"
    ],
    [
      "پ",
      "وں</w>"
    ],
    [
      "سک",
      "تا۔</w>"
    ],
    [
      "کم",
      "رے</w>"
    ],
    [
      "دل",
      "ہن</w>"
    ],
    [
      "د",
      "انوں</w>"
    ],
    [
      "بر",
      "انڈ</w>"
    ],
    [
      "س",
      "اس"
    ],
    [
      "پھی",
      "لا"
    ],
    [
      "تل",
      "سی</w>"
    ],
    [
      "8",
      "5</w>"
    ],
    [
      "ت",
      "ان"
    ],
    [
      "بر",
      "ٹ"
    ],
    [
      "من",
      "ہ</w>"
    ],
    [
      "ق",
      "رون</w>"
    ],
    [
      "ب",
      "چ</w>"
    ],
    [
      "پی",
      "نے</w>"
    ],
    [
      "عو",
      "امل</w>"
    ],
    [
      "ٹ",
      "زر"
    ],
    [
      "آ",
      "لو"
    ],
    [
      "لاگ",
      "ت</w>"
    ],
    [
      "دیکھ",
      "نا</w>"
    ],
    [
      "ایس",
      "ٹر</w>"
    ],
    [
      "پی",
      "ڈیا</w>"
    ],
    [
      "ہتھ",
      "یار</w>"
    ],
    [
      "حی",
      "در"
    ],
    [
      "لگ",
      "نے</w>"
    ],
    [
      "ان",
      "ٹ</w>"
    ],
    [
      "رو",
      "زہ</w>"
    ],
    [
      "مق",
      "بولیت</w>"
    ],
    [
      "اکث",
      "ریت</w>"
    ],
    [
      "ف",
      "نڈ</w>"
    ],
    [
      "تحقی",
      "قات</w>"
    ],
    [
      "کان",
      "ات</w>"
    ],
    [
      "3",
      "00</w>"
    ],
    [
      "کت",
      "اب"
    ],
    [
      "پیرو",
      "ی</w>"
    ],
    [
      "ام",
      "ر"
    ],
    [
      "زمر",
      "ے</w>"
    ],
    [
      "گزر",
      "نے</w>"
    ],
    [
      "می",
      "چوں</w>"
    ],
    [
      "ات",
      "نے</w>"
    ],
    [
      "خی",
      "ال"
    ],
    [
      "خ",
      "ال"
    ],
    [
      "نمائ",
      "ش</w>"
    ],
    [
      "سا",
      "ؤ"
    ],
    [
      "سم",
      "ر</w>"
    ],
    [
      "در",
      "بار</w>"
    ],
    [
      "اپ",
      "ن"
    ],
    [
      "ا",
      "میر</w>"
    ],
    [
      "ف",
      "کر</w>"
    ],
    [
      "غ",
      "ری"
    ],
    [
      "اسل",
      "امی</w>"
    ],
    [
      "ش",
      "م</w>"
    ],
    [
      "لی",
      "ف"
    ],
    [
      "می",
      "سور</w>"
    ],
    [
      "نار",
      "اض</w>"
    ],
    [
      "س",
      "ے"
    ],
    [
      "پیچی",
      "دہ</w>"
    ],
    [
      "مب",
      "تلا</w>"
    ],
    [
      "اف",
      "ت"
    ],
    [
      "کر",
      "انے</w>"
    ],
    [
      "بر",
      "ج</w>"
    ],
    [
      "حو",
      "ص"
    ],
    [
      "آبا",
      "دی"
    ],
    [
      "ملاز",
      "مت</w>"
    ],
    [
      "ر",
      "جی</w>"
    ],
    [
      "پی",
      "غ"
    ],
    [
      "خو",
      "ف</w>"
    ],
    [
      "ون",
      "،</w>"
    ],
    [
      "کر",
      "ن</w>"
    ],
    [
      "ت",
      "ار"
    ],
    [
      "ز",
      "ات</w>"
    ],
    [
      "ع",
      "باد"
    ],
    [
      "ٹیو",
      "ٹ</w>"
    ],
    [
      "دیکھی",
      "ں</w>"
    ],
    [
      "اط",
      "ال"
    ],
    [
      "ا",
      "ء</w>"
    ],
    [
      "مو",
      "ن"
    ],
    [
      "ڈی",
      "جی"
    ],
    [
      "اور",
      "نگ</w>"
    ],
    [
      "مست",
      "رد</w>"
    ],
    [
      "انڈ",
      "ر</w>"
    ],
    [
      "لکھ",
      "ی</w>"
    ],
    [
      "کاس",
      "ٹ</w>"
    ],
    [
      "مق",
      "اصد</w>"
    ],
    [
      "ص",
      "د"
    ],
    [
      "اح",
      "مد</w>"
    ],
    [
      "ک",
      "ِ"
    ],
    [
      "جار",
      "ج</w>"
    ],
    [
      "موض",
      "وع</w>"
    ],
    [
      "ان",
      "ھ"
    ],
    [
      "گو",
      "شت</w>"
    ],
    [
      "آ",
      "ل</w>"
    ],
    [
      "ای",
      "ئر"
    ],
    [
      "خد",
      "ا</w>"
    ],
    [
      "سڑ",
      "کوں</w>"
    ],
    [
      "من",
      "ت"
    ],
    [
      "ماہ",
      "رین</w>"
    ],
    [
      "ری",
      "پبل"
    ],
    [
      "وا",
      "ٹر</w>"
    ],
    [
      "خط",
      "ہ</w>"
    ],
    [
      "پٹھ",
      "وں</w>"
    ],
    [
      "خرا",
      "بی</w>"
    ],
    [
      "سا",
      "ؤنڈ</w>"
    ],
    [
      "اختی",
      "ارات</w>"
    ],
    [
      "ک",
      "توں</w>"
    ],
    [
      "و",
      "ع"
    ],
    [
      "کمپن",
      "یاں</w>"
    ],
    [
      "بحی",
      "رہ</w>"
    ],
    [
      "تبدی",
      "لیاں</w>"
    ],
    [
      "لا",
      "د</w>"
    ],
    [
      "منسو",
      "خ</w>"
    ],
    [
      "دہ",
      "ائیوں</w>"
    ],
    [
      "می",
      "لے</w>"
    ],
    [
      "مو",
      "ثر</w>"
    ],
    [
      "ٹ",
      "ور</w>"
    ],
    [
      "پری",
      "میئر</w>"
    ],
    [
      "بڑھ",
      "نے</w>"
    ],
    [
      "کری",
      "ں،</w>"
    ],
    [
      "ری",
      "ڑھ</w>"
    ],
    [
      "سو",
      "چ"
    ],
    [
      "ٹر",
      "،</w>"
    ],
    [
      "مح",
      "ی"
    ],
    [
      "اک",
      "س</w>"
    ],
    [
      "س",
      "س</w>"
    ],
    [
      "سٹ",
      "ری"
    ],
    [
      "باس",
      "کٹ</w>"
    ],
    [
      "جل",
      "دی</w>"
    ],
    [
      "اکاؤ",
      "نٹ</w>"
    ],
    [
      "ان",
      "جن</w>"
    ],
    [
      "نا",
      "قدی"
    ],
    [
      "ناقدی",
      "ن</w>"
    ],
    [
      "پسن",
      "دیدہ</w>"
    ],
    [
      "بھ",
      "ار"
    ],
    [
      "شی",
      "واجی</w>"
    ],
    [
      "واق",
      "عہ</w>"
    ],
    [
      "خاند",
      "انوں</w>"
    ],
    [
      "افت",
      "تا"
    ],
    [
      "ای",
      "شین</w>"
    ],
    [
      "تحری",
      "ر</w>"
    ],
    [
      "م",
      "واقع</w>"
    ],
    [
      "پڑ",
      "ے</w>"
    ],
    [
      "ون",
      "ا"
    ],
    [
      "و",
      "ائی</w>"
    ],
    [
      "پی",
      "نٹ"
    ],
    [
      "بی",
      "و</w>"
    ],
    [
      "شی",
      "ڈول</w>"
    ],
    [
      "4",
      "00</w>"
    ],
    [
      "ا",
      "ڈی"
    ],
    [
      "لی",
      "ات</w>"
    ],
    [
      "خو",
      "ف"
    ],
    [
      "تل",
      "نگ"
    ],
    [
      "ور",
      "ث"
    ],
    [
      "اص",
      "ول</w>"
    ],
    [
      "سوئ",
      "ٹزر"
    ],
    [
      "با",
      "ء</w>"
    ],
    [
      "ط",
      "اس</w>"
    ],
    [
      "اوڈی",
      "شہ</w>"
    ],
    [
      "کو",
      "لی"
    ],
    [
      "باکس",
      "نگ</w>"
    ],
    [
      "پرو",
      "ٹین</w>"
    ],
    [
      "ڈیجی",
      "ٹل</w>"
    ],
    [
      "ری",
      "ن"
    ],
    [
      "گپ",
      "ت</w>"
    ],
    [
      "س",
      "بھا</w>"
    ],
    [
      "کر",
      "دیا</w>"
    ],
    [
      "زو",
      "ال</w>"
    ],
    [
      "چی",
      "ف</w>"
    ],
    [
      "کو",
      "ہ</w>"
    ],
    [
      "چ",
      "وری</w>"
    ],
    [
      "جائ",
      "ے،</w>"
    ],
    [
      "حمل",
      "وں</w>"
    ],
    [
      "ڈھان",
      "چے</w>"
    ],
    [
      "کوار",
      "ٹر</w>"
    ],
    [
      "آئی",
      "ن</w>"
    ],
    [
      "اپ",
      "ی"
    ],
    [
      "ک",
      "ہاں</w>"
    ],
    [
      "اش",
      "تہ"
    ],
    [
      "گپ",
      "تا</w>"
    ],
    [
      "با",
      "ؤ"
    ],
    [
      "تلنگ",
      "انہ</w>"
    ],
    [
      "ت",
      "نگ</w>"
    ],
    [
      "مینی",
      "جر</w>"
    ],
    [
      "پی",
      "رس</w>"
    ],
    [
      "اسٹ",
      "ورز</w>"
    ],
    [
      "اف",
      "ری"
    ],
    [
      "د",
      "ست</w>"
    ],
    [
      "فا",
      "ق</w>"
    ],
    [
      "ان",
      "ستان</w>"
    ],
    [
      "پ",
      "،</w>"
    ],
    [
      "دی",
      "ا۔‏</w>"
    ],
    [
      "حص",
      "ول</w>"
    ],
    [
      "ہ",
      "جوم</w>"
    ],
    [
      "می",
      "ز</w>"
    ],
    [
      "مش",
      "اہ"
    ],
    [
      "خط",
      "اب</w>"
    ],
    [
      "گی",
      "ر</w>"
    ],
    [
      "م",
      "و</w>"
    ],
    [
      "ز",
      "ن"
    ],
    [
      "جما",
      "عت</w>"
    ],
    [
      "ای",
      "وان</w>"
    ],
    [
      "ای",
      "ات</w>"
    ],
    [
      "مص",
      "روف</w>"
    ],
    [
      "آسٹ",
      "ریلو"
    ],
    [
      "نائ",
      "ب</w>"
    ],
    [
      "بن",
      "اتی</w>"
    ],
    [
      "ف",
      "وں</w>"
    ],
    [
      "چان",
      "دی</w>"
    ],
    [
      "او",
      "ری"
    ],
    [
      "ڈ",
      "ور"
    ],
    [
      "عی",
      "سائی"
    ],
    [
      "ڈرائی",
      "ور</w>"
    ],
    [
      "فلوری",
      "ڈا</w>"
    ],
    [
      "٪",
      "</w>"
    ],
    [
      "پ",
      "د"
    ],
    [
      "لن",
      "کا</w>"
    ],
    [
      "سٹ",
      "ن</w>"
    ],
    [
      "اون",
      "چی</w>"
    ],
    [
      "کال",
      "ی</w>"
    ],
    [
      "خار",
      "ج</w>"
    ],
    [
      "نو",
      "شتہ</w>"
    ],
    [
      "ام",
      "،</w>"
    ],
    [
      "مرا",
      "ک"
    ],
    [
      "س",
      "ار"
    ],
    [
      "کا",
      "شت</w>"
    ],
    [
      "ئ",
      "ے۔‏</w>"
    ],
    [
      "بی",
      "ٹ"
    ],
    [
      "ں",
      "\"</w>"
    ],
    [
      "آسٹریلو",
      "ی</w>"
    ],
    [
      "شا",
      "ٹ</w>"
    ],
    [
      "کر",
      "شن</w>"
    ],
    [
      "می",
      "ں۔</w>"
    ],
    [
      "ب",
      "ندھ"
    ],
    [
      "خیال",
      "ات</w>"
    ],
    [
      "ور",
      "ات</w>"
    ],
    [
      "ریٹائ",
      "ر"
    ],
    [
      "اف",
      "ع</w>"
    ],
    [
      "تھ",
      "رو"
    ],
    [
      "می",
      "ٹ</w>"
    ],
    [
      "ذ",
      "خ"
    ],
    [
      "وس",
      "س</w>"
    ],
    [
      "ل",
      "ٹ</w>"
    ],
    [
      "شخص",
      "یت</w>"
    ],
    [
      "اسٹ",
      "ک</w>"
    ],
    [
      "نا",
      "ق"
    ],
    [
      "م",
      "انی"
    ],
    [
      "معام",
      "لے</w>"
    ],
    [
      "و",
      "لوں</w>"
    ],
    [
      "خوا",
      "ہ"
    ],
    [
      "لمب",
      "ے</w>"
    ],
    [
      "آ",
      "پ"
    ],
    [
      "احت",
      "رام</w>"
    ],
    [
      "ڈ",
      "ا"
    ],
    [
      "5",
      "0"
    ],
    [
      "ای",
      "جن"
    ],
    [
      "ان",
      "عام</w>"
    ],
    [
      "پروڈی",
      "وس"
    ],
    [
      "گ",
      "ز</w>"
    ],
    [
      "ملی",
      "الم</w>"
    ],
    [
      "ر",
      "سی"
    ],
    [
      "و",
      "لی</w>"
    ],
    [
      "نس",
      "لی</w>"
    ],
    [
      "بھر",
      "پور</w>"
    ],
    [
      "نق",
      "طہ</w>"
    ],
    [
      "ای",
      "ران</w>"
    ],
    [
      "م",
      "فی"
    ],
    [
      "ہا",
      "ف</w>"
    ],
    [
      "ڈ",
      "چ</w>"
    ],
    [
      "چی",
      "ل"
    ],
    [
      "ق",
      "وا"
    ],
    [
      "میز",
      "ورم</w>"
    ],
    [
      "آر",
      "کی"
    ],
    [
      "ذ",
      "ائ"
    ],
    [
      "ای",
      "ری"
    ],
    [
      "نی",
      "ز</w>"
    ],
    [
      "یا",
      "ت"
    ],
    [
      "ہ",
      "تھی"
    ],
    [
      "فل",
      "می</w>"
    ],
    [
      ",",
      "</w>"
    ],
    [
      "تی",
      "ر</w>"
    ],
    [
      "ا",
      "ہی"
    ],
    [
      "سرو",
      "ے</w>"
    ],
    [
      "کھ",
      "ڑے</w>"
    ],
    [
      "احاط",
      "ہ</w>"
    ],
    [
      "پ",
      "اؤ"
    ],
    [
      "آ",
      "تش"
    ],
    [
      "اون",
      "چائی</w>"
    ],
    [
      "وس",
      "ائ"
    ],
    [
      "نی",
      "ئر</w>"
    ],
    [
      "دیکھ",
      "ی</w>"
    ],
    [
      "سوئٹزر",
      "لینڈ</w>"
    ],
    [
      "ک",
      "ٹو</w>"
    ],
    [
      "منظ",
      "ور</w>"
    ],
    [
      "مری",
      "ض</w>"
    ],
    [
      "کر",
      "سکتے</w>"
    ],
    [
      "تری",
      "پورہ</w>"
    ],
    [
      "کرو",
      "س</w>"
    ],
    [
      "و",
      "کیل</w>"
    ],
    [
      "اط",
      "لا"
    ],
    [
      "مجھ",
      "</w>"
    ],
    [
      "اس",
      "ک</w>"
    ],
    [
      "ر",
      "ش"
    ],
    [
      "ان",
      "ت</w>"
    ],
    [
      "مع",
      "ذ"
    ],
    [
      "مض",
      "امین</w>"
    ],
    [
      "پالی",
      "سی</w>"
    ],
    [
      "ن",
      "ز"
    ],
    [
      "عباد",
      "ت</w>"
    ],
    [
      "پڑ",
      "وسی</w>"
    ],
    [
      "پوائ",
      "نٹ</w>"
    ],
    [
      "کول",
      "مب"
    ],
    [
      "2",
      "."
    ],
    [
      "سہو",
      "لیات</w>"
    ],
    [
      "ن",
      "ای"
    ],
    [
      "ٹ",
      "رین</w>"
    ],
    [
      "اطال",
      "وی</w>"
    ],
    [
      "کم",
      "ان</w>"
    ],
    [
      "اس",
      "تح"
    ],
    [
      "بی",
      "وں</w>"
    ],
    [
      "ب",
      "ائی</w>"
    ],
    [
      "ام",
      "ہ</w>"
    ],
    [
      "چ",
      "ندر</w>"
    ],
    [
      "چھ",
      "ی"
    ],
    [
      "نو",
      "آبادی"
    ],
    [
      "پ",
      "لا"
    ],
    [
      "ٹی",
      "،</w>"
    ],
    [
      "اد",
      "ری</w>"
    ],
    [
      "ال",
      "ا</w>"
    ],
    [
      "پور",
      "م</w>"
    ],
    [
      "کہ",
      "تا</w>"
    ],
    [
      "وو",
      "ٹ</w>"
    ],
    [
      "ای",
      "ڈو"
    ],
    [
      "ع",
      "لوم</w>"
    ],
    [
      "ہندو",
      "ؤں</w>"
    ],
    [
      "ط",
      "الب</w>"
    ],
    [
      "زر",
      "د</w>"
    ],
    [
      "ر",
      ")</w>"
    ],
    [
      "ب",
      "ٹن</w>"
    ],
    [
      "اوکلاہو",
      "ما</w>"
    ],
    [
      "کن",
      "ساس</w>"
    ],
    [
      "چو",
      "تھی</w>"
    ],
    [
      "فار",
      "سی</w>"
    ],
    [
      "ٹھ",
      "ے</w>"
    ],
    [
      "نار",
      "تھ</w>"
    ],
    [
      "چ",
      "الو"
    ],
    [
      "چار",
      "ج</w>"
    ],
    [
      "ملی",
      "۔</w>"
    ],
    [
      "ل",
      "ایا</w>"
    ],
    [
      "حوص",
      "لہ</w>"
    ],
    [
      "را",
      "جی"
    ],
    [
      "197",
      "1</w>"
    ],
    [
      "کمی",
      "شن</w>"
    ],
    [
      "3",
      "2</w>"
    ],
    [
      "ان",
      "تی</w>"
    ],
    [
      "جز",
      "وی</w>"
    ],
    [
      "چی",
      "ئر"
    ],
    [
      "کر",
      "اس</w>"
    ],
    [
      "ج",
      "ڑ"
    ],
    [
      "6",
      "5</w>"
    ],
    [
      "199",
      "1</w>"
    ],
    [
      "لینڈ",
      "ز</w>"
    ],
    [
      "پی",
      "ر</w>"
    ],
    [
      "مر",
      "تف"
    ],
    [
      "بی",
      "ں</w>"
    ],
    [
      "روز",
      "انہ</w>"
    ],
    [
      "محی",
      "ط</w>"
    ],
    [
      "شی",
      "وں</w>"
    ],
    [
      "ہسپ",
      "انوی</w>"
    ],
    [
      "عن",
      "اصر</w>"
    ],
    [
      "ی",
      "کش"
    ],
    [
      "و",
      "فاقی</w>"
    ],
    [
      "لائ",
      "ٹ</w>"
    ],
    [
      "ب",
      "لاک</w>"
    ],
    [
      "اعص",
      "ابی</w>"
    ],
    [
      "ٹ",
      "اؤن</w>"
    ],
    [
      "ریستور",
      "اں</w>"
    ],
    [
      "ذخ",
      "ائر</w>"
    ],
    [
      "مد",
      "اف"
    ],
    [
      "ٹ",
      "ن،</w>"
    ],
    [
      "واش",
      "نگٹن</w>"
    ],
    [
      "ای",
      "پل</w>"
    ],
    [
      "اس",
      "رائی"
    ],
    [
      "198",
      "7</w>"
    ],
    [
      "ای",
      "ا،</w>"
    ],
    [
      "امیدو",
      "ار</w>"
    ],
    [
      "م",
      "وری</w>"
    ],
    [
      "حیدر",
      "آباد</w>"
    ],
    [
      "3",
      "6</w>"
    ],
    [
      "پر",
      "تھ"
    ],
    [
      "دیوتا",
      "ؤں</w>"
    ],
    [
      "کاررو",
      "ائی</w>"
    ],
    [
      "ن",
      "ما"
    ],
    [
      "ہمال",
      "یہ</w>"
    ],
    [
      "سو",
      "ال</w>"
    ],
    [
      "6",
      "4</w>"
    ],
    [
      "ے",
      ":</w>"
    ],
    [
      "رو",
      "شن</w>"
    ],
    [
      "بڑھ",
      "تے</w>"
    ],
    [
      "لا",
      "بی</w>"
    ],
    [
      "بر",
      "وں</w>"
    ],
    [
      "مفی",
      "د</w>"
    ],
    [
      "مسئ",
      "لے</w>"
    ],
    [
      "غ",
      "را"
    ],
    [
      "انڈ",
      "ونی"
    ],
    [
      "پی",
      "ٹر"
    ],
    [
      "بیکٹی",
      "ریا</w>"
    ],
    [
      "لی",
      "کروس</w>"
    ],
    [
      "مسا",
      "فر"
    ],
    [
      "سام",
      "عین</w>"
    ],
    [
      "لی",
      "ا،</w>"
    ],
    [
      "خ",
      "اط"
    ],
    [
      "برع",
      "کس،</w>"
    ],
    [
      "م",
      "متا"
    ],
    [
      "ت",
      "رو"
    ],
    [
      "پ",
      "ار</w>"
    ],
    [
      "ا",
      "ش</w>"
    ],
    [
      "یک",
      "ساں</w>"
    ],
    [
      "ہو",
      "یں</w>"
    ],
    [
      "اخت",
      "لا"
    ],
    [
      "پری",
      "م</w>"
    ],
    [
      "ا",
      "بھ"
    ],
    [
      "شی",
      "ئر</w>"
    ],
    [
      "آ",
      "ور</w>"
    ],
    [
      "خوب",
      "صورت</w>"
    ],
    [
      "ت",
      "لو"
    ],
    [
      "کن",
      "ڑ</w>"
    ],
    [
      "ٹیکنالو",
      "جی</w>"
    ],
    [
      "ان",
      "جین"
    ],
    [
      "م",
      "انگ"
    ],
    [
      "قب",
      "ائل</w>"
    ],
    [
      "بال",
      "ترتیب</w>"
    ],
    [
      "بد",
      "ل"
    ],
    [
      "حی",
      "رت</w>"
    ],
    [
      "ل",
      "سٹ</w>"
    ],
    [
      "ا",
      "تر"
    ],
    [
      "من",
      "ائی</w>"
    ],
    [
      "ف",
      "ائی</w>"
    ],
    [
      "مید",
      "انی</w>"
    ],
    [
      "پی",
      "ر"
    ],
    [
      "اہ",
      "و</w>"
    ],
    [
      "صور",
      "توں</w>"
    ],
    [
      "‏",
      "ایک</w>"
    ],
    [
      "ری",
      "ز"
    ],
    [
      "ات",
      "وار</w>"
    ],
    [
      "ٹر",
      "نر</w>"
    ],
    [
      "ما",
      "خو"
    ],
    [
      "چھو",
      "ڑ"
    ],
    [
      "ناق",
      "ص</w>"
    ],
    [
      "ب",
      "مبئی</w>"
    ],
    [
      "خاط",
      "ر</w>"
    ],
    [
      "اؤ",
      "ں</w>"
    ],
    [
      "چھ",
      "تیس</w>"
    ],
    [
      "ر",
      "ع"
    ],
    [
      "7",
      "2</w>"
    ],
    [
      "احتجا",
      "ج</w>"
    ],
    [
      "پ",
      "اشی</w>"
    ],
    [
      "سائی",
      "ڈ</w>"
    ],
    [
      "اف",
      "س"
    ],
    [
      "ش",
      "ات</w>"
    ],
    [
      "کی",
      "ش</w>"
    ],
    [
      "کھ",
      "لے</w>"
    ],
    [
      "خ",
      "وں</w>"
    ],
    [
      "جر",
      "ت</w>"
    ],
    [
      "ہز",
      "ار</w>"
    ],
    [
      "س",
      "ست</w>"
    ],
    [
      "پروفی",
      "سر</w>"
    ],
    [
      "فائ",
      "ر</w>"
    ],
    [
      "م",
      "ور</w>"
    ],
    [
      "رو",
      "ح</w>"
    ],
    [
      "اسٹ",
      "ری"
    ],
    [
      "روح",
      "انی</w>"
    ],
    [
      "من",
      "افع</w>"
    ],
    [
      "نکل",
      "نے</w>"
    ],
    [
      "سب",
      "ز</w>"
    ],
    [
      "رکھی",
      "ں</w>"
    ],
    [
      "لائ",
      "سن"
    ],
    [
      "دو",
      "ا</w>"
    ],
    [
      "ئ",
      "نگ</w>"
    ],
    [
      "ٹی",
      "و</w>"
    ],
    [
      "ر",
      "قبہ</w>"
    ],
    [
      "افری",
      "قی</w>"
    ],
    [
      "سر",
      "مائی</w>"
    ],
    [
      "کب",
      "ڈی</w>"
    ],
    [
      "کہ",
      "ہ</w>"
    ],
    [
      "کو",
      "ل</w>"
    ],
    [
      "شہ",
      "زا"
    ],
    [
      "چند",
      "ر"
    ],
    [
      "افغ",
      "انستان</w>"
    ],
    [
      "نام",
      "ہ</w>"
    ],
    [
      "وط",
      "ن</w>"
    ],
    [
      "ای",
      "کشن</w>"
    ],
    [
      "ممتا",
      "ز</w>"
    ],
    [
      "ناک",
      "امی</w>"
    ],
    [
      "197",
      "9</w>"
    ],
    [
      "فص",
      "ل</w>"
    ],
    [
      "ص",
      "ل</w>"
    ],
    [
      "خطر",
      "ناک</w>"
    ],
    [
      "لو",
      "س</w>"
    ],
    [
      "م",
      "داخ"
    ],
    [
      "نڈ",
      "ز</w>"
    ],
    [
      "او",
      "پن</w>"
    ],
    [
      "کتاب",
      "وں</w>"
    ],
    [
      "اع",
      "زا"
    ],
    [
      "جی",
      "مز</w>"
    ],
    [
      "ہری",
      "انہ</w>"
    ],
    [
      "لکھ",
      "نے</w>"
    ],
    [
      "رکاو",
      "ٹ</w>"
    ],
    [
      "قوا",
      "عد</w>"
    ],
    [
      "اترا",
      "کھنڈ</w>"
    ],
    [
      "پروڈ",
      "کٹ</w>"
    ],
    [
      "سی",
      "نٹی</w>"
    ],
    [
      "عی",
      "سائی</w>"
    ],
    [
      "اپ",
      "یل</w>"
    ],
    [
      "را",
      "جہ</w>"
    ],
    [
      "198",
      "4</w>"
    ],
    [
      "رو",
      "ل</w>"
    ],
    [
      "ن",
      "ور</w>"
    ],
    [
      "تھ",
      "ر</w>"
    ],
    [
      "سنگ",
      "ین</w>"
    ],
    [
      "ج",
      "دو"
    ],
    [
      "بح",
      "ری</w>"
    ],
    [
      "بر",
      "داشت</w>"
    ],
    [
      "ص",
      "اح"
    ],
    [
      "ف",
      "ار</w>"
    ],
    [
      "سرپر",
      "ستی</w>"
    ],
    [
      "مل",
      "ہ</w>"
    ],
    [
      "ح",
      "روف</w>"
    ],
    [
      "د",
      "اس</w>"
    ],
    [
      "لائ",
      "نز</w>"
    ],
    [
      "مر",
      "تبہ</w>"
    ],
    [
      "م",
      "پ</w>"
    ],
    [
      "بل",
      "ندی</w>"
    ],
    [
      "ل",
      "ز"
    ],
    [
      "نی",
      "در"
    ],
    [
      "کھ",
      "ول"
    ],
    [
      ",",
      "0"
    ],
    [
      "سر",
      "جری</w>"
    ],
    [
      "ساؤ",
      "تھ</w>"
    ],
    [
      "ک",
      "ٹس</w>"
    ],
    [
      "ند",
      "گان</w>"
    ],
    [
      "ج",
      "غرا"
    ],
    [
      "کان",
      "فر"
    ],
    [
      "سی",
      "نی"
    ],
    [
      "شاپ",
      "نگ</w>"
    ],
    [
      "ٹی",
      "بل</w>"
    ],
    [
      "سیاح",
      "وں</w>"
    ],
    [
      "سی",
      "نیٹ</w>"
    ],
    [
      "ڈ",
      "رو"
    ],
    [
      "فی",
      "فا</w>"
    ],
    [
      "ک",
      "شا"
    ],
    [
      "ماخو",
      "ذ</w>"
    ],
    [
      "گری",
      "ج"
    ],
    [
      "افسر",
      "ان</w>"
    ],
    [
      "ب",
      "ارہ</w>"
    ],
    [
      "ب",
      "لے</w>"
    ],
    [
      "گئی",
      "ں</w>"
    ],
    [
      "سن",
      "چ"
    ],
    [
      "قو",
      "م</w>"
    ],
    [
      "آب",
      "پاشی</w>"
    ],
    [
      "می",
      "،</w>"
    ],
    [
      "ج",
      "ام"
    ],
    [
      "سرگر",
      "می</w>"
    ],
    [
      "دھ",
      "م"
    ],
    [
      "مراک",
      "ز</w>"
    ],
    [
      "شع",
      "بے</w>"
    ],
    [
      "ا",
      "جل"
    ],
    [
      "علیح",
      "دہ</w>"
    ],
    [
      "18",
      "9"
    ],
    [
      "معاش",
      "ی</w>"
    ],
    [
      "مب",
      "ا</w>"
    ],
    [
      "غ",
      "ر"
    ],
    [
      "مط",
      "لو"
    ],
    [
      "مرتف",
      "ع</w>"
    ],
    [
      "س",
      "وال"
    ],
    [
      "می",
      "نڈ"
    ],
    [
      "پہ",
      "لو</w>"
    ],
    [
      "پروگر",
      "اموں</w>"
    ],
    [
      "بہ",
      "تا</w>"
    ],
    [
      "لائ",
      "ٹس</w>"
    ],
    [
      "کان",
      "سی</w>"
    ],
    [
      "ات",
      "فاق</w>"
    ],
    [
      "198",
      "8</w>"
    ],
    [
      "خ",
      "تی</w>"
    ],
    [
      "بی",
      "ل</w>"
    ],
    [
      "ب",
      "نی"
    ],
    [
      "علا",
      "ؤ"
    ],
    [
      "ہ",
      "ٹا</w>"
    ],
    [
      "ن",
      "ادر</w>"
    ],
    [
      "3",
      "3</w>"
    ],
    [
      "لی",
      "پ</w>"
    ],
    [
      "ک",
      "نگ"
    ],
    [
      "گ",
      "ائے</w>"
    ],
    [
      "برا",
      "دری"
    ],
    [
      "ائ",
      "ف</w>"
    ],
    [
      "پروڈ",
      "کشن</w>"
    ],
    [
      "لاز",
      "می</w>"
    ],
    [
      "کن",
      "ندہ</w>"
    ],
    [
      "ج",
      "ائیں۔</w>"
    ],
    [
      "سو",
      "چا</w>"
    ],
    [
      "کیتھ",
      "ولک</w>"
    ],
    [
      "سر",
      "ما</w>"
    ],
    [
      "رق",
      "بے</w>"
    ],
    [
      "ٹائ",
      "پ</w>"
    ],
    [
      "ہ",
      "ائے</w>"
    ],
    [
      "گر",
      "نے</w>"
    ],
    [
      "بیلجی",
      "ئم</w>"
    ],
    [
      "ت",
      "پ</w>"
    ],
    [
      "لینڈ",
      "،</w>"
    ],
    [
      "–",
      "</w>"
    ],
    [
      "مل",
      "کہ</w>"
    ],
    [
      "ام",
      "بیڈ"
    ],
    [
      "جہ",
      "د</w>"
    ],
    [
      "ڈ",
      "وی"
    ],
    [
      "ڈ",
      "ن"
    ],
    [
      "ٹی",
      "پو</w>"
    ],
    [
      "ڈ",
      "ون"
    ],
    [
      "مح",
      "اف"
    ],
    [
      "تباد",
      "لہ</w>"
    ],
    [
      "گ",
      "انوں</w>"
    ],
    [
      "ے",
      "\"</w>"
    ],
    [
      "موسیق",
      "ار</w>"
    ],
    [
      "جر",
      "وں</w>"
    ],
    [
      "پرو",
      "از</w>"
    ],
    [
      "تفری",
      "حی</w>"
    ],
    [
      "ا",
      "ُ"
    ],
    [
      "پہ",
      "ر</w>"
    ],
    [
      "ڈی",
      "بیو</w>"
    ],
    [
      "ب",
      "ٹ</w>"
    ],
    [
      "پ",
      "لو"
    ],
    [
      "کر",
      "وں</w>"
    ],
    [
      "نچ",
      "لے</w>"
    ],
    [
      "حادث",
      "ے</w>"
    ],
    [
      "و",
      "ال</w>"
    ],
    [
      "مسافر",
      "وں</w>"
    ],
    [
      "بی",
      "رون</w>"
    ],
    [
      "مخت",
      "ار</w>"
    ],
    [
      "می",
      "زبان</w>"
    ],
    [
      "غ",
      "ال"
    ],
    [
      "ڈ",
      "را</w>"
    ],
    [
      "ان",
      "یاں</w>"
    ],
    [
      "کہ",
      "انیوں</w>"
    ],
    [
      "خ",
      "ز"
    ],
    [
      "علاؤ",
      "الدین</w>"
    ],
    [
      "ان",
      "چ</w>"
    ],
    [
      "گو",
      "ئی</w>"
    ],
    [
      "ح",
      "تمی</w>"
    ],
    [
      "لا",
      "گو</w>"
    ],
    [
      "مند",
      "ر،</w>"
    ],
    [
      "او",
      "ور</w>"
    ],
    [
      "تہو",
      "اروں</w>"
    ],
    [
      "ت",
      "ار</w>"
    ],
    [
      "رنگ",
      "وں</w>"
    ],
    [
      "اس",
      "تا"
    ],
    [
      "ڈ",
      "ور</w>"
    ],
    [
      "نگ",
      "وں</w>"
    ],
    [
      "ڈی",
      "ز</w>"
    ],
    [
      "برٹ",
      "ش</w>"
    ],
    [
      "لائ",
      "ف</w>"
    ],
    [
      "کی",
      "مر"
    ],
    [
      "تخمی",
      "نہ</w>"
    ],
    [
      "جھ",
      "ی"
    ],
    [
      "197",
      "2</w>"
    ],
    [
      "قدی",
      "مہ</w>"
    ],
    [
      "امری",
      "کن</w>"
    ],
    [
      "مطال",
      "عات</w>"
    ],
    [
      "ن",
      "ال"
    ],
    [
      "دھ",
      "ما"
    ],
    [
      "کھ",
      "نڈ"
    ],
    [
      "جذ",
      "بات</w>"
    ],
    [
      "سلط",
      "ن"
    ],
    [
      "منظ",
      "وری</w>"
    ],
    [
      "سپ",
      "اہی"
    ],
    [
      "ح",
      "دود</w>"
    ],
    [
      "منسو",
      "ب</w>"
    ],
    [
      "پانچ",
      "ویں</w>"
    ],
    [
      "198",
      "2</w>"
    ],
    [
      "اسٹی",
      "ج</w>"
    ],
    [
      "ائ",
      "یاں</w>"
    ],
    [
      "کیم",
      "پ</w>"
    ],
    [
      "د",
      "ہی</w>"
    ],
    [
      "بچ",
      "پن</w>"
    ],
    [
      "اپ",
      "ور</w>"
    ],
    [
      "تا",
      "ً</w>"
    ],
    [
      "مار",
      "کی"
    ],
    [
      "پھیلا",
      "ؤ</w>"
    ],
    [
      "196",
      "4</w>"
    ],
    [
      "قب",
      "ائ"
    ],
    [
      "ر",
      "ہیں</w>"
    ],
    [
      "ق",
      "سم"
    ],
    [
      "ڈی",
      "ول"
    ],
    [
      "ط",
      "ان</w>"
    ],
    [
      "بر",
      "تری</w>"
    ],
    [
      "پنجا",
      "بی</w>"
    ],
    [
      "ت",
      "اب"
    ],
    [
      "قیم",
      "توں</w>"
    ],
    [
      "پو",
      "دے</w>"
    ],
    [
      "ج",
      "ز</w>"
    ],
    [
      "پار",
      "ٹمنٹ</w>"
    ],
    [
      "بہ",
      "اؤ</w>"
    ],
    [
      "پکو",
      "ان</w>"
    ],
    [
      "آئ",
      "ٹم</w>"
    ],
    [
      "لو",
      "ڈ</w>"
    ],
    [
      "می",
      "ٹڈ</w>"
    ],
    [
      "گ",
      "وا"
    ],
    [
      "زبر",
      "دست</w>"
    ],
    [
      "سنگ",
      "ھ"
    ],
    [
      "نگ",
      "ار</w>"
    ],
    [
      "ل",
      "مح"
    ],
    [
      "ہی",
      "رو</w>"
    ],
    [
      "ح",
      "ریف</w>"
    ],
    [
      "گز",
      "ر</w>"
    ],
    [
      "پھی",
      "لا</w>"
    ],
    [
      "بھ",
      "اگ"
    ],
    [
      "ط",
      "لب</w>"
    ],
    [
      "ق",
      "ا"
    ],
    [
      "غ",
      "صے</w>"
    ],
    [
      "3",
      "-"
    ],
    [
      "شرا",
      "کت</w>"
    ],
    [
      "آ",
      "کسی"
    ],
    [
      "تھو",
      "ڑی</w>"
    ],
    [
      "تناز",
      "عہ</w>"
    ],
    [
      "پھی",
      "لی</w>"
    ],
    [
      "صنع",
      "تی</w>"
    ],
    [
      "مح",
      "ض</w>"
    ],
    [
      "اع",
      "ض"
    ],
    [
      "گ",
      "ون"
    ],
    [
      "وی",
      "د</w>"
    ],
    [
      "عی",
      "ت</w>"
    ],
    [
      "بر",
      "ائے</w>"
    ],
    [
      "نک",
      "ال</w>"
    ],
    [
      "بو",
      "جھ</w>"
    ],
    [
      "ئی",
      "ں</w>"
    ],
    [
      "مبی",
      "نہ</w>"
    ],
    [
      "گو",
      "ار</w>"
    ],
    [
      "ڈ",
      "انس</w>"
    ],
    [
      "بتا",
      "تا</w>"
    ],
    [
      "اض",
      "ی</w>"
    ],
    [
      "روا",
      "ج</w>"
    ],
    [
      "ڈرام",
      "ے</w>"
    ],
    [
      "ٹ",
      "کٹ</w>"
    ],
    [
      "ریٹائر",
      "منٹ</w>"
    ],
    [
      "ریپبل",
      "کن</w>"
    ],
    [
      "یا",
      "ں،</w>"
    ],
    [
      "رکھی",
      "ں۔</w>"
    ],
    [
      "ن",
      "شو"
    ],
    [
      "ور",
      "جی"
    ],
    [
      "گنی",
      "ش</w>"
    ],
    [
      "خ",
      "لیوں</w>"
    ],
    [
      "نو",
      "کر</w>"
    ],
    [
      "فر",
      "انس"
    ],
    [
      "تھو",
      "ڑا</w>"
    ],
    [
      "ان",
      "یا</w>"
    ],
    [
      "ترجم",
      "ہ</w>"
    ],
    [
      "پر",
      "ور"
    ],
    [
      "جدو",
      "جہد</w>"
    ],
    [
      "‘",
      "</w>"
    ],
    [
      "کش",
      "ا</w>"
    ],
    [
      "پرتھ",
      "وی</w>"
    ],
    [
      "کار",
      "کن"
    ],
    [
      "عہ",
      "د</w>"
    ],
    [
      "کر",
      "ے۔</w>"
    ],
    [
      "دھ",
      "ر"
    ],
    [
      "کپت",
      "ان</w>"
    ],
    [
      "ائ",
      "ب</w>"
    ],
    [
      "ک",
      "شی"
    ],
    [
      "دھ",
      "ے</w>"
    ],
    [
      "سی",
      "لز</w>"
    ],
    [
      "آر",
      "ٹ"
    ],
    [
      "ان",
      "ٹرو"
    ],
    [
      "تعلی",
      "می</w>"
    ],
    [
      "بی",
      "،</w>"
    ],
    [
      "ہے",
      "؛</w>"
    ],
    [
      "ٹر",
      "ل</w>"
    ],
    [
      "شک",
      "اگ"
    ],
    [
      "بڑھ",
      "تا</w>"
    ],
    [
      "غ",
      "ی</w>"
    ],
    [
      "طل",
      "باء</w>"
    ],
    [
      "نشو",
      "ون"
    ],
    [
      "سمجھ",
      "</w>"
    ],
    [
      "گ",
      "ایا</w>"
    ],
    [
      "بیما",
      "ریوں</w>"
    ],
    [
      "د",
      "ق</w>"
    ],
    [
      "مچھ",
      "لی</w>"
    ],
    [
      "پ",
      "ڈو"
    ],
    [
      "نی",
      "پال</w>"
    ],
    [
      "گر",
      "می</w>"
    ],
    [
      "٢",
      "٠"
    ],
    [
      "نظ",
      "م</w>"
    ],
    [
      "تفصی",
      "لات</w>"
    ],
    [
      "سمجھ",
      "تے</w>"
    ],
    [
      "ی",
      "۔</w>"
    ],
    [
      "امبیڈ",
      "کر</w>"
    ],
    [
      "8",
      "3</w>"
    ],
    [
      "مخال",
      "فت</w>"
    ],
    [
      "ا",
      "دی</w>"
    ],
    [
      "ہی",
      "م</w>"
    ],
    [
      "و",
      "ق</w>"
    ],
    [
      "سک",
      "وں</w>"
    ],
    [
      "دھ",
      "رم</w>"
    ],
    [
      "ون",
      "س</w>"
    ],
    [
      "ت",
      "ائی"
    ],
    [
      "ج",
      "گر</w>"
    ],
    [
      "بح",
      "ر</w>"
    ],
    [
      "ا",
      "تھ"
    ],
    [
      "ئر",
      "نگ</w>"
    ],
    [
      "ڈ",
      "را"
    ],
    [
      "ٹائ",
      "مز</w>"
    ],
    [
      "195",
      "6</w>"
    ],
    [
      "ام",
      "را"
    ],
    [
      "ب",
      "جے</w>"
    ],
    [
      "سی",
      "کر"
    ],
    [
      "چل",
      "تی</w>"
    ],
    [
      "آ",
      "ت"
    ],
    [
      "سل",
      "وں</w>"
    ],
    [
      "س",
      "پی"
    ],
    [
      "پہا",
      "ڑ</w>"
    ],
    [
      "خ",
      "ن"
    ],
    [
      "ری",
      "نج</w>"
    ],
    [
      "شک",
      "لیں</w>"
    ],
    [
      "تمغ",
      "ے</w>"
    ],
    [
      "جین",
      "یاتی</w>"
    ],
    [
      "آتش",
      "ک</w>"
    ],
    [
      "کو",
      "ٹ</w>"
    ],
    [
      "ہ",
      "مای"
    ],
    [
      "د",
      "ن"
    ],
    [
      "پاک",
      "ست"
    ],
    [
      "شک",
      "ایت</w>"
    ],
    [
      "منصوب",
      "وں</w>"
    ],
    [
      "پ",
      "انڈیا</w>"
    ],
    [
      "رو",
      "انہ</w>"
    ],
    [
      "شا",
      "خ</w>"
    ],
    [
      "ش",
      "ار"
    ],
    [
      "رج",
      "ح"
    ],
    [
      "ما",
      "،</w>"
    ],
    [
      "ق",
      "بیلے</w>"
    ],
    [
      "ج",
      "لی</w>"
    ],
    [
      "س",
      "کھ"
    ],
    [
      "ی",
      "ہی</w>"
    ],
    [
      "اسکر",
      "پٹ</w>"
    ],
    [
      "لا",
      "تی</w>"
    ],
    [
      "جی",
      "کل</w>"
    ],
    [
      "مض",
      "مون</w>"
    ],
    [
      "سر",
      "برا"
    ],
    [
      "نی",
      "ن</w>"
    ],
    [
      "پر",
      "دی"
    ],
    [
      "گاہ",
      "کوں</w>"
    ],
    [
      "در",
      "خت"
    ],
    [
      "پرو",
      "ا"
    ],
    [
      "ایتھ",
      "لی"
    ],
    [
      "رو",
      "لر</w>"
    ],
    [
      "پت",
      "نگ</w>"
    ],
    [
      "ال",
      "ک"
    ],
    [
      "ا",
      "وی"
    ],
    [
      "3",
      "."
    ],
    [
      "اس",
      "ات"
    ],
    [
      "اسات",
      "ذ"
    ],
    [
      "ص",
      "دیوں</w>"
    ],
    [
      "ع",
      "ک"
    ],
    [
      "ہمای",
      "وں</w>"
    ],
    [
      "تی",
      "نوں</w>"
    ],
    [
      "قل",
      "ع"
    ],
    [
      "انگ",
      "ل"
    ],
    [
      "ہ",
      "اسن</w>"
    ],
    [
      "ہ",
      "لا"
    ],
    [
      "مع",
      "او"
    ],
    [
      "نا",
      "ز"
    ],
    [
      "ذ",
      "ہن</w>"
    ],
    [
      "در",
      "کار</w>"
    ],
    [
      "ام",
      "تح"
    ],
    [
      "ش",
      "واہ"
    ],
    [
      "کہ",
      "،</w>"
    ],
    [
      "مداخ",
      "لت</w>"
    ],
    [
      "ان",
      "یہ</w>"
    ],
    [
      "لگ",
      "ا۔</w>"
    ],
    [
      "ا",
      "ِ"
    ],
    [
      "ہو",
      "نی</w>"
    ],
    [
      "عنو",
      "ان</w>"
    ],
    [
      "ئر",
      "ز</w>"
    ],
    [
      "198",
      "9</w>"
    ],
    [
      "ہو",
      "تا۔</w>"
    ],
    [
      "بو",
      "ٹ</w>"
    ],
    [
      "انگی",
      "ز</w>"
    ],
    [
      "بر",
      "آ"
    ],
    [
      "ہو",
      "سکتے</w>"
    ],
    [
      "نشوون",
      "ما</w>"
    ],
    [
      "لائسن",
      "س</w>"
    ],
    [
      "با",
      "ڈی</w>"
    ],
    [
      "کی",
      "مپ"
    ],
    [
      "ورجی",
      "نیا</w>"
    ],
    [
      "خلی",
      "ات</w>"
    ],
    [
      "بن",
      "تے</w>"
    ],
    [
      "ٹر",
      "ا</w>"
    ],
    [
      "ویکی",
      "پیڈیا</w>"
    ],
    [
      "کلائ",
      "نٹ</w>"
    ],
    [
      "°",
      "</w>"
    ],
    [
      "ان",
      "شور"
    ],
    [
      "آپری",
      "ٹنگ</w>"
    ],
    [
      "مای",
      "وسی</w>"
    ],
    [
      "کمی",
      "ون</w>"
    ],
    [
      "راجپو",
      "ت</w>"
    ],
    [
      "پرور",
      "ش</w>"
    ],
    [
      "3",
      "7</w>"
    ],
    [
      "نو",
      "ل</w>"
    ],
    [
      "جو",
      "ڑی</w>"
    ],
    [
      "196",
      "9</w>"
    ],
    [
      "مزاح",
      "مت</w>"
    ],
    [
      "ٹرا",
      "فی</w>"
    ],
    [
      "وجو",
      "د</w>"
    ],
    [
      "شواہ",
      "د</w>"
    ],
    [
      "جی",
      "ب</w>"
    ],
    [
      "وق",
      "ت،</w>"
    ],
    [
      "اج",
      "تما"
    ],
    [
      "آ",
      "ٹھ"
    ],
    [
      "نو",
      "ن</w>"
    ],
    [
      "تح",
      "ائف</w>"
    ],
    [
      "د",
      "ن،</w>"
    ],
    [
      "کر",
      "ن"
    ],
    [
      "سو",
      "ویت</w>"
    ],
    [
      "اؤ",
      "</w>"
    ],
    [
      "8",
      "4</w>"
    ],
    [
      "پہا",
      "ڑوں</w>"
    ],
    [
      "میوزی",
      "م</w>"
    ],
    [
      "ب",
      "ست"
    ],
    [
      "خود",
      "کشی</w>"
    ],
    [
      "ن",
      "با"
    ],
    [
      "مس",
      "ٹر</w>"
    ],
    [
      "نی",
      "شن</w>"
    ],
    [
      "کو",
      "ی"
    ],
    [
      "ڈی",
      "ٹ</w>"
    ],
    [
      "طی",
      "نی</w>"
    ],
    [
      "آسٹ",
      "ریا</w>"
    ],
    [
      "ح",
      "سین</w>"
    ],
    [
      "بھی",
      "جا</w>"
    ],
    [
      "باقاع",
      "دگی</w>"
    ],
    [
      "ا",
      "وا"
    ],
    [
      "ن",
      "ات</w>"
    ],
    [
      "گھ",
      "اٹ</w>"
    ],
    [
      "مد",
      "ع"
    ],
    [
      "آپری",
      "شن</w>"
    ],
    [
      "ان",
      "درا</w>"
    ],
    [
      "تناز",
      "عات</w>"
    ],
    [
      "پھ",
      "انسی</w>"
    ],
    [
      "د",
      "ب"
    ],
    [
      "حکو",
      "م"
    ],
    [
      ".",
      "‏</w>"
    ],
    [
      "ہو",
      "گیا۔</w>"
    ],
    [
      "ور",
      "ا"
    ],
    [
      "مش",
      "ی"
    ],
    [
      "مراٹھ",
      "ی</w>"
    ],
    [
      "چیئر",
      "مین</w>"
    ],
    [
      "19",
      "ویں</w>"
    ],
    [
      "4",
      "2</w>"
    ],
    [
      "دائ",
      "می</w>"
    ],
    [
      "اعترا",
      "ف</w>"
    ],
    [
      "مش",
      "یر</w>"
    ],
    [
      "نو",
      "عیت</w>"
    ],
    [
      "نای",
      "اب</w>"
    ],
    [
      "ما",
      "ڈ"
    ],
    [
      "اص",
      "ولوں</w>"
    ],
    [
      "ٹی",
      "ک</w>"
    ],
    [
      "برا",
      "ؤ"
    ],
    [
      "ئی",
      "،</w>"
    ],
    [
      "پھو",
      "لوں</w>"
    ],
    [
      "کی",
      "ور"
    ],
    [
      "ری",
      "زر"
    ],
    [
      "کی",
      "سز</w>"
    ],
    [
      "فل",
      "ور</w>"
    ],
    [
      "سو",
      "زش</w>"
    ],
    [
      "ٹری",
      "فک</w>"
    ],
    [
      "ناگ",
      "الینڈ</w>"
    ],
    [
      "بال",
      "غ</w>"
    ],
    [
      "ر",
      "گ"
    ],
    [
      "لی",
      "و</w>"
    ],
    [
      "لڑ",
      "کیوں</w>"
    ],
    [
      "تر",
      "غی"
    ],
    [
      "و",
      "کٹو"
    ],
    [
      "معاش",
      "رے</w>"
    ],
    [
      "198",
      "3</w>"
    ],
    [
      "3",
      "0"
    ],
    [
      "غری",
      "ب</w>"
    ],
    [
      "3",
      "4</w>"
    ],
    [
      "بچ",
      "ا</w>"
    ],
    [
      "سپاہی",
      "وں</w>"
    ],
    [
      "سات",
      "ویں</w>"
    ],
    [
      "ت",
      "ے،</w>"
    ],
    [
      "ب",
      "ط</w>"
    ],
    [
      "ہند",
      "-"
    ],
    [
      "سال",
      "گرہ</w>"
    ],
    [
      "طلا",
      "ق</w>"
    ],
    [
      "ام",
      "ور</w>"
    ],
    [
      "مض",
      "اف"
    ],
    [
      "نس",
      "بتا"
    ],
    [
      "نسبتا",
      "ً</w>"
    ],
    [
      "ز",
      "ل</w>"
    ],
    [
      "لکش",
      "می</w>"
    ],
    [
      "کی",
      "ا"
    ],
    [
      "زب",
      "انیں</w>"
    ],
    [
      "ہل",
      "کی</w>"
    ],
    [
      "تھ",
      "ام"
    ],
    [
      "تھ",
      "ن"
    ],
    [
      "اخ",
      "بار</w>"
    ],
    [
      "فن",
      "کار</w>"
    ],
    [
      "گری",
      "نڈ</w>"
    ],
    [
      "اسٹ",
      "ائل</w>"
    ],
    [
      "ما",
      "ری"
    ],
    [
      "عمار",
      "توں</w>"
    ],
    [
      "4",
      ","
    ],
    [
      "لی",
      "لا</w>"
    ],
    [
      "پ",
      "ائن</w>"
    ],
    [
      "ب",
      "اپ</w>"
    ],
    [
      "ما",
      "تحت</w>"
    ],
    [
      "ب",
      "حالی</w>"
    ],
    [
      "ب",
      "زر"
    ],
    [
      "ذ",
      "ات</w>"
    ],
    [
      "برہ",
      "من</w>"
    ],
    [
      "198",
      "5</w>"
    ],
    [
      "7",
      "4</w>"
    ],
    [
      "مسل",
      "ح</w>"
    ],
    [
      "صاح",
      "ب</w>"
    ],
    [
      "سی",
      "،</w>"
    ],
    [
      "ڈیلی",
      "وری</w>"
    ]
  ],
  "vocab_size": 5000,
  "num_merges": 5000,
  "actual_merges": 5000,
  "special_tokens": [
    "<unk>",
    "<pad>",
    "<sos>",
    "<eos>"
  ]
}