{
  "merges": [
    [
      "ہ",
      "ٕ"
    ],
    [
      "ا",
      "ن"
    ],
    [
      "ہ",
      "ِ"
    ],
    [
      "ن",
      "ٛ"
    ],
    [
      "۔",
      "</w>"
    ],
    [
      "چ",
      "ھ"
    ],
    [
      "ت",
      "ہٕ"
    ],
    [
      "ر",
      "ی"
    ],
    [
      "نٛ",
      "ز"
    ],
    [
      "ا",
      "ر"
    ],
    [
      "س",
      "م"
    ],
    [
      "ت",
      "ھ"
    ],
    [
      "ن",
      "ہٕ"
    ],
    [
      "ا",
      "و"
    ],
    [
      "ن",
      "د"
    ],
    [
      "ا",
      "م"
    ],
    [
      "ی",
      "ن"
    ],
    [
      "ا",
      "ل"
    ],
    [
      "و",
      "ر"
    ],
    [
      "ک",
      "ر"
    ],
    [
      "س",
      "ت"
    ],
    [
      "ی",
      "و"
    ],
    [
      "ک",
      "ھ"
    ],
    [
      "ی",
      "ا"
    ],
    [
      "ٹ",
      "ھ"
    ],
    [
      "نٛ",
      "د"
    ],
    [
      "ی",
      "م"
    ],
    [
      "ن",
      "ز"
    ],
    [
      "سم",
      "نٛز"
    ],
    [
      "ی",
      "ہ"
    ],
    [
      "ا",
      "ہ"
    ],
    [
      "ر",
      "و"
    ],
    [
      "ی",
      "ٚ"
    ],
    [
      "ِ",
      "س"
    ],
    [
      "پ",
      "ی"
    ],
    [
      "ک",
      "و"
    ],
    [
      "م",
      "ی"
    ],
    [
      "و",
      "ا"
    ],
    [
      "ب",
      "ا"
    ],
    [
      "ر",
      "ا"
    ],
    [
      "ن",
      "ی"
    ],
    [
      "ِ",
      "م"
    ],
    [
      "َ",
      "ن"
    ],
    [
      "ل",
      "ا"
    ],
    [
      "و",
      "ٗ"
    ],
    [
      "چھ",
      "ِ"
    ],
    [
      "ان",
      "۔</w>"
    ],
    [
      "ت",
      "ہِ"
    ],
    [
      "ر",
      "ٕ"
    ],
    [
      "ی",
      "ہِ"
    ],
    [
      "م",
      "نٛز"
    ],
    [
      "ن",
      "ہ"
    ],
    [
      "ل",
      "ی"
    ],
    [
      "ٮ",
      "۪"
    ],
    [
      "چھ",
      "ُ"
    ],
    [
      "ن",
      "گ"
    ],
    [
      "ن",
      "ہِ"
    ],
    [
      "ر",
      "ِ"
    ],
    [
      "س",
      "ٕ"
    ],
    [
      "ک",
      "ٔ"
    ],
    [
      "ت",
      "ی"
    ],
    [
      "ن",
      "و"
    ],
    [
      "پی",
      "ٹھ"
    ],
    [
      "ا",
      "ی"
    ],
    [
      "س",
      "ۭ"
    ],
    [
      "ُ",
      "ک"
    ],
    [
      "ا",
      "د"
    ],
    [
      "ِ",
      "ل"
    ],
    [
      "س",
      "ی"
    ],
    [
      "ا",
      "کھ"
    ],
    [
      "ت",
      "ۍ"
    ],
    [
      "ت",
      "م"
    ],
    [
      "ہ",
      "ہ"
    ],
    [
      "ز",
      "ِ"
    ],
    [
      "او",
      "س"
    ],
    [
      "ب",
      "ر"
    ],
    [
      "،",
      "ی"
    ],
    [
      "د",
      "ی"
    ],
    [
      "ب",
      "ی"
    ],
    [
      "ژ",
      "ھ"
    ],
    [
      "پ",
      "ن"
    ],
    [
      "ا",
      "ک"
    ],
    [
      "ر",
      "م"
    ],
    [
      "ِ",
      "و"
    ],
    [
      "د",
      "ٕ"
    ],
    [
      "کر",
      "نہٕ"
    ],
    [
      "سم",
      "نز"
    ],
    [
      "ت",
      "ر"
    ],
    [
      "ن",
      "س"
    ],
    [
      "ک",
      "ی"
    ],
    [
      "ن",
      "م"
    ],
    [
      "خ",
      "ٲ"
    ],
    [
      "ہ",
      "ند"
    ],
    [
      "ک",
      "م"
    ],
    [
      "و",
      "ُ"
    ],
    [
      "ٲ",
      "س"
    ],
    [
      "ط",
      "رٕ"
    ],
    [
      "س",
      "پ"
    ],
    [
      "خٲ",
      "طرٕ"
    ],
    [
      "سۭ",
      "تۍ"
    ],
    [
      "و",
      "ل"
    ],
    [
      "ب",
      "ن"
    ],
    [
      "م",
      "ہِ"
    ],
    [
      "ٹ",
      "ی"
    ],
    [
      "ز",
      "ی"
    ],
    [
      "ِ",
      "تھ"
    ],
    [
      "ن",
      "ا"
    ],
    [
      "م",
      "ُ"
    ],
    [
      "ت",
      "ہ"
    ],
    [
      "و",
      "ٚ"
    ],
    [
      "و",
      "ست"
    ],
    [
      "گ",
      "ر"
    ],
    [
      "کو",
      "ٚ"
    ],
    [
      "و",
      "ی"
    ],
    [
      "ا",
      "َ"
    ],
    [
      "2",
      "0"
    ],
    [
      "و",
      "ن"
    ],
    [
      "ک",
      "س"
    ],
    [
      "پ",
      "تہٕ"
    ],
    [
      "َ",
      "سمنٛز"
    ],
    [
      "پ",
      "ر"
    ],
    [
      "ٕ",
      "چ"
    ],
    [
      "ا",
      "ب"
    ],
    [
      "ا",
      "ست"
    ],
    [
      "ُ",
      "ھ"
    ],
    [
      "ان",
      "ٛ"
    ],
    [
      "َ",
      "س"
    ],
    [
      "ٲ",
      "ی"
    ],
    [
      "ٹ",
      "ر"
    ],
    [
      "ا",
      "ٔ"
    ],
    [
      "د",
      "ر"
    ],
    [
      "م",
      "ت"
    ],
    [
      "ک",
      "ہِ"
    ],
    [
      "آ",
      "س"
    ],
    [
      "ن",
      "ۍ"
    ],
    [
      "ک",
      "ِس"
    ],
    [
      "ل",
      "و"
    ],
    [
      "چھ",
      "ے"
    ],
    [
      "چ",
      "ُھ"
    ],
    [
      "ُ",
      "ن"
    ],
    [
      "ٲ",
      "ری"
    ],
    [
      "1",
      "9"
    ],
    [
      "ل",
      "م"
    ],
    [
      "ٲ",
      "م"
    ],
    [
      "ل",
      "ہٕ"
    ],
    [
      "ہ",
      "ی"
    ],
    [
      "د",
      "ِ"
    ],
    [
      "ن",
      "ِ"
    ],
    [
      "و",
      "ج"
    ],
    [
      "ک",
      "ار"
    ],
    [
      "ٮ۪",
      "ٹھ"
    ],
    [
      "ا",
      "ت"
    ],
    [
      "با",
      "پ"
    ],
    [
      "ک",
      "ِ"
    ],
    [
      "،",
      "تہٕ"
    ],
    [
      "د",
      "ار"
    ],
    [
      "گ",
      "ژھ"
    ],
    [
      "ن",
      "ت"
    ],
    [
      "ُ",
      "نٛد"
    ],
    [
      "او",
      "نہٕ"
    ],
    [
      "ل",
      "ہِ"
    ],
    [
      "ی",
      "س"
    ],
    [
      "ش",
      "ن"
    ],
    [
      "ش",
      "ہ"
    ],
    [
      "وا",
      "ری"
    ],
    [
      "پ",
      "ٲ"
    ],
    [
      "ہند",
      "وست"
    ],
    [
      "م",
      "نز"
    ],
    [
      "ت",
      "و"
    ],
    [
      "ع",
      "م"
    ],
    [
      "ع",
      "ل"
    ],
    [
      "ِ",
      "ہ"
    ],
    [
      "چھے",
      "ٚ"
    ],
    [
      "ك",
      "ر"
    ],
    [
      "کوٚ",
      "ر"
    ],
    [
      "ی",
      "ل"
    ],
    [
      "ا",
      "س"
    ],
    [
      "م",
      "و"
    ],
    [
      "ق",
      "ی"
    ],
    [
      "د",
      "ھ"
    ],
    [
      "د",
      "ور"
    ],
    [
      "یا",
      "دٕ"
    ],
    [
      "کٔ",
      "ر"
    ],
    [
      "چھ",
      "ٗ"
    ],
    [
      "ت",
      "ٔ"
    ],
    [
      "س",
      "ر"
    ],
    [
      "ط",
      "ور"
    ],
    [
      "ن",
      "منٛز"
    ],
    [
      "ت",
      "۔</w>"
    ],
    [
      "َ",
      "ر"
    ],
    [
      "گ",
      "و"
    ],
    [
      "نٛد",
      "ِ"
    ],
    [
      "ع",
      "لا"
    ],
    [
      "ُ",
      "ہ"
    ],
    [
      "و",
      "ٕ"
    ],
    [
      "ا",
      "ز"
    ],
    [
      "ف",
      "ی"
    ],
    [
      "واری",
      "اہ"
    ],
    [
      "م",
      "ن"
    ],
    [
      "ز",
      "یادٕ"
    ],
    [
      "س",
      "و"
    ],
    [
      "کھ",
      "ۄ"
    ],
    [
      "ٲ",
      "ل"
    ],
    [
      "ب",
      "ھ"
    ],
    [
      "ری",
      "است"
    ],
    [
      "م",
      "ر"
    ],
    [
      "س",
      "ٹ"
    ],
    [
      "ك",
      "ھ"
    ],
    [
      "ا",
      "تھ"
    ],
    [
      "کھۄ",
      "تہٕ"
    ],
    [
      "ر",
      "ف"
    ],
    [
      "س",
      "پیٹھ"
    ],
    [
      "گ",
      "ی"
    ],
    [
      "د",
      "ۄ"
    ],
    [
      "ب",
      "ٲ"
    ],
    [
      "علا",
      "ق"
    ],
    [
      "آ",
      "و"
    ],
    [
      "پٲ",
      "ٹھ"
    ],
    [
      "ا",
      "ئ"
    ],
    [
      "،",
      "م"
    ],
    [
      "ل",
      "ہ"
    ],
    [
      "م",
      "ۍ"
    ],
    [
      "کر",
      "ان"
    ],
    [
      "ا",
      "ج"
    ],
    [
      "سۭ",
      "تہِ"
    ],
    [
      "ا",
      "ف"
    ],
    [
      "0",
      "0"
    ],
    [
      "د",
      "و"
    ],
    [
      "آ",
      "م"
    ],
    [
      "کر",
      "ن"
    ],
    [
      "ا",
      "ِ"
    ],
    [
      "ت",
      "ِم"
    ],
    [
      "ت",
      "ام"
    ],
    [
      "ٲ",
      "و"
    ],
    [
      "ہ",
      "ہِ"
    ],
    [
      "ف",
      "ر"
    ],
    [
      "ز",
      "ن"
    ],
    [
      "س",
      "ل"
    ],
    [
      "ِ",
      "ی"
    ],
    [
      "س",
      "ار"
    ],
    [
      "ی",
      "ِو"
    ],
    [
      "ی",
      "ِم"
    ],
    [
      "ان",
      "ہٕ"
    ],
    [
      "ش",
      "ی"
    ],
    [
      "ہندوست",
      "ان"
    ],
    [
      "گ",
      "ۄ"
    ],
    [
      "نٛ",
      "ہہ"
    ],
    [
      "پ",
      "و"
    ],
    [
      "رو",
      "ٗ"
    ],
    [
      "ڈ",
      "ی"
    ],
    [
      "ہ",
      "م"
    ],
    [
      "ک",
      "ُ"
    ],
    [
      "ک",
      "ن"
    ],
    [
      "نٛ",
      "گ"
    ],
    [
      "ند",
      "ِ"
    ],
    [
      "کٔ",
      "رِ"
    ],
    [
      "باپ",
      "ت"
    ],
    [
      "ک",
      "ین"
    ],
    [
      "ا",
      "ص"
    ],
    [
      "پ",
      "ٮ۪ٹھ"
    ],
    [
      "ش",
      "ٲم"
    ],
    [
      "ٗ",
      "ك"
    ],
    [
      "ش",
      "اہ"
    ],
    [
      "چ",
      "ی"
    ],
    [
      "ک",
      "ہ"
    ],
    [
      "ٕ",
      "ژ"
    ],
    [
      "ک",
      "ل"
    ],
    [
      "یا",
      "ہ"
    ],
    [
      "ُ",
      "ند"
    ],
    [
      "اہ",
      "م"
    ],
    [
      "چ",
      "ہِ"
    ],
    [
      "ک",
      "ۍ"
    ],
    [
      "20",
      "1"
    ],
    [
      "ج",
      "ی"
    ],
    [
      "خ",
      "ت"
    ],
    [
      "ٔ",
      "ری"
    ],
    [
      "ش",
      "ر"
    ],
    [
      "ق",
      "ت"
    ],
    [
      "گ",
      "ری"
    ],
    [
      "ک",
      "ٹ"
    ],
    [
      "ان",
      "ی"
    ],
    [
      "ج",
      "ا"
    ],
    [
      "ب",
      "ال"
    ],
    [
      "ن",
      "او"
    ],
    [
      "ب",
      "ہ"
    ],
    [
      "ُ",
      "س"
    ],
    [
      "م",
      "ق"
    ],
    [
      "کر",
      "ان۔</w>"
    ],
    [
      "پٲٹھ",
      "ۍ"
    ],
    [
      "پ",
      "ور"
    ],
    [
      "م",
      "ٗ"
    ],
    [
      "ٲ",
      "ص"
    ],
    [
      "ند",
      "ر"
    ],
    [
      "م",
      "ہ"
    ],
    [
      "و",
      "ار"
    ],
    [
      "ان",
      "ڈ"
    ],
    [
      "ان",
      "د"
    ],
    [
      "گۄ",
      "ڈ"
    ],
    [
      "ام",
      "ہِ"
    ],
    [
      "ف",
      "لم"
    ],
    [
      "ان",
      "تہٕ"
    ],
    [
      "با",
      "د"
    ],
    [
      "ب",
      "ار"
    ],
    [
      "ب",
      "و"
    ],
    [
      "ف",
      "ِل"
    ],
    [
      "ع",
      "ہٕ"
    ],
    [
      "ب",
      "ہٕ"
    ],
    [
      "ِ",
      "ھ"
    ],
    [
      "َ",
      "و"
    ],
    [
      "ل",
      "ک"
    ],
    [
      "ح",
      "ص"
    ],
    [
      "ٲ",
      "ب"
    ],
    [
      "ہ",
      "یٚ"
    ],
    [
      "ب",
      "ٔ"
    ],
    [
      "ت",
      "ق"
    ],
    [
      "را",
      "ج"
    ],
    [
      "او",
      "ن"
    ],
    [
      "و",
      "و"
    ],
    [
      "ا",
      "ش"
    ],
    [
      "وٗ",
      "ر"
    ],
    [
      "ك",
      "ہِ"
    ],
    [
      "ان",
      "،"
    ],
    [
      "سٕ",
      "نٛد"
    ],
    [
      "ن",
      "ڈ"
    ],
    [
      "ام",
      "ی"
    ],
    [
      "عم",
      "ال"
    ],
    [
      "ت",
      "ح"
    ],
    [
      "،ی",
      "یٚ"
    ],
    [
      "ان",
      "س"
    ],
    [
      "تھ",
      "۔</w>"
    ],
    [
      "نم",
      "نز"
    ],
    [
      "ق",
      "و"
    ],
    [
      "گ",
      "وٚ"
    ],
    [
      "ن",
      "ٹ"
    ],
    [
      "پ",
      "ھ"
    ],
    [
      "ن",
      "تہٕ"
    ],
    [
      "سٕ",
      "نٛز"
    ],
    [
      "ٲ",
      "ر"
    ],
    [
      "ح",
      "م"
    ],
    [
      "پی",
      "ش"
    ],
    [
      "سپ",
      "ٮ۪ٹھ"
    ],
    [
      "ع",
      "ام"
    ],
    [
      "ز",
      "ٕ"
    ],
    [
      "ت",
      "ۄ"
    ],
    [
      "ی",
      "یٚ"
    ],
    [
      "د",
      "م"
    ],
    [
      "ج",
      "و"
    ],
    [
      "ٗ",
      "ند"
    ],
    [
      "ت",
      "عل"
    ],
    [
      "ُ",
      "ر"
    ],
    [
      "ل",
      "گ"
    ],
    [
      "ی",
      "ر"
    ],
    [
      "ی",
      "تھ"
    ],
    [
      "ا",
      "پ"
    ],
    [
      "یو",
      "ٗ"
    ],
    [
      "ت",
      "س"
    ],
    [
      "ق",
      "ع"
    ],
    [
      "و",
      "ال"
    ],
    [
      "ا",
      "ری"
    ],
    [
      "ح",
      "کو"
    ],
    [
      "ل",
      "ِ"
    ],
    [
      "َ",
      "نٛز"
    ],
    [
      "ق",
      "ٕ"
    ],
    [
      "ان",
      "ت"
    ],
    [
      "م",
      "ار"
    ],
    [
      "پ",
      "نٛ"
    ],
    [
      "تر",
      "ٛ"
    ],
    [
      "یا",
      "د"
    ],
    [
      "ٲس",
      "ۍ"
    ],
    [
      "کرنہٕ",
      "۔</w>"
    ],
    [
      "ا",
      "گر"
    ],
    [
      "س",
      "ِ"
    ],
    [
      "ٲ",
      "می"
    ],
    [
      "و",
      "ِ"
    ],
    [
      "س",
      "ن"
    ],
    [
      "سٕ",
      "تہِ"
    ],
    [
      "پر",
      "ٛ"
    ],
    [
      "ا",
      "ح"
    ],
    [
      "اد",
      "ٕ"
    ],
    [
      "نہٕ",
      "۔</w>"
    ],
    [
      "و",
      "٘"
    ],
    [
      "ہ",
      "ر"
    ],
    [
      "ست",
      "ام"
    ],
    [
      "یو",
      "ان۔</w>"
    ],
    [
      "ل",
      "ف"
    ],
    [
      "چ",
      "ِھ"
    ],
    [
      "ٮ۪",
      "ن"
    ],
    [
      "و",
      "س"
    ],
    [
      "ل",
      "۔</w>"
    ],
    [
      "د",
      "یو"
    ],
    [
      "ِتھ",
      "۔</w>"
    ],
    [
      "م",
      "ال"
    ],
    [
      "ش",
      "ِ"
    ],
    [
      "ت",
      "ع"
    ],
    [
      "ٗ",
      "ن"
    ],
    [
      "پ",
      "ار"
    ],
    [
      "ن",
      "ظ"
    ],
    [
      "آ",
      "یہ"
    ],
    [
      "گ",
      "ٔ"
    ],
    [
      "ب",
      "ل"
    ],
    [
      "ب",
      "َ"
    ],
    [
      "َ",
      "تھ"
    ],
    [
      "م",
      "ع"
    ],
    [
      "شٲم",
      "ِل"
    ],
    [
      "ح",
      "ال"
    ],
    [
      "و",
      "تہٕ"
    ],
    [
      "یٚ",
      "ٹھ"
    ],
    [
      "م",
      "ِس"
    ],
    [
      "ٲی",
      "ی"
    ],
    [
      "آ",
      "ف"
    ],
    [
      "سل",
      "ط"
    ],
    [
      "ک",
      "ور"
    ],
    [
      "ف",
      "وج"
    ],
    [
      "ک",
      "ان"
    ],
    [
      "است",
      "عمال"
    ],
    [
      "ا",
      "ین"
    ],
    [
      "ب",
      "س"
    ],
    [
      "م",
      "س"
    ],
    [
      "یو",
      "ٚ"
    ],
    [
      "ج",
      "ن"
    ],
    [
      "ح",
      "ٲص"
    ],
    [
      "ی",
      "ی"
    ],
    [
      "ٲ",
      "نی"
    ],
    [
      "20",
      "0"
    ],
    [
      "ی",
      "ِ"
    ],
    [
      "گ",
      "ھ"
    ],
    [
      "ٲ",
      "خ"
    ],
    [
      "غ",
      "ل"
    ],
    [
      "تم",
      "ہِ"
    ],
    [
      "ج",
      "نگ"
    ],
    [
      "ت",
      "ری"
    ],
    [
      "دور",
      "ان"
    ],
    [
      "ہ",
      "سمنٛز"
    ],
    [
      "ک",
      "ال"
    ],
    [
      "ام",
      "ہ"
    ],
    [
      "یم",
      "نٛز"
    ],
    [
      "ُ",
      "و"
    ],
    [
      "ت",
      "ِ"
    ],
    [
      "ٲ",
      "نہِ"
    ],
    [
      "یو",
      "ان"
    ],
    [
      "س",
      "ہٕ"
    ],
    [
      "ہِ",
      "نٛد"
    ],
    [
      "س",
      "ُہ"
    ],
    [
      "ح",
      "ی"
    ],
    [
      "ز",
      "ان"
    ],
    [
      "ق",
      "ب"
    ],
    [
      "َن",
      "منٛز"
    ],
    [
      "ت",
      "ُہ"
    ],
    [
      "م",
      "ٲ"
    ],
    [
      "پ",
      "وٗ"
    ],
    [
      "یہ",
      "ند"
    ],
    [
      "س",
      "ان"
    ],
    [
      "گوٚ",
      "و"
    ],
    [
      "چھِ",
      "۔</w>"
    ],
    [
      "ق",
      "د"
    ],
    [
      "ٕ",
      "نہِ"
    ],
    [
      "ش",
      "و"
    ],
    [
      "ت",
      "ج"
    ],
    [
      "بن",
      "اونہٕ"
    ],
    [
      "ش",
      "ُ"
    ],
    [
      "چ",
      "و"
    ],
    [
      "ر",
      "ن"
    ],
    [
      "ق",
      "ر"
    ],
    [
      "ا",
      "خ"
    ],
    [
      "ا",
      "ع"
    ],
    [
      "ب",
      "د"
    ],
    [
      "ج",
      "ہ"
    ],
    [
      "ط",
      "رف"
    ],
    [
      "تق",
      "ری"
    ],
    [
      "ر",
      "س"
    ],
    [
      "ست",
      "ان"
    ],
    [
      "ا",
      "یہ"
    ],
    [
      "بر",
      "ٛ"
    ],
    [
      "ج",
      "نو"
    ],
    [
      "پ",
      "ری"
    ],
    [
      "تہٕ",
      "م"
    ],
    [
      "ک",
      "ٲم"
    ],
    [
      "یِو",
      "ان۔</w>"
    ],
    [
      "پ",
      "رو"
    ],
    [
      "ش",
      "رو"
    ],
    [
      "س",
      "ہ"
    ],
    [
      "کھ",
      "یل"
    ],
    [
      "وا",
      "ج"
    ],
    [
      "ت",
      "ن"
    ],
    [
      "وٕ",
      "ے"
    ],
    [
      "َ",
      "م"
    ],
    [
      "ک",
      "ش"
    ],
    [
      "ٛ",
      "ادٕ"
    ],
    [
      "ب",
      "ین"
    ],
    [
      "نہٕ",
      "خٲطرٕ"
    ],
    [
      "کوٚ",
      "رم"
    ],
    [
      "خ",
      "اص"
    ],
    [
      "وا",
      "قع"
    ],
    [
      "نِ",
      "ش"
    ],
    [
      "ہ",
      "و"
    ],
    [
      "ُ",
      "ت"
    ],
    [
      "د",
      "ٔ"
    ],
    [
      "ہ",
      "ن"
    ],
    [
      "ٹ",
      "ری"
    ],
    [
      "باپ",
      "تھ"
    ],
    [
      "،ی",
      "تھ"
    ],
    [
      "ئ",
      "ی"
    ],
    [
      "ُ",
      "ل"
    ],
    [
      "خ",
      "ی"
    ],
    [
      "ب",
      "نگ"
    ],
    [
      "س",
      "ند"
    ],
    [
      "ک",
      "ا"
    ],
    [
      "ہ",
      "ُنٛد"
    ],
    [
      "ان",
      "و"
    ],
    [
      "غ",
      "ر"
    ],
    [
      "ص",
      "د"
    ],
    [
      "ٲ",
      "نۍ"
    ],
    [
      "ث",
      "ر"
    ],
    [
      "س",
      "ٹی"
    ],
    [
      "ت",
      "ب"
    ],
    [
      "ٕ",
      "نۍ"
    ],
    [
      "دۄ",
      "ہ"
    ],
    [
      "ک",
      "َر"
    ],
    [
      "و",
      "ۄ"
    ],
    [
      "ك",
      "ِ"
    ],
    [
      "نہ",
      "ند"
    ],
    [
      "نز",
      "ِ"
    ],
    [
      "دی",
      "ٖ"
    ],
    [
      "ٕ",
      "ر"
    ],
    [
      "ٕ",
      "تہِ"
    ],
    [
      "سلط",
      "نت"
    ],
    [
      "ڈ",
      "و"
    ],
    [
      "آ",
      "یہِ"
    ],
    [
      "ل",
      "َ"
    ],
    [
      "ک",
      "ام"
    ],
    [
      "لا",
      "ف"
    ],
    [
      "ہٕ",
      "۔</w>"
    ],
    [
      "م",
      "ِ"
    ],
    [
      "ک",
      "یٚ"
    ],
    [
      "پن",
      "ن"
    ],
    [
      "انٛ",
      "ہہ"
    ],
    [
      "مُ",
      "ت"
    ],
    [
      "پ",
      "ٔ"
    ],
    [
      "نٛد",
      "ۍ"
    ],
    [
      "ای",
      "ت"
    ],
    [
      "و",
      "ٔ"
    ],
    [
      "ین",
      "ڈ"
    ],
    [
      "ل",
      "ب"
    ],
    [
      "م",
      "ح"
    ],
    [
      "تٔ",
      "مۍ"
    ],
    [
      "ٲل",
      "ۍ"
    ],
    [
      "د",
      "ری"
    ],
    [
      "م",
      "ب"
    ],
    [
      "ار",
      "ت"
    ],
    [
      "اوس",
      "۔</w>"
    ],
    [
      "ب",
      "طور"
    ],
    [
      "ض",
      "ل"
    ],
    [
      "ٲس",
      "ہِ"
    ],
    [
      "ٕ",
      "کۍ"
    ],
    [
      "ل",
      "ن"
    ],
    [
      "ل",
      "س"
    ],
    [
      "کی",
      "نٛہہ"
    ],
    [
      "کرنہٕ",
      "خٲطرٕ"
    ],
    [
      "ک",
      "ٲری"
    ],
    [
      "ٕژ",
      "۔</w>"
    ],
    [
      "ن",
      "ش"
    ],
    [
      "ب",
      "چ"
    ],
    [
      "لی",
      "ٖ"
    ],
    [
      "کِ",
      "ر"
    ],
    [
      "چھ",
      "۔</w>"
    ],
    [
      "شرو",
      "ع"
    ],
    [
      "سم",
      "َنٛز"
    ],
    [
      "دِ",
      "نہٕ"
    ],
    [
      "ک",
      "ری"
    ],
    [
      "چھے",
      "٘"
    ],
    [
      "سٕ",
      "نٛدِ"
    ],
    [
      "ك",
      "ِس"
    ],
    [
      "م",
      "ان"
    ],
    [
      "1",
      "8"
    ],
    [
      "و",
      "ری"
    ],
    [
      "ٕچ",
      "ہِ"
    ],
    [
      "اد",
      "اک"
    ],
    [
      "م",
      "ین"
    ],
    [
      "آ",
      "ب"
    ],
    [
      "یا",
      "ب"
    ],
    [
      "ظ",
      "ام"
    ],
    [
      "م",
      "ل"
    ],
    [
      "تی",
      "ار"
    ],
    [
      "س",
      "ہِ"
    ],
    [
      "طرف",
      "ہٕ"
    ],
    [
      "حکو",
      "مت"
    ],
    [
      "ع",
      "ہ"
    ],
    [
      "م",
      "ا"
    ],
    [
      "رو",
      "ز"
    ],
    [
      "ال",
      "ی"
    ],
    [
      "،",
      "ت"
    ],
    [
      "اد",
      "ا"
    ],
    [
      "او",
      "ان۔</w>"
    ],
    [
      "م",
      "د"
    ],
    [
      "کٔ",
      "رم"
    ],
    [
      "ٹ",
      "ہِ"
    ],
    [
      "می",
      "ٖ"
    ],
    [
      "ان",
      "ہ"
    ],
    [
      "آ",
      "ر"
    ],
    [
      "ب",
      "یٚ"
    ],
    [
      "ک",
      "َ"
    ],
    [
      "با",
      "ق"
    ],
    [
      "أ",
      "کِس"
    ],
    [
      "تھ",
      "و"
    ],
    [
      "چھُ",
      "۔</w>"
    ],
    [
      "د",
      "ہ"
    ],
    [
      "کو",
      "ٗ"
    ],
    [
      "ٹ",
      "و"
    ],
    [
      "چ",
      "ل"
    ],
    [
      "تم",
      "ۍ"
    ],
    [
      "ک",
      "انٛہہ"
    ],
    [
      "ق",
      "ص"
    ],
    [
      "ی",
      "ٖ"
    ],
    [
      "پیٹھ",
      "ٕ"
    ],
    [
      "د",
      "ِل"
    ],
    [
      "أ",
      "مہِ"
    ],
    [
      "گ",
      "َ"
    ],
    [
      "خ",
      "ص"
    ],
    [
      "تو",
      "ہہِ"
    ],
    [
      "شہ",
      "ر"
    ],
    [
      "س",
      "ُنٛد"
    ],
    [
      "س",
      "یا"
    ],
    [
      "دی",
      "ش"
    ],
    [
      "گ",
      "ِ"
    ],
    [
      "باد",
      "شاہ"
    ],
    [
      "د",
      "ان"
    ],
    [
      "ح",
      "ت"
    ],
    [
      "چ",
      "ہ"
    ],
    [
      "پ",
      "ان"
    ],
    [
      "ق",
      "ل"
    ],
    [
      "ق",
      "اب"
    ],
    [
      "اَ",
      "کھ"
    ],
    [
      "تۄ",
      "ہہِ"
    ],
    [
      "ا",
      "گ"
    ],
    [
      "ز",
      "ب"
    ],
    [
      "،ی",
      "ُس"
    ],
    [
      "ز",
      "ر"
    ],
    [
      "س",
      "ین"
    ],
    [
      "او",
      "ٕ"
    ],
    [
      "تعل",
      "ق"
    ],
    [
      "برٛ",
      "و"
    ],
    [
      "نہٕ",
      "پتہٕ"
    ],
    [
      "ش",
      "ک"
    ],
    [
      "1",
      "7"
    ],
    [
      "د",
      "اد"
    ],
    [
      "رو",
      "ُ"
    ],
    [
      "کھ",
      "وتہٕ"
    ],
    [
      "ل",
      "ٲ"
    ],
    [
      "یِو",
      "ان"
    ],
    [
      "ا",
      "تہٕ"
    ],
    [
      "ا",
      "كھ"
    ],
    [
      "ب",
      "ند"
    ],
    [
      "تھ",
      "ی"
    ],
    [
      "و",
      "ٲ"
    ],
    [
      "د",
      "ن"
    ],
    [
      "ِ",
      "ن"
    ],
    [
      "یہِ",
      "چھُ"
    ],
    [
      "ب",
      "رو"
    ],
    [
      "نہ",
      "ُنٛد"
    ],
    [
      "می",
      "ٹر"
    ],
    [
      "روٗ",
      "ع"
    ],
    [
      "گۄڈ",
      "ٕ"
    ],
    [
      "ٲ",
      "دی"
    ],
    [
      "اَ",
      "مہِ"
    ],
    [
      "پوٗ",
      "رٕ"
    ],
    [
      "ور",
      "ن"
    ],
    [
      "اَ",
      "تھ"
    ],
    [
      "ٲ",
      "تی"
    ],
    [
      "بر",
      "ط"
    ],
    [
      "خ",
      "و"
    ],
    [
      "حص",
      "ہٕ"
    ],
    [
      "پ",
      "ال"
    ],
    [
      "ق",
      "ہٕ"
    ],
    [
      "ر",
      "ک"
    ],
    [
      "خ",
      "ط"
    ],
    [
      "نہ",
      "نٛد"
    ],
    [
      "مُ",
      "ت۔</w>"
    ],
    [
      "وست",
      "ان"
    ],
    [
      "س",
      "تہٕ"
    ],
    [
      "ب",
      "وٚ"
    ],
    [
      "ری",
      "ٖ"
    ],
    [
      "ر",
      "ٛ"
    ],
    [
      "ی",
      "ت"
    ],
    [
      "كر",
      "نہٕ"
    ],
    [
      "00",
      "0"
    ],
    [
      "ٮ۪",
      "و"
    ],
    [
      "پ",
      "ہ"
    ],
    [
      "1",
      "5"
    ],
    [
      "ر",
      "ت"
    ],
    [
      "ک",
      "یا"
    ],
    [
      "ک",
      "ٲ"
    ],
    [
      "1",
      "6"
    ],
    [
      "ل",
      "ۄ"
    ],
    [
      "ك",
      "رِ"
    ],
    [
      "خ",
      "انٛ"
    ],
    [
      "یو",
      "ن"
    ],
    [
      "یم",
      "ہِ"
    ],
    [
      "بٔ",
      "ڑ"
    ],
    [
      "ار",
      "ٕ"
    ],
    [
      "َ",
      "ت"
    ],
    [
      "فِل",
      "م"
    ],
    [
      "ائ",
      "ی"
    ],
    [
      "نو",
      "ال"
    ],
    [
      "ف",
      "ل"
    ],
    [
      "خ",
      "ٕ"
    ],
    [
      "ڑ",
      "ھ"
    ],
    [
      "ر",
      "ل"
    ],
    [
      "ٕ",
      "تۍ"
    ],
    [
      "برٛو",
      "نٛہہ"
    ],
    [
      "َس",
      "پیٹھ"
    ],
    [
      "علاق",
      "ہٕ"
    ],
    [
      "پن",
      "نہِ"
    ],
    [
      "،",
      "س"
    ],
    [
      "م",
      "ش"
    ],
    [
      "ک",
      "ٕ"
    ],
    [
      "ک",
      "ُن"
    ],
    [
      "ص",
      "رف"
    ],
    [
      "تُہ",
      "ۍ"
    ],
    [
      "ین",
      "ی"
    ],
    [
      "ف",
      "ت"
    ],
    [
      "ن",
      "ن"
    ],
    [
      "وٕے",
      "کھۄتہٕ"
    ],
    [
      "پ",
      "یٚٹھ"
    ],
    [
      "م",
      "بر"
    ],
    [
      "ح",
      "ِ"
    ],
    [
      "ے",
      "ٚ"
    ],
    [
      "آ",
      "ز"
    ],
    [
      "،م",
      "گر"
    ],
    [
      "ڈ",
      "یو"
    ],
    [
      "یم",
      "و"
    ],
    [
      "زِ",
      "ی"
    ],
    [
      "ان",
      "گ"
    ],
    [
      "حٲص",
      "ِل"
    ],
    [
      "م",
      "ط"
    ],
    [
      "کٔرِ",
      "تھ"
    ],
    [
      "ك",
      "ین"
    ],
    [
      "پ",
      "ت"
    ],
    [
      "ٹ",
      "ہٕ"
    ],
    [
      "م",
      "شہ"
    ],
    [
      "تم",
      "ام"
    ],
    [
      "ُ",
      "کھ"
    ],
    [
      "،ی",
      "ِم"
    ],
    [
      "ژ",
      "ن"
    ],
    [
      "خ",
      "اند"
    ],
    [
      "وا",
      "پ"
    ],
    [
      "او",
      "ان"
    ],
    [
      "چھ",
      "نہٕ"
    ],
    [
      "نٛ",
      "ڈ"
    ],
    [
      "د",
      "ِو"
    ],
    [
      "ق",
      "ٲ"
    ],
    [
      "ف",
      "ار"
    ],
    [
      "پیٹھ",
      "ہٕ"
    ],
    [
      "ر",
      "ان"
    ],
    [
      "ا",
      "یم"
    ],
    [
      "غر",
      "بی"
    ],
    [
      "آس",
      "ان۔</w>"
    ],
    [
      "تٔ",
      "مہِ"
    ],
    [
      "َ",
      "ل"
    ],
    [
      "1",
      "0"
    ],
    [
      "ِ",
      "ق"
    ],
    [
      "پٮ۪ٹھ",
      "ٕ"
    ],
    [
      "ہ",
      "ار"
    ],
    [
      "ن",
      "پیٹھ"
    ],
    [
      "گ",
      "ا"
    ],
    [
      "خ",
      "ان"
    ],
    [
      "ج",
      "ان"
    ],
    [
      "ٹ",
      "یم"
    ],
    [
      "خت",
      "لف"
    ],
    [
      "نہٕ",
      "نٛز"
    ],
    [
      "س",
      "ۄ"
    ],
    [
      "َ",
      "سمنز"
    ],
    [
      "19",
      "9"
    ],
    [
      "نٛد",
      "ِس"
    ],
    [
      "نی",
      "شن"
    ],
    [
      "رِ",
      "یا"
    ],
    [
      "با",
      "قی"
    ],
    [
      "ار",
      "ڈ"
    ],
    [
      "ع",
      "ی"
    ],
    [
      "و",
      "ص"
    ],
    [
      "ر",
      "ام"
    ],
    [
      "د",
      "ست"
    ],
    [
      "نہ",
      "نز"
    ],
    [
      "بن",
      "ٲو"
    ],
    [
      "کِر",
      "دار"
    ],
    [
      "اک",
      "ہِ"
    ],
    [
      "ییٚ",
      "لہِ"
    ],
    [
      "ک",
      "ہٕ"
    ],
    [
      "َ",
      "سپٮ۪ٹھ"
    ],
    [
      "س",
      "سۭتۍ"
    ],
    [
      "ہٕ",
      "نٛز"
    ],
    [
      "ج",
      "ٲری"
    ],
    [
      "یم",
      "نز"
    ],
    [
      "وج",
      "و"
    ],
    [
      "می",
      "ل"
    ],
    [
      "یٚ",
      "لہِ"
    ],
    [
      "ن",
      "،"
    ],
    [
      "تۄ",
      "ہہ"
    ],
    [
      "س",
      "ب"
    ],
    [
      "ت",
      "َ"
    ],
    [
      "ح",
      "د"
    ],
    [
      "ن",
      "ع"
    ],
    [
      "ح",
      "کم"
    ],
    [
      "منٛز",
      "ٕ"
    ],
    [
      "چھ",
      "ِم"
    ],
    [
      "کٔ",
      "نۍ"
    ],
    [
      "چھِ",
      "و"
    ],
    [
      "س",
      "نگ"
    ],
    [
      "آ",
      "بٲ"
    ],
    [
      "ا",
      "یو"
    ],
    [
      "پ",
      "ل"
    ],
    [
      "او",
      "ر"
    ],
    [
      "ج",
      "ین"
    ],
    [
      "19",
      "7"
    ],
    [
      "م",
      "شر"
    ],
    [
      "بنگ",
      "ال"
    ],
    [
      "ب",
      "یا"
    ],
    [
      "ع",
      "ال"
    ],
    [
      "خ",
      "ر"
    ],
    [
      "19",
      "8"
    ],
    [
      "د",
      "ین"
    ],
    [
      "آ",
      "مت"
    ],
    [
      "ا",
      "ے"
    ],
    [
      "ال",
      "ہ"
    ],
    [
      "ال",
      "ا"
    ],
    [
      "ز",
      "ین"
    ],
    [
      "ال",
      "گ"
    ],
    [
      "در",
      "ج"
    ],
    [
      "یٚ",
      "ن"
    ],
    [
      "م",
      "َ"
    ],
    [
      "گ",
      "یہ"
    ],
    [
      ",",
      "000"
    ],
    [
      "پ",
      "َ"
    ],
    [
      "ڈ",
      "ِ"
    ],
    [
      "تقری",
      "با"
    ],
    [
      "کی",
      "ر"
    ],
    [
      "ر",
      "۔</w>"
    ],
    [
      "س",
      "ط"
    ],
    [
      "آ",
      "باد"
    ],
    [
      "ک",
      "َن"
    ],
    [
      "ج",
      "وٗ"
    ],
    [
      "ب",
      "را"
    ],
    [
      "کُ",
      "نہِ"
    ],
    [
      "گ",
      "ُ"
    ],
    [
      "آ",
      "ن"
    ],
    [
      "ک",
      "ِو"
    ],
    [
      "أ",
      "مۍ"
    ],
    [
      "ت",
      "ِہ"
    ],
    [
      "چ",
      "ین"
    ],
    [
      "می",
      "ان"
    ],
    [
      "کرنہٕ",
      "آم"
    ],
    [
      "ٹ",
      "س"
    ],
    [
      "ُ",
      "ست"
    ],
    [
      "ِ",
      "یاہ"
    ],
    [
      "ب",
      "ج"
    ],
    [
      "ش",
      "ٲ"
    ],
    [
      "زی",
      "ٖ"
    ],
    [
      "نہ",
      "ندِ"
    ],
    [
      "ب",
      "ول"
    ],
    [
      "ش",
      "م"
    ],
    [
      "مر",
      "ک"
    ],
    [
      "ا",
      "،"
    ],
    [
      "ٛ",
      "اہ"
    ],
    [
      "زی",
      "ر"
    ],
    [
      "کم",
      "پ"
    ],
    [
      "ج",
      "ھ"
    ],
    [
      "ز",
      "ور"
    ],
    [
      "ی",
      "ہٕ"
    ],
    [
      "تہٕ",
      "س"
    ],
    [
      "می",
      "ر"
    ],
    [
      "ک",
      "ت"
    ],
    [
      "کِ",
      "سم"
    ],
    [
      "ان",
      "گری"
    ],
    [
      "یو",
      "٘"
    ],
    [
      "سار",
      "ِو"
    ],
    [
      "ٹ",
      "ن"
    ],
    [
      "ند",
      "ی"
    ],
    [
      "م",
      "ج"
    ],
    [
      "وج",
      "ہ"
    ],
    [
      "تو",
      "٘"
    ],
    [
      "سمنٛز",
      "چھ"
    ],
    [
      "ہ",
      "ٮ۪"
    ],
    [
      "ی",
      "نہٕ"
    ],
    [
      "ڈ",
      "ٕ"
    ],
    [
      "ا",
      "قت"
    ],
    [
      "ہ",
      "نٛد"
    ],
    [
      "گژھ",
      "ان۔</w>"
    ],
    [
      "بار",
      "ٕ"
    ],
    [
      "ف",
      "ری"
    ],
    [
      "سی",
      "ٖ"
    ],
    [
      "زیادٕ",
      "تر"
    ],
    [
      "ٲ",
      "ن"
    ],
    [
      "پنٛ",
      "ن"
    ],
    [
      "ک",
      "تھ"
    ],
    [
      "سٕ",
      "تۍ"
    ],
    [
      "گ",
      "ام"
    ],
    [
      "پٲٹھ",
      "ہِ"
    ],
    [
      "یا",
      "ت"
    ],
    [
      "بن",
      "او"
    ],
    [
      "ب",
      "ڑ"
    ],
    [
      "آس",
      "ہِ"
    ],
    [
      "گ",
      "ان"
    ],
    [
      "ا",
      "ٹ"
    ],
    [
      "ز",
      "د"
    ],
    [
      "و",
      "ق"
    ],
    [
      "عل",
      "اوٕ"
    ],
    [
      "ل",
      "،"
    ],
    [
      "د",
      "ایت"
    ],
    [
      "ون",
      "ان"
    ],
    [
      "انڈ",
      "یا"
    ],
    [
      "ل",
      "وٗ"
    ],
    [
      "زِی",
      "ٛادٕ"
    ],
    [
      "ا",
      "یہِ"
    ],
    [
      "کھۄتہٕ",
      "زیادٕ"
    ],
    [
      "ب",
      "نی"
    ],
    [
      "سٕنٛد",
      "ِس"
    ],
    [
      "ٕ",
      "ے"
    ],
    [
      "ر",
      "ۍ"
    ],
    [
      "با",
      "قٕ"
    ],
    [
      "ص",
      "ٔ"
    ],
    [
      "قو",
      "می"
    ],
    [
      "سار",
      "وٕےکھۄتہٕ"
    ],
    [
      "ضل",
      "ع"
    ],
    [
      "کٔرِ",
      "و"
    ],
    [
      "ذ",
      "ہ"
    ],
    [
      "ذ",
      "ری"
    ],
    [
      "1",
      "2"
    ],
    [
      "ن",
      "َ"
    ],
    [
      "ٕ",
      "کہِ"
    ],
    [
      "ش",
      "ور"
    ],
    [
      "خ",
      "لاف"
    ],
    [
      "ہند",
      "ِ"
    ],
    [
      "ز",
      "ِس"
    ],
    [
      "نو",
      "ول"
    ],
    [
      "ہ",
      "ل"
    ],
    [
      "گ",
      "ڑھ"
    ],
    [
      "ذ",
      "ٔری"
    ],
    [
      "ك",
      "و٘"
    ],
    [
      "یم",
      "ی"
    ],
    [
      "ط",
      "ری"
    ],
    [
      "و",
      "قت"
    ],
    [
      "بہ",
      "تری"
    ],
    [
      "قر",
      "ار"
    ],
    [
      "ع",
      "یس"
    ],
    [
      "سٕ",
      "ند"
    ],
    [
      "1",
      "3"
    ],
    [
      "لِ",
      "ف"
    ],
    [
      "ك",
      "ار"
    ],
    [
      "را",
      "ت"
    ],
    [
      "ٕ",
      "یہ"
    ],
    [
      "ہ",
      "َسمنٛز"
    ],
    [
      "پن",
      "ج"
    ],
    [
      "پر",
      "دیش"
    ],
    [
      "ك",
      "ٗ"
    ],
    [
      "کار",
      "ڈ"
    ],
    [
      "یم",
      "ن"
    ],
    [
      "فر",
      "اہم"
    ],
    [
      "سپ",
      "د"
    ],
    [
      "ز",
      "َن"
    ],
    [
      "نہ",
      "ُند"
    ],
    [
      "وُ",
      "ر"
    ],
    [
      "نو",
      "و"
    ],
    [
      "ٹ",
      "ین"
    ],
    [
      "لا",
      "ی"
    ],
    [
      "ل",
      "ڈ"
    ],
    [
      "اہ",
      "ن"
    ],
    [
      "ام",
      "ری"
    ],
    [
      "ُ",
      "ت۔</w>"
    ],
    [
      "لی",
      "ز"
    ],
    [
      "برط",
      "ان"
    ],
    [
      "د",
      "۔</w>"
    ],
    [
      "ٲ",
      "لہِ"
    ],
    [
      "ف",
      "رو"
    ],
    [
      "رِیا",
      "ست"
    ],
    [
      "ک",
      "لو"
    ],
    [
      "اداک",
      "ار"
    ],
    [
      "ہ",
      "س"
    ],
    [
      "ج",
      "ل"
    ],
    [
      "ن",
      "ام"
    ],
    [
      "زب",
      "ان"
    ],
    [
      "َ",
      "سمَنٛز"
    ],
    [
      "حم",
      "لہٕ"
    ],
    [
      "پن",
      "ٕنۍ"
    ],
    [
      "پن",
      "ُن"
    ],
    [
      "ع",
      "و"
    ],
    [
      "ن",
      "ار"
    ],
    [
      "ی",
      "ِہ"
    ],
    [
      "ظ",
      "ٲ"
    ],
    [
      "ف",
      "و"
    ],
    [
      "حِ",
      "ص"
    ],
    [
      "ص",
      "دی"
    ],
    [
      "نہٕ",
      "یوان۔</w>"
    ],
    [
      "چی",
      "ز"
    ],
    [
      "گ",
      "ار"
    ],
    [
      "یو",
      "و"
    ],
    [
      "ُن",
      "۔</w>"
    ],
    [
      "یو",
      "ُ"
    ],
    [
      "گ",
      "اہ"
    ],
    [
      "ش",
      "روٗع"
    ],
    [
      "ط",
      "ٲب"
    ],
    [
      "ت",
      "ٗ"
    ],
    [
      "یم",
      "ان"
    ],
    [
      "لا",
      "ئ"
    ],
    [
      "خاند",
      "ان"
    ],
    [
      "انت",
      "ظام"
    ],
    [
      "ہ",
      "ُند"
    ],
    [
      "آس",
      "ان"
    ],
    [
      "زی",
      "ٛادٕ"
    ],
    [
      "ف",
      "ا"
    ],
    [
      "ٮ۪",
      "تھ"
    ],
    [
      "ٹ",
      "ِ"
    ],
    [
      "سپ",
      "یٚٹھ"
    ],
    [
      "ہِ",
      "نٛز"
    ],
    [
      "ری",
      "و"
    ],
    [
      "م",
      "ۄ"
    ],
    [
      "شٲمِل",
      "۔</w>"
    ],
    [
      "ژ",
      "ٕ"
    ],
    [
      "تی",
      "ٖ"
    ],
    [
      "ض",
      "ہٕ"
    ],
    [
      "گ",
      "ول"
    ],
    [
      "چھٗ",
      "۔</w>"
    ],
    [
      "ف",
      "ن"
    ],
    [
      "ور",
      "ت"
    ],
    [
      "َتھ",
      "منٛز"
    ],
    [
      "بوٚ",
      "ڑ"
    ],
    [
      "ن",
      "ٔ"
    ],
    [
      "ب",
      "غ"
    ],
    [
      "ری",
      "ل"
    ],
    [
      "َس",
      "سۭتۍ"
    ],
    [
      "کر",
      "دار"
    ],
    [
      "گژھ",
      "ان"
    ],
    [
      "ن",
      "یٚ"
    ],
    [
      "د",
      "ٲری"
    ],
    [
      "ٲ",
      "رِ"
    ],
    [
      "ک",
      "شن"
    ],
    [
      "یو",
      "ی"
    ],
    [
      "ر",
      "او"
    ],
    [
      "پ",
      "وٗر"
    ],
    [
      "د",
      "ُ"
    ],
    [
      "نہٕ",
      "نٛد"
    ],
    [
      "ئ",
      "ر"
    ],
    [
      "ش",
      "ہِ"
    ],
    [
      "وِ",
      "زِ"
    ],
    [
      "ب",
      "ت"
    ],
    [
      "ن",
      "ُک"
    ],
    [
      "کرن",
      "ٕچ"
    ],
    [
      "م",
      "ختلف"
    ],
    [
      "نہ",
      "نٛز"
    ],
    [
      "ص",
      "و"
    ],
    [
      "د",
      "َ"
    ],
    [
      "س",
      "وٗ"
    ],
    [
      "م",
      "ہٕ"
    ],
    [
      "ٲ",
      "بی"
    ],
    [
      "م",
      "غربی"
    ],
    [
      "ب",
      "او"
    ],
    [
      "پ",
      "ُ"
    ],
    [
      "قٕ",
      "سم"
    ],
    [
      "ی",
      "ش"
    ],
    [
      "ہ",
      "نز"
    ],
    [
      "حکو",
      "ٗ"
    ],
    [
      "د",
      "او"
    ],
    [
      "ش",
      "ار"
    ],
    [
      "س",
      "ری"
    ],
    [
      "س",
      "کو"
    ],
    [
      "ٲو",
      "ِتھ"
    ],
    [
      "ط",
      "ہٕ"
    ],
    [
      "نہ",
      "ٗند"
    ],
    [
      "تقریبا",
      "ً"
    ],
    [
      "یِ",
      "نہٕ"
    ],
    [
      "ل",
      "تہٕ"
    ],
    [
      "پنٛ",
      "نہِ"
    ],
    [
      "ب",
      "ُ"
    ],
    [
      "کٔرِ",
      "تھ۔</w>"
    ],
    [
      "ب",
      "َن"
    ],
    [
      "س",
      "ای"
    ],
    [
      "ی",
      "َن"
    ],
    [
      "ت",
      "سمنٛز"
    ],
    [
      "5",
      "0"
    ],
    [
      "الا",
      "قو"
    ],
    [
      "مٲ",
      "لی"
    ],
    [
      "دِل",
      "ہِ"
    ],
    [
      "م",
      "گر"
    ],
    [
      "ک",
      "یو"
    ],
    [
      "تو٘",
      "ہہِ"
    ],
    [
      "خی",
      "ال"
    ],
    [
      "ڈ",
      "ر"
    ],
    [
      "د",
      "یہ"
    ],
    [
      "ا",
      "ڑ"
    ],
    [
      "ق",
      "ام"
    ],
    [
      "س",
      "تھ"
    ],
    [
      "ک",
      "ٮ۪"
    ],
    [
      "ف",
      "ٹ"
    ],
    [
      "چھُ",
      "اکھ"
    ],
    [
      "شٲم",
      "ل"
    ],
    [
      "س",
      "ٲ"
    ],
    [
      "نہ",
      "ہ"
    ],
    [
      "،",
      "یم"
    ],
    [
      "ت",
      "ش"
    ],
    [
      "د",
      "ل"
    ],
    [
      "جنو",
      "ب"
    ],
    [
      "ٹ",
      "رو"
    ],
    [
      "گ",
      "رو"
    ],
    [
      "کام",
      "یاب"
    ],
    [
      "کرن",
      "ُک"
    ],
    [
      "وا",
      "ت"
    ],
    [
      "ج",
      "ر"
    ],
    [
      "ع",
      "لی"
    ],
    [
      "ب",
      "ح"
    ],
    [
      "ست",
      "عمال"
    ],
    [
      "ب",
      "ور"
    ],
    [
      "غ",
      "ی"
    ],
    [
      "ٹھ",
      "اہ"
    ],
    [
      "ب",
      "گ"
    ],
    [
      "بین",
      "الاقو"
    ],
    [
      "ب",
      "ِ"
    ],
    [
      "ا",
      "ؤ"
    ],
    [
      "لا",
      "گ"
    ],
    [
      "ت",
      "تہٕ"
    ],
    [
      "19",
      "6"
    ],
    [
      "یہند",
      "وستان"
    ],
    [
      "ا",
      "ڈ"
    ],
    [
      "ٲ",
      "ٹھ"
    ],
    [
      "ج",
      "ے"
    ],
    [
      "دۄ",
      "ش"
    ],
    [
      "1",
      "4"
    ],
    [
      "فِل",
      "مہِ"
    ],
    [
      "ل",
      "ط"
    ],
    [
      "آ",
      "مُت"
    ],
    [
      "ا",
      "یٚ"
    ],
    [
      "کی",
      "ٛ"
    ],
    [
      "د",
      "ٔری"
    ],
    [
      "س",
      "نز"
    ],
    [
      "سٕنٛز",
      "ِ"
    ],
    [
      "ری",
      "لو"
    ],
    [
      "ن",
      "ک"
    ],
    [
      "ر",
      "ق"
    ],
    [
      "یہ",
      "چھ"
    ],
    [
      "حکوٗ",
      "مت"
    ],
    [
      "س",
      "یم"
    ],
    [
      "دھ",
      "ی"
    ],
    [
      "وار",
      "ِیاہ"
    ],
    [
      "بن",
      "اون"
    ],
    [
      "ٲ",
      "ت"
    ],
    [
      "ٲ",
      "ژ"
    ],
    [
      "سط",
      "ح"
    ],
    [
      "کمپ",
      "نی"
    ],
    [
      "ف",
      "ص"
    ],
    [
      "واپ",
      "س"
    ],
    [
      "اہ",
      "سمنٛز"
    ],
    [
      "ت",
      "ٲری"
    ],
    [
      "ف",
      "ٲص"
    ],
    [
      "مہ",
      "ار"
    ],
    [
      "واری",
      "ٛاہ"
    ],
    [
      "و",
      "م"
    ],
    [
      "خ",
      "تم"
    ],
    [
      "نہِ",
      "نٛز"
    ],
    [
      "پنج",
      "اب"
    ],
    [
      "نہٕ",
      "یِوان۔</w>"
    ],
    [
      "مو",
      "سی"
    ],
    [
      "و",
      "ول"
    ],
    [
      "ت",
      "اہ"
    ],
    [
      "کر",
      "نہ"
    ],
    [
      "3",
      "0"
    ],
    [
      "ہ",
      "ٗند"
    ],
    [
      "ری",
      "تہٕ"
    ],
    [
      "ٲر",
      "ۍ"
    ],
    [
      "کٔ",
      "نہِ"
    ],
    [
      "و",
      "وٚ"
    ],
    [
      "ت",
      "ا"
    ],
    [
      "خ",
      "ۄ"
    ],
    [
      "ی",
      "ُ"
    ],
    [
      "سٕ",
      "ندِ"
    ],
    [
      "تہِ",
      "۔</w>"
    ],
    [
      "ص",
      "وٗ"
    ],
    [
      "پن",
      "ٕنہِ"
    ],
    [
      "گ",
      "رم"
    ],
    [
      "سار",
      "و"
    ],
    [
      "ہندوست",
      "ٲنہِ"
    ],
    [
      "ت",
      "د"
    ],
    [
      "کُ",
      "ل"
    ],
    [
      "م",
      "وجو"
    ],
    [
      "ن",
      "ٕچ"
    ],
    [
      "19",
      "4"
    ],
    [
      "ہٕ",
      "نٛد"
    ],
    [
      "پنن",
      "ِس"
    ],
    [
      "ٕ",
      "ک"
    ],
    [
      "س",
      "َ"
    ],
    [
      "ٕ",
      "كہِ"
    ],
    [
      "ف",
      "تہٕ"
    ],
    [
      "س",
      "دوران"
    ],
    [
      "م",
      "ندر"
    ],
    [
      "قی",
      "ٖ"
    ],
    [
      "كِ",
      "نہِ"
    ],
    [
      "جا",
      "ے"
    ],
    [
      "گو",
      "٘"
    ],
    [
      "ش",
      "ش"
    ],
    [
      "ق",
      "اف"
    ],
    [
      "واقع",
      "۔</w>"
    ],
    [
      "،",
      "پ"
    ],
    [
      "ز",
      "ام"
    ],
    [
      "ار",
      "ِ"
    ],
    [
      "یم",
      "پ"
    ],
    [
      "ژ",
      "ور"
    ],
    [
      "ست",
      "ی"
    ],
    [
      "تام",
      "ل"
    ],
    [
      "ن",
      "۔</w>"
    ],
    [
      "خ",
      "ری"
    ],
    [
      "ٲ",
      "ے"
    ],
    [
      "س",
      "ور"
    ],
    [
      "ع",
      "ظ"
    ],
    [
      "م",
      "ث"
    ],
    [
      "،ییٚ",
      "مہِ"
    ],
    [
      "س",
      "ۍ"
    ],
    [
      "ض",
      "ِل"
    ],
    [
      "ان",
      "زِ"
    ],
    [
      "س",
      "ام"
    ],
    [
      "فِل",
      "ِم"
    ],
    [
      "چ",
      "ر"
    ],
    [
      "آ",
      "مُت۔</w>"
    ],
    [
      "حی",
      "در"
    ],
    [
      "ہ",
      "ری"
    ],
    [
      "خر",
      "چ"
    ],
    [
      "قٲ",
      "یم"
    ],
    [
      "ٖ",
      "ز"
    ],
    [
      "چھ",
      "ِس"
    ],
    [
      "خ",
      "تٔ"
    ],
    [
      "ج",
      "نٛگ"
    ],
    [
      "می",
      "چ"
    ],
    [
      "گ",
      "را"
    ],
    [
      "ذٔری",
      "عہٕ"
    ],
    [
      "عام",
      "طور"
    ],
    [
      "ٹ",
      "نگ"
    ],
    [
      "ص",
      "نع"
    ],
    [
      "تر",
      "تی"
    ],
    [
      "او",
      "ی"
    ],
    [
      "ک",
      "امی"
    ],
    [
      "د",
      "وٚ"
    ],
    [
      "ب",
      "یم"
    ],
    [
      "ہندوست",
      "ٲنۍ"
    ],
    [
      "ق",
      "یاد"
    ],
    [
      "ٕ",
      "ہ"
    ],
    [
      "ک",
      "لا"
    ],
    [
      "ضل",
      "عہٕ"
    ],
    [
      "ہیٚ",
      "کِو"
    ],
    [
      "أ",
      "مِس"
    ],
    [
      "را",
      "ٹھ"
    ],
    [
      "عم",
      "ل"
    ],
    [
      "جا",
      "یہِ"
    ],
    [
      "ک",
      "ٹر"
    ],
    [
      "وٗ",
      "ن"
    ],
    [
      "ث",
      "قاف"
    ],
    [
      "ق",
      "ٲی"
    ],
    [
      "گَ",
      "ژھ"
    ],
    [
      "پرٛ",
      "یتھ"
    ],
    [
      "پ",
      "َن"
    ],
    [
      "ل",
      "ڑ"
    ],
    [
      "غ",
      "ٲ"
    ],
    [
      "ال",
      "دین"
    ],
    [
      "ج",
      "م"
    ],
    [
      "ای",
      "ی"
    ],
    [
      "سٕ",
      "نز"
    ],
    [
      "س",
      "ُند"
    ],
    [
      "جا",
      "یہ"
    ],
    [
      "ڈ",
      "ال"
    ],
    [
      "کلو",
      "میٹر"
    ],
    [
      "ی",
      "ُس"
    ],
    [
      "یہ",
      "ُنٛد"
    ],
    [
      "نس",
      "پیٹھ"
    ],
    [
      "ت",
      "ل"
    ],
    [
      "کِ",
      "ہ"
    ],
    [
      "ٲل",
      "ِس"
    ],
    [
      "كرِ",
      "تھ"
    ],
    [
      "ك",
      "ٕ"
    ],
    [
      "تہ",
      "وار"
    ],
    [
      "تٔ",
      "مِس"
    ],
    [
      "وُ",
      "ن"
    ],
    [
      "ز",
      "ند"
    ],
    [
      "ٗ",
      "س"
    ],
    [
      "ری",
      "ز"
    ],
    [
      "ر",
      "َ"
    ],
    [
      "ٹ",
      "را"
    ],
    [
      "چ",
      "ن"
    ],
    [
      "َن",
      "ہُنٛد"
    ],
    [
      "شٲم",
      "ل۔</w>"
    ],
    [
      "ری",
      "لیز"
    ],
    [
      "ُ",
      "م"
    ],
    [
      "برطان",
      "وی"
    ],
    [
      "ڈ",
      "یا"
    ],
    [
      "رِ",
      "ی"
    ],
    [
      "شِ",
      "ش"
    ],
    [
      "نیشن",
      "ل"
    ],
    [
      "لم",
      "ان"
    ],
    [
      "کھوتہٕ",
      "زیادٕ"
    ],
    [
      "ع",
      "ر"
    ],
    [
      "ی",
      "ور"
    ],
    [
      "را",
      "گ"
    ],
    [
      "س",
      "ندِ"
    ],
    [
      "کھ",
      "و"
    ],
    [
      "ُک",
      "اکھ"
    ],
    [
      "حٲص",
      "ل"
    ],
    [
      "کٔر",
      "تھ"
    ],
    [
      "ت",
      "ال"
    ],
    [
      "ک",
      "سم"
    ],
    [
      "،ی",
      "س"
    ],
    [
      "ص",
      "ِ"
    ],
    [
      "ز",
      "مین"
    ],
    [
      "نا",
      "گ"
    ],
    [
      "اونہٕ",
      "خٲطرٕ"
    ],
    [
      "ہیٚ",
      "کہِ"
    ],
    [
      "ری",
      "ن"
    ],
    [
      "د",
      "اخ"
    ],
    [
      "ز",
      "و"
    ],
    [
      "د",
      "ال"
    ],
    [
      "كر",
      "ن"
    ],
    [
      "ِ",
      "نہِ"
    ],
    [
      "تھ",
      "سمنٛز"
    ],
    [
      "ش",
      "مال"
    ],
    [
      "ج",
      "ہِ"
    ],
    [
      "ط",
      "ر"
    ],
    [
      "نی",
      "ور"
    ],
    [
      "ب",
      "وٗ"
    ],
    [
      "ِ",
      "ش"
    ],
    [
      "ق",
      "سم"
    ],
    [
      "بد",
      "ل"
    ],
    [
      "ا",
      "ض"
    ],
    [
      "نگ",
      "ر"
    ],
    [
      "تہ",
      "نٛد"
    ],
    [
      "آ",
      "وا"
    ],
    [
      "گٔ",
      "یہِ"
    ],
    [
      "ك",
      "م"
    ],
    [
      "ُ",
      "ستان"
    ],
    [
      "مشہ",
      "وٗر"
    ],
    [
      "سمنز",
      "چھ"
    ],
    [
      "حم",
      "د"
    ],
    [
      "ت",
      "ُ"
    ],
    [
      "ٹ",
      "ک"
    ],
    [
      "نو",
      "ٲلۍ"
    ],
    [
      "کر",
      "ِ"
    ],
    [
      "ٗ",
      "ت"
    ],
    [
      "ند",
      "ھ"
    ],
    [
      "خص",
      "وص"
    ],
    [
      "و",
      "ف"
    ],
    [
      "سم",
      "ُ"
    ],
    [
      "ی",
      "ِتھ"
    ],
    [
      "نگ",
      "ھ"
    ],
    [
      "كر",
      "ان"
    ],
    [
      "از",
      "ٕ"
    ],
    [
      "ض",
      "ر"
    ],
    [
      "و",
      "سی"
    ],
    [
      "س",
      "رو"
    ],
    [
      "ک",
      "ٗ"
    ],
    [
      "ٕتہِ",
      "۔</w>"
    ],
    [
      "یٚ",
      "لہ"
    ],
    [
      "ط",
      "اقت"
    ],
    [
      "اَ",
      "کہِ"
    ],
    [
      "ۍ",
      "م"
    ],
    [
      "س",
      "رم"
    ],
    [
      "شہ",
      "ری"
    ],
    [
      "اداک",
      "ٲری"
    ],
    [
      "کھ",
      "ی"
    ],
    [
      "نوال",
      "ین"
    ],
    [
      "کار",
      "و"
    ],
    [
      "غ",
      "یر"
    ],
    [
      "س",
      "نٛد"
    ],
    [
      "اک",
      "ثر"
    ],
    [
      "ش",
      "ای"
    ],
    [
      "دری",
      "او"
    ],
    [
      "ال",
      "و"
    ],
    [
      "ف",
      "یس"
    ],
    [
      "کٔرم",
      "ٕژ۔</w>"
    ],
    [
      "اص",
      "ل"
    ],
    [
      "روٗ",
      "د"
    ],
    [
      "ڈ",
      "ن"
    ],
    [
      "ِ",
      "ر"
    ],
    [
      "لگ",
      "بگ"
    ],
    [
      "تہٕ",
      "پ"
    ],
    [
      "پ",
      "ک"
    ],
    [
      "ب",
      "وُ"
    ],
    [
      "مشر",
      "ق"
    ],
    [
      "ط",
      "لا"
    ],
    [
      "گۄڈ",
      "نِ"
    ],
    [
      "دھ",
      "یہ"
    ],
    [
      "۔",
      "۔</w>"
    ],
    [
      "م",
      "َنٛز"
    ],
    [
      "اک",
      "ہ"
    ],
    [
      "ك",
      "و"
    ],
    [
      "دی",
      "د"
    ],
    [
      "بھ",
      "و"
    ],
    [
      "ند",
      "ۄ"
    ],
    [
      "ر",
      "نگ"
    ],
    [
      "ٲس",
      "۔</w>"
    ],
    [
      "ت",
      "ص"
    ],
    [
      "ڈ",
      "ری"
    ],
    [
      "شٲ",
      "ہی"
    ],
    [
      "ح",
      "وال"
    ],
    [
      "بغ",
      "او"
    ],
    [
      "ان",
      "ہِ"
    ],
    [
      "م",
      "َن"
    ],
    [
      "ح",
      "ل"
    ],
    [
      "چھ",
      "و"
    ],
    [
      "سمنٛز",
      "۔</w>"
    ],
    [
      "ك",
      "ور"
    ],
    [
      "اب",
      "ھ"
    ],
    [
      "ت",
      "نا"
    ],
    [
      "ت",
      "یہ"
    ],
    [
      "او",
      "ست"
    ],
    [
      "بیٚ",
      "یہِ"
    ],
    [
      "ت",
      "ار"
    ],
    [
      "م",
      "ٔ"
    ],
    [
      "او",
      "سم"
    ],
    [
      "واج",
      "یٚ"
    ],
    [
      "قد",
      "یم"
    ],
    [
      "ٹر",
      "ٛ"
    ],
    [
      "دِ",
      "ژ"
    ],
    [
      "را",
      "ئ"
    ],
    [
      "را",
      "ب"
    ],
    [
      "ن",
      "فر"
    ],
    [
      "کوٚ",
      "را"
    ],
    [
      "سی",
      "ٹھاہ"
    ],
    [
      "ہِ",
      "نٛدِ"
    ],
    [
      "گ",
      "ٗ"
    ],
    [
      "نہٕ",
      "آم"
    ],
    [
      "ٕ",
      "ل"
    ],
    [
      "چھےٚ",
      "۔</w>"
    ],
    [
      "ٹ",
      "ور"
    ],
    [
      "نی",
      "ر"
    ],
    [
      "ٔری",
      "ٖ"
    ],
    [
      "م",
      "ٲل"
    ],
    [
      "ن",
      "ق"
    ],
    [
      "گژھ",
      "نہٕ"
    ],
    [
      "ِ",
      "ک"
    ],
    [
      "قاب",
      "لہٕ"
    ],
    [
      "ہٕ",
      "چ"
    ],
    [
      "با",
      "س"
    ],
    [
      "م",
      "ٕژ"
    ],
    [
      "آس",
      "نہٕ"
    ],
    [
      "ے",
      "،"
    ],
    [
      "ف",
      "تح"
    ],
    [
      "ز",
      "ِم"
    ],
    [
      "د",
      "ا"
    ],
    [
      "نا",
      "تھ"
    ],
    [
      "لٲ",
      "ڑ"
    ],
    [
      "ہندوستان",
      "سمنٛز"
    ],
    [
      "ہ",
      "َ"
    ],
    [
      "قٲی",
      "ِم"
    ],
    [
      "ٹ",
      "ای"
    ],
    [
      "مب",
      "نی"
    ],
    [
      "بی",
      "ٛ"
    ],
    [
      "کوٚرم",
      "ُت۔</w>"
    ],
    [
      "ش",
      "ُر"
    ],
    [
      "ك",
      "ٕر"
    ],
    [
      "ج",
      "ٔ"
    ],
    [
      "ک",
      "ٮ۪ن"
    ],
    [
      "ر",
      "ُک"
    ],
    [
      "ت",
      "اہم"
    ],
    [
      "نا",
      "ڈو"
    ],
    [
      "در",
      "میان"
    ],
    [
      "،یتھ",
      "منٛز"
    ],
    [
      "ِ",
      "ین"
    ],
    [
      "كر",
      "ان۔</w>"
    ],
    [
      "سارو",
      "ِی"
    ],
    [
      "پی",
      "ٛ"
    ],
    [
      "ٗ",
      "ک"
    ],
    [
      "پری",
      "تھ"
    ],
    [
      "س",
      "سۭتہِ"
    ],
    [
      "ش",
      "یو"
    ],
    [
      "ٕتۍ",
      "۔</w>"
    ],
    [
      "گر",
      "ام"
    ],
    [
      "نٛ",
      "سہٕ"
    ],
    [
      "ٲی",
      "یا"
    ],
    [
      "ر",
      "ُ"
    ],
    [
      "گژھ",
      "ن"
    ],
    [
      "ہی",
      "تھ"
    ],
    [
      "گۄڈٕ",
      "نِ"
    ],
    [
      "ز",
      "بٲ"
    ],
    [
      "مق",
      "ٲمی"
    ],
    [
      "ی",
      "ڈ"
    ],
    [
      "201",
      "1"
    ],
    [
      "انٛ",
      "د"
    ],
    [
      "کھ",
      "نڈ"
    ],
    [
      "پور",
      "ٹ"
    ],
    [
      "کیر",
      "الہ"
    ],
    [
      "ِ",
      "سم"
    ],
    [
      "ٔ",
      "مہِ"
    ],
    [
      "ش",
      "َ"
    ],
    [
      "کیا",
      "زِ"
    ],
    [
      "ہِ",
      "ند"
    ],
    [
      "فٲص",
      "لہٕ"
    ],
    [
      "تع",
      "داد"
    ],
    [
      "مد",
      "د"
    ],
    [
      "نظ",
      "ر"
    ],
    [
      "آب",
      "شار"
    ],
    [
      "انڈ",
      "ین"
    ],
    [
      "َ",
      "ے"
    ],
    [
      "ار",
      "تہٕ"
    ],
    [
      "ی",
      "ک"
    ],
    [
      "تب",
      "دی"
    ],
    [
      "فل",
      "مہِ"
    ],
    [
      "آبٲ",
      "دی"
    ],
    [
      "پ",
      "اک"
    ],
    [
      "2",
      "5"
    ],
    [
      "تہ",
      "ۍ"
    ],
    [
      "ب",
      "لی"
    ],
    [
      "پ",
      "یٚ"
    ],
    [
      "نہِ",
      "نٛدِ"
    ],
    [
      "ری",
      "ہ"
    ],
    [
      "أ",
      "مۍ"
    ],
    [
      "ال",
      "یہ"
    ],
    [
      "ِ",
      "یو"
    ],
    [
      "ن",
      "اک"
    ],
    [
      "ختٔ",
      "لِف"
    ],
    [
      "ش",
      "ین"
    ],
    [
      "پ",
      "وُ"
    ],
    [
      "ج",
      "ُ"
    ],
    [
      "و",
      "ہ"
    ],
    [
      "غٲ",
      "رم"
    ],
    [
      "مق",
      "اب"
    ],
    [
      "اج",
      "ی"
    ],
    [
      "س",
      "اس"
    ],
    [
      "201",
      "4"
    ],
    [
      "ڈ",
      "یم"
    ],
    [
      "دور",
      "ٕ"
    ],
    [
      "ص",
      "ف"
    ],
    [
      "س",
      "ِل"
    ],
    [
      "پرٛ",
      "ٮ۪تھ"
    ],
    [
      "تق",
      "سیم"
    ],
    [
      "ا",
      "زِ"
    ],
    [
      "ک",
      "می"
    ],
    [
      "س",
      "ٗ"
    ],
    [
      "نی",
      "ُک"
    ],
    [
      "سم",
      "ٲ"
    ],
    [
      "ناو",
      "ٕ"
    ],
    [
      "چ",
      "ِ"
    ],
    [
      "أ",
      "کس"
    ],
    [
      "ند",
      "ری"
    ],
    [
      "را",
      "زد"
    ],
    [
      "وس",
      "ط"
    ],
    [
      "نہٕ",
      "یوان"
    ],
    [
      "ب",
      "سمنٛز"
    ],
    [
      "ہ",
      "۔</w>"
    ],
    [
      "ت",
      "یا"
    ],
    [
      "ز",
      "۔</w>"
    ],
    [
      "ک",
      "ست"
    ],
    [
      "ز",
      "ا"
    ],
    [
      "2",
      "1"
    ],
    [
      "کٔرم",
      "ٕژ"
    ],
    [
      "ریلو",
      "ے"
    ],
    [
      "خ",
      "اب"
    ],
    [
      "کان",
      "گری"
    ],
    [
      "پٲ",
      "دٕ"
    ],
    [
      "حال",
      "انٛ"
    ],
    [
      "ج",
      "مع"
    ],
    [
      "دِ",
      "ی"
    ],
    [
      "م",
      "وٗ"
    ],
    [
      "ق",
      "یم"
    ],
    [
      "ہ",
      "ُ"
    ],
    [
      "ق",
      "ٲب"
    ],
    [
      "ند",
      "ۍ"
    ],
    [
      "تم",
      "ن"
    ],
    [
      "ش",
      "ٗ"
    ],
    [
      "دِو",
      "ان۔</w>"
    ],
    [
      "ك",
      "ان"
    ],
    [
      "ن",
      "تی"
    ],
    [
      "زن",
      "انہٕ"
    ],
    [
      "ت",
      "ک"
    ],
    [
      "ی",
      "َ"
    ],
    [
      "تھ",
      "او"
    ],
    [
      "وا",
      "بس"
    ],
    [
      "کھ",
      "ٕ"
    ],
    [
      "كر",
      "نہٕ۔</w>"
    ],
    [
      "شُ",
      "روٗع"
    ],
    [
      "رو",
      "زن"
    ],
    [
      "ر",
      "ہ"
    ],
    [
      "د",
      "ٗ"
    ],
    [
      "تِم",
      "ن"
    ],
    [
      "کران",
      "تہٕ"
    ],
    [
      "لا",
      "ک"
    ],
    [
      "ر",
      "ٮ۪"
    ],
    [
      "ک",
      "نہ"
    ],
    [
      "كو٘",
      "ر"
    ],
    [
      "ذ",
      "ِ"
    ],
    [
      "تم",
      "ِس"
    ],
    [
      "س",
      "ال"
    ],
    [
      "چھِ",
      "،"
    ],
    [
      "سار",
      "وی"
    ],
    [
      "تر",
      "قی"
    ],
    [
      "آ",
      "ی"
    ],
    [
      "پو",
      "ری"
    ],
    [
      "و",
      "ٲلۍ"
    ],
    [
      "َ",
      "د"
    ],
    [
      "من",
      "ٹ"
    ],
    [
      "وا",
      "س"
    ],
    [
      "گ",
      "ورن"
    ],
    [
      "ہِنٛد",
      "ُستان"
    ],
    [
      "گ",
      "یم"
    ],
    [
      "عم",
      "وٗ"
    ],
    [
      "بہ",
      "تر"
    ],
    [
      "طٲب",
      "ِق"
    ],
    [
      "پو",
      "لی"
    ],
    [
      "اونہٕ",
      "۔</w>"
    ],
    [
      "وا",
      "ی"
    ],
    [
      "مہار",
      "اش"
    ],
    [
      "ِ",
      "یا"
    ],
    [
      "ا",
      "سم"
    ],
    [
      "آس",
      "ہٕ"
    ],
    [
      "ز",
      "انٛ"
    ],
    [
      "م",
      "یو"
    ],
    [
      "دۄش",
      "وٕ"
    ],
    [
      "ٹی",
      "سٹ"
    ],
    [
      "ل",
      "یو"
    ],
    [
      "د",
      "ٲخ"
    ],
    [
      "گِ",
      "نٛد"
    ],
    [
      "نز",
      "دیٖ"
    ],
    [
      "ل",
      "ینڈ"
    ],
    [
      "ب",
      "ع"
    ],
    [
      "ہ",
      "نٛز"
    ],
    [
      "کِردار",
      "ادا"
    ],
    [
      "وال",
      "ین"
    ],
    [
      "ہند",
      "ِس"
    ],
    [
      "زِ",
      "ند"
    ],
    [
      "گ",
      "ور"
    ],
    [
      "س",
      "ُ"
    ],
    [
      "رٕ",
      "چ"
    ],
    [
      "تح",
      "ری"
    ],
    [
      "آز",
      "اد"
    ],
    [
      "ک",
      "ے"
    ],
    [
      "ٹ",
      "یو"
    ],
    [
      "نو",
      "ٚ"
    ],
    [
      "ٲ",
      "سی"
    ],
    [
      "چُھ",
      "۔</w>"
    ],
    [
      "اکھ",
      "۔</w>"
    ],
    [
      "د",
      "ف"
    ],
    [
      "ک",
      "پ"
    ],
    [
      "یہِ",
      "چُھ"
    ],
    [
      "ت",
      "را"
    ],
    [
      "م",
      "ِل"
    ],
    [
      "فی",
      "ص"
    ],
    [
      "و",
      "ز"
    ],
    [
      "،",
      "ج"
    ],
    [
      "کر",
      "ٛ"
    ],
    [
      "ٲ",
      "ڑ"
    ],
    [
      "دم",
      "ات"
    ],
    [
      "ترتی",
      "ب"
    ],
    [
      "دٔری",
      "او"
    ],
    [
      "،",
      "یا"
    ],
    [
      "اک",
      "ث"
    ],
    [
      "ض",
      "رو"
    ],
    [
      "س",
      "ٔ"
    ],
    [
      "لط",
      "نت"
    ],
    [
      "1",
      "1"
    ],
    [
      "،",
      "اکھ"
    ],
    [
      "م",
      "ٕژ۔</w>"
    ],
    [
      "ن",
      "یم"
    ],
    [
      "ای",
      "ڈ"
    ],
    [
      "ب",
      "نٛد"
    ],
    [
      "کر",
      "نا"
    ],
    [
      "ج",
      "وُ"
    ],
    [
      "ور",
      "انہٕ"
    ],
    [
      "2",
      "2"
    ],
    [
      "ڈ",
      "ین"
    ],
    [
      "ن",
      "یو"
    ],
    [
      "،ییٚ",
      "لہِ"
    ],
    [
      "نت",
      "ام"
    ],
    [
      "پور",
      "ٕ"
    ],
    [
      "دھیہ",
      "پردیش"
    ],
    [
      "پیٚٹھ",
      "ٕ"
    ],
    [
      "201",
      "2"
    ],
    [
      "ٲخ",
      "ر"
    ],
    [
      "برط",
      "انو"
    ],
    [
      "ن",
      "کوٚر"
    ],
    [
      "ش",
      "نا"
    ],
    [
      "سند",
      "ِس"
    ],
    [
      "مشر",
      "قی"
    ],
    [
      "ی",
      "ق"
    ],
    [
      "ح",
      "ُک"
    ],
    [
      "ہِ",
      "مہِ"
    ],
    [
      "مٗ",
      "ت"
    ],
    [
      "ح",
      "ا"
    ],
    [
      "جن",
      "وٗ"
    ],
    [
      "ن",
      "ف"
    ],
    [
      "ا",
      "عل"
    ],
    [
      "،ی",
      "َتھمنٛز"
    ],
    [
      "من",
      "ظ"
    ],
    [
      "ب",
      "ے"
    ],
    [
      "کو",
      "ٹ"
    ],
    [
      "سپ",
      "ور"
    ],
    [
      "نس",
      "ل"
    ],
    [
      "نو",
      "ٲلہِ"
    ],
    [
      "کامی",
      "ٲبی"
    ],
    [
      "وا",
      "ب"
    ],
    [
      "ٗ",
      "م"
    ],
    [
      "کیٛ",
      "ازِ"
    ],
    [
      "د",
      "سم"
    ],
    [
      "کٔ",
      "رو"
    ],
    [
      "ق",
      "عہٕ"
    ],
    [
      "ج",
      "ٲی"
    ],
    [
      "نٛ",
      "سہِ"
    ],
    [
      "چھُ",
      "نہٕ"
    ],
    [
      "گ",
      "یو"
    ],
    [
      "ت",
      "سمنز"
    ],
    [
      "19",
      "5"
    ],
    [
      "کرنہٕ",
      "پتہٕ"
    ],
    [
      "ب",
      "ری"
    ],
    [
      "ل",
      "وُ"
    ],
    [
      "ار",
      "و"
    ],
    [
      "ِو",
      "ان"
    ],
    [
      "ن",
      "سۭتۍ"
    ],
    [
      "یا",
      "ی"
    ],
    [
      "راج",
      "ستھ"
    ],
    [
      "نظ",
      "ام"
    ],
    [
      "ف",
      "ہر"
    ],
    [
      "یا",
      "ں"
    ],
    [
      "ر",
      "تہٕ"
    ],
    [
      "دو",
      "ہ"
    ],
    [
      "پ",
      "انٛ"
    ],
    [
      "ا",
      "ك"
    ],
    [
      "طری",
      "قہٕ"
    ],
    [
      "کار",
      "ٕ"
    ],
    [
      "پ",
      "د"
    ],
    [
      "بی",
      "ان"
    ],
    [
      "م",
      "نی"
    ],
    [
      "،",
      "چھ"
    ],
    [
      "نہٕ",
      "نٛدِ"
    ],
    [
      "کم",
      "ار"
    ],
    [
      "ت",
      "یم"
    ],
    [
      "گو",
      "ڈ"
    ],
    [
      "د",
      "تہٕ"
    ],
    [
      "کوٚرم",
      "ُت"
    ],
    [
      "ط",
      "ال"
    ],
    [
      "ا",
      "ثر"
    ],
    [
      "ہٕ",
      "تہٕ"
    ],
    [
      "اب",
      "تد"
    ],
    [
      "کٔر",
      "ۍ"
    ],
    [
      "م",
      "نت"
    ],
    [
      "چو",
      "لا"
    ],
    [
      "اوس",
      "نہٕ"
    ],
    [
      "آ",
      "غ"
    ],
    [
      "تام",
      "ِل"
    ],
    [
      "لۄ",
      "کٹ"
    ],
    [
      "داو",
      "ار"
    ],
    [
      "ترٛ",
      "یٚ"
    ],
    [
      "َس",
      "سۭتہِ"
    ],
    [
      "کم",
      "پن"
    ],
    [
      "ر",
      "،"
    ],
    [
      "منز",
      "ٕ"
    ],
    [
      "تو",
      "بر"
    ],
    [
      "ز",
      "م"
    ],
    [
      "و",
      "ٔری"
    ],
    [
      "ذ",
      "ٲتی"
    ],
    [
      "اہ",
      "س"
    ],
    [
      "ر",
      "سم"
    ],
    [
      "لی",
      "گ"
    ],
    [
      "ت",
      "ین"
    ],
    [
      "مرک",
      "زی"
    ],
    [
      "نیٚ",
      "چ"
    ],
    [
      "ہیٚ",
      "کو"
    ],
    [
      "سٹ",
      "ری"
    ],
    [
      "پ",
      "ٹ"
    ],
    [
      "ل",
      "سمنٛز"
    ],
    [
      "اب",
      "ق"
    ],
    [
      "ا",
      "كِس"
    ],
    [
      "ك",
      "ن"
    ],
    [
      "یہ",
      "نٛد"
    ],
    [
      "،ی",
      "ۄ"
    ],
    [
      "ک",
      "اس"
    ],
    [
      "ب",
      "ٗ"
    ],
    [
      "کِ",
      "نہِ"
    ],
    [
      "م",
      "ذہ"
    ],
    [
      "کٔ",
      "رٕ"
    ],
    [
      "ق",
      "ٲمی"
    ],
    [
      "آم",
      "د"
    ],
    [
      "اِ",
      "ستعمال"
    ],
    [
      "چھے٘",
      "۔</w>"
    ],
    [
      "فلم",
      "ہ"
    ],
    [
      "نمنٛز",
      "چھ"
    ],
    [
      "فہر",
      "ست"
    ],
    [
      "ر",
      "د"
    ],
    [
      "بٲ",
      "تھ"
    ],
    [
      "م",
      "غل"
    ],
    [
      "دو",
      "یم"
    ],
    [
      "ز",
      "از"
    ],
    [
      "ج",
      "رات"
    ],
    [
      "ژھ",
      "ان"
    ],
    [
      "پو",
      "نٛسہٕ"
    ],
    [
      "و",
      "َ"
    ],
    [
      "مق",
      "ام"
    ],
    [
      "ک",
      "ِل"
    ],
    [
      "پیٛ",
      "ٹھ"
    ],
    [
      "نہٕ",
      "نٛدۍ"
    ],
    [
      "تٔ",
      "ریٖ"
    ],
    [
      "باپ",
      "تم"
    ],
    [
      "سنگ",
      "ھ"
    ],
    [
      "تہٕ",
      "پتہٕ"
    ],
    [
      "س",
      "ٗند"
    ],
    [
      "ب",
      "نٛگ"
    ],
    [
      "ند",
      "ور"
    ],
    [
      "سی",
      "ل"
    ],
    [
      "پہ",
      "اڑ"
    ],
    [
      "ج",
      "مٲ"
    ],
    [
      "بٔ",
      "ڈ"
    ],
    [
      "کھ",
      "لٲڑ"
    ],
    [
      "ش",
      "ع"
    ],
    [
      "س",
      "ڑ"
    ],
    [
      "پ",
      "تھ"
    ],
    [
      "اش",
      "و"
    ],
    [
      "سارِو",
      "ٕے"
    ],
    [
      "چ",
      "ار"
    ],
    [
      "س",
      "،"
    ],
    [
      "ل",
      "ور"
    ],
    [
      "دِ",
      "نہٕ۔</w>"
    ],
    [
      "کوٚر",
      "۔</w>"
    ],
    [
      "تھ",
      "وٚ"
    ],
    [
      "لی",
      "کھ"
    ],
    [
      "کال",
      "ج"
    ],
    [
      "نیور",
      "سٹی"
    ],
    [
      "م",
      "ک"
    ],
    [
      "201",
      "3"
    ],
    [
      "چی",
      "ٖز"
    ],
    [
      "سِ",
      "رٛ"
    ],
    [
      "ك",
      "وُ"
    ],
    [
      "ا",
      "ں"
    ],
    [
      "م",
      "لک"
    ],
    [
      "ی",
      "ار"
    ],
    [
      "پن",
      "ُ"
    ],
    [
      "کِ",
      "نۍ"
    ],
    [
      "ت",
      "ُل"
    ],
    [
      "باقٕ",
      "ے"
    ],
    [
      "بینالاقو",
      "ٲمی"
    ],
    [
      "و",
      "،"
    ],
    [
      "ییٚ",
      "لہ"
    ],
    [
      "ریاست",
      "ی"
    ],
    [
      ")",
      "۔</w>"
    ],
    [
      "ذ",
      "کر"
    ],
    [
      "اک",
      "توبر"
    ],
    [
      "4",
      "0"
    ],
    [
      "قب",
      "ض"
    ],
    [
      "ون",
      "نہٕ"
    ],
    [
      "گ",
      "انٛ"
    ],
    [
      "پ",
      "ین"
    ],
    [
      "ٲو",
      "ِ"
    ],
    [
      "م",
      "نگ"
    ],
    [
      "ز",
      "خ"
    ],
    [
      "د",
      "ع"
    ],
    [
      "گ",
      "ن"
    ],
    [
      "ب",
      "ۄ"
    ],
    [
      "وٗ",
      "ص"
    ],
    [
      "ہٕ",
      "نٛدِ"
    ],
    [
      "مل",
      "ین"
    ],
    [
      "می",
      "گھ"
    ],
    [
      "فی",
      "صد"
    ],
    [
      "ای",
      "س"
    ],
    [
      "یہ",
      "ُند"
    ],
    [
      "س",
      "وُ"
    ],
    [
      "ت",
      "اب"
    ],
    [
      "سرم",
      "ایہ"
    ],
    [
      "کرنہٕ",
      "تہٕ"
    ],
    [
      "نٛ",
      "ٹ"
    ],
    [
      "واریاہ",
      "ن"
    ],
    [
      "غ",
      "ٲر"
    ],
    [
      "شی",
      "ر"
    ],
    [
      "علاق",
      "سمنٛز"
    ],
    [
      "ٲس",
      "ِتھ۔</w>"
    ],
    [
      "پ",
      "تہ"
    ],
    [
      "ذری",
      "عہٕ"
    ],
    [
      "نم",
      "ُ"
    ],
    [
      "و",
      "ش"
    ],
    [
      "دسم",
      "بر"
    ],
    [
      "نٛد",
      "ٕ"
    ],
    [
      "اوس",
      "،"
    ],
    [
      "ا",
      "ُ"
    ],
    [
      "ا",
      "چ"
    ],
    [
      "ڈ",
      "ھ"
    ],
    [
      "اِ",
      "نت"
    ],
    [
      "ٛ",
      "وٗ"
    ],
    [
      "یوٚ",
      "و"
    ],
    [
      "پ",
      "سند"
    ],
    [
      "اد",
      "ھ"
    ],
    [
      "ل",
      "ُک"
    ],
    [
      "،",
      "خاص"
    ],
    [
      "ر",
      "اہ"
    ],
    [
      "کو",
      "ل"
    ],
    [
      "نو",
      "مبر"
    ],
    [
      "میٖ",
      "ٹر"
    ],
    [
      "ت",
      "تھ"
    ],
    [
      "ش",
      "ان"
    ],
    [
      "ش",
      "خص"
    ],
    [
      "رِ",
      "تھ"
    ],
    [
      "ہ",
      "تہٕ"
    ],
    [
      "حوال",
      "ہٕ"
    ],
    [
      "قب",
      "ضہٕ"
    ],
    [
      "ز",
      "ار"
    ],
    [
      "ض",
      "اح"
    ],
    [
      "شر",
      "ح"
    ],
    [
      "ست",
      "حت"
    ],
    [
      "ؠ",
      "ٹھ"
    ],
    [
      "اپ",
      "ریل"
    ],
    [
      "ٔ",
      "مۍ"
    ],
    [
      "ن",
      "چ"
    ],
    [
      "ك",
      "ی"
    ],
    [
      "ٹی",
      "کس"
    ],
    [
      "ڈ",
      "اک"
    ],
    [
      "کٔر",
      "۔</w>"
    ],
    [
      "آغ",
      "از"
    ],
    [
      "ش",
      "ہٕ"
    ],
    [
      "6",
      "0"
    ],
    [
      "تج",
      "وی"
    ],
    [
      "پ",
      "ٗ"
    ],
    [
      "ق",
      "ون"
    ],
    [
      "یو",
      "ان،"
    ],
    [
      "\"",
      "۔</w>"
    ],
    [
      "ر",
      "ے"
    ],
    [
      "ال",
      "ہٕ"
    ],
    [
      "تِم",
      "َن"
    ],
    [
      "پ",
      "ا"
    ],
    [
      "ٹی",
      "ل"
    ],
    [
      "ف",
      "ٲی"
    ],
    [
      "کی",
      "ٹ"
    ],
    [
      "خ",
      "بر"
    ],
    [
      "ایو",
      "ارڈ"
    ],
    [
      "ج",
      "سم"
    ],
    [
      "وا",
      "د"
    ],
    [
      "ری",
      "ف"
    ],
    [
      "ست",
      "ح"
    ],
    [
      "ہ",
      "َم"
    ],
    [
      "با",
      "کس"
    ],
    [
      "ر",
      "ٹ"
    ],
    [
      "ان",
      "ٹر"
    ],
    [
      "ض",
      "ی"
    ],
    [
      "نہٕ",
      "تہٕ"
    ],
    [
      "وار",
      "ٕ"
    ],
    [
      "خانٛ",
      "در"
    ],
    [
      "ل",
      "ام"
    ],
    [
      "I",
      "I"
    ],
    [
      "ٲخ",
      "ری"
    ],
    [
      "ل",
      "ٹہِ"
    ],
    [
      "ل",
      "یم"
    ],
    [
      "1",
      "00"
    ],
    [
      "گی",
      "ری"
    ],
    [
      "ز",
      "،"
    ],
    [
      "پ",
      "ِ"
    ],
    [
      "برو",
      "نہہ"
    ],
    [
      "ہ",
      "سمنز"
    ],
    [
      "م",
      "تہٕ"
    ],
    [
      "م",
      "ص"
    ],
    [
      "ٗن",
      "۔</w>"
    ],
    [
      "سٕنٛد",
      "ۍ"
    ],
    [
      "تر",
      "٘"
    ],
    [
      "اہ",
      "ل"
    ],
    [
      "گ",
      "نگ"
    ],
    [
      "ٲ",
      "ثر"
    ],
    [
      "ہِنٛد",
      "ُست"
    ],
    [
      "ل",
      "یٚ"
    ],
    [
      "کر",
      "ُن"
    ],
    [
      "و",
      "لی"
    ],
    [
      "د",
      "د"
    ],
    [
      "ُ",
      "کو"
    ],
    [
      "ٹ",
      "ہ"
    ],
    [
      "ب",
      "نوو"
    ],
    [
      "در",
      "جہ"
    ],
    [
      "ب",
      "ٕ"
    ],
    [
      "ان",
      "ن"
    ],
    [
      "خٕ",
      "لاف"
    ],
    [
      "عال",
      "می"
    ],
    [
      "عل",
      "ام"
    ],
    [
      "ر",
      "ۄ"
    ],
    [
      "ین",
      "ہِ"
    ],
    [
      "حِص",
      "ہٕ"
    ],
    [
      "مت",
      "۔</w>"
    ],
    [
      "ف",
      "ور"
    ],
    [
      "،",
      "یہِ"
    ],
    [
      "اخ",
      "تیار"
    ],
    [
      "ا",
      "ث"
    ],
    [
      "من",
      "ع"
    ],
    [
      "مو",
      "٘"
    ],
    [
      "مار",
      "چ"
    ],
    [
      "وۄ",
      "نۍ"
    ],
    [
      "ٲسہِ",
      "۔</w>"
    ],
    [
      "کی",
      "نٛ"
    ],
    [
      "س",
      "ک"
    ],
    [
      "امہِ",
      "پتہٕ"
    ],
    [
      "کر",
      "نس"
    ],
    [
      "صٔ",
      "دی"
    ],
    [
      "ترٛ",
      "ےٚ"
    ],
    [
      "کَر",
      "ان۔</w>"
    ],
    [
      "ل",
      "ین"
    ],
    [
      "پن",
      "نِ"
    ],
    [
      "مشہ",
      "ور"
    ],
    [
      "بنی",
      "ٲدی"
    ],
    [
      "س",
      "کم"
    ],
    [
      "گۄ",
      "ڑ"
    ],
    [
      "َسمنٛز",
      "چھِ"
    ],
    [
      "وا",
      "ئ"
    ],
    [
      "،ت",
      "یٚلہِ"
    ],
    [
      "کھۄتہٕ",
      "زِیٛادٕ"
    ],
    [
      "ل",
      "داخ"
    ],
    [
      "بوٚ",
      "ڈ"
    ],
    [
      "رم",
      "ِی"
    ],
    [
      "ك",
      "ٕنہِ"
    ],
    [
      "ج",
      "َ"
    ],
    [
      "2",
      "3"
    ],
    [
      "مُ",
      "لک"
    ],
    [
      "زی",
      "د"
    ],
    [
      "1",
      ","
    ],
    [
      "م",
      "،"
    ],
    [
      "م",
      "ض"
    ],
    [
      "ا",
      "كہِ"
    ],
    [
      "ۍ",
      "۔</w>"
    ],
    [
      "سپد",
      "ان۔</w>"
    ],
    [
      "خ",
      "ب"
    ],
    [
      "کرن",
      "سمنٛز"
    ],
    [
      "د",
      "رٕ"
    ],
    [
      "کانٛہہ",
      "تہِ"
    ],
    [
      "ح",
      "ر"
    ],
    [
      "201",
      "6"
    ],
    [
      "ک",
      "نگ"
    ],
    [
      "اور",
      "نگ"
    ],
    [
      "جنو",
      "ری"
    ],
    [
      "نا",
      "ڈ"
    ],
    [
      "س",
      "پی"
    ],
    [
      "ت",
      "ٕ"
    ],
    [
      "را",
      "ی"
    ],
    [
      "ت",
      "رو"
    ],
    [
      "تھ",
      "اونہٕ"
    ],
    [
      "کر",
      "کٹ"
    ],
    [
      "پنٛن",
      "ِس"
    ],
    [
      "د",
      "وست"
    ],
    [
      "پن",
      "نس"
    ],
    [
      "ہ",
      "َن"
    ],
    [
      "کران",
      "،"
    ],
    [
      "ش",
      "ری"
    ],
    [
      "ہ",
      "دایت"
    ],
    [
      "کی",
      "ٖ"
    ],
    [
      "بُ",
      "نی"
    ],
    [
      ")",
      "تہٕ"
    ],
    [
      "اوس",
      "ط"
    ],
    [
      "پن",
      "ِنہِ"
    ],
    [
      "بہ",
      "تٔریٖ"
    ],
    [
      "اک",
      "ار"
    ],
    [
      "ب",
      "ڈ"
    ],
    [
      "ورن",
      "ام"
    ],
    [
      "یہ",
      "نز"
    ],
    [
      "صو",
      "بہٕ"
    ],
    [
      "ور",
      "ٕ"
    ],
    [
      "نی",
      "ہِ"
    ],
    [
      "بر",
      "قرار"
    ],
    [
      "خۄ",
      "ش"
    ],
    [
      "و",
      "َن"
    ],
    [
      "یم",
      "ُ"
    ],
    [
      "روز",
      "ان۔</w>"
    ],
    [
      "ظٲ",
      "ہر"
    ],
    [
      "ض",
      "ٔ"
    ],
    [
      "یاہ",
      "سمنٛز"
    ],
    [
      "بن",
      "یو"
    ],
    [
      "وج",
      "ی"
    ],
    [
      "2",
      "4"
    ],
    [
      "بر",
      "اہ"
    ],
    [
      "دٔ",
      "لیٖ"
    ],
    [
      "وق",
      "تہٕ"
    ],
    [
      "م",
      "۔</w>"
    ],
    [
      "ب",
      "نٛ"
    ],
    [
      "201",
      "7"
    ],
    [
      "لی",
      "ٹ"
    ],
    [
      "ب",
      "م"
    ],
    [
      "ب",
      "ان"
    ],
    [
      "موسی",
      "قی"
    ],
    [
      "مُ",
      "ختٔلِف"
    ],
    [
      "کِ",
      "ست"
    ],
    [
      "وی",
      "ل"
    ],
    [
      "امری",
      "کی"
    ],
    [
      "بناونہٕ",
      "آم"
    ],
    [
      "ٲ",
      "لی"
    ],
    [
      "کر",
      "م"
    ],
    [
      "ور",
      "لڈ"
    ],
    [
      "ع",
      "دال"
    ],
    [
      "،ییٚ",
      "می"
    ],
    [
      "درج",
      "ہٕ"
    ],
    [
      "بہتری",
      "ن"
    ],
    [
      "بی",
      "یہ"
    ],
    [
      "غی",
      "رم"
    ],
    [
      "ب",
      "َر"
    ],
    [
      "زِس",
      "ُہ"
    ],
    [
      "ٲخ",
      "ٕر"
    ],
    [
      "سر",
      "ک"
    ],
    [
      "ای",
      "تی"
    ],
    [
      "ت",
      "رم"
    ],
    [
      "بیا",
      "کھ"
    ],
    [
      "ن",
      "یہ"
    ],
    [
      "گژھ",
      "ِ"
    ],
    [
      "ش",
      "یٚ"
    ],
    [
      "س",
      "س"
    ],
    [
      "ہند",
      "ی"
    ],
    [
      "ام",
      "ِ"
    ],
    [
      "ق",
      "ات"
    ],
    [
      "ب",
      "ُن"
    ],
    [
      "پیش",
      "ورانہٕ"
    ],
    [
      "زی",
      "را"
    ],
    [
      "د",
      "ُن"
    ],
    [
      "نی",
      "ک"
    ],
    [
      "در",
      "بار"
    ],
    [
      "2",
      "7"
    ],
    [
      "ن",
      "ِتھ"
    ],
    [
      "کر",
      "و"
    ],
    [
      "ست",
      "ہِ"
    ],
    [
      "حکم",
      "ران"
    ],
    [
      "جنو",
      "بی"
    ],
    [
      "ش",
      "ام"
    ],
    [
      "کور",
      "ٹ"
    ],
    [
      "چ",
      "ول"
    ],
    [
      "چھ",
      "اکھ"
    ],
    [
      "نی",
      "چ"
    ],
    [
      "ز",
      "اد"
    ],
    [
      "اہ",
      "َن"
    ],
    [
      "ان",
      "در"
    ],
    [
      "وی",
      "ِم"
    ],
    [
      "یہِ",
      "اوس"
    ],
    [
      "ای",
      "ر"
    ],
    [
      "سو",
      "ز"
    ],
    [
      "ب",
      "ہِ"
    ],
    [
      "انت",
      "خاب"
    ],
    [
      "تعل",
      "یم"
    ],
    [
      "کیٚ",
      "نٛہہ"
    ],
    [
      "ٹی",
      "ٖ"
    ],
    [
      "ش",
      "ت"
    ],
    [
      "ش",
      "تہٕ"
    ],
    [
      "ند",
      "ٕ"
    ],
    [
      "سی",
      "ٹ"
    ],
    [
      "کھ",
      "ین"
    ],
    [
      "ست",
      "ۍ"
    ],
    [
      "تب",
      "اہ"
    ],
    [
      "پار",
      "ٹی"
    ],
    [
      "با",
      "غ"
    ],
    [
      "بد",
      "لہٕ"
    ],
    [
      "ف",
      "ِ"
    ],
    [
      "ر",
      "گ"
    ],
    [
      "شروع",
      "۔</w>"
    ],
    [
      "فوج",
      "ی"
    ],
    [
      "او",
      "نہ"
    ],
    [
      "ش",
      "ل"
    ],
    [
      "پنن",
      "ین"
    ],
    [
      "ل",
      "ٔ"
    ],
    [
      "و",
      "ین"
    ],
    [
      "علاق",
      "نمنٛز"
    ],
    [
      "کردار",
      "ادا"
    ],
    [
      "ڈال",
      "ر"
    ],
    [
      "چھ",
      "ریاست"
    ],
    [
      "م",
      "ات"
    ],
    [
      "،",
      "چ"
    ],
    [
      "خ",
      "د"
    ],
    [
      "اَ",
      "م"
    ],
    [
      "دھ",
      "و"
    ],
    [
      "جہ",
      "از"
    ],
    [
      "صوٗ",
      "بہٕ"
    ],
    [
      "مق",
      "صد"
    ],
    [
      "د",
      "ِتھ"
    ],
    [
      "دِ",
      "یوٗ"
    ],
    [
      "ن",
      "ج"
    ],
    [
      "ست",
      "مبر"
    ],
    [
      "پ",
      "انس"
    ],
    [
      "ار",
      "تی"
    ],
    [
      "کو",
      "ُ"
    ],
    [
      "آو",
      "۔</w>"
    ],
    [
      "زن",
      "ان"
    ],
    [
      "غ",
      "رِ"
    ],
    [
      "ٮ",
      "ٔ"
    ],
    [
      "عیس",
      "وی"
    ],
    [
      "ک",
      "اش"
    ],
    [
      "ق",
      "ہ"
    ],
    [
      "آس",
      "ن"
    ],
    [
      "شہ",
      "ن"
    ],
    [
      "،ی",
      "ِتھ"
    ],
    [
      "اہ",
      "َسمنٛز"
    ],
    [
      "19",
      "3"
    ],
    [
      "ار",
      "ن"
    ],
    [
      "لا",
      "س"
    ],
    [
      "لَ",
      "ٹہِ"
    ],
    [
      "مط",
      "ٲب"
    ],
    [
      "ناک",
      "ام"
    ],
    [
      "باقٕ",
      "یہ"
    ],
    [
      "پ",
      "یمان"
    ],
    [
      "قاب",
      "ل"
    ],
    [
      "کرنہٕ",
      "باپت"
    ],
    [
      "آز",
      "ٲدی"
    ],
    [
      "چ",
      "یمپ"
    ],
    [
      "سمنٛز",
      "چھِ"
    ],
    [
      "َن",
      "تہٕ"
    ],
    [
      "ض",
      "روٗ"
    ],
    [
      "اَ",
      "ہَم"
    ],
    [
      "یِم",
      "َن"
    ],
    [
      "تہِ",
      "چھِ"
    ],
    [
      "را",
      "ز"
    ],
    [
      "گان",
      "دھی"
    ],
    [
      "ک",
      "َتھ"
    ],
    [
      "نٛد",
      "ر"
    ],
    [
      "بو",
      "دھ"
    ],
    [
      "حٲصِل",
      "۔</w>"
    ],
    [
      "لی",
      "ال"
    ],
    [
      "ب",
      "ص"
    ],
    [
      "نٛ",
      "نہٕ"
    ],
    [
      "ت",
      "،"
    ],
    [
      "ین",
      "ِ"
    ],
    [
      "د",
      "ۍ"
    ],
    [
      "مرک",
      "ز"
    ],
    [
      "رو",
      "ی"
    ],
    [
      "ٲسۍ",
      "۔</w>"
    ],
    [
      "ط",
      "وف"
    ],
    [
      "تھ",
      "منٛز"
    ],
    [
      "ہندوست",
      "ٲنی"
    ],
    [
      "پ",
      "ول"
    ],
    [
      "قل",
      "عہٕ"
    ],
    [
      "و",
      "منٛزٕ"
    ],
    [
      "لَ",
      "گ"
    ],
    [
      "راجستھ",
      "ان"
    ],
    [
      "نہٕ",
      "باپت"
    ],
    [
      "نم",
      "بر"
    ],
    [
      "ذری",
      "عہ"
    ],
    [
      "وا",
      "ض"
    ],
    [
      "کٲم",
      "۔</w>"
    ],
    [
      "ندر",
      "میان"
    ],
    [
      "ک",
      "ڑ"
    ],
    [
      "یو",
      "ارڈ"
    ],
    [
      "نہ",
      "رو"
    ],
    [
      "ضِل",
      "ع"
    ],
    [
      "دٔ",
      "سۍ"
    ],
    [
      "ت",
      "نظ"
    ],
    [
      "ر",
      "ٲب"
    ],
    [
      "ٗ",
      "نٛد"
    ],
    [
      "کُ",
      "مار"
    ],
    [
      "تہ",
      "نٛز"
    ],
    [
      "خ",
      "ا"
    ],
    [
      "اک",
      "ی"
    ],
    [
      "ا",
      "ق"
    ],
    [
      "ین",
      "منٛز"
    ],
    [
      "گ",
      "ل"
    ],
    [
      "خ",
      "دمات"
    ],
    [
      "لا",
      "ین"
    ],
    [
      "20",
      "19"
    ],
    [
      "تی",
      "ز"
    ],
    [
      "د",
      "،"
    ],
    [
      "ر",
      "ج"
    ],
    [
      "ن",
      "ان"
    ],
    [
      "م",
      "ز"
    ],
    [
      "ل",
      "ال"
    ],
    [
      "ث",
      "ال"
    ],
    [
      "واجیٚ",
      "نۍ"
    ],
    [
      "ای",
      "ف"
    ],
    [
      "کیٚ",
      "ن"
    ],
    [
      "کھۄتہٕ",
      "زیٛادٕ"
    ],
    [
      "ؤ",
      "ری"
    ],
    [
      "دِو",
      "ان"
    ],
    [
      "ت",
      "ان"
    ],
    [
      "شہن",
      "شاہ"
    ],
    [
      "ٲ",
      "ئی"
    ],
    [
      "شُ",
      "مال"
    ],
    [
      "خ",
      "طرٕ"
    ],
    [
      "ات",
      "ار"
    ],
    [
      "ٗ",
      "ت۔</w>"
    ],
    [
      "در",
      "خ"
    ],
    [
      "در",
      "ٛ"
    ],
    [
      "لو",
      "ک"
    ],
    [
      "ق",
      "بی"
    ],
    [
      "و",
      "ان"
    ],
    [
      "201",
      "8"
    ],
    [
      "بند",
      "ی"
    ],
    [
      "سیا",
      "ح"
    ],
    [
      "آس",
      "ہ"
    ],
    [
      "دار",
      "ٕ"
    ],
    [
      "می",
      "زور"
    ],
    [
      "سم",
      "ی"
    ],
    [
      "گا",
      "ڑ"
    ],
    [
      "نہِ",
      "۔</w>"
    ],
    [
      "ع",
      "ت"
    ],
    [
      "سمنز",
      "۔</w>"
    ],
    [
      "اگ",
      "ست"
    ],
    [
      "،ی",
      "ُ"
    ],
    [
      "ار",
      "۔</w>"
    ],
    [
      "ص",
      "در"
    ],
    [
      "2",
      "6"
    ],
    [
      "خ",
      "تیار"
    ],
    [
      "ط",
      "ب"
    ],
    [
      "سمٲ",
      "جی"
    ],
    [
      "ن",
      "خٲطرٕ"
    ],
    [
      "ت",
      "وجہ"
    ],
    [
      "ت",
      "وٚ"
    ],
    [
      "کر",
      "ٕنۍ"
    ],
    [
      "بَ",
      "چ"
    ],
    [
      "گٔ",
      "ژھ"
    ],
    [
      "س",
      "ٹر"
    ],
    [
      "خری",
      "دٲری"
    ],
    [
      "کیر",
      "ال"
    ],
    [
      "تھ",
      "وی"
    ],
    [
      "اورنگ",
      "زی"
    ],
    [
      "ف",
      "ہٕ"
    ],
    [
      "م",
      "راٹھ"
    ],
    [
      "د",
      "س"
    ],
    [
      "اِ",
      "ج"
    ],
    [
      "ری",
      "ت"
    ],
    [
      "س",
      "ج"
    ],
    [
      "اِ",
      "ن"
    ],
    [
      "،",
      "ہ"
    ],
    [
      "ت",
      "خ"
    ],
    [
      "کر",
      "َن"
    ],
    [
      "س",
      "ائ"
    ],
    [
      "تعل",
      "ِق"
    ],
    [
      "ک",
      "تہٕ"
    ],
    [
      "او",
      "لم"
    ],
    [
      "ز",
      "ٔ"
    ],
    [
      "علا",
      "ج"
    ],
    [
      "منع",
      "قد"
    ],
    [
      "رمِی",
      "ان"
    ],
    [
      "او",
      "ڈی"
    ],
    [
      "چھُ",
      "یہِ"
    ],
    [
      "تِم",
      "چھِ"
    ],
    [
      "یٚ",
      "ل"
    ],
    [
      "ٖ",
      "خ"
    ],
    [
      "س",
      "از"
    ],
    [
      "ٹ",
      "ل"
    ],
    [
      "د",
      "گی"
    ],
    [
      "اص",
      "لی"
    ],
    [
      "مش",
      "تم"
    ],
    [
      "قر",
      "ض"
    ],
    [
      "،",
      "گ"
    ],
    [
      "کرنہٕ",
      "آمت"
    ],
    [
      "ہم",
      "ہ"
    ],
    [
      "روُ",
      "د"
    ],
    [
      "تِ",
      "کیازِ"
    ],
    [
      "با",
      "تھ"
    ],
    [
      "یتھ",
      "منٛز"
    ],
    [
      "یہِ",
      "نٛز"
    ],
    [
      "نی",
      "بر"
    ],
    [
      "حال",
      "ان"
    ],
    [
      "ند",
      "ن"
    ],
    [
      "صٔ",
      "د"
    ],
    [
      "رٕ",
      "۔</w>"
    ],
    [
      "فرو",
      "ری"
    ],
    [
      "ری",
      "س"
    ],
    [
      "آس",
      "ام"
    ],
    [
      "م",
      "غر"
    ],
    [
      "پ",
      "را"
    ],
    [
      "،ییٚ",
      "مہ"
    ],
    [
      "اع",
      "لی"
    ],
    [
      "خص",
      "وٗص"
    ],
    [
      "نو",
      "ٹ"
    ],
    [
      "کل",
      "وٗ"
    ],
    [
      "لا",
      "ت"
    ],
    [
      "نہند",
      "ِس"
    ],
    [
      "ان",
      "چ"
    ],
    [
      "بُن",
      "یاد"
    ],
    [
      "ور",
      "ِ"
    ],
    [
      "جی",
      "ٖ"
    ],
    [
      "ہی",
      "ك"
    ],
    [
      "فیص",
      "لہٕ"
    ],
    [
      "فٲی",
      "دٕ"
    ],
    [
      "2",
      "8"
    ],
    [
      "دٕ",
      "سہِ"
    ],
    [
      "را",
      "ے"
    ],
    [
      "چ",
      "الو"
    ],
    [
      "سم",
      "تعلق"
    ],
    [
      "پرو",
      "گرام"
    ],
    [
      "َ",
      "ستام"
    ],
    [
      "ج",
      "دید"
    ],
    [
      "کِل",
      "و"
    ],
    [
      "گٔ",
      "یہ"
    ],
    [
      "،ییٚ",
      "لہ"
    ],
    [
      "م",
      "دھیہپردیش"
    ],
    [
      "میگھ",
      "الیہ"
    ],
    [
      "،یتھ",
      "منز"
    ],
    [
      "طر",
      "ز"
    ],
    [
      "ن",
      "ِس"
    ],
    [
      "لف",
      "ظ"
    ],
    [
      "وو",
      "نہِ"
    ],
    [
      "تھ",
      "ٲو"
    ],
    [
      "اف",
      "ت"
    ],
    [
      "جمٲ",
      "ژ"
    ],
    [
      "وٕ",
      "چھ"
    ],
    [
      "کی",
      "ل"
    ],
    [
      "کین",
      "ژ"
    ],
    [
      "،",
      "کو"
    ],
    [
      "چھُ",
      "،"
    ],
    [
      "مر",
      "د"
    ],
    [
      "زان",
      "نہٕ"
    ],
    [
      "نز",
      "دی"
    ],
    [
      "ضر",
      "ورت"
    ],
    [
      "اونہٕ",
      "یِوان۔</w>"
    ],
    [
      "ضٔ",
      "روٗ"
    ],
    [
      "اَمہِ",
      "پتہٕ"
    ],
    [
      "لا",
      "ش"
    ],
    [
      "ق",
      "انو"
    ],
    [
      "یہ",
      "ہ"
    ],
    [
      "ع",
      "دٕ"
    ],
    [
      "ب",
      "دھ"
    ],
    [
      "ند",
      "ِس"
    ],
    [
      "موسی",
      "ق"
    ],
    [
      "مق",
      "بول"
    ],
    [
      "پ",
      "ُر"
    ],
    [
      "از",
      "ت"
    ],
    [
      "اب",
      "ہٕ"
    ],
    [
      "سل",
      "یم"
    ],
    [
      "ذ",
      "ا"
    ],
    [
      "اک",
      "بر"
    ],
    [
      "ن",
      "ین"
    ],
    [
      "ہند",
      "و"
    ],
    [
      "ہٕ",
      "کۍ"
    ],
    [
      "سی",
      "ریز"
    ],
    [
      "ای",
      "ش"
    ],
    [
      "کٔ",
      "را"
    ],
    [
      "چ",
      "ری"
    ],
    [
      "پہ",
      "ٲڑ"
    ],
    [
      "مط",
      "لب"
    ],
    [
      "کلا",
      "سی"
    ],
    [
      "ک",
      "اکھ"
    ],
    [
      "ٹ",
      "یٚ"
    ],
    [
      "چُھ",
      "نہٕ"
    ],
    [
      "ییٚ",
      "مہِ"
    ],
    [
      "سرمایہ",
      "کٲری"
    ],
    [
      "تر",
      "ق"
    ],
    [
      "ٲس",
      "ِتھ"
    ],
    [
      "موجو",
      "دٕ"
    ],
    [
      "ف",
      "ون"
    ],
    [
      "ٲی",
      "ِو"
    ],
    [
      "بج",
      "ٹ"
    ],
    [
      "201",
      "5"
    ],
    [
      "عظ",
      "یم"
    ],
    [
      "یا",
      "یس"
    ],
    [
      "ر",
      "ٲ"
    ],
    [
      "سی",
      "ٲسی"
    ],
    [
      "پر",
      "ست"
    ],
    [
      "پ",
      "دم"
    ],
    [
      "س",
      "یٚ"
    ],
    [
      "اع",
      "زاز"
    ],
    [
      "م",
      "وُ"
    ],
    [
      "ٗ",
      "ل"
    ],
    [
      "ك",
      "ٗن"
    ],
    [
      "کار",
      "کر"
    ],
    [
      "سٕنٛد",
      "س"
    ],
    [
      "ز",
      "بر"
    ],
    [
      "ج",
      "ای"
    ],
    [
      "ر",
      "ٔ"
    ],
    [
      "سو",
      "٘"
    ],
    [
      "زِ",
      "یادٕ"
    ],
    [
      "انڈ",
      "یاہ"
    ],
    [
      "حم",
      "ل"
    ],
    [
      "ح",
      "وص"
    ],
    [
      "ور",
      "ٲے"
    ],
    [
      "نتی",
      "ج"
    ],
    [
      "م",
      "ول"
    ],
    [
      "فا",
      "ظ"
    ],
    [
      "بی",
      "ت"
    ],
    [
      "تِم",
      "و"
    ],
    [
      "یِم",
      "و"
    ],
    [
      "ُ",
      "نی"
    ],
    [
      "ن",
      "پٮ۪ٹھ"
    ],
    [
      "بور",
      "ڈ"
    ],
    [
      "اند",
      "از"
    ],
    [
      "بن",
      "اوان۔</w>"
    ],
    [
      "می",
      "ک"
    ],
    [
      "دو",
      "بارٕ"
    ],
    [
      "فی",
      "ٖ"
    ],
    [
      "س",
      "اتہٕ"
    ],
    [
      "ہہ",
      "ہِ"
    ],
    [
      "مٗ",
      "ت۔</w>"
    ],
    [
      "م",
      "ُک"
    ],
    [
      "کو",
      "ڈ"
    ],
    [
      "أ",
      "چھ"
    ],
    [
      "ل",
      "چھ"
    ],
    [
      "وٗ",
      "چھ"
    ],
    [
      "تقری",
      "ٖ"
    ],
    [
      "ہِ",
      "۔</w>"
    ],
    [
      "طٲب",
      "ق"
    ],
    [
      "مقاب",
      "لہٕ"
    ],
    [
      "ج",
      "ون"
    ],
    [
      "رو",
      "زان"
    ],
    [
      "ژ",
      "ۄ"
    ],
    [
      "بناونہٕ",
      "خٲطرٕ"
    ],
    [
      "ات",
      "و"
    ],
    [
      "ص",
      "وُ"
    ],
    [
      "رف",
      "تار"
    ],
    [
      "ٲ",
      "ئ"
    ],
    [
      "شی",
      "ٖ"
    ],
    [
      "اج",
      "ہِ"
    ],
    [
      "نہند",
      "ۍ"
    ],
    [
      "سار",
      "وٕے"
    ],
    [
      "ِم",
      "ر"
    ],
    [
      "قر",
      "ر"
    ],
    [
      "قت",
      "ل"
    ],
    [
      "بطور",
      "ِ"
    ],
    [
      "ٲ",
      "د"
    ],
    [
      "نس",
      "از"
    ],
    [
      "مد",
      "تھ"
    ],
    [
      "غ",
      "ور"
    ],
    [
      "مُ",
      "طٲبِق"
    ],
    [
      "با",
      "سان"
    ],
    [
      "ح",
      "قی"
    ],
    [
      "وست",
      "ٲنۍ"
    ],
    [
      "وُ",
      "چھ"
    ],
    [
      "ل",
      "ۍ"
    ],
    [
      "تی",
      "ل"
    ],
    [
      "نو",
      "ع"
    ],
    [
      "بیٛ",
      "اکھ"
    ],
    [
      "سارِو",
      "ٕیہ"
    ],
    [
      "ؤ",
      "رۍ"
    ],
    [
      "دوٚ",
      "یم"
    ],
    [
      "ہ",
      "فتہٕ"
    ],
    [
      "أ",
      "کِس"
    ],
    [
      "ژ",
      "۔</w>"
    ],
    [
      "پ",
      "انہٕ"
    ],
    [
      "یِم",
      "ن"
    ],
    [
      "ہٕ",
      "نٛدۍ"
    ],
    [
      "کَر",
      "ان"
    ],
    [
      "تہٕ",
      "کوٚر"
    ],
    [
      "“",
      "۔</w>"
    ],
    [
      "ی",
      "لہِ"
    ],
    [
      "ن",
      "ٮ۪"
    ],
    [
      "قل",
      "عہ"
    ],
    [
      "تح",
      "ٲص"
    ],
    [
      "پن",
      "نہ"
    ],
    [
      "چ",
      "ندر"
    ],
    [
      "ت",
      "یو"
    ],
    [
      "نہٕ",
      "نز"
    ],
    [
      "طلا",
      "ع"
    ],
    [
      "ہِنٛد",
      "ِس"
    ],
    [
      "لب",
      "نہٕ"
    ],
    [
      "د",
      "ک"
    ],
    [
      "ش",
      "پ"
    ],
    [
      "ہندوستان",
      "َسمنٛز"
    ],
    [
      "نمنٛز",
      "چھِ"
    ],
    [
      "انگری",
      "ز"
    ],
    [
      "اہ",
      "سمنز"
    ],
    [
      "اک",
      "ِس"
    ],
    [
      "بغاو",
      "ت"
    ],
    [
      "ات",
      "ح"
    ],
    [
      "غل",
      "ط"
    ],
    [
      "ٹ",
      "ورنام"
    ],
    [
      "کِ",
      "ھ"
    ],
    [
      "ُو",
      "ک"
    ],
    [
      "شک",
      "ست"
    ],
    [
      "دور",
      "ِ"
    ],
    [
      "بھ",
      "ارت"
    ],
    [
      "ٲ",
      "فی"
    ],
    [
      "ص",
      "اف"
    ],
    [
      "س",
      "۔</w>"
    ],
    [
      "سُہ",
      "اوس"
    ],
    [
      "را",
      "ؤ"
    ],
    [
      "ہندوستان",
      "سمنز"
    ],
    [
      "ک",
      "یم"
    ],
    [
      "تھی",
      "ار"
    ],
    [
      "تامل",
      "ناڈو"
    ],
    [
      "،",
      "یوٚ"
    ],
    [
      "نہِ",
      "تہِ"
    ],
    [
      "رق",
      "م"
    ],
    [
      "َن",
      "ہُند"
    ],
    [
      "ک",
      "او"
    ],
    [
      "َو",
      "منٛز"
    ],
    [
      "تم",
      "ہ"
    ],
    [
      "واض",
      "ح"
    ],
    [
      "7",
      "0"
    ],
    [
      "ح",
      "ُ"
    ],
    [
      "یق",
      "ینی"
    ],
    [
      "قی",
      "د"
    ],
    [
      "قو",
      "م"
    ],
    [
      "اونہٕ",
      "آم"
    ],
    [
      "200",
      "7"
    ],
    [
      "نہِ",
      "نٛد"
    ],
    [
      "ڑ",
      "ی"
    ],
    [
      "یہ",
      "ٗند"
    ],
    [
      "،م",
      "گری"
    ],
    [
      "ش",
      "کل"
    ],
    [
      "برا",
      "دری"
    ],
    [
      "اتھ",
      "منٛز"
    ],
    [
      "ذ",
      "ی"
    ],
    [
      "کم",
      "ل"
    ],
    [
      "اونہٕ",
      "یوان۔</w>"
    ],
    [
      "نوٚ",
      "و"
    ],
    [
      "ٲو",
      "ِتھ۔</w>"
    ],
    [
      "ج",
      "مو"
    ],
    [
      "حکم",
      "ر"
    ],
    [
      "ٹ",
      "ا"
    ],
    [
      "،ییٚ",
      "مۍ"
    ],
    [
      "امی",
      "ُک"
    ],
    [
      "فی",
      "ڈری"
    ],
    [
      "ٲییا",
      "ڈٕ"
    ],
    [
      ")",
      "،"
    ],
    [
      "ز",
      "َ"
    ],
    [
      "یو",
      "سہٕ"
    ],
    [
      "ند",
      "ین"
    ],
    [
      "ے",
      "تہٕ"
    ],
    [
      "اہ",
      "و"
    ],
    [
      "د",
      "ول"
    ],
    [
      "ن",
      "وٗ"
    ],
    [
      "حالانٛ",
      "کہِ"
    ],
    [
      "کم",
      "از"
    ],
    [
      "برو",
      "ن"
    ],
    [
      "می",
      "گ"
    ],
    [
      "ج",
      "ِ"
    ],
    [
      "ق",
      "تہٕ"
    ],
    [
      "ری",
      "کارڈ"
    ],
    [
      "د",
      "لی"
    ],
    [
      "گ",
      "ٲ"
    ],
    [
      "م",
      "نس"
    ],
    [
      "کٔ",
      "می"
    ],
    [
      "آ",
      "پری"
    ],
    [
      "خانٛ",
      "دان"
    ],
    [
      "ٲی",
      "تی"
    ],
    [
      "تی",
      "س"
    ],
    [
      "پن",
      "چ"
    ],
    [
      "حا",
      "ظ"
    ],
    [
      "امہ",
      "پتہٕ"
    ],
    [
      "نم",
      "َنٛز"
    ],
    [
      "پرو",
      "ڈیو"
    ],
    [
      "ُ",
      "تھ"
    ],
    [
      "سٕ",
      "نزِ"
    ],
    [
      "دۄ",
      "ہہ"
    ],
    [
      "ان",
      "سی"
    ],
    [
      "ین",
      "گ"
    ],
    [
      "ل",
      "ٕ"
    ],
    [
      "ہ",
      "یوٚ"
    ],
    [
      "سمنٛز",
      "،"
    ],
    [
      "گۄڈ",
      "ن"
    ],
    [
      "ٔ",
      "قیٖ"
    ],
    [
      "گوٚو",
      "،"
    ],
    [
      "تھوی",
      "راج"
    ],
    [
      "گ",
      "جرات"
    ],
    [
      "ک",
      "ڈ"
    ],
    [
      "گورن",
      "ر"
    ],
    [
      "ڈی",
      "ز"
    ],
    [
      "ہِنٛدُست",
      "ٲنہِ"
    ],
    [
      "بٔڑ",
      "ِس"
    ],
    [
      "ا",
      "پی"
    ],
    [
      "ان",
      "ج"
    ],
    [
      "کرنہٕ",
      "یِوان۔</w>"
    ],
    [
      "پ",
      "لو"
    ],
    [
      "ك",
      "ٲری"
    ],
    [
      "دی",
      "پ"
    ],
    [
      "وا",
      "قعہٕ"
    ],
    [
      "فرو",
      "غ"
    ],
    [
      "َس",
      "دوران"
    ],
    [
      "لوٗ",
      "کھ"
    ],
    [
      "تج",
      "ارت"
    ],
    [
      "مر",
      "دم"
    ],
    [
      "پنٛ",
      "نس"
    ],
    [
      "ام",
      "ہٕ"
    ],
    [
      "نی",
      "ٹ"
    ],
    [
      "ہِ",
      "ر"
    ],
    [
      "ہِ",
      "م"
    ],
    [
      "اَ",
      "ہم"
    ],
    [
      "ین",
      "ٹ"
    ],
    [
      "ِم",
      "ہٕ"
    ],
    [
      "ص",
      "ر"
    ],
    [
      "کماز",
      "کم"
    ],
    [
      "ش",
      "نو"
    ],
    [
      "ل",
      "وٚ"
    ],
    [
      "مت",
      "عل"
    ],
    [
      "کُ",
      "ٹ"
    ],
    [
      "پار",
      "ک"
    ],
    [
      "َن",
      "پیٹھ"
    ],
    [
      "ر",
      "تھ"
    ],
    [
      "کر",
      "ٕنہِ"
    ],
    [
      "عو",
      "ٲمی"
    ],
    [
      "یِو",
      "ان،"
    ],
    [
      "جان",
      "ور"
    ],
    [
      "ج",
      "زیر"
    ],
    [
      "س",
      "چھ"
    ],
    [
      "ضرو",
      "ری"
    ],
    [
      "جن",
      "سی"
    ],
    [
      "آ",
      "ور"
    ],
    [
      "یی",
      "لہِ"
    ],
    [
      "ش",
      "تر"
    ],
    [
      "با",
      "ت"
    ],
    [
      "کو",
      "شش"
    ],
    [
      "5",
      "00"
    ],
    [
      "ٕ",
      "ری"
    ],
    [
      "علا",
      "ؤ"
    ],
    [
      "بناونہٕ",
      "۔</w>"
    ],
    [
      "واپ",
      "سی"
    ],
    [
      "د",
      "لہ"
    ],
    [
      "کار",
      "پوری"
    ],
    [
      "ج",
      "رم"
    ],
    [
      "ژ",
      "ِھ"
    ],
    [
      "مو",
      "سم"
    ],
    [
      "ہ",
      "مہِ"
    ],
    [
      "خ",
      "ل"
    ],
    [
      "ق",
      "ۭ"
    ],
    [
      "سیا",
      "حت"
    ],
    [
      "چھ",
      "وٕ"
    ],
    [
      "فٹ",
      "بال"
    ],
    [
      "حص",
      "ہٕ۔</w>"
    ],
    [
      "بچ",
      "ت"
    ],
    [
      "سرک",
      "ٲرۍ"
    ],
    [
      "سپ",
      "یمان"
    ],
    [
      "أ",
      "مس"
    ],
    [
      "ہ",
      "می"
    ],
    [
      "س",
      "فر"
    ],
    [
      "ك",
      "ٲم"
    ],
    [
      "گر",
      "ٛ"
    ],
    [
      "م",
      "وج"
    ],
    [
      "علاؤ",
      "الدین"
    ],
    [
      "اوس",
      "اکھ"
    ],
    [
      "زبر",
      "دست"
    ],
    [
      "ن",
      "سمنٛز"
    ],
    [
      "چھُ",
      "زِ"
    ],
    [
      "س",
      "لمان"
    ],
    [
      "این",
      "ڈ"
    ],
    [
      "ئ",
      "نش"
    ],
    [
      "َن",
      "منز"
    ],
    [
      "شروٗع",
      "ات"
    ],
    [
      "ون",
      "ان۔</w>"
    ],
    [
      "رو",
      "نی"
    ],
    [
      "فلم",
      "َنمنٛز"
    ],
    [
      "ہی",
      "کہِ"
    ],
    [
      "کرنہٕ",
      "یوان۔</w>"
    ],
    [
      "اف",
      "ٹ"
    ],
    [
      "ی",
      "تہٕ"
    ],
    [
      "س",
      "سٕتہِ"
    ],
    [
      "پار",
      "ٹ"
    ],
    [
      "9",
      "0"
    ],
    [
      "ا",
      "ٮ۪"
    ],
    [
      "پھ",
      "ٔ"
    ],
    [
      "صنع",
      "ت"
    ],
    [
      "قص",
      "بہٕ"
    ],
    [
      "ہی",
      "كہِ"
    ],
    [
      "مطٲب",
      "ق"
    ],
    [
      "غ",
      "ان"
    ],
    [
      "صِ",
      "رِ"
    ],
    [
      "برو",
      "نٛہہ"
    ],
    [
      "200",
      "8"
    ],
    [
      "تھ",
      "منز"
    ],
    [
      "ف",
      "یل"
    ],
    [
      "عم",
      "لی"
    ],
    [
      "ص",
      "لا"
    ],
    [
      "یہ",
      "چھُ"
    ],
    [
      "کین",
      "ژن"
    ],
    [
      "ضاح",
      "ت"
    ],
    [
      "یٚ",
      "و"
    ],
    [
      "تق",
      "سیٖ"
    ],
    [
      "َ",
      "ھ"
    ],
    [
      "چ",
      "ندی"
    ],
    [
      "جٲی",
      "زٕ"
    ],
    [
      "انت",
      "ظ"
    ],
    [
      "عام",
      "پٲٹھۍ"
    ],
    [
      "کٔر",
      "تھ۔</w>"
    ],
    [
      "را",
      "کھنڈ"
    ],
    [
      "چِھ",
      "و"
    ],
    [
      "گان",
      "دھ"
    ],
    [
      "ص",
      "حی"
    ],
    [
      "ع",
      "ار"
    ],
    [
      "قیاد",
      "ت"
    ],
    [
      "گ",
      "لو"
    ],
    [
      "گوڈ",
      "نِ"
    ],
    [
      "سپ",
      "تہٕ"
    ],
    [
      "ساروِی",
      "کھۄتہٕ"
    ],
    [
      "س",
      "کری"
    ],
    [
      "اس",
      "لطنت"
    ],
    [
      "تٲری",
      "خ"
    ],
    [
      "ت",
      "گ"
    ],
    [
      "لا",
      "کی"
    ],
    [
      "وُ",
      "ل"
    ],
    [
      "ندور",
      "ان"
    ],
    [
      "ہند",
      "ین"
    ],
    [
      "بن",
      "یوو"
    ],
    [
      "201",
      "0"
    ],
    [
      "ٹری",
      "ل"
    ],
    [
      "پ",
      "اس"
    ],
    [
      "ح",
      "س"
    ],
    [
      "ش",
      "نس"
    ],
    [
      "آمد",
      "نی"
    ],
    [
      "باق",
      "ین"
    ],
    [
      "ری",
      "ٚ"
    ],
    [
      "ر",
      "دار"
    ],
    [
      "حیدر",
      "آباد"
    ],
    [
      "ای",
      "ٹ"
    ],
    [
      "یہ",
      "فلم"
    ],
    [
      "پھ",
      "ہل"
    ],
    [
      "ال",
      "ینڈ"
    ],
    [
      "کٮ۪",
      "نٛہہ"
    ],
    [
      "مہاراش",
      "ٹر"
    ],
    [
      "سم",
      "ندری"
    ],
    [
      "او",
      "ٚ"
    ],
    [
      "ع",
      "ز"
    ],
    [
      "ن",
      "اوس"
    ],
    [
      "ے",
      "۔</w>"
    ],
    [
      "خٲطرٕ",
      "اکھ"
    ],
    [
      "پٮ۪ٹھ",
      "ہٕ"
    ],
    [
      "ب",
      "ندر"
    ],
    [
      "ڈ",
      "گری"
    ],
    [
      "د",
      "ٲی"
    ],
    [
      "دۄشوٕ",
      "نی"
    ],
    [
      "ب",
      "ِل"
    ],
    [
      "پرو",
      "ڈ"
    ],
    [
      "س",
      "ون"
    ],
    [
      "یو",
      "نیورسٹی"
    ],
    [
      "تجوی",
      "ز"
    ],
    [
      "نم",
      "ا"
    ],
    [
      "20",
      "20"
    ],
    [
      "کٕ",
      "ن"
    ],
    [
      "حُ",
      "کوٗ"
    ],
    [
      "وٲ",
      "لہِ"
    ],
    [
      "ق",
      "م"
    ],
    [
      "سمنٛز",
      "اکھ"
    ],
    [
      "آ",
      "ٮٔ"
    ],
    [
      "ق",
      "در"
    ],
    [
      "گ",
      "یس"
    ],
    [
      "ح",
      "ق"
    ],
    [
      "عال",
      "م"
    ],
    [
      "وج",
      "ے"
    ],
    [
      "نِش",
      "ہِ"
    ],
    [
      "ک",
      "نہِ"
    ],
    [
      "د",
      "وٗ"
    ],
    [
      "198",
      "0"
    ],
    [
      "اہ",
      "ُک"
    ],
    [
      "دۄ",
      "شو"
    ],
    [
      "بوٗ",
      "ط"
    ],
    [
      "ہ",
      "نگ"
    ],
    [
      "کانگری",
      "س"
    ],
    [
      "تع",
      "میر"
    ],
    [
      "نٔ",
      "و"
    ],
    [
      "بر",
      "ص"
    ],
    [
      "بیٚ",
      "یہ"
    ],
    [
      "بَ",
      "ڑ"
    ],
    [
      "پ",
      "اب"
    ],
    [
      "ک",
      "نی"
    ],
    [
      "لۄ",
      "کٕ"
    ],
    [
      "20",
      "00"
    ],
    [
      "ب",
      "تہٕ"
    ],
    [
      "بُنی",
      "ٲدی"
    ],
    [
      "چھِ",
      "واریاہ"
    ],
    [
      "ج",
      "زی"
    ],
    [
      "آف",
      "انڈیا"
    ],
    [
      "وۄ",
      "نہِ"
    ],
    [
      "ند",
      "گی"
    ],
    [
      "ٹر",
      "ان"
    ],
    [
      "گۄ",
      "پھ"
    ],
    [
      "یاد",
      "گار"
    ],
    [
      "کرنہٕ",
      "باپتھ"
    ],
    [
      "می",
      "سور"
    ],
    [
      "کٲ",
      "فی"
    ],
    [
      "ا",
      "تہِ"
    ],
    [
      "او",
      "سی"
    ],
    [
      "سہ",
      "ُ"
    ],
    [
      "پ",
      "ٹی"
    ],
    [
      "قل",
      "ع"
    ],
    [
      "طری",
      "ق"
    ],
    [
      "ش",
      "وٗ"
    ],
    [
      "ِی",
      "ت"
    ],
    [
      "کر",
      "ُن۔</w>"
    ],
    [
      "ی",
      "َتھ"
    ],
    [
      "ٲخٕر",
      "کار"
    ],
    [
      "تہٕ",
      "ت"
    ],
    [
      "جو",
      "ان"
    ],
    [
      "قٕ",
      "ل"
    ],
    [
      "تعل",
      "ُ"
    ],
    [
      "ق",
      "صد"
    ],
    [
      "200",
      "9"
    ],
    [
      "رو",
      "م"
    ],
    [
      "گھ",
      "ر"
    ],
    [
      "نمنز",
      "چھ"
    ],
    [
      "پی",
      "داوار"
    ],
    [
      "قب",
      "ول"
    ],
    [
      "ل",
      "ِتھ"
    ],
    [
      "ک",
      "لی"
    ],
    [
      "جنگ",
      "ل"
    ],
    [
      "ذ",
      "ٲژ"
    ],
    [
      "د",
      "وٗر"
    ],
    [
      "گژھ",
      "انتہٕ"
    ],
    [
      "چھ",
      "،"
    ],
    [
      "ان",
      "چھِ۔</w>"
    ],
    [
      "گر",
      "می"
    ],
    [
      "پولی",
      "س"
    ],
    [
      "ہیٚ",
      "کہ"
    ],
    [
      "مۄ",
      "کھٕ"
    ],
    [
      "چھِ",
      "نہٕ"
    ],
    [
      "اَ",
      "د"
    ],
    [
      "تیٖ",
      "ج"
    ],
    [
      "فت",
      "ار"
    ],
    [
      "ِ",
      "نگ"
    ],
    [
      "دۄ",
      "ن"
    ],
    [
      "ق",
      "ان"
    ],
    [
      "3",
      "5"
    ],
    [
      "2",
      "9"
    ],
    [
      "مث",
      "ال"
    ],
    [
      "چ",
      "ند"
    ],
    [
      "مر",
      "ٲٹھ"
    ],
    [
      "ٔ",
      "مِس"
    ],
    [
      "پن",
      "اہ"
    ],
    [
      "ا",
      "ٗ"
    ],
    [
      "رو",
      "پ"
    ],
    [
      "ِ",
      "لاف"
    ],
    [
      "لک",
      "ش"
    ],
    [
      "اوس",
      "ُکھ"
    ],
    [
      "ہ",
      "ین"
    ],
    [
      "خانٛ",
      "د"
    ],
    [
      "ام",
      "ن"
    ],
    [
      "ی",
      "لہٕ"
    ],
    [
      "م",
      "ست"
    ],
    [
      "ا",
      "پور"
    ],
    [
      "مس",
      "لمان"
    ],
    [
      "کوٗ",
      "شِش"
    ],
    [
      "ڈ",
      "ای"
    ],
    [
      "زِ",
      "یہِ"
    ],
    [
      "سر",
      "حد"
    ],
    [
      "خانٛ",
      "دار"
    ],
    [
      "ائ",
      "ے"
    ],
    [
      "ہہ",
      "نٛد"
    ],
    [
      "شر",
      "قی"
    ],
    [
      ".",
      "5"
    ],
    [
      "کرن",
      "ک"
    ],
    [
      "ت",
      "ف"
    ],
    [
      "ك",
      "ال"
    ],
    [
      "یا",
      "،"
    ],
    [
      "سٕند",
      "ِس"
    ],
    [
      "پ",
      "ای"
    ],
    [
      "خٕ",
      "ط"
    ],
    [
      "ٲ",
      "سم"
    ],
    [
      "پانٛ",
      "ژ"
    ],
    [
      "ائ",
      "ن"
    ],
    [
      "پر",
      "تھویراج"
    ],
    [
      "تِ",
      "کیٛازِ"
    ],
    [
      "ری",
      "ڈ"
    ],
    [
      "حی",
      "ث"
    ],
    [
      "تم",
      "و"
    ],
    [
      "ژھ",
      "ان۔</w>"
    ],
    [
      "ت",
      "اج"
    ],
    [
      "آ",
      "بہٕ"
    ],
    [
      "تبدی",
      "ل"
    ],
    [
      "کھلٲڑ",
      "ۍ"
    ],
    [
      "ییٚ",
      "تہِ"
    ],
    [
      "ف",
      "ای"
    ],
    [
      "د",
      "وُ"
    ],
    [
      "آبٲ",
      "دیہ"
    ],
    [
      "رو",
      "ایتی"
    ],
    [
      "سپور",
      "ٹ"
    ],
    [
      "عموٗ",
      "مَن"
    ],
    [
      "کس",
      "ار"
    ],
    [
      "ٲ",
      "ست"
    ],
    [
      "حوص",
      "لہٕ"
    ],
    [
      "ال",
      "زام"
    ],
    [
      "نام",
      "زد"
    ],
    [
      "فو",
      "ظ"
    ],
    [
      "س",
      "نس"
    ],
    [
      "ین",
      "و"
    ],
    [
      "ہ",
      "ُک"
    ],
    [
      "،ی",
      "ٗس"
    ],
    [
      "ت",
      "ُک"
    ],
    [
      "ک",
      "ِتھ"
    ],
    [
      "بی",
      "ڈ"
    ],
    [
      "ِم",
      "ُ"
    ],
    [
      "زبان",
      "ہِ"
    ],
    [
      "لگ",
      "اتار"
    ],
    [
      "ہِنٛد",
      "ی"
    ],
    [
      "م",
      "پ"
    ],
    [
      "ص",
      "حت"
    ],
    [
      "ٲخ",
      "ٕری"
    ],
    [
      "ہ",
      "ا"
    ],
    [
      "اہ",
      "می"
    ],
    [
      "صِرِ",
      "ف"
    ],
    [
      "200",
      "6"
    ],
    [
      "تی",
      "لگ"
    ],
    [
      "200",
      "1"
    ],
    [
      "گژھ",
      "نہٕپتہٕ"
    ],
    [
      "می",
      "ٹ"
    ],
    [
      "س",
      "کھ"
    ],
    [
      "ب",
      "ُک"
    ],
    [
      "ثقاف",
      "تی"
    ],
    [
      "ج",
      "لی"
    ],
    [
      "ئنش",
      "پ"
    ],
    [
      "او",
      "ٹ"
    ],
    [
      "ز",
      "یوٗ"
    ],
    [
      "رک",
      "ز"
    ],
    [
      "وٗ",
      "ل"
    ],
    [
      "لا",
      "ئی"
    ],
    [
      "ہٕ",
      "کٔنہِ"
    ],
    [
      "قون",
      "وٗ"
    ],
    [
      "ڈ",
      "وی"
    ],
    [
      "ریاست",
      "سمنٛز"
    ],
    [
      "گژھ",
      "َ"
    ],
    [
      "َنمنٛز",
      "چھِ"
    ],
    [
      "مر",
      "بع"
    ],
    [
      "ب",
      "سمنز"
    ],
    [
      "ق",
      "ری"
    ],
    [
      "ڈ",
      "ے"
    ],
    [
      "نم",
      "و"
    ],
    [
      "کور",
      "ِ"
    ],
    [
      "ق",
      "ٔ"
    ],
    [
      "آس",
      "ِہ"
    ],
    [
      "اعل",
      "ان"
    ],
    [
      "دور",
      "سمنٛز"
    ],
    [
      "تر",
      "ج"
    ],
    [
      "ڈ",
      "ل"
    ],
    [
      "تر",
      "پردیش"
    ],
    [
      "دۄش",
      "وٕے"
    ],
    [
      "سم",
      "اج"
    ],
    [
      "بندر",
      "گاہ"
    ],
    [
      "یہ",
      "و"
    ],
    [
      "تھ",
      "اوان۔</w>"
    ],
    [
      "بر",
      "ہ"
    ],
    [
      "ك",
      "ام"
    ],
    [
      "ب",
      "ےٚ"
    ],
    [
      "خ",
      "ال"
    ],
    [
      "حال",
      "ات"
    ],
    [
      "نس",
      "ہٕ"
    ],
    [
      "در",
      "می"
    ],
    [
      "عام",
      "ل"
    ],
    [
      "ہندوستان",
      "ٕچ"
    ]
  ],
  "vocab_size": 5000,
  "num_merges": 3000,
  "actual_merges": 3000,
  "vocab": [
    "چھے٘۔</w>",
    "نیٚ",
    "تہِ۔</w>",
    "جو",
    "2018",
    "197",
    "نٛدۍ",
    "اج",
    "لیٹ",
    "لوُ",
    "حیدر",
    "مُختٔلِف",
    "سیٲسی",
    "َم",
    "میٖٹر",
    "ایس",
    "دیٖ",
    "خبر",
    "膏",
    "چند",
    "د",
    "چِھ",
    "غی",
    "کرنہٕآم",
    "مقام",
    "خل",
    "رٮ۪",
    "پٗ",
    "سٲ",
    "x",
    "ھ",
    "سماج",
    "ٗل",
    "ٲخٕری",
    "سرم",
    "ٔ",
    "ہیك",
    "ریاستسمنٛز",
    "اہُک",
    "وۄنہِ",
    "نمنٛزچھِ",
    "کنگ",
    "تمو",
    "َسپٮ۪ٹھ",
    "فار",
    "ہم",
    "چندر",
    "پار",
    "،یتھ",
    "کیرالہ",
    "گھر",
    "سرمایہ",
    "ٲسِتھ",
    "اقت",
    "کشن",
    "انزِ",
    "نٛڈ",
    "لی",
    "ضروٗ",
    "نٛسہٕ",
    "کُمار",
    "پٮ۪ٹھہٕ",
    "ٖز",
    "اند",
    "پی",
    "ٲس۔</w>",
    "اوس،",
    "حٲصل",
    "کِر",
    "زاز",
    "سین",
    "پاس",
    "چھےٚ",
    "ہیوٚ",
    "ینڈ",
    "ابہٕ",
    "میگھ",
    "t",
    "عز",
    "متہٕ",
    "كور",
    "مٗت",
    "نہندِ",
    "طٲبق",
    "حالات",
    "رد",
    "ِنہِ",
    "I",
    "كٕ",
    "یَن",
    "غلط",
    "گ",
    "لیال",
    "دیپ",
    "2016",
    "اوان",
    "Ä",
    "اَکھ",
    "یٚ",
    "گۄ",
    "ध",
    "تیا",
    "e",
    "گرمی",
    "باپت",
    "راب",
    "کار",
    ",000",
    "سک",
    "کھلٲڑۍ",
    "ریٖ",
    "بغاو",
    "گِ",
    "ایف",
    "سپتہٕ",
    "دھیہپردیش",
    "فل",
    "ترا",
    "نٔ",
    "‌",
    "کرنہٕ۔</w>",
    "وز",
    "اداکٲری",
    "سیٹھاہ",
    "كرِ",
    "ذہ",
    "ٕ",
    "شٲمِل۔</w>",
    "ِس",
    "وجی",
    "گرم",
    "ندوران",
    "سکری",
    "آیہِ",
    "تھیار",
    "،چ",
    "کمازکم",
    "كران",
    "سم",
    "ہمہِ",
    "آسان",
    "بوٗط",
    "گو٘",
    "کھ",
    "تہِ",
    "سو",
    "ئنشپ",
    "زمین",
    "مہار",
    "نٛدر",
    "X",
    "یلہٕ",
    "ائے",
    "र",
    "الا",
    "نہٕباپت",
    "و،",
    "پیٚ",
    "یون",
    "بیٚ",
    "سرحد",
    "ف",
    "ِو",
    "راٹھ",
    "نت",
    "آوا",
    "194",
    "،مگری",
    "ذٔریعہٕ",
    "فری",
    "دل",
    "ص",
    "،س",
    "ج",
    "کرنہٕیِوان۔</w>",
    "مشرق",
    "نہٕآم",
    "انتظام",
    "تُ",
    "عامطور",
    "مست",
    "میل",
    "ٕتہِ",
    "بول",
    "مرٲٹھ",
    "موجو",
    "تھی",
    "ہندوستانسمنٛز",
    "ٹس",
    "حکمر",
    "َسمنز",
    "سوز",
    "تان",
    "زیادٕتر",
    "نیہِ",
    "ٲفی",
    "وی",
    "فن",
    "َے",
    "35",
    "جان",
    "شروع",
    "ُہ",
    "یڈ",
    "ٲنۍ",
    "َنتہٕ",
    "<sos>",
    "ٛاہ",
    "مص",
    "خانٛد",
    "اہمی",
    "ڈای",
    "قب",
    "جہِ",
    "یادگار",
    "کوٚرم",
    "تو",
    "کَتھ",
    "ٗس",
    "انٹر",
    "حمل",
    "غر",
    "اتار",
    "ینگ",
    "ٕكہِ",
    "نزدیٖ",
    "کیا",
    "ریت",
    "ہِنٛدُست",
    "لک",
    "دوٚیم",
    "وان",
    "ِش",
    "شُ",
    "ٲدی",
    "قد",
    "باد",
    "كھ",
    "ڮ",
    "نوٗ",
    "ِمر",
    "ٲن",
    "غٲر",
    "شنو",
    "صو",
    "زیرا",
    "پانٛ",
    "تِہ",
    "حت",
    "وم",
    "رسم",
    "قام",
    "مدھیہپردیش",
    "کَران",
    "جر",
    "كرن",
    "فِلِم",
    "بےٚ",
    "ٲب",
    "سپ",
    "ہار",
    "ہس",
    "ُت۔</w>",
    "کمار",
    "كو",
    "ٖخ",
    "ریو",
    "ارڈ",
    "دوست",
    "آزٲدی",
    "فِ",
    "نچ",
    "نیُک",
    "حی",
    "دس",
    "بناونہٕآم",
    "افت",
    "َسمنٛز",
    "لڑ",
    "اع",
    "نِشہِ",
    "الیہ",
    "گژھان۔</w>",
    "یاد",
    "لاین",
    "بال",
    "کٔر",
    "000",
    "جلی",
    "ٕژ",
    "فٹ",
    "تباہ",
    "کتھ",
    "اوٚ",
    "کارٕ",
    "مث",
    "ہِنٛدُستٲنہِ",
    "خۄ",
    "کمپنی",
    "ڑھ",
    "وونہِ",
    "بوٚ",
    "نوو",
    "کوشش",
    "فیل",
    "مہ",
    "ہتہٕ",
    "اکہ",
    "بناونہٕ",
    "ای",
    "دۄہ",
    "بنوو",
    "وسط",
    "ڈی",
    "ورن",
    "ٲبی",
    "ثال",
    "میو",
    "مدتھ",
    "قرض",
    "ُن",
    "ایر",
    "بار",
    "جمٲ",
    "الینڈ",
    "ییلہِ",
    "دۄش",
    "نیچ",
    "ہمی",
    "ایتی",
    "قٲب",
    "از",
    "کَران۔</w>",
    "ژھان",
    "زِی",
    "ٖ",
    "َسسۭتۍ",
    "یوٚ",
    "قری",
    "ٕتہِ۔</w>",
    "افٹ",
    "سل",
    ")۔</w>",
    "فہٕ",
    "گوڈ",
    "مان",
    "اپریل",
    "کران،",
    "یتھ",
    "D",
    "ِک",
    "پھٔ",
    "کٔنہِ",
    "_",
    "ِمہٕ",
    "بر",
    "کاس",
    "ختلف",
    "لۍ",
    "برٛو",
    "ختٔلِف",
    "ِتھ",
    "سۭتہِ",
    "لیٚ",
    "â",
    "ُکو",
    "رف",
    "پیٚٹھ",
    "لبنہٕ",
    "اُ",
    "علاقنمنٛز",
    "ٹرا",
    "واس",
    "کلی",
    "نگ",
    "جی",
    "ہسمنز",
    "ہندوست",
    "بسمنٛز",
    "سپور",
    "أکس",
    "نہنٛز",
    "علی",
    "بہِ",
    "شار",
    "بیان",
    "تجویز",
    "واقع۔</w>",
    "یوٚو",
    "را",
    "َسمنٛزچھِ",
    "ہفتہٕ",
    "تِ",
    "ہند",
    "ئی",
    "क",
    "پروگرام",
    "ت،",
    "سمتعلق",
    "ورلڈ",
    "ز۔</w>",
    "أچھ",
    "حصہٕ۔</w>",
    "ِمُ",
    "آیہ",
    "نَ",
    "ٲست",
    "تامل",
    "سمنٛزاکھ",
    "واریٛاہ",
    "آسنہٕ",
    "شہری",
    "1980",
    "ٹھ",
    "َسپیٹھ",
    "وٗل",
    "اہسمنٛز",
    "ساز",
    "جنوٗ",
    "پنٛنِس",
    "اوسی",
    "منعقد",
    "رٛ",
    "زِیہِ",
    "کھلٲڑ",
    "انج",
    "حد",
    "کِردار",
    "کاو",
    "سِل",
    "َنٛز",
    "لۄکٕ",
    "ایم",
    "نوٚو",
    "اداکار",
    "گن",
    "پننہ",
    "ندین",
    "ٲم",
    "حکومت",
    "196",
    "کام",
    "پری",
    "وال",
    "تھٲو",
    "گٔژھ",
    "2010",
    "بٔڑِس",
    "اری",
    "اَم",
    "ُوک",
    "بٲتھ",
    "َو",
    "ُستان",
    "°",
    "رٕ۔</w>",
    "سٕتۍ",
    "پُ",
    "بیٛاکھ",
    "َومنٛز",
    "کِسم",
    "نما",
    "جزیر",
    "شٲہی",
    "پٮ۪ٹھ",
    "لیو",
    "آبٲ",
    "سرو",
    "نار",
    "رہ",
    "ೆ",
    "رٲ",
    "اونہٕ۔</w>",
    "روزان۔</w>",
    "ریف",
    "ؐ",
    "الگ",
    "رِتھ",
    "براہ",
    "زیادٕ",
    "کھۄتہٕزِیٛادٕ",
    "تمہِ",
    "ئ",
    "2009",
    "پننہِ",
    "خط",
    "نتہٕ",
    "تص",
    "η",
    "ٲثر",
    "ٹریل",
    "ٲلۍ",
    "ڈ",
    "کارڈ",
    "امہٕ",
    "کٔرا",
    "مطلب",
    "باقین",
    "وجے",
    "ِتھ۔</w>",
    "حم",
    "نہٕیِوان۔</w>",
    "شٲم",
    "چی",
    "تُل",
    "واض",
    "بص",
    "ضٔروٗ",
    "مقاب",
    "دورِ",
    "عت",
    "مٲلی",
    "کرِ",
    "ینمنٛز",
    "خاب",
    "دِنہٕ",
    "عظ",
    "خٕلاف",
    "یہچھ",
    "ؤ",
    "ن۔</w>",
    "تہٕس",
    "زم",
    "پتہٕ",
    "قدیم",
    "چالو",
    "ائی",
    "جٔ",
    "فوجی",
    "كم",
    "قٲیم",
    "نمَنٛز",
    "دِلہِ",
    "ریز",
    "اوی",
    "व",
    "منظ",
    "دھ",
    "ریس",
    "لطنت",
    "انہٕ",
    "سۍ",
    "تِکیٛازِ",
    "وتہٕ",
    "E",
    "نظام",
    "چہ",
    "یوی",
    "لیٖ",
    "لۄکٹ",
    "پننِ",
    "ٹین",
    "ت۔</w>",
    "بَر",
    "اعلان",
    "میٖ",
    "زار",
    "اثر",
    "ویِم",
    "بدلہٕ",
    "گل",
    "قص",
    "اپی",
    "بُن",
    "ورت",
    "رق",
    "پنج",
    "شہر",
    "واری",
    "دایت",
    "گرام",
    "دھی",
    "نٛد",
    "حا",
    "ورانہٕ",
    "ات",
    "کھیل",
    "جہاز",
    "جوٗ",
    "ایت",
    "ؤرۍ",
    "،ییٚمۍ",
    "شپ",
    "نٛدٕ",
    "یمنز",
    "کش",
    "فہرست",
    "یہٕ",
    "سمنزچھ",
    "α",
    "ہسمنٛز",
    "کست",
    "یتہٕ",
    "ہندوستٲنۍ",
    "حوال",
    "کرنہٕپتہٕ",
    "مُطٲبِق",
    "ضہٕ",
    "تٔ",
    "اصلی",
    "ٲتی",
    "ْ",
    "یمن",
    "ث",
    "اوساکھ",
    "سٗند",
    "بیاکھ",
    "پیٛٹھ",
    "میگھالیہ",
    "وری",
    "قٕ",
    "Î",
    "روٗ",
    "ہُک",
    "کوٚرا",
    "لگاتار",
    "منع",
    "گیم",
    "جنوبی",
    "اَمہِپتہٕ",
    "سندِس",
    "جاے",
    "دری",
    "29",
    "نزِ",
    "8",
    "ٗت۔</w>",
    "أمِس",
    "پنچ",
    "،ییٚمہ",
    "سمنٛزچھِ",
    "پٲٹھ",
    "2015",
    "بند",
    "وُر",
    "برو",
    "ہٕ",
    "قوم",
    "طور",
    "بنیٲدی",
    "سۭ",
    "'",
    "بوٚڑ",
    "انڈین",
    "مین",
    "طر",
    "راج",
    "ساروِیکھۄتہٕ",
    "وق",
    "ہ۔</w>",
    "ٛوٗ",
    "نق",
    "تھاونہٕ",
    "نسمنٛز",
    "شُمال",
    "ٲخٕر",
    "،ییٚمی",
    "اَتھ",
    "199",
    "،چھ",
    "k",
    "بغاوت",
    "تاہم",
    "دٔ",
    "دۄشوٕنی",
    "ثقافتی",
    "بان",
    "كرنہٕ۔</w>",
    "،پ",
    "ٲسہِ۔</w>",
    "یونیورسٹی",
    "ونان",
    "نج",
    "حُکوٗ",
    "سیم",
    "ि",
    "مبر",
    "ُند",
    "تہنٛد",
    "ازٕ",
    "جنوب",
    "قٲمی",
    "جوان",
    "چن",
    "پورٕ",
    "کہٕ",
    "دۍ",
    "گٔیہ",
    "بح",
    "نظ",
    "پننین",
    "مربع",
    "ٕتۍ",
    "ونان۔</w>",
    "تمۍ",
    "کِلو",
    "L",
    "زِس",
    "مختلف",
    "پارٹی",
    "کرنہ",
    "کرنہٕخٲطرٕ",
    "ٮ",
    "س،",
    "کالج",
    "پھ",
    "تاہ",
    "کری",
    "ہندوستٲنہِ",
    "زب",
    "ورٕ",
    "ज",
    "کورِ",
    "شٲمِل",
    "زیوٗ",
    "شتہٕ",
    "تامِل",
    "واجیٚ",
    "وٕ",
    "بات",
    "گژھ",
    "ورِ",
    "یاب",
    "پھہل",
    "آبشار",
    "دور",
    "سن",
    "کانگری",
    "نٕچ",
    "كین",
    "کیٚنٛہہ",
    "دَ",
    "آبٲدیہ",
    "قان",
    "اِج",
    "سوٗ",
    "خانٛدار",
    "×",
    "تٕ",
    "یوارڈ",
    "فتار",
    "برط",
    "کرٕنۍ",
    "ٲی",
    "ी",
    "سُند",
    "22",
    "ڈاک",
    "َس",
    "یو٘",
    "خ",
    "کین",
    "است",
    "نو",
    "کرنُک",
    "وٗن",
    "شیٚ",
    "ٹری",
    "دین",
    "باقٕے",
    "وقت",
    "لم",
    "دو",
    "طریقہٕ",
    "كام",
    "رتھ",
    "فای",
    "پسند",
    "ು",
    "نٛدِس",
    "ہیکہِ",
    "متعل",
    "انٛد",
    "١",
    "ُل",
    "ناڈو",
    "آغ",
    "مح",
    "بٗ",
    "ِنگ",
    "آف",
    "بنیوو",
    "رتہٕ",
    "سان",
    "24",
    "ہَ",
    "پنُ",
    "قبول",
    "آمت",
    "#",
    "کھو",
    "چھے٘",
    "كِس",
    "بینالاقو",
    "ے",
    "کِل",
    "کامی",
    "نہندِس",
    "بناوان۔</w>",
    "اوسم",
    "ورنام",
    "نمنز",
    "مَنٛز",
    "δ",
    "سیٹ",
    "امیُک",
    "واج",
    "حکمران",
    "چول",
    "اں",
    "حکوٗ",
    "دوبارٕ",
    "ستعمال",
    "تیہ",
    "پولی",
    "ٹی",
    "سمنٛز۔</w>",
    "کینٛ",
    "شنا",
    "رائ",
    "یوُ",
    "ستام",
    "اس",
    "َر",
    "بَڑ",
    "فِلم",
    "تہٕم",
    "کوڈ",
    "ο",
    "نہٕنز",
    "یوو",
    "ذ",
    "خص",
    "J",
    "باقی",
    "ستہِ",
    "وٲلہِ",
    "منز",
    "ہی",
    "لین",
    "نہٕنٛز",
    "تف",
    "سمَنٛز",
    "ژ",
    "وات",
    "پت",
    "نوٚ",
    "اونہٕخٲطرٕ",
    "نمنٛز",
    "وننہٕ",
    "ولی",
    "ترٛ",
    "پای",
    "غٲرم",
    "2013",
    "“",
    "مار",
    "ُ",
    "فت",
    "نُک",
    "اہسمنز",
    "زِم",
    "آسن",
    "کٔرِتھ۔</w>",
    "سوُ",
    "ۍ۔</w>",
    "تبدیل",
    "ؓ",
    "15",
    "میٹر",
    "یمُ",
    "ا،",
    "بییہ",
    "او",
    "نہِنٛدِ",
    "آم",
    "دن",
    "زِیٛادٕ",
    "شن",
    "ہٕنٛد",
    "نفر",
    "میزور",
    "ہٮ۪",
    "یِ",
    "لوٚ",
    "خری",
    "موج",
    "انچ",
    "ٲ",
    "نٮ۪",
    ")",
    "ٹک",
    "چھُیہِ",
    "لای",
    "لٲڑ",
    "ُم",
    "لفظ",
    "الی",
    "ٲد",
    "شکل",
    "ُتھ",
    "II",
    "انہِ",
    "جمٲژ",
    "پانس",
    "کا",
    "مَ",
    "دمات",
    "سمنٛز",
    "غرِ",
    "۹",
    "n",
    "سور",
    "تھ۔</w>",
    "بغ",
    "بچ",
    "سپٮ۪ٹھ",
    "تۄ",
    "اورنگزی",
    "یہِچُھ",
    "،یتھمنز",
    "کٔنۍ",
    "طب",
    "امی",
    "ٲوِتھ۔</w>",
    "کورٹ",
    "وٗر",
    "کلاسی",
    "ٹن",
    "A",
    "بَچ",
    "ترتیب",
    "خان",
    "بارٕ",
    "کَن",
    "اتو",
    "واقعہٕ",
    "ہیٚکِو",
    "درٕ",
    "اش",
    "ؤری",
    "علاج",
    "عامپٲٹھۍ",
    "قلعہ",
    "بناو",
    "دٔسۍ",
    "دِژ",
    "ٲلِس",
    "خو",
    "ِم",
    "ٲلی",
    "نہٕتہٕ",
    "स",
    "کران",
    "پُر",
    "رقم",
    "پٲدٕ",
    "تعلق",
    "جون",
    "راکھنڈ",
    "گۄپھ",
    "نہ",
    "کرنہٕیوان۔</w>",
    "علاقسمنٛز",
    "خب",
    "لۄ",
    "ہندِ",
    "پنن",
    "لو",
    "بٔ",
    "چھُزِ",
    "سپیٚٹھ",
    "اوس۔</w>",
    "ٲخ",
    "مز",
    "قاف",
    "پیداوار",
    "کیم",
    "رٕچ",
    "شور",
    "شمال",
    "قیٖ",
    "اٗ",
    "صلا",
    "نس",
    "سپد",
    "ٲییا",
    "خر",
    "دۄ",
    "ملین",
    "دِل",
    "وٚ",
    "ضلع",
    "درج",
    "نف",
    "زٔ",
    "نخٲطرٕ",
    "زن",
    "دۄہہ",
    "بنیو",
    "شوٗ",
    "ؤ",
    "یوٗ",
    "میک",
    "رونی",
    "چُھنہٕ",
    "نمبر",
    "ہُ",
    "تتھ",
    "دار",
    "دٗ",
    "فیس",
    "اہن",
    "واپسی",
    "بو",
    "ووٚ",
    "استعمال",
    "تھو",
    "حس",
    "ٹیکس",
    "َسمَنٛز",
    "لَٹہِ",
    "لکش",
    "حالانٛ",
    "کِنہِ",
    "خا",
    "،اکھ",
    "تسمنز",
    "خانٛدان",
    "ٲمی",
    "،یم",
    "سیل",
    "دع",
    "یور",
    "كال",
    "نپیٹھ",
    "یایس",
    "نِتھ",
    "پل",
    "تجارت",
    "مردم",
    "C",
    "انٛ",
    "تُک",
    "پنُن",
    "ٹر",
    "اکبر",
    "بی",
    "سکم",
    "ژٕ",
    "ً",
    "ہَم",
    "ذکر",
    "40",
    "،مگر",
    "ٲییاڈٕ",
    "آمُت",
    "تۍ",
    "ِق",
    "ذی",
    "فِلمہِ",
    "بدل",
    "ٲرۍ",
    "لَ",
    "روپ",
    "کٲفی",
    "ل۔</w>",
    "صٔ",
    "تھمنٛز",
    "شش",
    "ٗنٛد",
    "نہہ",
    "دوٚ",
    "کرٛ",
    "سمٲ",
    "دوٗر",
    "پَن",
    "یم",
    "G",
    "تتہٕ",
    "نز",
    "وستٲنۍ",
    "بہتر",
    "تہوار",
    "تقریباً",
    "گرو",
    "فٲصلہٕ",
    "فر",
    "وست",
    "ہنز",
    "ڈگری",
    "الزام",
    "فیڈری",
    "ایش",
    "ییٚلہِ",
    "بل",
    "v",
    "جل",
    "وٕےکھۄتہٕ",
    "ہِنٛد",
    "أ",
    "اکہِ",
    "ہہہِ",
    "سٹری",
    "ندٕ",
    "70",
    "یہِ",
    "ژھ",
    "وِزِ",
    "یِنہٕ",
    "منت",
    "عہٕ",
    "بوٗ",
    "ಬ",
    "حالان",
    "ڈل",
    "عو",
    "فیصد",
    "کلا",
    "چیز",
    "ر",
    "ہٕچ",
    "گیری",
    "2011",
    "رۄ",
    "مغل",
    "کرنس",
    "شِش",
    "ییٚلہ",
    "رٕ",
    "آمد",
    "پدم",
    "چار",
    "نتام",
    "وسی",
    "لن",
    "ز،",
    "اب",
    "درٛ",
    "سلیم",
    "کٔرتھ",
    "ساروی",
    "ہیٚ",
    "شہنشاہ",
    "پنٕنۍ",
    "جن",
    "کرنہٕباپتھ",
    "صرف",
    "کٔرِتھ",
    "تھ",
    "سٕنٛدِس",
    "بسمنز",
    "س۔</w>",
    "،ہ",
    "اداک",
    "نہند",
    "ت",
    "ستحت",
    "کنہ",
    "شتر",
    "اوٕ",
    "لاگ",
    "کیٚن",
    "سمندری",
    "رُک",
    "ڈالر",
    "اك",
    "قید",
    "्",
    "ال",
    "ٰ",
    "ٹای",
    "c",
    "مر",
    "نساز",
    "ٮ۪تھ",
    "ہندوستان",
    "فیص",
    "ست",
    "ك",
    "گژھان",
    "تہٕ",
    "سنٛد",
    "فو",
    "کر",
    "ζ",
    "حکو",
    "ٲیی",
    "رِیا",
    "غیر",
    "بۄ",
    "من",
    "ٕچ",
    "قی",
    "आ",
    "حکوٗمت",
    "تیار",
    "23",
    "چہِ",
    "زید",
    "دویم",
    "نتیج",
    "سسٕتہِ",
    "دیو",
    "ق",
    "بن",
    "کوٚر",
    "صوٗ",
    "رو",
    "ٲئ",
    "رُ",
    "بوٚڈ",
    "دتہٕ",
    "نمُ",
    "4",
    "نہنز",
    "تر٘",
    "لاش",
    "<unk>",
    "گۄڑ",
    "۷",
    "کٔرٕ",
    "ساتہٕ",
    "فٲیدٕ",
    "ثقاف",
    "سر",
    "کٕن",
    "زَ",
    "پناہ",
    "صوُ",
    "حص",
    "ٕک",
    "،یِم",
    "ذا",
    "نٹ",
    "امہِ",
    "كہِ",
    "حمد",
    "تیو",
    "بینالاقوٲمی",
    "کران۔</w>",
    "یہِنٛز",
    "چھُ۔</w>",
    "چھٗ",
    "خانٛدر",
    "اہَن",
    "ون",
    "حل",
    "کِ",
    "شای",
    "ارن",
    "فا",
    "ہنٛز",
    ",",
    "لسمنٛز",
    "ندِس",
    "ادھ",
    "قیم",
    "رج",
    "نہِنٛز",
    "آزاد",
    "پرا",
    "برونہہ",
    "قرار",
    "ہٕنٛز",
    "کھۄتہٕ",
    "ینہِ",
    "نیشنل",
    "باپتھ",
    "نظر",
    "،یۄ",
    "حٲصِل",
    "کرانتہٕ",
    "مغر",
    "تٔمہِ",
    "راہ",
    "سنگھ",
    "ہَسمنٛز",
    "تی",
    "قع",
    "کڈ",
    "بناونہٕخٲطرٕ",
    "ُھ",
    "ہٕتہٕ",
    "h",
    "لائ",
    "ژۄ",
    "یمپ",
    "کرکٹ",
    "گٗ",
    "بُ",
    "شک",
    "َنمنٛز",
    "تن",
    "ہندی",
    "کرن",
    "چری",
    "2001",
    "تحٲص",
    "رمِی",
    "وص",
    "ریلوے",
    "ٗك",
    "نٛٹ",
    "ہندوستانَسمنٛز",
    "نیو",
    "28",
    "تھویراج",
    "بندرگاہ",
    "اتہٕ",
    "یتھمنٛز",
    "سند",
    "زا",
    "نسپیٹھ",
    "کیٛازِ",
    "سار",
    "ڈھ",
    "یہند",
    "جہ",
    "فراہم",
    "ستان",
    "ٗم",
    "لٲ",
    "کیٹ",
    "ٹہٕ",
    "ؠٹھ",
    "دھو",
    "ترپردیش",
    "و",
    "بنٲو",
    "یِوان،",
    "ٲنہِ",
    "بلی",
    "اكِس",
    "روایتی",
    "سمی",
    "سپیٹھ",
    "صدی",
    "ٹور",
    "لتہٕ",
    "ریہ",
    "فلمہ",
    "دول",
    "7",
    "چیمپ",
    "امِ",
    "علام",
    "بِل",
    "اِستعمال",
    "j",
    "راجستھان",
    "2019",
    "قانو",
    "ٹل",
    "۰",
    "ے۔</w>",
    "ینٹ",
    "کانٛہہتہِ",
    "لور",
    "دی",
    "،یتھمنٛز",
    "بنگ",
    "قبی",
    "ض",
    "راز",
    ")تہٕ",
    "‎",
    "مہِ",
    "مشرقی",
    "درجہ",
    "سری",
    "توٚ",
    "لیز",
    "اف",
    "فٹبال",
    "ساروِی",
    "لاکی",
    "چھو",
    "كٲری",
    "زو",
    "27",
    "نیٹ",
    "نکوٚر",
    "]",
    "نسل",
    "دِوان",
    "سہِ",
    "ٕکہِ",
    "کس",
    "تھوٚ",
    "تہٕپتہٕ",
    "ٕژ۔</w>",
    "زِیادٕ",
    "یر",
    "ریڈ",
    "نہٕ",
    "مُت",
    "وارٕ",
    "ندھ",
    "نع",
    "ُنی",
    "اونہٕیوان۔</w>",
    "سپیمان",
    "‘",
    "اونہ",
    "وا",
    "برٛونٛہہ",
    "O",
    "گورنر",
    "گژھن",
    "رے",
    "شروع۔</w>",
    "کیٚ",
    "ۃ",
    "یِمو",
    "یوان،",
    "کُ",
    "دا",
    "یار",
    "فرو",
    "*",
    "َد",
    "رَ",
    "باکس",
    "رنگ",
    "دِی",
    "عدال",
    "ٲو",
    "سب",
    "سارِوٕے",
    "ینہٕ",
    "\"۔</w>",
    "کٔرِ",
    "ٲٹھ",
    "گاندھ",
    "یاہ",
    "سیا",
    "جیٖ",
    "تھمنز",
    "حالانٛکہِ",
    "وجو",
    "تُہۍ",
    "جمو",
    "کِس",
    "ڈوی",
    "و٘",
    "وَ",
    "قبض",
    "چُھ۔</w>",
    "قیاد",
    "جنگل",
    "موسم",
    "غ",
    "تمن",
    "مشر",
    "واریاہ",
    "!",
    "ندی",
    "صاف",
    "ಡ",
    "کل",
    "دلہ",
    "دریاو",
    "انی",
    "باسان",
    "o",
    "سٕندِس",
    "زَن",
    "تقسیم",
    "مٲ",
    "گرٛ",
    "نِ",
    "شرو",
    "ل،",
    "شہٕ",
    "لب",
    "پین",
    "تھوی",
    "یش",
    "قۭ",
    "زنانہٕ",
    "ضِلع",
    "گژھنہٕ",
    "داخ",
    "بیٚیہ",
    "نمنزچھ",
    "لمان",
    "کی",
    "ۍم",
    "پیٚٹھٕ",
    "ضِل",
    "طرٕ",
    "چھِ",
    "ظٲ",
    "جانور",
    "گی",
    "قاب",
    "V",
    "دد",
    "ذری",
    "قون",
    "ہہِ",
    "بودھ",
    "تم",
    "پوُ",
    "تِکیازِ",
    "نٔو",
    "m",
    "انس",
    "ڑ",
    "بین",
    "طرف",
    "تقریبا",
    "غل",
    "مس",
    "ما",
    "بجٹ",
    "تیل",
    "كار",
    "ڈری",
    "پرست",
    "آو۔</w>",
    "طوف",
    "سٕنزِ",
    "یق",
    "ِل",
    "زِسُہ",
    "تہ",
    "۔</w>",
    "واد",
    "ٟ",
    "رازد",
    "دٕ",
    "ہندوستانٕچ",
    "مق",
    "د۔</w>",
    "شو",
    "گژھِ",
    "اڑ",
    "بدھ",
    "ریتہٕ",
    "عوٲمی",
    "ِلاف",
    "ہِر",
    "گنگ",
    "سرکٲرۍ",
    ".5",
    "ٍ",
    "تنا",
    "یِمن",
    "داد",
    "پٔ",
    "أ",
    "مقابلہٕ",
    "調",
    "نٛدِ",
    "َتھمنٛز",
    "وُل",
    "قسم",
    "كرِتھ",
    "مغربی",
    "مشتم",
    "ناک",
    "پن",
    "ِیو",
    "لَگ",
    "بیٚیہِ",
    "پر",
    "بٔڑ",
    "،کو",
    "فٲی",
    "ذِ",
    "َنپیٹھ",
    "یہُند",
    "شِ",
    "بنٛ",
    "سٗ",
    "لیم",
    "نیور",
    "ٛادٕ",
    "رن",
    "بع",
    "شرح",
    "سنگ",
    "ٿ",
    "طلا",
    "پیشورانہٕ",
    "حِصہٕ",
    "شین",
    "علاؤالدین",
    "اگر",
    "مُک",
    "زاننہٕ",
    "مَن",
    "مال",
    "قٕل",
    "شہ",
    "لٹہِ",
    "خصوص",
    "B",
    "جسم",
    "نہِنٛد",
    "تخ",
    "لٕ",
    "ایڈ",
    "گھ",
    "موسی",
    "لاف",
    "کرم",
    "ندگی",
    "جرات",
    "®",
    "برونٛہہ",
    "غٲ",
    "لگ",
    "انت",
    "قتہٕ",
    "50",
    "مُت۔</w>",
    "پہٲڑ",
    "ٹیل",
    "دورسمنٛز",
    "زور",
    "نِش",
    "19",
    "مشہور",
    "گام",
    "آسہ",
    "كِنہِ",
    "Â",
    "مِس",
    "ار۔</w>",
    "تٲری",
    "اسم",
    "،گ",
    "نیورسٹی",
    "موسیق",
    "ड",
    "اور",
    "نٛ",
    "نیم",
    "کوٹ",
    "بج",
    "تری",
    "مول",
    "ٹ",
    "ُست",
    "بطورِ",
    "یُس",
    "مسلمان",
    "90",
    "سرمایہکٲری",
    "ملک",
    "قصبہٕ",
    "تعلِق",
    "ان۔</w>",
    "در",
    "º",
    "ہ",
    "ُنٛد",
    "صدر",
    "تاملناڈو",
    "بور",
    "درخ",
    "م۔</w>",
    "دم",
    "ئنش",
    "عال",
    "گۄڈٕنِ",
    "آمُت۔</w>",
    "قات",
    "ٲری",
    "سسۭتۍ",
    "پال",
    "193",
    "نیٚچ",
    "کمپ",
    "مِل",
    "تنظ",
    "جایہِ",
    "اوان۔</w>",
    "فہر",
    "اگ",
    "ٗ",
    "ایوارڈ",
    "ٲسۍ",
    "یا،",
    "دیہ",
    "یٚلہِ",
    "جٲی",
    "كن",
    "أمس",
    "فوج",
    "زیر",
    "جنو",
    "خت",
    "نہرو",
    "فروغ",
    "ران",
    "ژ۔</w>",
    "سٕنز",
    "ہِنٛدِس",
    "20",
    "ٗن۔</w>",
    "تقریٖ",
    "یہو",
    "ِہ",
    "ےتہٕ",
    "کانٛہہ",
    "ڈیو",
    "نہندۍ",
    "ہِنٛدِ",
    "کِھ",
    "دِوان۔</w>",
    "،یس",
    "ستمبر",
    "</w>",
    "چھِو",
    "باو",
    "دُن",
    "ڈِ",
    "200",
    "y",
    "می",
    "اولم",
    "s",
    "مٔ",
    "موسیقی",
    "عام",
    "سای",
    "تقری",
    "ु",
    "جُ",
    "رفتار",
    "اتھ",
    "اے",
    "عالم",
    "انتخاب",
    "بت",
    "رم",
    "ٮٔ",
    "اگست",
    "ایہِ",
    "غربی",
    "تع",
    "لوک",
    "كٗن",
    "انڈیاہ",
    "سمنز۔</w>",
    "دٔریاو",
    "اعزاز",
    "تہٕت",
    "نہُنٛد",
    "کہ",
    "ڈیز",
    "سدوران",
    "امہپتہٕ",
    "ٲسی",
    "واقع",
    "سچھ",
    "چر",
    "K",
    "ہَن",
    "بورڈ",
    "اپور",
    "برطانو",
    "ظام",
    "ٔمِس",
    "برٛ",
    "تعل",
    "زی",
    "ڈیا",
    "ط",
    "خصوٗص",
    "مٲل",
    "ناڈ",
    "خی",
    "جا",
    "كٲم",
    "کھۄتہٕزیٛادٕ",
    "ستۍ",
    "نومبر",
    "ح",
    "خاص",
    "پیٹھٕ",
    "ہِ",
    "ہُند",
    "شی",
    "خدمات",
    "ریلیز",
    "نمنٛزچھ",
    "بری",
    "راو",
    "راگ",
    "ٔمۍ",
    "طریق",
    "سُہاوس",
    "یہ",
    "کیر",
    "ندۍ",
    "قٲی",
    "H",
    "ٹرٛ",
    "حال",
    "ہٕنٛدِ",
    "عامل",
    "द",
    "کینٛہہ",
    "لات",
    "بھارت",
    "تُہ",
    "وٕے",
    "زخ",
    "نیک",
    "علاؤ",
    "نوال",
    "تح",
    "بہتٔریٖ",
    "قٲیِم",
    "پول",
    "ستی",
    "چُھ",
    "کامیاب",
    "وش",
    "قل",
    "طلاع",
    "اٹ",
    "ّ",
    "صٔدی",
    "درجہٕ",
    "صنع",
    "201",
    "شم",
    "ور",
    "سُ",
    "موجودٕ",
    "تٔمۍ",
    "نہنٛد",
    "وٗچھ",
    "یِم",
    "ा",
    "نش",
    "أکِس",
    "شاہ",
    "ٲخری",
    "لائی",
    "وۄ",
    "زین",
    "ؔ",
    "باپتم",
    "ٲت",
    "ٔریٖ",
    "خۄش",
    "مج",
    "سمٲجی",
    "سٹ",
    "پہ",
    "َنہُنٛد",
    "فیٖ",
    "آو",
    "ِی",
    "َسدوران",
    "تگ",
    "پننِس",
    "گَژھ",
    "چھِواریاہ",
    "مٕژ۔</w>",
    "جزی",
    "لط",
    "،یوٚ",
    "وار",
    "رِ",
    "11",
    "تش",
    "اہل",
    "داو",
    "ہیٚکہ",
    "ساروٕے",
    "نوٹ",
    "ابق",
    "سندِ",
    "سلط",
    "منی",
    "سپدان۔</w>",
    "اکھ۔</w>",
    "“۔</w>",
    "اكہِ",
    "پنِنہِ",
    "کور",
    "حر",
    "ُکاکھ",
    "شہن",
    "قرر",
    "بچت",
    "ہٕ۔</w>",
    "جمع",
    "الدین",
    "چل",
    "a",
    "مُ",
    "مِ",
    "گُ",
    "پرتھویراج",
    "توبر",
    "م،",
    "دگی",
    "علا",
    "۳",
    "بنگال",
    "كٕنہِ",
    "آسِہ",
    "یاں",
    "ہندو",
    "اپ",
    "<pad>",
    "ارٕ",
    "اسلطنت",
    "موُ",
    "بُنیاد",
    "اوس",
    "ورٲے",
    "خد",
    "14",
    "یہٗند",
    "،ج",
    "ہہنٛد",
    "روم",
    "نٛسہِ",
    "علاق",
    "ُو",
    "کِست",
    "ۅ",
    "ہیتھ",
    "مشہوٗر",
    "گاڑ",
    "ہِنٛدی",
    "گۄڈ",
    "زانٛ",
    "اوسنہٕ",
    "q",
    "،یِتھ",
    "تعلُ",
    "دٔری",
    "خانٛ",
    "سیاح",
    "باغ",
    "کٮ۪",
    "جایہ",
    "ہنٛد",
    "ٲسم",
    "زبر",
    "بیا",
    "ابھ",
    "روُ",
    "اتح",
    "بیٛ",
    "زام",
    "پرٛیتھ",
    "سو٘",
    "منس",
    "انن",
    "کم",
    "کٔرِو",
    "َل",
    "برون",
    "نام",
    "رک",
    "کرَن",
    "اختیار",
    "ارِ",
    "حکم",
    "حیدرآباد",
    "روزان",
    "ٲسِتھ۔</w>",
    "نہٕنٛدِ",
    "وو",
    "جَ",
    "بٕ",
    "وہ",
    "لال",
    "شنس",
    "گوٚو،",
    "کٲری",
    "َت",
    "برادری",
    "كی",
    "ردار",
    "تعلیم",
    "i",
    "لگبگ",
    "ۍ",
    "پلو",
    "شُروٗع",
    "سٔ",
    "کٔرم",
    "\"",
    "اعل",
    "مہاراشٹر",
    "فلم",
    "کلو",
    "کیرال",
    "کے",
    "یہُنٛد",
    "ہِم",
    "میسور",
    "اینڈ",
    "ر،",
    "یقینی",
    "آبہٕ",
    "&",
    "لیکھ",
    "نگھ",
    "مل",
    "یہنز",
    "شٗ",
    "تج",
    "مت",
    "2",
    "دُ",
    "شیر",
    "چھ۔</w>",
    "کت",
    "یی",
    "اِ",
    "ٹھاہ",
    "۸",
    "ول",
    "ٕے",
    "امن",
    "باتھ",
    "کینژن",
    "نہٕخٲطرٕ",
    "ِھ",
    "دیش",
    "ۄ",
    "2006",
    "18",
    "سطح",
    "ندری",
    "ہنگ",
    "کینژ",
    "قٕسم",
    "شر",
    "ٹیٚ",
    "َنہُند",
    "جدید",
    "W",
    "آی",
    "شان",
    "وای",
    "کُن",
    "كان",
    "روٗد",
    "أمۍ",
    "اِن",
    "آور",
    "ٲڑ",
    "حصہٕ",
    "سی",
    "گجرات",
    "مو",
    "پٲٹھہِ",
    "ریل",
    "صنعت",
    "تٔمِس",
    "ٹہِ",
    "گوٚ",
    "ندرمیان",
    "قعہٕ",
    "اجی",
    "مط",
    "حیث",
    "جٲری",
    "شٲ",
    "جنوری",
    "کول",
    "کیٖ",
    "لف",
    "صِرِ",
    "چھاکھ",
    "یوان",
    ":",
    "ٕیہ",
    "شری",
    "شُر",
    "زد",
    "٪",
    "ژن",
    "ریلو",
    "کماز",
    "تہِچھِ",
    "نزدی",
    "عالمی",
    "تال",
    "شام",
    "سٕنٛدِ",
    "لہ",
    "یٖ",
    "تد",
    "آسہِ",
    "سٹر",
    "عمال",
    "قت",
    "r",
    "کٔرمٕژ",
    "ہل",
    "ٹرو",
    "لیگ",
    "کردار",
    "زیٖ",
    "مپ",
    "تیٖ",
    "مندر",
    "ٹیم",
    "پٹ",
    "كوُ",
    "نامزد",
    "تعمیر",
    "اد",
    "کوٚ",
    "ڈر",
    "پنٛ",
    "25",
    "خرچ",
    "دوُ",
    "بُنی",
    "کیازِ",
    "تق",
    "انگ",
    "ترٛیٚ",
    "طال",
    "ان",
    "یو",
    "گری",
    "باق",
    "طرفہٕ",
    "ویل",
    "ڑی",
    "کٹر",
    "چ",
    "قم",
    "u",
    "کڑ",
    "سج",
    "گٲ",
    "ٮ۪ٹھ",
    "کھوتہٕزیادٕ",
    "بد",
    "ہین",
    "ضلعہٕ",
    "ٮ۪",
    "²",
    "نہٕ۔</w>",
    "प",
    "غور",
    "ٲسۍ۔</w>",
    "کامیٲبی",
    "سرک",
    "،یہِ",
    "صٔد",
    "2007",
    "یَ",
    "ی",
    "ِ",
    "کنہِ",
    "R",
    "صِ",
    "جھ",
    "سُنٛد",
    "سٕنٛز",
    "کَ",
    "آسہٕ",
    "مش",
    "عہ",
    "کرُن۔</w>",
    "چھُنہٕ",
    "گار",
    "وف",
    "2020",
    "َنمنز",
    "ِیاہ",
    "ٹِ",
    "زِ",
    "سٕند",
    "علاقہٕ",
    "چھ،",
    "فوظ",
    "قابل",
    "بنٛگ",
    "نوول",
    "ارتی",
    "ٛ",
    "کرنہٕباپت",
    "ٕری",
    "حملہٕ",
    "وٗ",
    "ندور",
    "مع",
    "ترم",
    "ٹیٖ",
    "سڑ",
    "سیٚ",
    "ترو",
    "اکِس",
    "ُکھ",
    "ٲژ",
    "چھٗ۔</w>",
    "تیلگ",
    "نوٲلۍ",
    "پانٛژ",
    "سائ",
    "تھاو",
    "یوان۔</w>",
    "رام",
    "پک",
    "100",
    "ییٚتہِ",
    "تٔریٖ",
    "سہ",
    "ابتد",
    "لا",
    "؟",
    "بڈ",
    "چولا",
    "ِیا",
    "10",
    "تۄہہ",
    "رکز",
    "پتھ",
    "کیٛ",
    "2012",
    "9",
    "کِہ",
    "کوٚرمُت۔</w>",
    "میگ",
    "آباد",
    "نمو",
    "نٛہہ",
    "میان",
    "گر",
    "دِنہٕ۔</w>",
    "رٲب",
    "انتظ",
    "F",
    "ٕل",
    "جوُ",
    "یہندوستان",
    "کھنڈ",
    "باس",
    "ُت",
    "پا",
    "سہُ",
    "الاقو",
    "یمان",
    "پنجاب",
    "زبردست",
    "گژھَ",
    "زان",
    "مقصد",
    "انو",
    "195",
    "<eos>",
    "مُلک",
    "پ",
    "منٛزٕ",
    "ٲے",
    "آر",
    "ڈین",
    "اِنت",
    "أکِس",
    "دست",
    "یِو",
    "ٲوِ",
    "دارٕ",
    "تاج",
    "جین",
    "ڪ",
    "،ت",
    "دک",
    "ٮ۪ن",
    "اض",
    "عر",
    "گیہ",
    "کھۄ",
    "کرنہٕ",
    "کپ",
    "اوڈی",
    "ناوس",
    "فتح",
    "مطٲب",
    "یہہ",
    "وقتہٕ",
    "لام",
    "60",
    "اکار",
    "دوٗ",
    "دف",
    "أمۍ",
    "پرو",
    "پنٛن",
    "،یُس",
    "مرک",
    "شت",
    "؛",
    "طاقت",
    "سارِوٕیہ",
    "بیت",
    "جرم",
    "ناو",
    "کرنہٕتہٕ",
    "ٲسہِ",
    "ہٗند",
    "،یا",
    "یل",
    "امہ",
    "کرُن",
    "$",
    "فون",
    "بنی",
    "2000",
    "ذٲژ",
    "1",
    "ٕچہِ",
    "تہٕکوٚر",
    "برص",
    "کھی",
    "بناون",
    "برطان",
    "ہری",
    "حاظ",
    "کٕ",
    "ینی",
    "طہٕ",
    "کۍ",
    "واپ",
    "بتہٕ",
    "پننس",
    "ناکام",
    "مشہ",
    "کٮ۪نٛہہ",
    "مراٹھ",
    "کوٗشِش",
    "گور",
    "اوٹ",
    "ٹا",
    "سِرٛ",
    "اکتوبر",
    "کیو",
    "عم",
    "ز",
    "کرنا",
    "خٕط",
    "ٹنگ",
    "،ی",
    "ٔمہِ",
    "ۭ",
    "اہم",
    "راے",
    "کرو",
    "بہٕ",
    "راجستھ",
    "سُہ",
    "کٹ",
    "یا",
    "اَہم",
    "٠",
    "@",
    "ہیٚکو",
    "=",
    "یِوان",
    "قومی",
    "ذٔری",
    "ه",
    "طٲبِق",
    "سسۭتہِ",
    "اجہِ",
    "روی",
    "ارو",
    "دلی",
    "پوری",
    "سپورٹ",
    "مرد",
    "عیس",
    "مقبول",
    "سٕنٛد",
    "کٔر۔</w>",
    "پاک",
    "کرنہٕآمت",
    "کاش",
    "یِوان۔</w>",
    "لڈ",
    "مرکز",
    "ُس",
    "آن",
    "دال",
    "ضاحت",
    "بم",
    "سٕتہِ",
    "َن",
    "بَ",
    "نیشن",
    "شروٗعات",
    "ہِنٛز",
    "نہِتہِ",
    "مثال",
    "€",
    "گۄڈنِ",
    "رل",
    "منٹ",
    "زِند",
    "ادا",
    "توہہِ",
    "ذریعہٕ",
    "نہٕنٛد",
    "بھ",
    "سنز",
    "β",
    "کال",
    "پٲٹھۍ",
    "نا",
    "کھین",
    "0",
    "↵",
    "دٕسہِ",
    "وس",
    "َنمنٛزچھِ",
    "امہِپتہٕ",
    "کھٕ",
    "کٲم۔</w>",
    "ہٕکۍ",
    "عملی",
    "پتہ",
    "تمِس",
    "سارو",
    "مب",
    "یٚن",
    "لٔ",
    "بگ",
    "ژھان۔</w>",
    "تا",
    "مۄکھٕ",
    "سلطنت",
    "خٲطرٕ",
    "وۄنۍ",
    "كر",
    "برطانوی",
    "تار",
    "کُل",
    "زاد",
    "کھوتہٕ",
    "بے",
    "س",
    "ڈے",
    "ہِند",
    "تٲریخ",
    "٩",
    "ں",
    "حُک",
    "ضر",
    "پنٛنس",
    "نٛنہٕ",
    "،یٗس",
    "ن،",
    "دان",
    "لاس",
    "مگر",
    "ٲس",
    "چھِم",
    "۔۔</w>",
    "ہیكہِ",
    "گاہ",
    "سمنٛزچھ",
    "ک",
    "ندر",
    "نسہٕ",
    "نیبر",
    "تۄہہِ",
    "کرنٕچ",
    "َسسۭتہِ",
    "جنسی",
    "نوٲلہِ",
    "ٲیِو",
    "اونہٕآم",
    "حقی",
    "کسار",
    "گاندھی",
    "سپی",
    "باقٕیہ",
    "مو٘",
    "تِم",
    "ء",
    "بطور",
    "تہٕپ",
    "خریدٲری",
    "تیز",
    "g",
    "تِمَن",
    "—",
    ")،",
    "دۄشوٕے",
    "ریاستی",
    "کمل",
    "پونٛسہٕ",
    "ختٔ",
    "ڈال",
    "رت",
    "کنی",
    "ہِنٛدُستان",
    "بادشاہ",
    "طرز",
    "لوٗ",
    "اہَسمنٛز",
    "قابلہٕ",
    "ہو",
    "کو",
    "خیال",
    "ریاست",
    "انڈ",
    "اچ",
    "دِ",
    "چھُ،",
    "فلمَنمنٛز",
    "کٲم",
    "اث",
    "داوار",
    "ۓ",
    "نہُند",
    "وول",
    "بہ",
    "گٔیہِ",
    "عیسوی",
    "قر",
    "گیو",
    "گیس",
    "ٕنہِ",
    "ختیار",
    "ٹیو",
    "َستام",
    "دسمبر",
    "ظ",
    "یُ",
    "تین",
    "والین",
    "اکھ",
    "اَمہِ",
    "کہِ",
    "امریکی",
    "13",
    "گٔ",
    "گۄڈٕ",
    "ومنٛزٕ",
    "انگری",
    "َھ",
    "تبدی",
    "،تہٕ",
    "نہٕپتہٕ",
    "وُ",
    "26",
    "عی",
    "أمہِ",
    "بندی",
    "کرنسمنٛز",
    "اح",
    "ہندِس",
    "لِ",
    "ییٚمہِ",
    "کاکھ",
    ";",
    "کِنۍ",
    "کلومیٹر",
    "دھیہ",
    "00",
    "اکث",
    "کیل",
    "تاب",
    "پان",
    "مہاراش",
    "ادٕ",
    "ناگ",
    "رگ",
    "كٕر",
    "گَ",
    "کٗ",
    "حٲصِل۔</w>",
    "برہ",
    "کن",
    "دٲخ",
    "گژھانتہٕ",
    "وارِیاہ",
    "N",
    "Y",
    "ہِ۔</w>",
    "۵",
    "کِو",
    "میر",
    "تو٘ہہِ",
    "ُن۔</w>",
    "ٹو",
    "وِ",
    "آپری",
    "ٔقیٖ",
    "نان",
    "شروٗع",
    "ِر",
    "ٲوِتھ",
    "کانگریس",
    "سمُ",
    "یادٕ",
    "ل",
    "ٕنۍ",
    "انچھِ۔</w>",
    "شَ",
    "اؤ",
    "پورٹ",
    "ین",
    "珍",
    "عدٕ",
    "کُٹ",
    "جے",
    "ن",
    "آسام",
    "برا",
    "ہندین",
    "تمہ",
    "راؤ",
    "ٲص",
    "سۄ",
    "،یَتھمنٛز",
    "این",
    "پروڈ",
    "شیٖ",
    "ناتھ",
    "ازِ",
    "کوُ",
    "دِیوٗ",
    "كرنہٕ",
    "دِتھ",
    "چندی",
    "ضاح",
    "گوڈنِ",
    "نوالین",
    "آمدنی",
    "ایو",
    "رۍ",
    "كٗ",
    "ِوان",
    "شع",
    "6",
    "یہنٛد",
    "دٔلیٖ",
    "ایٹ",
    "توجہ",
    "پہاڑ",
    "ڈٕ",
    "بِ",
    "ٕر",
    "پور",
    "سارِو",
    "دید",
    "بڑ",
    "عموٗ",
    "ضٔ",
    "لہٕ",
    "طٲب",
    "حُ",
    "تمام",
    "طری",
    "ائ",
    "تسمنٛز",
    "سۭتۍ",
    "آغاز",
    "ذریعہ",
    "کردارادا",
    "ہر",
    "ٲیتی",
    "500",
    "آب",
    "یک",
    "گانٛ",
    "صِرِف",
    "اَ",
    "مات",
    "قہ",
    "کُنہِ",
    "یاہسمنٛز",
    "سس",
    "16",
    "پوٗرٕ",
    "د،",
    "ستہٕ",
    "دٲری",
    "شٲمل۔</w>",
    "ندۄ",
    "کٔرو",
    "ٗک",
    "ژِھ",
    "باقٕ",
    "17",
    "فی",
    "سکو",
    "ہندوستٲنی",
    "خٕ",
    "سِ",
    "پوٗر",
    "اص",
    "ٔری",
    "پیٹھ",
    "اوسُکھ",
    "ِین",
    "یٚلہ",
    "فص",
    "-",
    "سام",
    "غان",
    "سٹی",
    "ا",
    "ہا",
    "شرقی",
    "تل",
    "ड़",
    "کٔرتھ۔</w>",
    "نۍ",
    "تٗ",
    "سلمان",
    "جِ",
    "کرنک",
    "آفانڈیا",
    "چھِ،",
    "،ییٚلہ",
    "سط",
    "روٗع",
    "تس",
    "اشو",
    "غیرم",
    "نیہ",
    "منٛز",
    "ٲل",
    "حوالہٕ",
    "’",
    "زیٛادٕ",
    "عل",
    "اکثر",
    "اندر",
    "دسم",
    "۲",
    "ٲلہِ",
    "سٕندِ",
    "ہمہ",
    "چھنہٕ",
    "30",
    "دہ",
    "یت",
    "مت۔</w>",
    "(",
    "½",
    "بُک",
    "/",
    "جنگ",
    "لہِ",
    "الو",
    "وائ",
    "با",
    "12",
    "یمو",
    "نہِ",
    "مٗ",
    "ان،",
    "یمنٛز",
    "ٕکۍ",
    "ام",
    "یوسہٕ",
    "چھِ۔</w>",
    "ٲئی",
    "ہِمہِ",
    "ازت",
    "انسی",
    "آس",
    "ٲرِ",
    "کمی",
    "وابس",
    "جنٛگ",
    "پیش",
    "ٕہ",
    "ےٚ",
    "مبنی",
    "ٲخر",
    "نسۭتۍ",
    "حِ",
    "قٔ",
    "لاک",
    "واجیٚنۍ",
    "شیو",
    "فٲص",
    "شکست",
    "M",
    "ي",
    "ُر",
    "تِمو",
    "اتہِ",
    "سیٖ",
    "چھےٚ۔</w>",
    "ٕتۍ۔</w>",
    "ینو",
    "بُنیٲدی",
    "چھوٕ",
    "دوران",
    "یہفلم",
    "كِ",
    "ڈن",
    "آٮٔ",
    "رین",
    "تہنٛز",
    "سَ",
    "ہدایت",
    "٨",
    "U",
    "ٲنی",
    "ؠ",
    "وج",
    "مہٕ",
    "آز",
    "امری",
    "اونہٕیِوان۔</w>",
    "پو",
    "مک",
    "نگر",
    "قدر",
    "%",
    "پردیش",
    "سیاحت",
    "،ییٚ",
    "کٲ",
    "الہٕ",
    "تر",
    "کوٚر۔</w>",
    "بناونہٕ۔</w>",
    ".",
    "ضل",
    "جٲیزٕ",
    "ترقی",
    "یٚٹھ",
    "کان",
    "فتہٕ",
    "رات",
    "خطرٕ",
    "اکی",
    "،خاص",
    "یِتھ",
    "كو٘",
    "2017",
    "تہۍ",
    "تِمن",
    "تام",
    "وٗص",
    "ٗن",
    "ٲر",
    "،ییٚمہِ",
    "ڈیم",
    "بٔڈ",
    "رٔ",
    "صحت",
    "نہٕیوان",
    "لچھ",
    "خٲ",
    "،تیٚلہِ",
    "مۄ",
    "چین",
    "ساروٕےکھۄتہٕ",
    "واضح",
    "مارچ",
    "نٛگ",
    "پٲ",
    "انٛہہ",
    "اصل",
    "جای",
    "دوہ",
    "l",
    "سٕنٛدس",
    "اتھمنٛز",
    "−",
    "مدد",
    "اہ",
    "بندر",
    "یای",
    "​",
    "ترج",
    "تعداد",
    "آ",
    "درمیان",
    "ہن",
    "واپس",
    "پِ",
    "3",
    "ہُنٛد",
    "مقٲمی",
    "انتہٕ",
    "لینڈ",
    "کٮ۪ن",
    "نپٮ۪ٹھ",
    "پٮ۪ٹھٕ",
    "رس",
    "ओ",
    "دربار",
    "دٲی",
    "زبان",
    "دۄشوٕ",
    "ساس",
    "₹",
    "گو",
    "ہیٚکہِ",
    "ارتہٕ",
    "قٲ",
    "ಿ",
    "قلعہٕ",
    "چھ",
    "ِسم",
    "2014",
    "شل",
    "کِردارادا",
    "درمی",
    "…",
    "[",
    "تَ",
    "زبانہِ",
    "یٚو",
    "وٲ",
    "پنٛنہِ",
    "श",
    "قیادت",
    "اک",
    "یمی",
    "جم",
    "اوسط",
    "ضرورت",
    "ایٚ",
    "",
    "P",
    "،م",
    "یہچھُ",
    "ع",
    "ندن",
    "ایہ",
    "اخ",
    "وٕچھ",
    "کمپن",
    "لُک",
    "نِس",
    "نتی",
    "روُد",
    "،یُ",
    "ہہ",
    "خاندان",
    "ار",
    "کارپوری",
    "صر",
    "ییٚ",
    "علاوٕ",
    "ؤری",
    "کسم",
    "उ",
    "ترٛےٚ",
    "رای",
    "ند",
    "یہِاوس",
    "سٕنٛدۍ",
    "اق",
    "گژھنہٕپتہٕ",
    "قونوٗ",
    "ندِ",
    "٘",
    "نین",
    "کارکر",
    "پیمان",
    "ری",
    "قبضہٕ",
    "ئر",
    "چھِس",
    "ٲخٕرکار",
    "بھو",
    "حوص",
    "رِی",
    "پروڈیو",
    "خلاف",
    "بَن",
    "بوُ",
    "كران۔</w>",
    "بٲ",
    "حٲص",
    "پارک",
    "۱",
    "مرکزی",
    "قلع",
    "ٚ",
    "تحری",
    "باپ",
    "ٗت",
    "آسان۔</w>",
    "تجوی",
    "بنٛد",
    "پارٹ",
    "مد",
    "حِص",
    "ژور",
    "وُن",
    "5",
    "نٛز",
    "کوٚرمُت",
    "میٹ",
    "چیٖز",
    "خٲطرٕاکھ",
    "کٔرۍ",
    "روزن",
    "تیم",
    "یَتھ",
    "زنان",
    "کلوٗ",
    "نن",
    "پولیس",
    "اڈ",
    "سفر",
    "مٗت۔</w>",
    "ہٕکٔنہِ",
    "۶",
    "تھاوان۔</w>",
    "دۄن",
    "حق",
    "زٕ",
    "پنٕنہِ",
    "چھُاکھ",
    "سٕ",
    "یس",
    "نیر",
    "1,",
    "دورٕ",
    "یِہ",
    "تھسمنٛز",
    "ُک",
    "۔",
    "کارو",
    "پرٛ",
    "گا",
    "ڈو",
    "دۄشو",
    "پرٛٮ۪تھ",
    "چو",
    "کِتھ",
    "کرٕنہِ",
    "کٔرمٕژ۔</w>",
    "ِیت",
    "ے،",
    "منگ",
    "پوٗ",
    "چِ",
    "میچ",
    "ستح",
    "کَر",
    "زند",
    "گان",
    "ٹہ",
    "ر۔</w>",
    "سیریز",
    "رٹ",
    "قصد",
    "رِیاست",
    "شہِ",
    "ارت",
    "سمنز",
    "Q",
    "کھۄتہٕزیادٕ",
    "یمہِ",
    "Z",
    "کٔ",
    "⁄",
    "مض",
    "اونہٕ",
    "£",
    "سمنٛز،",
    "نک",
    "وین",
    "صوبہٕ",
    "ختم",
    "پریتھ",
    "اون",
    "صف",
    "برقرار",
    "ضی",
    "اہس",
    "دِو",
    "ہندوستانسمنز",
    "بس",
    "ناوٕ",
    "فور",
    "سال",
    "روز",
    "وستان",
    "پانہٕ",
    "ریکارڈ",
    "قتل",
    "کوٗ",
    "چِھو",
    "سہٕ",
    "فروری",
    "d",
    "تقسیٖ",
    "نہٕنٛدۍ",
    "انڈیا",
    "ضروری",
    "عموٗمَن",
    "بیڈ",
    "َ",
    "اٮ۪",
    "انداز",
    "یِمَن",
    "نڈ",
    "یات",
    "198",
    "اہو",
    "ترتی",
    "閻",
    "تیٖج",
    "لِف",
    "یہِچھُ",
    "یٚل",
    "ب",
    "سٕنٛزِ",
    "ترق",
    "بہتری",
    "ٗند",
    "نہٗند",
    "گڑھ",
    "موٗ",
    "تِمچھِ",
    "اكھ",
    "بیم",
    "وَن",
    "گرا",
    "اَہَم",
    "اعلی",
    "ರ",
    "م",
    "نم",
    "ظٲہر",
    "گۄڈن",
    "خاند",
    "گلو",
    "ثر",
    "لس",
    "صوٗبہٕ",
    "سکھ",
    "انہ",
    "نوع",
    "مذہ",
    "ٹیسٹ",
    "ضرو",
    "تو٘",
    "سنس",
    "چھِنہٕ",
    "شٲمل",
    "زبٲ",
    "یلہِ",
    "کٔمی",
    "فِل",
    "چھریاست",
    "وٲلۍ",
    "مۍ",
    "رمِیان",
    "21",
    "ایی",
    "اورنگ",
    "ہٕنٛدۍ",
    "منزٕ",
    "ش",
    "عظیم",
    "ینِ",
    "مٕژ",
    "قو",
    "عار",
    "نہِ۔</w>",
    "وُچھ",
    "تیس",
    "خال",
    "–",
    "f",
    "نی",
    "َتھ",
    "شخص",
    "الہ",
    "آبٲدی",
    "اوست",
    "لداخ",
    "2008",
    "سون",
    "ریٚ",
    "ِن",
    "لوٗکھ",
    "فاظ",
    "S",
    "فیصلہٕ",
    "گورن",
    "گِنٛد",
    "پٹی",
    "پد",
    "ۆ",
    "انگریز",
    "پَ",
    "زر",
    "پاب",
    "اَد",
    "صحی",
    "لِتھ",
    "ٹورنام",
    "واریاہن",
    "ائن",
    "ذٲتی",
    "گوٚو",
    "چھے",
    "پیٛ",
    "كو٘ر",
    "ٹران",
    "بہترین",
    "ستھ",
    "قہٕ",
    "波",
    "اَکہِ",
    "نہٕیوان۔</w>",
    "عمل",
    "ٮ۪و",
    "حوصلہٕ",
    "وجہ",
    "فلمہِ",
    "واب",
    "مطٲبق",
    "صد",
    "+",
    "پیٹھہٕ",
    "،ییٚلہِ",
    "کتہٕ",
    "تک",
    "چھُ",
    "T",
    "گول",
    "تب",
    "،"
  ],
  "special_tokens": [
    "<unk>",
    "<pad>",
    "<sos>",
    "<eos>"
  ]
}