{
  "merges": [
    [
      "ᱟ",
      "ᱹ"
    ],
    [
      "ᱨ",
      "ᱮ"
    ],
    [
      "ᱟ",
      "ᱜ"
    ],
    [
      "ᱟ",
      "ᱨ"
    ],
    [
      "ᱟ",
      "ᱱ"
    ],
    [
      "᱾",
      "</w>"
    ],
    [
      "ᱚ",
      "ᱱ"
    ],
    [
      "ᱮ",
      "ᱱ"
    ],
    [
      "ᱠ",
      "ᱚ"
    ],
    [
      "ᱫ",
      "ᱚ"
    ],
    [
      "ᱭ",
      "ᱟᱜ"
    ],
    [
      "ᱟ",
      "᱾</w>"
    ],
    [
      "ᱛ",
      "ᱮ"
    ],
    [
      "ᱠ",
      "ᱷ"
    ],
    [
      "ᱟ",
      "ᱢ"
    ],
    [
      "ᱟ",
      "ᱦ"
    ],
    [
      "ᱟ",
      "ᱭ"
    ],
    [
      "ᱨᱮ",
      "ᱭᱟᱜ"
    ],
    [
      "ᱤ",
      "ᱫ"
    ],
    [
      "ᱠ",
      "ᱟ"
    ],
    [
      "ᱞ",
      "ᱮ"
    ],
    [
      "ᱟ",
      "ᱣ"
    ],
    [
      "ᱟ",
      "ᱝ"
    ],
    [
      "ᱚ",
      "ᱛ"
    ],
    [
      "ᱚ",
      "ᱨ"
    ],
    [
      "ᱠ",
      "ᱟᱱ"
    ],
    [
      "ᱤ",
      "ᱭ"
    ],
    [
      "ᱟ",
      "ᱞ"
    ],
    [
      "ᱦ",
      "ᱚ"
    ],
    [
      "ᱨ",
      "ᱤ"
    ],
    [
      "ᱵ",
      "ᱷ"
    ],
    [
      "ᱤ",
      "ᱱ"
    ],
    [
      "ᱥ",
      "ᱮ"
    ],
    [
      "ᱩ",
      "ᱭ"
    ],
    [
      "ᱥ",
      "ᱟ"
    ],
    [
      "ᱩ",
      "ᱱ"
    ],
    [
      "ᱞ",
      "ᱟᱹ"
    ],
    [
      "ᱟ",
      "ᱡ"
    ],
    [
      "ᱢ",
      "ᱤᱫ"
    ],
    [
      "ᱚ",
      "ᱢ"
    ],
    [
      "ᱚ",
      "ᱞ"
    ],
    [
      "ᱱ",
      "ᱚ"
    ],
    [
      "ᱟ",
      "ᱸ"
    ],
    [
      "ᱟ",
      "ᱲ"
    ],
    [
      "ᱤ",
      "ᱛ"
    ],
    [
      "ᱮ",
      "ᱞ"
    ],
    [
      "ᱩ",
      "ᱨ"
    ],
    [
      "ᱦ",
      "ᱩᱭ"
    ],
    [
      "ᱴ",
      "ᱟᱝ"
    ],
    [
      "ᱠᱟ",
      "ᱛᱮ"
    ],
    [
      "ᱥ",
      "ᱤ"
    ],
    [
      "ᱟ",
      ","
    ],
    [
      "ᱩ",
      "ᱫ"
    ],
    [
      "ᱵ",
      "ᱤ"
    ],
    [
      "ᱞᱮ",
      "ᱫ"
    ],
    [
      "ᱨᱮ",
      "ᱱ"
    ],
    [
      "ᱼ",
      "ᱟ᱾</w>"
    ],
    [
      "ᱩ",
      "ᱜ"
    ],
    [
      "ᱟᱹ",
      "ᱨ"
    ],
    [
      "ᱯ",
      "ᱷ"
    ],
    [
      "ᱟ",
      "ᱥ"
    ],
    [
      "ᱟ",
      "ᱛ"
    ],
    [
      "ᱞ",
      "ᱮᱱ"
    ],
    [
      "ᱴ",
      "ᱷ"
    ],
    [
      "ᱟ",
      "ᱵ"
    ],
    [
      "ᱫ",
      "ᱷ"
    ],
    [
      "ᱤ",
      "ᱥ"
    ],
    [
      "ᱢ",
      "ᱮᱱ"
    ],
    [
      "ᱡ",
      "ᱟᱦ"
    ],
    [
      "ᱠᱷ",
      "ᱚᱱ"
    ],
    [
      "ᱠ",
      "ᱟᱹ"
    ],
    [
      "ᱜ",
      "ᱤᱫ"
    ],
    [
      "ᱢᱤᱫ",
      "ᱴᱟᱝ"
    ],
    [
      "ᱚ",
      "ᱠ"
    ],
    [
      "ᱩ",
      "ᱢ"
    ],
    [
      "ᱮ",
      "ᱢ"
    ],
    [
      "ᱛ",
      "ᱤ"
    ],
    [
      "ᱚ",
      "ᱜ"
    ],
    [
      "ᱟ",
      "ᱨᱮ"
    ],
    [
      "ᱛ",
      "ᱟᱦ"
    ],
    [
      "ᱟ",
      "ᱯ"
    ],
    [
      "ᱮ",
      "ᱫ"
    ],
    [
      "ᱰ",
      "ᱤ"
    ],
    [
      "ᱞᱟᱹ",
      "ᱜᱤᱫ"
    ],
    [
      "ᱤᱭ",
      "ᱟᱹ"
    ],
    [
      "ᱠᱟᱱ",
      "ᱟ᱾</w>"
    ],
    [
      "ᱜ",
      "ᱚ"
    ],
    [
      "ᱤ",
      "ᱞ"
    ],
    [
      "ᱟ",
      "ᱠᱟ"
    ],
    [
      "ᱛ",
      "ᱷ"
    ],
    [
      "ᱱᱚ",
      "ᱣ"
    ],
    [
      "ᱥ",
      "ᱚ"
    ],
    [
      "ᱮ",
      "ᱸ"
    ],
    [
      "ᱪ",
      "ᱷ"
    ],
    [
      "ᱵ",
      "ᱮ"
    ],
    [
      "ᱟ",
      "ᱟᱨ"
    ],
    [
      "ᱟ",
      "ᱫ"
    ],
    [
      "ᱩ",
      "ᱛ"
    ],
    [
      "ᱡᱟᱦ",
      "ᱟᱸ"
    ],
    [
      "ᱟ",
      "ᱠᱚ"
    ],
    [
      "ᱢ",
      "ᱮ"
    ],
    [
      "ᱛ",
      "ᱚ"
    ],
    [
      "ᱟᱹ",
      "ᱭ"
    ],
    [
      "ᱵᱷ",
      "ᱟᱨ"
    ],
    [
      "ᱤ",
      "ᱡ"
    ],
    [
      "ᱠᱷ",
      "ᱟᱱ"
    ],
    [
      "ᱨ",
      "ᱚ"
    ],
    [
      "ᱞᱮ",
      "ᱠᱟᱛᱮ"
    ],
    [
      "ᱦᱩᱭ",
      "ᱩᱜ"
    ],
    [
      "ᱢᱮᱱ",
      "ᱟᱜ"
    ],
    [
      "ᱳ",
      "ᱭ"
    ],
    [
      "ᱟ",
      "ᱠ"
    ],
    [
      "ᱜ",
      "ᱮ"
    ],
    [
      "ᱟᱲ",
      "ᱮ"
    ],
    [
      "ᱡ",
      "ᱚ"
    ],
    [
      "ᱵ",
      "ᱟᱝ"
    ],
    [
      "ᱦᱚ",
      "ᱲ"
    ],
    [
      "ᱛᱟᱦ",
      "ᱮᱸ"
    ],
    [
      "ᱟ",
      "ᱫᱚ"
    ],
    [
      "ᱠ",
      "ᱩ"
    ],
    [
      "ᱦᱚ",
      "ᱸ"
    ],
    [
      "ᱮ",
      "ᱥ"
    ],
    [
      "ᱠ",
      "ᱤ"
    ],
    [
      "ᱵᱷᱟᱨ",
      "ᱚᱛ"
    ],
    [
      "ᱞᱮᱱ",
      "ᱟ᱾</w>"
    ],
    [
      "ᱟᱹ",
      "ᱲ"
    ],
    [
      "ᱚᱱ",
      "ᱚᱛ"
    ],
    [
      "ᱩᱱ",
      "ᱤ"
    ],
    [
      "ᱞ",
      "ᱤ"
    ],
    [
      "ᱴ",
      "ᱤ"
    ],
    [
      "ᱟᱹ",
      "ᱣ"
    ],
    [
      "ᱩ",
      "ᱯ"
    ],
    [
      "ᱮ",
      "ᱴ"
    ],
    [
      "ᱢ",
      "ᱩ"
    ],
    [
      "ᱥ",
      "ᱟᱞ"
    ],
    [
      "ᱫ",
      "ᱟᱲᱮ"
    ],
    [
      "ᱤ",
      "ᱨ"
    ],
    [
      "ᱟᱠᱟ",
      "ᱫ"
    ],
    [
      "ᱮ",
      "ᱨ"
    ],
    [
      "ᱡ",
      "ᱮ"
    ],
    [
      "ᱵ",
      "ᱚ"
    ],
    [
      "ᱟ",
      "ᱴ"
    ],
    [
      "ᱪ",
      "ᱤᱛ"
    ],
    [
      "ᱢ",
      "ᱤ"
    ],
    [
      "ᱵ",
      "ᱮᱱ"
    ],
    [
      "ᱟᱹ",
      "ᱱ"
    ],
    [
      "᱒",
      "᱐"
    ],
    [
      "ᱮ",
      "ᱭ"
    ],
    [
      "ᱪᱤᱛ",
      "ᱟᱹᱨ"
    ],
    [
      "ᱢ",
      "ᱚ"
    ],
    [
      "ᱥᱟ",
      "ᱶ"
    ],
    [
      "ᱣ",
      "ᱟᱜ"
    ],
    [
      "ᱥ",
      "ᱟᱹ"
    ],
    [
      "ᱧ",
      "ᱟᱢ"
    ],
    [
      "ᱠᱚ",
      "ᱨ"
    ],
    [
      "ᱜ",
      "ᱷ"
    ],
    [
      "ᱟᱢ",
      "ᱟᱜ"
    ],
    [
      "ᱟ",
      "ᱛᱮ"
    ],
    [
      "ᱟᱭ",
      "ᱚᱢ"
    ],
    [
      "ᱟ",
      "ᱨᱮᱭᱟᱜ"
    ],
    [
      "ᱠᱷ",
      "ᱮᱞ"
    ],
    [
      "ᱟ",
      "ᱰ"
    ],
    [
      "ᱤ",
      "ᱢ"
    ],
    [
      "ᱫᱟᱲᱮ",
      "ᱭᱟᱜ"
    ],
    [
      "ᱮ",
      "ᱛ"
    ],
    [
      "ᱞᱮᱫ",
      "ᱟ᱾</w>"
    ],
    [
      "ᱟ",
      "ᱠᱟᱱ"
    ],
    [
      "ᱠᱚ",
      "ᱢ"
    ],
    [
      "ᱯ",
      "ᱩᱨ"
    ],
    [
      "ᱟ",
      "ᱠᱟᱱᱟ᱾</w>"
    ],
    [
      "ᱟ",
      "ᱪ"
    ],
    [
      "ᱨ",
      "ᱟᱡ"
    ],
    [
      "ᱵᱮᱱ",
      "ᱟᱣ"
    ],
    [
      "ᱦ",
      "ᱟᱨ"
    ],
    [
      "ᱢ",
      "ᱟᱨ"
    ],
    [
      "ᱟᱱ",
      "ᱟᱜ"
    ],
    [
      "᱑",
      "᱙"
    ],
    [
      "ᱵ",
      "ᱟᱨ"
    ],
    [
      "ᱠ",
      "ᱳ"
    ],
    [
      "ᱩ",
      "ᱞ"
    ],
    [
      "ᱮ",
      "ᱡ"
    ],
    [
      "ᱯ",
      "ᱚ"
    ],
    [
      "ᱯ",
      "ᱨ"
    ],
    [
      "ᱥ",
      "ᱟᱨ"
    ],
    [
      "ᱽ",
      "ᱨᱮ"
    ],
    [
      "ᱠ",
      "ᱟᱨ"
    ],
    [
      "ᱵᱤ",
      "ᱨ"
    ],
    [
      "ᱥ",
      "ᱴ"
    ],
    [
      "ᱵ",
      "ᱚᱨ"
    ],
    [
      "ᱼ",
      "ᱟ,"
    ],
    [
      "ᱥᱮ",
      "ᱨ"
    ],
    [
      "ᱦ",
      "ᱟᱹ"
    ],
    [
      "ᱩ",
      "ᱴ"
    ],
    [
      "ᱟᱹ",
      "ᱫ"
    ],
    [
      "ᱳ",
      "ᱜ"
    ],
    [
      "ᱚ",
      "ᱴᱷ"
    ],
    [
      "ᱧ",
      "ᱩᱛ"
    ],
    [
      "ᱨᱮᱱ",
      "ᱟᱜ"
    ],
    [
      "ᱥ",
      "ᱚᱱ"
    ],
    [
      "ᱱᱚ",
      "ᱶ"
    ],
    [
      "ᱧᱩᱛ",
      "ᱩᱢ"
    ],
    [
      "ᱛ",
      "ᱟᱞ"
    ],
    [
      "ᱟ",
      "ᱶ"
    ],
    [
      "ᱚᱛ",
      "ᱚ"
    ],
    [
      "ᱞ",
      "ᱳ"
    ],
    [
      "ᱦ",
      "ᱤ"
    ],
    [
      "ᱟᱭ",
      "ᱢ"
    ],
    [
      "ᱟᱹ",
      "ᱜ"
    ],
    [
      "ᱠᱚ",
      "ᱫᱚ"
    ],
    [
      "ᱯ",
      "ᱚᱱᱚᱛ"
    ],
    [
      "ᱡ",
      "ᱟᱹ"
    ],
    [
      "ᱲ",
      "ᱦ"
    ],
    [
      "ᱛ",
      "ᱟᱭᱚᱢ"
    ],
    [
      "ᱧ",
      "ᱮᱞ"
    ],
    [
      "ᱤ",
      "ᱠ"
    ],
    [
      "ᱢᱮᱱᱟᱜ",
      "ᱼᱟ᱾</w>"
    ],
    [
      "ᱟᱹ",
      "ᱰᱤ"
    ],
    [
      "ᱛᱟᱦ",
      "ᱮᱱ"
    ],
    [
      "ᱛ",
      "ᱚᱨ"
    ],
    [
      "ᱪ",
      "ᱟᱞ"
    ],
    [
      "ᱚᱠ",
      "ᱛᱚ"
    ],
    [
      "ᱡ",
      "ᱷ"
    ],
    [
      "ᱵ",
      "ᱚᱞ"
    ],
    [
      "ᱦ",
      "ᱚᱨ"
    ],
    [
      "ᱟᱭ",
      "᱾</w>"
    ],
    [
      "᱐",
      "᱐"
    ],
    [
      "ᱩᱫ",
      "ᱽᱨᱮ"
    ],
    [
      "ᱢ",
      "ᱚᱱ"
    ],
    [
      "ᱪ",
      "ᱚᱞ"
    ],
    [
      "ᱟ",
      "ᱠᱷ"
    ],
    [
      "ᱚᱱ",
      "ᱚ"
    ],
    [
      "ᱴ",
      "ᱟᱨ"
    ],
    [
      "ᱫ",
      "ᱤ"
    ],
    [
      "ᱨᱮ",
      "ᱥ"
    ],
    [
      "ᱦᱚ",
      "ᱵ"
    ],
    [
      "ᱫ",
      "ᱟᱨ"
    ],
    [
      "ᱚᱛ",
      "ᱪᱤᱛᱟᱹᱨ"
    ],
    [
      "ᱞᱮ",
      "ᱠᱟᱱ"
    ],
    [
      "ᱯ",
      "ᱚᱨ"
    ],
    [
      "ᱠᱟᱹ",
      "ᱣ"
    ],
    [
      "ᱳ",
      "ᱨ"
    ],
    [
      "ᱚ",
      "ᱲ"
    ],
    [
      "ᱩ",
      "ᱠ"
    ],
    [
      "ᱩ",
      "ᱥ"
    ],
    [
      "ᱳ",
      "ᱣ"
    ],
    [
      "ᱦᱩᱭᱩᱜ",
      "ᱠᱟᱱ"
    ],
    [
      "ᱮᱛ",
      "ᱟᱱ"
    ],
    [
      "ᱰ",
      "ᱷ"
    ],
    [
      "ᱟᱦ",
      "ᱟᱨ"
    ],
    [
      "ᱦ",
      "ᱤᱛ"
    ],
    [
      "ᱠᱚ",
      "ᱣᱟᱜ"
    ],
    [
      "ᱮᱴ",
      "ᱟᱜ"
    ],
    [
      "ᱴ",
      "ᱚᱴᱷ"
    ],
    [
      "ᱥ",
      "ᱟᱢ"
    ],
    [
      "ᱨᱤ",
      "ᱧ"
    ],
    [
      "᱒᱐",
      "᱑"
    ],
    [
      "ᱫᱚ",
      "ᱨ"
    ],
    [
      "ᱪᱚᱞ",
      "ᱚᱛᱪᱤᱛᱟᱹᱨ"
    ],
    [
      "ᱜᱚ",
      "ᱴᱟᱝ"
    ],
    [
      "ᱥ",
      "ᱟᱱ"
    ],
    [
      "ᱛᱟᱦᱮᱸ",
      "ᱠᱟᱱ"
    ],
    [
      "ᱩᱱ",
      "ᱠᱩ"
    ],
    [
      "ᱯ",
      "ᱟᱨ"
    ],
    [
      "ᱟᱡ",
      "ᱮ"
    ],
    [
      "ᱥᱮᱨ",
      "ᱢ"
    ],
    [
      "ᱲ",
      "ᱟᱣ"
    ],
    [
      "ᱵᱤ",
      "ᱡ"
    ],
    [
      "ᱵ",
      "ᱽ"
    ],
    [
      "ᱥᱮ",
      "ᱫ"
    ],
    [
      "ᱱ",
      "ᱟᱣ"
    ],
    [
      "ᱢᱮ",
      "᱾</w>"
    ],
    [
      "ᱫᱚ",
      "ᱞ"
    ],
    [
      "ᱤᱭ",
      "ᱚ"
    ],
    [
      "ᱠᱚᱨ",
      "ᱟᱣ"
    ],
    [
      "ᱜᱚ",
      "ᱲ"
    ],
    [
      "ᱚ",
      "ᱸ"
    ],
    [
      "ᱳ",
      "ᱰ"
    ],
    [
      "ᱩ",
      "ᱨᱤ"
    ],
    [
      "ᱠᱤ",
      "ᱪᱷ"
    ],
    [
      "ᱪ",
      "ᱮᱛᱟᱱ"
    ],
    [
      "ᱦ",
      "ᱮ"
    ],
    [
      "ᱥ",
      "ᱚᱨ"
    ],
    [
      "ᱚ",
      "ᱭ"
    ],
    [
      "ᱵᱷᱟᱨᱚᱛ",
      "ᱨᱮᱭᱟᱜ"
    ],
    [
      "ᱟ,",
      "ᱡᱟᱦᱟᱸ"
    ],
    [
      "ᱛ",
      "ᱟᱢ"
    ],
    [
      "ᱡ",
      "ᱤ"
    ],
    [
      "ᱨᱟᱡ",
      "ᱽ"
    ],
    [
      "ᱥᱟᱹ",
      "ᱦᱤᱛ"
    ],
    [
      "ᱤᱭ",
      "ᱟᱱ"
    ],
    [
      "ᱠᱟᱛᱮ",
      "ᱫ"
    ],
    [
      "ᱫᱚ",
      "ᱦᱚ"
    ],
    [
      "ᱵ",
      "ᱟᱹᱲ"
    ],
    [
      "ᱵᱮ",
      "ᱣ"
    ],
    [
      "ᱢ",
      "ᱟᱱ"
    ],
    [
      "ᱟᱠᱟᱫ",
      "ᱟ᱾</w>"
    ],
    [
      "ᱟᱹ",
      "ᱨᱤ"
    ],
    [
      "ᱜ",
      "ᱟᱱ"
    ],
    [
      "ᱦᱩᱭᱩᱜ",
      "ᱼᱟ᱾</w>"
    ],
    [
      "ᱥᱮ",
      "ᱞᱮᱫ"
    ],
    [
      "ᱚᱜ",
      "ᱼᱟ᱾</w>"
    ],
    [
      "ᱨ",
      "ᱟᱹ"
    ],
    [
      "ᱵ",
      "ᱟ"
    ],
    [
      "ᱛᱟᱦᱮᱸ",
      "ᱠᱟᱱᱟ᱾</w>"
    ],
    [
      "ᱦᱩᱭ",
      "ᱞᱮᱱᱟ᱾</w>"
    ],
    [
      "ᱯ",
      "ᱤ"
    ],
    [
      "ᱛᱤ",
      "ᱨ"
    ],
    [
      "ᱠ",
      "ᱤᱱ"
    ],
    [
      "ᱳᱭ",
      "ᱞᱳ"
    ],
    [
      "ᱠᱟᱹ",
      "ᱢᱤ"
    ],
    [
      "ᱫᱟᱲᱮᱭᱟᱜ",
      "ᱼᱟ᱾</w>"
    ],
    [
      "ᱜ",
      "ᱮᱫ"
    ],
    [
      "ᱩ",
      "ᱣ"
    ],
    [
      "ᱡ",
      "ᱽ"
    ],
    [
      "ᱨᱮ",
      "ᱭ"
    ],
    [
      "ᱩᱱᱤ",
      "ᱫᱚ"
    ],
    [
      "ᱦ",
      "ᱳᱭ"
    ],
    [
      "ᱵᱮᱣ",
      "ᱦᱟᱨ"
    ],
    [
      "ᱠᱟᱹᱣ",
      "ᱰᱤ"
    ],
    [
      "ᱪ",
      "ᱟᱹᱫ"
    ],
    [
      "ᱟᱹ",
      "ᱞ"
    ],
    [
      "ᱼ",
      "ᱟ"
    ],
    [
      "ᱮᱱ",
      "ᱠᱷᱟᱱ"
    ],
    [
      "ᱯ",
      "ᱳᱭᱞᱳ"
    ],
    [
      "ᱟᱛ",
      "ᱟᱣ"
    ],
    [
      "ᱟᱭ",
      "ᱛᱮ"
    ],
    [
      ",",
      "ᱡᱟᱦᱟᱸ"
    ],
    [
      "ᱥᱟᱞ",
      "ᱨᱮ"
    ],
    [
      "ᱳ",
      "ᱞ"
    ],
    [
      "ᱥᱟᱶ",
      "ᱛᱮ"
    ],
    [
      "ᱱᱚᱣ",
      "ᱟ"
    ],
    [
      "ᱸ",
      "ᱥ"
    ],
    [
      "ᱨᱮ",
      "ᱧ"
    ],
    [
      "ᱚ",
      "ᱥ"
    ],
    [
      "ᱯ",
      "ᱨᱚ"
    ],
    [
      "ᱫ",
      "ᱟᱜ"
    ],
    [
      "ᱝ",
      "ᱜ"
    ],
    [
      "ᱫ",
      "ᱤᱞ"
    ],
    [
      "ᱠᱷᱮᱞ",
      "ᱳᱰ"
    ],
    [
      "ᱯ",
      "ᱮ"
    ],
    [
      "ᱞᱟᱹ",
      "ᱭ"
    ],
    [
      "ᱥ",
      "ᱟᱭ"
    ],
    [
      "ᱯ",
      "ᱟ"
    ],
    [
      "ᱚ",
      "ᱣ"
    ],
    [
      "ᱱ",
      "ᱤ"
    ],
    [
      "ᱴᱷ",
      "ᱮᱱ"
    ],
    [
      "ᱫᱷ",
      "ᱟᱨ"
    ],
    [
      "ᱚᱛᱚ",
      "ᱠᱷᱚᱱ"
    ],
    [
      "ᱡ",
      "ᱟᱣ"
    ],
    [
      "ᱪ",
      "ᱟᱸ"
    ],
    [
      "ᱴᱷ",
      "ᱟᱶ"
    ],
    [
      "ᱟᱡ",
      "ᱟᱦ"
    ],
    [
      "ᱞᱟᱹ",
      "ᱠ"
    ],
    [
      "ᱢᱮᱱ",
      "ᱠᱷᱟᱱ"
    ],
    [
      "ᱜ",
      "ᱟᱨ"
    ],
    [
      "ᱚ",
      "ᱴ"
    ],
    [
      "ᱛᱚ",
      "ᱦᱚᱵ"
    ],
    [
      "ᱜ",
      "ᱤ"
    ],
    [
      "ᱠ",
      "ᱮᱫ"
    ],
    [
      "ᱵ",
      "ᱚᱱ"
    ],
    [
      "ᱫ",
      "ᱤᱥ"
    ],
    [
      "ᱢᱩ",
      "ᱪᱟᱹᱫ"
    ],
    [
      "ᱚᱱ",
      "ᱟ"
    ],
    [
      "ᱥᱟ",
      "ᱸ"
    ],
    [
      "ᱥ",
      "ᱮᱱ"
    ],
    [
      "ᱨᱮ",
      "ᱡ"
    ],
    [
      "ᱦᱤ",
      "ᱸᱥ"
    ],
    [
      "ᱥᱮ",
      "ᱨᱮᱧ"
    ],
    [
      "ᱱᱚᱣ",
      "ᱟᱫᱚ"
    ],
    [
      "ᱪ",
      "ᱮᱫ"
    ],
    [
      "ᱛᱮ",
      "ᱛᱮ"
    ],
    [
      "ᱟ",
      "ᱨᱮᱱ"
    ],
    [
      "ᱫ",
      "ᱳ"
    ],
    [
      "ᱩᱛ",
      "ᱛᱚᱨ"
    ],
    [
      "ᱦ",
      "ᱟᱛᱟᱣ"
    ],
    [
      "ᱩ",
      "ᱲ"
    ],
    [
      "ᱴ",
      "ᱮ"
    ],
    [
      "ᱵ",
      "ᱟᱱ"
    ],
    [
      "ᱟᱵ",
      "ᱽ"
    ],
    [
      "ᱮ",
      "ᱛᱚᱦᱚᱵ"
    ],
    [
      "ᱠᱚ",
      "ᱣ"
    ],
    [
      "ᱫ",
      "ᱤᱱ"
    ],
    [
      "ᱚ",
      "ᱪ"
    ],
    [
      "ᱜ",
      "ᱚᱨ"
    ],
    [
      "ᱞᱟᱹ",
      "ᱲᱦ"
    ],
    [
      "ᱟᱢ",
      "ᱮᱱ"
    ],
    [
      "ᱤᱭᱟᱹ",
      "ᱠᱚ"
    ],
    [
      "ᱥᱟᱱ",
      "ᱟᱢ"
    ],
    [
      "ᱥᱤ",
      "ᱨ"
    ],
    [
      "ᱰ",
      "ᱮ"
    ],
    [
      "ᱢᱟᱨ",
      "ᱟᱝ"
    ],
    [
      "ᱪ",
      "ᱤᱱ"
    ],
    [
      "ᱨᱮ",
      ","
    ],
    [
      "ᱞᱮ",
      "ᱠᱟ"
    ],
    [
      "ᱥ",
      "ᱛᱤ"
    ],
    [
      "ᱠᱟ",
      "ᱛᱷ"
    ],
    [
      "ᱫᱷ",
      "ᱚᱨ"
    ],
    [
      "ᱪᱟᱞ",
      "ᱟᱣ"
    ],
    [
      "ᱢᱤ",
      "ᱴᱟᱨ"
    ],
    [
      "ᱵᱟᱝ",
      "ᱠᱷᱟᱱ"
    ],
    [
      "ᱞᱟᱹᱲᱦ",
      "ᱟᱹᱭ"
    ],
    [
      "ᱟᱡᱟᱦ",
      "ᱟᱸ"
    ],
    [
      "ᱤᱭ",
      "ᱚᱱ"
    ],
    [
      "ᱩ",
      "ᱵ"
    ],
    [
      "ᱡ",
      "ᱩᱫ"
    ],
    [
      "ᱥ",
      "ᱚᱛ"
    ],
    [
      "ᱡᱮ",
      "ᱜᱮᱫ"
    ],
    [
      "ᱥᱟ",
      "ᱯ"
    ],
    [
      "ᱤᱫ",
      "ᱤ"
    ],
    [
      "ᱯ",
      "ᱟᱹ"
    ],
    [
      "ᱨᱮᱭᱟᱜ",
      "ᱢᱤᱫᱴᱟᱝ"
    ],
    [
      "ᱥᱚ",
      "ᱝ"
    ],
    [
      "ᱚ",
      "ᱝ"
    ],
    [
      "ᱯ",
      "ᱟᱱ"
    ],
    [
      "ᱟᱨ",
      "ᱦᱚᱸ"
    ],
    [
      "ᱢ",
      "ᱩᱫᱽᱨᱮ"
    ],
    [
      "ᱩ",
      "ᱰ"
    ],
    [
      "ᱟᱡ",
      "ᱟᱜ"
    ],
    [
      "ᱩ",
      "ᱡ"
    ],
    [
      "ᱟᱛ",
      "ᱷ"
    ],
    [
      "ᱠᱷ",
      "ᱤᱱ"
    ],
    [
      "ᱨ",
      "ᱳ"
    ],
    [
      "ᱠᱷ",
      "ᱚ"
    ],
    [
      "ᱥ",
      "ᱚᱢ"
    ],
    [
      "ᱡ",
      "ᱚᱢ"
    ],
    [
      "ᱥᱟ",
      "ᱥᱚᱱ"
    ],
    [
      "ᱵ",
      "ᱟᱰ"
    ],
    [
      "ᱠᱤ",
      "ᱨᱤᱧ"
    ],
    [
      "ᱦᱩᱭ",
      "ᱞᱮᱱ"
    ],
    [
      "ᱯ",
      "ᱟᱥ"
    ],
    [
      "ᱪ",
      "ᱟᱨ"
    ],
    [
      "ᱵ",
      "ᱟᱭ"
    ],
    [
      "ᱫ",
      "ᱮ"
    ],
    [
      "ᱤ",
      "ᱯ"
    ],
    [
      "ᱠᱷ",
      "ᱚᱨ"
    ],
    [
      "ᱟ",
      "ᱯᱷ"
    ],
    [
      "ᱦ",
      "ᱤᱱ"
    ],
    [
      "ᱳ",
      "ᱱ"
    ],
    [
      "ᱧᱩᱛᱩᱢ",
      "ᱛᱮ"
    ],
    [
      "ᱢ",
      "ᱩᱫ"
    ],
    [
      "ᱛ",
      "ᱮᱱ"
    ],
    [
      "ᱦ",
      "ᱟᱹᱨ"
    ],
    [
      "ᱞᱮᱠᱟᱛᱮ",
      ","
    ],
    [
      "ᱚᱲ",
      "ᱟᱜ"
    ],
    [
      "ᱮᱭ",
      "ᱟ᱾</w>"
    ],
    [
      "ᱼ",
      "ᱟᱟᱨ"
    ],
    [
      "ᱫ",
      "ᱽ"
    ],
    [
      "ᱡᱟᱦ",
      "ᱟᱱ"
    ],
    [
      "ᱥᱟᱞ",
      "ᱨᱮᱭᱟᱜ"
    ],
    [
      "ᱜᱚ",
      "ᱴ"
    ],
    [
      "ᱵᱟᱰ",
      "ᱟᱭ"
    ],
    [
      "ᱵᱟᱹᱲ",
      "ᱛᱤ"
    ],
    [
      "ᱞ",
      "ᱟᱦ"
    ],
    [
      "ᱦᱚ",
      "ᱛᱮᱛᱮ"
    ],
    [
      "ᱯ",
      "ᱟᱞ"
    ],
    [
      "ᱟ",
      "ᱥᱟ"
    ],
    [
      "ᱵ",
      "ᱩᱨ"
    ],
    [
      "ᱡᱟᱹ",
      "ᱥᱛᱤ"
    ],
    [
      "ᱩ",
      "ᱝ"
    ],
    [
      "ᱩᱭ",
      "ᱦᱟᱹᱨ"
    ],
    [
      "ᱦᱚ",
      "ᱭ"
    ],
    [
      "ᱵ",
      "ᱟᱦ"
    ],
    [
      "ᱠ",
      "ᱮ"
    ],
    [
      "ᱱ",
      "ᱟᱜ"
    ],
    [
      "ᱨᱮ",
      "ᱢᱮᱱᱟᱜ"
    ],
    [
      "ᱟᱨ",
      "ᱤ"
    ],
    [
      "ᱧ",
      "ᱡ"
    ],
    [
      "ᱧ",
      "ᱪ"
    ],
    [
      "ᱢᱤᱫ",
      "ᱦᱚᱲ"
    ],
    [
      "ᱵ",
      "ᱤᱱ"
    ],
    [
      "ᱫ",
      "ᱮᱥ"
    ],
    [
      "ᱥ",
      "ᱟᱦᱟᱨ"
    ],
    [
      "ᱵ",
      "ᱨᱤ"
    ],
    [
      "ᱜ",
      "ᱟᱲ"
    ],
    [
      "ᱟᱲ",
      "ᱟᱝ"
    ],
    [
      "ᱞ",
      "ᱟᱭ"
    ],
    [
      "ᱵᱷ",
      "ᱮ"
    ],
    [
      "ᱩ",
      "ᱪ"
    ],
    [
      "ᱟᱜ",
      "ᱮ"
    ],
    [
      "ᱠ",
      "ᱨᱤ"
    ],
    [
      "ᱛᱮ",
      "ᱭ"
    ],
    [
      "᱒᱐",
      "᱐"
    ],
    [
      "ᱵ",
      "ᱟᱵ"
    ],
    [
      "ᱫᱷ",
      "ᱤ"
    ],
    [
      "ᱴᱤ",
      "ᱧ"
    ],
    [
      "ᱫᱷ",
      "ᱚ"
    ],
    [
      "ᱟᱥ",
      "ᱴ"
    ],
    [
      "ᱟᱫ",
      "ᱮᱞ"
    ],
    [
      "ᱟᱯ",
      "ᱚᱱ"
    ],
    [
      "ᱥᱚ",
      "ᱫᱚᱨ"
    ],
    [
      "ᱠ",
      "ᱮᱴ"
    ],
    [
      "ᱪᱷ",
      "ᱤᱢ"
    ],
    [
      "ᱨᱮ",
      "ᱢᱤᱫᱴᱟᱝ"
    ],
    [
      "ᱠᱚ",
      "ᱞ"
    ],
    [
      "ᱥᱤ",
      "ᱝ"
    ],
    [
      "ᱜᱮ",
      "ᱭ"
    ],
    [
      "ᱥ",
      "ᱩᱨ"
    ],
    [
      "ᱟ",
      "ᱼ"
    ],
    [
      "ᱠ",
      "ᱟᱹᱨ"
    ],
    [
      "ᱠᱟᱹ",
      "ᱢ"
    ],
    [
      "ᱡ",
      "ᱚᱱ"
    ],
    [
      "ᱜᱷ",
      "ᱟᱨ"
    ],
    [
      "ᱚᱱᱚ",
      "ᱝ"
    ],
    [
      "ᱸ",
      "ᱜ"
    ],
    [
      "ᱥᱟᱯ",
      "ᱲᱟᱣ"
    ],
    [
      "ᱩᱫ",
      "ᱩᱜ"
    ],
    [
      "ᱫᱤᱥ",
      "ᱚᱢ"
    ],
    [
      "ᱨ",
      "ᱩᱢ"
    ],
    [
      "ᱰ",
      "ᱤᱭ"
    ],
    [
      "ᱫᱚ",
      "ᱦᱩᱭᱩᱜᱠᱟᱱ"
    ],
    [
      "ᱟᱹ",
      "ᱞᱤ"
    ],
    [
      "ᱤ",
      "ᱝ"
    ],
    [
      "ᱠ",
      "ᱟᱢ"
    ],
    [
      "ᱪᱟᱞ",
      "ᱟᱜ"
    ],
    [
      "ᱥᱟᱞ",
      "ᱟᱜ"
    ],
    [
      "ᱨᱮ",
      "ᱦᱚᱸ"
    ],
    [
      "ᱟ",
      "ᱵᱷ"
    ],
    [
      "ᱥᱟ",
      "ᱫᱷᱟᱨ"
    ],
    [
      "ᱫᱚ",
      "ᱠ"
    ],
    [
      "ᱥ",
      "ᱟᱦ"
    ],
    [
      "ᱤ",
      "ᱴ"
    ],
    [
      "ᱞᱟᱹᱠ",
      "ᱛᱤ"
    ],
    [
      "ᱯᱟᱥ",
      "ᱱᱟᱣ"
    ],
    [
      "ᱦ",
      "ᱟᱣ"
    ],
    [
      "ᱚ",
      "ᱵᱷ"
    ],
    [
      "ᱩᱱᱤ",
      "ᱭᱟᱜ"
    ],
    [
      "ᱛᱟᱦᱮᱱ",
      "ᱟ᱾</w>"
    ],
    [
      "ᱨ",
      "ᱟᱱ"
    ],
    [
      "ᱦᱩᱭ",
      "ᱟᱠᱟᱱᱟ᱾</w>"
    ],
    [
      "ᱫᱚ",
      "ᱥᱟᱨ"
    ],
    [
      "ᱫᱷᱚᱨ",
      "ᱚᱢ"
    ],
    [
      "ᱡ",
      "ᱤᱛ"
    ],
    [
      "ᱠᱟ",
      "ᱣ"
    ],
    [
      "ᱡᱚ",
      "ᱭ"
    ],
    [
      "ᱟᱛ",
      "ᱟᱨ"
    ],
    [
      "ᱮ",
      "ᱠ"
    ],
    [
      "ᱯᱨ",
      "ᱟᱭ"
    ],
    [
      "ᱥ",
      "ᱩᱢ"
    ],
    [
      "ᱟ",
      "ᱠᱷᱚᱱ"
    ],
    [
      "ᱦᱳᱭ",
      "ᱳᱜ"
    ],
    [
      "ᱰᱷ",
      "ᱮᱨ"
    ],
    [
      "ᱟᱡ",
      "ᱽ"
    ],
    [
      "ᱢᱩ",
      "ᱬ"
    ],
    [
      "ᱥᱟ",
      "ᱵ"
    ],
    [
      "ᱠᱚ",
      "ᱭ"
    ],
    [
      "ᱚᱛ",
      "ᱤ"
    ],
    [
      "ᱨᱤ",
      "ᱱ"
    ],
    [
      "ᱦ",
      "ᱟᱢ"
    ],
    [
      "ᱨᱮ",
      "ᱢ"
    ],
    [
      "ᱩᱯ",
      "ᱨᱩᱢ"
    ],
    [
      "ᱫ",
      "ᱩ"
    ],
    [
      "ᱚ",
      "ᱡᱮ"
    ],
    [
      "᱑",
      "᱘"
    ],
    [
      "ᱟᱹᱨ",
      "ᱥᱤ"
    ],
    [
      "ᱥᱚᱨ",
      "ᱠᱟᱨ"
    ],
    [
      "ᱮᱱ",
      "ᱟ᱾</w>"
    ],
    [
      "ᱥᱚ",
      "ᱨᱮᱥ"
    ],
    [
      "ᱚᱛ",
      "ᱷ"
    ],
    [
      "ᱲ",
      "ᱤ"
    ],
    [
      "ᱟᱛ",
      "ᱟᱭᱚᱢ"
    ],
    [
      "ᱤᱫ",
      "ᱷ"
    ],
    [
      "ᱰ",
      "ᱟᱨ"
    ],
    [
      "ᱟ",
      "ᱥᱮ"
    ],
    [
      "ᱴ",
      "ᱤᱥ"
    ],
    [
      "ᱠᱤᱪᱷ",
      "ᱩ"
    ],
    [
      "ᱥᱤ",
      "ᱢ"
    ],
    [
      "ᱵᱮ",
      "ᱥ"
    ],
    [
      "ᱫ",
      "ᱚᱱ"
    ],
    [
      "ᱠ",
      "ᱤᱞ"
    ],
    [
      "ᱚ",
      "ᱵ"
    ],
    [
      "ᱡᱩᱫ",
      "ᱤ"
    ],
    [
      "ᱥᱟᱹᱦᱤᱛ",
      "ᱨᱮ"
    ],
    [
      "ᱦᱟᱹ",
      "ᱴᱤᱧ"
    ],
    [
      "ᱟᱦ",
      "ᱟᱜ"
    ],
    [
      "ᱵᱟᱨ",
      "ᱭ"
    ],
    [
      "ᱞᱮᱫ",
      "ᱟᱭ᱾</w>"
    ],
    [
      "ᱡ",
      "ᱟᱨ"
    ],
    [
      "ᱦ",
      "ᱮᱡ"
    ],
    [
      "ᱯᱷ",
      "ᱮ"
    ],
    [
      "ᱨᱮ",
      "ᱠᱚ"
    ],
    [
      "ᱡ",
      "ᱟᱱ"
    ],
    [
      "ᱟᱹ",
      "ᱵᱤᱡ"
    ],
    [
      "ᱦ",
      "ᱚᱱᱚᱛ"
    ],
    [
      "ᱭ",
      "ᱟᱹ"
    ],
    [
      "ᱯ",
      "ᱚᱱ"
    ],
    [
      "ᱜ",
      "ᱟᱫᱮᱞ"
    ],
    [
      "ᱢ",
      "ᱟᱦ"
    ],
    [
      "ᱩᱫ",
      "ᱷ"
    ],
    [
      "ᱛ",
      "ᱟᱱ"
    ],
    [
      "ᱟᱹ",
      "ᱠᱷ"
    ],
    [
      "ᱞᱮ",
      "ᱠᱷ"
    ],
    [
      "ᱡ",
      "ᱚᱛᱚᱠᱷᱚᱱ"
    ],
    [
      "ᱯᱚ",
      "ᱪᱷᱤᱢ"
    ],
    [
      "ᱰ",
      "ᱚᱞ"
    ],
    [
      "ᱟᱹ",
      "ᱵ"
    ],
    [
      "ᱠᱚᱢ",
      "ᱩᱫᱽᱨᱮ"
    ],
    [
      "ᱛᱷ",
      "ᱟᱯᱚᱱ"
    ],
    [
      "ᱵᱷᱟᱨᱚᱛ",
      "ᱤᱭᱚ"
    ],
    [
      "ᱜᱚᱲ",
      "ᱚ"
    ],
    [
      "ᱛᱟᱞ",
      "ᱟᱛᱮ"
    ],
    [
      "ᱥ",
      "ᱩᱯ"
    ],
    [
      "ᱢᱚ",
      "ᱦ"
    ],
    [
      "ᱥ",
      "ᱟᱣ"
    ],
    [
      "ᱩ",
      "ᱠᱷ"
    ],
    [
      "ᱳ",
      "ᱢᱤᱴᱟᱨ"
    ],
    [
      "ᱟᱜ",
      "ᱼᱟ᱾</w>"
    ],
    [
      "ᱛ",
      "ᱤᱱ"
    ],
    [
      "ᱜ",
      "ᱽ"
    ],
    [
      "ᱠᱟᱹ",
      "ᱨᱤ"
    ],
    [
      "ᱟᱠᱚ",
      "ᱣᱟᱜ"
    ],
    [
      "ᱟᱠᱚ",
      "᱾</w>"
    ],
    [
      "ᱟᱹ",
      "ᱛᱤᱨ"
    ],
    [
      "ᱳ",
      "ᱴ"
    ],
    [
      "ᱵᱟ",
      "ᱪᱷ"
    ],
    [
      "ᱟᱞ",
      "ᱤ"
    ],
    [
      "ᱟᱭᱢ",
      "ᱟ"
    ],
    [
      "ᱠ",
      "ᱩᱢ"
    ],
    [
      "ᱢᱩ",
      "ᱲ"
    ],
    [
      "ᱜ",
      "ᱮᱢ"
    ],
    [
      "ᱟᱜ",
      "ᱽ"
    ],
    [
      "ᱠᱚᱣ",
      "ᱟ᱾</w>"
    ],
    [
      "ᱥᱮ",
      "ᱢ"
    ],
    [
      "ᱞᱮ",
      "ᱠ"
    ],
    [
      "᱐᱐",
      "᱐"
    ],
    [
      "ᱚ",
      "ᱫ"
    ],
    [
      "ᱟᱭ",
      "ᱟᱨ"
    ],
    [
      "ᱵᱚ",
      "ᱫᱚᱞ"
    ],
    [
      "ᱵᱷᱟᱨᱚᱛ",
      "ᱨᱮ"
    ],
    [
      "ᱟ",
      "ᱭᱟᱜ"
    ],
    [
      "ᱜ",
      "ᱚᱱᱚᱝ"
    ],
    [
      "ᱥᱮ",
      "ᱴ"
    ],
    [
      "ᱨᱤ",
      "ᱥᱴ"
    ],
    [
      "ᱡ",
      "ᱳᱜ"
    ],
    [
      "ᱟᱠᱟ",
      "ᱵ"
    ],
    [
      "᱑",
      "᱐"
    ],
    [
      "ᱦᱚᱲ",
      "ᱠᱚ"
    ],
    [
      "ᱛ",
      "ᱩ"
    ],
    [
      "ᱨ",
      "ᱟᱢ"
    ],
    [
      "ᱜ",
      "ᱮᱞ"
    ],
    [
      "ᱥ",
      "ᱤᱭ"
    ],
    [
      "ᱫᱚᱦᱚ",
      "ᱭ"
    ],
    [
      "ᱯ",
      "ᱩ"
    ],
    [
      "ᱮ",
      "ᱦᱚᱵ"
    ],
    [
      "ᱟᱡᱮ",
      ","
    ],
    [
      "ᱩᱨ",
      "ᱜ"
    ],
    [
      "ᱯᱚᱱᱚᱛ",
      "ᱨᱮᱭᱟᱜ"
    ],
    [
      "ᱯᱨ",
      "ᱟᱣ"
    ],
    [
      "ᱦ",
      "ᱮᱫ"
    ],
    [
      "ᱦ",
      "ᱟᱞ"
    ],
    [
      "ᱥ",
      "ᱳ"
    ],
    [
      "ᱦ",
      "ᱤᱡ"
    ],
    [
      "ᱠᱚ",
      "ᱨᱮ"
    ],
    [
      "ᱱ",
      "ᱟᱨ"
    ],
    [
      "ᱟᱹ",
      "ᱢ"
    ],
    [
      "ᱫᱟᱨ",
      "ᱟᱭᱛᱮ"
    ],
    [
      "ᱛᱟᱦᱮᱸ",
      "ᱫ"
    ],
    [
      "ᱯᱷ",
      "ᱩᱴ"
    ],
    [
      "ᱛᱟᱞ",
      "ᱢ"
    ],
    [
      "ᱦᱟᱹ",
      "ᱵᱤᱡ"
    ],
    [
      "ᱥᱟᱫᱷᱟᱨ",
      "ᱚᱱ"
    ],
    [
      "ᱡ",
      "ᱟᱭ"
    ],
    [
      "ᱼᱟ,",
      "ᱡᱟᱦᱟᱸ"
    ],
    [
      "ᱥᱤ",
      "ᱞ"
    ],
    [
      "ᱨᱮ",
      "ᱢᱮᱱᱟᱜᱼᱟ᱾</w>"
    ],
    [
      "ᱦ",
      "ᱩ"
    ],
    [
      "ᱫ",
      "ᱩᱨᱤ"
    ],
    [
      ",",
      "ᱟᱨ"
    ],
    [
      "ᱟ",
      "ᱫᱷ"
    ],
    [
      "ᱱ",
      "ᱤᱭᱟᱹ"
    ],
    [
      "ᱱ",
      "ᱟᱹᱭ"
    ],
    [
      "ᱜᱚ",
      "ᱡ"
    ],
    [
      "ᱨᱮ",
      "ᱞ"
    ],
    [
      "ᱚ",
      "ᱰ"
    ],
    [
      "ᱱ",
      "ᱟᱹᱣ"
    ],
    [
      "ᱟᱢ",
      "ᱤᱫ"
    ],
    [
      "ᱵᱷᱮ",
      "ᱜᱟᱨ"
    ],
    [
      "ᱮ",
      "ᱯ"
    ],
    [
      "ᱴᱚᱴᱷ",
      "ᱟᱨᱮ"
    ],
    [
      "ᱚᱠ",
      "ᱛ"
    ],
    [
      "ᱡᱟᱹ",
      "ᱛ"
    ],
    [
      "ᱠᱷ",
      "ᱨᱤᱥᱴ"
    ],
    [
      "ᱟᱵ",
      "ᱟᱝ"
    ],
    [
      "ᱛ",
      "ᱨᱤ"
    ],
    [
      "ᱴ",
      "ᱮᱱ"
    ],
    [
      "ᱠᱩ",
      "ᱥᱤ"
    ],
    [
      "ᱥ",
      "ᱤᱱ"
    ],
    [
      "ᱡᱚ",
      "ᱫᱤ"
    ],
    [
      "ᱨ",
      "ᱟᱭ"
    ],
    [
      "ᱵᱨᱤ",
      "ᱴᱤᱥ"
    ],
    [
      "ᱯ",
      "ᱩᱱ"
    ],
    [
      "ᱵᱩᱨ",
      "ᱩ"
    ],
    [
      "ᱡᱚ",
      "ᱠᱷᱚᱱ"
    ],
    [
      "ᱟᱴ",
      "ᱚᱴᱷ"
    ],
    [
      "ᱫᱚ",
      "ᱭ"
    ],
    [
      "ᱩᱱ",
      "ᱫᱤᱞ"
    ],
    [
      "ᱵᱤᱨ",
      "ᱫ"
    ],
    [
      "ᱵᱤ",
      "ᱞ"
    ],
    [
      "ᱯ",
      "ᱳ"
    ],
    [
      "ᱵ",
      "ᱟᱡ"
    ],
    [
      "ᱩᱨ",
      "ᱩᱢ"
    ],
    [
      "ᱽ",
      "ᱨᱟᱹ"
    ],
    [
      "ᱡᱟᱦᱟᱸ",
      "ᱭ"
    ],
    [
      "ᱼ",
      "ᱮ"
    ],
    [
      "ᱪᱟᱸ",
      "ᱫᱳ"
    ],
    [
      "ᱩᱣ",
      "ᱟᱹᱲ"
    ],
    [
      "ᱛᱷ",
      "ᱟᱱ"
    ],
    [
      "ᱟᱠᱟ",
      "ᱛ"
    ],
    [
      "ᱵᱤ",
      "ᱥ"
    ],
    [
      "ᱡ",
      "ᱤᱱ"
    ],
    [
      "ᱟᱹ",
      "ᱜᱤᱫ"
    ],
    [
      "ᱦ",
      "ᱤᱥ"
    ],
    [
      "ᱠᱷ",
      "ᱟᱹᱛᱤᱨ"
    ],
    [
      "ᱪ",
      "ᱟᱪ"
    ],
    [
      "ᱢᱩᱬ",
      "ᱩᱫ"
    ],
    [
      "ᱟᱵ",
      "ᱮ"
    ],
    [
      "ᱦᱮ",
      "ᱯᱨᱟᱣ"
    ],
    [
      "ᱫᱚ",
      "ᱜ"
    ],
    [
      "ᱹ",
      "ᱮ"
    ],
    [
      "ᱟᱦ",
      "ᱩᱭ"
    ],
    [
      "ᱥᱟ",
      "ᱛᱟᱢ"
    ],
    [
      "ᱠᱟ",
      "ᱞ"
    ],
    [
      "ᱜ",
      "ᱟᱛᱮ"
    ],
    [
      "ᱬ",
      "ᱮ"
    ],
    [
      "ᱩᱥ",
      "ᱩᱞ"
    ],
    [
      "ᱧᱩᱛᱩᱢ",
      "ᱟᱱ"
    ],
    [
      "ᱠ",
      "ᱚᱱ"
    ],
    [
      "ᱱᱚᱶ",
      "ᱟᱫᱚ"
    ],
    [
      "ᱥ",
      "ᱛ"
    ],
    [
      "ᱯᱨᱚ",
      "ᱫᱮᱥ"
    ],
    [
      "᱑",
      "᱕"
    ],
    [
      "ᱥᱤ",
      "ᱯ"
    ],
    [
      "ᱩᱱᱠᱩ",
      "ᱣᱟᱜ"
    ],
    [
      "ᱢᱟᱨ",
      "ᱠᱤᱱ"
    ],
    [
      "ᱵᱚ",
      "ᱝ"
    ],
    [
      "ᱞᱮᱫ",
      "ᱟᱟᱨ"
    ],
    [
      "ᱡ",
      "ᱟᱠᱟᱛ"
    ],
    [
      "ᱪᱷ",
      "ᱟᱹᱲ"
    ],
    [
      "ᱟᱹᱜ",
      "ᱟᱲ"
    ],
    [
      "ᱠᱤᱞ",
      "ᱳᱢᱤᱴᱟᱨ"
    ],
    [
      "ᱫᱚ",
      "ᱠᱷᱤᱱ"
    ],
    [
      "ᱠᱟᱹ",
      "ᱭ"
    ],
    [
      ",",
      "᱐᱐᱐"
    ],
    [
      "ᱛᱮ",
      ","
    ],
    [
      "ᱥᱟᱸ",
      "ᱜᱷᱟᱨ"
    ],
    [
      "ᱱᱚᱶ",
      "ᱟ"
    ],
    [
      "ᱫᱟᱲᱮᱭᱟᱜ",
      "ᱼ"
    ],
    [
      "ᱨ",
      "ᱟᱠᱟᱵ"
    ],
    [
      "ᱟᱨ",
      "ᱡᱟᱣ"
    ],
    [
      "ᱠᱚ",
      "ᱲ"
    ],
    [
      "ᱫᱟᱲᱮ",
      "ᱭ"
    ],
    [
      "ᱢᱚᱱ",
      "ᱮ"
    ],
    [
      "ᱟ,",
      "ᱟᱨ"
    ],
    [
      "ᱱᱚ",
      "ᱝ"
    ],
    [
      "ᱟᱯ",
      "ᱚᱱᱚᱛ"
    ],
    [
      "ᱫ",
      "ᱟᱹᱭ"
    ],
    [
      "ᱟᱦ",
      "ᱮᱸ"
    ],
    [
      "ᱴ",
      "ᱤᱡ"
    ],
    [
      "ᱱ",
      "ᱟᱦᱟᱜ"
    ],
    [
      "ᱞᱮᱫ",
      "ᱟᱭ"
    ],
    [
      "ᱤ",
      "ᱪ"
    ],
    [
      "ᱟ",
      "ᱥᱤ"
    ],
    [
      "ᱢ",
      "ᱟᱭ"
    ],
    [
      "ᱢ",
      "ᱟᱞ"
    ],
    [
      "ᱞ",
      "ᱟᱛᱟᱨ"
    ],
    [
      "ᱩ",
      "ᱪᱷ"
    ],
    [
      "ᱞᱮᱱ",
      "ᱟᱟᱨ"
    ],
    [
      "ᱫᱚ",
      "ᱥ"
    ],
    [
      "ᱵᱮ",
      "ᱯᱟᱨ"
    ],
    [
      "ᱟᱹ",
      "ᱛ"
    ],
    [
      "ᱛᱤᱨ",
      "ᱞᱟᱹ"
    ],
    [
      "ᱞᱟᱹᱠ",
      "ᱛ"
    ],
    [
      "ᱴ",
      "ᱟᱜ"
    ],
    [
      "ᱰᱚᱞ",
      "ᱟᱨ"
    ],
    [
      "ᱵ",
      "ᱳ"
    ],
    [
      "ᱢᱩᱲ",
      "ᱩᱫ"
    ],
    [
      "ᱵᱷ",
      "ᱤ"
    ],
    [
      "ᱧᱪ",
      "ᱟᱣ"
    ],
    [
      "ᱮᱱ",
      "ᱴ"
    ],
    [
      "ᱚᱱ",
      "ᱫ"
    ],
    [
      "ᱵ",
      "ᱟᱲ"
    ],
    [
      "ᱟᱠ",
      "ᱤᱭᱟᱹ"
    ],
    [
      "ᱨ",
      "ᱩᱯ"
    ],
    [
      "ᱵ",
      "ᱟᱹᱱ"
    ],
    [
      "ᱯ",
      "ᱟᱲ"
    ],
    [
      "ᱯᱩᱨ",
      "ᱵᱚ"
    ],
    [
      "ᱮᱥ",
      "ᱚᱱ"
    ],
    [
      "ᱵᱷ",
      "ᱤᱛ"
    ],
    [
      "ᱜᱷ",
      "ᱚᱴ"
    ],
    [
      "ᱛ",
      "ᱟᱲ"
    ],
    [
      "ᱼ",
      "ᱟᱜ"
    ],
    [
      "ᱯᱟ",
      "ᱴᱷ"
    ],
    [
      "ᱦ",
      "ᱤᱨ"
    ],
    [
      "ᱦ",
      "ᱩᱫ"
    ],
    [
      "ᱚᱱ",
      "ᱟᱠᱚ"
    ],
    [
      "ᱞ",
      "ᱟᱠ"
    ],
    [
      "ᱮᱢ",
      "ᱚᱜ"
    ],
    [
      "ᱰ",
      "ᱟᱦᱟᱨ"
    ],
    [
      "ᱨᱟᱹ",
      "ᱥ"
    ],
    [
      "ᱟᱜ",
      "ᱟᱱ"
    ],
    [
      "ᱨ",
      "ᱚᱱ"
    ],
    [
      "ᱚ",
      "ᱯᱷ"
    ],
    [
      "ᱤᱭᱟᱹ",
      "ᱨᱤ"
    ],
    [
      "ᱩ",
      "ᱴᱤ"
    ],
    [
      "ᱟᱡ",
      "ᱨᱮᱱ"
    ],
    [
      "ᱰᱤ",
      "ᱧ"
    ],
    [
      "ᱵᱤᱨᱫ",
      "ᱟᱹᱜᱟᱲ"
    ],
    [
      "ᱡᱷ",
      "ᱚᱛᱚᱠᱷᱚᱱ"
    ],
    [
      "ᱨᱮᱭᱟᱜ",
      "ᱠᱟᱛᱷ"
    ],
    [
      "ᱚ",
      "ᱠᱟ"
    ],
    [
      "ᱪ",
      "ᱮ"
    ],
    [
      "ᱳ",
      "ᱯ"
    ],
    [
      "ᱫᱚ",
      "ᱢ"
    ],
    [
      "ᱨ",
      "ᱚᱢ"
    ],
    [
      "ᱟ",
      "ᱞᱮᱠᱟᱛᱮ"
    ],
    [
      "ᱤ",
      "ᱟᱨ"
    ],
    [
      "ᱯᱷ",
      "ᱟᱹᱫ"
    ],
    [
      "ᱯ",
      "ᱟᱴ"
    ],
    [
      "ᱱ",
      "ᱚᱱ"
    ],
    [
      "ᱫᱷ",
      "ᱟᱹᱵᱤᱡ"
    ],
    [
      "ᱫᱷᱤ",
      "ᱨᱤ"
    ],
    [
      "ᱚ",
      "ᱡ"
    ],
    [
      "ᱵ",
      "ᱟᱹ"
    ],
    [
      "ᱱ",
      "ᱚᱢ"
    ],
    [
      "ᱤᱫᱤ",
      "ᱠᱟᱛᱮ"
    ],
    [
      "ᱛ",
      "ᱚᱞ"
    ],
    [
      "ᱟᱥᱴ",
      "ᱨᱚ"
    ],
    [
      "ᱢᱮᱱᱟᱜ",
      "ᱼ"
    ],
    [
      "ᱥᱩᱯ",
      "ᱩᱨ"
    ],
    [
      "ᱛ",
      "ᱟᱭ"
    ],
    [
      "ᱞᱟᱹᱜᱤᱫ",
      "ᱛᱮ"
    ],
    [
      "ᱵᱟᱝ",
      "ᱞ"
    ],
    [
      "ᱤᱢ",
      "ᱟᱱ"
    ],
    [
      "ᱟᱨ",
      "ᱡ"
    ],
    [
      "ᱦ",
      "ᱟᱯ"
    ],
    [
      "ᱫᱚ",
      "ᱢᱤᱫᱴᱟᱝ"
    ],
    [
      "ᱵ",
      "ᱟᱫ"
    ],
    [
      "ᱫ",
      "ᱮᱡ"
    ],
    [
      "ᱟᱞ",
      "ᱟᱹᱜᱤᱫ"
    ],
    [
      "ᱴ",
      "ᱨᱮ"
    ],
    [
      "ᱟᱢ",
      "ᱯ"
    ],
    [
      "ᱜ",
      "ᱩ"
    ],
    [
      "ᱟᱹᱠᱷ",
      "ᱨᱤᱧ"
    ],
    [
      "ᱱ",
      "ᱮ"
    ],
    [
      "ᱟ",
      "ᱴᱷ"
    ],
    [
      "ᱜᱤᱫ",
      "ᱽᱨᱟᱹ"
    ],
    [
      "ᱟ",
      "ᱞᱮ"
    ],
    [
      "ᱤᱭ",
      "ᱟᱨ"
    ],
    [
      "ᱚᱱᱚ",
      "ᱣ"
    ],
    [
      "ᱢ",
      "ᱟᱲᱟᱝ"
    ],
    [
      "ᱩᱛ",
      "ᱱᱟᱹᱣ"
    ],
    [
      "ᱥᱮᱨ",
      "ᱣ"
    ],
    [
      "ᱯᱷᱮ",
      "ᱰ"
    ],
    [
      "ᱯ",
      "ᱟᱹᱨᱥᱤ"
    ],
    [
      "ᱛ",
      "ᱟᱨ"
    ],
    [
      "ᱮᱱ",
      "ᱮᱢ"
    ],
    [
      "ᱤ",
      ","
    ],
    [
      "ᱜ",
      "ᱩᱴ"
    ],
    [
      "ᱪᱮᱛᱟᱱ",
      "ᱨᱮ"
    ],
    [
      "ᱥ",
      "ᱟᱜ"
    ],
    [
      "ᱩᱜ",
      "ᱷ"
    ],
    [
      "ᱦᱩᱭ",
      "ᱟᱠᱟᱱ"
    ],
    [
      "ᱤ",
      "ᱧ"
    ],
    [
      "ᱥᱮᱴ",
      "ᱮᱨ"
    ],
    [
      "᱑",
      "᱗"
    ],
    [
      "ᱯᱷ",
      "ᱤᱞ"
    ],
    [
      "ᱩᱪᱷ",
      "ᱟᱹᱱ"
    ],
    [
      "᱕",
      "᱐"
    ],
    [
      "ᱦᱩ",
      "ᱰᱤᱧ"
    ],
    [
      "ᱦ",
      "ᱟᱭ"
    ],
    [
      "ᱵ",
      "ᱟᱥ"
    ],
    [
      "ᱵ",
      "ᱚᱛ"
    ],
    [
      "ᱵᱟᱱ",
      "ᱟᱨ"
    ],
    [
      "ᱨ",
      "ᱟᱣ"
    ],
    [
      "ᱟᱢ",
      "ᱮ"
    ],
    [
      "᱑᱙",
      "᱙"
    ],
    [
      "ᱠᱷᱚᱨ",
      "ᱚᱪ"
    ],
    [
      "ᱳ",
      "ᱠ"
    ],
    [
      "ᱛ",
      "ᱟᱨᱮ"
    ],
    [
      "ᱚᱠᱛᱚ",
      "ᱨᱮ"
    ],
    [
      "ᱴᱷ",
      "ᱟᱣ"
    ],
    [
      "ᱦᱟᱢ",
      "ᱮᱴ"
    ],
    [
      "ᱜ",
      "ᱤᱨ"
    ],
    [
      "ᱢᱮᱱ",
      "ᱛᱮ"
    ],
    [
      "ᱠᱟᱱ",
      "ᱟ"
    ],
    [
      "ᱵ",
      "ᱩ"
    ],
    [
      "᱑",
      "᱖"
    ],
    [
      "ᱠᱳ",
      "ᱴᱤ"
    ],
    [
      "ᱥᱚ",
      "ᱵᱷ"
    ],
    [
      "ᱟ,",
      "ᱢᱮᱱᱠᱷᱟᱱ"
    ],
    [
      "ᱯ",
      "ᱟᱸ"
    ],
    [
      "ᱛᱷ",
      "ᱚᱱᱚᱛ"
    ],
    [
      "ᱦᱤᱡ",
      "ᱩᱜ"
    ],
    [
      "ᱫᱚ",
      "ᱵᱟᱝ"
    ],
    [
      "ᱟᱪ",
      "ᱚᱞ"
    ],
    [
      "ᱱ",
      "ᱤᱛ"
    ],
    [
      "ᱚᱸ",
      "ᱰ"
    ],
    [
      "ᱦᱩᱭᱩᱜ",
      "ᱼᱟ,"
    ],
    [
      "ᱞᱟᱹ",
      "ᱣ"
    ],
    [
      "ᱵᱟᱹᱲ",
      "ᱤᱡ"
    ],
    [
      "ᱪᱤᱱ",
      "ᱦᱟᱹ"
    ],
    [
      "ᱫᱷ",
      "ᱟᱣ"
    ],
    [
      "ᱥᱩᱢ",
      "ᱩᱝ"
    ],
    [
      "ᱧ",
      "ᱮ"
    ],
    [
      "ᱫᱟᱨ",
      "ᱟᱢ"
    ],
    [
      "ᱡᱤᱛ",
      "ᱠᱟᱹᱨ"
    ],
    [
      "ᱚᱵᱷ",
      "ᱤᱱ"
    ],
    [
      "ᱟ,ᱡᱟᱦᱟᱸ",
      "ᱫᱚ"
    ],
    [
      "ᱢ",
      "ᱟᱹᱱ"
    ],
    [
      "ᱡᱚ",
      "ᱥ"
    ],
    [
      "ᱡ",
      "ᱟᱹᱣ"
    ],
    [
      "ᱠᱚ",
      "ᱞᱟᱹᱜᱤᱫ"
    ],
    [
      "ᱚᱱ",
      "ᱟᱛᱮ"
    ],
    [
      "ᱠ",
      "ᱮᱨ"
    ],
    [
      "ᱟ",
      "ᱵᱤ"
    ],
    [
      "ᱟᱵ",
      "ᱟᱫ"
    ],
    [
      "ᱠᱟᱹ",
      "ᱴᱤᱡ"
    ],
    [
      "ᱪᱚᱞᱚᱛᱪᱤᱛᱟᱹᱨ",
      "ᱫᱚ"
    ],
    [
      "ᱤᱭ",
      "ᱩ"
    ],
    [
      "ᱥᱟᱢ",
      "ᱟᱝ"
    ],
    [
      "ᱥᱟᱹᱦᱤᱛ",
      "ᱨᱮᱭᱟᱜ"
    ],
    [
      "ᱟᱠᱷ",
      "ᱲ"
    ],
    [
      "ᱩᱫ",
      "ᱽ"
    ],
    [
      "ᱞᱮᱫ",
      "ᱮᱭᱟ᱾</w>"
    ],
    [
      "ᱫᱤᱞ",
      "ᱞᱤ"
    ],
    [
      "ᱫᱚ",
      "ᱲᱦ"
    ],
    [
      "ᱯ",
      "ᱟᱦ"
    ],
    [
      "ᱵ",
      "ᱤᱫ"
    ],
    [
      "ᱛᱟᱦᱮᱸᱫ",
      "᱾</w>"
    ],
    [
      "ᱟᱢᱤᱫ",
      "ᱴᱟᱝ"
    ],
    [
      "ᱡ",
      "ᱚᱜ"
    ],
    [
      "ᱟᱢ",
      "᱾</w>"
    ],
    [
      "ᱜ",
      "ᱟᱞ"
    ],
    [
      "ᱱ",
      "ᱤᱡ"
    ],
    [
      "ᱠᱩ",
      "ᱞ"
    ],
    [
      "ᱛᱟᱢ",
      "ᱤᱞ"
    ],
    [
      "ᱯᱚᱨ",
      "ᱤ"
    ],
    [
      "ᱩᱱ",
      "ᱤᱭ"
    ],
    [
      "ᱯ",
      "ᱮᱭ"
    ],
    [
      "᱑᱙",
      "᱘"
    ],
    [
      "ᱯ",
      "ᱟᱠ"
    ],
    [
      "ᱫᱟᱹᱭ",
      "ᱠᱟᱹ"
    ],
    [
      "ᱟᱹᱲ",
      "ᱤ"
    ],
    [
      "ᱚ",
      "ᱶ"
    ],
    [
      "ᱧ",
      "ᱩᱢ"
    ],
    [
      "ᱟᱜ",
      "ᱷ"
    ],
    [
      "ᱟᱯ",
      "ᱱᱟᱨ"
    ],
    [
      "ᱟᱢ",
      "ᱟᱨ"
    ],
    [
      "ᱦᱩᱭ",
      "ᱫᱟᱲᱮᱭᱟᱜᱼᱟ᱾</w>"
    ],
    [
      "᱓",
      "᱐"
    ],
    [
      "ᱡᱟᱹᱛ",
      "ᱤᱭᱟᱹᱨᱤ"
    ],
    [
      "ᱠᱳ",
      "ᱨ"
    ],
    [
      "ᱦ",
      "ᱤᱞ"
    ],
    [
      "ᱥᱮ",
      "ᱡ"
    ],
    [
      "ᱟᱹᱰᱤ",
      "ᱜᱟᱱ"
    ],
    [
      "ᱴᱷ",
      "ᱟᱹᱣ"
    ],
    [
      "ᱠ",
      "ᱟᱭᱛᱮ"
    ],
    [
      "ᱴᱷ",
      "ᱤ"
    ],
    [
      "ᱴ",
      "ᱟᱠᱟ"
    ],
    [
      "ᱵ",
      "ᱟᱯ"
    ],
    [
      "ᱟᱯ",
      "ᱟᱭ"
    ],
    [
      "ᱟᱛ",
      "ᱟᱞ"
    ],
    [
      "ᱟᱫ",
      "ᱮ"
    ],
    [
      "ᱱᱟᱜ",
      "ᱟᱢ"
    ],
    [
      "ᱜ",
      "ᱟᱰ"
    ],
    [
      "ᱟᱱ",
      "ᱟᱨ"
    ],
    [
      "ᱡ",
      "ᱤᱭᱚᱱ"
    ],
    [
      "ᱞᱟᱭ",
      "ᱤᱱ"
    ],
    [
      "ᱵᱤ",
      "ᱪ"
    ],
    [
      "ᱤᱥ",
      "ᱴ"
    ],
    [
      "ᱡ",
      "ᱳ"
    ],
    [
      "ᱧᱟᱢ",
      "ᱚᱜᱼᱟ᱾</w>"
    ],
    [
      "ᱢᱮ",
      "ᱥᱟ"
    ],
    [
      "ᱟᱢᱮᱱ",
      "ᱛᱮ"
    ],
    [
      "ᱟ,",
      "ᱮᱱᱠᱷᱟᱱ"
    ],
    [
      "ᱞ",
      "ᱟ"
    ],
    [
      "᱑᱙",
      "᱗"
    ],
    [
      "ᱚᱱ",
      "ᱟᱫᱚ"
    ],
    [
      "ᱛᱤᱱ",
      "ᱟᱹᱜ"
    ],
    [
      "ᱮᱱ",
      "ᱰ"
    ],
    [
      "ᱡᱮ",
      "ᱞᱮ"
    ],
    [
      "ᱡᱤᱱ",
      "ᱤᱥ"
    ],
    [
      "ᱵ",
      "ᱟᱢ"
    ],
    [
      "ᱥᱚᱛ",
      "ᱟᱵ"
    ],
    [
      "ᱡ",
      "ᱳᱭ"
    ],
    [
      "ᱰᱷ",
      "ᱤᱯ"
    ],
    [
      "ᱞ",
      "ᱚᱜ"
    ],
    [
      "ᱦᱩᱭ",
      "ᱫᱟᱲᱮᱭᱟᱜ"
    ],
    [
      "ᱡ",
      "ᱩᱠ"
    ],
    [
      "ᱵᱤᱨ",
      "ᱩᱫᱷ"
    ],
    [
      "ᱠᱟᱛᱮ",
      "ᱜ"
    ],
    [
      "ᱡᱟᱦ",
      "ᱟᱭ"
    ],
    [
      "ᱡᱷ",
      "ᱟᱹᱣ"
    ],
    [
      "ᱚᱠ",
      "ᱛᱮ"
    ],
    [
      "ᱟᱥ",
      "ᱚᱞ"
    ],
    [
      "ᱠ",
      "ᱟᱜ"
    ],
    [
      "ᱤᱭ",
      "ᱟ"
    ],
    [
      "ᱵᱚᱨ",
      "ᱱᱚᱱ"
    ],
    [
      "ᱜ",
      "ᱳ"
    ],
    [
      "ᱡ",
      "ᱚᱛᱚ"
    ],
    [
      "ᱚᱱ",
      "ᱟᱛᱟᱭᱚᱢ"
    ],
    [
      "ᱠᱮᱫ",
      "ᱟ᱾</w>"
    ],
    [
      "ᱟᱨ",
      "ᱴ"
    ],
    [
      "ᱢ",
      "ᱟᱨᱮᱱ"
    ],
    [
      "ᱞᱟᱹᱠᱛ",
      "ᱤᱭᱟᱱ"
    ],
    [
      "ᱪ",
      "ᱟᱥ"
    ],
    [
      "ᱠᱷᱮᱞᱳᱰ",
      "ᱤᱭᱟᱹ"
    ],
    [
      "ᱫ",
      "ᱟᱵ"
    ],
    [
      "ᱤ",
      "ᱵᱷ"
    ],
    [
      "ᱥᱟᱹ",
      "ᱨᱤ"
    ],
    [
      "ᱞᱟᱹᱜᱤᱫ",
      "ᱢᱤᱫᱴᱟᱝ"
    ],
    [
      "ᱯ",
      "ᱩᱭ"
    ],
    [
      "ᱟᱥ",
      "ᱟᱣ"
    ],
    [
      "ᱢᱩ",
      "ᱥ"
    ],
    [
      "ᱢ",
      "ᱟ"
    ],
    [
      "ᱚ",
      "ᱯ"
    ],
    [
      "ᱡᱮᱜᱮᱫ",
      "ᱡᱟᱠᱟᱛ"
    ],
    [
      "ᱟᱨᱮ",
      "ᱴᱟᱜ"
    ],
    [
      "ᱛ",
      "ᱩᱨ"
    ],
    [
      "ᱜᱤ",
      "ᱧ"
    ],
    [
      "ᱠᱚ",
      "ᱮᱢ"
    ],
    [
      "ᱟᱱ",
      "ᱤ"
    ],
    [
      "ᱵ",
      "ᱚᱠ"
    ],
    [
      "ᱟᱠᱚ",
      "ᱣ"
    ],
    [
      "ᱟᱹᱨ",
      "ᱩ"
    ],
    [
      "ᱟᱹ",
      "ᱯ"
    ],
    [
      "ᱞᱮᱱ",
      "ᱰ"
    ],
    [
      "ᱟᱨ",
      "ᱥ"
    ],
    [
      "ᱠ",
      "ᱮᱞ"
    ],
    [
      "ᱠᱟ",
      "ᱥ"
    ],
    [
      "ᱥᱤᱢ",
      "ᱟᱹ"
    ],
    [
      "ᱥᱟ",
      "ᱠᱟᱢ"
    ],
    [
      "ᱟᱛ",
      "ᱳ"
    ],
    [
      "ᱢ",
      "ᱤᱞ"
    ],
    [
      "ᱤᱥ",
      "ᱚᱢ"
    ],
    [
      "ᱞ",
      "ᱟᱜ"
    ],
    [
      "ᱯᱚᱨ",
      "ᱤᱢᱟᱱ"
    ],
    [
      "ᱢᱚ",
      "ᱬᱮ"
    ],
    [
      "ᱨ",
      "ᱩᱣᱟᱹᱲ"
    ],
    [
      "ᱫ",
      "ᱟ"
    ],
    [
      "ᱯᱟ",
      "ᱧᱡ"
    ],
    [
      "ᱮᱥ",
      "ᱴ"
    ],
    [
      "ᱨ",
      "ᱟᱴ"
    ],
    [
      "ᱠᱷ",
      "ᱟᱥ"
    ],
    [
      "ᱥᱤᱨ",
      "ᱡᱟᱹᱣ"
    ],
    [
      "ᱩᱫ",
      "ᱨᱮ"
    ],
    [
      "ᱪ",
      "ᱤ"
    ],
    [
      "ᱞᱟᱹ",
      "ᱴ"
    ],
    [
      "ᱫᱩᱨᱤ",
      "ᱵ"
    ],
    [
      "᱑",
      "᱒"
    ],
    [
      "ᱵᱚᱝ",
      "ᱥᱚ"
    ],
    [
      "ᱴ",
      "ᱟᱣ"
    ],
    [
      "ᱨᱤ",
      "ᱞ"
    ],
    [
      "ᱯᱷ",
      "ᱟᱭ"
    ],
    [
      "ᱵᱟᱪᱷ",
      "ᱱᱟᱣ"
    ],
    [
      "ᱮᱢ",
      "ᱵᱚᱨ"
    ],
    [
      "ᱞᱮᱫ",
      "ᱟ,"
    ],
    [
      "ᱱᱚᱣ",
      "ᱟᱨᱮᱭᱟᱜ"
    ],
    [
      "ᱞᱮᱠᱟᱱ",
      "ᱟᱜ"
    ],
    [
      "ᱛᱟᱭᱚᱢ",
      ","
    ],
    [
      "ᱵ",
      "ᱨ"
    ],
    [
      "ᱞᱮᱫ",
      "ᱮᱭ"
    ],
    [
      "ᱚ",
      "ᱥᱴ"
    ],
    [
      "ᱚᱜ",
      "ᱼᱟ,"
    ],
    [
      "᱔",
      "᱐"
    ],
    [
      "ᱩᱜ",
      "ᱼᱟ᱾</w>"
    ],
    [
      "ᱢᱮ",
      "ᱟᱨ"
    ],
    [
      "ᱡᱚ",
      "ᱠᱷ"
    ],
    [
      "ᱟᱠᱚ",
      "ᱫᱚ"
    ],
    [
      "ᱟᱵ",
      "ᱫᱚ"
    ],
    [
      "ᱦᱤᱱ",
      "ᱫ"
    ],
    [
      "ᱯ",
      "ᱩᱞ"
    ],
    [
      "ᱟᱞ",
      "ᱟᱜ"
    ],
    [
      "ᱚᱞ",
      "ᱚ"
    ],
    [
      "ᱨ",
      "ᱩᱠᱷ"
    ],
    [
      "ᱠᱷᱮᱞ",
      "ᱚᱰ"
    ],
    [
      "ᱞ",
      "ᱟᱣ"
    ],
    [
      "ᱢ",
      "ᱩᱱᱫᱤᱞ"
    ],
    [
      "ᱟᱡᱟᱦᱟᱸ",
      "ᱫᱚ"
    ],
    [
      "ᱮ",
      "ᱧᱟᱢ"
    ],
    [
      "ᱱ",
      "ᱟᱭ"
    ],
    [
      "ᱴᱷᱮᱱ",
      "ᱠᱷᱚᱱ"
    ],
    [
      "ᱡ",
      "ᱟᱛ"
    ],
    [
      "ᱟ",
      "ᱺ"
    ],
    [
      "ᱥᱟᱹ",
      "ᱜ"
    ],
    [
      "ᱫ",
      "ᱟᱭ"
    ],
    [
      "ᱡᱮᱞᱮ",
      "ᱧ"
    ],
    [
      "ᱛᱟᱞ",
      "ᱟᱨᱮ"
    ],
    [
      ",ᱡᱟᱦᱟᱸ",
      "ᱫᱚ"
    ],
    [
      "ᱢᱮ",
      "ᱛ"
    ],
    [
      "ᱚᱱ",
      "ᱟᱨ"
    ],
    [
      "ᱫᱟᱜ",
      "ᱽ"
    ],
    [
      "ᱯᱷ",
      "ᱚᱨ"
    ],
    [
      "ᱟᱹ",
      "ᱰ"
    ],
    [
      "ᱤ",
      "ᱫᱚ"
    ],
    [
      "ᱼ",
      "ᱟᱱ"
    ],
    [
      "᱑",
      "᱓"
    ],
    [
      "ᱞᱟᱦ",
      "ᱟᱨᱮ"
    ],
    [
      "᱑᱙",
      "᱖"
    ],
    [
      "ᱜ",
      "ᱤᱞ"
    ],
    [
      "ᱥᱤᱨ",
      "ᱯᱟᱹ"
    ],
    [
      "ᱞ",
      "ᱚ"
    ],
    [
      "ᱯ",
      "ᱳᱨ"
    ],
    [
      "ᱟᱢ",
      "ᱨᱮᱱ"
    ],
    [
      "ᱚᱱ",
      "ᱫᱚ"
    ],
    [
      "ᱦ",
      "ᱟᱴ"
    ],
    [
      "ᱠᱩᱢ",
      "ᱟᱨ"
    ],
    [
      "ᱟᱞ",
      "ᱟᱣ"
    ],
    [
      "ᱡ",
      "ᱟᱸ"
    ],
    [
      "ᱛᱟᱭᱚᱢ",
      "ᱛᱮ"
    ],
    [
      "ᱠᱩᱥᱤ",
      "ᱭᱟᱜ"
    ],
    [
      "ᱯᱷ",
      "ᱩᱨᱜ"
    ],
    [
      "ᱜ",
      "ᱳᱞ"
    ],
    [
      "ᱫᱚᱠ",
      "ᱠᱷᱤᱱ"
    ],
    [
      "ᱢ",
      "ᱤᱨ"
    ],
    [
      "ᱟᱞ",
      "ᱚᱭ"
    ],
    [
      "ᱯ",
      "ᱚᱞ"
    ],
    [
      "ᱥᱮ",
      "ᱪᱮᱫ"
    ],
    [
      "ᱞ",
      "ᱚᱠ"
    ],
    [
      "ᱛ",
      "ᱟᱸ"
    ],
    [
      "ᱵᱚᱱ",
      "ᱫᱮᱡ"
    ],
    [
      "ᱚᱱ",
      "ᱚᱞ"
    ],
    [
      "ᱟᱠᱟᱫ",
      "ᱟᱭ"
    ],
    [
      "ᱩᱜᱷ",
      "ᱚᱞ"
    ],
    [
      "ᱟᱲ",
      "ᱟᱜ"
    ],
    [
      "ᱦ",
      "ᱮᱸ"
    ],
    [
      "ᱜᱮᱭ",
      "ᱟ᱾</w>"
    ],
    [
      "ᱰ",
      "ᱚ"
    ],
    [
      "ᱵᱷ",
      "ᱟᱵᱽ"
    ],
    [
      "ᱦᱚᱲ",
      "ᱢᱚ"
    ],
    [
      "ᱥ",
      "ᱩ"
    ],
    [
      "ᱤ",
      "ᱠᱟ"
    ],
    [
      "ᱢ",
      "ᱳ"
    ],
    [
      "ᱡᱟᱹ",
      "ᱛᱤ"
    ],
    [
      "ᱠᱷᱚᱱ",
      "ᱦᱚᱸ"
    ],
    [
      "ᱜ",
      "ᱩᱨ"
    ],
    [
      "ᱛ",
      "ᱤᱥ"
    ],
    [
      "ᱨ",
      "ᱟᱦ"
    ],
    [
      "ᱥᱚᱛᱟᱵ",
      "ᱫᱤ"
    ],
    [
      "ᱟᱱ",
      "ᱟᱴ"
    ],
    [
      "ᱮ",
      "ᱥᱮᱨ"
    ],
    [
      "ᱦᱟᱹ",
      "ᱛ"
    ],
    [
      "ᱪ",
      "ᱟᱯ"
    ],
    [
      "ᱹ",
      "ᱮᱥ"
    ],
    [
      "ᱪ",
      "ᱟᱢᱯ"
    ],
    [
      "ᱟᱱ",
      "ᱠᱚ"
    ],
    [
      "ᱦᱚ",
      "ᱪ"
    ],
    [
      "ᱠᱷ",
      "ᱳ"
    ],
    [
      "ᱵ",
      "ᱟᱹᱭ"
    ],
    [
      "ᱛᱷ",
      "ᱟᱨ"
    ],
    [
      "ᱠ",
      "ᱟᱭ"
    ],
    [
      "ᱟᱨ",
      "ᱢᱤᱫᱴᱟᱝ"
    ],
    [
      "ᱡ",
      "ᱩᱱ"
    ],
    [
      "ᱵ",
      "ᱟᱸ"
    ],
    [
      "ᱞᱮ",
      "ᱛᱟᱲ"
    ],
    [
      "ᱫ",
      "ᱨ"
    ],
    [
      "ᱮᱨ",
      "ᱟᱣ"
    ],
    [
      "ᱞᱮᱱ",
      "ᱟᱭ᱾</w>"
    ],
    [
      "᱒᱐᱑",
      "᱔"
    ],
    [
      "ᱠᱷᱚᱨ",
      "ᱪ"
    ],
    [
      "ᱯᱚᱱᱚᱛ",
      "ᱨᱮ"
    ],
    [
      "ᱣ",
      "ᱟᱨ"
    ],
    [
      "ᱫ",
      "ᱟᱢ"
    ],
    [
      "ᱵᱤᱨ",
      "ᱤᱫ"
    ],
    [
      "ᱠᱷᱚ",
      "ᱡ"
    ],
    [
      "ᱪ",
      "ᱟᱹ"
    ],
    [
      "ᱴᱤ",
      "ᱠ"
    ],
    [
      "ᱱᱚᱝ",
      "ᱠᱟᱱ"
    ],
    [
      "ᱟᱢ",
      "ᱟᱞ"
    ],
    [
      "ᱢᱚ",
      "ᱦᱟᱨ"
    ],
    [
      "ᱢᱩᱫ",
      "ᱨᱮ"
    ],
    [
      "ᱛᱟᱦᱮᱸᱠᱟᱱ",
      "ᱟ"
    ],
    [
      "ᱪᱷ",
      "ᱟᱰ"
    ],
    [
      "ᱜ",
      "ᱟᱭ"
    ],
    [
      "ᱡ",
      "ᱚᱨ"
    ],
    [
      "ᱭ",
      "ᱫᱚ"
    ],
    [
      "ᱞᱮ",
      "ᱠᱷᱟᱱ"
    ],
    [
      "ᱯᱨ",
      "ᱚᱛ"
    ],
    [
      "ᱥᱤ",
      "ᱠ"
    ],
    [
      "ᱥᱮ",
      "ᱞ"
    ],
    [
      "ᱟᱨᱮ",
      "ᱛᱮ"
    ],
    [
      "ᱦ",
      "ᱟᱥᱟ"
    ],
    [
      "ᱳᱜ",
      "ᱽ"
    ],
    [
      "ᱨᱤ",
      "ᱠ"
    ],
    [
      "ᱥᱟ",
      "ᱥ"
    ],
    [
      "ᱮᱥ",
      "ᱤᱭ"
    ],
    [
      "ᱩᱛ",
      "ᱟᱹᱨ"
    ],
    [
      "ᱚᱡᱮ",
      "ᱛᱮ"
    ],
    [
      "ᱴ",
      "ᱳ"
    ],
    [
      "ᱯᱷ",
      "ᱟᱨ"
    ],
    [
      "ᱠᱟᱹ",
      "ᱦ"
    ],
    [
      "ᱰ",
      "ᱮᱞ"
    ],
    [
      "ᱲᱦ",
      "ᱚᱱ"
    ],
    [
      "ᱛᱮᱱ",
      "ᱚᱣ"
    ],
    [
      "ᱞᱮᱱ",
      "ᱟ,"
    ],
    [
      "ᱩᱨᱤ",
      "ᱛ"
    ],
    [
      "ᱛ",
      "ᱟᱹᱞᱤ"
    ],
    [
      "ᱛᱟᱦᱮᱸ",
      "ᱱ"
    ],
    [
      "ᱟᱪᱚᱞ",
      "ᱚᱛᱪᱤᱛᱟᱹᱨ"
    ],
    [
      "ᱜᱚᱴ",
      "ᱟ"
    ],
    [
      "ᱵᱮ",
      "ᱜᱚᱨ"
    ],
    [
      "ᱡᱟᱱ",
      "ᱟᱢ"
    ],
    [
      "ᱠᱟᱱ",
      "ᱟ,"
    ],
    [
      "ᱢᱮ",
      ","
    ],
    [
      "ᱠᱟᱣ",
      "ᱩᱱ"
    ],
    [
      "ᱢᱮᱱᱟᱜ",
      "ᱼᱟ,"
    ],
    [
      "ᱫ",
      "ᱤᱨ"
    ],
    [
      "ᱵᱮ",
      "ᱼ"
    ],
    [
      "ᱨᱮ",
      "ᱜᱮ"
    ],
    [
      "ᱦᱟᱞ",
      "ᱚᱛ"
    ],
    [
      "ᱨᱤ",
      "ᱡ"
    ],
    [
      "ᱟᱜ",
      "ᱟᱢ"
    ],
    [
      "ᱫᱷ",
      "ᱚᱱ"
    ],
    [
      "ᱟᱲᱮ",
      "ᱭᱟᱜ"
    ],
    [
      "ᱯᱷᱩᱨᱜ",
      "ᱟᱹᱞ"
    ],
    [
      "ᱩᱨᱩᱢ",
      "ᱩᱴ"
    ],
    [
      "ᱟᱯ",
      "ᱩᱨ"
    ],
    [
      "ᱦᱚᱨ",
      "ᱚᱜ"
    ],
    [
      "ᱦᱤᱥ",
      "ᱟᱹᱵ"
    ],
    [
      "ᱴᱷ",
      "ᱟᱹᱱ"
    ],
    [
      "ᱥᱩᱨ",
      "ᱥᱩᱯᱩᱨ"
    ],
    [
      "ᱠ",
      "ᱞ"
    ],
    [
      "ᱨᱚ",
      "ᱝ"
    ],
    [
      "ᱚᱜ",
      "ᱚᱨ"
    ],
    [
      "ᱟᱦ",
      "ᱚᱸ"
    ],
    [
      "ᱜ",
      "ᱚᱢ"
    ],
    [
      "ᱯᱟᱨ",
      "ᱚᱢ"
    ],
    [
      "ᱢᱮᱱᱟᱜ",
      "ᱼᱟ"
    ],
    [
      "ᱨᱮᱭᱟᱜ",
      "ᱥ"
    ],
    [
      "ᱦᱩᱭᱩᱜᱠᱟᱱ",
      "ᱟ"
    ],
    [
      "ᱯᱷᱩᱴ",
      "ᱵᱚᱞ"
    ],
    [
      "ᱨᱮ",
      "ᱟᱨ"
    ],
    [
      "ᱛᱩᱨ",
      "ᱩᱭ"
    ],
    [
      "ᱳᱣ",
      "ᱟᱨ"
    ],
    [
      "ᱥᱟᱹᱜ",
      "ᱟᱹᱭ"
    ],
    [
      "ᱤ",
      "ᱨᱮ"
    ],
    [
      "ᱟᱞ",
      "ᱚᱢ"
    ],
    [
      "ᱫᱚᱥ",
      "ᱚᱠ"
    ],
    [
      "ᱡ",
      "ᱩᱜ"
    ],
    [
      "ᱹ",
      "ᱥᱤ"
    ],
    [
      "ᱠᱟᱹᱢ",
      "ᱤᱭ"
    ],
    [
      "ᱨᱚ",
      "ᱲ"
    ],
    [
      "ᱟᱠᱟᱫ",
      "ᱟᱭ᱾</w>"
    ],
    [
      "ᱫᱳ",
      "ᱠᱟᱱ"
    ],
    [
      "ᱠᱚ",
      "ᱨᱮᱭᱟᱜ"
    ],
    [
      "ᱛ",
      "ᱟ"
    ],
    [
      "ᱪᱤᱛᱟᱹᱨ",
      "ᱫᱚ"
    ],
    [
      "ᱜ",
      "ᱚᱞ"
    ],
    [
      "ᱛᱷ",
      "ᱟᱭ"
    ],
    [
      "ᱟᱵ",
      "ᱟᱨ"
    ],
    [
      "ᱡ",
      "ᱟ"
    ],
    [
      "ᱣ",
      "ᱟᱱ"
    ],
    [
      "ᱯᱩᱨ",
      "ᱟᱹᱣ"
    ],
    [
      "ᱠᱟᱹᱣᱰᱤ",
      "ᱟᱹᱨᱤ"
    ],
    [
      "ᱢ",
      "ᱯᱟᱱ"
    ],
    [
      "ᱫ",
      "ᱟᱹ"
    ],
    [
      "ᱵᱚ",
      "ᱭ"
    ],
    [
      "ᱞᱟᱹ",
      "ᱲ"
    ],
    [
      "ᱱ",
      "ᱩ"
    ],
    [
      "ᱛᱮ",
      "ᱠᱚ"
    ],
    [
      "ᱜᱮ",
      "ᱛ"
    ],
    [
      "ᱩᱢ",
      "ᱮᱨ"
    ],
    [
      "ᱵᱤ",
      "ᱰ"
    ],
    [
      "ᱯᱮ",
      "ᱨᱮᱡ"
    ],
    [
      "ᱦᱤᱱ",
      "ᱫᱤ"
    ],
    [
      "ᱱ",
      "ᱮᱴ"
    ],
    [
      "ᱤ",
      "ᱠᱚ"
    ],
    [
      "ᱵ",
      "ᱟᱜ"
    ],
    [
      "ᱦᱤ",
      "ᱴ"
    ],
    [
      "᱑",
      "᱔"
    ],
    [
      "ᱱᱚᱣ",
      "ᱟᱢ"
    ],
    [
      "ᱫᱚᱦᱩᱭᱩᱜᱠᱟᱱ",
      "ᱟ"
    ],
    [
      "ᱯᱚ",
      "ᱲ"
    ],
    [
      "ᱪ",
      "ᱚᱨ"
    ],
    [
      "ᱡ",
      "ᱮᱱ"
    ],
    [
      "ᱜ",
      "ᱟᱶ"
    ],
    [
      "ᱚᱸ",
      "ᱜᱚᱨ"
    ],
    [
      "ᱩᱰ",
      "ᱟᱹᱱ"
    ],
    [
      "ᱟᱛ",
      "ᱟᱝ"
    ],
    [
      "ᱟᱱ",
      "ᱟᱢ"
    ],
    [
      "ᱱ",
      "ᱟ"
    ],
    [
      "ᱩᱯ",
      "ᱚ"
    ],
    [
      "ᱞ",
      "ᱩ"
    ],
    [
      "ᱵ",
      "ᱮᱞ"
    ],
    [
      "ᱛᱟᱭᱚᱢ",
      "ᱫᱟᱨᱟᱢ"
    ],
    [
      "ᱨᱮ",
      "ᱫ"
    ],
    [
      "ᱩᱱ",
      "ᱟᱹᱨ"
    ],
    [
      "ᱦᱩᱭᱩᱜ",
      "ᱛᱟᱢ"
    ],
    [
      "ᱛ",
      "ᱤᱭ"
    ],
    [
      "ᱭ",
      "ᱟᱨ"
    ],
    [
      "ᱢᱟᱨ",
      "ᱟᱴᱷ"
    ],
    [
      "ᱡᱮ",
      "ᱞᱮᱠᱟ"
    ],
    [
      "ᱜ",
      "ᱩᱱ"
    ],
    [
      "᱒",
      "᱕"
    ],
    [
      "ᱦᱚᱲ",
      "ᱞᱮᱠᱷ"
    ],
    [
      "᱑",
      ","
    ],
    [
      "ᱨᱮ",
      "ᱹ"
    ],
    [
      "ᱯ",
      "ᱤᱠ"
    ],
    [
      "ᱨ",
      "ᱟ"
    ],
    [
      "ᱴᱤ",
      "ᱝ"
    ],
    [
      "ᱜ",
      "ᱼᱟ᱾</w>"
    ],
    [
      "ᱦ",
      "ᱟᱥ"
    ],
    [
      "ᱵ",
      "ᱳᱭ"
    ],
    [
      "ᱤᱭᱟᱹ",
      "ᱠᱚᱣᱟᱜ"
    ],
    [
      "ᱨᱮᱭᱟᱜ",
      "ᱢᱩᱪᱟᱹᱫ"
    ],
    [
      "ᱪ",
      "ᱚᱱ"
    ],
    [
      "ᱠᱷᱮᱞ",
      "ᱚᱸᱰ"
    ],
    [
      "ᱟᱛ",
      "ᱟᱦᱮᱸ"
    ],
    [
      "ᱟᱢ",
      ","
    ],
    [
      "ᱛᱟᱢᱤᱞ",
      "ᱱ"
    ],
    [
      "ᱴ",
      "ᱟᱭ"
    ],
    [
      "ᱦᱩᱭᱩᱜ",
      "ᱼ"
    ],
    [
      "ᱴ",
      "ᱚᱨ"
    ],
    [
      "᱒᱐᱑",
      "᱓"
    ],
    [
      "ᱥᱤ",
      "ᱜᱤᱞ"
    ],
    [
      "ᱟ,ᱡᱟᱦᱟᱸ",
      "ᱨᱮ"
    ],
    [
      "ᱛ",
      "ᱚᱢ"
    ],
    [
      "ᱱ",
      "ᱟᱞ"
    ],
    [
      "ᱢᱚ",
      "ᱫ"
    ],
    [
      "ᱚᱛᱷ",
      "ᱟᱛ"
    ],
    [
      "ᱟᱦ",
      "ᱚᱲ"
    ],
    [
      "ᱛᱮᱭ",
      "ᱟᱨ"
    ],
    [
      "ᱨᱮᱭᱟᱜ",
      "ᱢᱤᱫ"
    ],
    [
      "ᱡ",
      "ᱤᱭᱟᱹ"
    ],
    [
      "ᱩ",
      "ᱰᱷ"
    ],
    [
      "ᱡ",
      "ᱚᱛ"
    ],
    [
      "ᱧᱩᱛᱩᱢᱛᱮ",
      "ᱩᱯᱨᱩᱢ"
    ],
    [
      "ᱪ",
      "ᱩᱨᱤᱛ"
    ],
    [
      "ᱤᱛ",
      "ᱷ"
    ],
    [
      "ᱠᱩ",
      "ᱲᱤ"
    ],
    [
      ")",
      "᱾</w>"
    ],
    [
      "ᱰ",
      "ᱮᱱ"
    ],
    [
      "ᱚᱵᱷᱤᱱ",
      "ᱚᱭ"
    ],
    [
      "ᱡᱮ",
      ","
    ],
    [
      "ᱦ",
      "ᱤᱢ"
    ],
    [
      ")",
      "ᱟᱨ"
    ],
    [
      "ᱛ",
      "ᱨᱚ"
    ],
    [
      "ᱴᱷᱟᱹᱣ",
      "ᱠᱟᱹ"
    ],
    [
      "ᱧᱟᱢ",
      "ᱚᱜ"
    ],
    [
      "ᱞᱮᱠᱟᱛᱮ",
      "ᱭ"
    ],
    [
      "ᱤᱱ",
      "ᱰᱤᱭ"
    ],
    [
      "ᱜ",
      "ᱟᱹ"
    ],
    [
      "ᱪᱟᱪ",
      "ᱟᱞᱟᱣ"
    ],
    [
      "ᱢᱮᱱ",
      "ᱮᱫ"
    ],
    [
      "ᱮᱢ",
      "ᱚᱱ"
    ],
    [
      "ᱡᱟᱭ",
      "ᱜ"
    ],
    [
      "ᱟᱴ",
      "ᱚᱠ"
    ],
    [
      "ᱵᱤᱰ",
      "ᱟᱹᱣ"
    ],
    [
      "ᱮ",
      "ᱮᱢ"
    ],
    [
      "ᱛᱮ",
      "ᱫ"
    ],
    [
      "ᱵᱚᱛ",
      "ᱚᱨ"
    ],
    [
      "ᱞᱮᱫ",
      "ᱠᱚᱣᱟ᱾</w>"
    ],
    [
      "ᱥ",
      "ᱛᱷ"
    ],
    [
      "ᱞᱮᱱ",
      "ᱠᱷᱟᱱ"
    ],
    [
      "ᱥᱮᱨᱢ",
      "ᱟᱠᱤᱭᱟᱹ"
    ],
    [
      "ᱪᱟᱸ",
      "ᱫᱚ"
    ],
    [
      "ᱢ",
      "ᱤᱥ"
    ],
    [
      "ᱟᱦ",
      "ᱚ"
    ],
    [
      "ᱡ",
      "ᱩ"
    ],
    [
      "ᱢᱟᱨᱠᱤᱱ",
      "ᱰᱚᱞᱟᱨ"
    ],
    [
      "ᱥᱟ",
      "ᱧᱪᱟᱣ"
    ],
    [
      "ᱯ",
      "ᱩᱫ"
    ],
    [
      "ᱵᱷ",
      "ᱚᱨ"
    ],
    [
      "ᱥ",
      "ᱚᱞ"
    ],
    [
      "ᱟᱭ",
      ","
    ],
    [
      "ᱵᱟᱪᱷ",
      "ᱟᱣ"
    ],
    [
      "ᱡ",
      "ᱟᱹᱲᱤ"
    ],
    [
      "ᱱ",
      "ᱤᱨ"
    ],
    [
      "ᱠᱟᱹᱦ",
      "ᱱᱤ"
    ],
    [
      "ᱨᱮ",
      "ᱥᱮᱞᱮᱫ"
    ],
    [
      "ᱟᱥ",
      "ᱚᱨ"
    ],
    [
      "ᱵᱤᱪ",
      "ᱟᱹᱨ"
    ],
    [
      "ᱨ",
      "ᱤᱭ"
    ],
    [
      "ᱜ",
      "ᱟᱹᱣ"
    ],
    [
      "ᱡ",
      "ᱤᱞ"
    ],
    [
      "ᱞᱤ",
      "ᱝ"
    ],
    [
      "ᱡ",
      "ᱤᱨ"
    ],
    [
      "ᱯᱷ",
      "ᱮᱨᱟᱣ"
    ],
    [
      "ᱞ",
      "ᱚᱞᱚ"
    ],
    [
      "ᱤᱭᱚᱱ",
      "ᱥᱤᱯ"
    ],
    [
      "ᱟᱵ",
      "ᱚ"
    ],
    [
      "ᱤᱱ",
      "ᱟᱹ"
    ],
    [
      "ᱟᱠᱟᱱ",
      "ᱟ,"
    ],
    [
      "ᱵᱟᱹᱱ",
      "ᱤᱡ"
    ],
    [
      "ᱟᱡ",
      "ᱟᱨ"
    ],
    [
      "ᱟ",
      "ᱟᱱᱟᱜ"
    ],
    [
      "ᱟᱴᱚᱴᱷ",
      "ᱟᱨᱮ"
    ],
    [
      "ᱩᱛᱛᱚᱨ",
      "ᱼ"
    ],
    [
      "ᱵᱷ",
      "ᱟᱜᱮ"
    ],
    [
      "ᱩᱜ",
      "ᱟᱱ"
    ],
    [
      "ᱟᱭᱢ",
      "ᱟᱜᱟᱱ"
    ],
    [
      "ᱯᱷ",
      "ᱤ"
    ],
    [
      "ᱠᱟᱨ",
      "ᱰ"
    ],
    [
      "ᱠᱳ",
      "ᱞ"
    ],
    [
      "ᱪᱟᱸ",
      "ᱜ"
    ],
    [
      "ᱟᱪ",
      "ᱮᱛᱟᱱ"
    ],
    [
      "ᱥᱟ",
      "ᱛ"
    ],
    [
      "ᱧᱮ",
      "ᱧᱮᱞ"
    ],
    [
      "᱒᱐᱑",
      "᱑"
    ],
    [
      "ᱥᱟᱨ",
      "ᱦᱟᱣ"
    ],
    [
      "ᱮᱫ",
      "ᱟ᱾</w>"
    ],
    [
      "ᱥᱮ",
      "ᱥ"
    ],
    [
      "ᱯ",
      "ᱮᱱ"
    ],
    [
      "ᱢᱤᱫ",
      "ᱵᱟᱨ"
    ],
    [
      "ᱫ",
      "ᱟᱨᱮ"
    ],
    [
      "ᱟᱫ",
      "ᱤᱥᱚᱢ"
    ],
    [
      "ᱩᱫᱩᱜ",
      "ᱥᱚᱫᱚᱨ"
    ],
    [
      "ᱟᱢ",
      "ᱫᱚ"
    ],
    [
      "ᱦ",
      "ᱮᱞ"
    ],
    [
      "ᱦᱚ",
      "ᱜ"
    ],
    [
      "ᱮᱱ",
      "ᱚᱣ"
    ],
    [
      "ᱱ",
      "ᱟᱯᱟᱭ"
    ],
    [
      "ᱵ",
      "ᱳᱨ"
    ],
    [
      "ᱟᱠ",
      "ᱟᱨ"
    ],
    [
      "ᱞᱚᱜ",
      "ᱚᱱ"
    ],
    [
      "ᱱᱚᱣ",
      "ᱟᱠᱚ"
    ],
    [
      "ᱥᱚ",
      "ᱲ"
    ],
    [
      "ᱟᱹᱜ",
      "ᱤ"
    ],
    [
      "ᱠ",
      "ᱩᱱ"
    ],
    [
      "ᱡᱩᱠ",
      "ᱛᱚᱨ"
    ],
    [
      "ᱱ",
      "ᱚᱨ"
    ],
    [
      "ᱩᱢ",
      "ᱵᱟᱭ"
    ],
    [
      "᱑",
      "᱑"
    ],
    [
      "ᱛᱷ",
      "ᱚ"
    ],
    [
      "ᱵ",
      "ᱟᱞ"
    ],
    [
      "ᱠ",
      "ᱤᱥ"
    ],
    [
      "ᱹ",
      "ᱟᱭ"
    ],
    [
      "ᱟᱡ",
      "ᱚ"
    ],
    [
      "ᱦ",
      "ᱟ"
    ],
    [
      "ᱠ",
      "ᱮᱱ"
    ],
    [
      "ᱟᱢ",
      "ᱟᱢᱟᱜ"
    ],
    [
      "ᱨᱤ",
      "ᱠᱟᱹ"
    ],
    [
      "ᱛᱮ",
      "ᱥᱟᱨ"
    ],
    [
      "ᱥ",
      "ᱩᱱ"
    ],
    [
      "ᱟᱪ",
      "ᱟᱨ"
    ],
    [
      "ᱯᱳᱨ",
      "ᱴ"
    ],
    [
      "ᱟ",
      "ᱚᱱ"
    ],
    [
      "ᱵ",
      "ᱤᱫᱷ"
    ],
    [
      "ᱯᱟᱹ",
      "ᱛ"
    ],
    [
      "ᱠᱨᱤ",
      "ᱠᱮᱴ"
    ],
    [
      "ᱞᱟᱠ",
      "ᱪᱟᱨ"
    ],
    [
      "ᱫᱟᱹᱭᱠᱟᱹ",
      "ᱞᱮᱠᱟᱛᱮ,"
    ],
    [
      "ᱤ",
      "ᱭᱟᱜ"
    ],
    [
      ",",
      "ᱢ"
    ],
    [
      "ᱨᱤ",
      "ᱠᱟ"
    ],
    [
      "ᱟᱵ",
      "ᱮᱱ"
    ],
    [
      "ᱟᱱ",
      "ᱟᱹᱭ"
    ],
    [
      "ᱥᱟᱭ",
      "ᱤᱴ"
    ],
    [
      "ᱨᱮᱭᱟᱜ",
      "ᱮ"
    ],
    [
      "ᱴᱷ",
      "ᱤᱠ"
    ],
    [
      "ᱟᱣ",
      "ᱟᱱ"
    ],
    [
      "ᱡᱟᱦ",
      "ᱟᱫᱚ"
    ],
    [
      "ᱥᱟᱹ",
      "ᱢᱩᱫ"
    ],
    [
      "ᱛᱮ",
      "ᱵᱮᱱᱟᱣ"
    ],
    [
      "ᱵᱤᱱ",
      "ᱤᱭ"
    ],
    [
      "᱑᱙",
      "᱔"
    ],
    [
      "ᱢᱮᱱᱠᱷᱟᱱ",
      ","
    ],
    [
      "ᱯᱟᱠ",
      "ᱤᱥ"
    ],
    [
      "ᱜ",
      "ᱩᱡ"
    ],
    [
      "ᱥᱚ",
      "ᱭ"
    ],
    [
      "ᱮᱱ",
      "ᱟᱟᱨ"
    ],
    [
      "ᱵᱷᱟᱨᱚᱛ",
      "ᱨᱮᱱ"
    ],
    [
      "ᱵᱷ",
      "ᱩᱢ"
    ],
    [
      "ᱵᱷ",
      "ᱩ"
    ],
    [
      "ᱮᱱ",
      "ᱮ"
    ],
    [
      "ᱟᱠᱟᱱ",
      "ᱟᱟᱨ"
    ],
    [
      "ᱵᱷ",
      "ᱟᱜ"
    ],
    [
      "ᱩᱯ",
      "ᱟᱹᱭ"
    ],
    [
      "ᱮᱭ",
      "ᱟᱭ"
    ],
    [
      "ᱦ",
      "ᱟᱱ"
    ],
    [
      "ᱦᱩᱭᱩᱜ",
      "ᱼᱟ"
    ],
    [
      "ᱟᱨᱮ",
      "ᱥᱚᱱ"
    ],
    [
      "ᱠ",
      "ᱨᱮ"
    ],
    [
      "ᱱ",
      "ᱟᱢᱮᱱ"
    ],
    [
      "ᱦᱤᱱ",
      "ᱫᱩ"
    ],
    [
      "ᱡᱟᱦᱟᱸ",
      "ᱫᱚ"
    ],
    [
      "ᱢᱩ",
      "ᱴᱷᱟᱹᱱ"
    ],
    [
      "ᱥ",
      "ᱤᱛ"
    ],
    [
      "ᱟᱯ",
      "ᱟᱢ"
    ],
    [
      "ᱹᱮ",
      "ᱯᱷ"
    ],
    [
      "ᱟᱥ",
      "ᱟᱢ"
    ],
    [
      "ᱮᱢ",
      "ᱯ"
    ],
    [
      "ᱛ",
      "ᱟᱠ"
    ],
    [
      "ᱵᱮᱱ",
      "ᱰᱤ"
    ],
    [
      "ᱵᱟ",
      "ᱧᱪᱟᱣ"
    ],
    [
      "᱖",
      "᱐"
    ],
    [
      "᱒᱐᱑",
      "᱒"
    ],
    [
      "᱒",
      "᱑"
    ],
    [
      "ᱟᱭ",
      "ᱟ᱾</w>"
    ],
    [
      "ᱤᱫᱤ",
      "ᱠᱟᱛᱮᱫ"
    ],
    [
      "ᱤᱭ",
      "ᱚᱢ"
    ],
    [
      "ᱜ",
      "ᱟᱹᱰᱤ"
    ],
    [
      "ᱴ",
      "ᱮᱸ"
    ],
    [
      "ᱟᱹᱭ",
      "ᱩᱨ"
    ],
    [
      "ᱥᱮᱨᱢ",
      "ᱟ"
    ],
    [
      "ᱩᱱᱤ",
      "ᱨᱮᱱ"
    ],
    [
      "ᱜᱟᱞ",
      "ᱚᱪ"
    ],
    [
      "ᱛᱟᱦᱮᱸᱠᱟᱱ",
      "ᱟ,"
    ],
    [
      "ᱟᱵᱽ",
      "ᱫᱚ"
    ],
    [
      "ᱡ",
      "ᱚᱞ"
    ],
    [
      "ᱡᱚ",
      "ᱯ"
    ],
    [
      "ᱚᱨ",
      "ᱡᱚ"
    ],
    [
      "ᱯᱟᱞ",
      "ᱟᱣ"
    ],
    [
      "ᱳᱭ",
      "ᱮ"
    ],
    [
      "ᱲ",
      "ᱮ"
    ],
    [
      "ᱢᱮ",
      "ᱭ"
    ],
    [
      "ᱥᱮ",
      "ᱪ"
    ],
    [
      "ᱵᱟᱝ",
      "ᱠᱚ"
    ],
    [
      "ᱪ",
      "ᱳᱞ"
    ],
    [
      "ᱜᱚ",
      "ᱲᱦᱚᱱ"
    ],
    [
      "ᱜ",
      "ᱟᱛ"
    ],
    [
      "ᱱᱚᱣ",
      "ᱟᱯ"
    ],
    [
      "ᱫᱩᱨᱤ",
      "ᱵᱽ"
    ],
    [
      "ᱛ",
      "ᱚᱱ"
    ],
    [
      "ᱠ",
      "ᱞᱤ"
    ],
    [
      "ᱡᱷ",
      "ᱚᱛᱚ"
    ],
    [
      "ᱟᱢ",
      "ᱡᱩᱫᱤ"
    ],
    [
      "ᱢᱟᱭ",
      "ᱤᱞ"
    ],
    [
      "ᱥᱮ",
      "ᱛ"
    ],
    [
      "ᱤᱱ",
      "ᱰ"
    ],
    [
      "ᱥ",
      "ᱨᱤ"
    ],
    [
      "ᱲ",
      "ᱤᱡ"
    ],
    [
      "ᱠᱟᱹᱢᱤ",
      "ᱦᱚᱨ"
    ],
    [
      "ᱩᱰᱷ",
      "ᱟᱹᱣ"
    ],
    [
      "ᱢ",
      "ᱟᱨᱮ"
    ],
    [
      "ᱨ",
      "ᱟᱥ"
    ],
    [
      "ᱚᱱ",
      "ᱞᱟᱭᱤᱱ"
    ],
    [
      "ᱥᱟᱭ",
      "ᱦᱤᱸᱥ"
    ],
    [
      "ᱳ",
      "ᱥ"
    ],
    [
      "ᱟ",
      "'"
    ],
    [
      "ᱚᱜ",
      "ᱚ"
    ],
    [
      "ᱯ",
      "ᱮᱨ"
    ],
    [
      "ᱢ",
      "ᱚᱛ"
    ],
    [
      "ᱟᱢ",
      "ᱮᱱᱠᱷᱟᱱ"
    ],
    [
      "ᱤᱭ",
      "ᱩᱨ"
    ],
    [
      "ᱟᱠᱚᱣ",
      "ᱟ᱾</w>"
    ],
    [
      "ᱱᱚ",
      "ᱜᱚᱨ"
    ],
    [
      "ᱟᱠᱟᱫ",
      "ᱟ,"
    ],
    [
      "ᱥᱟᱣ",
      "ᱛᱮ"
    ],
    [
      "ᱵᱟᱦ",
      "ᱟᱞ"
    ],
    [
      "ᱪᱟᱪ",
      "ᱞᱟᱣ"
    ],
    [
      "ᱩᱱᱠᱩ",
      "ᱫᱚ"
    ],
    [
      "ᱚ",
      "ᱵᱽ"
    ],
    [
      "ᱜᱚ",
      "ᱵᱚᱞ"
    ],
    [
      "ᱚᱥ",
      "ᱛᱷᱟᱱ"
    ],
    [
      "ᱟᱦᱩᱭ",
      "ᱩᱜ"
    ],
    [
      "ᱵᱮᱥ",
      "ᱠᱤᱪᱷ"
    ],
    [
      "ᱡ",
      "ᱚᱛᱷᱟᱛ"
    ],
    [
      "ᱫ",
      "ᱟᱣ"
    ],
    [
      "ᱥᱮᱢ",
      "ᱞᱮᱫ"
    ],
    [
      "ᱠᱟ",
      "ᱴ"
    ],
    [
      "ᱜᱷ",
      "ᱟᱹᱞ"
    ],
    [
      "ᱠᱟᱹᱢ",
      "ᱤᱭᱟᱹ"
    ],
    [
      "ᱠᱤ",
      "ᱝ"
    ],
    [
      "ᱡᱚᱢ",
      "ᱟᱜ"
    ],
    [
      "ᱵ",
      "ᱟᱨᱮᱛᱮ"
    ],
    [
      "ᱯᱳ",
      "ᱞᱳ"
    ],
    [
      "ᱜᱷᱚᱴ",
      "ᱚᱱ"
    ],
    [
      "ᱦᱩᱭᱞᱮᱱ",
      "ᱟᱟᱨ"
    ],
    [
      "ᱯᱷᱮᱰ",
      "ᱟᱛ"
    ],
    [
      "ᱯᱩᱞ",
      "ᱤᱥ"
    ],
    [
      "ᱟ",
      "\""
    ],
    [
      "ᱚᱜ",
      "ᱼ"
    ],
    [
      "ᱢ",
      "ᱟᱹ"
    ],
    [
      "ᱯᱚ",
      "ᱭ"
    ],
    [
      "ᱢᱟᱱ",
      "ᱟᱣ"
    ],
    [
      "ᱚᱜ",
      "ᱠᱟᱱ"
    ],
    [
      "ᱟᱨ",
      "ᱵᱟᱝ"
    ],
    [
      "ᱯᱟᱱ",
      "ᱛᱷ"
    ],
    [
      "ᱢ",
      "ᱚᱨ"
    ],
    [
      "ᱠ",
      "ᱩᱨᱩᱢᱩᱴ"
    ],
    [
      "ᱚᱱ",
      "ᱤ"
    ],
    [
      "ᱥᱚᱢ",
      "ᱟᱱ"
    ],
    [
      "ᱦᱤᱞ",
      "ᱳᱜ"
    ],
    [
      "ᱫᱟᱲᱮᱭᱟᱜ",
      "ᱼᱟ,"
    ],
    [
      "ᱜ",
      "ᱟᱣ"
    ],
    [
      "ᱝᱜ",
      "ᱚᱞ"
    ],
    [
      "ᱵᱟᱡ",
      "ᱟᱨ"
    ],
    [
      "ᱱ",
      "ᱟᱶ"
    ],
    [
      "ᱛᱟᱦ",
      "ᱮᱫ"
    ],
    [
      "ᱦᱚ",
      "ᱞ"
    ],
    [
      "ᱫᱚ",
      "ᱛ"
    ],
    [
      "ᱞ",
      "ᱤᱥ"
    ],
    [
      "ᱩᱪ",
      "ᱟᱹᱲ"
    ],
    [
      "ᱡᱚ",
      "ᱲᱟᱣ"
    ],
    [
      "ᱟ",
      "ᱨᱮᱱᱟᱜ"
    ],
    [
      "ᱟᱠᱟᱫ",
      "ᱟᱟᱨ"
    ],
    [
      "ᱫᱚ",
      "ᱢᱤᱫ"
    ],
    [
      "ᱩᱱ",
      "ᱰ"
    ],
    [
      "ᱚᱞ",
      "ᱤᱢ"
    ],
    [
      "ᱵᱤ",
      "ᱠ"
    ],
    [
      "ᱵ",
      "ᱳᱣ"
    ],
    [
      "ᱫ",
      "ᱚᱱᱚᱣ"
    ],
    [
      "ᱥᱚᱛ",
      "ᱟᱵᱽ"
    ],
    [
      "ᱫ",
      "ᱟᱲ"
    ],
    [
      "ᱮᱱ",
      "ᱟᱜ"
    ],
    [
      "ᱟᱱ",
      "ᱟᱣ"
    ],
    [
      "ᱢᱮᱱ",
      "ᱴ"
    ],
    [
      "ᱦᱚ",
      "ᱯᱚᱱ"
    ],
    [
      "ᱠᱷᱨᱤᱥᱴ",
      "ᱟᱵᱫᱚ"
    ],
    [
      "ᱟᱹ",
      "ᱨᱮ"
    ],
    [
      "ᱞ",
      "ᱟᱠᱷ"
    ],
    [
      "ᱟ",
      "."
    ],
    [
      "ᱦᱳᱭᱳᱜ",
      "ᱼᱟ᱾</w>"
    ],
    [
      "ᱟᱱ",
      "ᱮ"
    ],
    [
      "ᱠᱷ",
      "ᱮᱛ"
    ],
    [
      "ᱜᱤ",
      "ᱰᱤ"
    ],
    [
      "ᱞᱤ",
      "ᱜᱽ"
    ],
    [
      "ᱵᱤ",
      "ᱡᱚᱭ"
    ],
    [
      "ᱴᱷᱟᱶ",
      "ᱨᱮ"
    ],
    [
      "ᱡᱟᱣ",
      "ᱜᱮ"
    ],
    [
      "ᱩᱨ",
      "ᱱᱟᱢᱮᱱ"
    ],
    [
      "ᱚᱱ",
      "ᱟᱨᱮᱭᱟᱜ"
    ],
    [
      "ᱠᱷᱚ",
      "ᱵᱚᱨ"
    ],
    [
      "ᱵᱚ",
      "ᱦᱚᱜ"
    ],
    [
      "ᱜᱤᱨ",
      "ᱟᱹᱵ"
    ],
    [
      "ᱡᱮ",
      "ᱜᱮᱛ"
    ],
    [
      "ᱤ",
      "ᱣ"
    ],
    [
      "ᱞ",
      "ᱟᱢ"
    ],
    [
      "ᱟᱭ",
      "ᱤᱱ"
    ],
    [
      "ᱵᱚ",
      "ᱸᱜ"
    ],
    [
      "ᱦᱚᱲ",
      "ᱟᱜ"
    ],
    [
      "ᱮᱱ",
      "ᱮᱞ"
    ],
    [
      "ᱦᱚᱱᱚᱛ",
      "ᱨᱮᱭᱟᱜ"
    ],
    [
      "ᱪ",
      "ᱟᱼ"
    ],
    [
      "ᱵᱟᱡ",
      "ᱮᱴ"
    ],
    [
      "ᱱᱚ",
      "ᱵᱷ"
    ],
    [
      "ᱤᱥ",
      "ᱚᱱ"
    ],
    [
      "ᱨᱮ",
      "ᱢᱤᱫ"
    ],
    [
      "ᱜ",
      "ᱚᱱ"
    ],
    [
      "ᱛᱟᱦᱮᱸ",
      "᱾</w>"
    ],
    [
      "ᱵᱷ",
      "ᱚ"
    ],
    [
      "᱒",
      "᱒"
    ],
    [
      "ᱦ",
      "ᱩᱱᱟᱹᱨ"
    ],
    [
      "ᱢᱮᱱᱟᱜ",
      "ᱼᱟ,ᱡᱟᱦᱟᱸ"
    ],
    [
      "ᱛᱟᱦᱮᱱ",
      "ᱟ,"
    ],
    [
      "ᱢ",
      "ᱩᱨ"
    ],
    [
      "ᱤ",
      "ᱵ"
    ],
    [
      "ᱥᱟᱹ",
      "ᱜᱤᱧ"
    ],
    [
      "ᱦᱟᱨ",
      "ᱟᱣ"
    ],
    [
      "ᱨᱤ",
      "ᱥ"
    ],
    [
      "ᱛᱟᱦ",
      "ᱮ"
    ],
    [
      "ᱮ",
      "ᱠᱷ"
    ],
    [
      "ᱡᱚᱯ",
      "ᱲᱟᱣ"
    ],
    [
      "ᱯᱟᱹᱛ",
      "ᱭ"
    ],
    [
      "ᱟᱵᱮ",
      "ᱜᱚᱨ"
    ],
    [
      "ᱟᱛ",
      "ᱤᱨ"
    ],
    [
      "ᱟᱯᱷ",
      "ᱟᱹᱫ"
    ],
    [
      "ᱵᱷᱟᱨᱚᱛ",
      "ᱤᱭᱟᱹ"
    ],
    [
      "ᱤᱭ",
      "ᱟᱢ"
    ],
    [
      "ᱫᱩ",
      "ᱞᱟᱹᱲ"
    ],
    [
      "ᱜᱟᱹ",
      "ᱦᱤᱨ"
    ],
    [
      "ᱟᱫ",
      "ᱚᱱ"
    ],
    [
      "ᱩᱨᱜ",
      "ᱟᱹᱱ"
    ],
    [
      "ᱵ",
      "ᱮᱫ"
    ],
    [
      "ᱜᱟᱱ",
      "ᱚᱜᱼᱟ᱾</w>"
    ],
    [
      "ᱵᱤᱡ",
      "ᱽ"
    ],
    [
      "ᱯ",
      "ᱳᱱ"
    ],
    [
      "ᱨᱮ",
      "ᱠᱚᱨ"
    ],
    [
      "ᱩᱣ",
      "ᱟᱨᱤ"
    ],
    [
      "ᱵᱷ",
      "ᱟᱵ"
    ],
    [
      "ᱦ",
      "ᱚᱱ"
    ],
    [
      "ᱩᱨ",
      "ᱩ"
    ],
    [
      "ᱸ",
      "ᱰ"
    ],
    [
      "ᱩᱠ",
      "ᱛᱤ"
    ],
    [
      "ᱟᱢᱮᱱ",
      "ᱟᱜ"
    ],
    [
      "ᱠᱮᱨ",
      "ᱟᱞ"
    ],
    [
      "ᱠᱚ",
      "ᱢᱮᱛ"
    ],
    [
      "ᱟᱭ",
      "ᱳ"
    ],
    [
      "ᱥᱮᱫ",
      "ᱟᱭ"
    ],
    [
      "ᱢᱩᱬ",
      "ᱩᱛ"
    ],
    [
      "ᱟᱫ",
      "ᱮᱥ"
    ],
    [
      "ᱥ",
      "ᱩᱞ"
    ],
    [
      "ᱟᱪ",
      "ᱮᱫ"
    ],
    [
      "ᱰ",
      "ᱩ"
    ],
    [
      "ᱥᱚ",
      "ᱦᱚᱨ"
    ],
    [
      "ᱠᱟᱥ",
      "ᱢᱤᱨ"
    ],
    [
      "ᱞᱮᱠᱟᱛᱮ",
      "ᱠᱚ"
    ],
    [
      "ᱩ",
      "ᱪᱟᱹᱫ"
    ],
    [
      "ᱨᱮᱭᱟᱜ",
      "ᱮᱛᱚᱦᱚᱵ"
    ],
    [
      "ᱛ",
      "ᱩᱞ"
    ],
    [
      "ᱚ",
      "ᱛᱮ"
    ],
    [
      "ᱟᱢᱮᱱ",
      "ᱟᱜᱼᱟ᱾</w>"
    ],
    [
      "ᱠᱟᱱ",
      "ᱟᱟᱨ"
    ],
    [
      "ᱞᱮᱫ",
      "ᱟ"
    ],
    [
      "ᱫ",
      "ᱟᱹᱨ"
    ],
    [
      "ᱦᱚ",
      "ᱫ"
    ],
    [
      "ᱚᱞᱤᱢ",
      "ᱯᱤᱠ"
    ],
    [
      "ᱟᱵᱮᱱ",
      "ᱟᱣ"
    ],
    [
      "ᱢ",
      "ᱤᱱ"
    ],
    [
      "ᱨᱮ",
      "ᱡᱤ"
    ],
    [
      "ᱥᱚ",
      "ᱯᱷ"
    ],
    [
      "ᱩᱠ",
      "ᱩᱢ"
    ],
    [
      "ᱠᱳ",
      "ᱣ"
    ],
    [
      "ᱢᱩ",
      "ᱞ"
    ],
    [
      "ᱴᱚᱴᱷ",
      "ᱟᱨᱮᱭᱟᱜ"
    ],
    [
      "ᱥᱮ",
      "ᱯ"
    ],
    [
      "ᱯᱨ",
      "ᱳ"
    ],
    [
      "ᱯᱚᱨᱤ",
      "ᱥᱮ"
    ],
    [
      "ᱸᱜ",
      "ᱤᱱ"
    ],
    [
      "ᱵᱮᱱᱟᱣ",
      "ᱞᱮᱱᱟ᱾</w>"
    ],
    [
      "ᱵᱷᱤᱛ",
      "ᱤᱨ"
    ],
    [
      "ᱠᱷᱮᱞᱳᱰ",
      "ᱤᱭᱟᱹᱠᱚ"
    ],
    [
      "ᱠᱳ",
      "ᱢᱯᱟᱱ"
    ],
    [
      "ᱜᱷ",
      "ᱟᱸ"
    ],
    [
      "ᱜ",
      "ᱤᱛ"
    ],
    [
      "ᱡᱳᱜ",
      "ᱟᱡ"
    ],
    [
      "ᱤᱫ",
      "ᱤᱭ"
    ],
    [
      "ᱩᱴᱤ",
      "ᱝ"
    ],
    [
      "ᱮᱱ",
      "ᱮᱡ"
    ],
    [
      "ᱮᱱ",
      "ᱛᱮ"
    ],
    [
      "᱒᱐᱑",
      "᱘"
    ],
    [
      "ᱫ",
      "ᱨᱚ"
    ],
    [
      "ᱮ",
      "ᱯᱷ"
    ],
    [
      "ᱤᱨ",
      "ᱟᱹᱞ"
    ],
    [
      "ᱦᱳᱭᱳᱜ",
      "ᱠᱟᱱ"
    ],
    [
      "ᱥᱟᱢ",
      "ᱟᱱ"
    ],
    [
      "ᱛᱮ",
      "ᱞᱮ"
    ],
    [
      "ᱠᱚ",
      "ᱞᱮ"
    ],
    [
      "ᱟᱠ",
      "ᱳ"
    ],
    [
      "ᱛᱚ",
      "ᱵᱮ"
    ],
    [
      "ᱪ",
      "ᱚᱠ"
    ],
    [
      "ᱵᱚᱨ",
      "ᱜ"
    ],
    [
      "ᱦ",
      "ᱟᱹᱭ"
    ],
    [
      "ᱴ",
      "ᱨ"
    ],
    [
      "ᱠᱤ",
      "ᱢ"
    ],
    [
      "ᱯᱚ",
      "ᱥ"
    ],
    [
      "ᱯ",
      "ᱚᱛ"
    ],
    [
      "ᱮ",
      "ᱹ"
    ],
    [
      "ᱥᱤ",
      "ᱠᱷ"
    ],
    [
      "ᱚᱸ",
      "ᱰᱮ"
    ],
    [
      "ᱚ",
      "ᱠᱚᱭ"
    ],
    [
      "ᱪᱚᱨ",
      "ᱤᱛ"
    ],
    [
      "ᱵ",
      "ᱚᱱᱚ"
    ],
    [
      "ᱯᱨ",
      "ᱚᱛᱤ"
    ],
    [
      "ᱵᱮ",
      "ᱠ"
    ],
    [
      "ᱨᱤ",
      "ᱦᱤᱴ"
    ],
    [
      "ᱧ",
      "ᱟᱯᱟᱢ"
    ],
    [
      "᱒᱐᱑",
      "᱗"
    ],
    [
      "ᱢ",
      "ᱮᱞ"
    ],
    [
      "ᱟᱠ",
      "ᱤᱱ"
    ],
    [
      "ᱪᱮᱫ",
      "ᱟᱜ"
    ],
    [
      ",",
      "ᱟᱢ"
    ],
    [
      "ᱪᱚᱞᱚᱛᱪᱤᱛᱟᱹᱨ",
      "ᱨᱮ"
    ],
    [
      "ᱢ",
      "ᱩᱜᱷᱚᱞ"
    ],
    [
      "ᱟᱢ",
      "ᱩᱫᱽᱨᱮ"
    ],
    [
      "ᱡ",
      "ᱩᱞ"
    ],
    [
      "ᱟ",
      "("
    ],
    [
      "ᱢᱮ",
      "ᱪ"
    ],
    [
      "ᱪᱤᱛᱟᱹᱨ",
      "ᱨᱮ"
    ],
    [
      "ᱨᱮ",
      "᱾</w>"
    ],
    [
      "ᱵᱩ",
      "ᱡᱷᱟᱹᱣ"
    ],
    [
      "ᱢ",
      "ᱚᱞ"
    ],
    [
      "ᱨ",
      "ᱟᱜ"
    ],
    [
      "ᱜ",
      "ᱳᱣ"
    ],
    [
      "ᱠᱚᱢ",
      "ᱚᱱ"
    ],
    [
      "ᱥᱚᱛ",
      "ᱚᱠ"
    ],
    [
      "ᱥ",
      "ᱤᱫ"
    ],
    [
      "ᱫᱟᱨ",
      "ᱦ"
    ],
    [
      "ᱫᱚ",
      "ᱵᱷᱟᱨᱚᱛᱨᱮᱭᱟᱜ"
    ],
    [
      "ᱯᱷ",
      "ᱳᱱ"
    ],
    [
      "ᱫᱟᱲᱮᱭᱟᱜ",
      "ᱼᱟ"
    ],
    [
      "ᱡᱤᱭᱟᱹ",
      "ᱞᱤ"
    ],
    [
      "ᱪᱟᱼ",
      "ᱪᱟᱞᱟᱣ"
    ],
    [
      "ᱛᱤ",
      "ᱠ"
    ],
    [
      "ᱹ",
      "ᱮᱞ"
    ],
    [
      "ᱴ",
      "ᱟᱠ"
    ],
    [
      "ᱛ",
      "ᱳ"
    ],
    [
      "ᱛᱟᱹᱞᱤ",
      "ᱠᱟ"
    ],
    [
      "᱒",
      "᱔"
    ],
    [
      "ᱴᱮ",
      "ᱦᱟᱴ"
    ],
    [
      "ᱦᱚᱲ",
      "ᱠᱚᱣᱟᱜ"
    ],
    [
      "ᱨᱟᱡ",
      "ᱚᱥᱛᱷᱟᱱ"
    ],
    [
      "ᱛᱚᱞ",
      "ᱟᱥ"
    ],
    [
      "ᱥ",
      "ᱱᱚ"
    ],
    [
      "ᱵᱮᱱᱟᱣ",
      "ᱞᱮᱫᱟ᱾</w>"
    ],
    [
      "ᱠᱷ",
      "ᱤ"
    ],
    [
      "ᱩᱢ",
      "ᱟᱹᱱ"
    ],
    [
      "ᱥᱚᱨᱠᱟᱨ",
      "ᱤ"
    ],
    [
      "ᱥᱟ",
      "ᱨᱮᱡ"
    ],
    [
      "ᱯᱟᱸ",
      "ᱡᱟ"
    ],
    [
      "ᱤᱭᱩᱨ",
      "ᱳᱯ"
    ],
    [
      "ᱥᱮᱨᱢ",
      "ᱟᱨᱮ"
    ],
    [
      "ᱨᱩᱠᱷ",
      "ᱤᱭᱟᱹ"
    ],
    [
      "ᱟᱦ",
      "ᱤ"
    ],
    [
      "ᱞᱟᱹᱜᱤᱫ",
      "ᱮ"
    ],
    [
      "ᱥᱟ",
      "ᱡᱟᱣ"
    ],
    [
      "ᱦᱚᱪ",
      "ᱚ"
    ],
    [
      "ᱛᱟᱦᱮᱸᱠᱟᱱ",
      "ᱟᱟᱨ"
    ],
    [
      "᱑᱙",
      "᱕"
    ],
    [
      "ᱢ",
      "ᱤᱡ"
    ],
    [
      "ᱟᱢ",
      "ᱚᱱ"
    ],
    [
      "ᱹ",
      "᱕"
    ],
    [
      "ᱥᱟᱶ",
      "ᱥᱟᱶᱛᱮ"
    ],
    [
      "ᱫᱤᱥᱚᱢ",
      "ᱨᱮᱭᱟᱜ"
    ],
    [
      "ᱟᱹᱜ",
      "ᱩ"
    ],
    [
      "ᱡᱤᱨ",
      "ᱟᱹᱣ"
    ],
    [
      "ᱯᱷᱮᱰ",
      "ᱟᱨᱮᱥᱚᱱ"
    ],
    [
      "ᱠᱷ",
      "ᱚᱞ"
    ],
    [
      "ᱚᱛ",
      "ᱛᱚ"
    ],
    [
      "ᱢᱚᱦᱟᱨ",
      "ᱟᱥᱴᱨᱚ"
    ],
    [
      "ᱟᱸ",
      "ᱰ"
    ],
    [
      "ᱞᱟᱹᱭ",
      "ᱥᱚᱫᱚᱨ"
    ],
    [
      "ᱦᱚ",
      "ᱠᱤ"
    ],
    [
      "ᱨ",
      "ᱚᱜ"
    ],
    [
      "ᱨ",
      "ᱟᱠᱷ"
    ],
    [
      "ᱵᱷ",
      "ᱮᱡ"
    ],
    [
      "ᱤ",
      "ᱰ"
    ],
    [
      "ᱤᱡ",
      "ᱮ"
    ],
    [
      "ᱛᱟᱭ",
      "ᱟ᱾</w>"
    ],
    [
      "ᱥᱚᱛᱟᱵᱽ",
      "ᱫᱤ"
    ],
    [
      "ᱢᱤᱫ",
      "ᱴᱮᱱ"
    ],
    [
      "ᱞᱟᱹ",
      "ᱜᱤ"
    ],
    [
      "ᱱ",
      "ᱟᱴᱚᱠ"
    ],
    [
      "ᱟᱡ",
      "ᱷ"
    ],
    [
      "ᱯᱷᱟᱹᱫ",
      "ᱽ"
    ],
    [
      "ᱩᱱ",
      "ᱫᱚ"
    ],
    [
      "᱑",
      "᱐᱐"
    ],
    [
      "ᱪᱚᱞᱚᱛᱪᱤᱛᱟᱹᱨ",
      "ᱨᱮᱭᱟᱜ"
    ],
    [
      "ᱜᱷᱟᱨ",
      "ᱚᱸ"
    ],
    [
      "ᱩᱨ",
      "ᱭᱟᱹ"
    ],
    [
      "ᱠᱳ",
      "ᱴ"
    ],
    [
      "ᱟᱢ",
      "ᱡᱚᱫᱤ"
    ],
    [
      "ᱡᱤᱛ",
      "ᱟᱹᱣ"
    ],
    [
      "ᱫ",
      "ᱟᱱ"
    ],
    [
      "ᱵᱚᱫᱚᱞ",
      "ᱛᱮ"
    ],
    [
      "ᱵᱤᱫᱷ",
      "ᱟᱱ"
    ],
    [
      "ᱥᱟᱢ",
      "ᱲᱟᱣ"
    ],
    [
      "ᱠᱚᱨ",
      "ᱚᱱ"
    ],
    [
      "ᱯᱟᱴᱷ",
      "ᱚᱠ"
    ],
    [
      "ᱢᱟᱨᱠᱤᱱ",
      "ᱡᱩᱠᱛᱚᱨ"
    ],
    [
      "ᱴ",
      "ᱩᱨᱱᱟᱢᱮᱱ"
    ],
    [
      "ᱢᱚᱱ",
      "ᱫᱤᱨ"
    ],
    [
      "ᱩᱵ",
      "ᱤᱫᱷ"
    ],
    [
      "ᱰᱤ",
      "ᱥᱮᱢ"
    ],
    [
      "ᱵᱮᱱᱟᱣ",
      "ᱟᱠᱟᱱᱟ᱾</w>"
    ],
    [
      "ᱵᱤ",
      "ᱥᱮᱥ"
    ],
    [
      "ᱯ",
      "ᱟᱣ"
    ],
    [
      "ᱴ",
      "ᱚᱱ"
    ],
    [
      "ᱠᱷᱟᱹᱛᱤᱨ",
      "ᱛᱮ"
    ],
    [
      "ᱚᱲᱟᱜ",
      "ᱨᱮ"
    ],
    [
      "ᱡᱳᱜ",
      "ᱽ"
    ],
    [
      "ᱞᱟᱹᱜᱤᱫ",
      "ᱠᱚ"
    ],
    [
      "ᱨ",
      "ᱟᱯ"
    ],
    [
      "ᱩᱫ",
      "ᱜᱟᱹᱣ"
    ],
    [
      "ᱤᱡ",
      "ᱽ"
    ],
    [
      "ᱟᱫ",
      "ᱽ"
    ],
    [
      "ᱩᱴ",
      "ᱟᱹ"
    ],
    [
      "ᱨᱮ",
      "ᱫᱚ"
    ],
    [
      "ᱮᱱ",
      "ᱦᱚᱸ"
    ],
    [
      "ᱨᱳ",
      "ᱥ"
    ],
    [
      "ᱚᱠ",
      "ᱴᱳ"
    ],
    [
      "ᱰᱤ",
      "ᱜᱽ"
    ],
    [
      "ᱹ",
      "ᱯᱤ"
    ],
    [
      "ᱢᱚᱱ",
      "ᱮᱭ"
    ],
    [
      "ᱩᱰ",
      "ᱩᱠ"
    ],
    [
      "ᱩᱱ",
      "ᱠᱚ"
    ],
    [
      "ᱨᱤ",
      "ᱛ"
    ],
    [
      "ᱩᱰᱟᱹᱱ",
      "ᱟᱰ"
    ],
    [
      "ᱢᱟᱨ",
      "ᱪ"
    ],
    [
      "ᱴ",
      "ᱚ"
    ],
    [
      "ᱠᱤ",
      "ᱪ"
    ],
    [
      "ᱧ",
      "ᱤᱫ"
    ],
    [
      "ᱨᱮ",
      "ᱪ"
    ],
    [
      "᱒",
      "᱘"
    ],
    [
      "ᱥᱟᱜ",
      "ᱟᱲ"
    ],
    [
      "ᱯᱷᱤᱞ",
      "ᱤᱢ"
    ],
    [
      "ᱜᱚᱲ",
      "ᱚᱭ"
    ],
    [
      "ᱝ",
      "ᱠ"
    ],
    [
      "ᱛᱟᱞ",
      "ᱟᱢᱟᱞ"
    ],
    [
      "ᱰ",
      "ᱤᱥ"
    ],
    [
      "ᱩᱥ",
      "ᱟᱹᱨ"
    ],
    [
      "ᱯᱚᱨ",
      "ᱤᱥ"
    ],
    [
      "ᱵ",
      "ᱟᱛ"
    ],
    [
      "ᱱᱚᱵᱷ",
      "ᱮᱢᱵᱚᱨ"
    ],
    [
      "ᱲ",
      "ᱟᱜ"
    ],
    [
      "ᱜᱟᱛ",
      "ᱟᱠ"
    ],
    [
      "ᱰᱮ",
      "ᱠᱷᱟᱱ"
    ],
    [
      "ᱯᱩᱨ",
      "ᱩᱵ"
    ],
    [
      "ᱫᱷ",
      "ᱩ"
    ],
    [
      "ᱵᱷ",
      "ᱟᱭ"
    ],
    [
      "ᱤ",
      "ᱨᱮᱭᱟᱜ"
    ],
    [
      "ᱟᱢ",
      "ᱟ᱾</w>"
    ],
    [
      "᱒᱐᱑",
      "᱖"
    ],
    [
      "ᱟ,ᱡᱟᱦᱟᱸ",
      "ᱭ"
    ],
    [
      "ᱨᱟᱡᱽ",
      "ᱟᱹᱨᱤ"
    ],
    [
      "ᱰᱤᱥᱮᱢ",
      "ᱵᱚᱨ"
    ],
    [
      "ᱴᱷᱤ",
      "ᱠᱟᱹ"
    ],
    [
      "ᱛ",
      "ᱟᱹᱨᱤ"
    ],
    [
      "ᱠᱟᱹᱨᱤ",
      "ᱜᱚᱞ"
    ],
    [
      "ᱠᱷ",
      "ᱩ"
    ],
    [
      "ᱥᱤ",
      "ᱠᱟᱹᱨ"
    ],
    [
      "ᱵᱳᱨ",
      "ᱰ"
    ],
    [
      "ᱠᱮᱴ",
      "ᱮᱡ"
    ],
    [
      "ᱠᱮᱨ",
      "ᱚᱞ"
    ],
    [
      "ᱫᱷᱚ",
      "ᱯᱨᱚᱫᱮᱥ"
    ],
    [
      ",ᱡᱟᱦᱟᱸ",
      "ᱭ"
    ],
    [
      "ᱤᱛ",
      "ᱟᱦᱮᱸ"
    ],
    [
      "ᱟᱨ",
      "ᱱ"
    ],
    [
      "ᱥᱟᱨ",
      "ᱵᱷᱟᱨ"
    ],
    [
      "ᱯ",
      "ᱩᱛ"
    ],
    [
      "ᱨ",
      "ᱩ"
    ],
    [
      "ᱟᱣ",
      "ᱟᱜ"
    ],
    [
      "᱒",
      "᱓"
    ],
    [
      "ᱮᱭ",
      "ᱟᱨ"
    ],
    [
      "ᱟᱫᱚ",
      "ᱦᱚ"
    ],
    [
      "ᱥᱮ",
      "ᱵᱟᱝ"
    ],
    [
      "ᱟᱹᱠᱷ",
      "ᱩᱲ"
    ],
    [
      "ᱫ",
      "ᱤᱠ"
    ],
    [
      "ᱟᱢ",
      "ᱞ"
    ],
    [
      "ᱛᱩ",
      "ᱞᱟᱹ"
    ],
    [
      "ᱢᱚᱱ",
      "ᱛᱨᱤ"
    ],
    [
      "ᱦᱩᱭᱩᱜ",
      "ᱼᱟᱟᱨ"
    ],
    [
      "ᱯᱟᱦ",
      "ᱴ"
    ],
    [
      "ᱢ",
      "ᱮᱫ"
    ],
    [
      "ᱚᱱᱚ",
      "ᱶ"
    ],
    [
      "ᱟᱯ",
      "ᱮ"
    ],
    [
      "ᱵᱟᱨᱭ",
      "ᱟ"
    ],
    [
      "ᱵᱟᱯ",
      "ᱞ"
    ],
    [
      "ᱵᱚᱨᱜ",
      "ᱚᱠ"
    ],
    [
      "ᱨᱟᱡᱽ",
      "ᱜᱟᱲ"
    ],
    [
      "ᱫ",
      "ᱟᱥ"
    ],
    [
      "ᱟᱫ",
      "ᱟᱨ"
    ],
    [
      "ᱦᱚᱸ",
      "ᱭ"
    ],
    [
      "᱒",
      "᱖"
    ],
    [
      "ᱧᱟᱢ",
      "ᱞᱮᱫᱟ᱾</w>"
    ],
    [
      "ᱤᱭ",
      "ᱳ"
    ],
    [
      "ᱤᱱ",
      "ᱴᱟᱨ"
    ],
    [
      "ᱥᱟᱫᱷᱟᱨ",
      "ᱚᱱᱚᱛ"
    ],
    [
      "ᱞᱮᱫ",
      "ᱟᱠᱚ᱾</w>"
    ],
    [
      "ᱢᱮ",
      "ᱴ"
    ],
    [
      "ᱥ",
      "ᱩᱫ"
    ],
    [
      "ᱤᱱ",
      "ᱤ"
    ],
    [
      "ᱤᱛ",
      "ᱚ"
    ],
    [
      "ᱞᱟᱹᱜᱤᱫ",
      ","
    ],
    [
      "ᱫᱤᱱ",
      "ᱟᱹᱢ"
    ],
    [
      "ᱥᱤᱝ",
      "ᱦᱚ"
    ],
    [
      "ᱫᱚ",
      "ᱠᱟᱱ"
    ],
    [
      "ᱩᱭᱦᱟᱹᱨ",
      "ᱵᱷᱟᱵᱽ"
    ],
    [
      "ᱫᱚ",
      "\""
    ],
    [
      "ᱮᱨ",
      "ᱟᱜ"
    ],
    [
      "ᱵᱟᱲ",
      "ᱟᱭ"
    ],
    [
      "ᱰ",
      "ᱚᱜᱚᱨ"
    ],
    [
      "ᱟᱵᱟᱝ",
      "ᱠᱷᱟᱱ"
    ],
    [
      "ᱵᱤᱨᱩᱫᱷ",
      "ᱨᱮ"
    ],
    [
      "ᱚᱨ",
      "ᱤᱠ"
    ],
    [
      "ᱵᱟᱨ",
      "ᱦᱮ"
    ],
    [
      "ᱜ",
      "ᱩᱯ"
    ],
    [
      "ᱚᱠᱴᱳ",
      "ᱵᱚᱨ"
    ],
    [
      "᱒",
      ","
    ],
    [
      "ᱥᱤᱭ",
      "ᱮᱥᱚᱱ"
    ],
    [
      "ᱞᱤ",
      "ᱜ"
    ],
    [
      "ᱟᱹᱭ",
      "ᱠᱟᱹᱣ"
    ],
    [
      "ᱨ",
      "ᱚᱠ"
    ],
    [
      "ᱟᱨᱮ",
      "ᱢ"
    ],
    [
      "ᱫᱮ",
      "ᱵ"
    ],
    [
      "ᱢᱩ",
      "ᱠᱷ"
    ],
    [
      "ᱟᱯ",
      "ᱚᱨ"
    ],
    [
      "ᱨᱤ",
      "ᱡᱷᱟᱹᱣ"
    ],
    [
      "ᱟ",
      "ᱪᱷ"
    ],
    [
      "ᱢᱮᱱᱟᱜ",
      "ᱠᱚᱣᱟ᱾</w>"
    ],
    [
      "ᱩᱣ",
      "ᱟᱹ"
    ],
    [
      "ᱯᱟᱧᱡ",
      "ᱟᱵ"
    ],
    [
      "ᱥᱟ",
      "ᱪᱟᱨ"
    ],
    [
      "ᱛᱷ",
      "ᱤᱨ"
    ],
    [
      "ᱫᱚ",
      "ᱟᱹᱰᱤ"
    ],
    [
      "ᱮ",
      "ᱠᱟᱣᱩᱱ"
    ],
    [
      "ᱛᱟᱢᱤᱞᱱ",
      "ᱟᱲ"
    ],
    [
      "ᱧᱩᱛᱩᱢᱛᱮ",
      "ᱢᱤᱫᱴᱟᱝ"
    ],
    [
      "ᱛᱚ",
      "ᱦᱚ"
    ],
    [
      "ᱢᱚᱬᱮ",
      "ᱜᱚᱴᱟᱝ"
    ],
    [
      "ᱴ",
      "ᱟᱲᱟᱝ"
    ],
    [
      "ᱵᱚᱱᱚ",
      "ᱫᱚᱞ"
    ],
    [
      "ᱵ",
      "ᱟᱜᱽ"
    ],
    [
      "ᱵ",
      "ᱩᱫ"
    ],
    [
      "ᱞᱤ",
      "ᱸᱜᱤᱱ"
    ],
    [
      "ᱱᱟᱜ",
      "ᱟᱨ"
    ],
    [
      "ᱠᱷ",
      "ᱚᱸ"
    ],
    [
      "ᱚ",
      "ᱡᱽ"
    ],
    [
      "ᱨᱮ",
      "ᱴ"
    ],
    [
      "ᱨ",
      "ᱟᱵᱟᱝ"
    ],
    [
      "ᱞᱮᱱ",
      "ᱟ"
    ],
    [
      "ᱠᱷᱨᱤᱥᱴ",
      "ᱟᱵᱽᱫᱚ"
    ],
    [
      "ᱦ",
      "ᱟᱦ"
    ],
    [
      "ᱪᱷᱟᱹᱲ",
      "ᱮᱧᱟᱢ"
    ],
    [
      "ᱟᱹᱞ",
      "ᱩ"
    ],
    [
      "ᱦᱩᱭᱩᱜᱛᱟᱢ",
      "ᱟ᱾</w>"
    ],
    [
      "ᱥᱟᱶ",
      "ᱦᱮᱫ"
    ],
    [
      "ᱥ",
      "ᱩᱪ"
    ],
    [
      "᱒᱐",
      "᱑᱙"
    ],
    [
      "ᱭ",
      "ᱟᱹᱨ"
    ],
    [
      "ᱱᱚᱣ",
      "ᱟᱜ"
    ],
    [
      "ᱟᱢ",
      "ᱳ"
    ],
    [
      "ᱟᱢ",
      "ᱚ"
    ],
    [
      "ᱟᱠ",
      "ᱤ"
    ],
    [
      "ᱰᱤᱜᱽ",
      "ᱨᱤ"
    ],
    [
      "ᱯᱟᱲ",
      "ᱦᱟᱣ"
    ],
    [
      "ᱥᱮᱨᱢ",
      "ᱟᱨᱮᱭᱟᱜ"
    ],
    [
      "ᱟᱦ",
      "ᱮᱱ"
    ],
    [
      "ᱠ",
      "ᱩᱭ"
    ],
    [
      "ᱟᱡᱟᱦᱟᱸ",
      "ᱨᱮ"
    ],
    [
      "ᱯᱟᱹᱛᱭ",
      "ᱟᱹᱣ"
    ],
    [
      "ᱟᱯ",
      "ᱟᱱ"
    ],
    [
      "ᱡ",
      "ᱟᱞ"
    ],
    [
      "ᱞᱤ",
      "ᱢ"
    ],
    [
      "ᱥᱮᱱ",
      "ᱟᱯᱷᱟᱹᱫ"
    ],
    [
      "ᱴ",
      "ᱮᱢᱵᱚᱨ"
    ],
    [
      "ᱩᱛᱛᱚᱨ",
      "ᱯᱨᱚᱫᱮᱥ"
    ],
    [
      "ᱜᱟᱶ",
      "ᱛ"
    ],
    [
      "᱒",
      "᱗"
    ],
    [
      "ᱟᱹᱨᱩ",
      "ᱯᱷᱮᱨᱟᱣ"
    ],
    [
      "ᱩ",
      "ᱠᱩ"
    ],
    [
      "ᱤᱱ",
      "ᱫᱳ"
    ],
    [
      "ᱟᱠᱟᱫ",
      "ᱟ"
    ],
    [
      "ᱥᱴ",
      "ᱟᱨ"
    ],
    [
      "ᱠᱷᱚᱱ",
      "ᱟᱜ"
    ],
    [
      "ᱟᱨ",
      "ᱟᱢ"
    ],
    [
      "ᱟᱵ",
      "ᱚᱞ"
    ],
    [
      "ᱚ",
      "ᱵᱚ"
    ],
    [
      "ᱥᱚ",
      "ᱫ"
    ],
    [
      "ᱨᱮᱭᱟᱜ",
      "ᱱ"
    ],
    [
      "ᱨᱟᱡᱽ",
      "ᱡᱚ"
    ],
    [
      "ᱱᱚᱣ",
      "ᱟᱥ"
    ],
    [
      "ᱮ",
      "ᱠᱟᱞ"
    ],
    [
      "ᱨ",
      "ᱟᱛᱟᱝ"
    ],
    [
      "ᱨᱮᱭ",
      "ᱟᱲ"
    ],
    [
      "ᱹ",
      "ᱰᱤ"
    ],
    [
      "ᱥᱮ",
      "ᱹ"
    ],
    [
      "ᱩ",
      "ᱵᱽ"
    ],
    [
      "ᱟᱲᱮᱭᱟᱜ",
      "ᱼᱟ᱾</w>"
    ],
    [
      "ᱜᱚ",
      "ᱡᱽ"
    ],
    [
      "ᱟᱢ",
      "ᱮᱢ"
    ],
    [
      "ᱞ",
      "ᱤᱱ"
    ],
    [
      "ᱚᱱᱚᱞ",
      "ᱤᱭᱟᱹ"
    ],
    [
      "ᱠ",
      "ᱳᱭ"
    ],
    [
      "ᱝᱜ",
      "ᱨᱮᱥ"
    ],
    [
      "ᱨᱮᱭᱟᱜ",
      "ᱠᱚ"
    ],
    [
      "ᱤ",
      "ᱯᱩᱨ"
    ],
    [
      "ᱮᱠᱷ",
      "ᱮᱱ"
    ],
    [
      "ᱥᱮᱨᱣ",
      "ᱟᱟᱱᱟᱜ"
    ],
    [
      "ᱟᱡ",
      "ᱵᱟᱵ"
    ],
    [
      "ᱡᱟᱨ",
      "ᱯ"
    ],
    [
      "ᱠᱟ",
      "ᱯᱩᱨ"
    ],
    [
      "ᱫ",
      "ᱟᱹᱲ"
    ],
    [
      "ᱥ",
      "ᱩᱛ"
    ],
    [
      "ᱟᱥ",
      "ᱚᱱ"
    ],
    [
      "ᱨᱮᱭᱟᱜ",
      "ᱦᱟᱨ"
    ],
    [
      "ᱩᱱ",
      "ᱠᱤᱱ"
    ],
    [
      "ᱦ",
      "ᱳ"
    ],
    [
      "ᱠᱟ",
      "ᱴᱷ"
    ],
    [
      "ᱧᱟᱢ",
      "ᱟᱠᱟᱱᱟ᱾</w>"
    ],
    [
      "ᱜ",
      "ᱟᱹᱠᱷᱩᱲ"
    ],
    [
      "ᱵᱷᱟᱨᱚᱛ",
      "ᱤᱭ"
    ],
    [
      "ᱥᱮᱯ",
      "ᱴᱮᱢᱵᱚᱨ"
    ],
    [
      "ᱢ",
      "ᱩᱢᱵᱟᱭ"
    ],
    [
      "ᱳᱣ",
      "ᱟᱞ"
    ],
    [
      "ᱫᱚ",
      "ᱯ"
    ],
    [
      "ᱫ",
      "ᱟᱯ"
    ],
    [
      "ᱟᱱ",
      "ᱰ"
    ],
    [
      "ᱦᱤᱥᱟᱹᱵ",
      "ᱛᱮ"
    ],
    [
      "ᱢᱚᱦ",
      "ᱟ"
    ],
    [
      "ᱫᱷ",
      "ᱟᱹᱨ"
    ],
    [
      "ᱠᱚ",
      "ᱥᱟᱶ"
    ],
    [
      "ᱟᱡ",
      "ᱟᱸ"
    ],
    [
      "ᱚᱜ",
      "ᱼᱟ"
    ],
    [
      "ᱟᱨᱮ",
      "ᱭ"
    ],
    [
      "ᱵ",
      "ᱩᱡ"
    ],
    [
      "ᱵᱷ",
      "ᱟᱹ"
    ],
    [
      "ᱯᱤ",
      "ᱝ"
    ],
    [
      "ᱨᱟᱹᱥ",
      "ᱠᱟᱹ"
    ],
    [
      "ᱟᱝ",
      "ᱜ"
    ],
    [
      "ᱢᱩᱪᱟᱹᱫ",
      "ᱨᱮ"
    ],
    [
      "ᱰᱤ",
      "ᱴ"
    ],
    [
      "ᱵᱚᱨᱜᱚᱠ",
      "ᱤᱞ"
    ],
    [
      "ᱫᱷ",
      "ᱟᱨᱮ"
    ],
    [
      "ᱯᱟᱲ",
      "ᱟᱣ"
    ],
    [
      "ᱢᱮ",
      "ᱜᱷ"
    ],
    [
      "ᱫᱚᱲᱦ",
      "ᱟᱛᱮ"
    ],
    [
      "ᱢᱩ",
      "ᱠ"
    ],
    [
      "ᱢᱩᱥ",
      "ᱞᱟᱹ"
    ],
    [
      "ᱟᱱ",
      "ᱚᱣ"
    ],
    [
      "ᱦ",
      "ᱩᱠᱩᱢ"
    ],
    [
      "ᱟᱵ",
      "ᱚᱨ"
    ],
    [
      "ᱛᱷ",
      "ᱟᱹᱱ"
    ],
    [
      "ᱠᱮᱫ",
      "ᱟᱟᱨ"
    ],
    [
      "ᱠᱩ",
      "ᱠᱞᱤ"
    ],
    [
      "ᱛᱮ",
      "ᱞ"
    ],
    [
      "ᱤᱭᱟᱱ",
      "ᱥᱤᱯ"
    ],
    [
      "ᱥᱟᱥᱚᱱ",
      "ᱤᱭᱟᱹ"
    ],
    [
      "ᱟᱭᱢᱟ",
      "ᱞᱮᱠᱟᱱ"
    ],
    [
      "ᱱ",
      "ᱟᱠᱷ"
    ],
    [
      "ᱩᱱ",
      "ᱚᱠᱛᱚ"
    ],
    [
      "ᱵᱤᱡᱽ",
      "ᱞᱤ"
    ],
    [
      "ᱟᱱ",
      ","
    ],
    [
      "ᱟᱞ",
      "ᱚᱛ"
    ],
    [
      "ᱟᱦ",
      "ᱚᱨ"
    ],
    [
      "ᱨᱮᱭᱟᱜ",
      "ᱦᱤᱸᱥ"
    ],
    [
      "ᱟᱹ",
      "ᱥᱤ"
    ],
    [
      "ᱞᱮᱫ",
      "ᱠᱚᱣ"
    ],
    [
      "ᱡᱟᱦ",
      "ᱟᱨᱮ"
    ],
    [
      "ᱯ",
      "ᱟᱛ"
    ],
    [
      "ᱯᱚᱭ",
      "ᱮᱱᱴ"
    ],
    [
      "ᱦᱳᱭ",
      "ᱞᱮᱱᱟ᱾</w>"
    ],
    [
      "ᱯᱚ",
      "ᱫ"
    ],
    [
      "ᱠᱟ",
      "ᱯ"
    ],
    [
      ",",
      "ᱢᱤᱫᱴᱟᱝ"
    ],
    [
      "ᱜᱷᱟᱸ",
      "ᱨᱚ"
    ],
    [
      "ᱟᱹᱢ",
      "ᱤᱞ"
    ],
    [
      "ᱥᱚ",
      "ᱦᱮᱫ"
    ],
    [
      "ᱥᱮ",
      "ᱞᱮ"
    ],
    [
      "ᱪᱟᱸᱫᱳ",
      "ᱨᱮ"
    ],
    [
      "ᱟᱢ",
      "ᱡᱟᱦᱟᱸ"
    ],
    [
      "ᱦ",
      "ᱮᱢ"
    ],
    [
      "ᱡᱳᱭ",
      "ᱱᱚ"
    ],
    [
      "ᱪ",
      "ᱩᱠᱛᱤ"
    ],
    [
      "ᱠ",
      "ᱩᱨ"
    ],
    [
      "ᱢᱟᱨᱠᱤᱱᱡᱩᱠᱛᱚᱨ",
      "ᱟᱥᱴᱨᱚ"
    ],
    [
      "ᱨᱮ",
      "ᱰ"
    ],
    [
      "ᱢᱟᱨ",
      "ᱥᱟᱞ"
    ],
    [
      "ᱨᱮᱭᱟᱜ",
      "ᱯᱳᱭᱞᱳ"
    ],
    [
      "ᱥᱟᱵ",
      "ᱟᱫ"
    ],
    [
      "ᱦᱩᱭ",
      "ᱫᱟᱲᱮᱭᱟᱜᱼ"
    ],
    [
      "ᱠᱤ",
      "ᱨ"
    ],
    [
      "ᱵᱤ",
      "ᱦᱟᱨ"
    ],
    [
      "᱓",
      "᱕"
    ],
    [
      "ᱯᱩᱭ",
      "ᱞᱩ"
    ],
    [
      "ᱟᱨ",
      "ᱟᱨ"
    ],
    [
      "ᱱ",
      "ᱳ"
    ],
    [
      "ᱞᱟᱹᱴ",
      "ᱩ"
    ],
    [
      "ᱟᱜ",
      "ᱚᱥᱴ"
    ],
    [
      "ᱞᱤ",
      "ᱠ"
    ],
    [
      "ᱮᱱᱠᱷᱟᱱ",
      ","
    ],
    [
      "ᱵᱮᱱᱟᱣ",
      "ᱟᱠᱟᱱ"
    ],
    [
      "ᱚᱝ",
      "ᱠᱟᱱ"
    ],
    [
      "ᱟᱰ",
      "ᱷ"
    ],
    [
      "ᱛᱮᱱ",
      "ᱚᱶ"
    ],
    [
      "ᱨᱤ",
      "ᱠᱟᱹᱭ"
    ],
    [
      "ᱵᱷᱟᱨᱚᱛ",
      "ᱨᱮᱱᱟᱜ"
    ],
    [
      "ᱴ",
      "ᱟᱱ"
    ],
    [
      "ᱴ",
      "ᱨᱮᱭᱟᱜ"
    ],
    [
      "ᱢᱚ",
      "ᱰᱮᱞ"
    ],
    [
      "ᱞ",
      "ᱟᱞ"
    ],
    [
      "ᱤ",
      "ᱼ"
    ],
    [
      "᱙",
      "᱐"
    ],
    [
      "ᱟᱠᱷ",
      "ᱨᱤᱧ"
    ],
    [
      "ᱜᱷ",
      "ᱟᱴ"
    ],
    [
      "ᱟᱜ",
      "ᱟᱣ"
    ],
    [
      "ᱵᱮ",
      "ᱵᱚ"
    ],
    [
      "ᱥᱤ",
      "ᱠᱤᱢ"
    ],
    [
      "ᱹ",
      "ᱟᱨ"
    ],
    [
      "ᱜ",
      "ᱨᱤ"
    ],
    [
      "ᱫ",
      "ᱩᱥ"
    ],
    [
      "ᱚᱪ",
      "ᱚᱜ"
    ],
    [
      "ᱵᱷ",
      "ᱤᱢ"
    ],
    [
      "ᱥ",
      ","
    ],
    [
      "ᱯᱩ",
      "ᱥᱴ"
    ],
    [
      "ᱥ",
      "ᱨᱮ"
    ],
    [
      "ᱡᱤ",
      "ᱵ"
    ],
    [
      "ᱱᱟᱜᱟᱢ",
      "ᱤᱭᱟᱹ"
    ],
    [
      "ᱠᱟᱛᱮ",
      ","
    ],
    [
      "ᱜ",
      "ᱨᱤᱠ"
    ],
    [
      "ᱛᱤ",
      "ᱞ"
    ],
    [
      "ᱥᱟ",
      "ᱫᱚᱢ"
    ],
    [
      "ᱟᱹᱭ",
      "ᱫᱟᱹᱨ"
    ],
    [
      "ᱴ",
      "ᱮᱞ"
    ],
    [
      "ᱡᱮᱜᱮᱫ",
      "ᱵᱤᱨᱫᱟᱹᱜᱟᱲ"
    ],
    [
      "ᱠᱤ",
      "ᱠ"
    ],
    [
      "ᱮᱞ",
      "ᱠᱷ"
    ],
    [
      "ᱦᱤᱨ",
      "ᱟᱹᱣ"
    ],
    [
      "ᱠ",
      "ᱮᱢ"
    ],
    [
      "ᱵᱤᱥ",
      "ᱥᱚ"
    ],
    [
      "ᱚᱵᱷᱤᱱ",
      "ᱮᱛ"
    ],
    [
      "ᱥᱟᱫᱷᱟᱨᱚᱱ",
      "ᱛᱚ"
    ],
    [
      "ᱤᱫ",
      "ᱟᱨ"
    ],
    [
      "ᱯᱟᱱ",
      "ᱰᱚ"
    ],
    [
      "ᱨᱮᱭᱟᱜ",
      "ᱡᱚᱛᱚᱠᱷᱚᱱ"
    ],
    [
      "ᱛᱤ",
      "ᱸᱜ"
    ],
    [
      "ᱢᱚ",
      "ᱥ"
    ],
    [
      "ᱵᱚᱨᱜᱚᱠᱤᱞ",
      "ᱳᱢᱤᱴᱟᱨ"
    ],
    [
      "ᱧᱩᱛᱩᱢᱛᱮ",
      "ᱦᱚᱸ"
    ],
    [
      "ᱵᱤᱨ",
      "ᱟᱹᱫ"
    ],
    [
      "ᱯᱩᱨ",
      "ᱟᱹ"
    ],
    [
      "ᱟᱦ",
      "ᱟᱨᱮ"
    ],
    [
      "ᱦ",
      "ᱩᱢ"
    ],
    [
      "ᱩᱱ",
      "ᱟᱹᱜ"
    ],
    [
      "ᱚᱨ",
      "ᱚᱢ"
    ],
    [
      "ᱪ",
      "ᱮᱢᱯ"
    ],
    [
      "ᱮᱯ",
      "ᱨᱤᱞ"
    ],
    [
      "ᱢᱚᱱ",
      "ᱫᱤᱞ"
    ],
    [
      "ᱟᱱ",
      "ᱨᱮᱭᱟᱜ"
    ],
    [
      "ᱪ",
      "ᱤᱢ"
    ],
    [
      "ᱠᱚᱢ",
      "ᱩᱫᱨᱮ"
    ],
    [
      "ᱞ",
      "ᱟᱫ"
    ],
    [
      "ᱜᱷᱚᱴ",
      "ᱟᱣ"
    ],
    [
      "ᱟᱯ",
      "ᱚ"
    ],
    [
      "ᱯ",
      "ᱞ"
    ],
    [
      "ᱟᱯᱷ",
      "ᱟᱝ"
    ],
    [
      "ᱱ",
      "ᱮᱥ"
    ],
    [
      "ᱥᱟᱢ",
      "ᱴᱟᱣ"
    ],
    [
      "ᱚᱱ",
      "ᱰ"
    ],
    [
      "ᱩ",
      "ᱨᱮ"
    ],
    [
      "ᱼ",
      "ᱨᱮ"
    ],
    [
      "ᱯᱟᱸᱡᱟ",
      "ᱧᱟᱢ"
    ],
    [
      "ᱢᱮ",
      "ᱡᱮ"
    ],
    [
      "ᱢᱚᱦ",
      "ᱚᱛ"
    ],
    [
      "ᱵᱷ",
      "ᱟᱲ"
    ],
    [
      "ᱯ",
      "ᱚᱠ"
    ],
    [
      ")",
      ","
    ],
    [
      "ᱫᱚᱦᱚᱭ",
      "ᱢᱮ᱾</w>"
    ],
    [
      "ᱢᱟᱹ",
      "ᱦᱤᱛ"
    ],
    [
      "ᱟ",
      "ᱞᱮᱠᱟᱛᱮ,"
    ],
    [
      "ᱩᱱ",
      "ᱤᱱ"
    ],
    [
      "ᱞᱚᱞᱚ",
      "ᱥᱚᱝ"
    ],
    [
      "ᱠᱷ",
      "ᱤᱥᱴ"
    ],
    [
      "ᱯᱟᱹ",
      "ᱴᱷ"
    ],
    [
      "ᱞᱟᱹᱠᱛᱤ",
      "ᱠᱟᱱᱟ᱾</w>"
    ],
    [
      "ᱤᱛ",
      "ᱟᱞ"
    ],
    [
      "ᱨᱟᱹ",
      "ᱯᱩᱫ"
    ],
    [
      "ᱯ",
      "ᱟᱹᱣ"
    ],
    [
      "ᱯ",
      "ᱟᱹᱭ"
    ],
    [
      "ᱥᱟᱹ",
      "ᱦᱤᱡ"
    ],
    [
      "ᱢᱮᱱᱟᱜ",
      "ᱼᱟᱟᱨ"
    ],
    [
      "ᱦ",
      "ᱟᱰ"
    ],
    [
      "ᱵᱤ",
      "ᱪᱷ"
    ],
    [
      "ᱞᱮᱫ",
      "ᱟᱡᱮ"
    ],
    [
      "ᱱ",
      "ᱟᱥ"
    ],
    [
      "ᱚ",
      "ᱥᱟᱨ"
    ],
    [
      "ᱤᱱ",
      "ᱟᱹᱭ"
    ],
    [
      "ᱛ",
      "ᱚᱛ"
    ],
    [
      "ᱮ",
      "ᱥᱮᱫ"
    ],
    [
      "ᱠᱚ",
      "ᱧᱮᱞ"
    ],
    [
      "ᱴᱮ",
      "ᱠ"
    ],
    [
      "ᱤᱭ",
      "ᱟ,"
    ],
    [
      "ᱠᱟᱱ",
      "ᱟᱭ᱾</w>"
    ],
    [
      "ᱩᱱ",
      "ᱤᱥ"
    ],
    [
      "ᱴᱚᱴᱷ",
      "ᱟᱠᱤᱭᱟᱹ"
    ],
    [
      "ᱦᱩᱫ",
      "ᱟᱹ"
    ],
    [
      "᱒᱐᱑",
      "᱐"
    ],
    [
      ",",
      "ᱢᱮᱱᱠᱷᱟᱱ"
    ],
    [
      "ᱞᱟᱛᱟᱨ",
      "ᱨᱮ"
    ],
    [
      "ᱵᱮ",
      "ᱭ"
    ],
    [
      "ᱴᱚᱴᱷ",
      "ᱟᱠᱚ"
    ],
    [
      "ᱯ",
      "ᱟᱭ"
    ],
    [
      "ᱥᱤᱛ",
      "ᱩᱝ"
    ],
    [
      "ᱦᱩᱭᱞᱮᱱ",
      "ᱟ,"
    ],
    [
      "ᱪ",
      "ᱮᱨ"
    ],
    [
      "ᱚᱱ",
      "ᱟᱵ"
    ],
    [
      "ᱟᱹ",
      "ᱛᱩ"
    ],
    [
      "᱘",
      "᱐"
    ],
    [
      "ᱜ",
      "ᱮᱱ"
    ],
    [
      "ᱧᱤᱫ",
      "ᱟᱹ"
    ],
    [
      "ᱪᱟᱨ",
      "ᱪ"
    ],
    [
      "ᱟᱦ",
      "ᱮ"
    ],
    [
      "ᱨᱟᱡᱽ",
      "ᱵᱚᱝᱥᱚ"
    ],
    [
      "ᱨᱮᱠᱚᱨ",
      "ᱰ"
    ],
    [
      "ᱡᱟᱨ",
      "ᱯᱟ"
    ],
    [
      "ᱢᱩᱲ",
      "ᱩᱛ"
    ],
    [
      "ᱮᱭ",
      "ᱟᱟᱨ"
    ],
    [
      "ᱠᱚ",
      "ᱠᱷᱚᱱ"
    ],
    [
      "ᱯᱟᱸ",
      "ᱡᱟᱭ"
    ],
    [
      "ᱥ",
      "ᱳᱭ"
    ],
    [
      "ᱴᱤ",
      "ᱲᱤᱡ"
    ],
    [
      "ᱟᱹᱰᱤ",
      "ᱠᱚᱢ"
    ],
    [
      "ᱵ",
      "ᱩᱞ"
    ],
    [
      "ᱵᱟᱹᱱ",
      "ᱩᱜ"
    ],
    [
      "ᱪᱷ",
      "ᱩ"
    ],
    [
      "ᱯ",
      "ᱤᱫ"
    ],
    [
      "ᱩᱯ",
      "ᱚᱢ"
    ],
    [
      "ᱪ",
      "ᱟᱵ"
    ],
    [
      "ᱦᱚ",
      "ᱢ"
    ],
    [
      "ᱛ",
      "ᱟᱨᱮᱭᱟᱜ"
    ],
    [
      "ᱼᱟ,",
      "ᱮᱱᱠᱷᱟᱱ"
    ],
    [
      "ᱢ",
      "ᱟᱥ"
    ],
    [
      "ᱟᱡᱚ",
      "ᱠᱷᱚᱱ"
    ],
    [
      "ᱱᱚᱣ",
      "ᱟᱯᱚᱱᱚᱛ"
    ],
    [
      "ᱛᱟᱦᱮᱱ",
      "ᱟᱟᱨ"
    ],
    [
      "ᱱᱚᱣ",
      "ᱟᱪᱚᱞᱚᱛᱪᱤᱛᱟᱹᱨ"
    ],
    [
      "᱒᱐᱑",
      "᱕"
    ],
    [
      "ᱯ",
      "ᱚᱛᱚ"
    ],
    [
      "ᱩᱞ",
      "ᱴ"
    ],
    [
      "ᱥᱟᱞᱨᱮ",
      ","
    ],
    [
      "ᱩᱯᱚ",
      "ᱡᱟᱹᱛᱤ"
    ],
    [
      "ᱵᱟᱸ",
      "ᱫᱷ"
    ],
    [
      "ᱦᱤ",
      "ᱸ"
    ],
    [
      "ᱫᱟᱨ",
      "ᱟᱭ"
    ],
    [
      "ᱜᱚᱴ",
      "ᱟᱵ"
    ],
    [
      "ᱚᱱ",
      "ᱩᱢ"
    ],
    [
      "ᱤᱭ",
      "ᱟᱞ"
    ],
    [
      "ᱞᱮᱫ",
      "ᱟᱭᱟᱨ"
    ],
    [
      "ᱡᱚ",
      "ᱫ"
    ],
    [
      "ᱩᱱ",
      "ᱤᱫ"
    ],
    [
      "ᱡᱟᱦᱟᱸ",
      "ᱱ"
    ],
    [
      "ᱪ",
      "ᱮᱱ"
    ],
    [
      "ᱟᱭ",
      "ᱮᱢ"
    ],
    [
      "ᱪᱟᱢᱯ",
      "ᱤᱭᱚᱱᱥᱤᱯ"
    ],
    [
      "ᱚᱱ",
      "ᱟᱜ"
    ],
    [
      "ᱟ",
      ")"
    ],
    [
      "ᱥ",
      "ᱩᱭ"
    ],
    [
      "ᱨᱮᱭᱟᱜ",
      "ᱜᱚᱱᱚᱝ"
    ],
    [
      "ᱦᱤᱢ",
      "ᱟᱞᱚᱭ"
    ],
    [
      "ᱛᱷ",
      "ᱤ"
    ],
    [
      "ᱦ",
      "ᱟᱨᱮ"
    ],
    [
      "ᱥᱮᱞᱮᱫ",
      "ᱞᱮᱱᱟ᱾</w>"
    ],
    [
      "ᱟᱢ",
      "ᱴᱷᱮᱱ"
    ],
    [
      "ᱜᱚᱴ",
      "ᱟᱭ"
    ],
    [
      "ᱵ",
      "ᱟᱛᱟᱣ"
    ],
    [
      "ᱨ",
      "ᱤᱭᱚ"
    ],
    [
      "ᱞᱮ",
      "ᱢ"
    ],
    [
      "ᱦᱟᱛᱟᱣ",
      "ᱞᱮᱫᱟ᱾</w>"
    ],
    [
      "ᱟᱥ",
      "ᱲ"
    ],
    [
      "ᱡᱚ",
      "ᱝ"
    ],
    [
      "ᱚᱱᱫ",
      "ᱤᱨ"
    ],
    [
      "ᱞᱮ",
      "ᱴ"
    ],
    [
      "ᱫ",
      "ᱟᱞ"
    ],
    [
      "ᱤᱛ",
      "ᱦᱚᱸ"
    ],
    [
      "ᱛᱮᱱ",
      "ᱟᱜ"
    ],
    [
      "ᱟᱥ",
      "ᱚᱠ"
    ],
    [
      "ᱱᱚᱣ",
      "ᱟᱵ"
    ],
    [
      "ᱯ",
      "ᱨᱤ"
    ],
    [
      "ᱜᱚ",
      "ᱰ"
    ],
    [
      "ᱠᱚᱨᱟᱣ",
      "ᱞᱟᱹᱜᱤᱫ"
    ],
    [
      "\"",
      "</w>"
    ],
    [
      "ᱰᱷ",
      "ᱤᱨ"
    ],
    [
      "ᱫᱚᱠᱷᱤᱱ",
      "ᱼ"
    ],
    [
      "ᱟᱣ",
      "ᱩᱱ"
    ],
    [
      "ᱠᱚᱨ",
      "ᱱᱟᱴᱚᱠ"
    ],
    [
      "ᱪᱷ",
      "ᱟᱹ"
    ],
    [
      "ᱽ",
      "ᱨ"
    ],
    [
      "ᱨᱮᱭᱟᱜ",
      "ᱧᱩᱛᱩᱢ"
    ],
    [
      "ᱥᱟᱸ",
      "ᱫᱮᱥ"
    ],
    [
      "ᱴ",
      "ᱩ"
    ],
    [
      "ᱢᱤᱫ",
      "ᱫᱷᱟᱣ"
    ],
    [
      "ᱥᱤ",
      "ᱨᱤᱡ"
    ],
    [
      "ᱮᱴᱟᱜ",
      "ᱮᱴᱟᱜ"
    ],
    [
      "ᱟᱹᱱ",
      "ᱤᱡ"
    ],
    [
      "ᱱ",
      "ᱟᱛᱷ"
    ],
    [
      "ᱜᱤᱨᱟᱹᱵ",
      "ᱟᱥ"
    ],
    [
      "ᱤᱱᱫᱳ",
      "ᱼ"
    ],
    [
      "ᱠᱤᱞᱳᱢᱤᱴᱟᱨ",
      "("
    ],
    [
      "ᱟᱹᱲ",
      "ᱟᱹ"
    ],
    [
      "ᱧ",
      "ᱡᱽ"
    ],
    [
      "ᱠᱚ",
      "ᱧᱟᱢ"
    ],
    [
      "ᱤᱛ",
      "ᱤ"
    ],
    [
      "ᱫᱷ",
      "ᱟᱥᱟᱣ"
    ],
    [
      "ᱫᱟᱹ",
      "ᱵᱤ"
    ],
    [
      "ᱡᱟᱹ",
      "ᱥᱛ"
    ],
    [
      "ᱳᱞ",
      "ᱟᱨ"
    ],
    [
      "ᱱ",
      "ᱟᱱ"
    ],
    [
      "ᱡᱟᱦᱟᱸ",
      "ᱨᱮ"
    ],
    [
      "ᱩᱴ",
      "ᱚᱴᱷ"
    ],
    [
      "ᱯᱷᱮ",
      "ᱵᱨ"
    ],
    [
      "ᱨᱚ",
      "ᱯᱚᱲ"
    ],
    [
      "ᱵ",
      "ᱟᱛᱷ"
    ],
    [
      "ᱠᱷᱟᱱ",
      ","
    ],
    [
      "ᱠᱷ",
      "ᱟᱛᱤᱨ"
    ],
    [
      "ᱛ",
      "ᱩᱱ"
    ],
    [
      "ᱵᱮᱱᱟᱣ",
      "ᱨᱮᱭᱟᱜ"
    ],
    [
      "ᱵᱮᱥ",
      "ᱠᱤᱪᱷᱩ"
    ],
    [
      "ᱞᱮ",
      "ᱹ"
    ],
    [
      "ᱟᱺ",
      "ᱰᱤ"
    ],
    [
      "ᱯᱩᱱ",
      "ᱭ"
    ],
    [
      "ᱩ",
      "ᱨᱮᱭᱟᱜ"
    ],
    [
      "ᱢᱮᱱᱟᱜ",
      "ᱟᱠᱟᱫᱟ᱾</w>"
    ],
    [
      "ᱟᱢ",
      "ᱢᱤᱫᱴᱟᱝ"
    ],
    [
      "ᱛᱤ",
      "ᱨᱮ"
    ],
    [
      "ᱱᱚ",
      "ᱰᱮ"
    ],
    [
      "ᱥ",
      "ᱴᱤ"
    ],
    [
      "ᱞᱮᱠ",
      "ᱨᱳᱥ"
    ],
    [
      "ᱟᱜ",
      "ᱚᱨ"
    ],
    [
      "᱗",
      "᱐"
    ],
    [
      "ᱨᱮᱦᱚᱸ",
      ","
    ],
    [
      "ᱟᱠᱚ",
      "ᱢ"
    ],
    [
      "ᱯᱟᱠᱤᱥ",
      "ᱛᱟᱱ"
    ],
    [
      "ᱟᱢᱮ",
      "ᱨᱤᱠᱟ"
    ],
    [
      "ᱱ",
      "ᱰ"
    ],
    [
      "ᱚᱡᱮ",
      "ᱫᱚ"
    ],
    [
      "ᱥᱩᱯ",
      "ᱟᱨ"
    ],
    [
      "ᱤᱝ",
      "ᱨᱮᱡᱤ"
    ],
    [
      "ᱵᱟᱵ",
      "ᱚᱫ"
    ],
    [
      "ᱜᱷ",
      "ᱚᱨ"
    ],
    [
      "ᱜᱮᱞ",
      "ᱟᱝ"
    ],
    [
      "ᱚᱱ",
      "ᱨᱮᱭᱟᱜ"
    ],
    [
      "ᱚᱢ",
      "ᱟᱱ"
    ],
    [
      "ᱤᱭ",
      "ᱩᱴ"
    ],
    [
      "ᱢᱚᱱ",
      "ᱤᱯᱩᱨ"
    ],
    [
      "ᱨᱟᱹᱥ",
      "ᱤᱭᱟᱹ"
    ],
    [
      "ᱡᱤ",
      "ᱣ"
    ],
    [
      "ᱥᱟ",
      "ᱺ"
    ],
    [
      "ᱵᱟᱦ",
      "ᱚᱱ"
    ],
    [
      "ᱤᱭ",
      "ᱚᱨ"
    ],
    [
      "ᱚᱞ",
      "ᱨᱮ"
    ],
    [
      ",ᱡᱟᱦᱟᱸ",
      "ᱭᱫᱚ"
    ],
    [
      "ᱥᱟᱦ",
      "ᱚ"
    ],
    [
      "ᱧᱮᱞ",
      "ᱧᱟᱢ"
    ],
    [
      "ᱡᱟᱦ",
      "ᱟ"
    ],
    [
      "ᱛᱟᱦ",
      "ᱚ"
    ],
    [
      "ᱵᱚᱞ",
      "ᱫᱚ"
    ],
    [
      "ᱦᱚᱲ",
      "ᱠᱩᱥᱤᱭᱟᱜ"
    ],
    [
      "ᱱᱚᱣ",
      "ᱟᱨᱮ"
    ],
    [
      "ᱟᱠᱚ",
      "ᱨᱟᱣ"
    ],
    [
      "ᱰᱤ",
      "ᱜᱚᱲ"
    ],
    [
      "ᱤᱱ",
      "ᱤᱥ"
    ],
    [
      "ᱦᱩᱫ",
      "ᱤ"
    ],
    [
      "ᱠᱟᱱ",
      "ᱟᱰ"
    ],
    [
      "ᱤᱛ",
      "ᱠᱟᱹᱨ"
    ],
    [
      "ᱜᱷᱟᱨᱚᱸ",
      "ᱡᱽ"
    ],
    [
      "ᱮ",
      "ᱥᱤ"
    ],
    [
      "ᱠᱤᱪᱷ",
      "ᱩᱜᱟᱱ"
    ],
    [
      "ᱵᱚ",
      "ᱲᱦ"
    ],
    [
      "ᱫᱮ",
      "ᱵᱽ"
    ],
    [
      "ᱜ",
      "ᱠᱟᱱ"
    ],
    [
      "ᱥᱮᱨᱢ",
      "ᱟᱫᱷ"
    ],
    [
      "ᱜᱟᱱ",
      "ᱟᱹᱭ"
    ],
    [
      "ᱢᱮᱜᱷ",
      "ᱟᱞᱚᱭ"
    ],
    [
      "ᱡᱩᱞ",
      "ᱟᱭ"
    ],
    [
      "ᱹ",
      "ᱮᱢ"
    ],
    [
      "ᱯᱚᱨ",
      "ᱚᱵᱽ"
    ],
    [
      "ᱯᱨᱚ",
      "ᱥᱟᱥᱚᱱ"
    ],
    [
      "ᱥᱤᱨ",
      "ᱯᱟᱹᱭ"
    ],
    [
      "ᱠᱚ",
      "ᱶ"
    ],
    [
      "ᱠ",
      "ᱴᱚᱨ"
    ],
    [
      "ᱛᱟᱸ",
      "ᱦᱮ"
    ],
    [
      "ᱮᱥ",
      "ᱤᱭᱟᱱ"
    ],
    [
      "ᱠᱩ",
      "ᱴ"
    ],
    [
      "ᱛ",
      "ᱟᱹᱢᱤᱞ"
    ],
    [
      "ᱥᱮᱨᱢ",
      "ᱟᱛᱟᱭᱚᱢ"
    ],
    [
      "ᱟᱥᱮ",
      "ᱵᱟᱝ"
    ],
    [
      "ᱫ",
      "ᱩᱨ"
    ],
    [
      "ᱞ",
      "ᱤᱞ"
    ],
    [
      "ᱠᱟᱨ",
      "ᱛᱮ"
    ],
    [
      "ᱨᱮᱢᱮᱱᱟᱜ",
      "ᱼ"
    ],
    [
      "ᱟᱠᱷ",
      "ᱚᱨ"
    ],
    [
      "ᱠᱷ",
      "ᱟᱴ"
    ],
    [
      "ᱠᱩ",
      "ᱥᱛᱤ"
    ],
    [
      "ᱞᱟᱜ",
      "ᱟᱣ"
    ],
    [
      "᱕",
      "᱐᱐"
    ],
    [
      "ᱥᱮᱞᱮ",
      "ᱫᱚᱜ"
    ],
    [
      "ᱜᱤ",
      "ᱨᱤ"
    ],
    [
      "ᱯᱩᱥᱴ",
      "ᱟᱹᱣ"
    ],
    [
      "ᱵᱷ",
      "ᱟᱱ"
    ],
    [
      "ᱪ",
      "ᱟᱹᱞᱩ"
    ],
    [
      "ᱚᱜ",
      "ᱠᱟᱱᱟ᱾</w>"
    ],
    [
      "ᱤᱭ",
      "ᱩᱱ"
    ],
    [
      ",ᱡᱟᱦᱟᱸ",
      "ᱨᱮ"
    ],
    [
      "ᱠᱚ",
      "ᱵᱮᱣᱦᱟᱨ"
    ],
    [
      "ᱤᱫ",
      "ᱤᱱ"
    ],
    [
      "ᱵᱤ",
      "ᱞᱟᱹ"
    ],
    [
      "ᱢᱚ",
      "ᱫᱽ"
    ],
    [
      "ᱠᱷ",
      "ᱟᱹᱞᱤ"
    ],
    [
      "ᱵᱟᱵ",
      "ᱚᱛ"
    ],
    [
      "ᱧ",
      "ᱮᱱᱮᱞ"
    ],
    [
      "ᱠᱷ",
      "ᱮ"
    ],
    [
      "ᱟᱢ",
      "ᱟᱱ"
    ],
    [
      "ᱟᱢ",
      "ᱨᱮ"
    ],
    [
      "ᱚᱠᱛᱚ",
      ","
    ],
    [
      "ᱟᱣ",
      "ᱩᱴ"
    ],
    [
      "ᱞᱮᱛᱟᱲ",
      "ᱜᱮ"
    ],
    [
      "ᱠᱚ",
      "ᱝᱜᱨᱮᱥ"
    ],
    [
      "\"",
      "᱾</w>"
    ],
    [
      "ᱰᱤ",
      "ᱝ"
    ],
    [
      "ᱜᱩᱡ",
      "ᱨᱟᱴ"
    ],
    [
      "ᱞᱮᱱ",
      "ᱟ,ᱡᱟᱦᱟᱸ"
    ],
    [
      "ᱯᱟᱦ",
      "ᱟᱴ"
    ],
    [
      "ᱟ",
      "ᱠᱟᱛᱮ"
    ],
    [
      "ᱮᱱ",
      "ᱟ,"
    ],
    [
      "ᱨᱮᱢᱮᱱᱟᱜ",
      "ᱢᱤᱫᱴᱟᱝ"
    ],
    [
      "ᱩ",
      ","
    ],
    [
      "ᱠᱷ",
      "ᱟᱡ"
    ],
    [
      "\"",
      "ᱟᱨ"
    ],
    [
      "ᱚᱨ",
      "ᱥᱚᱝ"
    ],
    [
      "ᱳ",
      "ᱲ"
    ],
    [
      "ᱟᱜ",
      "ᱟᱨ"
    ],
    [
      "ᱴᱮᱸ",
      "ᱦᱟᱴ"
    ],
    [
      "ᱸ",
      "ᱜᱤ"
    ],
    [
      "ᱜ",
      "ᱟ"
    ],
    [
      "ᱵᱷ",
      "ᱮᱞ"
    ],
    [
      "ᱜᱮ",
      ","
    ],
    [
      "ᱟᱭ",
      "ᱤᱞ"
    ],
    [
      "ᱛ",
      "ᱚᱠ"
    ],
    [
      "ᱛᱟᱲ",
      "ᱟᱢ"
    ],
    [
      "ᱯᱚ",
      "ᱴ"
    ],
    [
      "ᱦᱟᱢᱮᱴ",
      "ᱞᱮᱫᱟ᱾</w>"
    ],
    [
      "ᱤᱱ",
      "ᱥᱴ"
    ],
    [
      "ᱨᱟᱡᱽ",
      "ᱯᱟᱴ"
    ],
    [
      "ᱠᱷᱚᱸ",
      "ᱫᱽ"
    ],
    [
      "᱒",
      "᱙"
    ],
    [
      "ᱬ",
      "ᱮᱥ"
    ],
    [
      "ᱚᱞ",
      "ᱟᱠᱟᱫ"
    ],
    [
      "ᱧᱮᱞ",
      "ᱧᱟᱢᱚᱜᱼᱟ᱾</w>"
    ],
    [
      "ᱵᱮᱱᱟᱣ",
      "ᱦᱩᱭᱞᱮᱱᱟ᱾</w>"
    ],
    [
      "ᱥᱚ",
      "ᱨᱮ"
    ],
    [
      "ᱟᱹ",
      "ᱠ"
    ],
    [
      "ᱚᱥᱴ",
      "ᱨᱮᱞ"
    ],
    [
      "ᱨᱮ",
      "ᱵᱮᱱ"
    ],
    [
      "ᱩᱱ",
      "ᱠᱚᱣᱟᱜ"
    ],
    [
      "ᱵ",
      "ᱟᱠ"
    ],
    [
      "ᱠᱷᱮᱞ",
      "ᱫᱚ"
    ],
    [
      "ᱰ",
      "ᱚᱵ"
    ],
    [
      "ᱨᱮᱭᱟᱜ",
      "ᱢᱮᱱᱮᱫ"
    ],
    [
      "ᱧᱩᱢ",
      "ᱟᱱ"
    ],
    [
      "ᱨ",
      "ᱚᱛ"
    ],
    [
      "ᱦᱚ",
      "ᱦᱚ"
    ],
    [
      "ᱞ",
      "ᱟᱯᱷᱟᱝ"
    ],
    [
      "ᱟᱹ",
      "ᱪ"
    ],
    [
      "ᱥ",
      "ᱯ"
    ],
    [
      "ᱡᱩᱜ",
      "ᱽ"
    ],
    [
      "ᱟᱣ",
      "ᱛᱟᱨᱮ"
    ],
    [
      "ᱥ",
      "ᱟᱝ"
    ],
    [
      "ᱟᱭ",
      "ᱤᱴ"
    ],
    [
      "ᱞᱟᱹᱲᱦᱟᱹᱭ",
      "ᱨᱮ"
    ],
    [
      "ᱯᱚ",
      "ᱦᱚᱫ"
    ],
    [
      "ᱨᱚ",
      "ᱦᱚ"
    ],
    [
      "ᱠᱚ",
      "ᱛᱟᱦᱮᱸᱠᱟᱱᱟ᱾</w>"
    ],
    [
      "ᱨᱮᱱᱟᱜ",
      "ᱢᱤᱫᱴᱟᱝ"
    ],
    [
      "ᱵᱮ",
      "ᱨ"
    ],
    [
      "ᱥᱤᱱ",
      "ᱮᱢ"
    ],
    [
      "ᱵᱚᱝ",
      "ᱜᱚ"
    ],
    [
      "ᱫᱤᱱ",
      "ᱨᱮᱭᱟᱜ"
    ],
    [
      "ᱫᱤᱥᱚᱢ",
      "ᱨᱮ"
    ],
    [
      "ᱡᱳᱭ",
      "ᱱᱚᱢ"
    ],
    [
      "ᱠᱷᱨᱤᱥᱴ",
      "ᱚ"
    ],
    [
      "ᱢᱟᱨ",
      "ᱟᱣ"
    ],
    [
      "ᱱᱚᱣ",
      "ᱟᱵᱮᱜᱚᱨ"
    ],
    [
      "ᱥᱟᱪᱟᱨ",
      "ᱦᱮᱫ"
    ],
    [
      "ᱠᱩ",
      "ᱲ"
    ],
    [
      "ᱩ",
      "ᱬ"
    ],
    [
      "ᱦ",
      "ᱤᱫ"
    ],
    [
      "ᱡᱚᱠᱷ",
      "ᱮᱡ"
    ],
    [
      "ᱟᱦ",
      "ᱚᱱᱚᱛ"
    ],
    [
      "ᱟᱹ",
      "ᱥ"
    ],
    [
      "ᱼ",
      "ᱨᱮᱭᱟᱜ"
    ],
    [
      "ᱩᱥ",
      "ᱴᱤ"
    ],
    [
      "ᱦᱚᱲ",
      "ᱠᱩᱥᱤ"
    ],
    [
      "ᱨᱮᱹ",
      "ᱞ"
    ],
    [
      "ᱦᱩᱫ",
      "ᱤᱥ"
    ],
    [
      "ᱵᱨᱤ",
      "ᱴᱮᱱ"
    ],
    [
      "ᱥᱚᱲ",
      "ᱚᱠ"
    ],
    [
      "ᱪ",
      "ᱚᱱᱫ"
    ],
    [
      "ᱜᱟᱭ",
      "ᱟᱱ"
    ],
    [
      "ᱟ",
      "ᱮᱢ"
    ],
    [
      "᱒᱐",
      "᱒᱐"
    ],
    [
      "ᱱ",
      "ᱤᱭ"
    ],
    [
      "ᱩᱲ",
      "ᱩᱵ"
    ],
    [
      "ᱯ",
      "ᱩᱨᱤ"
    ],
    [
      "ᱥ",
      "ᱤᱭᱟᱱ"
    ],
    [
      "ᱥᱟᱶ",
      "ᱛ"
    ],
    [
      "ᱟᱨ",
      "ᱟᱜ"
    ],
    [
      "ᱦᱚᱸ",
      ","
    ],
    [
      "ᱵ",
      "ᱟᱠᱚ"
    ],
    [
      "ᱸ",
      "ᱫ"
    ],
    [
      "ᱵᱩᱨᱩ",
      "ᱨᱮᱭᱟᱜ"
    ],
    [
      "ᱵᱤ",
      "ᱢ"
    ],
    [
      "ᱠᱚᱢᱩᱫᱽᱨᱮ",
      "ᱢᱤᱫᱴᱟᱝ"
    ],
    [
      "ᱧᱮᱞ",
      "ᱥᱟᱢᱴᱟᱣ"
    ],
    [
      "ᱢᱟᱭᱤᱞ",
      ")"
    ],
    [
      "ᱹ",
      "ᱴᱤ"
    ],
    [
      "᱾",
      "\"</w>"
    ],
    [
      "ᱹ",
      "ᱵᱤ"
    ],
    [
      "ᱵᱟᱵ",
      "ᱮᱨ"
    ],
    [
      "ᱱᱚᱣ",
      "ᱟᱴᱚᱴᱷᱟᱨᱮ"
    ],
    [
      "ᱤᱥ",
      "ᱞᱟᱢ"
    ],
    [
      "ᱪᱷ",
      "ᱚᱛ"
    ],
    [
      "ᱛ",
      "ᱤᱭᱚ"
    ],
    [
      "ᱯ",
      "ᱚᱛᱤ"
    ],
    [
      "ᱱ",
      "ᱟᱢ"
    ],
    [
      "ᱵᱷ",
      "ᱟᱞᱮ"
    ],
    [
      "ᱟᱨ",
      "ᱟᱡᱽ"
    ],
    [
      "ᱧᱟᱢ",
      "ᱟᱠᱟᱱ"
    ],
    [
      "ᱵᱟᱨ",
      "ᱦᱚᱲ"
    ],
    [
      "ᱥᱟᱹᱦᱤᱛ",
      "ᱨᱮᱱᱟᱜ"
    ],
    [
      "ᱟᱛᱟᱞ",
      "ᱟᱛᱮ"
    ],
    [
      "ᱜ",
      "ᱟᱝ"
    ],
    [
      "ᱫ",
      "ᱟᱨᱮᱭᱟᱜ"
    ],
    [
      "ᱴᱮ",
      "ᱠᱟᱣ"
    ],
    [
      "ᱛᱷ",
      "ᱚᱲ"
    ],
    [
      "ᱟᱥᱚᱠ",
      "ᱟᱭᱛᱮ"
    ],
    [
      "ᱵᱟ",
      "ᱰᱤ"
    ],
    [
      "?",
      "</w>"
    ],
    [
      "ᱪᱟᱞᱟᱜ",
      "ᱼᱟ᱾</w>"
    ],
    [
      "ᱤ",
      "ᱨᱮᱱ"
    ],
    [
      "ᱟᱨ",
      "ᱢ"
    ],
    [
      "ᱫᱷ",
      "ᱳ"
    ],
    [
      "ᱨᱮᱭᱟᱜ",
      "ᱯᱚᱨᱤᱢᱟᱱ"
    ],
    [
      "ᱱᱚᱣ",
      "ᱟᱴᱚᱴᱷ"
    ],
    [
      "ᱯᱚᱥ",
      "ᱪᱤᱢ"
    ],
    [
      "᱒᱐᱐",
      "᱘"
    ],
    [
      "ᱦ",
      "ᱟᱸ"
    ],
    [
      "ᱥ",
      "ᱠᱨᱤ"
    ],
    [
      "ᱮᱥ",
      "ᱳ"
    ],
    [
      "ᱟᱛᱟᱦᱮᱸ",
      "ᱠᱟᱱᱟ᱾</w>"
    ],
    [
      "ᱟᱨᱮ",
      "ᱞ"
    ],
    [
      "ᱨᱚ",
      "ᱭ"
    ],
    [
      "ᱞᱟᱹᱣ",
      "ᱠᱟᱹ"
    ],
    [
      "ᱟᱞ",
      "ᱮᱱᱟ᱾</w>"
    ],
    [
      "ᱩᱲ",
      "ᱟᱹ"
    ],
    [
      "ᱨᱤ",
      "ᱝ"
    ],
    [
      "ᱠᱳ",
      "ᱰ"
    ],
    [
      "ᱠᱩ",
      "ᱥᱤᱭ"
    ],
    [
      "ᱟᱥ",
      "ᱚ"
    ],
    [
      "ᱵᱟᱹᱱ",
      "ᱩᱜᱼᱟ᱾</w>"
    ],
    [
      "ᱨᱮ",
      "ᱛᱟᱦᱮᱱ"
    ],
    [
      "ᱟᱱ",
      "ᱚᱱᱫᱚ"
    ],
    [
      "ᱴᱩᱨᱱᱟᱢᱮᱱ",
      "ᱴ"
    ],
    [
      "ᱡᱩ",
      "ᱢᱤᱫ"
    ],
    [
      "ᱞᱮᱫᱟᱭ",
      ","
    ],
    [
      "ᱼᱟ,ᱡᱟᱦᱟᱸ",
      "ᱫᱚ"
    ],
    [
      "ᱪᱟᱯ",
      "ᱟᱞ"
    ],
    [
      "ᱯᱚᱱᱚᱛ",
      "ᱫᱚ"
    ],
    [
      "ᱵᱳᱣ",
      "ᱫᱷᱚ"
    ],
    [
      "ᱟᱲ",
      "ᱤ"
    ],
    [
      "ᱟ",
      "ᱫᱷᱟᱨ"
    ],
    [
      "ᱚᱣ",
      "ᱟ"
    ],
    [
      "ᱤᱞ",
      "ᱞᱤ"
    ],
    [
      "ᱱ",
      "ᱚᱛ"
    ],
    [
      "ᱜᱚ",
      "ᱝᱜ"
    ],
    [
      "ᱱᱚᱶ",
      "ᱟᱨᱮᱭᱟᱜ"
    ],
    [
      "ᱟᱜ",
      "ᱤᱫ"
    ],
    [
      "ᱢ",
      "ᱟ᱾</w>"
    ],
    [
      "ᱟᱠᱚ",
      "ᱴ"
    ],
    [
      "ᱟᱭ",
      "ᱩᱢᱟᱹᱱ"
    ],
    [
      "ᱟᱭ",
      "ᱚᱱ"
    ],
    [
      "ᱫᱟᱲᱮᱭᱟᱜ",
      "ᱼᱟᱟᱨ"
    ],
    [
      "ᱛᱷ",
      "ᱟᱹᱭ"
    ],
    [
      "ᱞᱟᱦ",
      "ᱟ"
    ],
    [
      "ᱥᱚᱨᱠᱟᱨ",
      "ᱟᱜ"
    ],
    [
      "ᱟᱢ",
      "ᱤ"
    ],
    [
      "ᱫᱤ",
      "ᱯ"
    ],
    [
      "ᱨᱮ",
      "ᱥᱤ"
    ],
    [
      "ᱭ",
      "ᱟᱹᱲ"
    ],
    [
      "ᱨᱟᱠᱷ",
      "ᱟᱫᱚᱦᱚ"
    ],
    [
      "ᱳ",
      "ᱡ"
    ],
    [
      "ᱥᱟᱛ",
      "ᱵᱟᱦᱚᱱ"
    ],
    [
      "ᱲ",
      "ᱟ"
    ],
    [
      "ᱨᱮᱭᱟᱜᱠᱟᱛᱷ",
      "ᱟᱭ"
    ],
    [
      "ᱪ",
      "ᱟᱱ"
    ],
    [
      "ᱤᱛ",
      "ᱟᱭᱚᱢ"
    ],
    [
      "ᱥᱮ",
      "ᱭᱟᱨ"
    ],
    [
      "ᱛ",
      "ᱟᱯ"
    ],
    [
      "ᱥ",
      "ᱳᱱ"
    ],
    [
      "ᱢᱮ",
      "ᱡᱟᱦᱟᱸ"
    ],
    [
      "ᱠᱷ",
      "ᱚᱭ"
    ],
    [
      "ᱚᱱ",
      "ᱫᱤᱞ"
    ],
    [
      "ᱜᱟᱱ",
      "ᱚᱜ"
    ],
    [
      "ᱯᱩᱨ",
      "ᱩᱵᱽ"
    ],
    [
      "ᱥᱮᱫ",
      ","
    ],
    [
      "ᱪᱚᱱ",
      "ᱰᱤᱜᱚᱲ"
    ],
    [
      "ᱠᱷ",
      "ᱤᱞ"
    ],
    [
      "ᱢᱟᱦ",
      "ᱟᱨᱮ"
    ],
    [
      "ᱚᱥ",
      "ᱳᱠ"
    ],
    [
      "᱓",
      "᱖"
    ],
    [
      "ᱛᱟᱦᱮᱫ",
      "᱾</w>"
    ],
    [
      "ᱟᱯᱚᱱᱚᱛ",
      "ᱨᱮᱭᱟᱜ"
    ],
    [
      "ᱪ",
      "ᱮᱠ"
    ],
    [
      "ᱤᱭ",
      "ᱟᱱᱟᱜ"
    ],
    [
      "ᱟᱫ",
      "ᱟᱞᱚᱛ"
    ],
    [
      "ᱦᱮᱸ",
      "ᱥᱟᱹᱨᱤ"
    ],
    [
      "ᱵᱤᱪᱷ",
      "ᱱᱟᱹᱣ"
    ],
    [
      "ᱠ",
      "ᱤᱭᱟᱹ"
    ],
    [
      "ᱵᱤᱱᱤᱭ",
      "ᱳᱜᱽ"
    ],
    [
      "ᱴᱟᱭ",
      "ᱤᱢ"
    ],
    [
      "ᱠᱚ",
      "ᱴ"
    ],
    [
      "ᱟᱢᱮᱱᱛᱮ",
      "ᱢᱚᱱᱮ"
    ],
    [
      "ᱟᱛ",
      "ᱩ"
    ],
    [
      "ᱥᱮᱞ",
      "ᱥᱤᱭ"
    ],
    [
      "ᱫᱷ",
      "ᱚᱢ"
    ],
    [
      "ᱦᱮᱡ",
      "ᱞᱮᱱᱟ᱾</w>"
    ],
    [
      "ᱛ",
      "ᱨ"
    ],
    [
      "ᱠᱩᱨᱩᱢᱩᱴ",
      "ᱩ"
    ],
    [
      "ᱟᱠᱟᱫ",
      "ᱮᱭᱟ᱾</w>"
    ],
    [
      "ᱱᱚ",
      "ᱸ"
    ],
    [
      "ᱟᱡᱮ",
      "ᱜᱮᱫ"
    ],
    [
      "ᱤ",
      "ᱨᱤ"
    ],
    [
      "ᱵᱷ",
      "ᱟᱜᱽ"
    ],
    [
      "ᱟᱫ",
      "ᱮᱭᱟ᱾</w>"
    ],
    [
      "ᱟᱠ",
      "ᱨᱤ"
    ],
    [
      "ᱯᱟᱠᱤᱥ",
      "ᱛᱷᱟᱱ"
    ],
    [
      "ᱵ",
      "ᱟᱠᱷ"
    ],
    [
      "ᱪᱷ",
      "ᱩᱴᱤ"
    ],
    [
      "ᱮ",
      "ᱰ"
    ],
    [
      "ᱟᱢ",
      "ᱡᱩᱫ"
    ],
    [
      "ᱤᱭ",
      "ᱟᱹᱨ"
    ],
    [
      "ᱚᱜ",
      "ᱷ"
    ],
    [
      "ᱫᱚᱨ",
      "ᱭ"
    ],
    [
      "ᱥ",
      "ᱩᱵᱤᱫᱷ"
    ],
    [
      "ᱱᱚᱣ",
      "ᱟᱛᱟᱭᱚᱢ"
    ],
    [
      "ᱞᱟᱹᱜᱤᱫ",
      "ᱟᱨ"
    ],
    [
      "ᱠᱨᱮ",
      "ᱰᱤᱴ"
    ],
    [
      "ᱢᱤ",
      "ᱢᱤᱫ"
    ],
    [
      "ᱛ",
      "ᱩᱢ"
    ],
    [
      "ᱯᱟ",
      "ᱥᱮ"
    ],
    [
      "ᱦᱚᱱᱚᱛ",
      "ᱨᱮ"
    ],
    [
      "ᱥ",
      "ᱚᱠ"
    ],
    [
      "ᱝᱜ",
      "ᱟᱞ"
    ],
    [
      "ᱯᱷ",
      "ᱚᱞ"
    ],
    [
      "ᱟᱭ",
      "ᱮ"
    ],
    [
      "ᱯᱟᱹ",
      "ᱦᱤᱞ"
    ],
    [
      "ᱥᱤ",
      "ᱨᱟᱹ"
    ],
    [
      "ᱟ",
      "ᱥᱟᱶ"
    ],
    [
      "ᱩᱣ",
      "ᱟᱹᱱ"
    ],
    [
      "ᱥᱟ",
      "ᱫᱟᱨ"
    ],
    [
      "ᱞᱤ",
      "ᱯᱤ"
    ],
    [
      "ᱟᱵᱮ",
      "ᱣ"
    ],
    [
      "ᱚ",
      "ᱦ"
    ],
    [
      "ᱮ",
      "ᱰᱮᱠᱷᱟᱱ"
    ],
    [
      "ᱨᱮᱹ",
      "ᱧ"
    ],
    [
      "ᱟᱨ",
      "ᱚᱱ"
    ],
    [
      "ᱠᱤᱪᱷ",
      "ᱤ"
    ],
    [
      "ᱥᱮ",
      "ᱸᱜ"
    ],
    [
      "ᱯᱚᱨ",
      "ᱚᱵ"
    ],
    [
      "ᱟᱫ",
      "ᱤᱱ"
    ],
    [
      "ᱥᱟᱜᱟᱲ",
      "ᱚᱢ"
    ],
    [
      "ᱫᱤᱥ",
      "ᱟᱹ"
    ],
    [
      "ᱫᱟᱲᱮᱭ",
      "ᱟᱱ"
    ],
    [
      "ᱛᱮᱛᱮ",
      "ᱫ"
    ],
    [
      "ᱥ",
      "ᱳᱨ"
    ],
    [
      "ᱵᱟᱲ",
      "ᱛᱤ"
    ],
    [
      "ᱠᱟᱣ",
      "ᱰᱤ"
    ],
    [
      "ᱟᱹᱜ",
      "ᱩᱭ"
    ],
    [
      "ᱵᱷᱟᱹ",
      "ᱞᱟᱹᱭ"
    ],
    [
      "ᱱᱤᱡ",
      "ᱮᱨᱟᱜ"
    ],
    [
      "᱒᱐᱐",
      "᱗"
    ],
    [
      "ᱫᱚᱠ",
      "ᱛᱚ"
    ],
    [
      "ᱢᱟ",
      "ᱨᱮᱱᱟᱜ"
    ],
    [
      "ᱚᱜ",
      "ᱽ"
    ],
    [
      "ᱟᱫ",
      "ᱩᱨ"
    ],
    [
      "ᱱᱚᱝ",
      "ᱠᱟ"
    ],
    [
      "ᱥᱟᱦᱟᱨ",
      "ᱨᱮᱭᱟᱜ"
    ],
    [
      "ᱩᱱ",
      "ᱠ"
    ],
    [
      "ᱥᱟ",
      "ᱯᱷ"
    ],
    [
      "ᱥ",
      "ᱟᱹᱨ"
    ],
    [
      "ᱥ",
      "ᱨᱮᱭᱟᱜ"
    ],
    [
      "ᱢᱩᱫᱽᱨᱮ",
      "ᱢᱤᱫᱴᱟᱝ"
    ],
    [
      "ᱟᱠᱚ",
      "ᱟᱨ"
    ],
    [
      "ᱵᱮ",
      "ᱲᱦ"
    ],
    [
      "ᱥᱟᱫᱷᱟᱨᱚᱱᱚᱛ",
      "ᱚ"
    ],
    [
      "ᱤᱱ",
      "ᱫ"
    ],
    [
      "ᱟᱠᱷ",
      "ᱟᱹᱛᱤᱨ"
    ],
    [
      "ᱦ",
      "ᱮᱱ"
    ],
    [
      "ᱟᱦᱤ",
      "ᱸᱥ"
    ],
    [
      "ᱧᱮᱞ",
      "ᱢᱮ᱾</w>"
    ],
    [
      "ᱧᱮᱧᱮᱞ",
      "ᱤᱭᱟᱹᱠᱚ"
    ],
    [
      "ᱥᱚ",
      "ᱝᱜ"
    ],
    [
      "ᱞᱟᱫ",
      "ᱟᱠᱷ"
    ],
    [
      "ᱥᱮᱸᱜ",
      "ᱮᱞ"
    ],
    [
      "ᱥᱟᱸ",
      "ᱜᱷ"
    ],
    [
      "ᱵᱚᱞ",
      "ᱚᱱ"
    ],
    [
      "ᱯᱨ",
      "ᱟᱜᱽ"
    ],
    [
      "ᱪᱟᱢᱯ",
      "ᱤᱭᱟᱱᱥᱤᱯ"
    ],
    [
      "ᱥᱮᱱ",
      "ᱚᱜ"
    ],
    [
      "ᱤᱥ",
      "ᱤᱱ"
    ],
    [
      "ᱞᱮᱫ",
      "ᱟ,ᱡᱟᱦᱟᱸ"
    ],
    [
      "ᱫᱮ",
      "ᱵᱤ"
    ],
    [
      "ᱚᱥ",
      "ᱚᱢ"
    ],
    [
      "ᱨᱮ",
      "ᱵᱟᱝ"
    ],
    [
      "ᱡᱚ",
      "ᱴ"
    ],
    [
      "ᱠᱚ",
      "ᱵᱮᱱᱟᱣ"
    ],
    [
      "ᱫᱚᱯ",
      "ᱛᱚᱨ"
    ],
    [
      "ᱥᱮᱨᱢᱟ",
      "ᱩᱢᱮᱨ"
    ],
    [
      "ᱟᱹᱰᱤ",
      "ᱵᱟᱹᱲᱛᱤ"
    ],
    [
      "ᱳ",
      "ᱲᱤ"
    ],
    [
      "ᱦᱩᱭᱩᱜᱼᱟ,",
      "ᱮᱱᱠᱷᱟᱱ"
    ],
    [
      "ᱤ",
      "ᱯᱷ"
    ],
    [
      "ᱟᱹᱲ",
      "ᱦᱟᱹᱭ"
    ],
    [
      "ᱮᱢ",
      "ᱮᱛ"
    ],
    [
      "ᱨᱟᱹᱥ",
      "ᱭᱟᱹ"
    ],
    [
      "ᱣ",
      "ᱟᱹ"
    ],
    [
      "ᱳ",
      "ᱠᱟᱱ"
    ],
    [
      "ᱟᱡ",
      "ᱚᱢ"
    ],
    [
      "ᱟᱪᱮᱫ",
      "ᱟᱜ"
    ],
    [
      "ᱚᱲᱟᱜ",
      "ᱨᱮᱭᱟᱜ"
    ],
    [
      "ᱵᱤᱫ",
      "ᱽ"
    ],
    [
      "ᱤᱝ",
      "ᱞᱮᱱᱰ"
    ],
    [
      "ᱥᱮᱫ",
      "ᱠᱷᱚᱱ"
    ],
    [
      "ᱠᱚ",
      "ᱠ"
    ],
    [
      "ᱟᱸ",
      "ᱫᱷ"
    ],
    [
      "ᱮᱴ",
      "ᱠᱮᱴ"
    ],
    [
      "ᱦ",
      "ᱩᱲ"
    ],
    [
      "ᱤᱛ",
      "ᱛᱚ"
    ],
    [
      "ᱢᱩᱫ",
      "ᱤᱞ"
    ],
    [
      "ᱟᱸᱰ",
      "ᱟᱣ"
    ],
    [
      "ᱤᱥ",
      "ᱟᱨ"
    ],
    [
      "ᱟᱠᱚ",
      "ᱨᱮᱱ"
    ],
    [
      "ᱪᱮ",
      "ᱬᱮ"
    ],
    [
      "ᱢᱤᱡ",
      "ᱳᱨ"
    ],
    [
      "ᱟᱸ",
      "ᱫᱳ"
    ],
    [
      "ᱟᱞ",
      "ᱟᱹᱭ"
    ],
    [
      "ᱜᱷ",
      "ᱟᱱᱮ"
    ],
    [
      "ᱞᱮᱠ",
      "ᱟᱜᱮ"
    ],
    [
      "ᱛᱟᱢᱤᱞᱱ",
      "ᱟᱰ"
    ],
    [
      "ᱪᱷᱟᱰ",
      "ᱟᱦᱚᱸ"
    ],
    [
      "ᱦᱩᱭᱫᱟᱲᱮᱭᱟᱜ",
      "ᱼᱟ"
    ],
    [
      "ᱚᱠᱛ",
      "ᱚᱢ"
    ],
    [
      "ᱩᱜ",
      "ᱽ"
    ],
    [
      "ᱠᱚ",
      "ᱥᱮᱞᱮᱫ"
    ],
    [
      "ᱞᱟᱹ",
      "ᱞᱤᱥ"
    ],
    [
      "ᱥᱟᱺ",
      "ᱜᱤᱧ"
    ],
    [
      "ᱢᱟᱱ",
      "ᱚᱛ"
    ],
    [
      "ᱥᱚᱛᱟᱵᱫᱤ",
      "ᱨᱮ"
    ],
    [
      "ᱟ",
      "ᱰᱤ"
    ],
    [
      "ᱪᱤᱛᱟᱹᱨ",
      "ᱨᱮᱭᱟᱜ"
    ],
    [
      "ᱠᱚ",
      "ᱨᱮᱱ"
    ],
    [
      "ᱮᱱᱛᱮ",
      "ᱨᱮᱦᱚᱸ"
    ],
    [
      "ᱚᱱ",
      "ᱛᱚᱨ"
    ],
    [
      "ᱯᱚ",
      "ᱫᱚᱠ"
    ],
    [
      "ᱠᱷᱚᱱᱦᱚᱸ",
      "ᱡᱟᱹᱥᱛᱤ"
    ],
    [
      "ᱵᱚᱠ",
      "ᱥᱤᱝ"
    ],
    [
      "ᱜᱷ",
      "ᱚᱸᱜᱚᱨ"
    ],
    [
      "ᱣ",
      "ᱟᱞ"
    ],
    [
      "ᱼ",
      "ᱥᱩᱯᱩᱨ"
    ],
    [
      "ᱡᱚᱢ",
      "ᱢᱩ"
    ],
    [
      "ᱵᱷ",
      "ᱤᱱ"
    ],
    [
      "ᱞᱟᱹᱜᱤᱫ",
      "ᱟᱢ"
    ],
    [
      "ᱡᱮᱜᱮᱫ",
      "ᱨᱮᱭᱟᱜ"
    ],
    [
      "ᱦ",
      "ᱟᱹᱱ"
    ],
    [
      "᱒᱐",
      "᱐᱐"
    ],
    [
      "ᱠᱚᱢᱮᱛ",
      "ᱟᱜ"
    ],
    [
      "ᱤᱭᱟᱹ",
      "ᱭ"
    ],
    [
      "ᱸ",
      "ᱜᱮ"
    ],
    [
      "ᱢᱩᱥ",
      "ᱞᱤᱢ"
    ],
    [
      "ᱟᱯ",
      "ᱟᱹᱨᱥᱤ"
    ],
    [
      "ᱠᱩ",
      "ᱞᱤ"
    ],
    [
      "ᱦᱟᱹ",
      "ᱠᱩ"
    ],
    [
      "ᱟᱛ",
      "ᱤᱱ"
    ],
    [
      "ᱠᱚᱢ",
      "ᱯ"
    ],
    [
      "ᱢᱮᱱ",
      "ᱛᱮᱭ"
    ],
    [
      "ᱞᱳ",
      "ᱠ"
    ],
    [
      "ᱟᱡ",
      "ᱮᱱ"
    ],
    [
      "ᱡᱚᱜ",
      "ᱟᱣ"
    ],
    [
      "ᱟᱛ",
      "ᱚ"
    ],
    [
      "ᱢ",
      "ᱳᱨ"
    ],
    [
      "ᱥᱤ",
      "ᱝᱜ"
    ],
    [
      "ᱥᱟᱢ",
      "ᱨᱟᱡᱽᱡᱚ"
    ],
    [
      "ᱥᱮᱞᱥᱤᱭ",
      "ᱟᱥ"
    ],
    [
      "ᱟᱫ",
      "ᱮᱭ"
    ],
    [
      "ᱮ",
      "ᱧ"
    ],
    [
      "ᱡᱟᱦ",
      "ᱟᱱᱟᱜ"
    ],
    [
      "ᱥᱟᱞ",
      "ᱠᱷᱚᱱ"
    ],
    [
      "ᱟᱭ",
      "ᱩᱱ"
    ],
    [
      "᱑᱙",
      "᱐"
    ],
    [
      "ᱥᱟᱜ",
      "ᱚᱨ"
    ],
    [
      "ᱫᱚ",
      "ᱟᱡᱟᱜ"
    ],
    [
      "ᱟᱥ",
      "ᱟᱞᱟᱜ"
    ],
    [
      "ᱛᱮ",
      "ᱦᱮ"
    ],
    [
      "ᱨᱚ",
      "ᱯᱷ"
    ],
    [
      "ᱠᱚ",
      "ᱟᱨ"
    ],
    [
      "ᱨᱮᱭᱟᱜ",
      "ᱞᱟᱹᱠᱛᱤ"
    ],
    [
      "ᱟᱦ",
      "ᱟᱹ"
    ],
    [
      "ᱟᱠᱚ",
      ","
    ],
    [
      "ᱹ",
      "ᱮᱱ"
    ],
    [
      "ᱟᱵᱮᱣ",
      "ᱦᱟᱨ"
    ],
    [
      "ᱯᱨ",
      "ᱟᱜ"
    ],
    [
      "ᱟᱞᱤ",
      "ᱯᱤ"
    ],
    [
      "ᱥᱮᱹ",
      "ᱨᱮᱹᱧ"
    ],
    [
      "ᱛᱩᱨᱩᱭ",
      "ᱜᱚᱴᱟᱝ"
    ],
    [
      "ᱞᱤ",
      "ᱸᱜᱤ"
    ],
    [
      "ᱛ",
      "ᱟᱹᱨ"
    ],
    [
      "ᱦᱳᱭᱳᱜ",
      "ᱠᱟᱱᱟ"
    ],
    [
      "ᱝ",
      "ᱜᱟᱱ"
    ],
    [
      "ᱮᱯ",
      "ᱮᱢ"
    ],
    [
      "ᱮᱭ",
      "ᱤᱪ"
    ],
    [
      "ᱠᱚ",
      "ᱦᱟᱛᱟᱣ"
    ],
    [
      "᱑᱙᱙",
      "᱐"
    ],
    [
      "ᱵᱷ",
      "ᱟᱞ"
    ],
    [
      "ᱯᱚ",
      "ᱧᱪ"
    ],
    [
      "᱒᱐᱐",
      "᱙"
    ],
    [
      "ᱵᱟ",
      "ᱥᱤ"
    ],
    [
      "ᱡ",
      "ᱜᱟᱨ"
    ],
    [
      "ᱟᱥ",
      "ᱩᱨ"
    ],
    [
      "ᱢᱮᱱ",
      "ᱟᱭ"
    ],
    [
      "ᱟᱥ",
      "ᱟᱦᱟᱨ"
    ],
    [
      "ᱫᱚᱨ",
      "ᱵᱟᱨ"
    ],
    [
      "ᱢᱤᱫ",
      "ᱥᱟᱶᱛᱮ"
    ],
    [
      "ᱳᱲᱤ",
      "ᱥᱟ"
    ],
    [
      "ᱵᱟᱰᱟᱭ",
      "ᱧᱟᱢ"
    ],
    [
      "ᱦᱟᱹ",
      "ᱛᱤ"
    ],
    [
      "ᱟᱱᱟᱜ",
      "ᱠᱟᱱᱟ᱾</w>"
    ],
    [
      "ᱟᱹᱯ",
      "ᱩᱨᱤ"
    ],
    [
      "ᱵᱚ",
      "ᱼ"
    ],
    [
      "ᱟᱱᱟᱜ",
      "ᱟᱨ"
    ],
    [
      "ᱚᱜ",
      "ᱚᱱ"
    ],
    [
      "ᱠᱟᱨ",
      "ᱤ"
    ],
    [
      "ᱦᱤᱸᱥ",
      "ᱨᱮ"
    ],
    [
      "ᱯᱩᱨ",
      "ᱩᱱ"
    ],
    [
      "ᱟᱨ",
      "ᱯ"
    ],
    [
      "ᱩᱣ",
      "ᱟᱹᱨ"
    ],
    [
      "ᱠᱚ",
      "ᱴᱷᱮᱱ"
    ],
    [
      "ᱥᱤᱞ",
      "ᱟᱞᱤᱯᱤ"
    ],
    [
      "᱒᱐᱑᱑",
      "ᱥᱟᱞᱨᱮᱭᱟᱜ"
    ],
    [
      "ᱟᱨ",
      "ᱠᱟᱥᱢᱤᱨ"
    ],
    [
      "ᱟᱠᱚ",
      "ᱨᱮ"
    ],
    [
      "ᱪ",
      "ᱟᱣ"
    ],
    [
      "ᱢᱩ",
      "ᱪᱟᱹ"
    ],
    [
      "ᱟᱯ",
      "ᱚᱛ"
    ],
    [
      "ᱴᱚᱴᱷ",
      "ᱟᱫᱚ"
    ],
    [
      "ᱞ",
      "ᱟᱵᱷ"
    ],
    [
      "ᱡ",
      "ᱩᱨᱤ"
    ],
    [
      "ᱧᱩᱛᱩᱢᱛᱮᱦᱚᱸ",
      "ᱩᱯᱨᱩᱢ"
    ],
    [
      "ᱨᱤ",
      "ᱠᱟᱱ"
    ],
    [
      "ᱪᱮᱫᱟᱜ",
      "ᱥᱮ"
    ],
    [
      "ᱵᱤᱥᱮᱥ",
      "ᱠᱟᱭᱛᱮ"
    ],
    [
      "ᱳᱣ",
      "ᱨᱚ"
    ],
    [
      "ᱱ",
      "ᱤᱠ"
    ],
    [
      "᱔",
      "᱘"
    ],
    [
      "ᱠᱟ",
      "ᱛ"
    ],
    [
      "ᱥ",
      "ᱩᱴᱤᱝ"
    ],
    [
      "ᱤᱭᱟᱹ",
      "ᱟᱨ"
    ],
    [
      "ᱫᱟᱲᱮᱭᱟᱜᱼ",
      "ᱟᱢ᱾</w>"
    ],
    [
      "ᱵᱚ",
      "ᱥ"
    ],
    [
      "ᱯᱩᱨ",
      "ᱟᱹᱯᱩᱨᱤ"
    ],
    [
      "ᱠᱟ",
      "ᱵᱟᱰᱤ"
    ],
    [
      "ᱠᱟᱹ",
      "ᱪ"
    ],
    [
      "ᱛᱮ",
      "ᱢ"
    ],
    [
      "ᱛᱤ",
      "ᱵ"
    ],
    [
      "ᱡ",
      "ᱤᱭ"
    ],
    [
      "ᱡᱳᱜᱟᱡ",
      "ᱳᱜ"
    ],
    [
      "ᱵᱟᱹᱭ",
      "ᱛᱮ"
    ],
    [
      "ᱥᱤ",
      "ᱵ"
    ],
    [
      "ᱟᱭᱢ",
      "ᱟᱜ"
    ],
    [
      "ᱦ",
      "ᱩᱞ"
    ],
    [
      "ᱵᱤᱱᱤᱭ",
      "ᱳᱜ"
    ],
    [
      "᱒᱐᱑᱓",
      "ᱥᱟᱞᱨᱮᱭᱟᱜ"
    ],
    [
      "ᱢᱚᱨ",
      "ᱥᱩᱢ"
    ],
    [
      "ᱞᱳ",
      "ᱰ"
    ],
    [
      "ᱜᱩ",
      "ᱞᱤ"
    ],
    [
      "ᱠᱟᱛᱮ",
      "ᱭ"
    ],
    [
      "ᱛᱷ",
      "ᱚᱠ"
    ],
    [
      "ᱞᱟᱜ",
      "ᱤᱫ"
    ],
    [
      "ᱚᱞ",
      "ᱟᱠᱟᱱ"
    ],
    [
      "ᱩᱯ",
      "ᱚᱱᱚᱛ"
    ],
    [
      "ᱞᱟᱹᱜᱤᱫ",
      "ᱟᱢᱟᱜ"
    ],
    [
      "ᱟᱹᱫ",
      "ᱤ"
    ],
    [
      "ᱥ",
      "ᱯᱳᱨᱴ"
    ],
    [
      "ᱟᱨᱮᱭᱟᱜ",
      "ᱢᱤᱫᱴᱟᱝ"
    ],
    [
      "ᱵᱟᱜᱽ",
      "ᱣᱟᱱ"
    ],
    [
      "ᱜᱚᱴᱟᱵ",
      "ᱩᱴᱟᱹ"
    ],
    [
      "ᱥᱟᱹ",
      "ᱵᱩᱫ"
    ],
    [
      "ᱨ",
      "ᱟᱯᱷ"
    ],
    [
      "ᱤᱭ",
      "ᱩᱱᱤ"
    ],
    [
      "ᱟᱛᱷ",
      "ᱚᱱᱚᱛ"
    ],
    [
      "ᱱ",
      "ᱟᱹᱛ"
    ],
    [
      "ᱟᱹᱲ",
      "ᱤᱡ"
    ],
    [
      "᱓",
      "᱓"
    ],
    [
      "ᱛ",
      "ᱤᱭᱟᱱ"
    ],
    [
      "ᱩ",
      "ᱛᱷ"
    ],
    [
      "ᱨᱮ",
      "ᱯ"
    ],
    [
      "ᱱᱚ",
      "ᱡᱚᱨ"
    ],
    [
      "ᱵᱟᱯ",
      "ᱞᱟ"
    ],
    [
      "ᱟᱵ",
      "ᱟᱱ"
    ],
    [
      "ᱥᱟᱦᱟᱨ",
      "ᱨᱮ"
    ],
    [
      "ᱵᱟᱝᱞ",
      "ᱟᱫᱮᱥ"
    ],
    [
      "ᱠᱤᱨᱤᱧ",
      "ᱤᱭᱟᱹ"
    ],
    [
      "ᱩ",
      "ᱟᱨ"
    ],
    [
      "ᱠᱟᱹᱣ",
      "ᱰ"
    ],
    [
      "ᱥᱟᱵ",
      "ᱫᱚᱦᱚ"
    ],
    [
      "ᱡᱟᱱ",
      "ᱩᱣᱟᱨᱤ"
    ],
    [
      "ᱠᱳᱴᱤ",
      "ᱴᱟᱠᱟ"
    ],
    [
      "ᱦᱟᱹ",
      "ᱯᱤᱫ"
    ],
    [
      "ᱱᱚᱣ",
      "ᱟᱞ"
    ],
    [
      "ᱢᱤᱴᱟᱨ",
      "("
    ],
    [
      "ᱠᱷᱨᱤᱥᱴᱟᱵᱫᱚ",
      "ᱨᱮ"
    ],
    [
      "ᱜᱷ",
      "ᱟᱹ"
    ],
    [
      "ᱠᱷ",
      "ᱟᱸᱰᱟᱣ"
    ],
    [
      "᱑᱘",
      "᱕"
    ],
    [
      "ᱟᱱ",
      "ᱚ"
    ],
    [
      "ᱟᱦ",
      "ᱟ"
    ],
    [
      "ᱫᱚ",
      "ᱛᱟᱦᱮᱸᱠᱟᱱ"
    ],
    [
      "ᱫᱚ",
      "ᱠᱚ"
    ],
    [
      "ᱦᱩᱭᱩᱜ",
      "ᱠᱟᱱᱟ᱾</w>"
    ],
    [
      "ᱯ",
      "ᱟᱛᱟᱞ"
    ],
    [
      "ᱟᱢ",
      "ᱨᱮᱭᱟᱜ"
    ],
    [
      "ᱵᱚᱭ",
      "ᱦ"
    ],
    [
      "ᱫᱷᱟᱨ",
      "ᱚᱱ"
    ],
    [
      "ᱦᱟᱯ",
      "ᱛᱟᱨᱮ"
    ],
    [
      "ᱮᱢᱚᱱ",
      "ᱪᱮᱫ"
    ],
    [
      "ᱯᱳ",
      "ᱥᱴ"
    ],
    [
      "ᱢ",
      "ᱩᱱ"
    ],
    [
      "ᱴᱮᱸ",
      "ᱦᱟᱰ"
    ],
    [
      "ᱟᱝ",
      "ᱨᱮ"
    ],
    [
      "ᱳ",
      "ᱢ"
    ],
    [
      "ᱨᱮᱥ",
      "ᱟᱱᱟᱢ"
    ],
    [
      "ᱟᱞ",
      "ᱮᱱᱰ"
    ],
    [
      "ᱵᱤᱨᱟᱹᱫ",
      "ᱟᱹᱞᱤ"
    ],
    [
      "ᱛᱷᱟᱹᱱ",
      "ᱤᱛ"
    ],
    [
      "ᱤᱱᱰ",
      "ᱤᱭᱟᱱ"
    ],
    [
      "ᱟᱞ",
      "ᱜ"
    ],
    [
      "ᱨᱩᱯ",
      "ᱛᱮ"
    ],
    [
      "ᱠᱚᱭ",
      "ᱮᱠ"
    ],
    [
      "ᱚ",
      "ᱵᱤ"
    ],
    [
      "ᱱᱚ",
      "ᱠ"
    ],
    [
      "ᱠᱚᱢ",
      "ᱩᱫ"
    ],
    [
      "ᱡ",
      "ᱮᱞ"
    ],
    [
      "ᱚᱜ",
      "ᱮ"
    ],
    [
      "ᱡᱷ",
      "ᱚᱛ"
    ],
    [
      "ᱞᱮᱫᱮᱭ",
      "ᱟᱟᱨ"
    ],
    [
      "ᱥᱳ",
      "ᱯᱨᱳ"
    ],
    [
      "ᱵᱤᱫᱷᱟᱱ",
      "ᱥᱚᱵᱷ"
    ],
    [
      "ᱫᱚᱛ",
      "ᱛᱚ"
    ],
    [
      "ᱠᱟ",
      "ᱫ"
    ],
    [
      "ᱦᱩᱭ",
      "ᱨᱟᱠᱟᱵ"
    ],
    [
      "ᱟᱫ",
      "ᱟᱜ"
    ],
    [
      "ᱦᱟᱹᱛ",
      "ᱭᱟᱹᱨ"
    ]
  ],
  "vocab_size": 5000,
  "num_merges": 3000,
  "actual_merges": 3000,
  "vocab": [
    "ᱨᱮᱭᱟᱜᱢᱤᱫᱴᱟᱝ",
    "ᱵᱮᱲᱦ",
    "ᱟᱛ",
    "ᱴᱚᱴᱷᱟᱨᱮ",
    "ᱯᱚᱭᱮᱱᱴ",
    "ᱥᱮᱨᱢᱟ",
    "ᱠᱟᱴᱷ",
    "ᱫᱷᱟᱣ",
    "ᱦᱤᱱ",
    "᱒᱐᱑᱒",
    "ᱼ",
    "ᱡᱤᱭ",
    "ᱯᱳᱨ",
    "ᱣᱟᱜ",
    "ᱥᱮᱨ",
    "ᱵᱷᱟᱵᱽ",
    "ᱥᱨᱤ",
    "ᱞᱮ",
    "ᱮᱧᱟᱢ",
    "ᱯᱷᱮᱰᱟᱛ",
    "ᱛᱤᱨᱮ",
    "ᱵᱟᱝ",
    "ᱤᱥᱴ",
    "ᱟᱫᱮᱭ",
    "ᱟᱡ",
    "x",
    "ᱨᱮᱱ",
    "ᱡᱷᱟᱹᱣ",
    "ᱨᱮᱢᱮᱱᱟᱜ",
    "ᱛᱷᱟᱹᱭ",
    "ᱫᱟᱲᱮᱭᱟᱜᱼ",
    "ᱡᱚᱛᱚ",
    "ᱠᱟᱱᱟ᱾</w>",
    "ᱚᱱᱚᱞᱤᱭᱟᱹ",
    "ᱨᱩᱠᱷᱤᱭᱟᱹ",
    "ᱟᱡᱟᱜ",
    "ᱟᱠᱤᱭᱟᱹ",
    "ᱦᱩᱭᱞᱮᱱ",
    "ᱟᱢᱟ᱾</w>",
    "ᱸᱜᱤᱱ",
    "ᱫᱟᱵ",
    "ᱵᱟᱸ",
    "ᱵᱟᱛᱟᱣ",
    "ᱠᱚᱟᱨ",
    "ᱞᱮᱢ",
    "ᱠᱟᱹᱨ",
    "ᱚᱨᱡᱚ",
    "ᱨᱤᱛ",
    "ᱯᱟᱹᱣ",
    "᱑᱙᱔",
    "ᱟᱹᱠᱷᱩᱲ",
    "ᱩᱪᱷ",
    "ᱤᱨᱮᱱ",
    "ᱡᱟᱞ",
    "ᱥᱴᱤ",
    "ᱰᱷᱤᱨ",
    "ᱡᱟᱦᱟᱱᱟᱜ",
    "ᱟᱦᱩᱭ",
    "ᱠᱳᱢᱯᱟᱱ",
    "ᱟᱯᱷᱟᱹᱫ",
    "᱒᱐᱑᱙",
    "ᱥᱟᱺᱜᱤᱧ",
    "ᱨᱤᱥ",
    "ᱥᱚᱢ",
    "ᱞᱟᱭᱤᱱ",
    "ᱟ,ᱟᱨ",
    "ᱪᱟᱪ",
    "ᱛᱟᱞᱟᱛᱮ",
    "ᱥᱟᱹᱜᱟᱹᱭ",
    "ᱚᱱᱟᱵ",
    "ᱵᱤᱪᱟᱹᱨ",
    "ᱚᱠᱛ",
    "ᱡᱷᱚᱛᱚ",
    "ᱴᱳ",
    "ᱫᱷᱤ",
    "ᱟᱦᱟ",
    "ᱟᱢᱟᱢᱟᱜ",
    "ᱟᱵᱟᱝᱠᱷᱟᱱ",
    "ᱠᱷᱮᱞᱚᱸᱰ",
    "ᱦᱟᱣ",
    "ᱠᱷᱮᱞᱫᱚ",
    "ᱚᱜᱽ",
    "ᱹᱴᱤ",
    ",ᱢ",
    "ᱨᱟᱛᱟᱝ",
    "ᱚᱛᱚᱠᱷᱚᱱ",
    "ᱩᱥᱴᱤ",
    "ᱞᱟᱢ",
    "ᱩᱱᱤ",
    "ᱚᱥᱳᱠ",
    "ᱟᱝᱨᱮ",
    "ᱡᱟᱹᱲᱤ",
    "t",
    "ᱢᱤ",
    "ᱥᱟᱹᱨ",
    "ᱢᱟᱞ",
    "ᱟᱹᱠᱷ",
    "I",
    "ᱛᱮᱱ",
    "ᱦᱚᱫ",
    "ᱦᱩᱭᱩᱜᱠᱟᱱ",
    "ᱫᱚᱦᱚᱭ",
    "ᱫᱚᱦᱚ",
    "᱕",
    "ᱟᱹᱰᱤᱠᱚᱢ",
    "ᱪᱟᱯᱟᱞ",
    "ᱤᱭᱟᱹᱠᱚ",
    "ᱟᱵᱟᱨ",
    "ᱡᱚᱜᱟᱣ",
    "ᱥᱳᱱ",
    "ᱟᱣᱟᱱ",
    "ᱡᱟᱭᱜ",
    "e",
    "ᱚᱥᱛᱷᱟᱱ",
    "ᱱᱟᱥ",
    "ᱠᱷᱚᱡ",
    "ᱟᱢᱨᱮᱱ",
    "ᱜᱷ",
    "ᱥᱟᱵ",
    "ᱯᱟᱦᱴ",
    "ᱞᱮᱫᱟᱭ᱾</w>",
    "ᱟᱴᱚᱴᱷ",
    "ᱧᱩᱛ",
    "ᱜᱚ",
    "ᱛᱮᱞᱮ",
    "ᱟᱯᱩᱨ",
    "ᱞᱤᱸᱜᱤᱱ",
    "‌",
    "ᱦᱩᱢ",
    "ᱩᱰᱟᱹᱱ",
    "ᱠᱚᱞᱮ",
    "ᱦᱤᱞ",
    "ᱥᱟᱜᱚᱨ",
    "ᱛᱟᱸ",
    "ᱟᱦᱟᱨ",
    "ᱴᱤᱥ",
    "ᱟᱹᱨᱩᱯᱷᱮᱨᱟᱣ",
    "ᱠᱤᱢ",
    "ᱛᱮ,",
    "ᱯᱟᱛ",
    "ᱥᱤᱛᱩᱝ",
    "ᱵᱚᱱ",
    "ᱱᱚᱣᱟ",
    "ᱮᱥᱮᱫ",
    "ᱟᱯᱚᱱᱚᱛ",
    "ᱟᱨᱮᱱ",
    "ᱮ",
    "ᱱᱟᱣ",
    ",ᱟᱢ",
    "ᱡᱟᱹᱛ",
    "ᱨᱮᱫ",
    "ᱯᱟᱸᱡᱟᱭ",
    "ᱨᱮᱠᱚᱨ",
    "ᱯᱨᱟᱜ",
    "ᱪᱷᱟᱹ",
    "ᱦᱩᱰᱤᱧ",
    "ᱠᱟᱨᱰ",
    "ᱢᱮᱱᱟᱭ",
    "ᱟᱹᱭᱫᱟᱹᱨ",
    "ᱠᱟᱹᱢᱤ",
    "ᱨᱮᱡᱤ",
    "ᱥᱟᱧᱪᱟᱣ",
    "X",
    "ᱟᱠᱟᱵ",
    "र",
    "ᱵ",
    "ᱩᱲᱟᱹ",
    "ᱫᱚᱢᱤᱫᱴᱟᱝ",
    "ᱤᱠᱚ",
    "ᱟᱡᱨᱮᱱ",
    "ᱨᱟᱡᱽᱡᱚ",
    "ᱟᱛᱤᱨ",
    "ᱚᱱᱟᱛᱟᱭᱚᱢ",
    "ᱠᱩᱞ",
    "ᱯᱟᱱᱛᱷ",
    "ᱦᱳᱭᱳᱜᱠᱟᱱ",
    "ᱣᱟᱱ",
    "अ",
    "ᱞᱤᱞ",
    "ᱛᱩᱱ",
    "ᱟᱹᱜᱩᱭ",
    "᱗",
    "ᱯᱚᱱᱚᱛᱨᱮᱭᱟᱜ",
    "ᱮᱱᱟ᱾</w>",
    "ᱩᱨᱤᱛ",
    "ᱟᱰ",
    "ᱩᱯ",
    "ᱟᱹᱣ",
    "ᱠᱚᱞᱟᱹᱜᱤᱫ",
    "ᱵᱷᱟᱹᱞᱟᱹᱭ",
    "{",
    "ᱟᱭᱤᱱ",
    "ᱴᱷᱮᱱᱠᱷᱚᱱ",
    "ᱥᱮᱨᱮᱧ",
    "ᱛᱷᱚᱱᱚᱛ",
    "ᱩᱰᱷ",
    "ᱦᱮᱫ",
    "ᱟᱫᱚ",
    "ᱮᱱᱴ",
    "ᱠᱩᱭ",
    "ᱞᱟᱹᱜᱤᱫᱟᱨ",
    "ᱯᱚᱲ",
    "ᱡᱚᱫ",
    "ᱟᱞᱚᱢ",
    "ᱥᱮᱹ",
    "ᱩᱜᱽ",
    "ᱥᱤᱠᱤᱢ",
    "ᱢᱚᱦᱚᱛ",
    "ᱞᱮᱛᱟᱲᱜᱮ",
    "ᱩᱞ",
    "ᱟᱹᱪ",
    "ᱠᱩᱞᱤ",
    "ᱠᱷᱚ",
    "ᱛᱚᱞ",
    "ᱵᱟᱹᱲᱛᱤ",
    "ᱥᱩᱭ",
    "<sos>",
    "ᱜᱟᱫᱮᱞ",
    "ᱤᱛᱟᱞ",
    "ᱞᱟᱭ",
    "ᱡᱟᱨ",
    "ᱫᱟᱢ",
    "ᱜᱷᱟᱹᱞ",
    "ᱤᱭᱟᱹᱨᱤ",
    "ᱟᱹᱲᱟᱹ",
    "ᱵᱟᱲᱟᱭ",
    "ᱱᱚᱣᱟᱛᱟᱭᱚᱢ",
    "ᱵᱟᱝᱠᱷᱟᱱ",
    "ᱛᱚ",
    "ᱟᱨᱮᱭᱟᱜᱢᱤᱫᱴᱟᱝ",
    "ᱵᱟᱞ",
    "ᱚᱜᱮ",
    "ᱟᱢᱮᱱᱛᱮ",
    "ᱜᱨᱤᱠ",
    "ᱢᱟᱨᱮᱱ",
    "ᱟᱡᱟᱦᱟᱸ",
    "ᱞᱟᱹᱲᱦᱟᱹᱭᱨᱮ",
    "ᱠᱟᱢ",
    "ᱜᱳᱞ",
    "ᱢᱮᱟᱨ",
    "᱑᱙᱘",
    "ᱤᱭᱚᱨ",
    "ᱡᱟ",
    "ᱯᱟᱣ",
    "ᱵᱮᱞ",
    "ᱢᱤᱱ",
    "ᱱᱟᱹᱭ",
    "ᱥᱮᱞᱮᱫᱞᱮᱱᱟ᱾</w>",
    "ᱟᱥ",
    "ᱵᱩᱨ",
    "ᱫᱟᱨᱟᱭ",
    "ᱟᱞᱟᱣ",
    "ᱜᱟᱶᱛ",
    "ᱞᱤᱯᱤ",
    "ᱟᱟᱨ",
    "ᱨᱮᱭᱟᱜᱮ",
    "ᱵᱮᱥᱠᱤᱪᱷ",
    "ᱟᱯᱚᱨ",
    "ᱦᱩᱱᱟᱹᱨ",
    "ᱦᱩᱲ",
    "ᱥᱳᱯᱨᱳ",
    "ᱚᱱᱟᱨᱮᱭᱟᱜ",
    "ᱯᱩᱨᱟᱹᱣ",
    "ᱡᱷ",
    "ᱟᱵ",
    "ᱥᱟᱹᱦᱤᱛᱨᱮᱱᱟᱜ",
    "ᱫᱟᱹᱵᱤ",
    "ᱦᱚᱲᱞᱮᱠᱷ",
    "ᱱᱟᱭ",
    "ᱥᱮᱨᱢᱟᱫᱷ",
    "ᱵᱤᱫᱷ",
    "ᱵᱷᱮᱡ",
    "ᱜᱟᱹ",
    "ᱨᱚᱦᱚ",
    "ᱦᱤᱱᱫᱩ",
    "ᱡᱚᱛ",
    "ᱵᱷᱤᱱ",
    "ᱵᱮᱣ",
    "ᱟᱞᱮ",
    "ᱫᱟ",
    "ᱤ",
    "ᱥᱟᱢ",
    "ᱟᱦᱟᱹ",
    "ᱧᱩᱢᱟᱱ",
    "ᱴᱟᱲᱟᱝ",
    "ᱟᱭᱢᱟᱜᱟᱱ",
    "ᱟᱡᱚᱢ",
    "ᱛᱩᱢ",
    "ᱡᱮᱱ",
    "ᱫᱨᱚ",
    "ᱪᱮᱫᱟᱜ",
    "ᱠᱳᱞ",
    "ᱱᱟᱜᱟᱢ",
    "ᱰᱤᱥᱮᱢ",
    "ᱵᱤᱠ",
    "ᱢᱩᱥᱞᱤᱢ",
    "ᱟᱞᱜ",
    "ᱩᱰ",
    "ᱫᱤᱥᱚᱢ",
    "ᱠᱳᱣ",
    "ᱥᱚᱨᱮ",
    "ᱠᱤᱪᱷᱩ",
    "ᱢᱯᱟᱱ",
    "ᱥᱟᱶᱥᱟᱶᱛᱮ",
    "ᱯᱷᱟᱨ",
    "?",
    "ᱫᱚᱲᱦᱟᱛᱮ",
    "ᱞᱮᱱᱟᱟᱨ",
    "ᱚᱜᱷ",
    "ᱥᱟᱞᱨᱮ",
    "ᱨᱟᱠᱷ",
    "ᱪᱷᱩ",
    "᱑᱔",
    "ᱸᱜᱮ",
    "ᱴᱟᱭᱤᱢ",
    "ᱟᱜᱮ",
    "ᱪᱚᱠ",
    "᱘",
    "ᱮᱮᱢ",
    "ᱜᱮ,",
    "ᱟᱢᱤᱫ",
    "ᱟᱸ",
    "ᱪᱚᱞ",
    "ᱨᱚᱢ",
    "ᱱᱚᱶᱟᱫᱚ",
    "ᱤᱭᱟᱢ",
    "ᱥᱮ",
    "ᱦᱚᱸᱭ",
    "ᱠᱤᱠ",
    "ᱱᱚᱵᱷᱮᱢᱵᱚᱨ",
    "ᱥᱟᱸ",
    "ᱦᱤᱡᱩᱜ",
    "ᱥᱮᱛ",
    "ᱢᱟ",
    "ᱯᱨᱚᱛ",
    "ᱵᱚᱫᱚᱞᱛᱮ",
    "ᱥᱟᱹᱦᱤᱡ",
    "ᱢᱤᱫᱵᱟᱨ",
    "ᱟᱪᱚᱞᱚᱛᱪᱤᱛᱟᱹᱨ",
    "D",
    "ᱣᱟᱞ",
    "ᱟᱢᱡᱚᱫᱤ",
    "ᱞᱟᱹᱠᱛᱤ",
    "ᱟᱹᱯ",
    "ᱫᱤᱨ",
    "ᱡᱮᱞ",
    "ᱞᱟᱵᱷ",
    "ᱜᱷᱚᱴᱟᱣ",
    "ᱯᱩᱛ",
    "ᱵᱨᱤ",
    "ᱮᱢ",
    "ᱵᱷᱟᱜ",
    "ᱵᱚᱸᱜ",
    "ᱡᱟᱱᱟᱢ",
    "᱑᱙᱙᱐",
    "ᱢᱩᱥᱞᱟᱹ",
    "ᱴᱷᱮᱱ",
    "ᱜᱤᱛ",
    "ᱨᱟᱡᱽᱟᱹᱨᱤ",
    "ᱨᱚᱱ",
    "ᱢᱤᱴᱟᱨ(",
    "ᱢᱚ",
    "ᱥᱮᱸᱜᱮᱞ",
    "ᱯᱤᱝ",
    "ᱞᱮᱫᱮᱭᱟ᱾</w>",
    "ᱵᱮᱱᱟᱣᱞᱮᱱᱟ᱾</w>",
    "ᱠᱤᱭᱟᱹ",
    "ᱧ",
    "ᱯᱨᱚᱫᱮᱥ",
    "ᱢᱩᱢᱵᱟᱭ",
    "ᱵᱮᱱᱟᱣᱨᱮᱭᱟᱜ",
    "ᱵᱟᱵᱮᱨ",
    "ᱟᱸᱫᱳ",
    "ᱩᱥ",
    "ᱪᱷᱟᱰ",
    "ᱟᱨᱮᱛᱮ",
    "क",
    "ᱴᱟᱭ",
    "ᱞᱤᱢ",
    "ᱱᱚᱜᱚᱨ",
    "ᱟᱥᱴᱨᱚ",
    "ᱢᱚᱦᱟᱨᱟᱥᱴᱨᱚ",
    "ᱡᱟᱦᱟᱨᱮ",
    "ᱴᱨᱮᱭᱟᱜ",
    "ᱞᱟᱹᱲᱦ",
    "ᱟᱣᱩᱴ",
    "ᱧᱮᱧᱮᱞᱤᱭᱟᱹᱠᱚ",
    "ᱠᱚᱨᱮᱭᱟᱜ",
    "ᱠᱚᱦᱟᱛᱟᱣ",
    "ᱱᱟᱱ",
    "ᱰᱚ",
    "ᱵᱟᱹᱭᱛᱮ",
    "ᱞᱮᱠᱟᱛᱮᱠᱚ",
    "ᱡᱟᱦᱟᱸᱫᱚ",
    "ᱱᱚᱣᱟᱴᱚᱴᱷ",
    "ᱱᱚᱣᱟᱜ",
    "ᱵᱷᱟᱨᱚᱛ",
    "ᱫᱚᱥ",
    "ᱚᱭ",
    "ᱜᱟᱱᱚᱜ",
    "ᱟᱭᱟ᱾</w>",
    "ᱞᱟᱹᱜᱤᱫᱟᱢ",
    "ᱢᱟ᱾</w>",
    "ᱦᱟᱢᱮᱴᱞᱮᱫᱟ᱾</w>",
    "ᱦᱚ",
    "ᱚᱡᱽ",
    "ᱥᱚᱛᱟᱵ",
    "ᱥᱚᱝ",
    "ण",
    "ᱦᱮᱡ",
    "ᱯᱩᱞ",
    "ᱦᱮᱸ",
    "ᱛᱤᱨᱞᱟᱹ",
    "ᱟᱯᱮ",
    "ᱦᱩᱭᱩᱜ",
    "ᱱᱚᱣᱟᱫᱚ",
    "ᱤᱛᱤ",
    "ᱚᱥ",
    "ᱵᱤᱨᱫ",
    "ᱟᱞᱟᱹᱜᱤᱫ",
    "ᱛᱷᱚᱲ",
    "ᱡᱟᱹᱥᱛ",
    "ᱩᱨᱜ",
    "ᱯᱳᱞᱳ",
    "ᱵᱩᱨᱩ",
    "ᱦᱟᱨᱮ",
    "ᱤᱭᱩᱨ",
    "ᱥᱟᱜ",
    "ᱱᱟᱹᱛ",
    "ᱦᱟᱥ",
    "ᱟᱞᱚᱭ",
    "ᱮᱯ",
    "ᱥᱱᱚ",
    "ᱫᱟᱹ",
    "ᱟᱨᱟᱜ",
    "ᱟᱱᱮ",
    "ᱛᱤᱱ",
    "ᱠᱟᱛᱮᱜ",
    "ᱨᱚᱯᱷ",
    "ᱫᱟᱲᱮᱭᱟᱜᱼᱟ,",
    "ᱠᱷ",
    "ᱜᱚᱴᱟᱵ",
    "ᱚᱱᱛᱚᱨ",
    "°",
    "ᱵᱷᱟᱨᱚᱛᱨᱮᱭᱟᱜ",
    "ᱟᱰᱤ",
    "ᱞᱟᱯᱷᱟᱝ",
    "ᱥᱟᱹᱨᱤ",
    "ᱵᱤᱪᱷ",
    "ᱫᱮᱵᱽ",
    "ᱯᱟᱸ",
    "ᱟᱰᱷ",
    "ᱟᱱᱟᱜᱠᱟᱱᱟ᱾</w>",
    "ᱴᱤᱲᱤᱡ",
    "ᱜᱚᱢ",
    "᱒,",
    "ᱥᱴ",
    "ᱢᱮᱱ",
    "ᱮᱢᱚᱜ",
    "ᱵᱚᱭᱦ",
    "ᱵᱟᱹᱲ",
    "ᱡᱤᱞ",
    "ᱪᱷᱤᱢ",
    "ᱴᱤᱠ",
    "ᱠᱚᱠ",
    "ᱛᱮᱥᱟᱨ",
    "ᱱᱤ",
    "ᱠᱚᱝᱜᱨᱮᱥ",
    "ᱜᱷᱟᱴ",
    "ᱩᱟᱨ",
    "ᱚᱜᱼᱟ᱾</w>",
    "ᱞᱤᱠ",
    "ᱟᱢᱩᱫᱽᱨᱮ",
    "ᱛᱟᱦᱮᱸᱠᱟᱱᱟ,",
    "ᱞᱟᱹᱜᱤᱫᱢᱤᱫᱴᱟᱝ",
    "ᱞᱤᱜᱽ",
    "ᱜᱩ",
    "ᱢᱚᱛ",
    "ᱪᱮᱨ",
    "ᱩᱭᱦᱟᱹᱨᱵᱷᱟᱵᱽ",
    "ᱜᱚᱲ",
    "ᱠᱟᱛᱮᱭ",
    "ᱤᱠᱟ",
    "ᱟᱭᱢᱟ",
    "ᱞᱟᱹ",
    "ᱞᱟᱹᱠ",
    "ᱤᱛᱷ",
    "ᱴᱮᱢᱵᱚᱨ",
    "ᱱᱤᱭᱟᱹ",
    "ᱪᱚᱨᱤᱛ",
    "ᱞᱟᱜᱟᱣ",
    "ᱥᱚᱝᱜ",
    "ᱢᱟᱨ",
    "ᱟᱠᱳ",
    "ᱥᱤᱱᱮᱢ",
    "ᱤᱼ",
    "ᱠᱟᱜ",
    "ᱥᱟᱞᱠᱷᱚᱱ",
    "ᱛᱟᱹᱨᱤ",
    "ᱨ",
    "ᱵᱳᱣᱫᱷᱚ",
    "ᱯᱚᱛᱚ",
    "ᱳᱞ",
    "ᱞᱮᱹ",
    "ᱠᱷᱤᱞ",
    "ᱟᱢᱯ",
    "ᱫᱚᱠᱠᱷᱤᱱ",
    "ᱟᱨᱟᱨ",
    "ᱢᱳ",
    "ᱩᱱᱠᱚᱣᱟᱜ",
    "ᱞᱮᱛᱟᱲ",
    "ᱦᱩᱞ",
    "᱑᱙᱐",
    "ᱩᱛᱛᱚᱨᱼ",
    "ᱠᱮᱫᱟ᱾</w>",
    "ᱠᱳᱨ",
    "ᱯᱚᱱ",
    "ᱵᱩᱡᱷᱟᱹᱣ",
    "ᱪᱟᱵ",
    "ᱛᱳ",
    "ᱮᱞ",
    "ᱨᱤ",
    "ᱨᱟᱠᱷᱟᱫᱚᱦᱚ",
    "ᱠᱩᱱ",
    "ᱡᱳᱭᱱᱚᱢ",
    "ᱰᱮ",
    "ᱠᱷᱤᱱ",
    "ᱪᱤᱛᱟᱹᱨᱨᱮ",
    "ᱢᱤᱫᱴᱟᱝ",
    "ᱳᱠ",
    "ᱞᱮᱱᱟ᱾</w>",
    "ᱚᱢᱟᱱ",
    "ᱩᱜᱟᱱ",
    "ᱩᱜᱷᱚᱞ",
    "ᱟᱵᱚ",
    "व",
    "ᱠᱮᱨᱟᱞ",
    "ᱠᱮᱨᱚᱞ",
    "ᱚᱛᱚ",
    "ᱞᱮᱠᱨᱳᱥ",
    "E",
    "ᱤᱛᱟᱦᱮᱸ",
    "ᱢᱮᱱᱛᱮ",
    "ᱵᱟᱡ",
    "ᱛᱷᱟᱭ",
    "ᱟᱭᱟᱨ",
    "ᱩᱯᱨᱩᱢ",
    "ᱠᱴᱚᱨ",
    "᱐᱐",
    "ᱩᱪ",
    "ᱟᱨᱤ",
    "ᱡᱟᱦᱟᱱ",
    "ᱦᱟᱦ",
    "ᱡᱤᱵ",
    "ᱹᱵᱤ",
    "ᱟᱹᱨᱤ",
    "ᱫᱤᱞᱞᱤ",
    "ᱫᱚᱠᱟᱱ",
    "ᱩᱞᱴ",
    "ᱥᱮᱨᱢᱟᱨᱮᱭᱟᱜ",
    "᱖",
    "ᱡᱳ",
    "ᱨᱤᱠᱟᱱ",
    "ᱞᱤᱜ",
    "ᱥᱟᱞ",
    "ᱠᱨᱮᱰᱤᱴ",
    "ᱢᱤᱫᱥᱟᱶᱛᱮ",
    "ᱵᱤᱪ",
    "ᱠᱟᱴ",
    "ᱦᱩᱭᱫᱟᱲᱮᱭᱟᱜᱼᱟ᱾</w>",
    "ᱨᱟᱡᱽᱵᱚᱝᱥᱚ",
    "ᱡᱤᱱᱤᱥ",
    "ᱜᱚᱨ",
    "ᱫᱚᱥᱚᱠ",
    "ᱞᱟᱹᱜᱤᱫᱟᱢᱟᱜ",
    "ᱩᱲᱩᱵ",
    "ᱱᱚ",
    "ᱦᱩᱭᱞᱮᱱᱟᱟᱨ",
    "ᱥᱩᱨ",
    "ᱟᱭ᱾</w>",
    "ᱬ",
    "ᱚᱛᱤ",
    "ᱤᱣ",
    "ᱵᱮᱫ",
    "ᱪᱮᱬᱮ",
    "ᱠᱷᱚᱭ",
    "ᱨᱮᱭᱟᱜᱡᱚᱛᱚᱠᱷᱚᱱ",
    "ᱨᱮᱭᱟᱜᱠᱚ",
    "ᱲᱟᱜ",
    "ᱥᱟᱫᱟᱨ",
    "ᱩᱛᱱᱟᱹᱣ",
    "ᱥᱟᱹᱦᱤᱛ",
    "ᱫᱩᱥ",
    "ᱟᱹᱭᱩᱨ",
    "ᱛᱟᱨᱮ",
    "ᱛᱟᱹᱞᱤᱠᱟ",
    "ᱢᱤᱡᱳᱨ",
    "ᱡᱩᱨᱤ",
    "ᱞᱤ",
    "ᱚᱵᱚ",
    "ᱟᱫᱚᱦᱚ",
    "ᱛᱟᱦᱮᱸᱠᱟᱱᱟ",
    "ᱠᱟᱹᱣᱰᱤᱟᱹᱨᱤ",
    "ᱤᱯ",
    "ᱠᱳᱰ",
    "ᱢᱚᱞ",
    "ᱞᱟᱹᱠᱛᱤᱠᱟᱱᱟ᱾</w>",
    "᱒᱒",
    "ᱜᱟᱶ",
    "ᱩᱯᱚ",
    "ᱪᱮ",
    "ᱞᱚᱞᱚ",
    "ᱞᱟᱦᱟᱨᱮ",
    "ᱛᱟ",
    "ᱫ",
    "ᱮᱱᱛᱮ",
    "ᱮᱱ",
    "ᱥᱮᱱᱟᱯᱷᱟᱹᱫ",
    "ᱫᱚᱠᱚ",
    "ᱟ'",
    "ᱟᱹᱥᱤ",
    "ᱵᱟᱹᱱ",
    "ᱜᱤᱞ",
    "ᱴᱨᱮ",
    "ᱵᱤᱦᱟᱨ",
    "ᱜᱟᱲ",
    "ᱤᱱᱫᱳᱼ",
    "ᱚᱵᱷ",
    "ᱯᱩᱨᱤ",
    "ᱵᱷᱮᱜᱟᱨ",
    "ᱧᱡ",
    "ᱟᱥᱚᱠᱟᱭᱛᱮ",
    "ᱥᱤᱠ",
    "ᱵᱮᱱ",
    "ᱦᱮᱸᱥᱟᱹᱨᱤ",
    "ᱦᱤᱡ",
    "ष",
    "ᱟᱛᱟᱦᱮᱸ",
    "ᱠᱤᱥ",
    "ᱫᱚ\"",
    "ᱢᱚᱦᱟ",
    "ᱮᱱᱰ",
    "ᱱᱚᱣᱟᱞ",
    "ᱟᱠᱟᱫᱮᱭᱟ᱾</w>",
    "ᱠᱩᱨᱩᱢᱩᱴᱩ",
    "ᱫᱩᱨᱤᱵᱽ",
    "ᱚᱞᱚ",
    "ᱪᱩᱨᱤᱛ",
    "ᱪᱟᱥ",
    "ᱢᱚᱱ",
    "'",
    "ᱫᱮᱥ",
    "ᱚᱵ",
    "ᱨᱤᱥᱴ",
    "ᱟᱠᱚ᱾</w>",
    "ᱸᱜᱤ",
    "ᱦᱚᱲᱠᱩᱥᱤᱭᱟᱜ",
    "ᱟᱢᱢᱤᱫᱴᱟᱝ",
    "ᱟᱛᱮ",
    "ᱢᱮᱱᱟᱜᱠᱚᱣᱟ᱾</w>",
    "ᱯᱩᱨᱟᱹ",
    "ᱵᱮ",
    "᱾</w>",
    "ᱦᱟᱸ",
    "ᱫᱚᱟᱹᱰᱤ",
    "k",
    "ᱦᱮ",
    "ᱯᱟᱠᱤᱥᱛᱷᱟᱱ",
    "ᱚᱝ",
    "ᱥᱤᱯ",
    "ᱨᱮᱭᱟᱜᱞᱟᱹᱠᱛᱤ",
    "ᱢᱤᱴᱟᱨ",
    "ᱪᱟᱸᱫᱳᱨᱮ",
    "ᱡᱽ",
    "ᱥᱮᱴ",
    "ᱥᱴᱟᱨ",
    "ᱠᱷᱚᱱᱦᱚᱸᱡᱟᱹᱥᱛᱤ",
    "ि",
    "ᱯᱚ",
    "ᱟᱡᱚᱠᱷᱚᱱ",
    "ᱴᱚ",
    "ᱡᱟᱦᱟᱸ",
    "ᱥᱟᱞᱨᱮ,",
    ",ᱢᱮᱱᱠᱷᱟᱱ",
    "ᱳᱭᱮ",
    "ᱠᱷᱮᱞᱳᱰ",
    "ᱯᱟᱹᱦᱤᱞ",
    "ᱚᱱ",
    "ᱩᱣᱟᱹᱱ",
    "ᱞᱚᱞᱚᱥᱚᱝ",
    "ᱡᱟᱹᱛᱤᱭᱟᱹᱨᱤ",
    "ᱟᱦᱩᱭᱩᱜ",
    "ᱜᱩᱨ",
    "ᱥᱳᱭ",
    "ᱦᱚᱸ,",
    "ᱨᱮᱜᱮ",
    "L",
    "ᱵᱚ",
    "ᱦᱚᱲᱠᱩᱥᱤ",
    "ᱫᱷᱚᱨ",
    "ᱠᱟᱹᱢᱤᱦᱚᱨ",
    "ᱞᱟᱹᱣ",
    "ᱪᱟᱼ",
    "ᱦᱤᱱᱫᱤ",
    "ᱞᱟᱹᱞᱤᱥ",
    "ᱱᱟᱛᱷ",
    "ᱞᱟᱠᱷ",
    "ᱭ",
    "ᱥᱟᱱ",
    "ᱫᱚᱥᱟᱨ",
    "ᱤᱭᱟᱜ",
    "ᱤᱟᱨ",
    "ᱛᱟᱦᱮᱱᱟ,",
    "ᱯᱷᱟᱭ",
    "ᱮᱱᱠᱷᱟᱱ,",
    "ᱪᱟᱞᱟᱣ",
    "ᱯᱳᱭᱞᱳ",
    "ᱩᱨᱮᱭᱟᱜ",
    "ᱵᱷᱟᱞᱮ",
    "ज",
    "ᱠᱤᱨᱤᱧᱤᱭᱟᱹ",
    "ᱱᱚᱱ",
    "ᱠᱩᱲ",
    "ᱥᱚᱵᱷ",
    "ᱞᱮᱱᱟ,ᱡᱟᱦᱟᱸ",
    "ᱟᱹᱛᱤᱨ",
    "ᱠᱚᱭ",
    "ᱨᱟᱣ",
    "ᱵᱟᱦᱟᱞ",
    "ᱦᱟᱹᱵᱤᱡ",
    "ᱰᱮᱠᱷᱟᱱ",
    "ᱟᱲᱮᱭᱟᱜ",
    "ᱟᱥᱤ",
    "ᱟᱭᱤᱞ",
    "ᱟᱠᱟᱫᱟ,",
    "ᱟᱨᱮᱥᱚᱱ",
    "ᱟᱫᱩᱨ",
    "ᱢᱟᱨᱠᱤᱱᱡᱩᱠᱛᱚᱨᱟᱥᱴᱨᱚ",
    "ᱨᱮᱭᱟᱜᱢᱤᱫ",
    "ᱵᱮᱭ",
    "ᱩᱨᱤ",
    "ᱤᱱᱤᱥ",
    "ᱥᱟᱹ",
    "ᱢᱤᱫᱦᱚᱲ",
    "ᱞᱮᱫᱟᱠᱚ᱾</w>",
    "ᱹ᱕",
    "ᱮᱠᱟᱣᱩᱱ",
    "ᱩᱱ",
    "ᱪᱤᱛᱟᱹᱨᱫᱚ",
    "ᱦᱩᱭᱩᱜᱼᱟ᱾</w>",
    "ᱱᱤᱨ",
    "ᱦᱤ",
    "ᱠᱤᱨᱤᱧ",
    "ᱛᱩᱞᱟᱹ",
    "ᱠᱚᱧᱟᱢ",
    "ᱠᱟᱯᱩᱨ",
    "ी",
    "ᱟᱠᱟᱱᱟ᱾</w>",
    "ᱜᱤᱨᱤ",
    "ᱯᱮᱭ",
    "ᱟᱦᱚ",
    "ᱜᱤᱫᱽᱨᱟᱹ",
    "ᱟᱫᱤᱱ",
    "ᱢᱮᱱᱴ",
    "ᱯᱟᱹᱛᱭ",
    "ᱚᱠᱴᱳᱵᱚᱨ",
    "ᱦᱤᱢᱟᱞᱚᱭ",
    "ᱫᱚᱵᱷᱟᱨᱚᱛᱨᱮᱭᱟᱜ",
    "ᱢᱩᱬᱩᱫ",
    "ᱡᱤᱭᱟᱹ",
    "ᱧᱩᱛᱩᱢᱛᱮᱢᱤᱫᱴᱟᱝ",
    "ᱮᱞᱠᱷ",
    "ᱵᱚᱱᱫᱮᱡ",
    "ᱱᱤᱭ",
    "ᱠᱳ",
    "ᱫᱚᱭ",
    "ᱩᱠᱩᱢ",
    "ᱦᱳᱭᱳᱜᱠᱟᱱᱟ",
    "ᱴᱤ",
    "ᱩᱱᱟᱹᱨ",
    "ᱟᱭᱚᱱ",
    "ᱥᱩᱢ",
    "ᱜᱚᱞ",
    "ᱵᱮᱜᱚᱨ",
    "ᱢᱮᱱᱟᱜᱼᱟ,ᱡᱟᱦᱟᱸ",
    "ᱨᱩᱯ",
    "ᱫᱷᱟᱨᱮ",
    "ᱥᱮᱫᱟᱭ",
    "ᱥᱟᱫᱚᱢ",
    "#",
    "ᱡᱟᱦᱟᱫᱚ",
    "ᱟᱱ",
    "᱒᱐᱐᱙",
    "ᱛᱟᱯ",
    "ᱮᱱᱮ",
    "ᱟᱯᱟᱢ",
    "ᱠᱷᱮᱞᱚᱰ",
    "ᱟᱹᱯᱩᱨᱤ",
    "ᱟᱥᱮᱵᱟᱝ",
    "ᱧᱟᱢᱟᱠᱟᱱᱟ᱾</w>",
    "ᱟᱹᱠᱷᱨᱤᱧ",
    "ᱜᱟᱞ",
    "ᱠᱟᱭ",
    "ᱞᱮᱫᱟ᱾</w>",
    "ᱚᱡᱮᱫᱚ",
    "ᱯᱮᱨ",
    "ᱛᱚᱦᱚ",
    "ᱛᱮᱢ",
    "ᱠᱷᱨᱤᱥᱴᱟᱵᱫᱚ",
    "ᱵᱷᱩᱢ",
    "ᱫᱟᱣ",
    "ᱟᱛᱳ",
    "ᱟᱹᱱ",
    "ᱦᱩᱭ",
    "ᱠᱚᱨᱮᱱ",
    "ᱞᱟᱛᱟᱨ",
    "ᱟᱪᱮᱫ",
    "ᱧᱮ",
    "ᱡᱚᱛᱚᱠᱷᱚᱱ",
    "ᱟᱛᱷ",
    "ᱵᱟᱠ",
    "\"ᱟᱨ",
    "ᱛᱟᱨᱮᱭᱟᱜ",
    "ᱡᱟᱨᱯᱟ",
    "ᱯᱟᱴᱷ",
    "J",
    "ᱨᱮᱭᱟᱜᱥ",
    "ᱢᱤᱡ",
    "ᱠᱩᱨᱩᱢᱩᱴ",
    "ᱴᱚᱨ",
    "ᱠᱮᱞ",
    "ᱞᱳᱠ",
    "ᱩᱴᱤ",
    "ᱟᱥᱟᱞᱟᱜ",
    "ᱹᱟᱨ",
    "ᱪᱚᱱᱫ",
    "ᱥᱤᱞᱟᱞᱤᱯᱤ",
    "ᱟᱭᱮ",
    "ᱛᱮᱱᱟᱜ",
    "ᱟᱱᱟᱜ",
    "ᱞᱮᱫᱟ,",
    "ᱵᱚᱲᱦ",
    ")᱾</w>",
    "᱿",
    "ᱩᱣᱟᱨᱤ",
    "ᱨᱮᱹ",
    "ᱮᱫᱟ᱾</w>",
    "ᱫᱤᱥᱚᱢᱨᱮᱭᱟᱜ",
    "᱒᱘",
    "ᱩᱴᱟᱹ",
    "ᱬᱮ",
    "ᱛᱮᱞ",
    "ᱪᱟᱨ",
    "ᱧᱮᱞᱧᱟᱢᱚᱜᱼᱟ᱾</w>",
    "ᱯᱩᱨᱩᱱ",
    "ᱦᱤᱥᱟᱹᱵ",
    "ᱧᱩᱛᱩᱢᱛᱮᱦᱚᱸᱩᱯᱨᱩᱢ",
    "ᱵᱚᱨᱜ",
    "ᱛᱟᱹᱢᱤᱞ",
    "ᱠᱷᱟᱸᱰᱟᱣ",
    "ᱠᱷᱮᱞᱳᱰᱤᱭᱟᱹᱠᱚ",
    "ᱟᱦᱮᱸ",
    "ᱟᱯᱟᱭ",
    "ᱟᱭᱩᱢᱟᱹᱱ",
    "ᱤᱫᱟᱨ",
    "ᱠᱷᱟᱹᱛᱤᱨᱛᱮ",
    "᱑᱐᱐",
    "ᱞᱟᱹᱠᱛ",
    "ᱥᱟᱥᱚᱱ",
    "ᱞᱮᱱᱠᱷᱟᱱ",
    "ᱡᱤᱨᱟᱹᱣ",
    "ब",
    "ᱟᱠᱟ",
    "ᱦᱟᱞᱚᱛ",
    "ᱜᱩᱡᱨᱟᱴ",
    "ᱠᱷᱮ",
    "ᱩᱠᱷ",
    "ᱨᱟᱹᱥᱠᱟᱹ",
    "ᱯᱟᱞ",
    "ᱫᱚ",
    "ᱫᱚᱵᱟᱝ",
    "ᱯᱷᱟᱹᱫ",
    "ᱱᱚᱠ",
    "᱑᱘᱕",
    "ᱱᱚᱵᱷ",
    "ᱨᱩ",
    ")",
    "ᱦᱟᱴ",
    "ᱧᱟᱢᱚᱜ",
    "ᱩᱱᱚᱠᱛᱚ",
    "ᱟᱵᱤ",
    "ᱫᱚᱛ",
    "ᱞᱤᱥ",
    "ᱯᱷᱚᱨ",
    "ᱩᱫᱽᱨᱮ",
    "ᱦᱮᱯᱨᱟᱣ",
    "ᱫᱟᱨᱟᱭᱛᱮ",
    "ᱤᱭᱟ",
    "ᱢᱟᱥ",
    "n",
    ",ᱡᱟᱦᱟᱸᱭᱫᱚ",
    "ᱞᱟ",
    "ᱮᱠᱷ",
    "ᱼᱨᱮᱭᱟᱜ",
    "᱖᱐",
    "ᱟᱵᱷ",
    "ᱠᱳᱴᱤ",
    "ᱩᱢᱵᱟᱭ",
    "ᱳᱜ",
    "ᱨᱚᱜ",
    "ᱴᱩᱨᱱᱟᱢᱮᱱ",
    "ᱵᱷᱚ",
    "ᱟ(",
    "ᱢᱮᱥᱟ",
    "ᱠᱞ",
    "ᱯᱮᱨᱮᱡ",
    "ᱚᱵᱷᱤᱱᱮᱛ",
    "ᱴᱤᱝ",
    "ᱫᱟᱹᱭ",
    "ᱥᱟᱯ",
    "A",
    "ᱠᱟᱱ",
    "ᱪᱮᱛᱟᱱ",
    "ᱞᱟᱜ",
    "ᱨᱮᱟᱨ",
    "ᱞᱮᱫᱠᱚᱣ",
    "ᱥᱟᱵᱟᱫ",
    "ᱦᱟᱢᱮᱴ",
    "ᱵᱤ",
    "ᱩᱥᱩᱞ",
    "ᱟᱡᱟᱦᱟᱸᱫᱚ",
    "ᱟᱯᱚᱛ",
    "ᱳᱰ",
    "ᱵᱤᱥ",
    "ᱠᱚᱨᱟᱣ",
    "ᱠᱚᱶ",
    "स",
    "ᱪᱚᱱᱰᱤᱜᱚᱲ",
    "ᱵᱮᱵᱚ",
    "ᱚᱞᱤᱢ",
    "ᱵᱤᱪᱷᱱᱟᱹᱣ",
    "ᱫᱚᱲᱦ",
    "ᱥᱟᱫᱷᱟᱨᱚᱱᱛᱚ",
    "ᱛᱮᱦᱮ",
    "ᱦᱟᱹ",
    "ᱛᱟᱦᱮ",
    "ᱚᱜ",
    "ᱢᱟᱨᱟᱝ",
    "ᱯᱷᱚᱞ",
    "ᱥᱛᱷ",
    "ᱟᱜᱷ",
    "ᱯᱚᱭ",
    "ᱟᱦᱤᱸᱥ",
    "ᱥᱟᱣ",
    "ᱥᱩᱪ",
    "ᱡᱟᱦ",
    "ᱫᱮᱵ",
    "ᱹᱟᱭ",
    "ᱟᱹᱜᱤᱫ",
    "ᱟᱹᱜᱩ",
    "ᱞᱟᱹᱜᱤᱫ",
    "ᱫᱷᱟᱹᱵᱤᱡ",
    "ᱟᱠᱨᱤ",
    "ᱥᱮᱫ,",
    "ᱟᱹᱠ",
    "ᱵᱚᱼ",
    "ᱟᱢᱨᱮᱭᱟᱜ",
    "ᱨᱮᱪ",
    "ᱢᱮᱭ",
    "ᱚᱛᱛᱚ",
    ",ᱢᱤᱫᱴᱟᱝ",
    "ᱴᱟᱝ",
    "ᱩᱠᱩ",
    "ᱫᱟᱲᱮᱭ",
    "ᱟᱦᱚᱨ",
    "ᱵᱟᱰᱟᱭᱧᱟᱢ",
    "᱑,",
    "ᱥᱮᱥ",
    "ᱥᱚᱯᱷ",
    "ᱠᱚᱢᱮᱛᱟᱜ",
    "ᱮᱠᱷᱮᱱ",
    "ᱦᱤᱨᱟᱹᱣ",
    "ᱤᱡᱮ",
    "ᱠᱳᱭ",
    "ᱡᱟᱹ",
    "ᱴᱮᱸᱦᱟᱰ",
    "ᱦᱤᱨ",
    "ᱜᱚᱝᱜ",
    "ᱜᱤᱫ",
    "ᱵᱟᱹᱱᱩᱜᱼᱟ᱾</w>",
    "ᱠᱟᱹᱨᱤ",
    "ᱦᱟᱥᱟ",
    "ᱩᱜ",
    "ᱽᱨ",
    "ᱵᱟᱵ",
    "ᱱᱟ",
    "ᱟᱯᱚᱱ",
    "ᱞᱮᱱᱟ,",
    "ᱢᱩᱪᱟᱹᱫᱨᱮ",
    "ᱢᱩᱫᱽᱨᱮᱢᱤᱫᱴᱟᱝ",
    "ᱢᱚᱱᱤᱯᱩᱨ",
    "ᱪᱷᱟᱰᱟᱦᱚᱸ",
    "ᱴᱟᱨ",
    "ᱼᱟ,ᱡᱟᱦᱟᱸᱫᱚ",
    "ᱞᱟᱦ",
    "ᱟᱵᱟᱝ",
    "ᱫᱟᱹᱲ",
    "ᱱᱟᱜᱟᱢᱤᱭᱟᱹ",
    "ᱥᱟᱨ",
    "ᱜᱷᱟᱸᱨᱚ",
    "ᱟᱲ",
    "ᱲᱤ",
    "ᱟᱨᱡᱟᱣ",
    "ᱩᱴ",
    "ᱫᱷᱤᱨᱤ",
    "ᱠᱟᱥ",
    "ᱵᱷᱩ",
    "ᱢᱟᱲᱟᱝ",
    "ᱜᱮᱢ",
    "ᱛᱷ",
    "ᱛᱩ",
    "ᱪᱮᱛᱟᱱᱨᱮ",
    "᱐᱐᱐",
    "C",
    "ᱥᱩᱨᱥᱩᱯᱩᱨ",
    "ᱫᱚᱟᱡᱟᱜ",
    "ᱢᱮ,",
    "ᱯᱟᱞᱟᱣ",
    "ᱡᱟᱦᱟᱸᱨᱮ",
    "ᱠᱟᱱᱟᱟᱨ",
    "ᱡᱤᱭᱟᱹᱞᱤ",
    "ᱠᱚᱛᱟᱦᱮᱸᱠᱟᱱᱟ᱾</w>",
    "ᱩᱱᱫᱚ",
    "ᱤᱭᱟᱹᱠᱚᱣᱟᱜ",
    "ᱵᱚᱛᱚᱨ",
    "ᱵᱟᱹᱱᱤᱡ",
    "ᱶ",
    "ᱟᱭᱩᱱ",
    "ᱟᱼ",
    "ᱟᱥᱚᱱ",
    "ᱯᱤ",
    "ᱠᱚᱢᱩᱫᱨᱮ",
    "ᱵᱤᱡᱚᱭ",
    "G",
    "ᱤᱛᱟᱭᱚᱢ",
    "ᱞᱟᱠ",
    "ᱪ",
    "ᱜᱨᱤ",
    "ᱜᱮᱞᱟᱝ",
    "ᱯᱚᱨᱤᱢᱟᱱ",
    "ᱟ)",
    "ᱵᱮᱱᱟᱣᱟᱠᱟᱱ",
    "ᱠᱩ",
    "ᱣ",
    "v",
    "ᱥᱩᱵᱤᱫᱷ",
    "᱔",
    "ᱪᱤᱱ",
    "ᱚᱠᱟ",
    "ᱨᱮᱢᱮᱱᱟᱜᱼ",
    "ᱤᱱᱟᱹᱭ",
    "ᱥᱟᱹᱜᱤᱧ",
    "ᱟᱮᱢ",
    "ᱟᱜᱚᱨ",
    "ᱯᱷᱩᱨᱜ",
    "ᱛᱮᱛᱮ",
    "ᱩᱫᱩᱜᱥᱚᱫᱚᱨ",
    "ᱜᱟᱞᱚᱪ",
    "ᱰᱮᱱ",
    "ᱤᱭᱟᱱᱟᱜ",
    "᱑᱓",
    "ᱪᱟᱱ",
    "ᱡᱚᱴ",
    "ᱫᱩ",
    "ᱦᱚᱯᱚᱱ",
    "ᱦᱚᱪ",
    "ᱮᱥ",
    "ᱫᱩᱨᱤ",
    "ᱦᱩᱫ",
    "ᱛᱟᱦ",
    "ᱠᱟᱛᱮ",
    "ᱟᱱᱨᱮᱭᱟᱜ",
    "ᱮᱱᱦᱚᱸ",
    "ᱨᱟᱠᱟᱵ",
    "ो",
    "ᱼᱥᱩᱯᱩᱨ",
    "ᱠᱚᱥᱮᱞᱮᱫ",
    "ᱠᱨᱮ",
    "ᱟᱦᱚᱲ",
    "ᱮᱛᱚᱦᱚᱵ",
    "ᱡᱮᱜᱮᱫ",
    "ᱱ",
    "ᱞᱟᱹᱭᱥᱚᱫᱚᱨ",
    "ᱵᱟᱛᱷ",
    "ᱦᱟᱞ",
    "ᱨᱮᱠᱚ",
    "ᱵᱚᱨ",
    "ᱟᱢᱳ",
    "ᱜᱩᱡ",
    "ᱵᱟᱯᱞᱟ",
    "ᱠᱞᱤ",
    "ᱢᱟᱱ",
    "ᱜᱚᱡ",
    "ᱛᱟᱸᱦᱮ",
    "ᱠᱚᱨᱚᱱ",
    "ᱠᱚᱫᱚ",
    "p",
    "ᱠᱷᱚᱱᱟᱜ",
    "᱓᱖",
    "ᱜᱷᱟᱨᱚᱸᱡᱽ",
    "ᱥᱤᱨᱯᱟᱹ",
    "ᱯᱨᱚ",
    "ᱯᱮᱱ",
    "ᱩᱪᱷᱟᱹᱱ",
    "ᱛᱨᱚ",
    "ᱡᱟᱭ",
    "्",
    "ᱦᱚᱨ",
    "ᱩᱝ",
    "c",
    "ᱵᱷ",
    "ᱥᱟᱫᱷᱟᱨᱚᱱ",
    "ᱨᱮᱭᱟᱜᱠᱟᱛᱷᱟᱭ",
    "ᱵᱚᱠᱥᱤᱝ",
    "ᱟᱭ,",
    "ᱮᱢᱵᱚᱨ",
    "ᱛᱷᱟᱨ",
    "ᱦᱩᱭᱩᱜᱛᱟᱢ",
    "ᱟᱭᱳ",
    "᱑᱑",
    "ᱡᱟᱦᱟᱸᱭ",
    "ᱦᱩᱭᱩᱜᱼᱟᱟᱨ",
    "ᱡᱟᱛ",
    "ᱥᱟᱫᱷᱟᱨ",
    "᱒᱔",
    "ᱥ",
    "ᱟᱢ,",
    "ᱜᱷᱟᱨᱚᱸ",
    "ᱡᱟᱠᱟᱛ",
    "ᱥᱤᱜᱤᱞ",
    "ᱥᱟᱯᱷ",
    "ᱢᱮᱱᱠᱷᱟᱱ,",
    "आ",
    "ᱢᱮᱱᱟᱜᱼᱟ᱾</w>",
    "ᱟᱹᱞᱩ",
    "ᱦᱚᱲᱠᱚ",
    "ᱥᱮᱞᱮᱫ",
    "ᱠᱚᱧᱮᱞ",
    "ᱟᱠᱷᱲ",
    "ᱤᱭ",
    "ᱢᱮᱱᱟᱜᱼ",
    "ᱟᱹᱭᱠᱟᱹᱣ",
    "ᱩᱛᱛᱚᱨᱯᱨᱚᱫᱮᱥ",
    "ᱚᱨ",
    "ᱵᱤᱫ",
    "ᱥᱤᱞ",
    "ᱧᱟᱢ",
    "ᱥᱤᱝ",
    "ᱟᱵᱮᱜᱚᱨ",
    "ᱟᱲᱮᱭᱟᱜᱼᱟ᱾</w>",
    "ᱠᱮᱱ",
    "ᱟᱹᱛᱩ",
    "ᱮᱱᱮᱡ",
    "ᱥᱟᱨᱮᱡ",
    "4",
    "ᱨᱟᱵᱟᱝ",
    "ᱦᱤᱢ",
    "ᱛᱚᱛ",
    "ᱠᱚᱨ",
    "᱓",
    "ᱡᱤᱣ",
    "ᱞᱟᱞ",
    "ᱜᱟᱨ",
    "ᱜᱚᱱ",
    "<unk>",
    "ᱵᱷᱟᱲ",
    "ᱦᱚᱵ",
    "ᱟᱹᱫᱤ",
    "᱒᱐᱐᱗",
    "ᱟᱨᱮᱴᱟᱜ",
    "ᱚᱜᱠᱟᱱᱟ᱾</w>",
    "ᱟᱨᱵᱟᱝ",
    "ᱥᱚᱨᱠᱟᱨᱤ",
    "ᱥᱟᱜᱟᱲᱚᱢ",
    "ᱟᱠᱤ",
    "ᱮᱨᱟᱜ",
    "ᱢᱩᱪᱟᱹᱫ",
    "ᱪᱩᱠᱛᱤ",
    "ᱥᱤᱢᱟᱹ",
    "ᱝᱜᱚᱞ",
    "ᱛᱟᱞ",
    "ᱨᱮ,",
    "ᱚᱸᱜᱚᱨ",
    "ᱥᱟᱫᱷᱟᱨᱚᱱᱚᱛ",
    "ᱫᱷᱚᱢ",
    "ᱤᱝᱞᱮᱱᱰ",
    "ᱱᱚᱣᱟᱴᱚᱴᱷᱟᱨᱮ",
    "ᱵᱮᱣᱦᱟᱨ",
    "ᱥᱟ",
    "ᱞᱟᱣ",
    "ᱚᱜᱼ",
    "ᱮᱥᱮᱨ",
    "ᱰᱤᱜᱽᱨᱤ",
    "ᱯᱟᱨ",
    "ᱫᱤᱠ",
    "ᱨᱟᱥ",
    "ᱵᱟᱦᱚᱱ",
    "ᱴᱩᱨᱱᱟᱢᱮᱱᱴ",
    "ᱛᱩᱨ",
    "त",
    "ᱟᱠᱚᱫᱚ",
    "ᱞᱳ",
    "ᱫᱨ",
    "ᱤᱭᱚᱢ",
    "ᱟᱡᱟᱨ",
    "ᱟᱥᱟ",
    "ᱥᱤᱵ",
    ",",
    "ᱠᱷᱤᱥᱴ",
    "ᱵᱨ",
    "ᱟᱠᱷᱨᱤᱧ",
    "ᱠᱷᱟᱛᱤᱨ",
    ",ᱟᱨ",
    "ᱚᱜᱠᱟᱱ",
    "ᱜᱟᱝ",
    "ᱜᱟᱣ",
    "ᱠᱳᱴ",
    "ᱟᱨ",
    "ᱠᱤᱪᱷᱤ",
    "ᱩᱣᱟᱹᱲ",
    "ᱜᱩᱴ",
    "ᱤᱭᱟᱨ",
    "ᱟᱛᱤᱱ",
    "ᱲᱦᱚᱱ",
    "ᱥᱟᱨᱦᱟᱣ",
    "ᱳᱞᱟᱨ",
    "ᱤᱥᱟᱨ",
    "ᱛᱤᱱᱟᱹᱜ",
    "ᱤᱛᱚ",
    "ᱥᱤᱨᱤᱡ",
    "ᱠᱮ",
    "ᱯᱚᱧᱪ",
    "ᱹᱥᱤ",
    "ᱦᱚᱱᱚᱛ",
    "ᱛᱚᱱ",
    "h",
    "ᱟᱢᱮᱱᱟᱜᱼᱟ᱾</w>",
    "ᱡᱚᱢ",
    "ᱜᱚᱡᱽ",
    "ᱴᱚᱴᱷᱟᱨᱮᱭᱟᱜ",
    "ᱵᱳᱣ",
    "ᱯᱚᱦᱚᱫ",
    "ᱠᱮᱫᱟᱟᱨ",
    "ᱫᱟᱨᱟᱢ",
    "᱑",
    "ᱤᱭᱩᱱᱤ",
    "ᱤᱭᱚᱱᱥᱤᱯ",
    "ᱦᱩᱭᱩᱜᱠᱟᱱᱟ",
    "ᱵᱷᱟᱨ",
    "ᱟᱢᱡᱩᱫ",
    "ᱰᱷᱤᱯ",
    "ᱦᱚᱲᱢᱚ",
    "ᱨᱟᱹ",
    "ᱩ,",
    "ᱡᱟᱸ",
    "ᱨᱮᱛᱟᱦᱮᱱ",
    "ᱦᱩᱫᱟᱹ",
    "ᱜᱮᱛ",
    "ᱵᱳᱭ",
    "᱕᱐",
    "ᱱᱟᱜ",
    "ᱦᱩᱭᱫᱟᱲᱮᱭᱟᱜ",
    "ᱟᱠᱚᱟᱨ",
    ",ᱡᱟᱦᱟᱸᱫᱚ",
    "ᱴᱮᱞ",
    "ᱦ",
    "ᱠᱚᱨᱟᱣᱞᱟᱹᱜᱤᱫ",
    "ᱨᱟᱯ",
    "ᱴᱚᱴᱷ",
    "ᱩᱡ",
    "ᱥᱩᱢᱩᱝ",
    "ᱥᱟᱸᱜᱷᱟᱨ",
    "ᱥᱟᱛ",
    "ᱱᱚᱸ",
    "ᱟᱫᱚᱱ",
    "ᱤᱵ",
    "ᱯᱨᱳ",
    "ᱢᱮᱱᱟᱜᱟᱠᱟᱫᱟ᱾</w>",
    "ᱨᱮᱭᱟᱜ",
    "ᱪᱮᱫᱟᱜᱥᱮ",
    "ᱪᱮᱢᱯ",
    "ᱜᱤᱨᱟᱹᱵ",
    "ᱪᱟᱢᱯ",
    "ᱠᱟᱹᱢᱤᱭ",
    "ᱨᱤᱦᱤᱴ",
    "ᱨᱤᱭᱚ",
    "ᱞᱟᱹᱠᱛᱤᱭᱟᱱ",
    "ᱯᱩᱨ",
    "ᱚᱱᱚᱝ",
    "ᱥᱩᱯᱩᱨ",
    "ᱟᱱᱟᱨ",
    "ᱥᱮᱱ",
    "ᱨᱟᱜ",
    "ᱚᱠᱚᱭ",
    "ᱥᱟᱹᱜ",
    "ᱥᱟᱡᱟᱣ",
    "ᱱᱚᱣᱟᱥ",
    "ᱯᱟᱸᱡᱟᱧᱟᱢ",
    "ᱡᱳᱜ",
    "ᱤᱱᱥᱴ",
    "ᱟᱞᱤᱯᱤ",
    "ᱥᱨᱮᱭᱟᱜ",
    "ᱢᱟᱨᱪ",
    "ᱳ",
    "ᱟᱱᱟᱢ",
    "ᱫᱚᱯᱛᱚᱨ",
    "ᱡᱩᱞ",
    "ᱢᱟᱨᱮ",
    "ᱯᱳᱱ",
    "ᱨᱤᱠ",
    "ᱛᱮᱭᱟᱨ",
    "ᱛᱩᱨᱩᱭᱜᱚᱴᱟᱝ",
    "ᱦᱟᱹᱛ",
    "ᱱᱚᱢ",
    "ᱰᱤᱧ",
    "ᱚᱱᱚᱞ",
    "ᱫᱤ",
    "ᱠᱨᱤ",
    "ᱟᱹᱭ",
    "ᱞᱮᱠᱟᱛᱮᱭ",
    "ᱠᱟᱛᱮ,",
    "]",
    "ᱪᱷᱩᱴᱤ",
    "ᱜᱚᱲᱦᱚᱱ",
    "ᱯ",
    "ᱥᱟᱪᱟᱨ",
    "ᱩᱴᱚᱴᱷ",
    "ᱟᱣᱩᱱ",
    "ᱰᱚᱜᱚᱨ",
    "ᱨᱩᱢ",
    "ᱟᱹᱢᱤᱞ",
    "ᱟᱴᱚᱴᱷᱟᱨᱮ",
    "ᱪᱟᱯ",
    "ख",
    "ᱥᱟᱦᱚ",
    "ᱠᱩᱨ",
    "ᱹᱰᱤ",
    "ᱠᱳᱴᱤᱴᱟᱠᱟ",
    "ᱴᱤᱧ",
    "O",
    "ᱭᱫᱚ",
    "ᱦᱤᱸᱥᱨᱮ",
    "ᱥᱟᱞᱟᱜ",
    "ᱜᱮᱞ",
    "ᱞᱮᱫᱟ,ᱡᱟᱦᱟᱸ",
    "ᱡᱩᱱ",
    "ᱫᱟᱜᱽ",
    "ᱢᱟᱹᱦᱤᱛ",
    "ᱢᱩᱪᱟᱹ",
    "ᱟᱜᱟᱱ",
    "ᱵᱚᱱᱚᱫᱚᱞ",
    "ᱹᱮ",
    "*",
    "ᱥᱤᱛ",
    "ᱢᱮᱞ",
    "ᱢᱩᱴᱷᱟᱹᱱ",
    "ᱡᱟᱹᱥᱛᱤ",
    "ᱤᱵᱷ",
    "ᱥᱩᱯ",
    "ᱤᱝᱨᱮᱡᱤ",
    "ᱮᱯᱮᱢ",
    "ᱠᱮᱴ",
    "ᱠᱟᱛ",
    "ᱚᱦ",
    "ᱩᱨᱭᱟᱹ",
    "ᱛᱷᱟᱹᱱᱤᱛ",
    "ᱫᱟᱲᱮᱭᱟᱜᱼᱟ",
    "ᱞᱟᱹᱜᱤᱫᱠᱚ",
    "ᱞᱮᱫᱮᱭ",
    "ᱱᱟᱢ",
    "ᱟᱪᱚᱞ",
    "ᱛᱟᱢᱤᱞᱱᱟᱰ",
    "ᱮᱢᱮᱛ",
    "ᱫᱚᱦᱩᱭᱩᱜᱠᱟᱱ",
    "ᱢᱚᱱᱮ",
    "ᱟᱫᱮᱞ",
    "ᱱᱚᱣᱟᱯ",
    "ᱥᱩᱞ",
    "ᱚᱯ",
    "ᱦᱤᱱᱫ",
    "ᱮᱱᱮᱞ",
    "ᱥᱤᱭᱟᱱ",
    "ᱚᱪᱚᱜ",
    "ᱜᱼᱟ᱾</w>",
    "ᱟᱞ",
    "ᱟᱫᱤᱥᱚᱢ",
    "!",
    "ᱯᱟᱹᱛᱭᱟᱹᱣ",
    "ᱟᱵᱮᱣ",
    "᱒᱑",
    "ᱣᱟᱹ",
    "o",
    "ᱡᱟᱱ",
    "ᱛᱟᱦᱮᱸᱠᱟᱱ",
    "ᱠᱷᱳ",
    "ᱰᱚᱞ",
    "ᱞᱟᱠᱪᱟᱨ",
    "ᱵᱟᱪᱷᱟᱣ",
    "ᱡᱚᱥ",
    "ᱯᱞ",
    "ᱯᱷᱤᱞᱤᱢ",
    "ᱱᱚᱣᱟᱨᱮᱭᱟᱜ",
    "ᱫᱤᱥ",
    "ᱛᱮ",
    "ᱩᱬ",
    "ᱟᱟᱱᱟᱜ",
    "ᱟᱣᱛᱟᱨᱮ",
    "ᱮᱱᱮᱢ",
    "ᱥᱤᱭ",
    "ᱤᱠ",
    "ᱡᱩᱜᱽ",
    "ᱠᱩᱴ",
    "ᱞᱟᱜᱤᱫ",
    "ᱵᱷᱟᱨᱚᱛᱤᱭᱟᱹ",
    "ᱜᱚᱵᱚᱞ",
    "ᱱᱤᱠ",
    "इ",
    "ᱥᱟᱱᱟᱢ",
    "ᱫᱤᱱᱨᱮᱭᱟᱜ",
    "ᱢᱟᱹᱱ",
    "ᱵᱟᱰᱟᱭ",
    "ᱟᱯᱟᱱ",
    "ᱞᱮᱠᱟᱱᱟᱜ",
    "ᱵᱚᱱᱚ",
    "ᱮᱱᱠᱷᱟᱱ",
    "ᱧᱤᱫᱟᱹ",
    "ᱟᱱᱠᱚ",
    "ᱡᱩᱠᱛᱚᱨ",
    "ᱜᱽ",
    "V",
    "ᱡᱮ",
    "ᱵᱷᱤᱢ",
    "ᱢᱮᱜᱷᱟᱞᱚᱭ",
    "ᱩᱫ",
    "ᱵᱟᱵᱚᱛ",
    "ᱩᱛᱛᱚᱨ",
    "ᱜᱟᱭᱟᱱ",
    "ᱵᱤᱥᱮᱥᱠᱟᱭᱛᱮ",
    "ᱠᱷᱟᱱ",
    "ᱪᱟᱞᱟᱜᱼᱟ᱾</w>",
    "ᱱᱚᱣᱟᱵᱮᱜᱚᱨ",
    "ᱢᱮᱱᱮᱫ",
    "ᱵᱟᱵᱚᱫ",
    "ᱢᱟᱦ",
    "ᱼᱮ",
    "ᱵᱮᱼ",
    "ᱠᱮᱨ",
    "ᱱᱚᱣᱟᱠᱚ",
    "m",
    "ᱟᱭᱮᱢ",
    "ᱵᱮᱨ",
    "ᱞᱩ",
    "ᱟᱹᱵ",
    "ᱟᱥᱮ",
    "ᱦᱟᱹᱭ",
    "ᱟᱛᱟᱞ",
    "ᱧᱡᱽ",
    "ᱳᱯ",
    "ᱚᱢ",
    "ᱫᱚᱞ",
    "ᱟᱫᱟᱞᱚᱛ",
    "ᱚᱱᱟᱫᱚ",
    "ᱨᱮᱯ",
    "ᱱᱤᱛ",
    "ᱡᱳᱭ",
    "ᱻ",
    "ᱩᱱᱠᱤᱱ",
    "ᱮᱨ",
    "ᱟᱠᱚᱣᱟ᱾</w>",
    "ᱞᱮᱠᱟᱱ",
    "ᱞᱮᱫᱟᱭ,",
    "ᱫᱚᱨ",
    "ᱴᱷᱤ",
    "ᱚᱛᱷ",
    "ᱥᱩᱯᱟᱨ",
    "ᱢᱚᱦ",
    "ᱧᱩᱛᱩᱢᱛᱮ",
    "ᱩᱛᱷ",
    "ᱠᱷᱮᱞᱳᱰᱤᱭᱟᱹ",
    ">",
    "ᱚᱱᱚᱶ",
    "ᱩᱱᱠᱩᱣᱟᱜ",
    "ᱴᱮᱸᱦᱟᱴ",
    "ᱚᱱᱚᱣ",
    "ᱟᱨᱡ",
    "ᱠᱟᱱᱟ,",
    "ᱤᱨᱮ",
    "ᱟᱛᱟᱝ",
    "ᱠᱩᱲᱤ",
    "ᱢᱩᱱ",
    "ᱢᱩᱞ",
    "ᱠᱟᱹᱪ",
    "ᱯᱷᱤᱞ",
    "ᱫᱷᱚᱱ",
    "ᱥᱤᱨᱟᱹ",
    "ᱩᱛ",
    "ᱨᱩᱠᱷ",
    "ᱫᱤᱥᱟᱹ",
    "ᱩᱱᱤᱫᱚ",
    "ᱟᱵᱫᱚ",
    "ू",
    "ᱸᱫ",
    "ᱢᱚᱨᱥᱩᱢ",
    "ᱡᱮᱞᱮᱧ",
    "ᱢᱩᱲᱩᱛ",
    "ᱠᱚᱨᱮ",
    "ᱵᱷᱟᱨᱚᱛᱤᱭ",
    "ᱠᱚᱢᱯ",
    "ᱠᱮᱫ",
    "ᱫᱟᱱ",
    "ᱠᱟᱱᱟᱰ",
    "ᱨᱮᱭᱟᱜᱧᱩᱛᱩᱢ",
    "ᱤᱫᱤ",
    "᱒᱐᱑᱗",
    "ᱞᱮᱠᱟᱛᱮ",
    "ᱯᱟᱥᱮ",
    "ᱚᱥᱚᱢ",
    "ᱚᱠᱴᱳ",
    "ᱤᱱᱫ",
    "ᱩᱪᱟᱹᱲ",
    "ᱟᱹᱰᱤ",
    "ᱜᱤᱨ",
    "ᱫᱟᱲᱮᱭᱟᱜᱼᱟᱢ᱾</w>",
    "ᱨᱮ",
    "ᱥᱮᱨᱢ",
    "ᱠᱚᱣᱟ᱾</w>",
    "ᱛᱚᱞᱟᱥ",
    "ᱨᱮᱡ",
    "ᱞᱮᱱᱟᱭ᱾</w>",
    "ᱡᱤᱭᱚᱱ",
    "ᱫᱷᱚᱯᱨᱚᱫᱮᱥ",
    "),",
    "ᱯᱳᱥᱴ",
    "ᱜᱮ",
    "ᱢᱤᱫᱴᱮᱱ",
    "ᱥᱟᱫᱷᱟᱨᱚᱱᱚᱛᱚ",
    "ᱯᱚᱱᱚᱛᱨᱮ",
    "ᱵᱮᱱᱰᱤ",
    "ᱵᱮᱱᱟᱣᱞᱮᱫᱟ᱾</w>",
    "ᱩᱫᱜᱟᱹᱣ",
    "ᱽ",
    "ᱯᱨᱟᱜᱽ",
    "ᱜᱟᱹᱠᱷᱩᱲ",
    "ᱯᱟᱸᱡᱟ",
    "ᱩᱢᱮᱨ",
    "ᱠᱚᱵᱮᱣᱦᱟᱨ",
    "᱑᱗",
    "ᱟᱹᱲ",
    "ᱜᱟᱹᱣ",
    "ᱟ,",
    "ᱮᱥᱴ",
    "ᱟᱡᱷ",
    "ᱴᱟᱠ",
    "ᱦᱮᱡᱞᱮᱱᱟ᱾</w>",
    "ᱡᱚᱝ",
    "ᱫᱟᱭ",
    "ᱯᱟᱹᱨᱥᱤ",
    "ᱮᱰ",
    "ᱟᱹᱫ",
    "ᱯᱟᱱᱰᱚ",
    "ᱠᱟᱹᱴᱤᱡ",
    "ᱮᱸ",
    "ᱛᱮᱱᱚᱣ",
    "ᱨᱟᱹᱥᱤᱭᱟᱹ",
    "ᱹᱮᱱ",
    "ᱵᱚᱝ",
    "ᱦᱟᱹᱴᱤᱧ",
    "ᱟᱨᱥ",
    "ᱟᱹᱨᱮ",
    "ᱢᱚᱱᱫᱤᱞ",
    "ड",
    "ᱛᱟᱲ",
    "ᱟᱝ",
    "ᱩᱯᱚᱡᱟᱹᱛᱤ",
    "ᱞᱮᱱᱟ",
    "ᱮᱰᱮᱠᱷᱟᱱ",
    "ᱛᱮᱭ",
    "ᱜᱮᱫ",
    "ᱛᱷᱤ",
    "ᱟᱠᱟᱫᱟ",
    "ᱡᱩᱫ",
    "ᱴᱷᱟᱣ",
    "ᱥᱚᱦᱚᱨ",
    "ᱯᱟᱦᱟᱴ",
    "ᱟᱵᱽ",
    "ᱴᱷᱟᱹᱣᱠᱟᱹ",
    "ᱱᱮᱥ",
    "ᱟᱱ,",
    "᱒᱐᱑᱑",
    "ᱟᱨᱮᱢ",
    "ᱠᱟᱹᱭ",
    "ᱠ",
    "ᱟ,ᱮᱱᱠᱷᱟᱱ",
    "ᱟᱠᱷᱚᱱ",
    "ᱥᱟᱥᱚᱱᱤᱭᱟᱹ",
    "ᱨᱟᱱ",
    "ᱟᱯ",
    "ᱚᱴ",
    "ᱫᱷᱚᱨᱚᱢ",
    "ᱟᱨᱮᱞ",
    "ᱦᱩᱭᱞᱮᱱᱟ,",
    "ᱠᱚᱱ",
    "ᱛᱟᱱ",
    "ᱡᱚᱢᱟᱜ",
    "ᱩᱣᱟᱹᱨ",
    "ᱪᱮᱱ",
    "ᱢᱮᱱᱟᱜᱼᱟᱟᱨ",
    "ᱟᱫᱽ",
    "ᱚᱥᱴ",
    "ᱥᱚ",
    "ᱛᱟᱦᱮᱸᱠᱟᱱᱟ᱾</w>",
    "᱒᱐᱑᱕",
    "ᱳᱭ",
    "ᱡᱚᱭ",
    "ᱵᱟᱨᱭᱟ",
    "ᱵᱟᱰᱤ",
    "ᱧᱪᱟᱣ",
    "ᱠᱤᱞᱳᱢᱤᱴᱟᱨ",
    "ᱵᱟᱠᱚ",
    "ᱛᱤᱵ",
    "ᱟᱸᱰᱟᱣ",
    "᱓᱐",
    "ᱟᱥᱲ",
    "ᱛᱮᱠᱚ",
    "ᱟᱫᱟᱜ",
    "ᱤᱨ",
    "ᱛᱟᱦᱮᱸᱠᱟᱱᱟᱟᱨ",
    "ᱭᱟᱹ",
    "ᱵᱷᱚᱨ",
    "ᱡᱮ,",
    "ᱥᱟᱶᱦᱮᱫ",
    "ᱵᱷᱮᱞ",
    "ᱰᱩ",
    "ᱥᱟᱭᱤᱴ",
    "ᱞᱟᱹᱜᱤᱫᱛᱮ",
    "ै",
    "ᱟᱸᱰ",
    "ᱯᱟᱱ",
    "ᱤᱝ",
    "ᱥᱮᱞ",
    "ᱟᱢᱡᱩᱫᱤ",
    "ᱜᱟᱛᱮ",
    "ᱭᱟᱹᱲ",
    "ᱮᱢᱚᱱᱪᱮᱫ",
    "ᱪᱟᱹᱫ",
    "ᱤᱯᱷ",
    "ᱯᱟᱴ",
    "ᱟᱞᱮᱱᱟ᱾</w>",
    "ᱩᱨᱩ",
    "ᱟᱪᱷ",
    "᱑᱕",
    "ᱯᱟᱨᱚᱢ",
    "ᱢᱮᱡᱮ",
    "ᱨᱟᱹᱥ",
    "ᱪᱟᱼᱪᱟᱞᱟᱣ",
    "ᱩᱵ",
    "ᱵᱟᱜ",
    "ᱛᱚᱵᱮ",
    "ᱨᱚᱛ",
    "ᱟᱨᱯ",
    "ᱟᱨᱦᱚᱸ",
    "ᱨᱮᱱᱟᱜᱢᱤᱫᱴᱟᱝ",
    "ᱧᱮᱞᱢᱮ᱾</w>",
    "ᱵᱷᱟᱵ",
    "ᱞᱮᱫᱟᱡᱮ",
    "ᱜᱟᱰ",
    "ᱟᱲᱟᱝ",
    "ᱯᱷ",
    "ᱴᱷᱤᱠᱟᱹ",
    "ᱧᱩᱛᱩᱢ",
    "ᱨᱮᱭᱟᱜᱢᱩᱪᱟᱹᱫ",
    "ᱟᱵᱮ",
    "ᱞᱮᱫᱟᱟᱨ",
    "ᱜᱚᱰ",
    "ᱥᱚᱛ",
    "᱑᱘",
    "भ",
    "ᱩᱱᱠᱩᱫᱚ",
    "ᱥᱚᱨᱠᱟᱨᱟᱜ",
    "</w>",
    "ᱜᱤᱧ",
    "ᱞᱮᱫᱠᱚᱣᱟ᱾</w>",
    "ᱯᱤᱫ",
    "ᱛᱤᱭᱚ",
    "ᱨᱟᱭ",
    "y",
    "ᱠᱮᱴᱮᱡ",
    "ᱯᱟᱴᱷᱚᱠ",
    "ᱟᱨᱮᱱᱟᱜ",
    "ᱥᱮᱞᱥᱤᱭ",
    "ᱥᱚᱨᱮᱥ",
    "s",
    "ᱹᱮᱞ",
    "ᱥᱚᱛᱟᱵᱽᱫᱤ",
    "ᱷ",
    "ᱫᱟᱨᱮ",
    "ᱢᱤᱥ",
    "ᱥᱮᱢᱞᱮᱫ",
    "ु",
    "ᱦᱚᱨᱚᱜ",
    "ᱛᱟᱦᱮᱱᱟ᱾</w>",
    "ᱫᱩᱞᱟᱹᱲ",
    "ᱵᱮᱥ",
    "ᱢᱩᱥ",
    "ᱡᱟᱨᱯ",
    "ᱟᱠᱟᱱᱟ,",
    "ᱬᱮᱥ",
    "ᱜᱮᱭ",
    "ᱛᱨᱤ",
    "ᱫᱚᱠᱛᱚ",
    "ᱯᱟᱧᱡᱟᱵ",
    "ᱛᱟᱦᱮᱫ",
    "ᱵᱤᱨᱩᱫᱷᱨᱮ",
    "ᱫᱚᱱᱚᱣ",
    "ᱮᱛ",
    "ᱛᱟᱦᱮᱸᱫ᱾</w>",
    "ᱟᱢᱡᱟᱦᱟᱸ",
    "ᱟᱯᱷ",
    "ᱟᱭᱟᱜ",
    "ᱴᱚᱱ",
    "ᱦᱟᱛᱟᱣᱞᱮᱫᱟ᱾</w>",
    "ᱪᱟᱸ",
    "ᱩᱱᱰ",
    "ᱦᱩᱭᱞᱮᱱᱟ᱾</w>",
    "ᱳᱢ",
    "ᱞᱟᱹᱜᱤᱫᱮ",
    "ᱛᱟᱭᱟ᱾</w>",
    "ᱫᱚᱛᱛᱚ",
    "ᱟᱭᱚᱢ",
    "ᱯᱚᱨ",
    "ᱮᱦᱚᱵ",
    "ᱥᱯ",
    "ᱚᱜᱼᱟ,",
    "ᱵᱽ",
    "ᱯᱟᱛᱟᱞ",
    "ᱟᱲᱮ",
    "ᱦᱟᱢ",
    "ᱡᱳᱜᱟᱡᱳᱜ",
    "ᱡᱟᱱᱩᱣᱟᱨᱤ",
    "ᱧᱟᱯᱟᱢ",
    "ᱰᱮᱞ",
    "ᱮᱠᱟᱞ",
    "ᱤᱛ",
    "ᱼᱟᱟᱨ",
    "ᱠᱟᱥᱢᱤᱨ",
    "ᱟᱢᱤᱫᱴᱟᱝ",
    "औ",
    "ᱯᱮ",
    "ᱥᱟᱞᱨᱮᱭᱟᱜ",
    "ᱩᱢ",
    "ᱢᱩᱲᱩᱫ",
    "ᱮᱯᱨᱤᱞ",
    "ᱵᱟᱡᱟᱨ",
    "ृ",
    "ᱞᱮᱫᱟ",
    "ᱛᱟᱭ",
    "ᱩᱜᱼᱟ᱾</w>",
    "ᱦᱚᱜ",
    "ᱵᱩᱨᱩᱨᱮᱭᱟᱜ",
    "ᱫᱤᱱ",
    "ᱡᱚᱱ",
    "ᱥᱮᱨᱣᱟᱟᱱᱟᱜ",
    "थ",
    "ᱟᱱᱟᱹᱭ",
    "ᱥᱚᱨ",
    "ᱥᱚᱭ",
    "H",
    "ᱝᱜ",
    "ᱱᱟᱨ",
    "ᱜᱚᱴᱟᱭ",
    "ᱟᱜᱽ",
    "द",
    "ᱠᱟᱣᱰᱤ",
    "ᱱᱚᱝ",
    "ᱥᱤᱨᱡᱟᱹᱣ",
    "ᱠᱤᱝ",
    "म",
    "ᱵᱟᱦ",
    "ᱛᱟᱨ",
    "ᱼᱨᱮ",
    "ᱟᱴᱷ",
    "ᱤᱭᱚ",
    "ᱤᱴ",
    "ᱟᱨᱟᱡᱽ",
    "ᱯᱟᱥᱱᱟᱣ",
    "ᱚᱜᱚᱨ",
    "ᱥᱟᱸᱫᱮᱥ",
    "ᱤᱯᱩᱨ",
    "ᱞᱮᱠᱟᱜᱮ",
    "ᱵᱷᱤᱛ",
    "ᱱᱚᱶᱟᱨᱮᱭᱟᱜ",
    "ᱵᱷᱟᱨᱚᱛᱨᱮᱱ",
    "ᱜᱷᱟᱨ",
    "ᱧᱤᱫ",
    "ᱤᱭᱟᱞ",
    "ᱧᱟᱢᱟᱠᱟᱱ",
    "ᱦᱚᱱᱚᱛᱨᱮᱭᱟᱜ",
    "ᱡ",
    "}",
    "ᱮᱴ",
    "ᱱᱚᱣᱟᱢ",
    "ᱵᱷᱟᱨᱚᱛᱨᱮᱱᱟᱜ",
    "ᱜᱟᱛᱟᱠ",
    "᱑᱙᱕",
    "ᱟᱵᱮᱱᱟᱣ",
    "ᱭᱟᱜ",
    "ᱚᱞᱤᱢᱯᱤᱠ",
    "ा",
    "ᱪᱟᱪᱟᱞᱟᱣ",
    "ᱰᱤᱜᱚᱲ",
    "ᱠᱟᱱᱟ",
    "ᱟᱨᱠᱟᱥᱢᱤᱨ",
    "ᱤᱭᱟᱱᱥᱤᱯ",
    "ᱵᱮᱥᱠᱤᱪᱷᱩ",
    "ᱠᱟᱱᱟᱭ᱾</w>",
    "ᱥᱟᱯᱲᱟᱣ",
    "ᱴᱷᱟᱶ",
    "ᱛᱤᱞ",
    "ᱫᱚᱛᱟᱦᱮᱸᱠᱟᱱ",
    "ᱤᱥ",
    "ᱵᱤᱨᱤᱫ",
    "ᱥᱟᱢᱟᱝ",
    "ᱚᱣᱟ",
    "ᱩᱨ",
    "ᱱᱟᱯᱟᱭ",
    "ᱟᱹᱱᱤᱡ",
    "ᱤᱢ",
    "ᱪᱷ",
    "ᱥᱚᱛᱟᱵᱽ",
    "ᱴᱷ",
    "ᱥᱤᱝᱜ",
    "ᱡᱟᱦᱟᱭ",
    "ᱤᱭᱟᱱ",
    "ᱫᱽ",
    "ᱦᱩᱫᱤ",
    "᱙᱐",
    "ᱯᱩᱨᱵᱚ",
    "ᱯᱟᱥ",
    "ᱫᱟᱲᱮᱭᱟᱜ",
    "ᱤᱱᱰᱤᱭ",
    "ᱦᱤᱛ",
    "ᱧᱩᱛᱩᱢᱟᱱ",
    "ᱵᱤᱫᱷᱟᱱᱥᱚᱵᱷ",
    "ᱪᱟᱨᱪ",
    "ᱨᱳ",
    "ᱤᱫᱚ",
    "a",
    "ᱥᱛᱤ",
    "ᱜᱚᱲᱚ",
    "ᱭᱟᱹᱨ",
    "ᱛᱨ",
    "ᱤᱱᱴᱟᱨ",
    "ᱛᱮᱫ",
    "ᱥᱤᱭᱮᱥᱚᱱ",
    "ᱚᱣ",
    "ᱚᱠᱛᱚ,",
    "ᱴᱷᱟᱹᱱ",
    "ᱼᱟ,ᱮᱱᱠᱷᱟᱱ",
    "ᱟ",
    "ᱨᱤᱠᱟ",
    "ᱩᱫᱽ",
    "ᱵᱟᱝᱠᱚ",
    "ᱥᱟᱝ",
    "ᱵᱮᱱᱟᱣ",
    "ᱥᱨᱮ",
    "ᱥᱛ",
    "ᱦᱟᱯᱛᱟᱨᱮ",
    "ᱠᱷᱚᱨ",
    "ᱦᱟᱹᱛᱭᱟᱹᱨ",
    "ए",
    "᱕᱐᱐",
    "ᱨᱮᱢᱤᱫᱴᱟᱝ",
    "ᱟᱢᱮᱱᱟᱜ",
    "ᱩᱱᱠ",
    "ᱦᱚᱦᱚ",
    "ᱵᱷᱟᱨᱚᱛᱨᱮ",
    "ᱠᱷᱚᱞ",
    "b",
    "ᱠᱚᱣ",
    ",ᱡᱟᱦᱟᱸᱭ",
    "ᱦᱟᱯ",
    "ᱜᱚᱴᱟ",
    "ᱸᱜ",
    "ᱵᱨᱤᱴᱤᱥ",
    "ᱫᱳᱠᱟᱱ",
    "ᱨᱤᱞ",
    "ᱟᱵᱚᱨ",
    "ᱨᱮᱭᱟᱜᱱ",
    "ᱦᱟᱹᱯᱤᱫ",
    "ᱯᱩᱨᱩᱵᱽ",
    "ᱡᱚᱛᱷᱟᱛ",
    "ᱠᱟᱵᱟᱰᱤ",
    "ᱱᱚᱨ",
    "ᱠᱷᱚᱨᱚᱪ",
    "ᱛᱟᱢᱤᱞᱱ",
    "ᱟᱫᱷ",
    "ᱜᱤ",
    "ᱩᱱᱤᱱ",
    "ᱨᱮᱹᱧ",
    "ᱟᱹᱨ",
    "ᱠᱩᱥᱤᱭᱟᱜ",
    "ᱟᱥᱟᱢ",
    "ᱢᱮᱪ",
    "ᱨᱟᱦ",
    "ᱜᱩᱞᱤ",
    "ᱠᱟᱹᱨᱤᱜᱚᱞ",
    "ᱫᱚᱦᱩᱭᱩᱜᱠᱟᱱᱟ",
    "ᱮᱥᱤᱭ",
    "ᱹᱮᱯᱷ",
    "ᱫᱷᱩ",
    "ᱟᱹ",
    "ᱞᱚᱜ",
    "᱒᱐᱑᱓",
    "ᱠᱚᱣᱟᱜ",
    "ᱢᱩᱫᱤᱞ",
    "ᱢᱟᱨᱠᱤᱱ",
    "ᱞᱟᱹᱜᱤᱫ,",
    "ᱥᱩᱛ",
    "ᱹᱮᱥ",
    "ᱢᱩ",
    "ᱟᱢᱮᱨᱤᱠᱟ",
    "i",
    "ᱟᱹᱜ",
    "ᱨᱮᱭᱟᱜᱜᱚᱱᱚᱝ",
    "ᱜᱚᱲᱚᱭ",
    "ᱡᱮᱜᱮᱫᱨᱮᱭᱟᱜ",
    "ᱥᱟᱶ",
    "ᱯᱷᱮᱰᱟᱨᱮᱥᱚᱱ",
    "ᱛᱤᱭ",
    "ᱩᱨᱱᱟᱢᱮᱱ",
    "ᱱᱩ",
    "\"",
    "ᱢᱟᱱᱚᱛ",
    "ᱤᱥᱞᱟᱢ",
    "ᱜᱷᱚᱸᱜᱚᱨ",
    "ᱟᱦᱮ",
    "ᱛᱷᱚ",
    "ᱥᱤᱱ",
    "ᱤᱫᱤᱱ",
    "ᱨᱩᱯᱛᱮ",
    "ᱩᱱᱤᱭᱟᱜ",
    "ᱥᱮᱯᱴᱮᱢᱵᱚᱨ",
    "ᱫᱮᱵᱤ",
    "ᱜᱳ",
    "ᱵᱷᱟᱜᱽ",
    "ᱯᱚᱛ",
    "ᱞᱟᱹᱣᱠᱟᱹ",
    "ᱜᱷᱟᱱᱮ",
    "ᱡᱚᱫᱤ",
    "ᱞᱟᱹᱲᱦᱟᱹᱭ",
    "ᱞᱮᱠ",
    "ᱫᱟᱹᱭᱠᱟᱹ",
    "ᱦᱩᱭᱟᱠᱟᱱᱟ᱾</w>",
    "ᱠᱟᱛᱷ",
    "ᱛᱟᱦᱮᱫ᱾</w>",
    "ᱯᱚᱨᱚᱵᱽ",
    "ᱟᱢᱟᱜ",
    "ᱜᱳᱣ",
    "ᱥᱚᱢᱟᱱ",
    "ᱦᱟᱨᱟᱣ",
    "ᱵᱮᱱᱟᱣᱟᱠᱟᱱᱟ᱾</w>",
    "ᱚᱵᱽ",
    "ᱨᱟᱡᱽᱜᱟᱲ",
    "᱑᱒",
    "ᱧᱪ",
    "ᱟᱫᱟᱨ",
    "ᱛᱚᱠ",
    "ᱰᱷ",
    "ᱟᱦ",
    "ᱚᱨᱚᱢ",
    "ᱵᱟᱨᱮᱛᱮ",
    "ᱯᱷᱳᱱ",
    "ᱩᱱᱤᱫ",
    "ᱠᱷᱮᱛ",
    "ᱟᱥᱩᱨ",
    "|",
    "ᱼᱟᱱ",
    "ᱵᱮᱯᱟᱨ",
    "ᱟᱨᱢ",
    "ᱚᱡ",
    "ᱥᱮᱨᱢᱟᱠᱤᱭᱟᱹ",
    "ᱢᱤᱢᱤᱫ",
    "ᱳᱲᱤᱥᱟ",
    "ᱤᱫᱷ",
    "ᱵᱟᱨ",
    "ᱦᱤᱞᱳᱜ",
    "ᱩᱢᱟᱹᱱ",
    "ᱦᱳᱭᱳᱜᱼᱟ᱾</w>",
    "ᱠᱩᱥᱤ",
    "ᱫᱟᱞ",
    "ᱛᱟᱞᱢ",
    "ᱯᱚᱱᱚᱛ",
    "ᱛᱟᱢᱤᱞᱱᱟᱲ",
    "ᱡᱟᱣ",
    "ᱡᱷᱚᱛ",
    "᱒᱐᱑᱔",
    "ᱚᱡᱮᱛᱮ",
    "ᱟᱱᱰ",
    "ᱫᱟᱲ",
    "ᱜᱩᱱ",
    "ᱯᱨ",
    "ᱫᱟᱥ",
    "ᱡᱮᱜᱮᱫᱡᱟᱠᱟᱛ",
    "ᱥᱤᱝᱦᱚ",
    "ᱳᱣ",
    "ᱚᱲᱟᱜᱨᱮᱭᱟᱜ",
    "ᱟᱹᱢ",
    "ᱟᱛᱟᱨ",
    "ᱟᱦᱟᱨᱮ",
    "ᱵᱚᱛ",
    "ᱱᱚᱰᱮ",
    "ᱨᱤᱡᱷᱟᱹᱣ",
    "ᱯᱩᱨᱟᱹᱯᱩᱨᱤ",
    "ᱩᱨᱜᱟᱹᱱ",
    "ᱚᱱᱚ",
    "ᱱᱚᱶ",
    "ᱴ",
    "ᱵᱚᱞ",
    "ᱥᱤᱨᱯᱟᱹᱭ",
    "ᱥᱚᱫ",
    "ᱟᱜᱤᱫ",
    "ᱟᱺ",
    "ᱡᱤᱛᱟᱹᱣ",
    "ᱵᱤᱰ",
    "ᱥᱟᱢᱲᱟᱣ",
    "ᱟᱭᱢᱟᱜ",
    "ᱥᱟᱦᱟᱨᱨᱮᱭᱟᱜ",
    "ᱪᱟᱪᱞᱟᱣ",
    "ᱥᱟᱭ",
    ":",
    "ᱳᱱ",
    "ᱩᱥᱟᱹᱨ",
    "ᱯᱚᱴ",
    "ᱤᱱᱰᱤᱭᱟᱱ",
    "ᱜᱟᱹᱦᱤᱨ",
    "ᱛᱟᱲᱟᱢ",
    "ᱩᱱᱠᱩ",
    "ᱫᱚᱦᱚᱭᱢᱮ᱾</w>",
    "ᱟᱡᱮ,",
    "ᱰᱤᱥ",
    "ᱚᱱᱫ",
    "ᱨᱮᱢᱤᱫ",
    "़",
    "ᱛᱮᱱᱚᱶ",
    "ᱰᱤ",
    "ᱟᱹᱨᱩ",
    "ᱡᱚᱲᱟᱣ",
    "ᱟᱞᱟᱹᱭ",
    "ᱡᱚᱯ",
    "ᱟᱠᱷᱚᱨ",
    "ᱪᱷᱟᱹᱲ",
    "᱙",
    "ᱱᱟᱢᱮᱱ",
    "ᱚᱱᱟᱨ",
    "ᱱᱟᱞ",
    "ᱥᱚᱛᱚᱠ",
    "ᱠᱩᱥᱤᱭ",
    "ᱛᱟᱠ",
    "ᱨᱚᱝ",
    "य",
    "ᱵᱤᱥᱥᱚ",
    "ᱟᱡᱵᱟᱵ",
    "᱔᱐",
    "ट",
    "ᱟᱹᱰᱤᱜᱟᱱ",
    "ᱱᱚᱶᱟ",
    "ᱨᱮᱢᱮᱱᱟᱜᱢᱤᱫᱴᱟᱝ",
    "ᱜᱷᱚᱴᱚᱱ",
    "ᱢᱩᱬᱩᱛ",
    "ᱥᱟᱹᱦᱤᱛᱨᱮ",
    "ᱴᱤᱡ",
    "ᱩᱰᱷᱟᱹᱣ",
    "ᱢᱟᱨᱟᱣ",
    "ᱵᱷᱮ",
    "u",
    "ᱩᱣ",
    "ᱠᱚᱢᱩᱫᱽᱨᱮ",
    "ᱟᱥᱚᱠ",
    "ᱵᱟᱯᱞ",
    "ᱩᱫᱨᱮ",
    "ᱵᱟ",
    "ᱫᱤᱯ",
    "ᱡᱮᱜᱮᱛ",
    "ᱟᱢᱨᱮ",
    "ᱵᱚᱨᱜᱚᱠ",
    "प",
    "ᱥᱚᱲ",
    "ᱮᱢᱚᱱ",
    "ᱟᱠᱚᱴ",
    "ᱯᱩ",
    "ᱠᱷᱨᱤᱥᱴᱟᱵᱫᱚᱨᱮ",
    "ᱵᱤᱨ",
    "ᱟᱢᱟᱨ",
    "R",
    "ᱨᱮᱦᱚᱸ,",
    "ᱨᱤᱡ",
    "ᱤᱥᱤᱱ",
    "ᱜᱷᱚᱨ",
    "ᱥᱟᱢᱨᱟᱡᱽᱡᱚ",
    "ᱥᱟᱛᱟᱢ",
    "ᱯᱩᱨᱩᱵ",
    "ᱦᱚᱲᱟᱜ",
    "ᱢᱚᱱᱫᱤᱨ",
    "ᱦᱮᱞ",
    "ᱸ",
    "ᱞᱮᱫᱟᱭ",
    "ᱤᱭᱩᱨᱳᱯ",
    "ᱤᱱᱫᱳ",
    "ᱨᱚᱠ",
    "ᱟᱢᱮᱢ",
    "ᱵᱟᱹᱲᱤᱡ",
    "ᱦᱚᱸ",
    "ᱧᱩᱛᱩᱢᱛᱮᱦᱚᱸ",
    "ᱤᱭᱟᱹᱟᱨ",
    "ᱵᱷᱟᱭ",
    "ᱜᱩᱯ",
    "ᱤᱧ",
    "ᱯᱷᱤ",
    "ᱩᱰᱟᱹᱱᱟᱰ",
    "ᱵᱤᱱᱤᱭᱳᱜᱽ",
    "ᱞᱟᱛᱟᱨᱨᱮ",
    "ᱤᱨᱮᱭᱟᱜ",
    "ᱲ",
    "ᱠᱷᱟᱡ",
    "ᱮᱱᱚᱣ",
    "ᱚᱶ",
    "ᱟ,ᱡᱟᱦᱟᱸᱫᱚ",
    "ᱢᱚᱬᱮ",
    "ᱚᱪ",
    "ᱞᱮᱱ",
    "ᱵᱟᱪᱷ",
    "ᱤᱫ",
    "ᱯᱷᱮᱰ",
    "।",
    "ᱱᱟᱠᱷ",
    "ᱟᱠᱟᱫᱟᱟᱨ",
    "᱒᱐᱑᱓ᱥᱟᱞᱨᱮᱭᱟᱜ",
    "ᱦᱟᱹᱨ",
    "ᱢᱮ᱾</w>",
    "ᱪᱤᱛ",
    "ᱵᱟᱹᱭ",
    "ᱠᱤᱨ",
    "ᱟᱹᱲᱤᱡ",
    "ᱯᱟᱭ",
    "ᱚᱛᱮ",
    "ह",
    "ᱟᱝᱜ",
    "ᱵᱤᱨᱟᱹᱫᱟᱹᱞᱤ",
    "ᱥ,",
    "ᱵᱮᱠ",
    "ᱧᱟᱢᱞᱮᱫᱟ᱾</w>",
    "ᱵᱚᱥ",
    "ᱥᱮᱪ",
    "ᱛ",
    "ᱪᱟᱢᱯᱤᱭᱟᱱᱥᱤᱯ",
    "ᱟᱹᱥ",
    "ᱫᱚᱢ",
    "ᱟᱠᱷ",
    "ᱨᱮᱵᱮᱱ",
    "9",
    "ᱟᱣ",
    "ᱮᱴᱠᱮᱴ",
    "ᱵᱤᱡᱽᱞᱤ",
    "ᱴᱷᱤᱠ",
    "ᱠᱟᱯ",
    "ᱠᱟᱣᱩᱱ",
    "ᱪᱷᱟᱹᱲᱮᱧᱟᱢ",
    "ᱞᱮᱠᱟ",
    "ᱯᱟᱹ",
    "ᱦᱩᱭᱫᱟᱲᱮᱭᱟᱜᱼᱟ",
    "ᱞ",
    "ᱢᱚᱫ",
    "ᱟᱠᱟᱨ",
    "ᱮᱥᱳ",
    "ᱵᱟᱨᱦᱮ",
    "ᱟᱹᱨᱥᱤ",
    ",ᱡᱟᱦᱟᱸᱨᱮ",
    "ᱥᱟᱪᱟᱨᱦᱮᱫ",
    "ᱲᱤᱡ",
    "ᱦᱟᱹᱱ",
    "ᱱᱚᱣᱟᱵ",
    "<eos>",
    "ᱟᱱᱚ",
    "ᱨᱮᱴ",
    "ᱥᱮᱪᱮᱫ",
    "ᱡᱤᱱ",
    "ᱩᱠ",
    "ᱠᱤᱱ",
    "ᱦᱟᱹᱠᱩ",
    "ᱚᱴᱷ",
    "ᱠᱷᱟᱹᱛᱤᱨ",
    "ᱥᱮᱱᱚᱜ",
    "ᱫᱚᱯ",
    "ᱫᱚᱠᱷᱤᱱᱼ",
    "ᱢᱚᱬᱮᱜᱚᱴᱟᱝ",
    "ᱟᱵᱟᱱ",
    "ᱫᱟᱨᱮᱭᱟᱜ",
    "ᱥᱚᱨᱠᱟᱨ",
    "ᱮᱯᱷ",
    "ᱝᱜᱨᱮᱥ",
    "ᱨᱮᱦᱚᱸ",
    "ᱟᱠᱟᱫᱟ᱾</w>",
    "ᱳᱣᱟᱞ",
    "ᱤᱞᱞᱤ",
    "ᱟᱹᱞ",
    "ᱦᱩᱭᱩᱜᱼᱟ",
    "ᱠᱟᱛᱮᱫ",
    "ᱜᱚᱴᱟᱵᱩᱴᱟᱹ",
    "ᱢᱩᱬ",
    "ᱟᱱᱚᱣ",
    "ᱢᱮᱜᱷ",
    "ᱤᱭᱟᱹ",
    "ᱢᱤᱞ",
    "ᱟᱠᱚᱨᱮ",
    "ᱠᱤᱞᱳᱢᱤᱴᱟᱨ(",
    "ᱫᱷᱟᱨᱚᱱ",
    "ᱨᱩᱣᱟᱹᱲ",
    "ᱦᱩᱭᱫᱟᱲᱮᱭᱟᱜᱼ",
    "ᱵᱳ",
    "ं",
    "ᱵᱩᱞ",
    "ᱨᱟᱴ",
    "ᱟᱢᱟᱱ",
    "ᱫᱟᱜ",
    "ᱛᱮᱛᱮᱫ",
    "ᱡᱚᱯᱲᱟᱣ",
    "ᱺ",
    "ᱞᱟᱫᱟᱠᱷ",
    "ᱚᱠᱛᱚᱨᱮ",
    "ᱞᱚᱜᱚᱱ",
    "ᱡᱮᱜᱮᱫᱵᱤᱨᱫᱟᱹᱜᱟᱲ",
    "ᱠᱷᱮᱞ",
    "ᱠᱟᱞ",
    "ᱵᱚᱞᱚᱱ",
    "ᱢᱟᱨᱟᱴᱷ",
    "$",
    "ᱥᱮᱨᱢᱟᱨᱮ",
    "ᱟᱢᱮᱱ",
    "ᱮᱡ",
    "ᱤᱛᱦᱚᱸ",
    "?</w>",
    "ᱟᱪᱮᱛᱟᱱ",
    "ᱵᱤᱱᱤᱭ",
    "1",
    "ᱢᱮᱱᱟᱜᱼᱟ",
    "ᱠᱷᱟᱥ",
    "ᱧᱮᱞᱥᱟᱢᱴᱟᱣ",
    "ᱛᱟᱹᱞᱤ",
    "ᱤᱱᱤ",
    "ᱦᱳᱭᱳᱜ",
    "ᱳᱢᱤᱴᱟᱨ",
    "ᱨᱮᱭᱟᱜᱮᱛᱚᱦᱚᱵ",
    "ᱠᱚᱮᱢ",
    "ᱯᱷᱮᱵᱨ",
    "ᱢᱟᱭᱤᱞ)",
    "ᱜᱟᱭ",
    "ᱵᱚᱨᱜᱚᱠᱤᱞᱳᱢᱤᱴᱟᱨ",
    "ᱡᱚᱞ",
    "ᱛᱷᱚᱠ",
    "ᱩᱠᱛᱤ",
    "ᱦᱳᱭᱞᱮᱱᱟ᱾</w>",
    "ᱟ,ᱡᱟᱦᱟᱸᱭ",
    "ᱮᱥᱚᱱ",
    "ᱟᱢᱫᱚ",
    "ᱢᱮ",
    "ᱜᱮᱱ",
    "ᱥᱚᱞ",
    "ᱦᱚᱛᱮᱛᱮ",
    "ᱥᱟᱢᱴᱟᱣ",
    "ᱡᱷᱚᱛᱚᱠᱷᱚᱱ",
    "ᱛᱚᱦᱚᱵ",
    "ᱢᱩᱜᱷᱚᱞ",
    "ᱢᱮᱛ",
    "ᱦᱩᱭᱩᱜᱼᱟ,",
    "ᱰᱟᱦᱟᱨ",
    "ᱞᱮᱫ",
    "ᱨᱤᱝ",
    "ᱪᱟᱸᱜ",
    "ᱡᱚᱠᱷᱮᱡ",
    "ᱵᱤᱫᱽ",
    "ᱢᱟᱭᱤᱞ",
    "ᱟᱥᱟᱶ",
    "ᱞᱳᱰ",
    "ᱢᱟᱨᱥᱟᱞ",
    "ᱯᱟᱠᱤᱥᱛᱟᱱ",
    "ᱟᱢᱞ",
    "ᱫᱟᱯ",
    "ᱯᱩᱥᱴᱟᱹᱣ",
    "ᱤᱡᱽ",
    "@",
    "ᱡᱩᱞᱟᱭ",
    "ᱵᱚᱭ",
    "ᱟᱴ",
    "ᱟᱫᱮ",
    "=",
    "ᱟᱨᱮ",
    "ᱯᱩᱞᱤᱥ",
    "ᱪᱤᱛᱟᱹᱨ",
    "ᱮᱱᱛᱮᱨᱮᱦᱚᱸ",
    "ᱟᱢ᱾</w>",
    "ᱟᱚᱱ",
    "ᱡᱤᱛ",
    "ᱯᱚᱪᱷᱤᱢ",
    "ᱟᱨᱢᱤᱫᱴᱟᱝ",
    "ᱟᱞᱮᱠᱟᱛᱮ,",
    "ᱠᱷᱟᱱ,",
    "ᱴᱚᱴᱷᱟᱫᱚ",
    "ᱡᱮᱞᱮᱠᱟ",
    "ᱵᱳᱨ",
    "ᱫᱤᱱᱟᱹᱢ",
    "ᱵᱚᱞᱫᱚ",
    "ᱟᱥᱴ",
    "ᱟᱜᱟᱣ",
    "᱒᱐᱐",
    "ᱫᱮ",
    "ᱠᱷᱚᱱᱦᱚᱸ",
    "ᱢᱤᱫ",
    "ᱜᱷᱟᱸ",
    "ग",
    "ᱨᱟᱹᱥᱭᱟᱹ",
    "ᱨᱚᱲ",
    "ᱪᱚᱞᱚᱛᱪᱤᱛᱟᱹᱨᱨᱮ",
    "ᱟᱢ",
    "ᱟᱥᱚᱞ",
    "᱔᱘",
    "ᱱᱚᱣᱟᱯᱚᱱᱚᱛ",
    "ᱯᱚᱫ",
    "ᱵᱮᱱᱟᱣᱦᱩᱭᱞᱮᱱᱟ᱾</w>",
    "ᱟᱡᱟᱦᱟᱸᱨᱮ",
    "᱑᱖",
    "ᱩᱣᱟᱹ",
    "ᱟᱢᱚ",
    "ᱡᱚᱜ",
    "ᱤᱥᱚᱢ",
    "0",
    "↵",
    "᱾\"</w>",
    "ᱟᱪ",
    "ᱟᱢᱟᱞ",
    "ᱴᱟᱜ",
    "ᱳᱲ",
    "ᱯᱟᱲᱟᱣ",
    "ᱵᱳᱨᱰ",
    "ᱴᱟᱣ",
    "ᱟᱹᱰ",
    "ᱯᱩᱱ",
    "ᱟᱥᱟᱦᱟᱨ",
    "ᱥᱮᱞᱥᱤᱭᱟᱥ",
    "ᱚᱲ",
    "ᱵᱟᱸᱫᱷ",
    "ᱢᱮᱫ",
    "ᱯᱩᱱᱭ",
    "ᱠᱷᱟᱴ",
    "ᱞᱮᱫᱟᱭᱟᱨ",
    "ᱱᱮ",
    "ᱟ᱾</w>",
    "ᱵᱩᱫ",
    "ᱛᱷᱟᱯᱚᱱ",
    "ᱢᱮᱴ",
    "ᱰᱚᱵ",
    "ᱴᱩ",
    "ᱪᱟᱣ",
    "ᱯᱨᱟᱭ",
    "ᱟᱣᱟᱜ",
    "ᱨᱤᱭ",
    "᱒᱗",
    "ᱩᱫᱷ",
    "ᱫᱚᱨᱵᱟᱨ",
    "ᱟᱞᱚᱛ",
    "ᱡᱩᱠ",
    "ᱠᱚᱢᱚᱱ",
    "ᱟ,ᱡᱟᱦᱟᱸ",
    "ᱛᱟᱦᱮᱱᱟᱟᱨ",
    "ᱢᱟᱹ",
    "ᱫᱷᱳ",
    "ᱟᱢᱤ",
    "ᱞᱟᱹᱜᱤ",
    "ᱠᱩᱢᱟᱨ",
    "ᱛᱷᱟᱹᱱ",
    "ᱟᱦᱟᱜ",
    "ᱛᱤᱭᱟᱱ",
    "ᱵᱟᱢ",
    "ᱥᱟᱦᱟᱨ",
    "ᱟᱱᱟᱣ",
    "ᱟᱢᱮᱱᱠᱷᱟᱱ",
    "ᱢᱚᱫᱽ",
    "ᱨᱟᱡᱚᱥᱛᱷᱟᱱ",
    "ᱦᱩ",
    "ᱱᱚᱣᱟᱨᱮ",
    "ᱜᱚᱴ",
    "ᱜᱠᱟᱱ",
    "ᱛᱟᱢᱤᱞ",
    "ᱥᱚᱛᱟᱵᱫᱤᱨᱮ",
    "ᱠᱷᱨᱤᱥᱴᱚ",
    "ᱚᱸᱰ",
    "ᱤᱞ",
    "᱒᱐᱐᱐",
    "ᱟᱢᱴᱷᱮᱱ",
    "ᱟᱪᱟᱨ",
    "ᱟᱛᱟᱣ",
    "᱒᱕",
    "ᱥᱚᱫᱚᱨ",
    "ᱥᱤᱢ",
    "ᱦᱟ",
    "ᱥᱮᱭᱟᱨ",
    "ᱯᱷᱟᱹᱫᱽ",
    "ᱟᱡᱽ",
    "g",
    "ᱟ,ᱢᱮᱱᱠᱷᱟᱱ",
    "ᱯᱟ",
    "ᱦᱤᱸᱥ",
    "ᱵᱤᱱᱤᱭᱳᱜ",
    "ᱚᱠ",
    "ᱫᱩᱨ",
    "ᱟᱹᱛ",
    "ᱥᱮᱫᱠᱷᱚᱱ",
    "ᱥᱮᱨᱢᱟᱩᱢᱮᱨ",
    "ᱣᱟᱨ",
    "ᱯᱳ",
    "᱒᱐᱒᱐",
    "ᱱᱰ",
    "ᱟᱵᱽᱫᱚ",
    "ᱦᱳᱭ",
    "ᱚᱠᱛᱚ",
    "ᱟᱲᱤ",
    "ᱮᱭᱟᱭ",
    "ᱤᱫᱤᱠᱟᱛᱮᱫ",
    "ᱱᱟᱜᱟᱨ",
    "ᱱᱳ",
    "ᱵᱷᱤᱛᱤᱨ",
    "᱒᱐᱑᱖",
    "ᱵᱚᱝᱥᱚ",
    "ᱟᱨᱮᱭᱟᱜ",
    "ᱪᱤᱢ",
    "ᱚᱛᱪᱤᱛᱟᱹᱨ",
    "ᱳᱜᱽ",
    "ᱵᱤᱞᱟᱹ",
    ")ᱟᱨ",
    "ᱟᱯᱚᱱᱚᱛᱨᱮᱭᱟᱜ",
    "ᱩᱯᱚᱱᱚᱛ",
    "ᱯᱟᱲᱦᱟᱣ",
    "ᱛᱤᱨ",
    "<pad>",
    "ᱥᱟᱸᱜᱷ",
    "ᱢᱩᱨ",
    "ᱠᱚᱨᱱᱟᱴᱚᱠ",
    "ᱯᱷᱩᱨᱜᱟᱹᱞ",
    "ᱪᱮᱠ",
    "ᱵᱟᱜᱽᱣᱟᱱ",
    "ᱡᱟᱦᱟ",
    "ᱱᱚᱣ",
    "᱒",
    "ᱮᱱᱟ,",
    "ᱯᱩᱭᱞᱩ",
    "ᱚᱨᱤᱠ",
    "ᱴᱷᱟᱹᱣ",
    "ᱥᱟᱭᱦᱤᱸᱥ",
    "ᱞᱟᱹᱴ",
    "ᱰᱚᱞᱟᱨ",
    "ᱦᱩᱫᱤᱥ",
    "ᱟᱱᱚᱱᱫᱚ",
    "ᱟᱱᱟᱜᱟᱨ",
    "ᱮᱫ",
    "ᱴᱮᱱ",
    "ᱯᱚᱫᱚᱠ",
    ";",
    "ᱹ",
    "ᱥᱟᱦᱟᱨᱨᱮ",
    "ᱥᱚᱠ",
    "ᱥᱮᱞᱮ",
    "ᱠᱟᱨᱤ",
    "ᱸᱥ",
    "ᱠᱷᱚᱱ",
    "ᱚᱱᱟᱛᱮ",
    "ᱨᱮᱭᱟᱜᱯᱳᱭᱞᱳ",
    "ᱟᱠᱚᱣᱟᱜ",
    "ᱥᱟᱢᱟᱱ",
    "ᱜ",
    "ᱚᱜᱼᱟ",
    "ᱟᱛᱟᱭᱚᱢ",
    "ᱪᱟᱸᱫᱚ",
    "ᱚᱞᱟᱠᱟᱫ",
    "ᱞᱟᱹᱭ",
    "ᱠᱚᱢᱩᱫ",
    "ᱩᱵᱤᱫᱷ",
    "े",
    "ᱚᱲᱟᱜᱨᱮ",
    "ᱩᱭᱦᱟᱹᱨ",
    "ᱟᱭᱛᱮ",
    "ᱥᱟᱶᱛ",
    "ᱦᱩᱭᱨᱟᱠᱟᱵ",
    "ᱫᱮᱡ",
    "N",
    "ᱯᱟᱹᱴᱷ",
    "ᱜᱟᱱ",
    "ᱟᱯᱱᱟᱨ",
    "ᱟᱱᱤ",
    "ᱩᱯᱟᱹᱭ",
    "ᱵᱤᱞ",
    "ᱯᱚᱨᱤᱥ",
    "ᱦᱤᱫ",
    "ᱛᱟᱭᱚᱢ",
    "ᱟᱯᱚ",
    "ᱤᱨᱤ",
    "ᱟᱜᱟᱢ",
    "ᱛᱟᱦᱮᱸᱫ",
    "ᱩᱨᱩᱢ",
    "ᱢᱩᱱᱫᱤᱞ",
    "ᱛᱟᱦᱮᱸᱱ",
    "ᱥᱟᱨᱵᱷᱟᱨ",
    "ᱵᱨᱤᱴᱮᱱ",
    "ᱵᱤᱱ",
    "ᱠᱚᱢᱩᱫᱽᱨᱮᱢᱤᱫᱴᱟᱝ",
    "ᱛᱟᱭᱚᱢᱫᱟᱨᱟᱢ",
    "ᱨᱮᱭᱟᱜᱦᱤᱸᱥ",
    "ᱞᱚᱠ",
    "ᱮᱭᱟᱨ",
    "ᱤᱨᱟᱹᱞ",
    "᱓᱓",
    "ᱨᱚᱯᱚᱲ",
    "ᱚᱜᱚ",
    "ᱨᱮᱞ",
    "ᱪᱚᱨ",
    "ᱱᱮᱴ",
    "ᱟᱹᱜᱟᱲ",
    "ᱠᱟᱫ",
    "ᱛᱟᱭᱚᱢ,",
    "ᱚᱜᱚᱱ",
    "ᱯᱟᱧᱡ",
    "ᱝᱜᱟᱞ",
    "ᱥᱤᱠᱷ",
    "ᱪᱟᱢᱯᱤᱭᱚᱱᱥᱤᱯ",
    "ᱡᱟᱹᱛᱤ",
    "ᱠᱷᱤ",
    "ᱞᱮᱠᱟᱛᱮ,",
    "ᱜᱷᱚᱴ",
    "ᱥᱟᱹᱦᱤᱛᱨᱮᱭᱟᱜ",
    "ᱵᱷᱟᱱ",
    "ᱮᱧ",
    "ᱮᱱᱟᱜ",
    "ᱠᱤᱪᱷ",
    "ᱟᱞᱤ",
    "ᱳᱣᱟᱨ",
    "ᱵᱟᱫ",
    "ᱳᱲᱤ",
    "ᱯᱟᱠᱤᱥ",
    "ᱟᱹᱰᱤᱵᱟᱹᱲᱛᱤ",
    "ᱢᱩᱫᱽᱨᱮ",
    "ᱟᱦᱮᱱ",
    "ᱠᱟᱨᱛᱮ",
    "ᱵᱤᱡ",
    "ᱦᱚᱭ",
    "ᱳᱭᱞᱳ",
    "ᱟᱦᱤ",
    "ᱢᱟᱨᱠᱤᱱᱡᱩᱠᱛᱚᱨ",
    "ᱮᱥᱤ",
    "ᱠᱨᱤᱠᱮᱴ",
    "ᱵᱟᱹ",
    "ᱥᱮᱢ",
    "ᱨᱮᱢ",
    "ᱮᱛᱟᱱ",
    "ᱥᱮᱡ",
    "ᱚᱱᱫᱤᱨ",
    "᱒᱐᱑᱐",
    "ᱫᱟᱲᱮ",
    "᱒᱓",
    "ᱠᱤ",
    "ᱥᱚᱲᱚᱠ",
    "ᱨᱟᱹᱯᱩᱫ",
    "ᱟᱡᱮ",
    "ᱥᱤᱫ",
    "ᱩᱴᱤᱝ",
    "ᱥᱟᱹᱢᱩᱫ",
    "ᱨᱮᱫᱚ",
    "ᱸᱰ",
    "ᱟᱥᱟᱣ",
    "ᱟᱠᱚᱨᱟᱣ",
    "ᱵᱟᱹᱱᱩᱜ",
    "ᱚᱱᱩᱢ",
    "ᱛᱟᱞᱟᱢᱟᱞ",
    "ᱯᱷᱩᱴ",
    "ᱯᱨᱤ",
    "ᱥᱚᱱ",
    "ᱜᱟᱛ",
    "ᱤᱥᱚᱱ",
    "ᱟᱠᱤᱱ",
    "ᱯᱚᱞ",
    "ᱚᱨᱥᱚᱝ",
    "ᱟᱨᱱ",
    "ᱟ\"",
    "ᱠᱷᱚᱨᱪ",
    "ᱵᱟᱠᱷ",
    "ᱱᱟᱶ",
    "ᱟᱛᱩ",
    "ᱵᱚᱦᱚᱜ",
    "ᱟᱠᱟᱫᱟᱭ᱾</w>",
    "ᱫᱟᱲᱮᱭᱟᱜᱼᱟ᱾</w>",
    "ᱨᱮᱹᱞ",
    "ᱴᱨ",
    "ᱨᱮᱥᱮᱞᱮᱫ",
    "ᱵᱟᱲᱛᱤ",
    "ᱚᱸᱰᱮ",
    "ᱵᱚᱨᱜᱚᱠᱤᱞ",
    "ᱥᱚᱛᱟᱵᱫᱤ",
    "ᱠᱟᱭᱛᱮ",
    "-",
    "ᱯᱚᱛᱤ",
    "ᱥᱟᱠᱟᱢ",
    "ᱪᱚᱞᱚᱛᱪᱤᱛᱟᱹᱨᱨᱮᱭᱟᱜ",
    "ᱯᱟᱦ",
    "ᱫᱟᱲᱮᱭᱟᱱ",
    "ᱵᱚᱝᱜᱚ",
    "᱾",
    "ᱥᱯᱳᱨᱴ",
    "ᱥᱮᱯ",
    "ᱩᱱᱫᱤᱞ",
    "ᱩᱨᱮ",
    "ᱪᱟᱹ",
    "ᱨᱤᱱ",
    "ᱟᱡᱟᱸ",
    "ᱫᱷᱟᱥᱟᱣ",
    "ᱤᱭᱚᱱ",
    "ᱚᱱᱞᱟᱭᱤᱱ",
    "ᱨᱮᱭᱟᱲ",
    "ᱠᱷᱚᱸ",
    "ᱨᱮᱵᱟᱝ",
    "ᱢᱚᱰᱮᱞ",
    "ᱢᱟᱨᱠᱤᱱᱰᱚᱞᱟᱨ",
    "ᱛᱤ",
    "ᱠᱚᱵᱮᱱᱟᱣ",
    "ᱵᱟᱲ",
    "ᱠᱟᱹᱣᱰ",
    "ᱫᱟᱹᱨ",
    "ᱴᱚᱴᱷᱟᱠᱤᱭᱟᱹ",
    "ᱠᱚᱴ",
    "ᱵᱩᱡ",
    "ᱼᱟ᱾</w>",
    "ᱠᱷᱨᱤᱥᱴᱟᱵᱽᱫᱚ",
    "ᱛᱩᱞ",
    "\"</w>",
    "ᱵᱟᱯ",
    "ᱤᱫᱤᱠᱟᱛᱮ",
    "ᱠᱚᱢᱮᱛ",
    ",ᱡᱟᱦᱟᱸ",
    "ᱢᱮᱱᱟᱜᱼᱟ,",
    "ᱟᱭᱤᱴ",
    "ᱰᱤᱥᱮᱢᱵᱚᱨ",
    "ᱟᱶ",
    "ᱡᱩᱜ",
    "ᱨᱚᱭ",
    "ᱚᱛᱷᱟᱛ",
    "(",
    "ᱦᱚᱠᱤ",
    "ᱞᱚ",
    "ᱪᱚᱱ",
    "ᱥᱚᱦᱮᱫ",
    "/",
    "ᱟᱯᱷᱟᱝ",
    "ᱠᱷᱩ",
    "z",
    "ᱰᱤᱭ",
    "ᱦᱟᱨ",
    "ᱦᱮᱢ",
    "᱒᱐᱐᱘",
    "ᱥᱳ",
    "ᱟᱜᱟᱨ",
    "ᱟᱡᱚ",
    "᱑᱙᱗",
    "ᱫᱚᱱ",
    "ᱢᱚᱦᱟᱨ",
    "᱘᱐",
    "ᱟᱛᱷᱚᱱᱚᱛ",
    "ᱟᱫ",
    "᱒᱐᱑",
    "ᱯᱚᱨᱤᱥᱮ",
    "ᱟᱜᱚᱥᱴ",
    "ᱝᱠ",
    "ᱟᱹᱲᱦᱟᱹᱭ",
    "᱒᱐᱑᱘",
    "ᱥᱟᱹᱵᱩᱫ",
    "ᱮᱴᱟᱜ",
    "ᱮᱨᱟᱣ",
    "ᱟᱵᱮᱣᱦᱟᱨ",
    "ᱞᱟᱹᱲ",
    "ᱤᱰ",
    "ᱞᱟᱦᱟ",
    "ᱚᱵᱷᱤᱱ",
    "ᱟᱜ",
    "ᱟᱭ",
    "ᱡᱚᱠᱷᱚᱱ",
    "ᱱᱚᱛ",
    "ᱚᱱᱟᱠᱚ",
    "ᱦᱩᱭᱩᱜᱠᱟᱱᱟ᱾</w>",
    "ᱥᱟᱺ",
    "ᱛᱟᱦᱮᱸ᱾</w>",
    "ᱟᱪᱮᱫᱟᱜ",
    "ᱧᱮᱞ",
    "ᱨᱟᱡᱽᱯᱟᱴ",
    "\"᱾</w>",
    "ᱥᱟᱵᱫᱚᱦᱚ",
    "ᱟᱠᱷᱟᱹᱛᱤᱨ",
    "ᱟᱠᱟᱛ",
    "ᱟᱡᱟᱦ",
    "ᱳᱴ",
    "ᱤᱛᱠᱟᱹᱨ",
    "ᱨᱮᱥᱤ",
    "ᱥᱩᱴᱤᱝ",
    "ᱛᱚᱢ",
    "ᱚᱱᱰ",
    "᱒᱐᱑᱑ᱥᱟᱞᱨᱮᱭᱟᱜ",
    "ᱠᱟ",
    "ᱠᱚᱲ",
    "ᱱᱤᱡᱮᱨᱟᱜ",
    "ᱟᱵᱮᱱ",
    "M",
    "ᱛᱟᱦᱚ",
    "ᱨᱟ",
    "ᱜᱟᱹᱰᱤ",
    "ᱠᱚᱞ",
    "ᱟᱠᱚᱣ",
    "ᱟ,ᱡᱟᱦᱟᱸᱨᱮ",
    "ᱡᱚᱠᱷ",
    "ᱱᱟᱴᱚᱠ",
    "ᱮᱭ",
    "ᱢᱳᱨ",
    "w",
    "ᱟᱦᱚᱸ",
    "ᱠᱷᱚᱵᱚᱨ",
    "ᱫᱩᱨᱤᱵ",
    "᱑᱙",
    "ᱩᱱᱤᱨᱮᱱ",
    "ᱵᱤᱡᱽ",
    "ᱢᱟᱱᱟᱣ",
    "ᱥᱤᱨ",
    "ᱲᱮ",
    "ᱥᱮᱨᱢᱟᱛᱟᱭᱚᱢ",
    "ᱲᱦ",
    "ᱢᱚᱨ",
    "ᱟᱹᱵᱤᱡ",
    "ᱯᱩᱫ",
    "ᱫᱚᱠ",
    "ᱚᱱᱟᱜ",
    "ᱟᱛᱟᱞᱟᱛᱮ",
    "ᱜᱤᱨᱟᱹᱵᱟᱥ",
    "ᱩᱱᱤᱥ",
    "ᱯᱟᱲ",
    "ᱯᱚᱠ",
    "ᱴᱮᱠᱟᱣ",
    "ᱟᱸᱫᱷ",
    "ᱚᱱᱟ",
    "ᱟᱞᱮᱱᱰ",
    "ᱟᱠᱚ,",
    "ᱦᱚᱲᱠᱚᱣᱟᱜ",
    "ᱭᱟᱨ",
    "ᱥᱟᱛᱵᱟᱦᱚᱱ",
    "ᱼᱟ,",
    "ᱪᱟᱸᱫᱳ",
    "%",
    "ᱟᱫᱮᱥ",
    "ᱚᱞ",
    "ᱟᱱᱟᱴ",
    "ᱯᱤᱠ",
    "ᱦᱟᱱ",
    "ᱜᱤᱰᱤ",
    "ᱪᱚᱞᱚᱛᱪᱤᱛᱟᱹᱨ",
    "ᱤᱭᱟᱹᱭ",
    "ᱟᱛᱚ",
    "ᱠᱟᱣ",
    ".",
    "ᱥᱮᱸᱜ",
    "ᱛᱷᱟᱱ",
    "ᱵᱟᱧᱪᱟᱣ",
    "ᱚᱫ",
    "ᱱᱚᱝᱠᱟᱱ",
    "ᱤᱛᱛᱚ",
    "ᱧᱩᱢ",
    "ᱟᱦᱚᱱᱚᱛ",
    "ᱴᱮᱦᱟᱴ",
    "ᱛᱚᱨ",
    "ᱥᱩ",
    "᱒᱖",
    "ᱞᱟᱫ",
    "ᱟᱭᱢᱟᱞᱮᱠᱟᱱ",
    "ᱤᱭᱟ,",
    "ᱡᱤᱛᱠᱟᱹᱨ",
    "ᱞᱤᱱ",
    "ᱽᱨᱟᱹ",
    "ᱡᱩ",
    "ᱪᱷᱚᱛ",
    "ᱫᱳ",
    "ᱥᱮᱹᱨᱮᱹᱧ",
    "ᱵᱤᱢ",
    "ᱮᱭᱟ᱾</w>",
    "ᱨᱮᱥ",
    "ᱟᱯᱟᱹᱨᱥᱤ",
    "ᱟᱥᱚᱨ",
    "ᱪᱳᱞ",
    "ᱤᱫᱤᱭ",
    "ᱦᱟᱰ",
    "ᱚᱯᱷ",
    "ᱯᱳᱨᱴ",
    "ᱪᱚᱞᱚᱛᱪᱤᱛᱟᱹᱨᱫᱚ",
    "ᱜᱟᱱᱚᱜᱼᱟ᱾</w>",
    "ᱦᱤᱴ",
    "ᱢᱚᱱᱛᱨᱤ",
    "ᱨᱟᱯᱷ",
    "ᱠᱷᱨᱤᱥᱴ",
    "᱑᱙᱙",
    "ᱥᱮᱨᱣ",
    "ᱠᱟᱹᱦᱱᱤ",
    "ᱦᱤᱥᱟᱹᱵᱛᱮ",
    "ᱜᱷᱟᱹ",
    "ᱼᱟ",
    "ᱳᱡ",
    "ल",
    "l",
    "ᱩᱫᱩᱜ",
    "ᱯᱟᱹᱭ",
    "ᱴᱮᱠ",
    "ᱲᱟᱣ",
    "ᱟᱠᱟᱱ",
    "ᱥᱤᱠᱟᱹᱨ",
    "ᱱᱚᱣᱟᱪᱚᱞᱚᱛᱪᱤᱛᱟᱹᱨ",
    "ᱴᱚᱴᱷᱟᱠᱚ",
    "ᱰ",
    "ᱛᱮᱵᱮᱱᱟᱣ",
    "3",
    "ᱩᱵᱽ",
    "ᱚᱝᱠᱟᱱ",
    "ᱛᱤᱠ",
    "ᱵᱟᱨᱦᱚᱲ",
    "ᱠᱟᱹᱣᱰᱤ",
    "ᱜᱚᱱᱚᱝ",
    "ᱥᱠᱨᱤ",
    "ᱵᱟᱜᱽ",
    "ᱵᱤᱫᱷᱟᱱ",
    "ᱡᱚ",
    "ᱚᱰ",
    "ᱚᱞᱨᱮ",
    "᱓᱕",
    "ᱛᱤᱥ",
    "ᱨᱟᱡ",
    "₹",
    "ᱩᱱᱟᱹᱜ",
    "ᱞᱮᱠᱷ",
    "ᱟᱹᱞᱤ",
    "ᱵᱷᱟᱹ",
    "ᱵᱚᱫᱚᱞ",
    "ᱩᱛᱟᱹᱨ",
    "ᱵᱟᱨᱭ",
    "ᱯᱚᱱᱚᱛᱫᱚ",
    "ᱨᱮᱢᱮᱱᱟᱜᱼᱟ᱾</w>",
    "ᱚᱠᱛᱮ",
    "ᱪᱟᱞᱟᱜ",
    "ᱴᱟᱱ",
    "ᱥᱟᱜᱟᱲ",
    "ᱵᱤᱰᱟᱹᱣ",
    "ᱱᱚᱡᱚᱨ",
    "[",
    "श",
    "ᱞᱮᱱᱰ",
    "ᱚᱱᱫᱤᱞ",
    "ᱨᱮᱠᱚᱨᱰ",
    "ᱨᱮᱱᱟᱜ",
    "ᱚᱱᱨᱮᱭᱟᱜ",
    "P",
    "ᱥᱮᱵᱟᱝ",
    "ᱨᱮᱭᱟᱜᱢᱮᱱᱮᱫ",
    "ᱢᱟᱦᱟᱨᱮ",
    "ᱟᱵᱟᱫ",
    "ᱯᱟᱹᱛ",
    "ᱨᱤᱠᱟᱹᱭ",
    "ᱮᱹ",
    "ᱦᱤᱥ",
    "᱑᱐",
    "ᱯᱨᱟᱣ",
    "ᱯᱩᱥᱴ",
    "ᱵᱟᱪᱷᱱᱟᱣ",
    "ᱫᱤᱞ",
    "ᱥᱟᱣᱛᱮ",
    "ᱝ",
    "ᱦᱩᱠᱩᱢ",
    "ᱚᱥᱴᱨᱮᱞ",
    "ᱞᱤᱸᱜᱤ",
    "उ",
    "ᱠᱚᱭᱮᱠ",
    "ᱢᱚᱥ",
    "ᱥᱟᱦ",
    "ᱱᱚᱝᱠᱟ",
    "ᱤᱭᱩ",
    "ᱤᱱᱰ",
    "ᱡᱟᱦᱟᱸᱱ",
    "ᱚᱛ",
    "ᱢᱮᱡᱟᱦᱟᱸ",
    "ᱥᱟᱥ",
    "ᱠᱚᱠᱷᱚᱱ",
    "ᱽᱨᱮ",
    "ᱥᱩᱫ",
    "ᱯᱚᱥᱪᱤᱢ",
    "ᱟᱡᱮᱜᱮᱫ",
    "ᱫᱟᱨᱦ",
    "ᱵᱟᱝᱞ",
    "ᱨᱮᱰ",
    "ᱜᱟᱱᱟᱹᱭ",
    "ᱢᱩᱫᱨᱮ",
    "ᱟᱢᱮ",
    "ᱦᱩᱭᱟᱠᱟᱱ",
    "ᱨᱤᱧ",
    "ᱨᱮᱭᱟᱜᱯᱚᱨᱤᱢᱟᱱ",
    "ᱤᱭᱩᱴ",
    "ᱠᱟᱹᱢᱤᱭᱟᱹ",
    "ᱩᱭ",
    "ᱛᱷᱤᱨ",
    "ᱢᱟᱨᱮᱱᱟᱜ",
    "ᱮᱠ",
    "ᱚᱵᱤ",
    "ᱦᱚᱢ",
    "ᱵᱟᱝᱞᱟᱫᱮᱥ",
    "ᱮᱥᱤᱭᱟᱱ",
    "ᱫᱟᱨ",
    "ᱨᱮ᱾</w>",
    "ᱠᱚᱢ",
    "ᱞᱮᱠᱷᱟᱱ",
    "ᱰᱤᱴ",
    "ᱵᱤᱥᱮᱥ",
    "ᱥᱟᱶᱛᱮ",
    "ᱪᱤᱱᱦᱟᱹ",
    "ᱤᱭᱳ",
    "ᱟᱵᱚᱞ",
    "᱑᱙᱖",
    "ᱳᱣᱨᱚ",
    "ᱰᱤᱝ",
    "ᱥᱮᱫ",
    "ᱢᱩᱲ",
    "ᱦᱟᱭ",
    "ᱦᱚᱱ",
    "ᱠᱚ",
    "ᱪᱮᱫ",
    "ᱠᱷᱟᱹᱞᱤ",
    "ᱦᱮᱱ",
    "ᱞᱮᱴ",
    "ᱦᱚᱲ",
    "ᱠᱩᱥᱛᱤ",
    "ᱡᱮᱞᱮ",
    "ᱵᱤᱨᱟᱹᱫ",
    "ᱴᱟᱠᱟ",
    "ᱚᱸ",
    "ᱛᱟᱢ",
    "ᱤᱱ",
    "ᱜᱚᱴᱟᱝ",
    "ᱨᱳᱥ",
    "ᱰᱟᱨ",
    "ᱯᱷᱩᱴᱵᱚᱞ",
    "ᱠᱤᱞ",
    "ᱡᱚᱢᱢᱩ",
    "ᱟᱛᱟᱦᱮᱸᱠᱟᱱᱟ᱾</w>",
    "ᱟᱠᱚᱨᱮᱱ",
    "ᱦᱳ",
    "ᱡᱟᱹᱣ",
    "ᱵᱷᱟᱞ",
    "ᱢᱤᱫᱫᱷᱟᱣ",
    "ᱵᱷᱟᱨᱚᱛᱤᱭᱚ",
    "न",
    "ᱵᱟᱰ",
    "ᱛᱩᱨᱩᱭ",
    "ᱫᱷᱚ",
    "᱒᱐",
    "ᱟᱭᱢ",
    "ᱨᱮᱧ",
    "ᱠᱚᱥᱟᱶ",
    "ᱛᱟᱹᱨ",
    "ᱰᱤᱜᱽ",
    "ᱵᱚᱨᱱᱚᱱ",
    "ᱫᱚᱜ",
    "ᱟᱠᱟᱫ",
    "ᱩ",
    "ᱟᱺᱰᱤ",
    "ᱵᱚᱠ",
    "ᱟᱠᱚᱢ",
    "ᱩᱯᱚᱢ",
    "ᱩᱲ",
    "ᱠᱮᱢ",
    "ᱡᱳᱜᱟᱡ",
    "ᱦᱩᱭᱩᱜᱛᱟᱢᱟ᱾</w>",
    "ᱵᱟᱱᱟᱨ",
    "ᱵᱟᱥᱤ",
    "ᱚᱥᱟᱨ",
    "ᱢᱩᱠ",
    "ᱟᱥᱚ",
    "ᱵᱩ",
    "ᱥᱩᱱ",
    "ᱦᱚᱞ",
    "ᱲᱟ",
    "ᱚᱠᱛᱚᱢ",
    "ᱮᱭᱤᱪ",
    "ᱨᱮᱭᱟᱜᱠᱟᱛᱷ",
    "ᱠᱤᱪᱷᱩᱜᱟᱱ",
    ",᱐᱐᱐",
    "ᱯᱚᱨᱤ",
    "ᱠᱚᱴᱷᱮᱱ",
    "ᱵᱟᱥ",
    "ᱛᱟᱞᱟᱨᱮ",
    "ᱵᱷᱟᱜᱮ",
    "ᱞᱤᱝ",
    "ᱟᱜᱼᱟ᱾</w>",
    "ᱫᱷᱟᱹᱨ",
    "ᱳᱠᱟᱱ",
    "ᱴᱷᱟᱶᱨᱮ",
    "ᱫᱚᱠᱷᱤᱱ",
    "ᱯᱟᱠ",
    "ᱟᱢᱚᱱ",
    "d",
    "ᱦᱚᱱᱚᱛᱨᱮ",
    "ᱟᱠ",
    "ᱹᱮᱢ",
    "ᱼᱟᱜ",
    "ᱤᱭᱩᱱ",
    "ᱡᱤ",
    "ᱢᱚᱱᱮᱭ",
    "ᱩᱰᱩᱠ",
    "ᱥᱮᱴᱮᱨ",
    "᱒᱙",
    "ᱟᱞᱮᱠᱟᱛᱮ",
    "ᱥᱤ",
    "ᱱᱤᱡ",
    "ᱱᱟᱹᱣ",
    "ᱩᱱᱠᱚ",
    "ᱢᱟᱭ",
    "ᱧᱟᱢᱚᱜᱼᱟ᱾</w>",
    "ᱦᱩᱭᱩᱜᱼᱟ,ᱮᱱᱠᱷᱟᱱ",
    "ᱩᱪᱟᱹᱫ",
    "ᱟᱠᱟᱫᱟᱭ",
    "ᱚᱱᱫᱚ",
    "ᱚᱱᱚᱛ",
    "ᱢᱤᱨ",
    "ᱢᱩᱠᱷ",
    "ᱧᱮᱱᱮᱞ",
    "ᱦᱩᱭᱩᱜᱼ",
    "ᱵᱷᱤ",
    "ᱚᱡᱮ",
    "ᱡᱜᱟᱨ",
    "ᱟᱡᱮᱱ",
    "ᱡᱟᱣᱜᱮ",
    "ᱜᱮᱭᱟ᱾</w>",
    "ᱵᱟᱛ",
    "ᱛᱤᱸᱜ",
    "ᱜᱟ",
    "ᱟᱠᱟᱱᱟᱟᱨ",
    "ᱡᱳᱜᱽ",
    "ᱠᱷᱚᱸᱫᱽ",
    "ᱢᱮᱱᱠᱷᱟᱱ",
    "ᱡᱚᱨ",
    "ᱱᱟᱦᱟᱜ",
    "ᱢ",
    "ᱫᱟᱲᱮᱭᱟᱜᱼᱟᱟᱨ",
    "ᱟᱞᱟᱜ",
    "ᱦᱚᱪᱚ",
    "ᱠᱟᱨ",
    "ᱥᱮᱞᱮᱫᱚᱜ",
    "ᱚ",
    "ᱤᱱᱟᱹ",
    "ᱵᱤᱨᱫᱟᱹᱜᱟᱲ",
    "ᱧᱮᱧᱮᱞ",
    "ᱟᱹᱜᱤ",
    "ᱟᱢᱮᱱᱛᱮᱢᱚᱱᱮ",
    "ᱪᱟᱞ",
    "ᱤᱭᱟᱹᱨ",
    "ᱵᱟᱱ",
    "ᱚᱵᱷᱤᱱᱚᱭ",
    "ᱟᱨᱚᱱ",
    "ᱯᱨᱚᱛᱤ",
    "ᱤᱪ",
    "ᱟ.",
    "ᱫᱷ",
    "ᱠᱩᱠᱞᱤ",
    "ᱦᱤᱸ",
    "ᱠᱟᱹᱣ",
    "ᱮᱱᱟᱟᱨ",
    "ᱮᱭᱟᱟᱨ",
    "ᱢᱩᱫ",
    "ᱪᱤᱛᱟᱹᱨᱨᱮᱭᱟᱜ",
    "ᱨᱮᱥᱟᱱᱟᱢ",
    "ᱩᱱᱤᱭ",
    "ᱮᱴᱟᱜᱮᱴᱟᱜ",
    "ᱡᱳᱭᱱᱚ",
    "ᱹᱯᱤ",
    "ᱰᱷᱮᱨ",
    "ᱨᱟᱢ",
    "ᱯᱷᱮᱨᱟᱣ",
    "ᱫᱟᱹᱭᱠᱟᱹᱞᱮᱠᱟᱛᱮ,",
    "ᱡᱩᱫᱤ",
    "ᱯᱷᱮ",
    "ᱨᱤᱠᱟᱹ",
    "ᱡᱩᱢᱤᱫ",
    "ᱢᱮᱱᱟᱜ",
    "ᱯᱩᱭ",
    "ᱪᱟᱹᱞᱩ",
    "ᱼᱟ,ᱡᱟᱦᱟᱸ",
    "ᱩᱨᱩᱢᱩᱴ",
    "ᱧᱩᱛᱩᱢᱛᱮᱩᱯᱨᱩᱢ",
    "ᱟᱫᱷᱟᱨ",
    "ᱫᱚᱨᱭ",
    "ᱟᱹᱲᱤ",
    "ᱨᱮᱭ",
    "ᱟᱲᱟᱜ",
    "ᱤ,",
    "ᱟᱫᱮᱭᱟ᱾</w>",
    "ᱢᱮᱱᱛᱮᱭ",
    "S",
    "ᱛᱟᱦᱮᱱ",
    "ᱫᱷᱟᱨ",
    "ᱟᱨᱴ",
    "ᱫᱚᱢᱤᱫ",
    "ᱯᱚᱥ",
    "ᱩᱜᱷ",
    "ᱧᱮᱞᱧᱟᱢ",
    "ᱴᱮᱸ",
    "ᱮᱢᱯ",
    "ᱦᱟᱛᱟᱣ",
    "᱐",
    "ᱠᱟᱹ",
    "ᱤᱡ",
    "ᱵᱟᱡᱮᱴ",
    "ᱞᱮᱫᱮᱭᱟᱟᱨ",
    "ᱡᱤᱨ",
    "ᱨᱮᱭᱟᱜᱦᱟᱨ",
    "ᱝᱜᱟᱱ",
    "ᱨᱚ",
    "ᱛᱟᱦᱮᱸ",
    "ᱵᱟᱭ",
    "ᱵᱤᱨᱩᱫᱷ",
    "ᱟᱠᱟᱛᱮ",
    "ᱳᱥ",
    "ᱞᱟᱹᱴᱩ",
    "ᱯᱚᱨᱚᱵ",
    "ᱟᱴᱚᱠ",
    "ᱪᱤ",
    "ᱠᱤᱪ",
    "ᱚᱱᱤ",
    "ᱟᱨᱮᱭ",
    "ᱠᱟᱹᱢ",
    "ᱤᱢᱟᱱ",
    "ᱛᱟᱭᱚᱢᱛᱮ",
    "ᱯᱨᱚᱥᱟᱥᱚᱱ",
    "ᱨᱟᱡᱽ",
    "ᱟᱨᱟᱢ",
    "+",
    "ᱟᱠᱚ",
    "ᱳᱨ",
    "ᱠᱩᱢ",
    "᱗᱐",
    "ᱴᱮ",
    "ᱦᱟᱹᱛᱤ",
    "ᱚᱲᱟᱜ",
    "ᱥᱳᱨ",
    "ᱫᱤᱥᱚᱢᱨᱮ",
    "ᱚᱞᱟᱠᱟᱱ",
    "ᱠᱟᱹᱦ"
  ],
  "special_tokens": [
    "<unk>",
    "<pad>",
    "<sos>",
    "<eos>"
  ]
}