{
  "merges": [
    [
      "ی",
      "ں"
    ],
    [
      "ی",
      "ا"
    ],
    [
      "ک",
      "ے"
    ],
    [
      "و",
      "ر"
    ],
    [
      "ا",
      "ن"
    ],
    [
      "۔",
      "</w>"
    ],
    [
      "ک",
      "ی"
    ],
    [
      "م",
      "یں"
    ],
    [
      "ا",
      "ر"
    ],
    [
      "ہ",
      "ے"
    ],
    [
      "ی",
      "ک"
    ],
    [
      "ن",
      "ے"
    ],
    [
      "ا",
      "س"
    ],
    [
      "ا",
      "ل"
    ],
    [
      "و",
      "ں"
    ],
    [
      "ا",
      "ت"
    ],
    [
      "س",
      "ے"
    ],
    [
      "ک",
      "ر"
    ],
    [
      "ا",
      "ور"
    ],
    [
      "ا",
      "م"
    ],
    [
      "ک",
      "و"
    ],
    [
      "پ",
      "ر"
    ],
    [
      "ا",
      "ئ"
    ],
    [
      "ہ",
      "یں"
    ],
    [
      "ل",
      "ی"
    ],
    [
      "ر",
      "ی"
    ],
    [
      "ہ",
      "و"
    ],
    [
      "ہے",
      "۔</w>"
    ],
    [
      "ی",
      "ن"
    ],
    [
      "د",
      "ی"
    ],
    [
      "ت",
      "ھ"
    ],
    [
      "ک",
      "ا"
    ],
    [
      "ن",
      "د"
    ],
    [
      "س",
      "ت"
    ],
    [
      "ر",
      "ا"
    ],
    [
      "ب",
      "ھ"
    ],
    [
      "ی",
      "م"
    ],
    [
      "ل",
      "ا"
    ],
    [
      "ی",
      "ر"
    ],
    [
      "ی",
      "ہ"
    ],
    [
      "ا",
      "یک"
    ],
    [
      "ت",
      "ا"
    ],
    [
      "ک",
      "یا"
    ],
    [
      "ن",
      "گ"
    ],
    [
      "ت",
      "ی"
    ],
    [
      "ک",
      "ہ"
    ],
    [
      "ن",
      "ا"
    ],
    [
      "ج",
      "و"
    ],
    [
      "د",
      "ہ"
    ],
    [
      "ت",
      "ے"
    ],
    [
      "ہیں",
      "۔</w>"
    ],
    [
      "ا",
      "پ"
    ],
    [
      "آ",
      "پ"
    ],
    [
      "ر",
      "و"
    ],
    [
      "ی",
      "س"
    ],
    [
      "ا",
      "ہ"
    ],
    [
      "لی",
      "ے"
    ],
    [
      "ن",
      "ی"
    ],
    [
      "ک",
      "ھ"
    ],
    [
      "کے",
      "لیے"
    ],
    [
      "د",
      "ر"
    ],
    [
      "م",
      "ی"
    ],
    [
      "ا",
      "ب"
    ],
    [
      "و",
      "ن"
    ],
    [
      "ات",
      "ھ"
    ],
    [
      "ا",
      "د"
    ],
    [
      "ی",
      "ل"
    ],
    [
      "کے",
      "ب"
    ],
    [
      "ک",
      "م"
    ],
    [
      "و",
      "س"
    ],
    [
      "و",
      "ا"
    ],
    [
      "ک",
      "ار"
    ],
    [
      "ئ",
      "ی"
    ],
    [
      "ل",
      "و"
    ],
    [
      "چ",
      "ھ"
    ],
    [
      "گ",
      "ر"
    ],
    [
      "ط",
      "ور"
    ],
    [
      "ج",
      "ات"
    ],
    [
      "ائ",
      "ی"
    ],
    [
      "و",
      "ال"
    ],
    [
      "طور",
      "پر"
    ],
    [
      "ئ",
      "ے"
    ],
    [
      "کے",
      "س"
    ],
    [
      "ت",
      "ع"
    ],
    [
      "و",
      "ل"
    ],
    [
      "ی",
      "ش"
    ],
    [
      "ب",
      "ہ"
    ],
    [
      "م",
      "ل"
    ],
    [
      "کر",
      "نے"
    ],
    [
      "م",
      "ن"
    ],
    [
      "ب",
      "ر"
    ],
    [
      "گ",
      "یا"
    ],
    [
      "ا",
      "۔</w>"
    ],
    [
      "،",
      "ج"
    ],
    [
      "ی",
      "ت"
    ],
    [
      "ان",
      "ے"
    ],
    [
      "ل",
      "ے"
    ],
    [
      "ند",
      "و"
    ],
    [
      "ٹ",
      "ر"
    ],
    [
      "ہ",
      "ا"
    ],
    [
      "م",
      "ال"
    ],
    [
      "ل",
      "م"
    ],
    [
      "وں",
      "میں"
    ],
    [
      "ب",
      "ا"
    ],
    [
      "ست",
      "ان"
    ],
    [
      "ک",
      "ام"
    ],
    [
      "ع",
      "د"
    ],
    [
      "ہ",
      "ر"
    ],
    [
      "ب",
      "ن"
    ],
    [
      "کے",
      "م"
    ],
    [
      "ی",
      "د"
    ],
    [
      "ہ",
      "م"
    ],
    [
      "ت",
      "ر"
    ],
    [
      "س",
      "ک"
    ],
    [
      "ت",
      "و"
    ],
    [
      "ٹ",
      "ی"
    ],
    [
      "ز",
      "یا"
    ],
    [
      "ب",
      "ی"
    ],
    [
      "د",
      "ار"
    ],
    [
      "ن",
      "و"
    ],
    [
      "خ",
      "ت"
    ],
    [
      "ندو",
      "ستان"
    ],
    [
      "کےس",
      "اتھ"
    ],
    [
      "پ",
      "ہ"
    ],
    [
      "م",
      "و"
    ],
    [
      "م",
      "ت"
    ],
    [
      "م",
      "ا"
    ],
    [
      "‏",
      "</w>"
    ],
    [
      "ہے",
      "،"
    ],
    [
      "0",
      "0"
    ],
    [
      "۔",
      "‏</w>"
    ],
    [
      "زیا",
      "دہ"
    ],
    [
      "ان",
      "ہ"
    ],
    [
      "وں",
      "نے"
    ],
    [
      "اپ",
      "نے"
    ],
    [
      "1",
      "9"
    ],
    [
      "س",
      "ر"
    ],
    [
      "س",
      "ی"
    ],
    [
      "م",
      "ر"
    ],
    [
      "یا",
      "ست"
    ],
    [
      "و",
      "ج"
    ],
    [
      "یا",
      "ور"
    ],
    [
      "ا",
      "ص"
    ],
    [
      "ا",
      "و"
    ],
    [
      "و",
      "ہ"
    ],
    [
      "ع",
      "لا"
    ],
    [
      "ط",
      "ر"
    ],
    [
      "ب",
      "ڑ"
    ],
    [
      "ب",
      "ار"
    ],
    [
      "د",
      "ھ"
    ],
    [
      "ے",
      "۔</w>"
    ],
    [
      "د",
      "یا"
    ],
    [
      "م",
      "ش"
    ],
    [
      "د",
      "ا"
    ],
    [
      "بھ",
      "ی"
    ],
    [
      "ہ",
      "ندوستان"
    ],
    [
      "وں",
      "کی"
    ],
    [
      "جات",
      "ا"
    ],
    [
      "پ",
      "ور"
    ],
    [
      "تے",
      "ہیں۔</w>"
    ],
    [
      "تا",
      "ہے۔</w>"
    ],
    [
      "یں",
      "۔</w>"
    ],
    [
      "تے",
      "ہیں"
    ],
    [
      "د",
      "ور"
    ],
    [
      "د",
      "و"
    ],
    [
      "ام",
      "ل"
    ],
    [
      "ا",
      "ف"
    ],
    [
      "و",
      "ی"
    ],
    [
      "تھ",
      "ی"
    ],
    [
      "ی",
      "سے"
    ],
    [
      "ت",
      "ک"
    ],
    [
      "وں",
      "کو"
    ],
    [
      "ے",
      "میں"
    ],
    [
      "م",
      "ع"
    ],
    [
      "وں",
      "کے"
    ],
    [
      "ی",
      "و"
    ],
    [
      "ق",
      "ت"
    ],
    [
      "یا",
      "ن"
    ],
    [
      "گ",
      "ھ"
    ],
    [
      "س",
      "م"
    ],
    [
      "ک",
      "ن"
    ],
    [
      "س",
      "ل"
    ],
    [
      "کےب",
      "عد"
    ],
    [
      "ن",
      "ہیں"
    ],
    [
      "ت",
      "ق"
    ],
    [
      "ان",
      "ی"
    ],
    [
      "م",
      "ق"
    ],
    [
      "گ",
      "ی"
    ],
    [
      "ح",
      "ص"
    ],
    [
      "ب",
      "سے"
    ],
    [
      "ف",
      "لم"
    ],
    [
      "ا",
      "ک"
    ],
    [
      "ائ",
      "ے"
    ],
    [
      "بہ",
      "ت"
    ],
    [
      "خ",
      "و"
    ],
    [
      "ک",
      "ل"
    ],
    [
      "علا",
      "ق"
    ],
    [
      "اس",
      "ے"
    ],
    [
      "ش",
      "ن"
    ],
    [
      "ا",
      "گر"
    ],
    [
      "2",
      "0"
    ],
    [
      "ج",
      "س"
    ],
    [
      "،",
      "اور"
    ],
    [
      "ق",
      "ع"
    ],
    [
      "ن",
      "ڈ"
    ],
    [
      "ف",
      "ی"
    ],
    [
      "ج",
      "ن"
    ],
    [
      "تا",
      "ہے"
    ],
    [
      "تھ",
      "ا۔</w>"
    ],
    [
      "وال",
      "ے"
    ],
    [
      "کے",
      "طورپر"
    ],
    [
      "آپ",
      "کو"
    ],
    [
      "م",
      "د"
    ],
    [
      "ل",
      "یک"
    ],
    [
      "ند",
      "ر"
    ],
    [
      "گ",
      "ا"
    ],
    [
      "پ",
      "و"
    ],
    [
      "س",
      "ال"
    ],
    [
      "ت",
      "ح"
    ],
    [
      "ک",
      "ان"
    ],
    [
      "ہو",
      "ئے"
    ],
    [
      "س",
      "و"
    ],
    [
      "ٹ",
      "ھ"
    ],
    [
      "ر",
      "یاست"
    ],
    [
      "ا",
      "ز"
    ],
    [
      "ش",
      "اہ"
    ],
    [
      "ن",
      "ام"
    ],
    [
      "پ",
      "ی"
    ],
    [
      "یک",
      "ر"
    ],
    [
      "ی",
      "ز"
    ],
    [
      "انہ",
      "وںنے"
    ],
    [
      "ل",
      "ع"
    ],
    [
      "تھ",
      "ا"
    ],
    [
      "یا",
      "ر"
    ],
    [
      "میں",
      "،"
    ],
    [
      "ر",
      "ق"
    ],
    [
      "ج",
      "ب"
    ],
    [
      "ہ",
      "ی"
    ],
    [
      "و",
      "ٹ"
    ],
    [
      "ص",
      "و"
    ],
    [
      "ح",
      "کو"
    ],
    [
      "ی",
      "ق"
    ],
    [
      "ک",
      "س"
    ],
    [
      "ج",
      "ان"
    ],
    [
      "ار",
      "ی"
    ],
    [
      "ار",
      "ت"
    ],
    [
      "ا",
      "ش"
    ],
    [
      "ہو",
      "نے"
    ],
    [
      "ک",
      "چھ"
    ],
    [
      "اس",
      "تع"
    ],
    [
      "ان",
      "ت"
    ],
    [
      "اص",
      "ل"
    ],
    [
      "ان",
      "ڈ"
    ],
    [
      "ج",
      "ھ"
    ],
    [
      "گ",
      "و"
    ],
    [
      "ش",
      "امل"
    ],
    [
      "یک",
      "ھ"
    ],
    [
      "،ج",
      "س"
    ],
    [
      "م",
      "ہ"
    ],
    [
      "استع",
      "مال"
    ],
    [
      "م",
      "غ"
    ],
    [
      "حکو",
      "مت"
    ],
    [
      "ا",
      "ی"
    ],
    [
      "ب",
      "اد"
    ],
    [
      "وا",
      "قع"
    ],
    [
      "کیا",
      "۔</w>"
    ],
    [
      "یک",
      "و"
    ],
    [
      "پہ",
      "لے"
    ],
    [
      "یا",
      "ت"
    ],
    [
      "تی",
      "ہے۔</w>"
    ],
    [
      "غ",
      "یر"
    ],
    [
      "پ",
      "ھ"
    ],
    [
      "ب",
      "ل"
    ],
    [
      "ان",
      "کی"
    ],
    [
      "ف",
      "ر"
    ],
    [
      "گ",
      "ری"
    ],
    [
      "ل",
      "ہ"
    ],
    [
      "ا",
      "ج"
    ],
    [
      "در",
      "یا"
    ],
    [
      "ن",
      "ت"
    ],
    [
      "وں",
      "سے"
    ],
    [
      "م",
      "ح"
    ],
    [
      "اس",
      "کے"
    ],
    [
      "تھ",
      "ے۔</w>"
    ],
    [
      "ی",
      "کی"
    ],
    [
      "تھی",
      "۔</w>"
    ],
    [
      "ن",
      "ہ"
    ],
    [
      "پ",
      "یش"
    ],
    [
      "ک",
      "ش"
    ],
    [
      "ری",
      "ع"
    ],
    [
      "ج",
      "نگ"
    ],
    [
      "ان",
      "ہیں"
    ],
    [
      "ر",
      "ہ"
    ],
    [
      "ان",
      "کے"
    ],
    [
      "ر",
      "کھ"
    ],
    [
      "گ",
      "ئی"
    ],
    [
      "د",
      "وس"
    ],
    [
      "اس",
      "کی"
    ],
    [
      "کیا",
      "گیا"
    ],
    [
      "جاتا",
      "ہے۔</w>"
    ],
    [
      "ا",
      "ع"
    ],
    [
      "ہے",
      "اور"
    ],
    [
      "ہے",
      "کہ"
    ],
    [
      "ذ",
      "ریع"
    ],
    [
      "خ",
      "ری"
    ],
    [
      "ل",
      "ف"
    ],
    [
      "یا",
      "ں"
    ],
    [
      "ن",
      "ج"
    ],
    [
      "گ",
      "ئے"
    ],
    [
      "اس",
      "ک"
    ],
    [
      "،",
      "جو"
    ],
    [
      "اپ",
      "نی"
    ],
    [
      "ا",
      "ح"
    ],
    [
      "س",
      "ٹ"
    ],
    [
      "را",
      "ج"
    ],
    [
      "ر",
      "ف"
    ],
    [
      "ان",
      "د"
    ],
    [
      "ث",
      "ر"
    ],
    [
      "ڈ",
      "ی"
    ],
    [
      "وں",
      "اور"
    ],
    [
      "س",
      "بسے"
    ],
    [
      "کر",
      "نا"
    ],
    [
      "ع",
      "ام"
    ],
    [
      "ب",
      "نگ"
    ],
    [
      "ن",
      "ظ"
    ],
    [
      "ح",
      "اصل"
    ],
    [
      "اس",
      "ٹ"
    ],
    [
      "ن",
      "م"
    ],
    [
      "کے",
      "دور"
    ],
    [
      "ت",
      "م"
    ],
    [
      "تق",
      "ری"
    ],
    [
      "پ",
      "ار"
    ],
    [
      "ب",
      "ال"
    ],
    [
      "ب",
      "ات"
    ],
    [
      "ب",
      "و"
    ],
    [
      "ن",
      "س"
    ],
    [
      "ن",
      "ٹ"
    ],
    [
      "ب",
      "چ"
    ],
    [
      "کر",
      "یں"
    ],
    [
      "می",
      "ٹر"
    ],
    [
      "طر",
      "ف"
    ],
    [
      "م",
      "ین"
    ],
    [
      "م",
      "ار"
    ],
    [
      "ڑ",
      "ی"
    ],
    [
      "ج",
      "ر"
    ],
    [
      "ض",
      "ر"
    ],
    [
      "م",
      "یر"
    ],
    [
      "ز",
      "ی"
    ],
    [
      "وج",
      "ہ"
    ],
    [
      "ڈ",
      "و"
    ],
    [
      "تھ",
      "ے"
    ],
    [
      "ق",
      "و"
    ],
    [
      "ت",
      "ب"
    ],
    [
      "پ",
      "ڑ"
    ],
    [
      "ق",
      "ب"
    ],
    [
      "ور",
      "ی"
    ],
    [
      "20",
      "1"
    ],
    [
      "ک",
      "اس"
    ],
    [
      "رو",
      "ع"
    ],
    [
      "ہا",
      "ں"
    ],
    [
      "وں",
      "پر"
    ],
    [
      "ہو",
      "ئی"
    ],
    [
      "ق",
      "اب"
    ],
    [
      "ن",
      "چ"
    ],
    [
      "ت",
      "ہ"
    ],
    [
      "ل",
      "یا"
    ],
    [
      "کر",
      "سک"
    ],
    [
      "ور",
      "ت"
    ],
    [
      "م",
      "خت"
    ],
    [
      "چ",
      "اہ"
    ],
    [
      "کرنے",
      "کےلیے"
    ],
    [
      "ان",
      "س"
    ],
    [
      "2",
      "00"
    ],
    [
      "د",
      "ن"
    ],
    [
      "با",
      "ً"
    ],
    [
      "ق",
      "ر"
    ],
    [
      "ے",
      "کی"
    ],
    [
      "و",
      "قت"
    ],
    [
      "اس",
      "نے"
    ],
    [
      "ل",
      "ق"
    ],
    [
      "ا",
      "گ"
    ],
    [
      "لو",
      "گ"
    ],
    [
      "طر",
      "ح"
    ],
    [
      "جو",
      "د"
    ],
    [
      "ری",
      "ن"
    ],
    [
      "اب",
      "ق"
    ],
    [
      "یا",
      "د"
    ],
    [
      "ر",
      "ب"
    ],
    [
      "پ",
      "ید"
    ],
    [
      "ہو",
      "ا"
    ],
    [
      "ش",
      "روع"
    ],
    [
      "ہو",
      "سک"
    ],
    [
      "کر",
      "دیا"
    ],
    [
      "کی",
      "۔</w>"
    ],
    [
      "جات",
      "ی"
    ],
    [
      "ا",
      "یس"
    ],
    [
      "اد",
      "ا"
    ],
    [
      "لیک",
      "ن"
    ],
    [
      "م",
      "ب"
    ],
    [
      "ق",
      "ری"
    ],
    [
      "خ",
      "ر"
    ],
    [
      "آ",
      "ر"
    ],
    [
      "ام",
      "ی"
    ],
    [
      "ج",
      "نو"
    ],
    [
      "یک",
      "ا"
    ],
    [
      "پ",
      "اس"
    ],
    [
      "دی",
      "گر"
    ],
    [
      "ب",
      "ے"
    ],
    [
      "ز",
      "یر"
    ],
    [
      "ائ",
      "یں"
    ],
    [
      "فی",
      "ص"
    ],
    [
      "ح",
      "ال"
    ],
    [
      "ائ",
      "ل"
    ],
    [
      "ج",
      "ی"
    ],
    [
      "ط",
      "نت"
    ],
    [
      "ؤ",
      "ں"
    ],
    [
      "ر",
      "ے"
    ],
    [
      "اگر",
      "آپ"
    ],
    [
      "م",
      "س"
    ],
    [
      "ش",
      "ہر"
    ],
    [
      "وجہ",
      "سے"
    ],
    [
      "ش",
      "مال"
    ],
    [
      "ج",
      "ہ"
    ],
    [
      "خ",
      "ط"
    ],
    [
      "ش",
      "ہ"
    ],
    [
      "ل",
      "گ"
    ],
    [
      "ج",
      "انے"
    ],
    [
      "د",
      "یکھ"
    ],
    [
      "ن",
      "دی"
    ],
    [
      "ار",
      "ڈ"
    ],
    [
      "ک",
      "ال"
    ],
    [
      "اپ",
      "ن"
    ],
    [
      "ڑ",
      "ھ"
    ],
    [
      "ف",
      "را"
    ],
    [
      "ض",
      "لع"
    ],
    [
      "وں",
      "کا"
    ],
    [
      "ائ",
      "ن"
    ],
    [
      "کہ",
      "ا"
    ],
    [
      "ج",
      "یسے"
    ],
    [
      "کے",
      "ذریع"
    ],
    [
      "ائ",
      "ر"
    ],
    [
      "تقری",
      "باً"
    ],
    [
      "ک",
      "لو"
    ],
    [
      "کےم",
      "ط"
    ],
    [
      "کی",
      "ت"
    ],
    [
      "کو",
      "ش"
    ],
    [
      "ہے",
      "جو"
    ],
    [
      "در",
      "م"
    ],
    [
      "د",
      "م"
    ],
    [
      "ح",
      "کم"
    ],
    [
      "ڈ",
      "ال"
    ],
    [
      "چ",
      "ل"
    ],
    [
      "ص",
      "دی"
    ],
    [
      "کےدور",
      "ان"
    ],
    [
      "گیا",
      "۔</w>"
    ],
    [
      "ظ",
      "ام"
    ],
    [
      "ش",
      "ر"
    ],
    [
      "میں",
      "ایک"
    ],
    [
      "تا",
      "ہم"
    ],
    [
      "ا",
      "دی"
    ],
    [
      "ک",
      "ٹ"
    ],
    [
      "ا",
      "یا"
    ],
    [
      "کھ",
      "یل"
    ],
    [
      "ص",
      "رف"
    ],
    [
      "ب",
      "ین"
    ],
    [
      "ہو",
      "تی"
    ],
    [
      "م",
      "ز"
    ],
    [
      "ف",
      "وج"
    ],
    [
      "یش",
      "ن"
    ],
    [
      "،",
      "س"
    ],
    [
      "ہ",
      "ور"
    ],
    [
      "سے",
      "ایک"
    ],
    [
      "ب",
      "عد"
    ],
    [
      "ج",
      "ار"
    ],
    [
      "ک",
      "ہو"
    ],
    [
      "ئ",
      "ر"
    ],
    [
      "ش",
      "ی"
    ],
    [
      "ب",
      "ان"
    ],
    [
      "کلو",
      "میٹر"
    ],
    [
      "حص",
      "ہ"
    ],
    [
      "یا",
      "س"
    ],
    [
      "بھ",
      "ارت"
    ],
    [
      "کےمط",
      "ابق"
    ],
    [
      "تے",
      "ہوئے"
    ],
    [
      "جنو",
      "ب"
    ],
    [
      "آ",
      "ف"
    ],
    [
      "دی",
      "ش"
    ],
    [
      "سے",
      "زیادہ"
    ],
    [
      "نے",
      "کےلیے"
    ],
    [
      "کر",
      "یں۔</w>"
    ],
    [
      "چ",
      "و"
    ],
    [
      "بڑ",
      "ے"
    ],
    [
      "ک",
      "ور"
    ],
    [
      "دی",
      "و"
    ],
    [
      "ب",
      "نا"
    ],
    [
      "مش",
      "رق"
    ],
    [
      "ز",
      "ر"
    ],
    [
      "ہیں",
      "،"
    ],
    [
      "ہے",
      "۔‏</w>"
    ],
    [
      "کم",
      "پ"
    ],
    [
      "ا",
      "ض"
    ],
    [
      "ت",
      "ین"
    ],
    [
      "میں",
      "م"
    ],
    [
      "پر",
      "و"
    ],
    [
      "پ",
      "ال"
    ],
    [
      "درم",
      "یان"
    ],
    [
      "ج",
      "ائے"
    ],
    [
      "خ",
      "اند"
    ],
    [
      "ٹ",
      "س"
    ],
    [
      "ائ",
      "م"
    ],
    [
      "مخت",
      "لف"
    ],
    [
      "خ",
      "لا"
    ],
    [
      "ط",
      "ان"
    ],
    [
      "د",
      "ین"
    ],
    [
      "ح",
      "مل"
    ],
    [
      "ب",
      "ت"
    ],
    [
      "ح",
      "د"
    ],
    [
      "ڈ",
      "ر"
    ],
    [
      "ق",
      "ص"
    ],
    [
      "ان",
      "چ"
    ],
    [
      "ف",
      "ت"
    ],
    [
      "پ",
      "ل"
    ],
    [
      "ف",
      "ار"
    ],
    [
      "ک",
      "ز"
    ],
    [
      "کا",
      "ایک"
    ],
    [
      "ر",
      "ہے"
    ],
    [
      "ان",
      "گ"
    ],
    [
      "سے",
      "م"
    ],
    [
      "پ",
      "ت"
    ],
    [
      "اتھ",
      "ا۔</w>"
    ],
    [
      "کی",
      "وجہسے"
    ],
    [
      "آ",
      "س"
    ],
    [
      "یر",
      "و"
    ],
    [
      "ے",
      "کے"
    ],
    [
      "کےب",
      "ار"
    ],
    [
      "اہ",
      "ر"
    ],
    [
      "ت",
      "مل"
    ],
    [
      "ک",
      "ت"
    ],
    [
      "ک",
      "ات"
    ],
    [
      "کی",
      "طرف"
    ],
    [
      "،",
      "م"
    ],
    [
      "کی",
      "ے"
    ],
    [
      "تم",
      "ام"
    ],
    [
      "کی",
      "ر"
    ],
    [
      "وں",
      "کےلیے"
    ],
    [
      "چھ",
      "وٹ"
    ],
    [
      "اس",
      "ت"
    ],
    [
      "کےذریع",
      "ے"
    ],
    [
      "کہ",
      "آپ"
    ],
    [
      "خ",
      "اص"
    ],
    [
      "کےبار",
      "ےمیں"
    ],
    [
      "زیادہ",
      "تر"
    ],
    [
      "تع",
      "د"
    ],
    [
      "1",
      "8"
    ],
    [
      "وال",
      "ی"
    ],
    [
      "کی",
      "م"
    ],
    [
      "د",
      "ے"
    ],
    [
      "و",
      "یں"
    ],
    [
      "ری",
      "ق"
    ],
    [
      "پ",
      "ہا"
    ],
    [
      "خو",
      "د"
    ],
    [
      "د",
      "ست"
    ],
    [
      "گھ",
      "ر"
    ],
    [
      "س",
      "ن"
    ],
    [
      "ک",
      "سی"
    ],
    [
      "د",
      "ون"
    ],
    [
      "00",
      "0"
    ],
    [
      "چ",
      "ار"
    ],
    [
      "جات",
      "ے"
    ],
    [
      "ل",
      "ات"
    ],
    [
      "خ",
      "صو"
    ],
    [
      "ع",
      "ت"
    ],
    [
      "مق",
      "ام"
    ],
    [
      "آ",
      "ئ"
    ],
    [
      "ح",
      "ی"
    ],
    [
      "سل",
      "طنت"
    ],
    [
      "ب",
      "را"
    ],
    [
      "ج",
      "گ"
    ],
    [
      "بڑ",
      "ھ"
    ],
    [
      "س",
      "ین"
    ],
    [
      "مد",
      "د"
    ],
    [
      "ضر",
      "ورت"
    ],
    [
      "خصو",
      "ص"
    ],
    [
      "ا",
      "ں"
    ],
    [
      "ط",
      "و"
    ],
    [
      "د",
      "ل"
    ],
    [
      "ہو",
      "تاہے۔</w>"
    ],
    [
      "ی",
      "ٹ"
    ],
    [
      "بھ",
      "یم"
    ],
    [
      "کو",
      "ل"
    ],
    [
      "گ",
      "ے"
    ],
    [
      "گ",
      "ا۔</w>"
    ],
    [
      "قری",
      "ب"
    ],
    [
      "تع",
      "لق"
    ],
    [
      "کار",
      "ی"
    ],
    [
      "و",
      "ڑ"
    ],
    [
      "مو",
      "جود"
    ],
    [
      "لا",
      "ش"
    ],
    [
      "دہ",
      "لی"
    ],
    [
      "لی",
      "م"
    ],
    [
      "ج",
      "ل"
    ],
    [
      "ش",
      "و"
    ],
    [
      "ن",
      "میں"
    ],
    [
      "عام",
      "طورپر"
    ],
    [
      "س",
      "یا"
    ],
    [
      "خلا",
      "ف"
    ],
    [
      "آ",
      "ن"
    ],
    [
      "ہے،",
      "جو"
    ],
    [
      "لو",
      "م"
    ],
    [
      "ان",
      "ا"
    ],
    [
      "کوش",
      "ش"
    ],
    [
      "نے",
      "کی"
    ],
    [
      "ب",
      "ع"
    ],
    [
      "پہ",
      "نچ"
    ],
    [
      "1",
      "7"
    ],
    [
      "س",
      "ائ"
    ],
    [
      "سے",
      "پہلے"
    ],
    [
      "وں",
      "کےساتھ"
    ],
    [
      "آ",
      "باد"
    ],
    [
      "بنگ",
      "ال"
    ],
    [
      "ق",
      "ی"
    ],
    [
      "تع",
      "میر"
    ],
    [
      "1",
      "0"
    ],
    [
      "اہ",
      "م"
    ],
    [
      "فرا",
      "ہم"
    ],
    [
      "ب",
      "ند"
    ],
    [
      "چ",
      "ی"
    ],
    [
      "اری",
      "خ"
    ],
    [
      "دا",
      "خ"
    ],
    [
      "بن",
      "یا"
    ],
    [
      "تےہیں",
      "،"
    ],
    [
      "آپ",
      "کے"
    ],
    [
      "ج",
      "ہاں"
    ],
    [
      "1",
      "5"
    ],
    [
      "گ",
      "رو"
    ],
    [
      "ٹ",
      "و"
    ],
    [
      "ات",
      "میں"
    ],
    [
      "کر",
      "تےہیں۔</w>"
    ],
    [
      "ٹ",
      "یک"
    ],
    [
      "ن",
      "ش"
    ],
    [
      "اور",
      "م"
    ],
    [
      "ین",
      "ی"
    ],
    [
      "یا",
      "ل"
    ],
    [
      "س",
      "نگ"
    ],
    [
      "دوس",
      "رے"
    ],
    [
      "ے",
      "پر"
    ],
    [
      "ا",
      "کی"
    ],
    [
      "من",
      "ٹ"
    ],
    [
      "ر",
      "ان"
    ],
    [
      "ق",
      "لع"
    ],
    [
      "وس",
      "ط"
    ],
    [
      "ث",
      "ال"
    ],
    [
      "س",
      "اتھ"
    ],
    [
      "گ",
      "اہ"
    ],
    [
      "ف",
      "ٹ"
    ],
    [
      "چاہ",
      "ی"
    ],
    [
      "کرنے",
      "کی"
    ],
    [
      "ر",
      "یک"
    ],
    [
      "ا",
      "ون"
    ],
    [
      "یس",
      "ی"
    ],
    [
      "یا",
      "ب"
    ],
    [
      "س",
      "ری"
    ],
    [
      "م",
      "ندر"
    ],
    [
      "نے",
      "والے"
    ],
    [
      "پر",
      "دیش"
    ],
    [
      "یر",
      "یاست"
    ],
    [
      "ی",
      "ع"
    ],
    [
      "کی",
      "ون"
    ],
    [
      "1",
      "6"
    ],
    [
      "کر",
      "دار"
    ],
    [
      "ل",
      "ام"
    ],
    [
      "ے",
      "سے"
    ],
    [
      "وس",
      "یق"
    ],
    [
      "پ",
      "س"
    ],
    [
      "آ",
      "ب"
    ],
    [
      "ن",
      "ر"
    ],
    [
      "کے",
      "نام"
    ],
    [
      "وا",
      "ز"
    ],
    [
      "کیا",
      "یک"
    ],
    [
      "ہے",
      "جس"
    ],
    [
      "گ",
      "ڑھ"
    ],
    [
      "ا",
      "خ"
    ],
    [
      "ا",
      "ظ"
    ],
    [
      "بھ",
      "ر"
    ],
    [
      "خری",
      "دار"
    ],
    [
      "ش",
      "ک"
    ],
    [
      "گ",
      "ان"
    ],
    [
      "یہ",
      "ندوستان"
    ],
    [
      "ق",
      "ائم"
    ],
    [
      "نظ",
      "ر"
    ],
    [
      "کےبعد",
      "،"
    ],
    [
      "انت",
      "ظام"
    ],
    [
      "ع",
      "ال"
    ],
    [
      "پید",
      "ا"
    ],
    [
      "ق",
      "د"
    ],
    [
      "ان",
      "میں"
    ],
    [
      "ے",
      "کو"
    ],
    [
      "ذ",
      "ہ"
    ],
    [
      "باد",
      "شاہ"
    ],
    [
      "ائ",
      "ش"
    ],
    [
      "ج",
      "اسک"
    ],
    [
      "یم",
      "ت"
    ],
    [
      "ل",
      "ب"
    ],
    [
      "جگ",
      "ہ"
    ],
    [
      "یا",
      "یک"
    ],
    [
      "اتھ",
      "ا"
    ],
    [
      "چ",
      "یز"
    ],
    [
      "ال",
      "ہ"
    ],
    [
      "اب",
      "ت"
    ],
    [
      "کو",
      "ئی"
    ],
    [
      "ع",
      "ہ"
    ],
    [
      "کو",
      "ئ"
    ],
    [
      "بھ",
      "یک"
    ],
    [
      "اور",
      "اس"
    ],
    [
      ",",
      "000"
    ],
    [
      "ت",
      "خ"
    ],
    [
      "بر",
      "طان"
    ],
    [
      "دریا",
      "ئے"
    ],
    [
      "ع",
      "لی"
    ],
    [
      "ٹ",
      "یم"
    ],
    [
      "ین",
      "ڈ"
    ],
    [
      "ٹ",
      "ا"
    ],
    [
      "انڈ",
      "یا"
    ],
    [
      "ف",
      "و"
    ],
    [
      "ح",
      "ر"
    ],
    [
      "تاہم",
      "،"
    ],
    [
      "شامل",
      "ہیں۔</w>"
    ],
    [
      "کہو",
      "ہ"
    ],
    [
      "ند",
      "ھ"
    ],
    [
      "وں",
      "،"
    ],
    [
      "ٹ",
      "ری"
    ],
    [
      "تی",
      "ہیں۔</w>"
    ],
    [
      "ف",
      "رو"
    ],
    [
      "کی",
      "ل"
    ],
    [
      "تا",
      "ہے،"
    ],
    [
      "دو",
      "بار"
    ],
    [
      "ط",
      "ریق"
    ],
    [
      "ط",
      "ح"
    ],
    [
      "ہو",
      "تاہے"
    ],
    [
      "کر",
      "تاہے۔</w>"
    ],
    [
      "کی",
      "س"
    ],
    [
      "آ",
      "ز"
    ],
    [
      "ز",
      "مین"
    ],
    [
      "م",
      "بر"
    ],
    [
      "ل",
      "کھ"
    ],
    [
      "بہت",
      "سے"
    ],
    [
      "قاب",
      "ل"
    ],
    [
      "ات",
      "ے"
    ],
    [
      "کے",
      "درمیان"
    ],
    [
      "19",
      "9"
    ],
    [
      "قر",
      "ار"
    ],
    [
      "میں",
      "پ"
    ],
    [
      "س",
      "یم"
    ],
    [
      "خاند",
      "ان"
    ],
    [
      "جان",
      "ا"
    ],
    [
      "مش",
      "ہور"
    ],
    [
      "گی",
      "۔</w>"
    ],
    [
      "م",
      "ان"
    ],
    [
      "ج",
      "ین"
    ],
    [
      "ہیں",
      "اور"
    ],
    [
      "ق",
      "دی"
    ],
    [
      "مل",
      "ک"
    ],
    [
      "ک",
      "ئی"
    ],
    [
      "ص",
      "ن"
    ],
    [
      "نو",
      "ع"
    ],
    [
      "د",
      "ائی"
    ],
    [
      "ر",
      "بی"
    ],
    [
      "ع",
      "و"
    ],
    [
      "خ",
      "ص"
    ],
    [
      "لا",
      "ح"
    ],
    [
      "آ",
      "ئی"
    ],
    [
      "ہ",
      "ندو"
    ],
    [
      "ی",
      "کے"
    ],
    [
      "ش",
      "ت"
    ],
    [
      "ب",
      "ول"
    ],
    [
      "پھ",
      "ر"
    ],
    [
      "میں",
      "واقع"
    ],
    [
      "ہ",
      "وں"
    ],
    [
      "ہو",
      "تیہے۔</w>"
    ],
    [
      "پہ",
      "لی"
    ],
    [
      "کم",
      "ل"
    ],
    [
      "آ",
      "مد"
    ],
    [
      "فیص",
      "د"
    ],
    [
      "مز",
      "ید"
    ],
    [
      "بنیا",
      "دی"
    ],
    [
      "را",
      "ب"
    ],
    [
      "و",
      "ز"
    ],
    [
      "مغ",
      "رب"
    ],
    [
      "یک",
      "ل"
    ],
    [
      "سبسے",
      "زیادہ"
    ],
    [
      "ا",
      "قت"
    ],
    [
      "ی",
      "ڈ"
    ],
    [
      "کمپ",
      "نی"
    ],
    [
      "و",
      "بار"
    ],
    [
      "پ",
      "نج"
    ],
    [
      "بن",
      "انے"
    ],
    [
      "آ",
      "با"
    ],
    [
      "ہ",
      "ار"
    ],
    [
      "نے",
      "وال"
    ],
    [
      "اض",
      "اف"
    ],
    [
      "در",
      "جہ"
    ],
    [
      "را",
      "ٹھ"
    ],
    [
      "19",
      "7"
    ],
    [
      "چ",
      "ر"
    ],
    [
      "علا",
      "وہ"
    ],
    [
      "در",
      "ج"
    ],
    [
      "ش",
      "کل"
    ],
    [
      "ح",
      "ت"
    ],
    [
      "کیون",
      "کہ"
    ],
    [
      "ات",
      "ی"
    ],
    [
      "وس",
      "م"
    ],
    [
      "ف",
      "ن"
    ],
    [
      "ز",
      "ند"
    ],
    [
      "کی",
      "گئی"
    ],
    [
      "ہو",
      "ار"
    ],
    [
      "م",
      "ثال"
    ],
    [
      "ف",
      "ل"
    ],
    [
      "ک",
      "ئ"
    ],
    [
      "ز",
      "ار"
    ],
    [
      "پ",
      "انی"
    ],
    [
      "مغ",
      "ل"
    ],
    [
      "ع",
      "مل"
    ],
    [
      "ذ",
      "کر"
    ],
    [
      "ال",
      "ا"
    ],
    [
      "ن",
      "ق"
    ],
    [
      "،",
      "ب"
    ],
    [
      "خ",
      "اب"
    ],
    [
      "ا",
      "خت"
    ],
    [
      "اپ",
      "نا"
    ],
    [
      "انت",
      "خاب"
    ],
    [
      "کر",
      "تےہیں"
    ],
    [
      "کے",
      "ل"
    ],
    [
      "تی",
      "ج"
    ],
    [
      "پ",
      "ن"
    ],
    [
      "ی",
      "ون"
    ],
    [
      "ڑ",
      "ے"
    ],
    [
      "آ",
      "خر"
    ],
    [
      "گ",
      "ور"
    ],
    [
      "ج",
      "سے"
    ],
    [
      "نی",
      "شن"
    ],
    [
      "یس",
      "ٹ"
    ],
    [
      "بڑ",
      "ی"
    ],
    [
      "آپ",
      "کی"
    ],
    [
      "س",
      "ام"
    ],
    [
      "ڈ",
      "ھ"
    ],
    [
      "کو",
      "ن"
    ],
    [
      "کے",
      "قریب"
    ],
    [
      "ہ",
      "ند"
    ],
    [
      "جھ",
      "یل"
    ],
    [
      "19",
      "8"
    ],
    [
      "اس",
      "میں"
    ],
    [
      "دا",
      "ز"
    ],
    [
      "ق",
      "ان"
    ],
    [
      "ش",
      "ا"
    ],
    [
      "م",
      "اہ"
    ],
    [
      "ع",
      "یس"
    ],
    [
      "پ",
      "ا"
    ],
    [
      "یو",
      "ارڈ"
    ],
    [
      "ڈال",
      "ر"
    ],
    [
      "1",
      "2"
    ],
    [
      "ویں",
      "صدی"
    ],
    [
      "ق",
      "سم"
    ],
    [
      "ت",
      "ش"
    ],
    [
      "کر",
      "کے"
    ],
    [
      "لی",
      "س"
    ],
    [
      "ق",
      "ام"
    ],
    [
      "مع",
      "لوم"
    ],
    [
      "کر",
      "تےہوئے"
    ],
    [
      "ص",
      "ف"
    ],
    [
      "دوبار",
      "ہ"
    ],
    [
      "ت",
      "یار"
    ],
    [
      "کو",
      "م"
    ],
    [
      "ڈ",
      "یم"
    ],
    [
      "،جس",
      "میں"
    ],
    [
      "گ",
      "ے۔</w>"
    ],
    [
      "چ",
      "ا"
    ],
    [
      "کر",
      "لیا"
    ],
    [
      "اس",
      "سے"
    ],
    [
      "ان",
      "گری"
    ],
    [
      "ش",
      "ار"
    ],
    [
      "ا",
      "چھ"
    ],
    [
      "م",
      "کن"
    ],
    [
      "سم",
      "جھ"
    ],
    [
      "خاص",
      "طورپر"
    ],
    [
      "پور",
      "ٹ"
    ],
    [
      "م",
      "لی"
    ],
    [
      "خ",
      "ان"
    ],
    [
      "پنج",
      "اب"
    ],
    [
      "چ",
      "ند"
    ],
    [
      "می",
      "ل"
    ],
    [
      "ک",
      "می"
    ],
    [
      "ز",
      "بان"
    ],
    [
      "کار",
      "وبار"
    ],
    [
      "ق",
      "یمت"
    ],
    [
      "ل",
      "ائ"
    ],
    [
      "ط",
      "ہ"
    ],
    [
      "وںمیں",
      "سےایک"
    ],
    [
      "ش",
      "دہ"
    ],
    [
      "آبا",
      "دی"
    ],
    [
      "ن",
      "ار"
    ],
    [
      "اور",
      "س"
    ],
    [
      "تب",
      "دی"
    ],
    [
      "ت",
      "ف"
    ],
    [
      "ہیں",
      "۔‏</w>"
    ],
    [
      "پ",
      "یم"
    ],
    [
      "گا",
      "ؤں"
    ],
    [
      "اس",
      "وقت"
    ],
    [
      "پار",
      "ک"
    ],
    [
      "ائ",
      "یا"
    ],
    [
      "و",
      "ار"
    ],
    [
      "دی",
      "د"
    ],
    [
      "ج",
      "ائ"
    ],
    [
      "لا",
      "ع"
    ],
    [
      "ا",
      "ین"
    ],
    [
      "دہ",
      "ائی"
    ],
    [
      "ائ",
      "یک"
    ],
    [
      "و",
      "ک"
    ],
    [
      "ت",
      "لاش"
    ],
    [
      "کےنام",
      "سے"
    ],
    [
      "ڈ",
      "یا"
    ],
    [
      "ت",
      "ج"
    ],
    [
      "کرسک",
      "تےہیں۔</w>"
    ],
    [
      "نے",
      "میں"
    ],
    [
      "تق",
      "سیم"
    ],
    [
      "اس",
      "کا"
    ],
    [
      "گ",
      "ئ"
    ],
    [
      "یں",
      "اور"
    ],
    [
      "ہر",
      "ست"
    ],
    [
      "پ",
      "ٹ"
    ],
    [
      "ے",
      "اور"
    ],
    [
      "یس",
      "ر"
    ],
    [
      "کے",
      "ن"
    ],
    [
      "بی",
      "ٹ"
    ],
    [
      "ص",
      "ل"
    ],
    [
      "بنا",
      "یا"
    ],
    [
      "و",
      "نی"
    ],
    [
      "ب",
      "ح"
    ],
    [
      "و",
      "م"
    ],
    [
      "وا",
      "ج"
    ],
    [
      "اس",
      "بات"
    ],
    [
      "ا",
      "ؤ"
    ],
    [
      "ن",
      "یا"
    ],
    [
      "غ",
      "از"
    ],
    [
      "کے",
      "خلاف"
    ],
    [
      "را",
      "د"
    ],
    [
      "5",
      "0"
    ],
    [
      "جاتا",
      "ہے،"
    ],
    [
      "خ",
      "دم"
    ],
    [
      "مش",
      "تمل"
    ],
    [
      "یر",
      "ہ"
    ],
    [
      "ا",
      "ق"
    ],
    [
      "ا",
      "اور"
    ],
    [
      "ت",
      "اریخ"
    ],
    [
      "ب",
      "ج"
    ],
    [
      "مغ",
      "ربی"
    ],
    [
      "ف",
      "ہرست"
    ],
    [
      "جاتی",
      "ہے۔</w>"
    ],
    [
      "یہ",
      "اں"
    ],
    [
      "پر",
      "م"
    ],
    [
      "کرنے",
      "میں"
    ],
    [
      "1",
      "3"
    ],
    [
      "ری",
      "لو"
    ],
    [
      "کیر",
      "الہ"
    ],
    [
      "و",
      "ق"
    ],
    [
      "ما",
      "یہ"
    ],
    [
      "بھی",
      "ج"
    ],
    [
      "گئے",
      "۔</w>"
    ],
    [
      "ش",
      "یا"
    ],
    [
      "ع",
      "ظ"
    ],
    [
      "پ",
      "اک"
    ],
    [
      "خری",
      "د"
    ],
    [
      "دیا",
      "۔</w>"
    ],
    [
      "صو",
      "بہ"
    ],
    [
      "کر",
      "رہے"
    ],
    [
      "نے",
      "کا"
    ],
    [
      "خدم",
      "ات"
    ],
    [
      "س",
      "کے"
    ],
    [
      "ان",
      "داز"
    ],
    [
      "ہندوستان",
      "میں"
    ],
    [
      "ال",
      "گ"
    ],
    [
      "اپ",
      "س"
    ],
    [
      "ص",
      "ر"
    ],
    [
      "کےطورپر",
      "،"
    ],
    [
      "آ",
      "غاز"
    ],
    [
      "ہندوستان",
      "ی"
    ],
    [
      "جو",
      "دہ"
    ],
    [
      "بعد",
      "میں"
    ],
    [
      "م",
      "پ"
    ],
    [
      "خ",
      "یال"
    ],
    [
      "ت",
      "ار"
    ],
    [
      "ض",
      "ہ"
    ],
    [
      "ف",
      "ور"
    ],
    [
      "دون",
      "وں"
    ],
    [
      "ری",
      "ز"
    ],
    [
      "ق",
      "اف"
    ],
    [
      "اس",
      "کےبعد"
    ],
    [
      "دن",
      "یا"
    ],
    [
      "س",
      "ب"
    ],
    [
      "ہو",
      "ا۔</w>"
    ],
    [
      "پہا",
      "ڑی"
    ],
    [
      "ہ",
      "دا"
    ],
    [
      "،ج",
      "سے"
    ],
    [
      "،",
      "لیکن"
    ],
    [
      "ہو",
      "تےہیں۔</w>"
    ],
    [
      "گان",
      "دھ"
    ],
    [
      "لی",
      "نڈ"
    ],
    [
      "س",
      "از"
    ],
    [
      "حکم",
      "ران"
    ],
    [
      "خت",
      "م"
    ],
    [
      "ل",
      "ائن"
    ],
    [
      "ہ",
      "اتھ"
    ],
    [
      "ث",
      "قاف"
    ],
    [
      "ش",
      "خص"
    ],
    [
      "مو",
      "ت"
    ],
    [
      "قلع",
      "ہ"
    ],
    [
      "یک",
      "ام"
    ],
    [
      "مہ",
      "ار"
    ],
    [
      "کے",
      "پاس"
    ],
    [
      "تی",
      "ب"
    ],
    [
      "ادا",
      "کار"
    ],
    [
      "ہو",
      "ئ"
    ],
    [
      "اک",
      "ثر"
    ],
    [
      "قر",
      "ض"
    ],
    [
      "کر",
      "دہ"
    ],
    [
      "ج",
      "یت"
    ],
    [
      "ہوئی",
      "۔</w>"
    ],
    [
      "کے",
      "ایک"
    ],
    [
      "ا",
      "ٹ"
    ],
    [
      "ے",
      "،"
    ],
    [
      "ات",
      "کی"
    ],
    [
      "ہیں",
      "جو"
    ],
    [
      "تھ",
      "یں۔</w>"
    ],
    [
      "ت",
      "ری"
    ],
    [
      "من",
      "ظ"
    ],
    [
      "ا",
      "یم"
    ],
    [
      "نا",
      "ڈو"
    ],
    [
      "ال",
      "دین"
    ],
    [
      "ظ",
      "اہر"
    ],
    [
      "وس",
      "یع"
    ],
    [
      "1",
      "4"
    ],
    [
      "آ",
      "یا"
    ],
    [
      "نگ",
      "ر"
    ],
    [
      "یق",
      "ینی"
    ],
    [
      "س",
      "یل"
    ],
    [
      "چ",
      "ین"
    ],
    [
      "ی",
      "لا"
    ],
    [
      "تی",
      "ز"
    ],
    [
      "جاتا",
      "ہے"
    ],
    [
      "کے",
      "تح"
    ],
    [
      "ز",
      "ور"
    ],
    [
      "پ",
      "ان"
    ],
    [
      "ہ",
      "می"
    ],
    [
      "کا",
      "استعمال"
    ],
    [
      "خ",
      "ال"
    ],
    [
      "تعد",
      "اد"
    ],
    [
      "ت",
      "میں"
    ],
    [
      "دوس",
      "ری"
    ],
    [
      "کی",
      "سر"
    ],
    [
      "ڈ",
      "ل"
    ],
    [
      "جاتے",
      "ہیں۔</w>"
    ],
    [
      "ٹ",
      "ور"
    ],
    [
      "ہ",
      "میں"
    ],
    [
      "م",
      "تا"
    ],
    [
      "ان",
      "ج"
    ],
    [
      "را",
      "ف"
    ],
    [
      "کر",
      "تی"
    ],
    [
      "اس",
      "طرح"
    ],
    [
      "ن",
      "ما"
    ],
    [
      "،ج",
      "نمیں"
    ],
    [
      "و",
      "ش"
    ],
    [
      "را",
      "ؤ"
    ],
    [
      "ری",
      "کی"
    ],
    [
      "علاق",
      "ےمیں"
    ],
    [
      "نیشن",
      "ل"
    ],
    [
      "ا",
      "یت"
    ],
    [
      "مر",
      "د"
    ],
    [
      "کر",
      "تے"
    ],
    [
      "مر",
      "کز"
    ],
    [
      "ٹ",
      "ک"
    ],
    [
      "دا",
      "کار"
    ],
    [
      "ات",
      "ین"
    ],
    [
      "فلم",
      "وںمیں"
    ],
    [
      "ص",
      "ور"
    ],
    [
      "س",
      "رو"
    ],
    [
      "س",
      "ٹی"
    ],
    [
      "جو",
      "ڑ"
    ],
    [
      "گیا",
      "تھا۔</w>"
    ],
    [
      "یں",
      "،"
    ],
    [
      "پہا",
      "ڑ"
    ],
    [
      "اسٹ",
      "ور"
    ],
    [
      "ات",
      "ر"
    ],
    [
      "ج",
      "مع"
    ],
    [
      "کام",
      "ط"
    ],
    [
      "بار",
      "ش"
    ],
    [
      "کر",
      "تاہے"
    ],
    [
      "را",
      "جات"
    ],
    [
      "کردیا",
      "۔</w>"
    ],
    [
      "ی",
      "لی"
    ],
    [
      "انے",
      "کےلیے"
    ],
    [
      "ب",
      "یان"
    ],
    [
      "ب",
      "یم"
    ],
    [
      "ان",
      "کا"
    ],
    [
      "چ",
      "ے"
    ],
    [
      "ر",
      "ام"
    ],
    [
      "ہندوستان",
      "کی"
    ],
    [
      "علاق",
      "وںمیں"
    ],
    [
      "چاہی",
      "ے۔</w>"
    ],
    [
      "چ",
      "ہ"
    ],
    [
      "مس",
      "لم"
    ],
    [
      "د",
      "ف"
    ],
    [
      "کم",
      "ار"
    ],
    [
      "خو",
      "اتین"
    ],
    [
      "کر",
      "دی"
    ],
    [
      "ع",
      "ر"
    ],
    [
      "س",
      "ات"
    ],
    [
      "بھ",
      "یش"
    ],
    [
      "یا",
      "م"
    ],
    [
      "ائ",
      "ع"
    ],
    [
      "ائ",
      "ٹ"
    ],
    [
      "ن",
      "کی"
    ],
    [
      "فیص",
      "لہ"
    ],
    [
      "3",
      "0"
    ],
    [
      "کی",
      "دہائی"
    ],
    [
      "وں",
      "کےم"
    ],
    [
      "آ",
      "ئے"
    ],
    [
      "چھوٹ",
      "ے"
    ],
    [
      "کیا",
      "اور"
    ],
    [
      "،ج",
      "ب"
    ],
    [
      "ز",
      "م"
    ],
    [
      "پ",
      "انچ"
    ],
    [
      "علاق",
      "ہ"
    ],
    [
      "ج",
      "ز"
    ],
    [
      "جنگ",
      "لات"
    ],
    [
      "ل",
      "ڑ"
    ],
    [
      "الا",
      "قو"
    ],
    [
      "19",
      "6"
    ],
    [
      "کرنے",
      "کا"
    ],
    [
      "و",
      "ڈ"
    ],
    [
      "ش",
      "م"
    ],
    [
      "19",
      "4"
    ],
    [
      "بھ",
      "ال"
    ],
    [
      "یا",
      "ف"
    ],
    [
      "ار",
      "ف"
    ],
    [
      "پو",
      "لیس"
    ],
    [
      "کام",
      "یا"
    ],
    [
      "ش",
      "ور"
    ],
    [
      "طو",
      "یل"
    ],
    [
      "قان",
      "ون"
    ],
    [
      "ب",
      "دھ"
    ],
    [
      "پ",
      "یر"
    ],
    [
      "آ",
      "خری"
    ],
    [
      "سنگ",
      "ھ"
    ],
    [
      "ان",
      "در"
    ],
    [
      "ط",
      "اقت"
    ],
    [
      "ل",
      "طنت"
    ],
    [
      "یا",
      "تی"
    ],
    [
      "مثال",
      "کےطورپر،"
    ],
    [
      "س",
      "پر"
    ],
    [
      "شک",
      "ست"
    ],
    [
      "کان",
      "گری"
    ],
    [
      "سے",
      "ن"
    ],
    [
      "گ",
      "نگ"
    ],
    [
      "ز",
      "مر"
    ],
    [
      "تیج",
      "ےمیں"
    ],
    [
      "م",
      "لا"
    ],
    [
      "را",
      "ہ"
    ],
    [
      "تر",
      "تیب"
    ],
    [
      "آب",
      "شار"
    ],
    [
      "گ",
      "جر"
    ],
    [
      "گ",
      "ار"
    ],
    [
      "ا",
      "،"
    ],
    [
      "داخ",
      "ل"
    ],
    [
      "کے",
      "او"
    ],
    [
      "ت",
      "کی"
    ],
    [
      "یم",
      "ع"
    ],
    [
      "ژ",
      "ن"
    ],
    [
      "ف",
      "تح"
    ],
    [
      "ی",
      "میں"
    ],
    [
      "کے",
      "ا"
    ],
    [
      "چھ",
      "وڑ"
    ],
    [
      "بن",
      "یاد"
    ],
    [
      "تو",
      "آپ"
    ],
    [
      "حی",
      "در"
    ],
    [
      "ر",
      "ت"
    ],
    [
      "می",
      "د"
    ],
    [
      "ایک",
      "م"
    ],
    [
      "غ",
      "ل"
    ],
    [
      "ز",
      "ہ"
    ],
    [
      "گیا",
      "ہے۔</w>"
    ],
    [
      "ال",
      "حکومت"
    ],
    [
      "یک",
      "ٹ"
    ],
    [
      "گئی",
      "۔</w>"
    ],
    [
      "گ",
      "ز"
    ],
    [
      "جس",
      "میں"
    ],
    [
      "ق",
      "یق"
    ],
    [
      "7",
      "میں"
    ],
    [
      "تھا",
      "،"
    ],
    [
      "ا",
      "ے"
    ],
    [
      "علاق",
      "ے"
    ],
    [
      "گ",
      "ل"
    ],
    [
      "بہت",
      "رین"
    ],
    [
      "کھ",
      "نڈ"
    ],
    [
      "خر",
      "چ"
    ],
    [
      "کر",
      "د"
    ],
    [
      "ب",
      "د"
    ],
    [
      "ی",
      "،"
    ],
    [
      "تی",
      "ل"
    ],
    [
      "ہو",
      "تےہیں"
    ],
    [
      "کی",
      "ش"
    ],
    [
      "حمل",
      "ہ"
    ],
    [
      "ار",
      "ے"
    ],
    [
      "تا",
      "کہ"
    ],
    [
      "تبدی",
      "ل"
    ],
    [
      "ق",
      "ات"
    ],
    [
      "د",
      "کھ"
    ],
    [
      "با",
      "ق"
    ],
    [
      "مو",
      "جودہ"
    ],
    [
      "نظ",
      "ام"
    ],
    [
      "ٹ",
      "ین"
    ],
    [
      "اف",
      "راد"
    ],
    [
      "ا",
      "کے"
    ],
    [
      "بین",
      "الاقو"
    ],
    [
      "بھ",
      "ار"
    ],
    [
      "ج",
      "سم"
    ],
    [
      "ر",
      "ہی"
    ],
    [
      "قب",
      "ضہ"
    ],
    [
      "ل",
      "ان"
    ],
    [
      "پیم",
      "انے"
    ],
    [
      "تعد",
      "د"
    ],
    [
      "سک",
      "تےہیں۔</w>"
    ],
    [
      "ق",
      "م"
    ],
    [
      "یش",
      "یا"
    ],
    [
      "نے",
      "کے"
    ],
    [
      "ا",
      "ٹھ"
    ],
    [
      "ج",
      "مو"
    ],
    [
      "،ج",
      "یسے"
    ],
    [
      "ص",
      "ورت"
    ],
    [
      "ج",
      "یس"
    ],
    [
      "بہ",
      "تر"
    ],
    [
      "ق",
      "در"
    ],
    [
      "6",
      "میں"
    ],
    [
      "ٹ",
      "رو"
    ],
    [
      "سٹ",
      "ری"
    ],
    [
      "بھ",
      "یا"
    ],
    [
      "کےمطابق",
      "،"
    ],
    [
      "ہونے",
      "والے"
    ],
    [
      "ق",
      "یاد"
    ],
    [
      "ص",
      "لاح"
    ],
    [
      "ہ",
      "،"
    ],
    [
      "لے",
      "میں"
    ],
    [
      "ت",
      "ل"
    ],
    [
      "کیا",
      "جاتاہے۔</w>"
    ],
    [
      "لی",
      "ز"
    ],
    [
      "ر",
      "کز"
    ],
    [
      "فرو",
      "خت"
    ],
    [
      "کی",
      "ع"
    ],
    [
      "حال",
      "ان"
    ],
    [
      "پاک",
      "ستان"
    ],
    [
      "کیاگیا",
      "۔</w>"
    ],
    [
      "انگری",
      "ز"
    ],
    [
      "برطان",
      "و"
    ],
    [
      "ہندوستان",
      "کے"
    ],
    [
      "ر",
      "ہا"
    ],
    [
      "ہدا",
      "یت"
    ],
    [
      "کیا",
      "تھا۔</w>"
    ],
    [
      "خ",
      "طر"
    ],
    [
      "کرنے",
      "والے"
    ],
    [
      "تاہے",
      "کہ"
    ],
    [
      "اس",
      "ٹی"
    ],
    [
      "کردار",
      "ادا"
    ],
    [
      "ف",
      "یس"
    ],
    [
      "دی",
      "۔</w>"
    ],
    [
      "تھ",
      "ر"
    ],
    [
      "اس",
      "لیے"
    ],
    [
      "ب",
      "لی"
    ],
    [
      "ب",
      "ور"
    ],
    [
      "مر",
      "بع"
    ],
    [
      "2",
      "میں"
    ],
    [
      "ا",
      "کر"
    ],
    [
      "کھ",
      "لا"
    ],
    [
      "ہو",
      "ائیا"
    ],
    [
      "ہوائیا",
      "ڈ"
    ],
    [
      "ن",
      "کو"
    ],
    [
      "کے",
      "ح"
    ],
    [
      "یک",
      "ٹر"
    ],
    [
      "ات",
      "کو"
    ],
    [
      "ج",
      "زیر"
    ],
    [
      "صن",
      "عت"
    ],
    [
      "کی",
      "ن"
    ],
    [
      "کاس",
      "بسے"
    ],
    [
      "رو",
      "پ"
    ],
    [
      "کان",
      "ام"
    ],
    [
      "من",
      "تق"
    ],
    [
      "ص",
      "نوع"
    ],
    [
      "گ",
      "ال"
    ],
    [
      "یک",
      "ار"
    ],
    [
      "ست",
      "ہ"
    ],
    [
      "ہو",
      "۔</w>"
    ],
    [
      "چ",
      "ول"
    ],
    [
      "ہوئے",
      "۔</w>"
    ],
    [
      "قو",
      "می"
    ],
    [
      "ات",
      "ا"
    ],
    [
      "یل",
      "و"
    ],
    [
      "نی",
      "و"
    ],
    [
      "واقع",
      "ہے۔</w>"
    ],
    [
      "ہ",
      "ٹ"
    ],
    [
      "ا",
      "پر"
    ],
    [
      "گ",
      "ول"
    ],
    [
      "9",
      "میں"
    ],
    [
      "ت",
      "ال"
    ],
    [
      "نے",
      "سے"
    ],
    [
      "دار",
      "الحکومت"
    ],
    [
      "ت",
      "نا"
    ],
    [
      "زند",
      "گی"
    ],
    [
      "د",
      "اد"
    ],
    [
      "گ",
      "زر"
    ],
    [
      "سر",
      "مایہ"
    ],
    [
      "2",
      "5"
    ],
    [
      "ی",
      "طرح"
    ],
    [
      "تع",
      "لیم"
    ],
    [
      "ریاست",
      "میں"
    ],
    [
      "ڑ",
      "ک"
    ],
    [
      "را",
      "گ"
    ],
    [
      "شر",
      "ح"
    ],
    [
      "اگر",
      "چہ"
    ],
    [
      "طو",
      "ف"
    ],
    [
      "ج",
      "م"
    ],
    [
      "مال",
      "ک"
    ],
    [
      "کیاگیا",
      "تھا۔</w>"
    ],
    [
      "نا",
      "یا"
    ],
    [
      "ہ",
      "کے"
    ],
    [
      "ا",
      "دہ"
    ],
    [
      "عر",
      "ص"
    ],
    [
      "اس",
      "کول"
    ],
    [
      "کا",
      "ف"
    ],
    [
      "ہ",
      "ل"
    ],
    [
      "گر",
      "ام"
    ],
    [
      "پ",
      "تہ"
    ],
    [
      "س",
      "ما"
    ],
    [
      "کیا",
      "ج"
    ],
    [
      "ت",
      "کم"
    ],
    [
      "پور",
      "ے"
    ],
    [
      "ڈ",
      "یو"
    ],
    [
      "ر",
      "س"
    ],
    [
      "من",
      "تخ"
    ],
    [
      "ش",
      "ادی"
    ],
    [
      "ین",
      "ہیں"
    ],
    [
      "می",
      "چ"
    ],
    [
      "بھ",
      "و"
    ],
    [
      "شہ",
      "ری"
    ],
    [
      "وی",
      "ژن"
    ],
    [
      "8",
      "میں"
    ],
    [
      "ا",
      "ول"
    ],
    [
      "حالان",
      "کہ"
    ],
    [
      "ک",
      "ڑ"
    ],
    [
      "ب",
      "غ"
    ],
    [
      "زی",
      "را"
    ],
    [
      "یک",
      "س"
    ],
    [
      "مق",
      "امی"
    ],
    [
      "ال",
      "و"
    ],
    [
      "دھ",
      "یہ"
    ],
    [
      "بن",
      "ائیں"
    ],
    [
      "آس",
      "ان"
    ],
    [
      "ہ",
      "ندی"
    ],
    [
      "ا",
      "ٓ"
    ],
    [
      "پ",
      "نے"
    ],
    [
      "لے",
      "کر"
    ],
    [
      "ہو",
      "نا"
    ],
    [
      "خت",
      "لف"
    ],
    [
      "کانگری",
      "س"
    ],
    [
      "ش",
      "تہ"
    ],
    [
      "1",
      "میں"
    ],
    [
      "عیس",
      "وی"
    ],
    [
      "کار",
      "ڈ"
    ],
    [
      "ہ",
      "اور"
    ],
    [
      "مق",
      "ر"
    ],
    [
      "پار",
      "ٹی"
    ],
    [
      "اس",
      "کےب"
    ],
    [
      "ان",
      "سے"
    ],
    [
      "ہو",
      "گا۔</w>"
    ],
    [
      "ح",
      "س"
    ],
    [
      "بنیادی",
      "طورپر"
    ],
    [
      "ی",
      "ف"
    ],
    [
      "ری",
      "ف"
    ],
    [
      "ز",
      "میں"
    ],
    [
      "پ",
      "یس"
    ],
    [
      "ت",
      "سے"
    ],
    [
      "ہیں",
      "جن"
    ],
    [
      "چ",
      "یک"
    ],
    [
      "ش",
      "یر"
    ],
    [
      "نا",
      "کام"
    ],
    [
      "آ",
      "ج"
    ],
    [
      "د",
      "ول"
    ],
    [
      "پر",
      "ست"
    ],
    [
      "ن",
      "نے"
    ],
    [
      "ص",
      "ول"
    ],
    [
      "رو",
      "ف"
    ],
    [
      "مق",
      "بول"
    ],
    [
      "ت",
      "امل"
    ],
    [
      "لی",
      "گ"
    ],
    [
      "م",
      "میں"
    ],
    [
      "ص",
      "در"
    ],
    [
      "ات",
      "اور"
    ],
    [
      "غ",
      "ار"
    ],
    [
      "م",
      "راٹھ"
    ],
    [
      "دھیہ",
      "پردیش"
    ],
    [
      "پس",
      "ند"
    ],
    [
      "لی",
      "ٹ"
    ],
    [
      "و",
      "اپس"
    ],
    [
      "یا",
      "۔</w>"
    ],
    [
      "ض",
      "م"
    ],
    [
      "ش",
      "نا"
    ],
    [
      "ہ",
      "کی"
    ],
    [
      "اش",
      "ٹر"
    ],
    [
      "ت",
      "ہوار"
    ],
    [
      "خو",
      "ش"
    ],
    [
      "ن",
      "ئے"
    ],
    [
      "ر",
      "اس"
    ],
    [
      "اس",
      "ب"
    ],
    [
      "کےل",
      "ئے"
    ],
    [
      "چ",
      "ندر"
    ],
    [
      "کے",
      "زیر"
    ],
    [
      "س",
      "ور"
    ],
    [
      "4",
      "0"
    ],
    [
      "ت",
      "ام"
    ],
    [
      "خو",
      "است"
    ],
    [
      "ڈ",
      "یل"
    ],
    [
      "ذہ",
      "ب"
    ],
    [
      "ذ",
      "خ"
    ],
    [
      "نی",
      "ور"
    ],
    [
      "بڑ",
      "ا"
    ],
    [
      "ح",
      "ما"
    ],
    [
      "ضر",
      "ور"
    ],
    [
      "ت",
      "کا"
    ],
    [
      "ت",
      "یر"
    ],
    [
      "گر",
      "می"
    ],
    [
      "کرسک",
      "تےہیں"
    ],
    [
      "ائ",
      "ند"
    ],
    [
      "بو",
      "ط"
    ],
    [
      "ت",
      "کو"
    ],
    [
      "4",
      "میں"
    ],
    [
      "کیطرف",
      "سے"
    ],
    [
      "ائ",
      "د"
    ],
    [
      "نش",
      "ان"
    ],
    [
      "مق",
      "اب"
    ],
    [
      "پت",
      "نگ"
    ],
    [
      "بھ",
      "ائی"
    ],
    [
      "ا",
      "ط"
    ],
    [
      "ا",
      "میں"
    ],
    [
      "کےساتھ",
      "ساتھ"
    ],
    [
      "ون",
      "س"
    ],
    [
      "ن",
      "ئی"
    ],
    [
      "،",
      "یہ"
    ],
    [
      "جب",
      "آپ"
    ],
    [
      "انے",
      "کی"
    ],
    [
      "م",
      "ست"
    ],
    [
      "پ",
      "نا"
    ],
    [
      "م",
      "وسیق"
    ],
    [
      "حما",
      "یت"
    ],
    [
      "کامط",
      "لب"
    ],
    [
      "ل",
      "کی"
    ],
    [
      "مشرق",
      "ی"
    ],
    [
      "ہے،",
      "اور"
    ],
    [
      "کر",
      "تیہے۔</w>"
    ],
    [
      "ب",
      "نے"
    ],
    [
      "بہت",
      "زیادہ"
    ],
    [
      "چھ",
      "و"
    ],
    [
      "0",
      "کیدہائی"
    ],
    [
      "انے",
      "میں"
    ],
    [
      "،",
      "ایک"
    ],
    [
      "ن",
      "یم"
    ],
    [
      "پر",
      "مشتمل"
    ],
    [
      "وںکے",
      "ذریع"
    ],
    [
      "ی",
      "ور"
    ],
    [
      "ز",
      "د"
    ],
    [
      "دی",
      "ہ"
    ],
    [
      "ڈ",
      "یش"
    ],
    [
      "وال",
      "د"
    ],
    [
      "رو",
      "ز"
    ],
    [
      "آز",
      "اد"
    ],
    [
      "جاتا",
      "ہےکہ"
    ],
    [
      "ن",
      "کا"
    ],
    [
      "تھا",
      "۔‏</w>"
    ],
    [
      "اع",
      "لی"
    ],
    [
      "بر",
      "قرار"
    ],
    [
      "سل",
      "سل"
    ],
    [
      "فو",
      "ظ"
    ],
    [
      "معلوم",
      "ات"
    ],
    [
      "در",
      "خواست"
    ],
    [
      "مار",
      "چ"
    ],
    [
      "پ",
      "ین"
    ],
    [
      "ف",
      "اظ"
    ],
    [
      "پید",
      "او"
    ],
    [
      "سائ",
      "ٹ"
    ],
    [
      "مب",
      "ئی"
    ],
    [
      "منتخ",
      "ب"
    ],
    [
      "ان",
      "ام"
    ],
    [
      "ب",
      "س"
    ],
    [
      "تھا",
      "اور"
    ],
    [
      "قو",
      "م"
    ],
    [
      "بو",
      "لی"
    ],
    [
      "ہونے",
      "وال"
    ],
    [
      "ہے",
      "،جس"
    ],
    [
      "خت",
      "یار"
    ],
    [
      "ذ",
      "مہ"
    ],
    [
      "،ج",
      "ہاں"
    ],
    [
      "ح",
      "اظ"
    ],
    [
      "نے",
      "اور"
    ],
    [
      "کش",
      "میر"
    ],
    [
      "ٹ",
      "نگ"
    ],
    [
      "مر",
      "ک"
    ],
    [
      "نے",
      "اس"
    ],
    [
      "ذمہ",
      "دار"
    ],
    [
      "اپن",
      "یم"
    ],
    [
      "د",
      "ع"
    ],
    [
      "کرلیا",
      "۔</w>"
    ],
    [
      "ب",
      "یس"
    ],
    [
      "کےتح",
      "ت"
    ],
    [
      "پیمانے",
      "پر"
    ],
    [
      "گھ",
      "نٹ"
    ],
    [
      "1",
      ","
    ],
    [
      "از",
      "ت"
    ],
    [
      "نے",
      "اپنے"
    ],
    [
      "کیا",
      "ہے۔</w>"
    ],
    [
      "کےلیے",
      "ایک"
    ],
    [
      "کیاگیا",
      "ہے۔</w>"
    ],
    [
      "19",
      "5"
    ],
    [
      "مب",
      "نی"
    ],
    [
      "با",
      "ز"
    ],
    [
      "بغ",
      "او"
    ],
    [
      "ؤ",
      "نٹ"
    ],
    [
      "تی",
      "س"
    ],
    [
      "یہ",
      "ایک"
    ],
    [
      "آ",
      "گے"
    ],
    [
      "بھیش",
      "امل"
    ],
    [
      "قت",
      "ل"
    ],
    [
      "ہ",
      "ہے۔</w>"
    ],
    [
      "دو",
      "د"
    ],
    [
      "ن",
      "ز"
    ],
    [
      "آز",
      "ادی"
    ],
    [
      "تو",
      "آپکو"
    ],
    [
      "در",
      "بار"
    ],
    [
      "مکن",
      "ہ"
    ],
    [
      "س",
      "یک"
    ],
    [
      "گ",
      "ین"
    ],
    [
      "جو",
      "اب"
    ],
    [
      "شاہ",
      "ی"
    ],
    [
      "چ",
      "ٹ"
    ],
    [
      "کام",
      "یاب"
    ],
    [
      "اک",
      "بر"
    ],
    [
      "ع",
      "م"
    ],
    [
      "وںکے",
      "درمیان"
    ],
    [
      "تو",
      "بر"
    ],
    [
      "م",
      "نی"
    ],
    [
      "ابت",
      "دائی"
    ],
    [
      "چ",
      "کے"
    ],
    [
      "اہ",
      "ی"
    ],
    [
      "سم",
      "بر"
    ],
    [
      "پیداو",
      "ار"
    ],
    [
      "ب",
      "یر"
    ],
    [
      "خ",
      "ات"
    ],
    [
      "با",
      "غ"
    ],
    [
      "و",
      "ض"
    ],
    [
      "ح",
      "دہ"
    ],
    [
      "ف",
      "ظ"
    ],
    [
      "عد",
      "ال"
    ],
    [
      "لی",
      "ہ"
    ],
    [
      "ا",
      "یوارڈ"
    ],
    [
      "پو",
      "چھ"
    ],
    [
      "5",
      "میں"
    ],
    [
      "او",
      "ٔ"
    ],
    [
      "جب",
      "کہ"
    ],
    [
      "د",
      "ری"
    ],
    [
      "قب",
      "ول"
    ],
    [
      "رق",
      "م"
    ],
    [
      "ب",
      "اہر"
    ],
    [
      "ق",
      "بل"
    ],
    [
      "ہےجس",
      "میں"
    ],
    [
      "ہ",
      "ف"
    ],
    [
      "وی",
      "ب"
    ],
    [
      "کیا",
      "ور"
    ],
    [
      "میں",
      "شامل"
    ],
    [
      "صو",
      "ب"
    ],
    [
      "پ",
      "ائی"
    ],
    [
      "می",
      "ز"
    ],
    [
      "بن",
      "دی"
    ],
    [
      "آمد",
      "نی"
    ],
    [
      "لا",
      "ک"
    ],
    [
      "تا",
      "ب"
    ],
    [
      "آر",
      "ڈر"
    ],
    [
      "انڈ",
      "ین"
    ],
    [
      "مو",
      "لی"
    ],
    [
      "کو",
      "ٹ"
    ],
    [
      "ات",
      "ح"
    ],
    [
      "کھ",
      "و"
    ],
    [
      "ت",
      "ن"
    ],
    [
      "منتق",
      "ل"
    ],
    [
      "ب",
      "تا"
    ],
    [
      "ان",
      "و"
    ],
    [
      "۔",
      "\""
    ],
    [
      "گ",
      "لو"
    ],
    [
      "ی",
      "طورپر"
    ],
    [
      "ے",
      "کا"
    ],
    [
      "کو",
      "ایک"
    ],
    [
      "ا",
      "ً"
    ],
    [
      "نی",
      "چے"
    ],
    [
      "ری",
      "ل"
    ],
    [
      "گور",
      "نر"
    ],
    [
      "ج",
      "ائیں"
    ],
    [
      "ک",
      "ث"
    ],
    [
      "ٹ",
      "یسٹ"
    ],
    [
      "نا",
      "ف"
    ],
    [
      "ت",
      "یا"
    ],
    [
      "چاہی",
      "ے"
    ],
    [
      "مہار",
      "اشٹر"
    ],
    [
      "ہوسک",
      "تاہے۔</w>"
    ],
    [
      "ت",
      "کر"
    ],
    [
      "ی",
      "ب"
    ],
    [
      "مقر",
      "ر"
    ],
    [
      "نے",
      "پر"
    ],
    [
      "تاہے",
      "اور"
    ],
    [
      "بن",
      "ائے"
    ],
    [
      "اضاف",
      "ہ"
    ],
    [
      "ہ",
      "یم"
    ],
    [
      "کی",
      "ضرورت"
    ],
    [
      "علاوہ",
      "،"
    ],
    [
      "وں",
      "کیا"
    ],
    [
      "ل",
      "س"
    ],
    [
      "ر",
      "نگ"
    ],
    [
      "ب",
      "یت"
    ],
    [
      "و",
      "ف"
    ],
    [
      "کے",
      "ف"
    ],
    [
      "ا",
      "کا"
    ],
    [
      "گھ",
      "اٹ"
    ],
    [
      "رو",
      "ایت"
    ],
    [
      "ہو",
      "گی۔</w>"
    ],
    [
      "مل",
      "ے"
    ],
    [
      "نم",
      "بر"
    ],
    [
      "کےن",
      "تیجےمیں"
    ],
    [
      "اپ",
      "ور"
    ],
    [
      "ا",
      "ثر"
    ],
    [
      "،",
      "یا"
    ],
    [
      "پی",
      "چھ"
    ],
    [
      "ام",
      "نا"
    ],
    [
      "حاظ",
      "سے"
    ],
    [
      "مح",
      "فوظ"
    ],
    [
      "س",
      "پ"
    ],
    [
      "و",
      "اب"
    ],
    [
      "جانے",
      "والے"
    ],
    [
      "ط",
      "ال"
    ],
    [
      "پہ",
      "لا"
    ],
    [
      "1",
      "00"
    ],
    [
      "ان",
      "ٹر"
    ],
    [
      "ڈ",
      "گری"
    ],
    [
      "کیا",
      "جاسک"
    ],
    [
      "اد",
      "ھ"
    ],
    [
      "ہو",
      "ہ"
    ],
    [
      "جس",
      "تھ"
    ],
    [
      "م",
      "کمل"
    ],
    [
      "ر",
      "ک"
    ],
    [
      "گ",
      "را"
    ],
    [
      "پرو",
      "گرام"
    ],
    [
      "ار",
      "ہ"
    ],
    [
      "خ",
      "لی"
    ],
    [
      "میںواقع",
      "ہے۔</w>"
    ],
    [
      "یا",
      "یس"
    ],
    [
      "کا",
      "فی"
    ],
    [
      "تھ",
      "یاور"
    ],
    [
      "نگ",
      "ھ"
    ],
    [
      "ٹیک",
      "س"
    ],
    [
      "و",
      "ہاں"
    ],
    [
      "کی",
      "ری"
    ],
    [
      "ے",
      "گئے"
    ],
    [
      "پڑ",
      "ھ"
    ],
    [
      "ی",
      "ری"
    ],
    [
      "جان",
      "ور"
    ],
    [
      "وا",
      "دی"
    ],
    [
      "نم",
      "ائند"
    ],
    [
      "اس",
      "پر"
    ],
    [
      "د",
      "د"
    ],
    [
      "اک",
      "توبر"
    ],
    [
      "درجہ",
      "حر"
    ],
    [
      "ض",
      "ح"
    ],
    [
      "بہ",
      "ار"
    ],
    [
      "یک",
      "ارڈ"
    ],
    [
      "جمو",
      "ع"
    ],
    [
      "ج",
      "ے"
    ],
    [
      "ت",
      "رین"
    ],
    [
      "کرنےکی",
      "کوشش"
    ],
    [
      "اع",
      "لان"
    ],
    [
      "را",
      "یک"
    ],
    [
      "کات",
      "ع"
    ],
    [
      "ائی",
      "ڈ"
    ],
    [
      "ضر",
      "وری"
    ],
    [
      "خ",
      "ور"
    ],
    [
      "گر",
      "م"
    ],
    [
      "د",
      "سمبر"
    ],
    [
      "گر",
      "د"
    ],
    [
      "ن",
      "،"
    ],
    [
      "تر",
      "قی"
    ],
    [
      "خ",
      "د"
    ],
    [
      "ف",
      "ائ"
    ],
    [
      "ہ",
      "ری"
    ],
    [
      "انج",
      "ام"
    ],
    [
      "صلاح",
      "یت"
    ],
    [
      "ا",
      "یسے"
    ],
    [
      "ہو",
      "ل"
    ],
    [
      "ہو",
      "گا"
    ],
    [
      "پھ",
      "یل"
    ],
    [
      "ریلو",
      "ے"
    ],
    [
      "م",
      "وسم"
    ],
    [
      "بہت",
      "ری"
    ],
    [
      "ق",
      "ید"
    ],
    [
      "من",
      "ع"
    ],
    [
      "ا",
      "کہ"
    ],
    [
      "تو",
      "قع"
    ],
    [
      "ل",
      "داخ"
    ],
    [
      "میں",
      "آ"
    ],
    [
      "دھ",
      "ر"
    ],
    [
      "ح",
      "ل"
    ],
    [
      "ب",
      "یل"
    ],
    [
      "نے",
      "والی"
    ],
    [
      "تھے",
      "،"
    ],
    [
      "ا",
      "کو"
    ],
    [
      "یک",
      "ن"
    ],
    [
      "،جب",
      "کہ"
    ],
    [
      "پو",
      "ز"
    ],
    [
      "ظ",
      "اہ"
    ],
    [
      "ام",
      "کان"
    ],
    [
      "رو",
      "ن"
    ],
    [
      "پر",
      "ت"
    ],
    [
      "یک",
      "ہ"
    ],
    [
      "1",
      "1"
    ],
    [
      "گجر",
      "ات"
    ],
    [
      "،",
      "چ"
    ],
    [
      "کرنے",
      "کے"
    ],
    [
      "ق",
      "ط"
    ],
    [
      "ایک",
      "بار"
    ],
    [
      "و",
      "ع"
    ],
    [
      "ح",
      "یات"
    ],
    [
      "پ",
      "یرو"
    ],
    [
      "لا",
      "ب"
    ],
    [
      "بع",
      "ض"
    ],
    [
      "یک",
      "یا"
    ],
    [
      "یں",
      "کہ"
    ],
    [
      "مربع",
      "کلومیٹر"
    ],
    [
      "گر",
      "فت"
    ],
    [
      "کو",
      "ز"
    ],
    [
      "س",
      "میں"
    ],
    [
      "م",
      "ور"
    ],
    [
      "کےب",
      "یٹ"
    ],
    [
      "م",
      "کی"
    ],
    [
      "کرنا",
      "پڑ"
    ],
    [
      "تج",
      "ارت"
    ],
    [
      "اور",
      "نگ"
    ],
    [
      "ض",
      "بوط"
    ],
    [
      "حص",
      "ے"
    ],
    [
      "پر",
      "ان"
    ],
    [
      "ی",
      "چ"
    ],
    [
      "2",
      "2"
    ],
    [
      "نما",
      "یاں"
    ],
    [
      "نہیں",
      "ہے۔</w>"
    ],
    [
      "6",
      "0"
    ],
    [
      "ف",
      "ری"
    ],
    [
      "د",
      "س"
    ],
    [
      "غ",
      "ور"
    ],
    [
      "کم",
      "از"
    ],
    [
      "را",
      "جستھ"
    ],
    [
      "برقرار",
      "رکھ"
    ],
    [
      "م",
      "نگ"
    ],
    [
      "ت",
      "س"
    ],
    [
      "د",
      "را"
    ],
    [
      "ک",
      "شن"
    ],
    [
      ")",
      "اور"
    ],
    [
      "سک",
      "تےہیں"
    ],
    [
      "کر",
      "ے"
    ],
    [
      "ت",
      "اور"
    ],
    [
      "وں",
      "کام"
    ],
    [
      "او",
      "جود"
    ],
    [
      "ز",
      "از"
    ],
    [
      "یس",
      "ور"
    ],
    [
      "کھ",
      "ی"
    ],
    [
      "ڈ",
      "ین"
    ],
    [
      "ا",
      "ث"
    ],
    [
      "تک",
      "کہ"
    ],
    [
      "ج",
      "دید"
    ],
    [
      "کرنے",
      "وال"
    ],
    [
      "عال",
      "م"
    ],
    [
      "سم",
      "ندر"
    ],
    [
      "خ",
      "ل"
    ],
    [
      "یو",
      "نیور"
    ],
    [
      "سو",
      "د"
    ],
    [
      "ش",
      "ان"
    ],
    [
      "رف",
      "تار"
    ],
    [
      "کر",
      "م"
    ],
    [
      "ال",
      "ز"
    ],
    [
      "وق",
      "ف"
    ],
    [
      "د",
      "ان"
    ],
    [
      "سےم",
      "تعلق"
    ],
    [
      "س",
      "کھ"
    ],
    [
      "3",
      "میں"
    ],
    [
      "ف",
      "صل"
    ],
    [
      "ٹی",
      "لی"
    ],
    [
      "و",
      "ٔ"
    ],
    [
      "ند",
      "ری"
    ],
    [
      "اح",
      "ل"
    ],
    [
      "بھیک",
      "ہا"
    ],
    [
      "نی",
      "ٹ"
    ],
    [
      "جاتی",
      "ہیں۔</w>"
    ],
    [
      "اد",
      "ائی"
    ],
    [
      "پ",
      "یسے"
    ],
    [
      "کرنے",
      "سے"
    ],
    [
      "ست",
      "مبر"
    ],
    [
      "ام",
      "ن"
    ],
    [
      "بینالاقو",
      "ام"
    ],
    [
      "ذ",
      "ر"
    ],
    [
      "کر",
      "ن"
    ],
    [
      "ب",
      "ک"
    ],
    [
      "بر",
      "ہ"
    ],
    [
      "ا",
      "ڑ"
    ],
    [
      "ت",
      "را"
    ],
    [
      "پر",
      "مبنی"
    ],
    [
      "بر",
      "ہم"
    ],
    [
      "رو",
      "س"
    ],
    [
      "یز",
      "بان"
    ],
    [
      "کماز",
      "کم"
    ],
    [
      "صف",
      "ح"
    ],
    [
      "ہوتی",
      "ہیں۔</w>"
    ],
    [
      "201",
      "1"
    ],
    [
      "ان",
      "کار"
    ],
    [
      "ک",
      "ست"
    ],
    [
      "آس",
      "ام"
    ],
    [
      "دو",
      "ست"
    ],
    [
      "وا",
      "ڑ"
    ],
    [
      "ہ",
      "ن"
    ],
    [
      "یم",
      "ن"
    ],
    [
      "ب",
      "ندر"
    ],
    [
      "کھلا",
      "ڑی"
    ],
    [
      "تمل",
      "ناڈو"
    ],
    [
      "تح",
      "قیق"
    ],
    [
      "یقینی",
      "بنائیں"
    ],
    [
      "کامیا",
      "بی"
    ],
    [
      "با",
      "کس"
    ],
    [
      "اخ",
      "راجات"
    ],
    [
      "کال",
      "ج"
    ],
    [
      "ل",
      "ائی"
    ],
    [
      "بھ",
      "یت"
    ],
    [
      "جار",
      "یر"
    ],
    [
      "کیے",
      "گئے"
    ],
    [
      "جو",
      "ن"
    ],
    [
      "اش",
      "وک"
    ],
    [
      "ای",
      "ڈ"
    ],
    [
      "و",
      "جود"
    ],
    [
      "گ",
      "یم"
    ],
    [
      "جن",
      "ر"
    ],
    [
      "ب",
      "ائی"
    ],
    [
      "س",
      "طح"
    ],
    [
      "می",
      "گھ"
    ],
    [
      "ال",
      "یہ"
    ],
    [
      "کا",
      "آغاز"
    ],
    [
      "ت",
      "کے"
    ],
    [
      "کےس",
      "بسے"
    ],
    [
      "پنا",
      "ہ"
    ],
    [
      "،جس",
      "نے"
    ],
    [
      "ب",
      "یک"
    ],
    [
      "تش",
      "کیل"
    ],
    [
      "اخت",
      "یار"
    ],
    [
      "پ",
      "انڈ"
    ],
    [
      "فر",
      "انس"
    ],
    [
      "نو",
      "مبر"
    ],
    [
      "گا",
      "یا"
    ],
    [
      "نو",
      "ٹ"
    ],
    [
      "ری",
      "لیز"
    ],
    [
      "،",
      "اس"
    ],
    [
      "ٹ",
      "ل"
    ],
    [
      "تیل",
      "گو"
    ],
    [
      "و",
      "اہ"
    ],
    [
      "کےب",
      "جائے"
    ],
    [
      "تو",
      "جہ"
    ],
    [
      "آ",
      "ؤ"
    ],
    [
      "س",
      "وس"
    ],
    [
      "تی",
      "ہے"
    ],
    [
      "ام",
      "ین"
    ],
    [
      "خ",
      "ار"
    ],
    [
      "یس",
      "ال"
    ],
    [
      "کہا",
      "کہ"
    ],
    [
      "مع",
      "اون"
    ],
    [
      "،",
      "و"
    ],
    [
      "ریک",
      "ارڈ"
    ],
    [
      "سمجھ",
      "ا"
    ],
    [
      "دور",
      "ان"
    ],
    [
      "نہ",
      "رو"
    ],
    [
      "کیا",
      "کہ"
    ],
    [
      "پر",
      "ایک"
    ],
    [
      "ش",
      "یو"
    ],
    [
      "سی",
      "ح"
    ],
    [
      "گرو",
      "پ"
    ],
    [
      "ای",
      "تی"
    ],
    [
      "کیاج",
      "ازت"
    ],
    [
      "ز",
      "اور"
    ],
    [
      "وی",
      "ٰ"
    ],
    [
      "سر",
      "کار"
    ],
    [
      "کےب",
      "ہ"
    ],
    [
      "گ",
      "ن"
    ],
    [
      "پ",
      "وس"
    ],
    [
      "آن",
      "لائن"
    ],
    [
      "او",
      "یز"
    ],
    [
      "گ",
      "یکر"
    ],
    [
      "گرو",
      "ہ"
    ],
    [
      "قب",
      "لم"
    ],
    [
      "یر",
      "قم"
    ],
    [
      "منع",
      "قد"
    ],
    [
      "اس",
      "کر"
    ],
    [
      "ٹ",
      "ن"
    ],
    [
      "س",
      "می"
    ],
    [
      "یک",
      "م"
    ],
    [
      "ہ",
      "نگ"
    ],
    [
      "قص",
      "ان"
    ],
    [
      "یا",
      "داکار"
    ],
    [
      "فار",
      "م"
    ],
    [
      "اتر",
      "پردیش"
    ],
    [
      "ام",
      "ریکی"
    ],
    [
      "اس",
      "یکی"
    ],
    [
      "ش",
      "ع"
    ],
    [
      "تھ",
      "یں"
    ],
    [
      "ے",
      "ہوئے"
    ],
    [
      "ا",
      "گیا"
    ],
    [
      "قیاد",
      "ت"
    ],
    [
      "تھے",
      "اور"
    ],
    [
      "ض",
      "اف"
    ],
    [
      "پر",
      "ند"
    ],
    [
      "گ",
      "لی"
    ],
    [
      "د",
      "کان"
    ],
    [
      "ہف",
      "تے"
    ],
    [
      "شہ",
      "ن"
    ],
    [
      "19",
      "3"
    ],
    [
      "غ",
      "ال"
    ],
    [
      "ش",
      "ین"
    ],
    [
      "ہو",
      "گئے"
    ],
    [
      "یس",
      "لطنت"
    ],
    [
      "تک",
      "پہنچ"
    ],
    [
      "اپر",
      "یل"
    ],
    [
      "کو",
      "چ"
    ],
    [
      "،جس",
      "سے"
    ],
    [
      "یم",
      "پ"
    ],
    [
      "ٹ",
      "را"
    ],
    [
      "لے",
      "پر"
    ],
    [
      "درجہحر",
      "ارت"
    ],
    [
      "اسٹ",
      "یشن"
    ],
    [
      "میں",
      "س"
    ],
    [
      "تقری",
      "ب"
    ],
    [
      "2",
      "1"
    ],
    [
      "ذ",
      "ات"
    ],
    [
      "اس",
      "م"
    ],
    [
      "طر",
      "ز"
    ],
    [
      "کی",
      "ج"
    ],
    [
      "کرنا",
      "ٹک"
    ],
    [
      "وی",
      "راج"
    ],
    [
      "چ",
      "ان"
    ],
    [
      "حی",
      "ث"
    ],
    [
      "دیو",
      "تا"
    ],
    [
      "تع",
      "ارف"
    ],
    [
      "بدھ",
      "مت"
    ],
    [
      "بچ",
      "ت"
    ],
    [
      "سال",
      "انہ"
    ],
    [
      "نےکی",
      "کوشش"
    ],
    [
      "نظ",
      "یم"
    ],
    [
      "ان",
      "ین"
    ],
    [
      "کےس",
      "ام"
    ],
    [
      "ا",
      "کار"
    ],
    [
      "کر",
      "و"
    ],
    [
      "ٹ",
      "م"
    ],
    [
      "آس",
      "پاس"
    ],
    [
      "یم",
      "قام"
    ],
    [
      "ائ",
      "یم"
    ],
    [
      "وںکےذریع",
      "ے"
    ],
    [
      "خ",
      "ش"
    ],
    [
      "علا",
      "ج"
    ],
    [
      "دی",
      "پ"
    ],
    [
      "ح",
      "فاظ"
    ],
    [
      "کےزیر",
      "انتظام"
    ],
    [
      "پرو",
      "ڈ"
    ],
    [
      "صنوع",
      "ات"
    ],
    [
      "ہوا",
      "ہے۔</w>"
    ],
    [
      "میں",
      "سے"
    ],
    [
      "یہ",
      "م"
    ],
    [
      "چ",
      "کی"
    ],
    [
      "عظ",
      "یم"
    ],
    [
      "حیث",
      "یت"
    ],
    [
      "ٹ",
      "میں"
    ],
    [
      "جب",
      "ور"
    ],
    [
      "وا",
      "حد"
    ],
    [
      "ب",
      "ق"
    ],
    [
      "آن",
      "کھ"
    ],
    [
      "جاتا",
      "ہےاور"
    ],
    [
      "اورنگ",
      "زی"
    ],
    [
      "ہ",
      "وںنے"
    ],
    [
      "2",
      "4"
    ],
    [
      "،",
      "گ"
    ],
    [
      "پید",
      "ائش"
    ],
    [
      "پیش",
      "ہور"
    ],
    [
      "کے",
      "کچھ"
    ],
    [
      "پیچھ",
      "ے"
    ],
    [
      "جن",
      "وری"
    ],
    [
      "یک",
      "ش"
    ],
    [
      "تا",
      "ثر"
    ],
    [
      "پیش",
      "کش"
    ],
    [
      "سے",
      "کم"
    ],
    [
      "علا",
      "ؤ"
    ],
    [
      "کےم",
      "ع"
    ],
    [
      "ل",
      "ڈ"
    ],
    [
      "ڈ",
      "یز"
    ],
    [
      "حکومت",
      "نے"
    ],
    [
      "یا",
      "دار"
    ],
    [
      "کےدوران",
      "،"
    ],
    [
      "در",
      "خت"
    ],
    [
      "ش",
      "کار"
    ],
    [
      "ش",
      "رق"
    ],
    [
      "اگر",
      "آپکو"
    ],
    [
      "ن",
      "ک"
    ],
    [
      "پر",
      "س"
    ],
    [
      "مش",
      "تر"
    ],
    [
      "دور",
      "ہ"
    ],
    [
      "کاس",
      "امنا"
    ],
    [
      "کی",
      "بنیاد"
    ],
    [
      "ان",
      "کو"
    ],
    [
      "بھ",
      "ید"
    ],
    [
      "علاؤ",
      "الدین"
    ],
    [
      "طریق",
      "ہ"
    ],
    [
      "ف",
      "رق"
    ],
    [
      "کا",
      "حصہ"
    ],
    [
      "قبلم",
      "سیح"
    ],
    [
      "ہے",
      "تو"
    ],
    [
      "کےنامسے",
      "جانا"
    ],
    [
      "جنو",
      "بی"
    ],
    [
      "ای",
      "ف"
    ],
    [
      "چاہ",
      "تےہیں"
    ],
    [
      "تھی",
      "،"
    ],
    [
      "شہن",
      "شاہ"
    ],
    [
      "گین",
      "د"
    ],
    [
      "تے",
      "تھے۔</w>"
    ],
    [
      "ون",
      "ڈ"
    ],
    [
      "چ",
      "یت"
    ],
    [
      "مسلم",
      "ان"
    ],
    [
      "وںمیں",
      "،"
    ],
    [
      "فوج",
      "ی"
    ],
    [
      "و",
      "پ"
    ],
    [
      "یمپ",
      "ئ"
    ],
    [
      "سے",
      "مل"
    ],
    [
      "میں",
      "سےایک"
    ],
    [
      "جو",
      "یز"
    ],
    [
      "ن",
      "یک"
    ],
    [
      "تر",
      "ق"
    ],
    [
      "یکر",
      "دار"
    ],
    [
      "ط",
      "ف"
    ],
    [
      "سرمایہ",
      "کار"
    ],
    [
      "وا",
      "ضح"
    ],
    [
      "،",
      "پ"
    ],
    [
      "کریں",
      "اور"
    ],
    [
      "طوف",
      "ان"
    ],
    [
      "ی",
      "نے"
    ],
    [
      "خود",
      "مخت"
    ],
    [
      "کے",
      "اندر"
    ],
    [
      "برا",
      "ہر"
    ],
    [
      "تک",
      "،"
    ],
    [
      "،جو",
      "کہ"
    ],
    [
      "زیرا",
      "عظ"
    ],
    [
      "اخت",
      "تام"
    ],
    [
      "آ",
      "پر"
    ],
    [
      "تح",
      "ری"
    ],
    [
      "کے",
      "آخر"
    ],
    [
      "ما",
      "عت"
    ],
    [
      "اسبات",
      "کو"
    ],
    [
      "م",
      "مالک"
    ],
    [
      "ڈ",
      "ویژن"
    ],
    [
      "قرار",
      "دیا"
    ],
    [
      "2",
      "3"
    ],
    [
      "آف",
      "انڈیا"
    ],
    [
      "ٹر",
      "یک"
    ],
    [
      "کون",
      "سل"
    ],
    [
      "ویب",
      "سائٹ"
    ],
    [
      "دل",
      "چ"
    ],
    [
      "تھی",
      "۔‏</w>"
    ],
    [
      "تح",
      "ریک"
    ],
    [
      "دی",
      "نے"
    ],
    [
      "خو",
      "اہ"
    ],
    [
      "اعلی",
      "ٰ"
    ],
    [
      "صو",
      "یر"
    ],
    [
      "ت",
      "یم"
    ],
    [
      "اتے",
      "ہیں۔</w>"
    ],
    [
      "ات",
      "را"
    ],
    [
      "یش",
      "تر"
    ],
    [
      "صو",
      "بے"
    ],
    [
      "ب",
      "ری"
    ],
    [
      "جانے",
      "وال"
    ],
    [
      "او",
      "پر"
    ],
    [
      "مغربی",
      "بنگال"
    ],
    [
      "و",
      "اد"
    ],
    [
      "ڈ",
      "اک"
    ],
    [
      "ہے،",
      "لیکن"
    ],
    [
      "اور",
      "دیگر"
    ],
    [
      "آپ",
      "کا"
    ],
    [
      "میگھ",
      "الیہ"
    ],
    [
      "جز",
      "ائر"
    ],
    [
      "میل",
      ")"
    ],
    [
      "مع",
      "اہ"
    ],
    [
      "دع",
      "ویٰ"
    ],
    [
      "دی",
      "گئی"
    ],
    [
      "کہا",
      "جاتاہے۔</w>"
    ],
    [
      "ہو",
      "گیا۔</w>"
    ],
    [
      "تب",
      "اہ"
    ],
    [
      "پ",
      "تھر"
    ],
    [
      "سی",
      "ریز"
    ],
    [
      "تیز",
      "یسے"
    ],
    [
      "قدی",
      "م"
    ],
    [
      "مال",
      "یہ"
    ],
    [
      "ہوں",
      "۔</w>"
    ],
    [
      "ہوسک",
      "تاہے"
    ],
    [
      "لا",
      "گ"
    ],
    [
      "خریدار",
      "یکر"
    ],
    [
      "ب",
      "غیر"
    ],
    [
      "ر",
      "انی"
    ],
    [
      "ب",
      "اب"
    ],
    [
      "من",
      "صوبہ"
    ],
    [
      "متا",
      "ثر"
    ],
    [
      "نے",
      "ایک"
    ],
    [
      "ہو",
      "کر"
    ],
    [
      "پر",
      "تھ"
    ],
    [
      "حص",
      "ےمیں"
    ],
    [
      "ڑ",
      "ا"
    ],
    [
      "کےم",
      "قاب"
    ],
    [
      "ات",
      "سے"
    ],
    [
      "ٹ",
      "یا"
    ],
    [
      "کر",
      "تےہیں،"
    ],
    [
      "ک",
      "پڑ"
    ],
    [
      "جات",
      "اتھا۔</w>"
    ],
    [
      "ز",
      "خ"
    ],
    [
      "۔\"",
      "</w>"
    ],
    [
      "ل",
      "ز"
    ],
    [
      "شا",
      "ید"
    ],
    [
      "ف",
      "ون"
    ],
    [
      "وا",
      "ع"
    ],
    [
      "تری",
      "پور"
    ],
    [
      "ب",
      "طور"
    ],
    [
      "ل",
      "ال"
    ],
    [
      "ت",
      "خت"
    ],
    [
      "اگ",
      "ست"
    ],
    [
      "ہو",
      "گیا"
    ],
    [
      "ا",
      "در"
    ],
    [
      "0",
      "میں"
    ],
    [
      "جنگ",
      "ل"
    ],
    [
      "تا",
      "۔</w>"
    ],
    [
      "پ",
      "نی"
    ],
    [
      "پرم",
      "جبور"
    ],
    [
      "جر",
      "بہ"
    ],
    [
      "عو",
      "ام"
    ],
    [
      "بھر",
      "میں"
    ],
    [
      "پ",
      "اش"
    ],
    [
      "فرو",
      "غ"
    ],
    [
      "انس",
      "ون"
    ],
    [
      "ین",
      "ہ"
    ],
    [
      "بنگ",
      "لہ"
    ],
    [
      "یس",
      "طح"
    ],
    [
      "ہدایت",
      "کار"
    ],
    [
      "ک",
      "چ"
    ],
    [
      "اض",
      "لاع"
    ],
    [
      "خریدار",
      "ی"
    ],
    [
      "گرفت",
      "ار"
    ],
    [
      "ر",
      "د"
    ],
    [
      "کار",
      "کرد"
    ],
    [
      "ب",
      "یا"
    ],
    [
      "ص",
      "یل"
    ],
    [
      "شمال",
      "مشرق"
    ],
    [
      "و",
      "ین"
    ],
    [
      "2",
      "7"
    ],
    [
      "عرص",
      "ے"
    ],
    [
      "ر",
      "ع"
    ],
    [
      "غ",
      "ذ"
    ],
    [
      "کےب",
      "اوجود"
    ],
    [
      "کےاو",
      "ائل"
    ],
    [
      "بتا",
      "یا"
    ],
    [
      "آؤ",
      "ٹ"
    ],
    [
      "صن",
      "ف"
    ],
    [
      "ظ",
      "ر"
    ],
    [
      "م",
      "ول"
    ],
    [
      "بڑے",
      "پیمانےپر"
    ],
    [
      "و",
      "ہم"
    ],
    [
      "ائ",
      "یں۔</w>"
    ],
    [
      "ز",
      "کی"
    ],
    [
      "حص",
      "وںمیں"
    ],
    [
      "ش",
      "پ"
    ],
    [
      "بین",
      "ک"
    ],
    [
      "بھ",
      "یس"
    ],
    [
      "ہے،",
      "تو"
    ],
    [
      "کرنے",
      "اور"
    ],
    [
      "خ",
      "بر"
    ],
    [
      "بی",
      "ڈ"
    ],
    [
      "آ",
      "واز"
    ],
    [
      "یان",
      "ہ"
    ],
    [
      "آ",
      "ٹھ"
    ],
    [
      "میں",
      "داخل"
    ],
    [
      "و",
      "یل"
    ],
    [
      "کے",
      "کن"
    ],
    [
      "کےذریع",
      "ہ"
    ],
    [
      "صدی",
      "ق"
    ],
    [
      "ت",
      "اتھا۔</w>"
    ],
    [
      "آ",
      "ندھ"
    ],
    [
      "خو",
      "ب"
    ],
    [
      "رو",
      "م"
    ],
    [
      "کا",
      "شت"
    ],
    [
      "ن",
      "ال"
    ],
    [
      "مل",
      "یا"
    ],
    [
      "چھو",
      "ٹی"
    ],
    [
      "ند",
      "ہ"
    ],
    [
      "انت",
      "ہ"
    ],
    [
      "،ج",
      "ن"
    ],
    [
      "دوس",
      "ر"
    ],
    [
      "ر",
      "ض"
    ],
    [
      "کےب",
      "ڑے"
    ],
    [
      "پ",
      "ُ"
    ],
    [
      "ات",
      "پر"
    ],
    [
      "پ",
      "ائے"
    ],
    [
      "کسی",
      "بھی"
    ],
    [
      "ری",
      "ٹ"
    ],
    [
      "ہیں",
      "،اور"
    ],
    [
      "ثقاف",
      "تی"
    ],
    [
      "وںمیں",
      "سے"
    ],
    [
      "ٹی",
      "و"
    ],
    [
      "و",
      "یر"
    ],
    [
      "بج",
      "لی"
    ],
    [
      "گ",
      "یسے"
    ],
    [
      "د",
      "ت"
    ],
    [
      "ڈر",
      "ام"
    ],
    [
      "یہ",
      "فلم"
    ],
    [
      "غ",
      "ان"
    ],
    [
      "ط",
      "ے"
    ],
    [
      "طرف",
      "سے"
    ],
    [
      "2",
      "6"
    ],
    [
      "ح",
      "کام"
    ],
    [
      "خاند",
      "انکے"
    ],
    [
      "تی",
      "سر"
    ],
    [
      "ل",
      "کش"
    ],
    [
      "دہلی",
      "میں"
    ],
    [
      "ڈ",
      "ری"
    ],
    [
      "جس",
      "نے"
    ],
    [
      "عال",
      "می"
    ],
    [
      "غ",
      "رب"
    ],
    [
      "حس",
      "اب"
    ],
    [
      "بی",
      "چ"
    ],
    [
      "پ",
      "وج"
    ],
    [
      "کر",
      "یڈ"
    ],
    [
      "خ",
      "راجات"
    ],
    [
      "دست",
      "یاب"
    ],
    [
      "یک",
      "شن"
    ],
    [
      "ج",
      "یسی"
    ],
    [
      "ج",
      "ہا"
    ],
    [
      "کرنے",
      "پر"
    ],
    [
      "کو",
      "س"
    ],
    [
      "مح",
      "ل"
    ],
    [
      "ص",
      "حت"
    ],
    [
      "گر",
      "ہ"
    ],
    [
      "تھے",
      "۔‏</w>"
    ],
    [
      "س",
      "یس"
    ],
    [
      "،",
      "ت"
    ],
    [
      "د",
      "ام"
    ],
    [
      "اہ",
      "ل"
    ],
    [
      "صور",
      "تح"
    ],
    [
      "و",
      "لی"
    ],
    [
      "،",
      "\""
    ],
    [
      "ب",
      "دل"
    ],
    [
      "ج",
      "اری"
    ],
    [
      "رو",
      "ایتی"
    ],
    [
      "پ",
      "د"
    ],
    [
      "ام",
      "ریک"
    ],
    [
      "مح",
      "مد"
    ],
    [
      "یا",
      "یشیا"
    ],
    [
      "نے",
      "سےپہلے"
    ],
    [
      "کر",
      "کٹ"
    ],
    [
      "ہیں،",
      "تو"
    ],
    [
      "ح",
      "دود"
    ],
    [
      "قد",
      "ام"
    ],
    [
      "ع",
      "لام"
    ],
    [
      "ج",
      "یا"
    ],
    [
      "سیا",
      "ح"
    ],
    [
      "کی",
      "ٹ"
    ],
    [
      "انمیں",
      "سے"
    ],
    [
      "سک",
      "تیہے۔</w>"
    ],
    [
      "ذریع",
      "ہ"
    ],
    [
      "خط",
      "ےمیں"
    ],
    [
      "ش",
      "ائع"
    ],
    [
      "ذر",
      "ائع"
    ],
    [
      "مع",
      "اش"
    ],
    [
      "ان",
      "کیا"
    ],
    [
      "گ",
      "انے"
    ],
    [
      "م",
      "اری"
    ],
    [
      "ہ",
      "ین"
    ],
    [
      "بال",
      "آخر"
    ],
    [
      "وںکا",
      "ایک"
    ],
    [
      "غل",
      "ط"
    ],
    [
      "بنانے",
      "کےلیے"
    ],
    [
      "گ",
      "ہر"
    ],
    [
      "بور",
      "ڈ"
    ],
    [
      "یونیور",
      "سٹی"
    ],
    [
      "ر",
      "ن"
    ],
    [
      "بل",
      "کہ"
    ],
    [
      "نشان",
      "دہ"
    ],
    [
      "وش",
      "نو"
    ],
    [
      "مخت",
      "صر"
    ],
    [
      "سیا",
      "حت"
    ],
    [
      "ی",
      "ط"
    ],
    [
      "ک",
      "لی"
    ],
    [
      "یا",
      "ئی"
    ],
    [
      "چا",
      "ول"
    ],
    [
      "چ",
      "لا"
    ],
    [
      "ص",
      "ح"
    ],
    [
      "گلو",
      "کار"
    ],
    [
      "تو",
      "ڑ"
    ],
    [
      "فلم",
      "فی"
    ],
    [
      "چ",
      "ڑھ"
    ],
    [
      "گئ",
      "یں۔</w>"
    ],
    [
      "چ",
      "الو"
    ],
    [
      "ری",
      "ہ"
    ],
    [
      "رو",
      "ک"
    ],
    [
      "ل",
      "ور"
    ],
    [
      "دو",
      "م"
    ],
    [
      "پ",
      "یا"
    ],
    [
      "5",
      "00"
    ],
    [
      "آب",
      "پاش"
    ],
    [
      "بی",
      "ٹی"
    ],
    [
      "کی",
      "سبسے"
    ],
    [
      "پ",
      "نچ"
    ],
    [
      "بر",
      "ف"
    ],
    [
      "بھ",
      "ین"
    ],
    [
      "کےس",
      "ر"
    ],
    [
      "ہیں",
      "تو"
    ],
    [
      "ہوئی",
      "تھی۔</w>"
    ],
    [
      "ر",
      "ہے۔</w>"
    ],
    [
      "وی",
      "کی"
    ],
    [
      "یم",
      "س"
    ],
    [
      "‏",
      "یہ"
    ],
    [
      "ات",
      "کے"
    ],
    [
      "ذ",
      "یر"
    ],
    [
      "د",
      "یں۔</w>"
    ],
    [
      "راس",
      "تے"
    ],
    [
      "ہ",
      "زار"
    ],
    [
      "گ",
      "وا"
    ],
    [
      "ی",
      "ہو"
    ],
    [
      "گ",
      "زار"
    ],
    [
      "م",
      "ذہب"
    ],
    [
      "کے",
      "ت"
    ],
    [
      "صورتح",
      "ال"
    ],
    [
      "گ",
      "م"
    ],
    [
      "ا",
      "یل"
    ],
    [
      "لوگ",
      "وںکو"
    ],
    [
      "خ",
      "ون"
    ],
    [
      "ث",
      "ابت"
    ],
    [
      "قسم",
      "کے"
    ],
    [
      "ٹ",
      "ائ"
    ],
    [
      "نڈ",
      "ر"
    ],
    [
      "ش",
      "دید"
    ],
    [
      "خال",
      "ف"
    ],
    [
      "قابل",
      "ذکر"
    ],
    [
      "کیت",
      "اریخ"
    ],
    [
      "ضلع",
      "میں"
    ],
    [
      "ڈ",
      "ول"
    ],
    [
      "اد",
      "شاہ"
    ],
    [
      "کےبیٹ",
      "ے"
    ],
    [
      "اس",
      "لام"
    ],
    [
      "ج",
      "نہیں"
    ],
    [
      "غیر",
      "مل"
    ],
    [
      "رو",
      "ہ"
    ],
    [
      "کو",
      "ڈ"
    ],
    [
      "وںپر",
      "مشتمل"
    ],
    [
      "من",
      "سو"
    ],
    [
      "ج",
      "ماعت"
    ],
    [
      "طریق",
      "ےسے"
    ],
    [
      "ن",
      "کال"
    ],
    [
      "من",
      "سل"
    ],
    [
      "من",
      "حص"
    ],
    [
      "لو",
      "حمل"
    ],
    [
      "ہو",
      "تاہے،"
    ],
    [
      "ش",
      "اپ"
    ],
    [
      "ائ",
      "نٹ"
    ],
    [
      "نگ",
      "انہ"
    ],
    [
      "فٹ",
      "بال"
    ],
    [
      "جو",
      "آپ"
    ],
    [
      "ما",
      "ح"
    ],
    [
      "ض",
      "اب"
    ],
    [
      "ائ",
      "یاور"
    ],
    [
      "کرنےمیں",
      "مدد"
    ],
    [
      "ہر",
      "سال"
    ],
    [
      "ز",
      "،"
    ],
    [
      "قی",
      "قت"
    ],
    [
      "تنا",
      "ز"
    ],
    [
      "ن",
      "کل"
    ],
    [
      "کی",
      "طرح"
    ],
    [
      "نش",
      "پ"
    ],
    [
      "آن",
      "ند"
    ],
    [
      "راب",
      "طہ"
    ],
    [
      "ائی",
      "کی"
    ],
    [
      "مرک",
      "زی"
    ],
    [
      "جنر",
      "ل"
    ],
    [
      "چ",
      "ن"
    ],
    [
      "ب",
      "نی"
    ],
    [
      "دیکھ",
      "بھال"
    ],
    [
      "اس",
      "لطنت"
    ],
    [
      "ح",
      "ق"
    ],
    [
      "کریں",
      "کہ"
    ],
    [
      "آ",
      "بی"
    ],
    [
      "بج",
      "ٹ"
    ],
    [
      "ڈھ",
      "انچ"
    ],
    [
      "ج",
      "مہ"
    ],
    [
      "ع",
      "مر"
    ],
    [
      "باد",
      "ل"
    ],
    [
      "تع",
      "ین"
    ],
    [
      "ح",
      "قیقت"
    ],
    [
      "یم",
      "ق"
    ],
    [
      "یں",
      "گے۔</w>"
    ],
    [
      "تامل",
      "ناڈو"
    ],
    [
      "لا",
      "ز"
    ],
    [
      "کر",
      "تیہیں۔</w>"
    ],
    [
      "نا",
      "گ"
    ],
    [
      "او",
      "قات"
    ],
    [
      "کےف",
      "اص"
    ],
    [
      "کےل",
      "حاظسے"
    ],
    [
      "یکھ",
      "یل"
    ],
    [
      "سک",
      "تاہے۔</w>"
    ],
    [
      "وںمیںسےایک",
      "ہے۔</w>"
    ],
    [
      "کوش",
      "کست"
    ],
    [
      "و",
      "ت"
    ],
    [
      "ع",
      "ث"
    ],
    [
      "دیا",
      "گیا۔</w>"
    ],
    [
      "ٹ",
      "کر"
    ],
    [
      "مل",
      "کر"
    ],
    [
      "خد",
      "مت"
    ],
    [
      "کھ",
      "انے"
    ],
    [
      "‏",
      "اس"
    ],
    [
      "ل",
      "ک"
    ],
    [
      "سن",
      "بھال"
    ],
    [
      "سو",
      "ار"
    ],
    [
      "ع",
      "رب"
    ],
    [
      "ن",
      "اور"
    ],
    [
      "یو",
      "ان"
    ],
    [
      "نا",
      "ہےکہ"
    ],
    [
      "منظ",
      "م"
    ],
    [
      "ریاست",
      "ی"
    ],
    [
      "بھارت",
      "میں"
    ],
    [
      "ایس",
      "ا"
    ],
    [
      "م",
      "تعدد"
    ],
    [
      "بنگلہ",
      "دیش"
    ],
    [
      "کی",
      "جاتی"
    ],
    [
      "سرو",
      "س"
    ],
    [
      "یں",
      "گے"
    ],
    [
      "کریڈ",
      "ٹ"
    ],
    [
      "ہوسک",
      "تےہیں۔</w>"
    ],
    [
      "منی",
      "پور"
    ],
    [
      "نا",
      "گال"
    ],
    [
      "ماح",
      "ول"
    ],
    [
      "چھ",
      "ٹی"
    ],
    [
      "کیا",
      "،"
    ],
    [
      "بی",
      "وی"
    ],
    [
      "جن",
      "ہوںنے"
    ],
    [
      "راج",
      "پو"
    ],
    [
      "ائ",
      "یکر"
    ],
    [
      "نے",
      "اسے"
    ],
    [
      "کی",
      "ب"
    ],
    [
      "د",
      "رو"
    ],
    [
      "اف",
      "سر"
    ],
    [
      "ال",
      "ح"
    ],
    [
      "خصوص",
      "یات"
    ],
    [
      "جان",
      "شین"
    ],
    [
      "بن",
      "ائی"
    ],
    [
      "گا",
      "ڑی"
    ],
    [
      "7",
      "0"
    ],
    [
      "سےن",
      "واز"
    ],
    [
      "کیا",
      "۔‏</w>"
    ],
    [
      "سال",
      "ہ"
    ],
    [
      "کر",
      "نی"
    ],
    [
      "رکھ",
      "ا"
    ],
    [
      "الز",
      "ام"
    ],
    [
      "یہ",
      "ہےکہ"
    ],
    [
      "ین",
      "و"
    ],
    [
      "ور",
      "لڈ"
    ],
    [
      "ت",
      "ان"
    ],
    [
      "برطان",
      "وی"
    ],
    [
      "ضلع",
      "کے"
    ],
    [
      "ہا",
      "ؤ"
    ],
    [
      "ق",
      "ل"
    ],
    [
      "نام",
      "زد"
    ],
    [
      "نظر",
      "آ"
    ],
    [
      "ید",
      "ھ"
    ],
    [
      "م",
      "خصوص"
    ],
    [
      "چ",
      "یر"
    ],
    [
      "م",
      "دھیہپردیش"
    ],
    [
      "فن",
      "کار"
    ],
    [
      "کرنےکی",
      "ضرورت"
    ],
    [
      "ہیں",
      "،جو"
    ],
    [
      "کلومیٹر",
      "("
    ],
    [
      "بہت",
      "س"
    ],
    [
      "جنگ",
      "میں"
    ],
    [
      "شم",
      "ول"
    ],
    [
      "شہ",
      "ز"
    ],
    [
      "فر",
      "وری"
    ],
    [
      "ش",
      "اد"
    ],
    [
      "لیک",
      "نو"
    ],
    [
      "پ",
      "اب"
    ],
    [
      "تعلق",
      "رکھ"
    ],
    [
      "نا",
      "ز"
    ],
    [
      "کی",
      "موت"
    ],
    [
      "اگ",
      "لے"
    ],
    [
      "ص",
      "حی"
    ],
    [
      "تھا",
      "کہ"
    ],
    [
      "ری",
      "ح"
    ],
    [
      "اف",
      "ٹ"
    ],
    [
      "ڈ",
      "ائر"
    ],
    [
      "شنا",
      "خت"
    ],
    [
      "ان",
      "اور"
    ],
    [
      "ایک",
      "س"
    ],
    [
      "،",
      "آ"
    ],
    [
      "کن",
      "ڑ"
    ],
    [
      "م",
      "یم"
    ],
    [
      "ک",
      "ثر"
    ],
    [
      "زر",
      "ع"
    ],
    [
      "می",
      "زور"
    ],
    [
      "انت",
      "ظ"
    ],
    [
      "اترا",
      "کھنڈ"
    ],
    [
      "مرد",
      "مش"
    ],
    [
      "تر",
      "بیت"
    ],
    [
      "خودمخت",
      "ار"
    ],
    [
      "نے",
      "انہیں"
    ],
    [
      "ک",
      "تہ"
    ],
    [
      "ہ",
      "تھ"
    ],
    [
      "اد",
      "ار"
    ],
    [
      "کیری",
      "ئر"
    ],
    [
      "فر",
      "د"
    ],
    [
      "م",
      "ط"
    ],
    [
      "و",
      "لا"
    ],
    [
      "کے",
      "آسپاس"
    ],
    [
      "می",
      "ڈیا"
    ],
    [
      "ط",
      "ل"
    ],
    [
      "کردیا",
      "گیا"
    ],
    [
      "اک",
      "ث"
    ],
    [
      "د",
      "ب"
    ],
    [
      "یون",
      "انی"
    ],
    [
      "2",
      "8"
    ],
    [
      "کام",
      "کیا۔</w>"
    ],
    [
      "ابت",
      "د"
    ],
    [
      "آندھ",
      "را"
    ],
    [
      "اس",
      "و"
    ],
    [
      "ص",
      "د"
    ],
    [
      "سم",
      "ندری"
    ],
    [
      "ڈی",
      "وس"
    ],
    [
      "ز",
      "را"
    ],
    [
      "غیر",
      "ہ"
    ],
    [
      "ملیا",
      "لم"
    ],
    [
      "کےلیے",
      "استعمال"
    ],
    [
      "ف",
      "ائل"
    ],
    [
      "ان",
      "سٹ"
    ],
    [
      "مع",
      "مولی"
    ],
    [
      "اع",
      "دہ"
    ],
    [
      "ات",
      "کا"
    ],
    [
      "اس",
      "ی"
    ],
    [
      "چھ",
      "تیس"
    ],
    [
      "ف",
      "یل"
    ],
    [
      "بغاو",
      "ت"
    ],
    [
      "دیا",
      "گیا"
    ],
    [
      "اقت",
      "دار"
    ],
    [
      "وا",
      "ں"
    ],
    [
      "کے",
      "شمال"
    ],
    [
      "جائے",
      "گا۔</w>"
    ],
    [
      "ص",
      "ارف"
    ],
    [
      "مکنہ",
      "طورپر"
    ],
    [
      "تھ",
      "و"
    ],
    [
      "جنوب",
      "یہندوستان"
    ],
    [
      "کمپ",
      "ن"
    ],
    [
      "پیس",
      "ہ"
    ],
    [
      "جان",
      "بسے"
    ],
    [
      "جات",
      "اتھا"
    ],
    [
      "لف",
      "ظ"
    ],
    [
      "جنوب",
      "میں"
    ],
    [
      "ف",
      "ید"
    ],
    [
      "پ",
      "چھ"
    ],
    [
      "مح",
      "یط"
    ],
    [
      "کی",
      "،"
    ],
    [
      "و",
      "ط"
    ],
    [
      "جو",
      "ان"
    ],
    [
      "گ",
      "پت"
    ],
    [
      "ک",
      "نگ"
    ],
    [
      "ر",
      "ز"
    ],
    [
      "خ",
      "یر"
    ],
    [
      "ر",
      "کن"
    ],
    [
      "نار",
      "ائن"
    ],
    [
      "اس",
      "مب"
    ],
    [
      "چالو",
      "کی"
    ],
    [
      "سر",
      "نگ"
    ],
    [
      "حیدر",
      "آباد"
    ],
    [
      "یاد",
      "گار"
    ],
    [
      "ا",
      "ڈ"
    ],
    [
      "چھتیس",
      "گڑھ"
    ],
    [
      "جار",
      "تی"
    ],
    [
      "خود",
      "کو"
    ],
    [
      "نے",
      "اپنی"
    ],
    [
      "اح",
      "لی"
    ],
    [
      "کر",
      "شن"
    ],
    [
      "ذ",
      "اتی"
    ],
    [
      "ب",
      "رو"
    ],
    [
      "بہت",
      "کم"
    ],
    [
      "س",
      "نس"
    ],
    [
      "پر",
      "وج"
    ],
    [
      "بل",
      "ندی"
    ],
    [
      "تےہیں",
      "اور"
    ],
    [
      "نڈ",
      "ی"
    ],
    [
      "لا",
      "کھ"
    ],
    [
      "تل",
      "نگانہ"
    ],
    [
      "پر",
      "واقع"
    ],
    [
      "کھ",
      "ات"
    ],
    [
      "اف",
      "ر"
    ],
    [
      "دور",
      "میں"
    ],
    [
      "یلو",
      "گ"
    ],
    [
      "ک",
      "پ"
    ],
    [
      "کرنے",
      "کےبعد"
    ],
    [
      "لیا",
      "۔</w>"
    ],
    [
      "س",
      "ندھ"
    ],
    [
      "وںکے",
      "خلاف"
    ],
    [
      "قان",
      "ونی"
    ],
    [
      "و",
      "ان"
    ],
    [
      "مشتر",
      "کہ"
    ],
    [
      "د",
      "لی"
    ],
    [
      "تی",
      "ہےاور"
    ],
    [
      "کے",
      "وقت"
    ],
    [
      "کی",
      "تھی۔</w>"
    ],
    [
      "8",
      "0"
    ],
    [
      "پر",
      "،"
    ],
    [
      "پر",
      "قبضہ"
    ],
    [
      "ص",
      "غیر"
    ],
    [
      "اند",
      "را"
    ],
    [
      "ون",
      "کہ"
    ],
    [
      "ع",
      "لم"
    ],
    [
      "یہاں",
      "تککہ"
    ],
    [
      "با",
      "ؤ"
    ],
    [
      "بل",
      "ند"
    ],
    [
      "فرا",
      "د"
    ],
    [
      "بھ",
      "گو"
    ],
    [
      "س",
      "ڑک"
    ],
    [
      "ہیں",
      "،جنمیں"
    ],
    [
      "وس",
      "یا"
    ],
    [
      "سو",
      "چ"
    ],
    [
      "خ",
      "شک"
    ],
    [
      "آ",
      "لات"
    ],
    [
      "ناگال",
      "ینڈ"
    ],
    [
      "ذ",
      "یلی"
    ],
    [
      "کردیا",
      "گیا۔</w>"
    ],
    [
      "میں",
      "اپنے"
    ],
    [
      "حص",
      "ول"
    ],
    [
      "م",
      "ئی"
    ],
    [
      "وں",
      "کےب"
    ],
    [
      "سے",
      "،"
    ],
    [
      "سٹری",
      "لیا"
    ],
    [
      "وہ",
      "ایک"
    ],
    [
      "وں",
      "تک"
    ],
    [
      "شر",
      "یک"
    ],
    [
      "نے",
      "کےبعد"
    ],
    [
      "لہ",
      "ذ"
    ],
    [
      "مح",
      "سوس"
    ],
    [
      "2",
      ","
    ],
    [
      "اس",
      "کو"
    ],
    [
      "اس",
      "بسے"
    ],
    [
      "س",
      "ان"
    ],
    [
      "ہے",
      "جہاں"
    ],
    [
      "پ",
      "ک"
    ],
    [
      "کار",
      "پور"
    ],
    [
      "کےفاص",
      "لےپر"
    ],
    [
      "اش",
      "یا"
    ],
    [
      "سے",
      "تقریباً"
    ],
    [
      "سی",
      "لاب"
    ],
    [
      "ن",
      "ور"
    ],
    [
      "نام",
      "نٹ"
    ],
    [
      "کئ",
      "یم"
    ],
    [
      "ور",
      "یہ"
    ],
    [
      "ط",
      "لاع"
    ],
    [
      "کو",
      "ان"
    ],
    [
      "و",
      "قع"
    ],
    [
      "س",
      "ا"
    ],
    [
      "کی",
      "و"
    ],
    [
      "جو",
      "لائی"
    ],
    [
      "بھ",
      "اج"
    ],
    [
      "ے",
      "نے"
    ],
    [
      "زیراعظ",
      "م"
    ],
    [
      "جاتا",
      "ہے۔‏</w>"
    ],
    [
      "کیع",
      "مر"
    ],
    [
      "ب",
      "حال"
    ],
    [
      "بیٹ",
      "ے"
    ],
    [
      "سل",
      "طان"
    ],
    [
      "واب",
      "ستہ"
    ],
    [
      "دست",
      "اویز"
    ],
    [
      "سے",
      "گزر"
    ],
    [
      "ث",
      "ار"
    ],
    [
      "ب",
      "ٹ"
    ],
    [
      "سی",
      "ٹ"
    ],
    [
      "و",
      "تی"
    ],
    [
      "9",
      "0"
    ],
    [
      "ہے",
      "۔"
    ],
    [
      "کیا",
      "بت"
    ],
    [
      "ب",
      "انی"
    ],
    [
      "کھ",
      "ا"
    ],
    [
      "اتا",
      "ہے۔</w>"
    ],
    [
      "لیک",
      "نا"
    ],
    [
      "دریا",
      "فت"
    ],
    [
      "آئ",
      "یا"
    ],
    [
      "گاہ",
      "ک"
    ],
    [
      "اق",
      "سام"
    ],
    [
      "آپکے",
      "پاس"
    ],
    [
      "سائ",
      "یکل"
    ],
    [
      "شمال",
      "یہندوستان"
    ],
    [
      "حکم",
      "رانی"
    ],
    [
      "کیا",
      "دائی"
    ],
    [
      "اس",
      "یطرح"
    ],
    [
      "ہونے",
      "کا"
    ],
    [
      "قانون",
      "ساز"
    ],
    [
      "گی",
      "ری"
    ],
    [
      "اؤ",
      "ں"
    ],
    [
      "پ",
      "ایا"
    ],
    [
      "نگ",
      "کی"
    ],
    [
      "پرتھ",
      "ویراج"
    ],
    [
      "پر",
      "حملہ"
    ],
    [
      "ٹ",
      "کی"
    ],
    [
      "آ",
      "ہ"
    ],
    [
      "سر",
      "پرست"
    ],
    [
      "گ",
      "یر"
    ],
    [
      "ان",
      "ف"
    ],
    [
      "گھ",
      "ریلو"
    ],
    [
      "20",
      "19"
    ],
    [
      "\"",
      "۔</w>"
    ],
    [
      "ج",
      "ور"
    ],
    [
      "ئ",
      "را"
    ],
    [
      "یاس",
      "کول"
    ],
    [
      "صرف",
      "ایک"
    ],
    [
      "تس",
      "لیم"
    ],
    [
      "ان",
      "دی"
    ],
    [
      "ز",
      "کے"
    ],
    [
      "نگ",
      "ل"
    ],
    [
      "جان",
      "چ"
    ],
    [
      "س",
      "کم"
    ],
    [
      "20",
      "20"
    ],
    [
      "نگ",
      "،"
    ],
    [
      "قدی",
      "مت"
    ],
    [
      "ہمی",
      "شہ"
    ],
    [
      "ریز",
      "رو"
    ],
    [
      "دریا",
      "ؤں"
    ],
    [
      "خات",
      "ون"
    ],
    [
      "جن",
      "سی"
    ],
    [
      "کہ",
      "انی"
    ],
    [
      "جائ",
      "ے۔</w>"
    ],
    [
      "پ",
      "تر"
    ],
    [
      "کھ",
      "یلا"
    ],
    [
      "پار",
      "ٹ"
    ],
    [
      "ج",
      "د"
    ],
    [
      "اسمب",
      "لی"
    ],
    [
      "ب",
      "اہ"
    ],
    [
      "دف",
      "اع"
    ],
    [
      "من",
      "ہیں"
    ],
    [
      "پ",
      "انڈیا"
    ],
    [
      "ڈ",
      "ا"
    ],
    [
      "تی",
      "سری"
    ],
    [
      "حص",
      "ار"
    ],
    [
      "ظاہ",
      "رہ"
    ],
    [
      "آئے",
      "۔</w>"
    ],
    [
      "ج",
      "ام"
    ],
    [
      "یا",
      "ئ"
    ],
    [
      "ش",
      "مار"
    ],
    [
      "اع",
      "زاز"
    ],
    [
      "یکا",
      "ایک"
    ],
    [
      "کر",
      "ت"
    ],
    [
      "بینالاقو",
      "امی"
    ],
    [
      "اپن",
      "یا"
    ],
    [
      "ن",
      "کے"
    ],
    [
      "زرا",
      "عت"
    ],
    [
      "ثقاف",
      "ت"
    ],
    [
      "یاف",
      "تہ"
    ],
    [
      "و",
      "ید"
    ],
    [
      "ہا",
      "ہے۔</w>"
    ],
    [
      "پ",
      "لی"
    ],
    [
      "3",
      "5"
    ],
    [
      "مر",
      "تف"
    ],
    [
      "قدر",
      "تی"
    ],
    [
      "وں",
      "کیایک"
    ],
    [
      "غ",
      "راف"
    ],
    [
      "اف",
      "غان"
    ],
    [
      "س",
      "فر"
    ],
    [
      "تع",
      "لی"
    ],
    [
      "س",
      "کر"
    ],
    [
      "کےساتھ",
      "،"
    ],
    [
      "ک",
      "نی"
    ],
    [
      "لو",
      "ٹ"
    ],
    [
      "بھار",
      "تی"
    ],
    [
      "وس",
      "ی"
    ],
    [
      "بندر",
      "گاہ"
    ],
    [
      "اع",
      "ت"
    ],
    [
      "بر",
      "صغیر"
    ],
    [
      "کن",
      "ٹرو"
    ],
    [
      "وض",
      "اح"
    ],
    [
      "تحری",
      "ر"
    ],
    [
      "آ",
      "را"
    ],
    [
      "وںکے",
      "دوران"
    ],
    [
      "انتظام",
      "یہ"
    ],
    [
      "یمپئ",
      "نشپ"
    ],
    [
      "تعارف",
      "کر"
    ],
    [
      "جل",
      "د"
    ],
    [
      "نی",
      "ٹور"
    ],
    [
      "کام",
      "ن"
    ],
    [
      "ین",
      "ظام"
    ],
    [
      "پر",
      "یم"
    ],
    [
      "بہت",
      "سی"
    ],
    [
      "ال",
      "ی"
    ],
    [
      "خ",
      "ی"
    ],
    [
      "ہونے",
      "والی"
    ],
    [
      "چیز",
      "یں"
    ],
    [
      "نگ",
      "اور"
    ],
    [
      "ریاست",
      "کے"
    ],
    [
      "پو",
      "د"
    ],
    [
      "ما",
      "ڈل"
    ],
    [
      "آپ",
      "اپنے"
    ],
    [
      "با",
      "عث"
    ],
    [
      "لی",
      "۔</w>"
    ],
    [
      "سل",
      "ط"
    ],
    [
      "کے",
      "پہلے"
    ],
    [
      "قص",
      "د"
    ],
    [
      "براہر",
      "است"
    ],
    [
      "یا",
      "ری"
    ],
    [
      "فور",
      "اً"
    ],
    [
      "ہ",
      "اس"
    ],
    [
      "حکومت",
      "میں"
    ],
    [
      "ص",
      "اف"
    ],
    [
      "دھ",
      "و"
    ],
    [
      "درم",
      "یا"
    ],
    [
      "ل",
      "یاور"
    ],
    [
      "انے",
      "کے"
    ],
    [
      "ہوسک",
      "تیہے۔</w>"
    ],
    [
      "دو",
      "ڑ"
    ],
    [
      "کا",
      "دورہ"
    ],
    [
      "مد",
      "ت"
    ],
    [
      "کےم",
      "ختلف"
    ],
    [
      "ہیں",
      "کہ"
    ],
    [
      "م",
      "ہا"
    ],
    [
      "پتہ",
      "چل"
    ],
    [
      "مت",
      "حدہ"
    ],
    [
      "بھارت",
      "کی"
    ],
    [
      "ہے",
      "جسے"
    ],
    [
      "ح",
      "قیق"
    ],
    [
      "ج",
      "ا"
    ],
    [
      "با",
      "زار"
    ],
    [
      "اس",
      "ر"
    ],
    [
      "اسکر",
      "ین"
    ],
    [
      ".",
      "5"
    ],
    [
      "زیادہ",
      "سےزیادہ"
    ],
    [
      "4",
      "8"
    ],
    [
      "جنوب",
      "مشرق"
    ],
    [
      "مردمش",
      "ماری"
    ],
    [
      "تا",
      "کہآپ"
    ],
    [
      "کو",
      "اپنے"
    ],
    [
      "کن",
      "ڈ"
    ],
    [
      "ج",
      "ت"
    ],
    [
      "ع",
      "ط"
    ],
    [
      "چ",
      "م"
    ],
    [
      "ا",
      "عد"
    ],
    [
      "کےب",
      "ادشاہ"
    ],
    [
      "ہو",
      "گئے۔</w>"
    ],
    [
      "اس",
      "ل"
    ],
    [
      "پھ",
      "یلا"
    ],
    [
      "در",
      "ست"
    ],
    [
      "بیم",
      "اری"
    ],
    [
      "جو",
      "ہ"
    ],
    [
      "دکھ",
      "ایا"
    ],
    [
      "شیا",
      "ء"
    ],
    [
      "کلومیٹر",
      "دور"
    ],
    [
      "طاقت",
      "ور"
    ],
    [
      "ک",
      "تاب"
    ],
    [
      "اداکار",
      "یکی"
    ],
    [
      "پ",
      "لیٹ"
    ],
    [
      "ق",
      "یام"
    ],
    [
      "پانی",
      "کی"
    ],
    [
      "یک",
      "اب"
    ],
    [
      "سےن",
      "کل"
    ],
    [
      "ائی",
      "و"
    ],
    [
      "نی",
      "پال"
    ],
    [
      "تی",
      "ہے،"
    ],
    [
      "آن",
      "لائ"
    ],
    [
      "کی",
      "جاتیہے۔</w>"
    ],
    [
      "ب",
      "م"
    ],
    [
      "ہ",
      "را"
    ],
    [
      "ث",
      "بو"
    ],
    [
      "آ",
      "گ"
    ],
    [
      "حد",
      "تک"
    ],
    [
      "تر",
      "کھ"
    ],
    [
      "ہو",
      "گی"
    ],
    [
      "لکی",
      "شن"
    ],
    [
      "فائ",
      "دہ"
    ],
    [
      "ن",
      "تیجےمیں"
    ],
    [
      "انڈیا",
      "کمپنی"
    ],
    [
      "رو",
      "ج"
    ],
    [
      "علی",
      "ٰ"
    ],
    [
      "نا",
      "شروع"
    ],
    [
      "ر",
      "ائے"
    ],
    [
      "ور",
      "ز"
    ],
    [
      "س",
      "اس"
    ],
    [
      "ان",
      "پر"
    ],
    [
      "ق",
      "ائ"
    ],
    [
      "؟",
      "</w>"
    ],
    [
      "را",
      "کز"
    ],
    [
      "ج",
      "اگ"
    ],
    [
      "ایس",
      "ی"
    ],
    [
      "می",
      "وز"
    ],
    [
      "ار",
      "ض"
    ],
    [
      "اور",
      "ب"
    ],
    [
      "میں،",
      "انہوںنے"
    ],
    [
      "ار",
      "د"
    ],
    [
      "ش",
      "ل"
    ],
    [
      "ہو",
      "تے"
    ],
    [
      "بچ",
      "ے"
    ],
    [
      "ور",
      "ٹ"
    ],
    [
      "بعض",
      "اوقات"
    ],
    [
      "قب",
      "ائل"
    ],
    [
      "مرتف",
      "ع"
    ],
    [
      "مال",
      "یات"
    ],
    [
      ")",
      "،"
    ],
    [
      "رہا",
      "ہے۔</w>"
    ],
    [
      "انگ",
      "یر"
    ],
    [
      "م",
      "ری"
    ],
    [
      "دھ",
      "ار"
    ],
    [
      "م",
      "جھ"
    ],
    [
      "خ",
      "انہ"
    ],
    [
      "اک",
      "ہوہ"
    ],
    [
      "ہو",
      "اتھا۔</w>"
    ],
    [
      "اسک",
      "ور"
    ],
    [
      "ک",
      "بھیک"
    ],
    [
      "،",
      "تو"
    ],
    [
      "ا",
      "یشیا"
    ],
    [
      "فن",
      "تعمیر"
    ],
    [
      "چ",
      "ک"
    ],
    [
      "بنگ",
      "ئے"
    ],
    [
      "سو",
      "م"
    ],
    [
      "بات",
      "چیت"
    ],
    [
      "ہ",
      "لا"
    ],
    [
      "ج",
      "ذ"
    ],
    [
      "کےساتھ",
      "ایک"
    ],
    [
      "جاریر",
      "کھ"
    ],
    [
      "اورنگزی",
      "ب"
    ],
    [
      "ون",
      "وں"
    ],
    [
      "میں",
      "اضافہ"
    ],
    [
      "ہے",
      "کہوہ"
    ],
    [
      "کیت",
      "ش"
    ],
    [
      "201",
      "2"
    ],
    [
      "پور",
      "ا"
    ],
    [
      "کر",
      "وڑ"
    ],
    [
      "کا",
      "ٹ"
    ],
    [
      "اور",
      "ایک"
    ],
    [
      "مع",
      "روف"
    ],
    [
      "ا",
      "یر"
    ],
    [
      "آ",
      "بو"
    ],
    [
      "ضرور",
      "یات"
    ],
    [
      "تف",
      "ریح"
    ],
    [
      "ذخ",
      "ائر"
    ],
    [
      "شان",
      "دار"
    ],
    [
      "جانے",
      "والی"
    ],
    [
      "س",
      "ائی"
    ],
    [
      "جن",
      "میں"
    ],
    [
      "جس",
      "سے"
    ],
    [
      "ہم",
      "ای"
    ],
    [
      "اتح",
      "اد"
    ],
    [
      "کےطورپر",
      "کام"
    ],
    [
      "ائ",
      "ے۔</w>"
    ],
    [
      "اور",
      "پ"
    ],
    [
      "خ",
      "یز"
    ],
    [
      "ک",
      "بھی"
    ],
    [
      "ق",
      "یم"
    ],
    [
      "ہ",
      "س"
    ],
    [
      "مش",
      "کل"
    ],
    [
      "یک",
      "مپ"
    ],
    [
      "آگے",
      "بڑھ"
    ],
    [
      "م",
      "ہم"
    ],
    [
      "من",
      "صوبے"
    ],
    [
      "ک",
      "لا"
    ],
    [
      "اص",
      "د"
    ],
    [
      "و",
      "ہا"
    ],
    [
      "اظ",
      "ہار"
    ],
    [
      "اسٹی",
      "ڈیم"
    ],
    [
      "کل",
      "ب"
    ],
    [
      "گ",
      "نا"
    ],
    [
      "نی",
      "ل"
    ],
    [
      "آئ",
      "ین"
    ],
    [
      "کے",
      "د"
    ],
    [
      "دی",
      "وی"
    ],
    [
      "آ",
      "ثار"
    ],
    [
      "ش",
      "کر"
    ],
    [
      "سما",
      "ج"
    ],
    [
      "تح",
      "فظ"
    ],
    [
      "پرو",
      "ڈیوس"
    ],
    [
      "م",
      "تعلق"
    ],
    [
      "ک",
      "تب"
    ],
    [
      "کی",
      "نو"
    ]
  ],
  "vocab_size": 5000,
  "num_merges": 3000,
  "actual_merges": 3000,
  "vocab": [
    "ﺳ",
    "جو",
    "صنوعات",
    "197",
    "زیراعظ",
    "اج",
    "وجود",
    "لیٹ",
    "میںسےایک",
    "حیدر",
    "قبلمسیح",
    "مور",
    "امریک",
    "ایس",
    "خبر",
    "چند",
    "بلند",
    "د",
    "پود",
    "تھا۔</w>",
    "کےبجائے",
    "خصوصیات",
    "مقام",
    "خل",
    "x",
    "اگرچہ",
    "ھ",
    "فروخت",
    "حما",
    "کرے",
    "سماج",
    "ہونےکا",
    "بارش",
    "ٔ",
    "حکمرانی",
    "مذہب",
    "کیجاتی",
    "یع",
    "ماہ",
    "ریع",
    "ہف",
    "کنگ",
    "طان",
    "یکی",
    "ثقافت",
    "ہہے۔</w>",
    "فار",
    "ہم",
    "چندر",
    "لائن",
    "ہیںجن",
    "پار",
    "گیکر",
    "کیرالہ",
    "گھر",
    "سرمایہ",
    "اقت",
    "کشن",
    "ارف",
    "دنیا",
    "اظہار",
    "لی",
    "قراردیا",
    "کرنےپر",
    "سےکم",
    "نظیم",
    "اکو",
    "اند",
    "پی",
    "،جسمیں",
    "وط",
    "سندھ",
    "فظ",
    "زاز",
    "سین",
    "نر",
    "پاس",
    "کیب",
    "0میں",
    "ہونےوال",
    "ینڈ",
    "میگھ",
    "ایک",
    "t",
    "یسلطنت",
    "باتچیت",
    "نگل",
    "ہوکر",
    "رد",
    "واع",
    "I",
    "غلط",
    "گ",
    "کہوہ",
    "دیپ",
    "اسکےبعد",
    "ملا",
    "یٹ",
    "محسوس",
    "کاٹ",
    "لاز",
    "تاہے۔</w>",
    "تیا",
    "e",
    "گرمی",
    "فارم",
    "راب",
    "کار",
    "کےس",
    "سک",
    ",000",
    "ذیلی",
    "بغاو",
    "ایف",
    "دھیہپردیش",
    "کرتےہیں۔</w>",
    "فل",
    "اسٹ",
    "ترا",
    "تیسر",
    "ہوتےہیں۔</w>",
    "مغرب",
    "گلی",
    "وز",
    "پھیل",
    "کےخلاف",
    "ذہ",
    "اسکی",
    "دیاگیا۔</w>",
    "نےپر",
    "گرم",
    "جت",
    "،چ",
    "کرتیہیں۔</w>",
    "کمازکم",
    "بیر",
    "رکھ",
    "سم",
    "یائ",
    "ہوگی۔</w>",
    "ائیکر",
    "آسان",
    "کھ",
    "وسم",
    "سو",
    "ایل",
    "زمین",
    "مہار",
    "X",
    "حصے",
    "لہذ",
    "معاہ",
    "ائے",
    "الا",
    "ربی",
    "یون",
    "اوردیگر",
    "ف",
    "ذات",
    "یف",
    "نت",
    "راٹھ",
    "ضلعمیں",
    "194",
    "نےوالے",
    "فری",
    "دیگئی",
    "دل",
    "،س",
    "ص",
    "ج",
    "سا",
    "مشرق",
    "انتظام",
    "مست",
    "میل",
    "6میں",
    "اترپردیش",
    "بول",
    "صفح",
    "سما",
    "تھی",
    "ٹس",
    "ظر",
    "صرفایک",
    "تان",
    "نےسے",
    "پرقبضہ",
    "یمق",
    "نےاپنے",
    "بوط",
    "ہمیں",
    "لز",
    "بہتس",
    "جزائر",
    "فن",
    "وی",
    "ہوسکتاہے۔</w>",
    "مرتفع",
    "35",
    "جان",
    "مغ",
    "شروع",
    "سیس",
    "یڈ",
    "<sos>",
    "معاون",
    "لیا۔</w>",
    "ہےجس",
    "جنہوںنے",
    "گئی۔</w>",
    "قب",
    "یادگار",
    "کھات",
    "تو",
    "قائم",
    "اندی",
    "پانڈ",
    "تےہیںاور",
    "انٹر",
    "حمل",
    "آپاپنے",
    "بڑے",
    "خواتین",
    "کیا",
    "جام",
    "یکمپ",
    "کےتح",
    "ٹیا",
    "جگ",
    "لک",
    "پوز",
    "کرنےمیں",
    "وان",
    "اقتدار",
    "جاتاہےکہ",
    "جولائی",
    "قد",
    "مکمل",
    "باد",
    "حصار",
    "بٹ",
    "لیس",
    "کرتاہے۔</w>",
    "تےہیں",
    "ےہوئے",
    "فائدہ",
    "صو",
    "زیرا",
    "اسکےب",
    "لاح",
    "چاہیے۔</w>",
    "حت",
    "وم",
    "کیاجازت",
    "بنگئے",
    "قام",
    "طریقےسے",
    "مدھیہپردیش",
    "جر",
    "بیس",
    "متعدد",
    "نےانہیں",
    "سپ",
    "ہار",
    "ہس",
    "لاب",
    "ہکے",
    "ابت",
    "کمار",
    "ارڈ",
    "ٹیلی",
    "زرع",
    "دوست",
    "ستہ",
    "بیماری",
    "کئیم",
    "نچ",
    "حی",
    "دس",
    "لڑ",
    "اع",
    "میوز",
    "باعث",
    "الیہ",
    "یاد",
    "لی۔</w>",
    "بال",
    "000",
    "فٹ",
    "تباہ",
    "کرنےوال",
    "جارتی",
    "کمپنی",
    "ڑھ",
    "کےنامسے",
    "منسو",
    "قیقت",
    "کوشش",
    "فیل",
    "مہ",
    "اکہ",
    "آنلائن",
    "فیصلہ",
    "سرکار",
    "ای",
    "طہ",
    "وسط",
    "دونوں",
    "ڈی",
    "نےوالی",
    "یکے",
    "ثال",
    "قرض",
    "رکھا",
    "ایر",
    "بار",
    "گرہ",
    "وابستہ",
    "لےمیں",
    "قیق",
    "امین",
    "بنا",
    "اول",
    "وشنو",
    "کچ",
    "ایتی",
    "میں",
    "ہمی",
    "از",
    "خودمختار",
    "ٖ",
    "بنائی",
    "بتا",
    "قری",
    "سل",
    "افٹ",
    "ارض",
    "وںکےب",
    "صوب",
    "آ",
    "مان",
    "ذرائع",
    "اپریل",
    "ناشروع",
    "کےدور",
    "D",
    "حیات",
    "بر",
    "اپنی",
    "کاس",
    "پہنچ",
    "تعین",
    "تا۔</w>",
    "ختلف",
    "اضلاع",
    "طے",
    "فرد",
    "رف",
    "آرا",
    "کرنےکےبعد",
    "ٹرا",
    "وںکےذریعے",
    "کلی",
    "بھیش",
    "نگ",
    "جی",
    "کچھ",
    "علیٰ",
    "علی",
    "بیان",
    "شار",
    "پہا",
    "درجہحر",
    "را",
    "ذخائر",
    "کرتےہیں،",
    "ائیک",
    "ہند",
    "ہیں۔</w>",
    "انتظامیہ",
    "ئی",
    "ارے",
    "اتی",
    "ایکم",
    "راستے",
    "پروگرام",
    "ورلڈ",
    "ہوتےہیں",
    "میں،انہوںنے",
    "چک",
    "یاف",
    "تھی۔</w>",
    "کرسکتےہیں۔</w>",
    "تک،",
    "جانا",
    "تامل",
    "ہیںکہ",
    "ہیں۔‏</w>",
    "بازار",
    "شہری",
    "،جہاں",
    "یرہ",
    "ٹھ",
    "ائٹ",
    "ساز",
    "منعقد",
    "محفوظ",
    "بہتکم",
    "یکردار",
    "انج",
    "اپن",
    "حد",
    "کیاہے۔</w>",
    "ناگال",
    "کردی",
    "گوا",
    "کیاکہ",
    "ایم",
    "اداکار",
    "گن",
    "وڈ",
    "بیوی",
    "حکومت",
    "196",
    "کام",
    "یری",
    "انف",
    "طریقہ",
    "وال",
    "اسسے",
    "بیک",
    "کسیبھی",
    "کیااور",
    "اری",
    "کرد",
    "کریڈ",
    "°",
    "پُ",
    "نےکا",
    "سےتقریباً",
    "نما",
    "جزیر",
    "ناہےکہ",
    "کرشن",
    "کےتحت",
    "چیک",
    "رہ",
    "نار",
    "سرو",
    "غراف",
    "ریزرو",
    "انسے",
    "تریپور",
    "امل",
    "ریٹ",
    "ریف",
    "الگ",
    "رض",
    "روج",
    "ڈائر",
    "ئ",
    "خط",
    "کردیا",
    "ڈ",
    "کارڈ",
    "کےدرمیان",
    "نکو",
    "چی",
    "اسکو",
    "مشتر",
    "۔\"</w>",
    "سکتےہیں",
    "مقاب",
    "میںاپنے",
    "کردیا۔</w>",
    "مالیہ",
    "عت",
    "کےذریعہ",
    "قدیمت",
    "انا",
    "اسکول",
    "بیچ",
    "خاب",
    "باب",
    "عظ",
    "تھے",
    "کرنےکا",
    "اپنا",
    "آگےبڑھ",
    "ؤ",
    "شرق",
    "زم",
    "قدیم",
    "چالو",
    "ائی",
    "وضاح",
    "گیند",
    "پیمانےپر",
    "فوجی",
    "غرب",
    "بھیشامل",
    "کےمطابق",
    "ریز",
    "منظ",
    "دھ",
    "زراعت",
    "کےلیےاستعمال",
    "روک",
    "اؤ",
    "لطنت",
    "والد",
    "E",
    "نظام",
    "چہ",
    "ائند",
    "کامط",
    "دوڑ",
    "جائیں",
    "ٹین",
    "میں،",
    "خیر",
    "اعلان",
    "جز",
    "وںمیںسے",
    "زار",
    "؍",
    "اثر",
    "اسلیے",
    "گل",
    "قص",
    "ویبسائٹ",
    "تیہے",
    "گیا",
    "اندرا",
    "ورت",
    "رق",
    "مرتف",
    "پنج",
    "کااستعمال",
    "شہر",
    "سیح",
    "ادار",
    "کلومیٹر(",
    "مشترکہ",
    "گرام",
    "ید",
    "ہور",
    "ات",
    "کھیل",
    "انکو",
    "ایت",
    "آپکی",
    "متعلق",
    "اسبسے",
    "نایا",
    "شپ",
    "خدم",
    "بھرمیں",
    "کئ",
    "،جس",
    "تاور",
    "کوم",
    "کش",
    "اتسے",
    "ذیر",
    "فہرست",
    "جات",
    "نےایک",
    "کست",
    "اپنیم",
    "جماعت",
    "جاتاتھا۔</w>",
    "کرناٹک",
    "ْ",
    "یمن",
    "ث",
    "میگھالیہ",
    "رب",
    "وری",
    "زرا",
    "تھاکہ",
    "دفاع",
    "ﻧ",
    "منع",
    "عث",
    "گیم",
    "مہم",
    "انےکی",
    "کےطورپرکام",
    "پلیٹ",
    "اسر",
    "جنوبی",
    "سائٹ",
    "ےکا",
    "دری",
    "8",
    "کپڑ",
    "پنچ",
    "بنیاد",
    "یںکہ",
    "تمیں",
    "دیوتا",
    "بند",
    "فصل",
    "برو",
    "قوم",
    "طور",
    "سالہ",
    "'",
    "چاہتےہیں",
    "انڈین",
    "طر",
    "مین",
    "ئے",
    "راج",
    "دورمیں",
    "اسب",
    "وق",
    "یکش",
    "نق",
    "خوب",
    "خاندانکے",
    "ہوں۔</w>",
    "ائع",
    "کرتےہوئے",
    "199",
    "رابطہ",
    "k",
    "بغاوت",
    "تاہم",
    "ہوگا",
    "انکے",
    "کرلیا",
    "ثقافتی",
    "عد",
    "بان",
    "یونیورسٹی",
    "،پ",
    "تیب",
    "ہوگیا۔</w>",
    "اوراس",
    "تحقیق",
    "نج",
    "کسی",
    "مالیات",
    "سیم",
    "جانےوالی",
    "میںداخل",
    "مبر",
    "ینظام",
    "انمیںسے",
    "جنوب",
    "جوان",
    "چن",
    "انتہ",
    "ممالک",
    "کرت",
    "نظ",
    "بح",
    "گروہ",
    "ضروریات",
    "مربع",
    "اسٹور",
    "آندھ",
    "سرمایہکار",
    "L",
    "ٹکی",
    "یکھیل",
    "چا",
    "مختلف",
    "یسطح",
    "پارٹی",
    "کالج",
    "پھ",
    "شمالمشرق",
    "صغیر",
    "2,",
    "ہونےوالی",
    "قبلم",
    "وںپرمشتمل",
    "ہےجہاں",
    "جبور",
    "بات",
    "چٹ",
    "یاب",
    "پانیکی",
    "آبشار",
    "دکان",
    "سن",
    "دور",
    "کانگری",
    "تھی۔‏</w>",
    "سےم",
    "گئیں۔</w>",
    "انجام",
    "یکھ",
    "رہے۔</w>",
    "قان",
    "جنگمیں",
    "چے",
    "ﮔ",
    "چاول",
    "ڑک",
    "ہونے",
    "یوارڈ",
    "ریاستکے",
    "نہیں",
    "دیگر",
    "گین",
    "22",
    "ڈاک",
    "بینالاقوام",
    "خ",
    "کےآخر",
    "کین",
    "ہاں",
    "است",
    "دیا۔</w>",
    "نو",
    "مردمش",
    "اگرآپکو",
    "ٹری",
    "دین",
    "جاتیہیں۔</w>",
    "ː",
    "سےمتعلق",
    "وقت",
    "لم",
    "دو",
    "راجات",
    "سیلاب",
    "ضاب",
    "پسند",
    "پرند",
    "اظ",
    "١",
    "سرپرست",
    "پچھ",
    "کےدوران،",
    "مئی",
    "کی۔</w>",
    "کبھیک",
    "راس",
    "ناڈو",
    "مبئی",
    "بیٹی",
    "مح",
    "نےکےلیے",
    "بھیک",
    "کشمیر",
    "کےکچھ",
    "پاکستان",
    "والی",
    "آف",
    "یز",
    "میںایک",
    "پاش",
    "24",
    "سان",
    "لے",
    "قبول",
    "#",
    "کھو",
    "ڈھانچ",
    "ذاتی",
    "توڑ",
    "ے",
    "،جسسے",
    "زیا",
    "سیک",
    "رع",
    "پرتھ",
    "لاکھ",
    "واز",
    "سیٹ",
    "ڑا",
    "واج",
    "حکمران",
    "چول",
    "اں",
    "متا",
    "اگرآپ",
    "کوشکست",
    "حاظسے",
    "ٹی",
    "توآپ",
    "شنا",
    "وید",
    "اس",
    "نمیں",
    "کواپنے",
    "ہمای",
    "کوڈ",
    "ذ",
    "خص",
    "48",
    "خلی",
    "جب",
    "علم",
    "دکھ",
    "اصد",
    "ؤنٹ",
    "ہی",
    "تف",
    "اتاہے۔</w>",
    "اتپر",
    "ژ",
    "پت",
    "آثار",
    "تکو",
    "یاس",
    "خصو",
    "یکام",
    "ولی",
    "معلومات",
    "کیت",
    "مار",
    "ونوں",
    "وںکےم",
    "تےہوئے",
    "فت",
    "4میں",
    "ُ",
    "یمیں",
    "کوایک",
    "اسل",
    "لق",
    "اخت",
    "تبدیل",
    "شمار",
    "15",
    "کیا۔</w>",
    "گپت",
    "تاتھا۔</w>",
    "میٹر",
    "ماڈل",
    "ا،",
    "ہلا",
    "ممیں",
    "یکشن",
    "نےاس",
    "او",
    "ایکبار",
    "دن",
    "شن",
    "میزور",
    "خری",
    "–",
    "انچ",
    "ہدا",
    ")",
    "ٹک",
    "لفظ",
    "نکے",
    "مالک",
    "الی",
    "جسسے",
    "وںمیں،",
    "شکل",
    "آپکا",
    "کا",
    "n",
    "کرتے",
    "کرنےکے",
    "نمایاں",
    "ننے",
    "کیاج",
    "تیہے،",
    "سور",
    "بغ",
    "بچ",
    "اورنگزی",
    "امکان",
    "امی",
    "بنائے",
    "ﻟ",
    "ٹن",
    "گروپ",
    "A",
    "مربعکلومیٹر",
    "ترتیب",
    "خان",
    "کےلئے",
    "پیا",
    "اش",
    "علاج",
    "آلات",
    "قلعہ",
    "اسکرین",
    "ونس",
    "خو",
    "نیٹور",
    "اپنے",
    "ہوئی۔</w>",
    "شناخت",
    "رقم",
    "تعلق",
    "جون",
    "″",
    "شامل",
    "بنیادیطورپر",
    "بہتزیادہ",
    "نہ",
    "سوس",
    "جاتی",
    "یشن",
    "لو",
    "3میں",
    "مز",
    "قاف",
    "پیداوار",
    "مردمشماری",
    "کیم",
    "شور",
    "شمال",
    "یں۔</w>",
    "اسو",
    "نس",
    "خر",
    "وںمیںسےایکہے۔</w>",
    "کےبیٹے",
    "جنوبمشرق",
    "کی،",
    "ضلع",
    "درج",
    "پیچھ",
    "جہاں",
    "کےح",
    "حقیقت",
    "ؤ",
    "رہی",
    "پہاڑی",
    "اتکو",
    "نمبر",
    "اتھا",
    "دار",
    "اتےہیں۔</w>",
    "فیس",
    "یچ",
    "بو",
    "استعمال",
    "تھے۔‏</w>",
    "تھو",
    "حس",
    "جیسی",
    "ٹیکس",
    "لکش",
    "دہائی",
    "کےبادشاہ",
    "ذمہدار",
    "سیل",
    "دع",
    "یور",
    "کرنےکی",
    "یایس",
    "پتہچل",
    "،\"",
    "کھلا",
    "پل",
    "آزادی",
    "پرمبنی",
    "پرم",
    "جد",
    "تجارت",
    "C",
    "،جن",
    "ہوتاہے",
    "اسیطرح",
    "خاتون",
    "کریں۔</w>",
    "پھیلا",
    "اکبر",
    "ٹر",
    "بی",
    "ہرسال",
    "سکم",
    "ً",
    "ذکر",
    "40",
    "آنلائ",
    "ہوئیتھی۔</w>",
    "ـ",
    "کےنامسےجانا",
    "سےپہلے",
    "بعد",
    "کلب",
    "بدل",
    "روپ",
    "لےپر",
    "برصغیر",
    "بلندی",
    "8میں",
    "عمر",
    "ساتھ",
    "یم",
    "‏</w>",
    "تلنگانہ",
    "میںآ",
    "ہوئے۔</w>",
    "کرنی",
    "G",
    "نز",
    "نال",
    "بنگلہ",
    "بہتر",
    "تہوار",
    "تقریباً",
    "جائے",
    "باؤ",
    "گرو",
    "فر",
    "واں",
    "یکٹر",
    "ڈگری",
    "الزام",
    "کریںاور",
    "بل",
    "v",
    "شاندار",
    "جل",
    "اپس",
    "علاوہ",
    "کےاندر",
    "امنا",
    "قدرتی",
    "دی۔</w>",
    "روس",
    "اسکور",
    "سٹری",
    "70",
    "کادورہ",
    "شتہ",
    "ہےکہوہ",
    "جار",
    "فرا",
    "کہو",
    "سلسل",
    "آپکےپاس",
    "سکتاہے۔</w>",
    "فیصد",
    "ڈل",
    "عو",
    "حالان",
    "چیز",
    "کلا",
    "ر",
    "گیری",
    "یکاب",
    "2011",
    "نئے",
    "مغل",
    "ےاور",
    "جسنے",
    "ہوار",
    "آمد",
    "آئے",
    "چار",
    "دیں۔</w>",
    "کےذریع",
    "وسی",
    "ز،",
    "شائع",
    "اب",
    "کرنےوالے",
    "کےشمال",
    "شہنشاہ",
    "جن",
    "کبھی",
    "کیے",
    "صرف",
    "ائیو",
    "تھ",
    "پائی",
    "کیون",
    "میںواقع",
    "ت",
    "p",
    "زیادہ",
    "میڈیا",
    "لاگ",
    "کنڑ",
    "احلی",
    "ذریع",
    "سمندری",
    "پیسہ",
    "ڈالر",
    "باہ",
    "قید",
    "9میں",
    "،یہ",
    "ʋ",
    "ال",
    "ملکر",
    "ٰ",
    "ڈیل",
    "ہونےوالے",
    "مر",
    "c",
    "فیص",
    "ہندوستان",
    "ست",
    "طو",
    "ك",
    "ائیکی",
    "دہلیمیں",
    "فو",
    "الز",
    "کر",
    "نڈی",
    "حکو",
    "کےبعد،",
    "اپنیا",
    "ہوائیاڈ",
    "غیر",
    "کےفاصلےپر",
    "اشیا",
    "من",
    "فلمفی",
    "چالوکی",
    "قی",
    "ہوئ",
    "یطورپر",
    "سمبر",
    "صن",
    "تیار",
    "جموع",
    "23",
    "ندوستان",
    "دیو",
    "ق",
    "بن",
    "رو",
    "اخراجات",
    "4",
    "آخر",
    "اشوک",
    "لاش",
    "جہا",
    "اتا",
    "<unk>",
    "دیوی",
    "یائی",
    "زمر",
    "لوحمل",
    "ثقاف",
    "سر",
    "غیرہ",
    "چیزیں",
    "پناہ",
    "جوڑ",
    "اسٹیشن",
    "1میں",
    "ذخ",
    "حص",
    "سےگزر",
    "جستھ",
    "نٹ",
    "بنیادی",
    "،اس",
    "یقینیبنائیں",
    "مکنہ",
    "کےزیر",
    "حصہ",
    "نکی",
    "خانہ",
    "حل",
    "ون",
    "حصےمیں",
    "ویراج",
    "عرب",
    "سائی",
    "انے",
    ",",
    "دب",
    "دائی",
    "بینک",
    "ادھ",
    "قیم",
    "بیٹے",
    "آزاد",
    "حدہ",
    "قرار",
    "یان",
    "تناز",
    "ہے۔",
    "نیشنل",
    "صنف",
    "نظر",
    "دوس",
    "محل",
    "7میں",
    "راہ",
    "سنگھ",
    "مہا",
    "قع",
    "تی",
    "اشٹر",
    "لیا",
    "h",
    "پنی",
    "لائ",
    "دوم",
    "یمپ",
    "کرکٹ",
    "کےبعد",
    "ترین",
    "ےکو",
    "اقسام",
    "شک",
    "کانام",
    "انپر",
    "تن",
    "ہندی",
    "کرن",
    "فلموںمیں",
    "،جبکہ",
    "وک",
    "بڑھ",
    "قریب",
    "یاداکار",
    "ریلوے",
    "نیو",
    "قانون",
    "28",
    "خریداری",
    "برقراررکھ",
    "بندرگاہ",
    "قیمت",
    "قیام",
    "ہوں",
    "ﺑ",
    "مشکل",
    "جس",
    "بنیا",
    "یکن",
    "خش",
    "ڈھ",
    "جہ",
    "کرنے",
    "موجودہ",
    "ستان",
    "کےقریب",
    "فراہم",
    "کیٹ",
    "دھو",
    "و",
    "ےسے",
    "ہیں،",
    "طرح",
    "صنوع",
    "نگکی",
    "ایا",
    "بلی",
    "روایتی",
    "ظاہر",
    "تھااور",
    "کےاوائل",
    "سمی",
    "گنا",
    "صدی",
    "ٹور",
    "دریاؤں",
    "ریہ",
    "دول",
    "7",
    "اختتام",
    "یکم",
    "وسیا",
    "علام",
    "ہاور",
    "کیتاریخ",
    "2019",
    "ٹل",
    "ے۔</w>",
    "کریںکہ",
    "لور",
    "گی۔</w>",
    "خالف",
    "دی",
    "بنگ",
    "ض",
    "سبسے",
    "دریافت",
    "کھلاڑی",
    "دود",
    "جانچ",
    "پہلے",
    "مشرقی",
    "یہاں",
    "درجہ",
    "نارائن",
    "،و",
    "نکا",
    "سری",
    "ہوگا۔</w>",
    "اف",
    "لیز",
    "فٹبال",
    "قانونی",
    "نگ،",
    "جانے",
    "تعارفکر",
    "،آ",
    "وپ",
    "جانےوال",
    "چھو",
    "جنہیں",
    "پیدا",
    "تعلقرکھ",
    "‏",
    "ےمیں",
    "27",
    "اضافہ",
    "نیٹ",
    "کیایک",
    "]",
    "تکپہنچ",
    "کس",
    "‏اس",
    "وبار",
    "یر",
    "یادار",
    "سالانہ",
    "کرنےمیںمدد",
    "کےآسپاس",
    "ندھ",
    "یکل",
    "‘",
    "یب",
    "کیطرف",
    "وا",
    "O",
    "تھی،",
    "گورنر",
    "ائیں",
    "بنانےکےلیے",
    "کےزیرانتظام",
    "ہمیشہ",
    "صل",
    "رے",
    "بولی",
    "ۃ",
    "،لیکن",
    "دا",
    "یار",
    "ونڈ",
    "فرو",
    "سلطان",
    "اسٹیڈیم",
    "*",
    "باکس",
    "کاشت",
    "رنگ",
    "گئے۔</w>",
    "عدال",
    "حکام",
    "باز",
    "سب",
    "\"۔</w>",
    "نہیںہے۔</w>",
    "گاندھ",
    "سیا",
    "مختصر",
    "اکا",
    "پوچھ",
    "وںکاایک",
    "جمو",
    "سوم",
    "اکہوہ",
    "ہوگئے۔</w>",
    "جبآپ",
    "قیاد",
    "جنگل",
    "موسم",
    "غ",
    "رہے",
    "ہوسک",
    "علاوہ،",
    "ملی",
    "!",
    "ندی",
    "صاف",
    "یسور",
    "چھٹی",
    "کل",
    "انی",
    "o",
    "کتاب",
    "لکھ",
    "آپ",
    "نامنٹ",
    "تقسیم",
    "آگ",
    "جائےگا۔</w>",
    "عرص",
    "کامطلب",
    "لب",
    "ملے",
    "پین",
    "وںکےذریع",
    "ہوئے",
    "یش",
    "داخ",
    "دون",
    "یں،",
    "پانی",
    "کی",
    "کاروبار",
    "ضح",
    "ہواہے۔</w>",
    "تکا",
    "جانور",
    "ٹریک",
    "کتب",
    "ہوگی",
    "گی",
    "قاب",
    "مکنہطورپر",
    "کوئی",
    "V",
    "دد",
    "میم",
    "تم",
    "بق",
    "دوسرے",
    "تملناڈو",
    "کون",
    "m",
    "انس",
    "آسپاس",
    "ڑ",
    "چکی",
    "چم",
    "بین",
    "خور",
    "صور",
    "یکہ",
    "نےاسے",
    "طرف",
    "غل",
    "راکز",
    "مس",
    "ما",
    "بجٹ",
    "فراد",
    "̺",
    "تیل",
    "ڈری",
    "پرست",
    "طوف",
    "یق",
    "ہیں،جو",
    "تھر",
    "خلا",
    "جلد",
    "ثار",
    "شاپ",
    "تہ",
    "۔</w>",
    "واد",
    "لیہ",
    "درو",
    "کےمطابق،",
    "مق",
    "شو",
    "اڑ",
    "بدھ",
    "میل)",
    "گنگ",
    "واڑ",
    ".5",
    "ٍ",
    "تنا",
    "سپر",
    "وسیق",
    "نکل",
    "داد",
    "ہیںاور",
    "قسم",
    "بچے",
    "واہ",
    "مغربی",
    "پن",
    "ہیں،جنمیں",
    "اسکا",
    "سےایک",
    "کےم",
    "کامکیا۔</w>",
    "توآپکو",
    "پر",
    "کیاجاتاہے۔</w>",
    "یکیا",
    "وںکے",
    "یط",
    "پیم",
    "لیم",
    "بع",
    "نیور",
    "رن",
    "ہول",
    "مدت",
    "شرح",
    "سنگ",
    "تکم",
    "خطےمیں",
    "کیوجہسے",
    "جیت",
    "شین",
    "علاؤالدین",
    "پرایک",
    "اگر",
    "کرنےکیضرورت",
    "مال",
    "آئ",
    "سات",
    "سنبھال",
    "شہ",
    "خصوص",
    "B",
    "موجود",
    "سے",
    "ایسے",
    "قبائل",
    "وں،",
    "جسم",
    "جنوبیہندوستان",
    "گرفتار",
    "ہفتے",
    "ہرا",
    "تخ",
    "ایڈ",
    "بدھمت",
    "گھ",
    "کرم",
    "آٹھ",
    "®",
    "انت",
    "لگ",
    "نشان",
    "شدہ",
    "یاسکول",
    "گاؤں",
    "50",
    "کےمع",
    "والے",
    "کیادائی",
    "کےمط",
    "زور",
    "19",
    "مشہور",
    "لیے",
    "قائ",
    "قصان",
    "بینالاقوامی",
    "یہاںتککہ",
    "جاتاہے",
    "،گ",
    "اسم",
    "جاری",
    "موسیق",
    "کوان",
    "اور",
    "راد",
    "نیم",
    "کوٹ",
    "بج",
    "تری",
    "مول",
    "ٹ",
    "تاہےاور",
    "اً",
    "معمولی",
    "مسلمان",
    "90",
    "جاتاہے۔</w>",
    "کیتھی۔</w>",
    "ملک",
    "لیک",
    "درخواست",
    "در",
    "وت",
    "اتحاد",
    "º",
    "ہ",
    "صدر",
    "اورم",
    "چڑھ",
    "تاملناڈو",
    "بور",
    "کےپاس",
    "دھار",
    "دعویٰ",
    "دم",
    "عال",
    "قات",
    "آپکے",
    "پال",
    "خات",
    "193",
    "جانبسے",
    "کےف",
    "بھیم",
    "کمپ",
    "کاسامنا",
    "ائنٹ",
    "مقر",
    "تاہم،",
    "اگ",
    "تیسری",
    "ایوارڈ",
    "اہر",
    "ؑ",
    "انام",
    "مقامی",
    "دیہ",
    "دینے",
    "فوج",
    "کارپور",
    "زیر",
    "گرفت",
    "خدمت",
    "إ",
    "ہوتی",
    "اعدہ",
    "۔‏</w>",
    "جنو",
    "،اور",
    "خت",
    "کےبڑے",
    "نہرو",
    "ران",
    "فروغ",
    "ہوا۔</w>",
    "چاہ",
    "کوز",
    "یزبان",
    "20",
    "غاز",
    "،جیسے",
    "یہو",
    "مایہ",
    "حفاظ",
    "ڈیو",
    "تےتھے۔</w>",
    "یاست",
    "نےمیں",
    "ادہ",
    "دورہ",
    "ستمبر",
    "</w>",
    "کےایک",
    "خار",
    "کیاگیا۔</w>",
    "کیجاتیہے۔</w>",
    "200",
    "جاتیہے۔</w>",
    "y",
    "می",
    "s",
    "ہوسکتےہیں۔</w>",
    "صورت",
    "عام",
    "تقری",
    "صوبہ",
    "ےنے",
    "رفتار",
    "مجھ",
    "جمہ",
    "پیشکش",
    "اتھ",
    "ہے۔</w>",
    "بھارتکی",
    "حصول",
    "اے",
    "عالم",
    "نگاور",
    "انتخاب",
    "بت",
    "سٹریلیا",
    "ہوتے",
    "کےنام",
    "اگست",
    "کےسام",
    "تع",
    "جانشین",
    "ثبو",
    "اعزاز",
    "بائی",
    "اویز",
    "جویز",
    "کہ",
    "ڈیز",
    "بہتسے",
    "واقع",
    "چر",
    "انکا",
    "K",
    "تھے۔</w>",
    "بورڈ",
    "اپور",
    "ائم",
    "ظام",
    "برطانو",
    "اگلے",
    "آبادی",
    "داکار",
    "ہے،تو",
    "ى",
    "فید",
    "زی",
    "جھیل",
    "ڈیا",
    "بہتسی",
    "ط",
    "تعارف",
    "5میں",
    "80",
    "کہانی",
    "ہاس",
    "جا",
    "تے",
    "خی",
    "وںکےساتھ",
    "خودکو",
    "±",
    "پس",
    "اسبات",
    "کامن",
    "ویر",
    "نومبر",
    "یرقم",
    "ح",
    "خاص",
    "تاکہآپ",
    "خواہ",
    "،جو",
    "نےکیکوشش",
    "اسک",
    "شی",
    "خدمات",
    "روہ",
    "ریلیز",
    "بلکہ",
    "یمع",
    "بری",
    "راگ",
    "پیداو",
    "طریق",
    "کیر",
    "یہ",
    "H",
    "تمل",
    "صول",
    "زیراعظم",
    "دیکھ",
    "حال",
    "سمیں",
    "یکٹ",
    "اورنگزیب",
    "کوچ",
    "یال",
    "سکتیہے۔</w>",
    "بھارت",
    "لات",
    "نےاپنی",
    "زخ",
    "تھا",
    "ہندوستانکی",
    "نیک",
    "علاؤ",
    "ظاہ",
    "کےاو",
    "تح",
    "زندگی",
    "کیس",
    "کامیاب",
    "وش",
    "قل",
    "سبسےزیادہ",
    "طلاع",
    "اٹ",
    "ّ",
    "قبضہ",
    "یمت",
    "201",
    "شم",
    "اسلام",
    "ور",
    "حالانکہ",
    "تھا۔‏</w>",
    "بڑےپیمانےپر",
    "منتخب",
    "نش",
    "شاہ",
    "گھنٹ",
    "جائ",
    "لائی",
    "ڈیوس",
    "آخری",
    "کیاتھا۔</w>",
    "امیں",
    "لیاور",
    "ہے،جس",
    "ؔ",
    "پیچھے",
    "وںکےدرمیان",
    "ہے،اور",
    "کنڈ",
    "مری",
    "لکیشن",
    "سٹ",
    "پہ",
    "کوئ",
    "کینو",
    "تاثر",
    "کےساتھ،",
    "حصوںمیں",
    "ادر",
    "تیجےمیں",
    "زہ",
    "ڈرام",
    "کنٹرو",
    "11",
    "وار",
    "تش",
    "اہل",
    "نوٹ",
    "ابق",
    "کےسر",
    "کرتےہیں",
    "سلط",
    "منی",
    "کےساتھایک",
    "فائ",
    "کور",
    "پھر",
    "حر",
    "شہن",
    "روف",
    "یلوگ",
    "بچت",
    "ہونا",
    "جمع",
    "سود",
    "الدین",
    "چل",
    "a",
    "براہراست",
    "ﯹ",
    "اداکاریکی",
    "پرتھویراج",
    "توبر",
    "ہوئی",
    "جاریرکھ",
    "اریخ",
    "علا",
    "وہا",
    "ڈویژن",
    "اوپر",
    "بنگال",
    "ائیں۔</w>",
    "دوبارہ",
    "پروج",
    "ہے،",
    "یشتر",
    "یاں",
    "ہندو",
    "اپ",
    "چھوڑ",
    "ڑے",
    "اسلطنت",
    "عط",
    "میںپ",
    "14",
    "خد",
    "،ج",
    "روم",
    "اتکے",
    "علاق",
    "کرسک",
    "اؤں",
    "تاکہ",
    "ملیالم",
    "تقریب",
    "دھر",
    "،جوکہ",
    "q",
    "کےفاص",
    "پرمجبور",
    "b",
    "سیاح",
    "باغ",
    "بسے",
    "اگیا",
    "کوش",
    "موت",
    "وںنے",
    "کیاگیاتھا۔</w>",
    "کیاگیاہے۔</w>",
    "بیا",
    "کھا",
    "شہز",
    "قانونساز",
    "اتح",
    "ہے",
    "ہے،جو",
    "جنرل",
    "دوبار",
    "پیس",
    "کم",
    "افغان",
    "راف",
    "نام",
    "رک",
    "یکس",
    "اختیار",
    "نشاندہ",
    "حکم",
    "پیر",
    "حیدرآباد",
    "0کیدہائی",
    "رہا",
    "منصوبہ",
    "وہ",
    "لال",
    "بنے",
    "تکے",
    "دکھایا",
    "تعلیم",
    "i",
    "بنائیں",
    "ۍ",
    "کرتیہے۔</w>",
    "اتراکھنڈ",
    "آئی",
    "وںکام",
    "کاسبسے",
    "\"",
    "کھانے",
    "غذ",
    "مہاراشٹر",
    "فلم",
    "بغیر",
    "نے",
    "جودہ",
    "کلو",
    "خود",
    "حیثیت",
    "کے",
    "اچھ",
    "تاہےکہ",
    "اتکی",
    "اسطرح",
    "یقینی",
    "بھیس",
    "وقع",
    "ورز",
    "حکومتمیں",
    "نظرآ",
    "کےمقاب",
    "پورا",
    "صویر",
    "نگھ",
    "مل",
    "آہ",
    "حملہ",
    "تج",
    "مت",
    "شا",
    "2",
    "یمپئ",
    "شیر",
    "یہم",
    "کت",
    "پتنگ",
    "انےمیں",
    "ہزار",
    "‍",
    "مخصوص",
    "درجہحرارت",
    "امن",
    "ول",
    "دیش",
    "میںم",
    "18",
    "کث",
    "سطح",
    "ندری",
    "ہنگ",
    "منتخ",
    "کردہ",
    "گال",
    "میںشامل",
    "کافی",
    "شاید",
    "پر،",
    "شر",
    "اکے",
    "جدید",
    "میںاضافہ",
    "W",
    "شان",
    "کےد",
    "اسٹی",
    "گیاتھا۔</w>",
    "انسون",
    "آج",
    "کات",
    "گے۔</w>",
    "کیتش",
    "سی",
    "گجرات",
    "ہوںنے",
    "مو",
    "طویل",
    "ریل",
    "اتر",
    "صنعت",
    "کیسبسے",
    "روایت",
    "مط",
    "حیث",
    "جنوری",
    "کول",
    "لف",
    "گایا",
    "یوان",
    ":",
    "میںس",
    "زیادہتر",
    "کےطورپر",
    "سمجھا",
    "جائے۔</w>",
    "زد",
    "ژن",
    "ریلو",
    "کماز",
    "٪",
    "نمائند",
    "کرلیا۔</w>",
    "ایسا",
    "تال",
    "عالمی",
    "r",
    "لہ",
    "بتایا",
    "قت",
    "بھیکہا",
    "خواست",
    "ہےاور",
    "ہوہ",
    "ظاہرہ",
    "ہل",
    "ایسی",
    "لیگ",
    "ٹرو",
    "آرڈر",
    "اتکا",
    "ماری",
    "کردار",
    "ہےتو",
    "مپ",
    "مندر",
    "ٹیم",
    "پٹ",
    "نامزد",
    "تشکیل",
    "شاد",
    "اد",
    "تعمیر",
    "ڈر",
    "طوفان",
    "اسپر",
    "25",
    "خرچ",
    "کےطورپر،",
    "تق",
    "انگ",
    "یںاور",
    "طال",
    "ان",
    "یو",
    "ائر",
    "دے",
    "باق",
    "دیا",
    "گری",
    "ویل",
    "اتاور",
    "آبا",
    "یونانی",
    "ڑی",
    "افسر",
    "چ",
    "ونی",
    "u",
    "قم",
    "یسی",
    "کڑ",
    "جیس",
    "بد",
    "ہین",
    "گزار",
    "لان",
    "سے،",
    "احل",
    "صورتحال",
    "سےن",
    "اسنے",
    "،ایک",
    "غور",
    "ڈول",
    "ی",
    "ِ",
    "کرنےکیکوشش",
    "R",
    "جھ",
    "یلو",
    "مش",
    "عہ",
    "2020",
    "گار",
    "وف",
    "گیر",
    "ہےجسمیں",
    "یمپئنشپ",
    "فوظ",
    "قابل",
    "ہاتھ",
    "لع",
    "وڑ",
    "ٴ",
    "کئی",
    "یکو",
    "بعض",
    "بڑا",
    "مع",
    "وجہسے",
    "مغربیبنگال",
    "اورس",
    "وںکےدوران",
    "اوقات",
    "ذمہ",
    "نےکےبعد",
    "سائ",
    "طح",
    "تھیں۔</w>",
    "بنگلہدیش",
    "رام",
    "پک",
    "100",
    "غار",
    "ابتد",
    "لا",
    "؟",
    "چھوٹی",
    "ٹکر",
    "ہیں،اور",
    "سمندر",
    "کیضرورت",
    "کلومیٹردور",
    "سوچ",
    "گاڑی",
    "یافتہ",
    "10",
    "،تو",
    "ونکہ",
    "رکز",
    "ɐ",
    "انکی",
    "جاتےہیں۔</w>",
    "وقف",
    "2012",
    "گیسے",
    "9",
    "اعت",
    "آباد",
    "پوج",
    "دستاویز",
    "کیسر",
    "گر",
    "انتظ",
    "وںکےخلاف",
    "یں",
    "F",
    "قط",
    "یہندوستان",
    "کیونکہ",
    "کھنڈ",
    "پا",
    "الاقو",
    "پنجاب",
    "جاسک",
    "ہ،",
    "وںاور",
    "195",
    "تیہیں۔</w>",
    "انو",
    "<eos>",
    "حکومتنے",
    "پ",
    "تعدد",
    "یاتی",
    "آر",
    "ڈین",
    "دست",
    "ڈیش",
    "شکار",
    "ضم",
    "جنوبمیں",
    "کیےگئے",
    "جین",
    "،ت",
    "ہوتیہیں۔</w>",
    "یکا",
    "اض",
    "منحص",
    "عر",
    "کپ",
    "فتح",
    "مید",
    "ملیا",
    "لام",
    "60",
    "اکار",
    "ادائی",
    "بھی",
    "رایک",
    "تحفظ",
    "دف",
    "چھوٹ",
    "کامیا",
    "پرو",
    "بھیت",
    "تھیں",
    "شت",
    "مرک",
    "؛",
    "پیدائش",
    "اکر",
    "طاقت",
    "داز",
    "یانہ",
    "جبکہ",
    "منہیں",
    "یطرح",
    "بھال",
    "بیت",
    "درخت",
    "،یا",
    "یل",
    "گھاٹ",
    "علاقوںمیں",
    "چیر",
    "فون",
    "$",
    "بنی",
    "وادی",
    "آندھرا",
    "گئی",
    "ہواتھا۔</w>",
    "ینہ",
    "تککہ",
    "اتھا۔</w>",
    "1",
    "انگیر",
    "ناز",
    "دلچ",
    "کیموت",
    "ہوگیا",
    "کھی",
    "پرمشتمل",
    "ثابت",
    "ہری",
    "برطان",
    "۔\"",
    "حاظ",
    "نےکے",
    "کےن",
    "ہے۔‏</w>",
    "ہاؤ",
    "وریہ",
    "یام",
    "آئیا",
    "ینی",
    "گا۔</w>",
    "یاور",
    "ناکام",
    "سوار",
    "مراٹھ",
    "خریداریکر",
    "تھے،",
    "ضبوط",
    "گور",
    "ٹا",
    "،جب",
    "اکتوبر",
    "کیو",
    "عم",
    "ز",
    "گانے",
    "یہایک",
    "منصوبے",
    "تسے",
    "کرنا",
    "ٹنگ",
    "اہم",
    "کیع",
    "چاہی",
    "کرو",
    "راجستھ",
    "یشیا",
    "کٹ",
    "یا",
    "کےبیٹ",
    "ویب",
    "@",
    "،جسنے",
    "ا۔</w>",
    "کوس",
    "بالآخر",
    "کھیلا",
    "=",
    "ٹیک",
    "ینے",
    "قومی",
    "جربہ",
    "پتھر",
    "رہاہے۔</w>",
    "ه",
    "دلی",
    "محمد",
    "کےدوران",
    "جانےوالے",
    "گے",
    "مرد",
    "ریک",
    "حقیق",
    "عیس",
    "پنا",
    "مقبول",
    "انمیں",
    "افر",
    "پاک",
    "وع",
    "لڈ",
    "ہندوستانمیں",
    "مرکز",
    "ےگئے",
    "آن",
    "بہت",
    "گیا۔</w>",
    "ہیم",
    "یکارڈ",
    "واقعہے۔</w>",
    "بم",
    "عامطورپر",
    "کریڈٹ",
    "نیشن",
    "مثال",
    "€",
    "،ب",
    "منٹ",
    "ادا",
    "بھیج",
    "بھ",
    "ہرست",
    "کال",
    "وںکی",
    "نا",
    "صح",
    "0",
    "وس",
    "فرق",
    "جاریر",
    "تلاش",
    "™",
    "پتہ",
    "ادشاہ",
    "کیاجاسک",
    "روع",
    "ہکی",
    "سےزیادہ",
    "مب",
    "گم",
    "کاآغاز",
    "تا",
    "کےساتھساتھ",
    "ہوسکتاہے",
    "سلطنت",
    "قابلذکر",
    "بھگو",
    "صلاح",
    "برطانوی",
    "زکی",
    "مولی",
    "تار",
    "اسیکی",
    "بے",
    "ائیم",
    "س",
    "خطر",
    "بھارتمیں",
    "تخت",
    "تھیاور",
    "ں",
    "ضر",
    "آئے۔</w>",
    "ن،",
    "دان",
    "کرتی",
    "گلوکار",
    "آؤٹ",
    "وہم",
    "وتی",
    "گاہ",
    "ک",
    "ندر",
    "کےا",
    "وض",
    "بحال",
    "اط",
    "وں",
    "ہیں،تو",
    "چیت",
    "جور",
    "پہلا",
    "یرو",
    "انہیں",
    "جنسی",
    "طاقتور",
    "اسکے",
    "نڈر",
    "ریاستمیں",
    "ء",
    "لےکر",
    "کرتاہے",
    "نےوال",
    "بطور",
    "بھین",
    "یسال",
    "تیز",
    "g",
    "—",
    "افراد",
    ")،",
    "تحریک",
    "دارالحکومت",
    "تاریخ",
    "ریاستی",
    "کمل",
    "ہاہے۔</w>",
    "تاہے",
    "ڈال",
    "رت",
    "کنی",
    "بادشاہ",
    "طرز",
    "چان",
    "کونسل",
    "جگہ",
    "ہو",
    "کو",
    "قبل",
    "جواب",
    "خیال",
    "غیرمل",
    "ریاست",
    "مشتمل",
    "کیا۔‏</w>",
    "بیل",
    "انڈ",
    "براہر",
    "آبپاش",
    "آنند",
    "ریح",
    "ؤں",
    "کیری",
    "اث",
    "ۓ",
    "تسلیم",
    "بہ",
    "عیسوی",
    "قر",
    "انےکے",
    "تیلگو",
    "<pad>",
    "ختیار",
    "درمیا",
    "تحریر",
    "ٹیو",
    "تیج",
    "ینہیں",
    "ظ",
    "کےذریعے",
    "تین",
    "آپر",
    "دسمبر",
    "ااور",
    "ہندوستانی",
    "کےوقت",
    "امریکی",
    "پائے",
    "13",
    "بنانے",
    "انگری",
    "تبدی",
    "انڈیاکمپنی",
    "متحدہ",
    "یا۔</w>",
    "وںکےلیے",
    "26",
    "جنگلات",
    "جنر",
    "بندی",
    "تیہےاور",
    "اح",
    "بعضاوقات",
    "درا",
    "گئے",
    ";",
    "کلومیٹر",
    "شاملہیں۔</w>",
    "00",
    "اکث",
    "کیل",
    "کےپہلے",
    "دھیہ",
    "تاب",
    "پان",
    "پرواقع",
    "خاصطورپر",
    "اوجود",
    "ناگ",
    "کاایک",
    "پتر",
    "برہ",
    "منسل",
    "غال",
    "کن",
    "ہو۔</w>",
    "ہے،لیکن",
    "N",
    "Y",
    "کتہ",
    "میر",
    "ٹو",
    "ɻ",
    "اعد",
    "پید",
    "الح",
    "درم",
    "کانگریس",
    "یہہےکہ",
    "ل",
    "صیل",
    "ذہب",
    "اؤ",
    "ندو",
    "اورایک",
    "پورٹ",
    "فائل",
    "ائش",
    "معروف",
    "ین",
    "لاع",
    "آسام",
    "ن",
    "اتے",
    "جے",
    "برا",
    "دریائے",
    "ایکس",
    "راؤ",
    "پرحملہ",
    "شادی",
    "سروس",
    "این",
    "ٹائ",
    "پروڈ",
    "کےمختلف",
    "جاگ",
    "ئرا",
    "جیسے",
    "کیابت",
    "جیا",
    "کےباوجود",
    "آمدنی",
    "معلوم",
    "حاصل",
    "کرسکتےہیں",
    "شع",
    "6",
    "کہا",
    "توجہ",
    "وںتک",
    "پہاڑ",
    "اترا",
    "سکر",
    "پور",
    "دید",
    "بڑ",
    "کیطرفسے",
    "تےہیں،",
    "ہوتاہے۔</w>",
    "تمام",
    "بعدمیں",
    "ائ",
    "ہدایتکار",
    "آغاز",
    "پیرو",
    "کرکے",
    "قدام",
    "ذریعہ",
    "کردارادا",
    "ہر",
    "500",
    "آب",
    "یک",
    "،جنمیں",
    "رون",
    "یںگے۔</w>",
    "آیا",
    "ریق",
    "رز",
    "16",
    "ی،",
    "گھریلو",
    "ٌ",
    "باہر",
    "آئین",
    "کامیابی",
    "کےبارےمیں",
    "وںمیںسےایک",
    "ویںصدی",
    "؟</w>",
    "17",
    "خرید",
    "فی",
    "زکے",
    "برہم",
    "سائیکل",
    "بادل",
    "نگانہ",
    "گجر",
    "کےنتیجےمیں",
    "یسٹ",
    "اص",
    "خیز",
    "ﯾ",
    "چھتیس",
    "ماح",
    "وںپر",
    "تھا،",
    "باً",
    "پروڈیوس",
    "سےمل",
    "پرس",
    "ہےکہ",
    "-",
    "سام",
    "نشپ",
    "غان",
    "سٹی",
    "ا",
    "ہا",
    "بک",
    "کریں",
    "تل",
    "دیکھبھال",
    "کرناپڑ",
    "راجپو",
    "′",
    "کیطرح",
    "آفانڈیا",
    "بھید",
    "ندہ",
    "تس",
    "کردیاگیا۔</w>",
    "واحد",
    "اسکر",
    "’",
    "ٓ",
    "چاہیے",
    "جاتا",
    "ہٹ",
    "اکثر",
    "سرنگ",
    "اندر",
    "یمقام",
    "ائل",
    "انسٹ",
    "بھیا",
    "منیپور",
    "اورپ",
    "30",
    "گزر",
    "کےلیے",
    "انکار",
    "بھر",
    "کروڑ",
    "دہ",
    "نےسےپہلے",
    "یت",
    "(",
    "½",
    "کےب",
    "اسمیں",
    "/",
    "جنگ",
    "الو",
    "z",
    "با",
    "12",
    "یکار",
    "اسی",
    "یکاایک",
    "جاتاتھا",
    "ام",
    "وںمیں",
    "ےکے",
    "ازت",
    "اسمبلی",
    "آس",
    "ٹم",
    "متاثر",
    "یریاست",
    "کمی",
    "طورپر",
    "پیش",
    "پیسے",
    "مبنی",
    "ہوگئے",
    "دیاگیا",
    "اہی",
    "شمالیہندوستان",
    "تیر",
    "پہلی",
    "اناور",
    "لاک",
    "کرنےاور",
    "یسے",
    "شیو",
    "گاہک",
    "ہیںجو",
    "مکن",
    "ولا",
    "شکست",
    "M",
    "ي",
    "خریدار",
    "یمس",
    "مثالکےطورپر،",
    "صوبے",
    "ینو",
    "دوران",
    "ضرور",
    "بنایا",
    "یہفلم",
    "سڑک",
    "نےکی",
    "w",
    "یونیور",
    "رین",
    "پریم",
    "گہر",
    "گئ",
    "ہدایت",
    "جاتے",
    "بانی",
    "U",
    "دام",
    "کررہے",
    "ہندوستانکے",
    "کیگئی",
    "وج",
    "آز",
    "یدھ",
    "پو",
    "کردیاگیا",
    "کثر",
    "بڑی",
    "نگر",
    "کیاگیا",
    "یسر",
    "سےنواز",
    "%",
    "قدر",
    "اسباتکو",
    "پردیش",
    "سیاحت",
    "شیاء",
    ")اور",
    "رائے",
    ".",
    "تر",
    "کیج",
    "مقرر",
    "ترقی",
    "گز",
    "2میں",
    "کےلیےایک",
    "کان",
    "دوسر",
    "ناور",
    "اکی",
    "منظم",
    "خون",
    "ائیاور",
    "نیا",
    "یایک",
    "لکی",
    "وہاں",
    "تام",
    "مزید",
    "پوس",
    "لیکن",
    "جاتاہےاور",
    "ڈیم",
    "یلی",
    "جاتاہے۔‏</w>",
    "وںسے",
    "کےساتھ",
    "تعد",
    "صحت",
    "صلاحیت",
    "نیچے",
    "ضلعکے",
    "ائے۔</w>",
    "نتیجےمیں",
    "ذر",
    "فرانس",
    "پڑ",
    "ناف",
    "چین",
    "واضح",
    "مارچ",
    "شاہی",
    "اصل",
    "l",
    "دریا",
    "ویکی",
    "اضاف",
    "مدد",
    "اہ",
    "جاتاہے،",
    "بندر",
    "پانڈیا",
    "−",
    "یایشیا",
    "آؤ",
    "اپر",
    "ہےجو",
    "تعداد",
    "خشک",
    "​",
    "واپس",
    "آ",
    "ہن",
    "درمیان",
    "3",
    "ناگالینڈ",
    "خوش",
    "خراجات",
    "لینڈ",
    "،جسے",
    "جذ",
    "رس",
    "دربار",
    "طرفسے",
    "زاور",
    "نکال",
    "تےہیں۔</w>",
    "کرنےسے",
    "زبان",
    "ساس",
    "₹",
    "گو",
    "ایشیا",
    "قدی",
    "علاقے",
    "ہوا",
    "کیش",
    "چھ",
    "کےت",
    "شل",
    "…",
    "ماعت",
    "[",
    "وںکیایک",
    "قیادت",
    "اک",
    "جم",
    "ضرورت",
    "حساب",
    "پران",
    "P",
    "،م",
    "ع",
    "بھائی",
    "اخ",
    "خودمخت",
    "تعلی",
    "کےبہ",
    "کمپن",
    "میںواقعہے۔</w>",
    "بھار",
    "خاندان",
    "ٹمیں",
    "نور",
    "کےبار",
    "ار",
    "صر",
    "کیریئر",
    "ند",
    "اق",
    "ائیا",
    "چھتیسگڑھ",
    "ﷺ",
    "ری",
    "وٹ",
    "ئر",
    "آپکو",
    "استع",
    "نیل",
    "لوگ",
    "بھو",
    "خلاف",
    "انےکےلیے",
    "عرصے",
    "داخل",
    "پارک",
    "کیاور",
    "نےاور",
    "مرکزی",
    "اسمب",
    "قلع",
    "تحری",
    "ائد",
    "دوسری",
    "کاف",
    "کارکرد",
    "پارٹ",
    "سمجھ",
    "مد",
    "رانی",
    "قسمکے",
    "آواز",
    "کےکن",
    "5",
    "کےلحاظسے",
    "رکن",
    "تیم",
    "انکیا",
    "پولیس",
    "اڈ",
    "سفر",
    "دہلی",
    "حق",
    "منتقل",
    "یس",
    "درست",
    "مخت",
    "1,",
    "انہوںنے",
    "حدود",
    "اسوقت",
    "۔",
    "گا",
    "ائیڈ",
    "ہیں",
    "جوآپ",
    "لوم",
    "ڈو",
    "ہوسکتیہے۔</w>",
    "گیاہے۔</w>",
    "کہآپ",
    "ہوتیہے۔</w>",
    "چو",
    "جسمیں",
    "علاقہ",
    "بجلی",
    "تکر",
    "ے،",
    "منگ",
    "نیپال",
    "میچ",
    "کہاجاتاہے۔</w>",
    "ہیںتو",
    "زند",
    "جوہ",
    "ہتھ",
    "گان",
    "سیریز",
    "جود",
    "قصد",
    "پورے",
    "پانچ",
    "کز",
    "کاری",
    "چکے",
    "ارت",
    "معاش",
    "ویں",
    "Q",
    "تکی",
    "لوگوںکو",
    "پنے",
    "برف",
    "وںکیا",
    "⁄",
    "تھےاور",
    "وسیع",
    "ورٹ",
    "نک",
    "الحکومت",
    "بیٹ",
    "وین",
    "زیادہسےزیادہ",
    "ختم",
    "پرت",
    "میز",
    "اون",
    "صف",
    "فوراً",
    "برقرار",
    "فور",
    "بس",
    "وںکو",
    "اتین",
    "سال",
    "صدیق",
    "لوٹ",
    "روز",
    "ریکارڈ",
    "قتل",
    "فروری",
    "d",
    "تفریح",
    "انڈیا",
    "ضروری",
    "کیبنیاد",
    "بیڈ",
    "ویٰ",
    "گرد",
    "ترکھ",
    "ۂ",
    "َ",
    "شکر",
    "انداز",
    "نڈ",
    "آبو",
    "عوام",
    "پیمانے",
    "سکے",
    "سےنکل",
    "یات",
    "198",
    "سکتےہیں۔</w>",
    "ےکی",
    "‏یہ",
    "ب",
    "ترق",
    "بہتری",
    "گڑھ",
    "جسے",
    "وہایک",
    "انین",
    "کاتع",
    "صورتح",
    "شیا",
    "بیم",
    "گرا",
    "اعلی",
    "چلا",
    "م",
    "اتمیں",
    "پایا",
    "ےپر",
    "نم",
    "ہوتاہے،",
    "توقع",
    "ویژن",
    "خاند",
    "ثر",
    "گلو",
    "جنمیں",
    "ابتدائی",
    "لس",
    "سکھ",
    "انہ",
    "نوع",
    "زمیں",
    "یکر",
    "ٹیسٹ",
    "ارہ",
    "آنکھ",
    "سنس",
    "اٹھ",
    "طف",
    "آبی",
    "کےسبسے",
    "بھارتی",
    "تربیت",
    "اورب",
    "کیا،",
    "منتق",
    "کرنےکےلیے",
    "ہےجسے",
    "کیدہائی",
    "21",
    "نئی",
    "پلی",
    "حمایت",
    "اورنگ",
    "یلا",
    "یںگے",
    "پیشہور",
    "تاہے،",
    "ش",
    "دستیاب",
    "عظیم",
    "تیہے۔</w>",
    "شریک",
    "قو",
    "ضہ",
    "تیس",
    "f",
    "خال",
    "نی",
    "شخص",
    "مسلم",
    "یاری",
    "محیط",
    "الہ",
    "وںکا",
    "لداخ",
    "تیزیسے",
    "ماحول",
    "کےل",
    "فاظ",
    "S",
    "ادی",
    "پد",
    "آگے",
    "ریکی",
    "لیکنو",
    "انگریز",
    "ضاف",
    "زر",
    "کاحصہ",
    "پاب",
    "صحی",
    "کہاکہ",
    "ڈا",
    "میںسے",
    "شمول",
    "ائن",
    "ارد",
    "صارف",
    "حدتک",
    "بہترین",
    "بھاج",
    "علاقےمیں",
    "اسے",
    "دت",
    "فنتعمیر",
    "عمل",
    "لیکنا",
    "وجہ",
    "طل",
    "واب",
    "صد",
    "اعلیٰ",
    "+",
    "شدید",
    "بہار",
    "پڑھ",
    "تک",
    "مکی",
    "T",
    "گول",
    "چھوٹے",
    "تب",
    "کیعمر",
    "فنکار",
    "،"
  ],
  "special_tokens": [
    "<unk>",
    "<pad>",
    "<sos>",
    "<eos>"
  ]
}